</S>
the
,
.
of
to
and
a
in
is
for
&apos;
&quot;
The
that
on
with
you
)
(
:
are
be
s
as
it
by
or
-
I
from
/
not
have
this
an
will
your
at
was
can
has
?
we
which
all
In
about
It
their
our
more
been
one
also
t
its
This
they
time
but
A
other
1
do
We
he
who
may
if
his
were
no
there
You
use
people
;
&gt;
than
!
any
new
2
If
out
only
them
›
information
when
so
what
most
first
should
like
us
up
my
years
would
into
...
very
such
had
these
-@@
address
3
%
said
used
work
Canada
two
For
between
need
make
world
over
me
some
last
how
–
well
day
&amp;
where
know
different
10
many
way
see
There
He
want
re@@
must
after
year
just
her
4
m
get
&#124;
made
able
through
good
take
S@@
5
find
number
help
And
because
un@@
life
then
system
each
part
same
What
data
name
best
similar
T@@
They
K@@
in@@
now
even
those
B@@
But
Home
important
To
following
could
P@@
under
i
N@@
place
IP
right
re
without
As
D@@
G@@
country
before
order
water
being
she
main
M@@
F@@
during
don
$
does
United
available
&#93;
&#91;
o
6
home
.com
end
registered
products
European
All
go
11
here
own
k@@
him
days
including
R@@
H@@
services
C@@
possible
E@@
ing
per
support
children
free
States
much
When
development
A@@
L@@
service
s@@
New
ed
de
room
case
12
W@@
countries
7
d@@
found
area
process
man
How
Our
back
both
public
health
within
provide
er
around
high
8
V@@
three
next
product
2018
20
y@@
n@@
government
am
O@@
little
against
every
set
—
al@@
With
p@@
long
body
business
records
t@@
think
»
company
30
since
using
At
while
hours
access
women
y
h@@
ers
m@@
always
On
c@@
example
still
e@@
city
small
i@@
es
By
based
site
great
international
an@@
o@@
change
family
ation
These
b@@
ve
quality
f@@
I@@
better
person
did
less
J@@
full
d
ate
today
age
human
15
C
large
determine
level
However
months
online
B
en@@
al
power
minutes
0
France
few
God
z@@
means
g@@
look
Data
Do
total
come
form
house
private
necessary
Your
shall
often
Canadian
result
on@@
social
u@@
•
million
market
That
too
say
give
search
Z@@
results
control
research
device
group
ll
going
9
v@@
No
another
er@@
down
offer
ar@@
located
e
several
love
de@@
list
law
bus
view
experience
working
light
project
a@@
j@@
manual
Europe
become
km
page
So
amount
second
done
U@@
open
en
updated
l@@
ted
already
least
dis@@
domain
Note
never
4@@
price
future
x
rights
activities
food
S
Commission
50
national
quite
energy
according
needs
period
+
3@@
5@@
living
r@@
sale
management
website
China
state
w@@
100
care
type
point
things
18@@
ch@@
local
include
course
program
provided
conditions
25
really
24
contact
D
2019
report
lot
She
Y@@
economic
members
security
‘
risk
assigned
users
World
es@@
property
6@@
ensure
ad@@
After
specific
real
times
team
old
offers
start
7@@
member
Re@@
game
something
Council
called
application
child
user
put
addition
French
problems
personal
together
problem
areas
Unable
8@@
design
side
ated
One
International
hosted
present
financial
companies
why
flight
at@@
am@@
is@@
known
treatment
fact
ating
US
certain
increase
until
el@@
away
ab@@
common
x@@
given
community
n
stay
or@@
th@@
men
www.@@
National
*
natural
2013
9@@
ac@@
required
18
car
live
air
di@@
13
le@@
u
create
14
study
various
L
k
.@@
daily
EU
line
X@@
2@@
whether
T
ts
contains
off
production
near
as@@
M
particular
show
plan
bit
young
policy
current
shows
non-@@
16
taken
st@@
related
im@@
ti@@
special
book
others
due
List
analysis
parts
g
location
heart
ting
play
An
industry
Al@@
cost
March
making
close
looking
value
having
oil
space
sure
building
among
Is
Google
feel
above
action
2017
In@@
ic@@
sh@@
region
let
P
again
con@@
key
account
money
40
Committee
field
role
ine
enough
land
technology
believe
training
general
read
co@@
position
ar
American
ro@@
Find
continue
Africa
history
IPv6
ever
environment
red
€
beautiful
major
provides
e-@@
question
four
especially
political
share
President
17
cannot
thing
keep
works
cases
F
category
b
Black
it@@
issues
global
X
simple
19@@
further
visit
might
ia
effect
li@@
hand
growth
ly
range
ag@@
easy
protection
ant
Some
ist
em@@
month
top
week
ol@@
third
E
systems
Germany
below
makes
left
My
school
rate
distance
understand
material
rooms
text
Hotel
Government
ations
State
review
te@@
everything
May
white
hotel
past
l
Minister
op@@
art
ic
University
South
Homepage
meet
allow
June
database
Health
directly
O
whole
09
temperature
says
interest
once
improve
added
size
1@@
Mar@@
education
skin
changes
21
R
Information
try
yet
buy
five
comes
decision
From
TV
Products
Act
rent
technical
content
2016
file
learn
Women
date
legal
el
ap@@
equipment
event
doesn
designed
determined
activity
respect
terms
Union
network
taking
General
across
pay
February
North
longer
far
ability
measures
yourself
situation
2015
22
held
call
0@@
weight
low
office
popular
language
projects
ent
z
created
Why
places
complete
groups
et
effective
c
meeting
students
associated
choose
os@@
ons
therefore
N
December
nature
cause
Here
allows
His
ates
fully
ri@@
face
front
trade
sector
early
le
model
safety
disease
19
sites
Ch@@
night
resources
knowledge
om@@
later
considered
computer
table
levels
head
blood
America
First
2020
led
includes
10@@
se@@
strong
Now
receive
ans
test
tions
ticket
artists
customers
p
ism
questions
friends
along
software
doing
developed
MX
performance
impact
subject
woman
id@@
il@@
average
single
ter
ur@@
travel
pro@@
phone
music
black
More
received
cm
kitchen
seen
solution
pressure
ul@@
war
23
opportunity
section
According
January
hard
ways
operation
mm
City
be@@
basis
h
individual
clear
additional
follows
took
26
ago
told
video
os
Paris
G
ous
Member
Q@@
difficult
ings
types
stop
details
responsible
method
media
usually
September
tell
nothing
July
Most
professional
bed
potential
Group
train
likely
Con@@
28
requirements
develop
almost
K
features
son
population
th
2014
takes
return
itself
lead
V
percent
October
series
W
April
Ar@@
color
please
medical
kind
needed
effects
Category
death
pool
31
leave
floor
ec@@
outside
Other
materials
s.com
ot@@
events
agreement
apply
pre@@
60
particularly
society
Israel
inter@@
step
request
bring
however
00
choice
machine
Article
Mr.
ing@@
ies
uses
significant
essential
Weather
party
_
issue
sp@@
See
active
surface
center
ask
Then
words
apartment
modern
unique
Of
currently
original
came
House
ou@@
source
.org
force
weather
als
board
Development
true
idea
reduce
direct
got
Since
job
reason
rest
Free
involved
purpose
rules
soon
century
lives
ian
programs
approach
map
half
November
°
An@@
English
higher
established
perfect
style
matter
27
accommodation
costs
ator
Are
organization
ance
appropriate
,000
protect
beginning
White
record
parties
big
recent
short
hotels
military
hair
lo@@
term
ors
distributed
Car@@
sea
safe
won
tr@@
included
benefits
either
didn
lower
authorities
version
Next
Sh@@
ity
Each
purchase
increased
points
evolution
investment
started
17@@
bi@@
server
workers
quickly
der
published
Not
mind
High
add
upon
everyone
se
PR
2012
01
enjoy
wide
ex@@
Internet
si@@
easily
someone
tax
born
anything
ratio
station
thus
wood
visits
par@@
economy
tools
Air
themselves
bl@@
us@@
Services
Spain
structure
over@@
ed@@
Republic
um
guide
asked
communities
physical
Can
Many
While
image
basic
La
um@@
nearby
ne@@
climate
ton
recommended
ir@@
gas
90
per@@
moment
organizations
Usa
oc@@
ness
lost
qu@@
sent
largest
throughout
prevent
via
prices
Board
reach
Pharmacies
™
Search
thought
turn
Pro@@
sub@@
Nations
Online
attention
capacity
peace
Ex@@
et@@
29
customer
August
Please
county
ent@@
digital
tic
capital
ren@@
relationship
trip
connection
move
hope
drive
12@@
function
act
Bar@@
Jesus
During
Chinese
entire
download
Hotels
avoid
film
official
cultural
solutions
invention
built
Russia
billion
Saint-@@
culture
elements
patients
written
16@@
35
practice
African
environmental
Best
t-@@
forms
tion
loss
bathroom
U.S.
DNS
ten
Research
carried
employees
2010
05
check
En@@
ence
news
card
rather
ally
20@@
ph@@
Get
ver@@
goods
Italy
les
article
became
Be@@
completely
presence
condition
res@@
documents
town
Court
Be
staff
ig@@
wanted
Lawyers
studies
games
Mon@@
devices
weeks
ak@@
described
mean
operations
coming
plant
ma@@
vi@@
immediately
ha@@
80
garden
starting
ground
Download
leading
visitors
run
Quebec
word
six
simply
cover
class
cl@@
email
Ontario
15@@
commitment
note
to@@
build
ment
document
RE@@
pl@@
standard
2011
«
applications
Office
glass
construction
accordance
y-@@
implementation
West
200
v
went
ones
remove
flying
response
foreign
mon@@
green
searches
towards
reasons
limited
British
partners
1.@@
focus
final
cheap
Co@@
graph
walk
Use
efforts
Service
watch
positive
East
story
2008
box
follow
stage
Men
forward
Today
me@@
success
John
road
shown
benefit
standards
bo@@
cities
steel
developing
mobile
code
king
link
variety
base
Y
remain
Church
no@@
whose
regional
parents
H
regarding
processes
ready
for@@
inside
he@@
People
ad
actions
U
pain
properties
providing
greater
send
500
expected
self-@@
relevant
User
paper
movement
wall
II
happy
ter@@
methods
IN@@
ina
supply
Let
est
sales
Keyword
police
centre
consider
institutions
York
Centre
Red
talk
and@@
res
ard
Thus
ob@@
car@@
steps
though
route
end@@
states
perform
mother
traditional
ized
payment
HTML
individuals
equipped
equal
central
Public
Open
season
wish
Human
2006
sc@@
Th@@
gives
paid
commercial
communication
ins
man@@
ding
evidence
policies
14@@
charge
Bank
deal
Department
holiday
a-@@
ie
persons
2009
Le@@
skills
2007
serious
screen
rates
solve
ge@@
previous
require
federal
selected
ds
remains
#
summer
hands
70
metal
r
strategy
13@@
bad
ators
connected
began
families
la
query
option
enter
models
baby
2000
geographically
ise
sense
Ad@@
av@@
German
ice
45
manufacturer
vehicle
exchange
tool
Day
goal
transfer
mis@@
bedroom
ology
former
existing
Russian
De@@
actually
complex
Once
learning
Park
ary
PC
statement
mar@@
damage
files
options
Di@@
ative
Management
purposes
sustainable
cut
suitable
claim
Blue
drug
clean
brand
2005
ics
allowed
Supermarkets
San
tri@@
ks
USA
speed
Therefore
the@@
cooperation
ST@@
London
forces
War
maximum
applied
opportunities
Par@@
achieve
ra@@
worth
maintain
collection
cancer
values
sometimes
Community
mission
performed
progress
alone
id
fight
store
worked
Parliament
promote
unit
heat
views
getting
32
responsibility
Security
credit
ship
delivery
answer
Ro@@
anti-@@
trans@@
normal
forecast
cells
healthy
operating
Product
mo@@
violence
Director
Even
save
ens
web
caused
electric
te
.dll
transport
understanding
annual
independent
LED
morning
Bo@@
behind
income
ants
tes
Convention
species
bar
decided
Also
cent
reference
internal
element
concerning
appear
facilities
reported
produced
write
father
ke
Private
begin
hour
hold
q@@
growing
eyes
message
beach
gu@@
sts
fish
ep@@
trying
storage
URL
0.@@
ideal
doctor
processing
else
difference
ite
challenges
UK
Because
factors
useful
maintenance
1-@@
Un@@
f
overall
fire
blue
presented
importance
Don
proposed
plants
marriages
partner
ve@@
fall
lack
comfortable
ta@@
laws
Although
creation
freedom
pe@@
helps
24@@
functions
citizens
Where
DMOZ
consumption
2.@@
double
Food
ang@@
ay
Buy
giving
Christ
patient
ical
Before
Canadians
industrial
plans
Agency
fuel
Light
contract
Rights
prepared
crisis
recently
Trade
funding
St@@
aircraft
For@@
court
door
UN
defined
etc.
referred
wear
click
journey
president
offered
ati@@
excellent
ut@@
50@@
engine
2004
a.com
Its
programme
é
produce
iz@@
Water
Cor@@
30@@
generally
press
Business
status
reports
requires
employment
latest
bank
procedure
Who
re-@@
AC@@
decisions
markets
ah
regions
ana
saw
practices
Lord
tickets
str@@
36
thanks
Japan
2-@@
é@@
eat
flights
seems
remember
opening
48
announced
kids
s-@@
chance
Central
assistance
ality
Accessories
AN@@
.info
approximately
covered
ages
internet
stone
Institute
ying
rental
diseases
India
clients
Se@@
serve
rec@@
context
friend
Green
interested
framework
met
late
concerned
committed
fl@@
Kingdom
Contact
probably
Party
direction
lines
2003
View
platform
ber@@
release
ge
ion
wants
famous
warm
images
Social
ale
ters
symptoms
Previous
identify
AS@@
interests
sign
degree
out@@
competition
exercise
mer@@
highly
co-@@
majority
ize
placed
manuals
items
3-@@
ish
insurance
02
ka
up@@
isn
Company
under@@
Mo@@
player
discover
stock
CO@@
lose
display
affected
Per@@
girl
ty
Just
tive
comp@@
compared
42
Only
obtained
opinion
successful
ling
technologies
selection
animals
carry
becomes
ste@@
regard
village
goes
intended
leaders
advantage
ker
ill@@
il
shape
gh@@
rich
38
scientific
brought
adopted
players
bedrooms
budget
Montreal
sources
win
des
length
anti@@
flow
components
accessories
cold
Two
external
af@@
himself
electronic
hot
Program
attack
lawyers
der@@
Me@@
IS@@
Yes
su@@
ically
System
minimum
noted
dry
Sch@@
planning
al-@@
ch
34
33
gr@@
background
estate
--
province
brain
nice
st
science
powerful
memory
sleep
Windows
au@@
Read
balance
Sp@@
provisions
we@@
reality
stand
civil
truth
piece
ma
anyone
Well
sell
vision
ties
career
signed
Am@@
installed
continued
recommend
40@@
marketing
Dis@@
ley
swimming
changed
separate
C-@@
select
depending
houses
d-@@
app
meters
ach@@
Can@@
AD@@
legislation
Every
ip@@
cars
06
Gu@@
heard
released
park
Art
assessment
ev@@
03
formed
increasing
Law
demand
az@@
battery
br@@
creating
25@@
El@@
300
parking
ists
drugs
04
businesses
authority
ful
UN@@
ov@@
ideas
aware
closed
AT@@
Part
75
IS
3.@@
sk@@
Games
08
Car
Sal@@
gl@@
winter
generation
multiple
fast
mental
plastic
speak
AL@@
criteria
conflict
rule
Children
photos
jobs
photo
Museum
2001
o-@@
Ne@@
books
regular
Ab@@
Tr@@
risks
ol
fun
CH@@
po@@
properly
y.com
grow
distribution
prior
island
identified
2002
liquid
.net
layer
Back
sound
movie
primary
Power
Steel
00@@
reached
ass@@
procedures
gave
gold
Dr.
played
Mc@@
interesting
Man@@
He@@
highest
Family
tu@@
ends
reduced
animal
principles
do@@
07
ho@@
letter
strength
Ma@@
terrace
Association
bu@@
saying
fresh
on-@@
innovation
beyond
traffic
44
AR@@
listed
phase
1,@@
completed
la@@
manner
Policy
shared
Asia
41
writing
Airport
governments
leader
port
ville
er-@@
spend
ay@@
funds
died
notice
owner
bar@@
advice
Federal
ang
infrastructure
chemical
Have
sexual
sw@@
60@@
languages
Center
ah@@
dog
ten@@
aid
School
session
ke@@
Australia
examples
ra
participants
MO@@
Facebook
although
tour
ari@@
Color
Shoes
ves
trust
3D
professionals
manufacturers
Earth
object
cable
Artist
Western
obtain
Sale
lawyer
causes
ir
sports
print
Ac@@
THE
LE@@
regulations
Or@@
girls
col@@
conference
Take
Q
vehicles
accept
pharmacies
37
possibility
dedicated
contribute
4-@@
numbers
Affairs
Mal@@
sal@@
host
restaurant
committee
agree
influence
ml
supported
manage
motor
happen
clearly
volume
followed
Guide
shower
izing
hear
Paul
poor
ms
thousands
gets
installation
airport
kept
tics
religious
inc@@
researchers
coffee
waste
IC@@
mainly
wa@@
church
applicable
instead
ats
touch
affect
in-@@
ents
den@@
experts
thematically
Bl@@
bag
gen@@
innovative
monitoring
Br@@
ring
23@@
ads
5-@@
extremely
contain
meaning
dr@@
ization
wine
served
55
continues
sex
critical
principle
ne
diet
driver
cell
button
correct
Top
resolution
drink
etc
if@@
Conference
issued
ide
manager
student
Great
m2
Such
justice
Special
ane
Music
effort
playing
Agreement
US@@
Global
Bi@@
challenge
Christian
strategic
guests
administration
ER@@
profile
instructions
sun
killed
character
co
ded
leaves
felt
negative
tips
Regulation
prepare
Spanish
mass
treated
acid
Name
og@@
goals
ised
approved
worldwide
Har@@
min@@
Iran
sold
Cheap
categories
recommendations
4.@@
w
ino
youth
Ver@@
thinking
Assembly
uc@@
target
Report
dining
picture
setting
Italian
protected
seven
schools
nuclear
Mor@@
huge
circumstances
earth
integrated
myself
path
pre-@@
long-term
relations
RO@@
Qu@@
pieces
wrong
cor@@
measure
bandwidth
NS
couple
News
pages
birth
amp@@
joint
St.
minute
rise
enable
agencies
hospital
da
window
wife
EN@@
establish
efficient
urban
ES@@
Economic
limit
objectives
els
tic@@
nearly
ys@@
35@@
opened
campaign
partnership
com@@
=
participate
ging
ry
task
happens
ow@@
secure
names
®
faith
knew
composition
objective
Island
ON
ering
figure
Col@@
agreed
fe@@
ure
IT@@
Turkey
links
participation
combination
ning
reading
43
ches
die
ade
advance
Education
ended
iti@@
consists
King
automatically
conducted
director
mode
track
colors
divided
26@@
Code
zone
Team
que
forget
resistance
ments
concerns
Ministry
ines
Android
client
ns
exist
concept
99
5.@@
easier
appears
aim
Gr@@
apartments
28@@
certainly
knows
deep
Cal@@
concern
recognized
units
whom
exactly
000
47
CA@@
Life
Plan
dream
Another
happened
Li@@
nation
acts
Or
net
Z
appearance
Price
furniture
Their
Any
Bur@@
e.g.
notes
Pl@@
ES
failure
frame
Her@@
ou
wait
guarantee
occur
recognize
post
ano
looks
shop
automatic
launched
cr@@
bodies
efficiency
95
bottom
round
iting
ler
mentioned
running
27@@
About
stated
housing
Japanese
domestic
ets
beauty
EC
entered
Go@@
tor@@
comments
Christmas
honor
OF
voice
advanced
talking
aw@@
changing
stress
comm@@
eye
welcome
Middle
sion
territory
Apple
fabric
Bel@@
characteristics
fields
AP@@
paragraph
David
na
TO
6-@@
39
proper
Trump
guidelines
Min@@
scale
IP@@
detailed
Te@@
except
ak
street
pass
fruit
heating
reduction
yl@@
ial
outdoor
Large
ai
ey
dead
star
finally
ud@@
i.e.
break
fine
Add
ac
master
Make
feeling
USD
ational
IN
ze
accessible
micro@@
IPv4
MA@@
tree
networks
signal
Québec
Over
restaurants
seem
emergency
Val@@
copy
arrival
Beach
ER
Video
buildings
Le
ked
46
Last
Subject
fear
Watch
initiative
aspects
1999
ant@@
dark
Prime
decide
nor
middle
Manual
calls
tor
Year
65
400
offering
E-@@
hi@@
ery
adults
ble
iv@@
Street
gi@@
Table
interior
Switzerland
chosen
labour
our@@
No.
attacks
band
practical
spent
Set
gift
depends
extra
join
Sunday
Inter@@
ash@@
carbon
Israeli
register
my@@
sky
Executive
core
taste
150
conduct
estimates
Series
wrote
indicated
department
ur
combined
Machine
origin
Com@@
dangerous
expect
6.@@
Ber@@
Style
chain
Foundation
comfort
articles
alternative
7.@@
Science
moving
agent
AND
sl@@
experiences
experienced
La@@
go@@
cul@@
female
Saint
bands
walls
friendly
SE@@
historical
Po@@
Sea
collaboration
fat
No@@
discussion
identity
Type
Show
numerous
privacy
contribution
80@@
Pre@@
Energy
SP@@
linked
22@@
fit
Lake
election
dictionary
signs
England
²
Syria
spring
treat
can@@
residence
Results
shoes
ann@@
forest
ica
era
supports
tests
sectors
ological
Good
cycle
otherwise
agency
informed
bur@@
specifically
increases
accepted
spread
arms
dec@@
e.com
submitted
7-@@
tried
evaluation
alism
Case
organized
priority
feature
Room
victims
destination
corresponds
Vi@@
evening
definition
raised
ot
representative
represents
border
fixed
all@@
Belgium
initial
est@@
Tri@@
S-@@
sive
race
camera
objects
Will
claims
Royal
ening
Safety
proud
Book
medicine
Real
Finally
milk
atmosphere
Technology
che@@
earlier
ner
advertising
ate@@
named
organic
sufficient
introduced
tea
Project
leadership
ile
aff@@
acy
requested
registration
Box
entrance
Du@@
ement
imp@@
Under
availability
SO@@
relating
Jewish
Master
teams
expertise
io
Thanks
factory
LI@@
seek
ya
Apartment
od@@
Sports
J
initiatives
officials
Holiday
removed
ars
Ge@@
gain
Hol@@
Cl@@
agreements
improved
radio
Greece
Su@@
significantly
wind
ess@@
integration
supporting
Companies
solid
replacement
passed
feet
Quality
MB
controlled
ier
sugar
pr@@
authors
portion
eight
spirit
foot
permanent
turned
aged
representatives
encourage
fundamental
51
manufacturing
collected
County
extent
Fund
soft
sets
reviews
filter
ire
52
sharing
49
du
expensive
waiting
cookies
sheet
real@@
threat
As@@
represent
height
del@@
Palestinian
ik@@
8-@@
suppliers
Which
29@@
lived
are@@
respond
Mac@@
ther@@
therapy
criminal
45@@
dnstoolkit.net
Washington
meetings
lights
cur@@
plate
leads
quiet
connect
Network
ran@@
ish@@
Holy
work@@
testing
Gold
frequency
estimated
investigation
creative
desire
edge
boat
DE@@
History
au
firm
Mexico
impossible
consumers
River
deliver
managed
200@@
panel
air@@
focused
visited
ID@@
ca@@
Brazil
Friday
ta
unless
Lo@@
Size
delivered
ci@@
Protection
high-@@
ING
banks
previously
vote
RA@@
walking
upper
contained
Samsung
becoming
Design
shopping
consequences
implement
resulting
square
Like
8.@@
television
install
fluid
Natural
behalf
allowing
eg@@
Digital
employee
detail
FOR
rel@@
artist
Sol@@
ell@@
strengthen
effectively
expressed
aries
ancient
containing
CE@@
reliable
capable
AL
53
mark
founded
HD
compliance
kg
sur@@
Pe@@
techniques
Indian
Leather
description
author
ser@@
aims
achieved
ub@@
1998
hom@@
....
tur@@
driving
del
di
Travel
ising
tion@@
Er@@
planet
ths
AM@@
Bay
preparation
handle
promotion
meets
situations
regularly
trial
update
pol@@
forced
fair
stories
proposal
We@@
dress
improving
ear@@
A-@@
title
lin@@
collect
100@@
crime
ME@@
Page
assets
boy
ong@@
Pro
larger
fashion
musicians
Justice
ore
ill
administrative
comprehensive
lighting
ff@@
flowers
warranty
Small
ash
cleaning
provincial
tly
pri@@
Both
om
fr@@
launch
Monday
thank
des@@
homes
severe
biggest
cards
ast@@
Popular
ber
ver
foods
Control
weapons
Ottawa
existence
Action
Financial
wasn
ess
Mr
regulatory
greatest
mor@@
district
positions
pi@@
tors
medium
du@@
establishment
ide@@
truly
implemented
poverty
Bal@@
educational
consumer
meat
SC@@
LO@@
Silver
labels
awareness
Site
ong
component
Her
strategies
TO@@
Time
ard@@
SI@@
despite
inner
USB
entry
helping
IT
por@@
south
soci@@
Very
recovery
trees
multi-@@
ps
EC@@
operate
older
SA@@
ford
soil
-0@@
sport
Second
ourselves
arch@@
ys
Veterinary
Order
Directive
ished
Ste@@
theme
Netherlands
Electric
lies
Restaurants
breakfast
owners
Moreover
Arab
requests
Toronto
electricity
·
recorded
ger
monitor
Directory
star@@
wh@@
Rome
DC
loved
of@@
hum@@
leather
displayed
mixture
format
consent
expression
formation
fill
California
moved
confidence
Those
stored
Oil
Mer@@
accounts
observed
anc@@
returned
sides
explain
Villa
reg@@
Did
factor
Pr@@
Ph@@
36@@
competitive
Station
output
extended
Ben@@
ug@@
70@@
agricultural
ple@@
54
debt
ist@@
ski
Environment
wonderful
sch@@
Organization
leaving
relationships
reaction
facing
learned
Mil@@
block
El
ens@@
villa
fin@@
one-@@
discovered
pretty
obligations
solar
minister
row
Grand
item
ce
sensitive
C.
Society
ances
reasonable
communications
ities
finished
fi@@
berg
bright
dialogue
well-@@
prevention
substances
relatively
Im@@
Sk@@
secret
en-@@
11@@
institution
yellow
ball
relation
tasks
situated
kinds
regulation
alcohol
oral
Korea
raise
matters
Baby
exposure
begins
reducing
ie@@
eng@@
emissions
regime
discuss
copyright
9-@@
differences
56
brings
SOA
represented
survey
EL@@
Web
husband
iron
Foreign
accurate
def@@
ru@@
Personal
Civil
quarter
heavy
9.@@
sol@@
confirmed
armed
approval
emp@@
suffering
spiritual
protein
suggested
2,@@
orders
carefully
bra@@
clinical
Farm
slightly
Artists
iPhone
courses
Model
union
alized
match
Hot
sa@@
provision
stable
ai@@
Brussels
pictures
ensuring
mountain
listen
Old
ara
Road
ind@@
Chief
teaching
visible
P-@@
finding
historic
Access
Sub@@
fishing
enhance
Ros@@
helped
standing
gender
figures
starts
favorite
intelligence
explained
cream
ini
istic
infection
comprises
Specialized
Check
menu
Fre@@
remote
luxury
oo@@
claimed
cri@@
stations
Man
Club
pregnancy
specialized
keeping
ders
mi@@
back@@
isation
BC
Pal@@
59
DI@@
assist
bath
websites
ette
writer
electrical
Clear
heritage
sions
an-@@
contemporary
planned
cre@@
Father
hearing
Outdoor
occurs
widely
wooden
250
explore
residents
Sometimes
T-@@
lamp
Heritage
her@@
van
85
Does
Bill
gre@@
topics
pharmacy
Fl@@
male
Support
Click
sel@@
ving
ely
38@@
De
transportation
architecture
ously
lie
bought
specified
Long
Jo@@
latin
facilitate
multi@@
Titles
marriage
perfectly
transmission
stability
ably
decades
Modern
constantly
conf@@
Sam@@
joined
vers
ingredients
transition
ongoing
alization
super@@
Brand
definitely
Egypt
sup@@
Thursday
instruments
Gal@@
university
rural
form@@
PS@@
closely
amounts
1997
Despite
Used
concrete
corporate
Love
latter
ahead
le-@@
Full
increasingly
married
finish
hundreds
Without
daughter
Ireland
agents
exhibition
58
Located
ses
..
cap@@
acting
ama
90@@
chair
programmes
tw@@
enc@@
appointed
Furthermore
club
So@@
Lu@@
salt
dy
Gl@@
north
LA@@
bul@@
doubt
Gen@@
Wall
flat
package
applies
classic
looked
toward
structures
ick@@
Inc
osis
messages
appeal
stakeholders
dates
HIV
low-@@
aimed
aging
entitled
receiving
ships
ster@@
mouth
expert
improvement
es.com
Ger@@
@
song
Jews
constant
conditioning
amazing
cy@@
millions
indicate
val@@
Medical
Saturday
circuit
Peter
Ho@@
regards
sil@@
kill
Plus
financing
nations
ine@@
SA
roads
Care
Ri@@
desired
immediate
providers
Ag@@
atory
mg
Mediterranean
seat
express
payments
investments
religion
Three
soul
shops
D-@@
virus
ast
Microsoft
EN
household
reporting
collective
diversity
Mag@@
Wednesday
mechanism
association
Latest
expectations
gone
consultation
OR@@
valid
cool
Santa
Oh
Stock
Brown
Based
MP@@
proof
Del@@
finance
ture
37@@
Number
recognition
elected
Iraq
Through
Hu@@
submit
Work
refugees
Made
videos
eating
ending
600
hit
57
loan
Regional
rare
surrounding
currency
BO@@
o.com
adding
III
instance
filled
1996
organisations
accompanied
washing
plane
Want
NE@@
doors
TH@@
coast
jo@@
Michael
har@@
load
Ser@@
duration
replace
ty@@
enti@@
smaller
speaking
48@@
perhaps
afraid
so@@
Bro@@
machines
oven
120
ment@@
directed
exp@@
ID
corresponding
granted
Photo
My@@
operational
democracy
powers
clothes
genres
AB@@
FI@@
actual
abuse
universal
rail
resource
scientists
showed
holding
Fashion
aren
covers
AC
spaces
ger@@
ute
tical
painting
bill
river
cooling
ja
Media
ids
offices
debate
quantity
understood
X-@@
Por@@
ani
tically
AM
lock
1st
GB
bre@@
Secretary
mil@@
stars
brother
sample
ency
Mat@@
draw
Fe@@
Cap@@
Spirit
telephone
scope
Officer
vegetables
tomorrow
inform
army
NO@@
i-@@
faster
landscape
Ukraine
S.
west
harmful
elections
Metal
seeing
Review
movies
consistent
Tor@@
war@@
locations
Op@@
limits
officer
Ap@@
sec@@
Columbia
relative
dollars
ky
Image
miles
Bu@@
Cas@@
selling
Glass
ada
powder
sign@@
ium
ians
flexible
George
assembly
duty
ell
Congo
To@@
lake
eligible
de-@@
cash
ata
James
behavior
applicant
rating
Plastic
museum
fees
mer
trophies
cer@@
functional
consideration
ON@@
ned
cross
Internal
Em@@
Description
PO@@
Section
obituaries
Port
cas@@
CI@@
ni@@
Jean
dynamic
ose
Parts
UR@@
PDF
Garden
tourist
extension
sizes
remaining
quick
serving
Swiss
Camping
ain
LE
Kar@@
64
mix
trends
Grey
fo@@
lets
char@@
TI@@
CR@@
fighting
edition
adult
pat@@
fund
ba@@
absence
1995
Software
Sell
Tuesday
wedding
ISO
believed
organisation
app@@
tourism
bridge
toilet
bal@@
humans
Remove
AG@@
hy@@
Fi@@
prison
serves
haven
lots
.ru
attempt
effectiveness
reflect
Northern
ox@@
Lighting
pen@@
technique
theory
Region
feed
foundation
fee
humanitarian
atic
replaced
Gar@@
routes
Tunisia
ich@@
Chair
abroad
off@@
packaging
Ti@@
humanity
concentration
seconds
Industrial
advantages
error
provider
ching
realize
att@@
bor@@
holder
draft
med
stops
speech
authorized
plan@@
pa@@
Sha@@
promoting
ion@@
tal@@
programming
owned
ey@@
comply
characters
channel
engineering
Using
Luxembourg
\
addressed
ges
democratic
cooking
AN
engaged
trading
98
DE
doctors
attached
invited
consult
struggle
Stainless
composed
Mary
hon@@
ole
negotiations
Cam@@
appeared
interview
contributions
Trans@@
TE@@
ven@@
compatible
web@@
tim@@
substance
stages
primarily
pair
ca
Tagged
Pacific
sections
cutting
twice
kers
leg@@
Learn
pres@@
arm
Islamic
dose
Do@@
presentation
Working
Commissioner
facts
departure
Aboriginal
Unlike
illegal
comparison
Pa@@
rid
poly@@
ll@@
blog
zz@@
spending
communicate
agriculture
maybe
scene
acc@@
balcony
On-line
silver
Watches
mechanical
GE
degrees
ron
mal@@
ko
Cre@@
fourth
discussed
fil@@
AS
Systems
seeking
entirely
crucial
supplies
Building
colour
vacation
sen@@
charges
maintained
Star
Need
Website
ular
decrease
marine
export
vo@@
metres
settings
browser
worry
chronic
input
CA
stores
appointment
tradition
marked
72
smart
investors
Cup
senior
perspective
Regulations
hu@@
mp@@
yes
requirement
ing.com
corner
Rem@@
Resources
ous@@
year-old
pattern
bottle
j
missing
rer
schedule
ham
Olympic
ase
inf@@
sting
assess
fans
1994
guest
oned
ki
ened
satellite
Pol@@
diameter
Double
CO
valuable
ingly
movements
non@@
suggest
á@@
Manager
teachers
audience
gra@@
Press
absolutely
bro@@
equivalent
muscle
characterized
opposition
drawn
cat@@
resistant
adi@@
ax@@
mine
Post
arrive
HP
Wedding
industries
San@@
Look
arrived
ched
CEO
willing
Pan@@
vital
61
booking
ene
necessarily
channels
BR@@
cu@@
library
Atlantic
scheduled
drop
rou@@
Bre@@
mat@@
instrument
gonna
ain@@
SM@@
che
crimes
ordered
Area
exceptional
diabetes
Mobile
laid
Automatic
Technical
certificate
sort
Treaty
Force
repair
missions
broad
declared
The@@
controls
beds
ker@@
1.5
actors
fer@@
Eastern
Houses
cotton
tered
holds
threats
interface
hor@@
ola
fre@@
documentation
District
sed
Wal@@
tube
Non-@@
sun@@
den
Mu@@
Standard
generated
fruits
suffer
cat
Up
ans@@
pleased
Robert
priorities
Latin
Place
convenient
visual
academic
buying
closer
Ta@@
embodiment
ach
module
concluded
10.@@
topic
ered
tire
reform
bel@@
Sa@@
carrying
ea@@
Ra@@
uk@@
revenue
ew@@
ick
clothing
sy@@
unable
College
66
hydro@@
extensive
RI@@
shot
Berlin
sing
Immigration
classes
Res@@
WE@@
Gre@@
FA@@
lands
alist
Ass@@
800
lan@@
d.com
remained
Americans
discrimination
Arts
proposals
cou@@
ation@@
Bra@@
officers
tested
Poland
fac@@
inv@@
ese
Barcelona
68
governance
AF@@
Sport
charged
Phone
CF@@
temperatures
examination
hole
raw
Congress
errors
wheel
flower
Dec@@
ls
Maybe
Prince
ft
periods
Go
Ko@@
Federation
tons
whatever
ination
switch
nine
vulnerable
Forum
motion
em
exclusive
pump
Greek
ishing
ions
Meeting
secondary
enables
Bon@@
Bor@@
exposed
refer
1000
audio
temporary
Young
ides
Catholic
thoughts
Change
confirm
WHOIS
hundred
Ter@@
usual
ha
47@@
inspired
TS
onto
sti@@
Fr@@
responsibilities
windows
bringing
farmers
mechanisms
judge
presents
ently
es-@@
sitting
miss
Golf
teacher
accident
Low
PS
Location
Lyrics
brands
facility
Whether
rock
Equipment
printing
Big
couldn
Pen@@
slow
extreme
land@@
ED@@
3,@@
Studies
Customer
asking
showing
Head
northern
lion
Louis
vast
39@@
Char@@
Industry
surgery
publication
Game
Among
intervention
paint
sa
s.@@
Bag
personnel
vary
62
46@@
Muslim
thousand
chief
67
St
63
stainless
noise
Square
Ru@@
index
10-@@
CD@@
Iguana
Links
define
Pink
Market
anger
statements
ga
plays
transparent
soldiers
peoples
suit
spacious
t.com
Indeed
pleasure
gam@@
thermal
unity
awa@@
ordinary
pick
Charles
ton@@
prefer
post-@@
DO@@
percentage
weekend
album
Hor@@
add@@
Syrian
respective
Str@@
failed
provinces
roll
immune
Unfortunately
,@@
Av@@
Country
FIG
two-@@
Clothing
revolution
exists
ious
rep@@
battle
exact
Climate
well-being
east
Map
ink
legs
Register
Sony
→
bio@@
rapid
ing-@@
universe
Saudi
ank@@
Geneva
qualified
tank
dem@@
sessions
hood
answers
bas@@
Finance
Wh@@
ö@@
TR@@
Portugal
statistics
yp@@
attractive
EM@@
dig@@
aj@@
transactions
kes
describe
findings
equ@@
Air@@
cup
continuous
diverse
cal@@
rentals
adequate
drinking
Festival
ath@@
tissue
Sun
engage
-S@@
western
ok@@
opposite
pleasant
EUR
spot
Anti@@
mandate
employer
Wi-Fi
calling
awarded
CM@@
Martin
choosing
Him
vitamin
Members
ures
independence
Don@@
actively
Ba@@
A.
candidates
ences
ef@@
sm@@
va
mostly
ours
ition
forming
broken
Bas@@
funded
revealed
technological
Bou@@
bs
dogs
99@@
ink@@
processed
dishes
strongly
invest
Following
izes
Sunglasses
drawing
gar@@
Bus
expenses
ED
introduction
sn@@
taxes
Discover
ow
New@@
bars
​
i.com
MA
Boats
Province
ack
transferred
pregnant
expansion
satisfied
films
Bible
successfully
Jean-@@
za
1990
eliminate
tel
Thank
itation
ping
ET@@
worse
Shop
Ke@@
head@@
CV
1992
pure
formal
dance
CD
terrorism
Si@@
Right
bike
Land
plus
Sweden
mobility
hel@@
creates
Los
Environmental
implementing
phones
studied
designated
wealth
entering
sit
producing
normally
300@@
arm@@
Queen
rain
Kids
pe
mixed
custom
ham@@
symbol
ce@@
neck
thin
reserve
monthly
aspect
preferably
injury
anniversary
Ob@@
wouldn
IC
farm
garage
generate
int@@
vis@@
tile
SH@@
brown
executive
ined
liber@@
attend
B-@@
hand@@
Nor@@
licence
ears
desk
Ha@@
passion
ref@@
expand
ris@@
UNESCO
IL@@
danger
Pi@@
Mini
ners
marks
occurred
Nature
Several
discussions
ü@@
Programme
MS@@
letters
let@@
Library
Win@@
BI@@
indicates
ban@@
log
transaction
PE
parameters
prove
translation
visiting
template
adapted
CC
liver
nationality
radi@@
ride
inated
competent
Ca@@
proceedings
contracts
involves
printed
Tro@@
92
sen
fiber
ises
gener@@
Turkish
Mi@@
Speaker
Britain
stri@@
typical
surname
teach
Follow
trend
teeth
55@@
Yellow
certified
hidden
removal
joy
obligation
Rec@@
Sy@@
meant
straight
juice
top@@
Instead
Total
Professional
Colour
runs
gers
CON@@
adoption
guy
ban
bacteria
sem@@
Parties
brief
sensor
explains
Scotland
yn@@
seeds
Gi@@
ged
Application
PRO@@
ona
songs
1993
Contents
virtual
connections
ali@@
ov
Material
container
Ask
IR@@
decoration
Hong
disposal
totally
Is@@
CL@@
dinner
departments
ication
rated
Obama
ately
ble@@
Corporation
destroyed
ure@@
ro
Everything
Comp@@
IA
wi@@
streets
comment
Word
CN@@
turns
contacts
Thomas
V-@@
wills
measurement
prescribed
q
contrary
measured
graphic
taught
2.0
CE
permit
encountered
cc
root
ny
Training
agenda
Card
commun@@
2nd
award
lah
driven
Morocco
Kong
bri@@
conventional
pos@@
peaceful
Body
amed
min
realized
smooth
continuing
impacts
inch
eventually
pun@@
trained
-based
ut
intellectual
Pat@@
tend
conclusion
frequently
Labour
magnetic
anywhere
shares
studio
Should
candidate
coverage
camp
ba
harm
mid-@@
purchased
win@@
Fer@@
rose
Line
Luxury
ek
PC@@
Space
mining
rely
exciting
identification
Rental
Sw@@
Sur@@
ena
label
ades
&lt;
At@@
Youth
lim@@
by@@
bear
Pri@@
kingdom
reception
Jerusalem
ff
tra@@
populations
ame
southern
Cur@@
brake
Cable
TA
Town
familiar
dri@@
bit@@
watches
Alberta
diagnosis
biological
workshop
integrity
Sun@@
Fin@@
roof
emotional
destruction
neuro@@
Gra@@
Al
DVD
fix
water@@
vessels
regardless
imagine
pilot
DS
2.5
guidance
ming
iness
meal
reputation
ita
euros
Peace
subsection
worst
trac@@
log@@
conservation
Madrid
plenty
Decision
Roman
shipping
hol@@
assi@@
Having
post@@
cloud
acti@@
ices
equality
satisfaction
approaches
stronger
extend
voltage
-up
respectively
ologist
supplier
Wil@@
Play
fle@@
Moscow
art@@
arts
stands
mas@@
duties
saved
everywhere
indeed
Main
tells
integral
Winter
Remember
inal
enforcement
hard@@
hardware
Yet
Van
Official
refers
protecting
conversion
meter
Wood
difficulties
Front
refuse
indicators
grown
PA
yl
photography
ust@@
SE
cher
Des@@
maintaining
Austria
rapidly
formula
pris@@
terrorist
Child
£
MS
snow
centres
pink
500@@
oning
im
88@@
targeted
Radio
ive
Euro@@
angle
igh@@
typically
tro@@
men@@
damaged
residential
OP@@
demands
compensation
und@@
transformation
Select
versions
HO@@
Christians
promise
pet
manufacture
radiation
deposit
developments
ports
Authority
celebrate
football
applying
cont@@
Galaxy
elle
Strategy
stopped
targets
mountains
rice
info
Police
onic
choices
occasion
muscles
resort
Division
Hair
feelings
ib@@
75@@
ST
ella
EX@@
Tur@@
dic@@
largely
fied
Due
Living
decade
pollution
Bar
ron@@
aluminum
AD
Tim@@
ado
Luc@@
On@@
buses
affects
Cross
acquired
fy
contributing
ites
wherein
Valley
producers
makers
Mel@@
ner@@
obvious
Cha@@
depth
participating
managers
seriously
Indigenous
filed
Store
Ham@@
territories
determination
Bri@@
Privacy
managing
colleagues
ap
Sar@@
suggests
massive
preparing
Panel
beaches
ura
12.@@
Kitchen
moon
ly@@
elled
Tags
involving
Vietnam
causing
k-@@
DR
sick
birds
profit
roles
Senate
Beauty
PR@@
ath
putting
delay
yr@@
ail@@
labor
emerging
Montréal
ts@@
tom@@
falls
modified
ala
politics
axis
courts
surrounded
M-@@
depend
drivers
decline
Soviet
Joseph
lab@@
Anti-@@
forums
fan
sters
1991
.exe
iss@@
enemy
immigration
eness
defense
AR
wave
Dresses
everyday
command
happening
grant
bags
rear
considers
universities
treatments
Mas@@
Pagerank
disorders
hal@@
judicial
ams
tures
PL@@
ster
generates
Everyone
wire
logo
commonly
69
VE
exception
SU@@
QC
cos@@
fiscal
88
Would
thickness
sofa
arrested
Me
audit
hall
Dar@@
Ms.
stein
operator
fell
medication
Start
combat
adopt
í@@
Transport
protective
AU@@
careful
Asian
71
Army
microwave
pm
a.@@
Outings
gradually
portfolio
gn@@
hesitate
Keep
L-@@
Comm@@
Activities
dimensions
VI@@
patent
self
dreams
mention
correctly
21@@
Tre@@
93
illness
advise
representing
Cover
winning
grounds
Max
Dutch
Movies
sounds
oun@@
alize
ware
elegant
checking
Uni@@
false
firms
demonstrate
Islands
paying
ual
91
happiness
boats
roots
Gift
functioning
believes
Choose
difficulty
tin
legitimate
essed
Czech
alive
burn
concert
ere
artificial
SC
Mad@@
filters
ocean
Print
reserves
laboratory
Administration
signals
Features
Apartments
33@@
opinions
imposed
count
drawer
evil
wash
incredible
cast
Local
tru@@
Rose
searched
Alexa
continent
license
Twitter
spec@@
CS@@
uni@@
Paper
operators
relax
bone
sub-@@
unknown
rubber
victim
appreciate
301
F-@@
dev@@
suffered
zed
elling
Hel@@
OS
beneficial
12-@@
Democratic
smile
Son
neither
dealing
teen
ken
ory
complaint
usage
19th
relates
dated
generations
vol@@
dy@@
establishing
86
Ed@@
e.@@
Professor
laser
musical
adapt
sole
kit
greatly
Texas
ili@@
dust
cart
Flights
behaviour
Hal@@
parallel
Web@@
nation@@
Between
Tra@@
chapter
artistic
Key
contrast
excess
sunset
Little
Islam
dom@@
restore
complicated
productivity
jurisdiction
ori@@
Hall
Tar@@
­
parent
prayer
preferred
viol@@
healing
tables
faced
Star@@
inst@@
cli@@
ack@@
connecting
stream
wild
2021
division
themes
fitted
mobil@@
pan@@
lay
49@@
flexibility
password
comprising
naturally
fu@@
bes
Cy@@
Wholesale
optical
ensures
Tools
32@@
e-mail
k.com
platforms
exceed
restrictions
Florida
overcome
centuries
Dr@@
defence
depression
bound
96
sweet
82
boys
enterprises
pal@@
ome@@
Sustainable
Commercial
conversation
Beautiful
Es@@
burg
Annex
Tribunal
HD@@
passengers
ue
ney
94
pack
Ol@@
St-@@
ceiling
differ
Amazon
Vis@@
tal
Figure
Rom@@
wor@@
Further
un
Lam@@
healthcare
pursuant
thereof
WiFi
eggs
acquisition
lin
Traffic
Med@@
destroy
transparency
hos@@
sand
mutual
Nice
medicines
outcome
port@@
Mark
mail
deaths
chi@@
exercises
st-@@
Vancouver
engagement
97
infections
opens
defend
victory
sk
optim@@
kilometers
pose
inflammation
G-@@
statistical
Property
meals
Thailand
20th
Mother
fly
afternoon
itors
Constitution
rac@@
Employment
wireless
accused
entity
ATION
festival
Academy
possibilities
Ocean
Brunswick
saving
genetic
so-called
vegetable
ome
compounds
patterns
77
brothers
sending
CC@@
Try
waters
arti@@
vers@@
ranked
posted
Ram@@
pipe
AIDS
acquire
relief
Pierre
Link
stick
Dor@@
81
Agriculture
Mac
Limited
directions
Restaurant
particles
Summer
68@@
stomach
cabinet
mod@@
balanced
700
Looking
Inheritance
Single
boards
Fac@@
Innovation
ethnic
strengthening
bathrooms
GDP
tre@@
proven
Secretariat
directory
chemicals
Tour
Gaza
brush
tan@@
representation
fore@@
arranged
valve
gal@@
AG
EL
covering
moral
phenomenon
dies
commitments
AV@@
interpretation
Ni@@
Welcome
low@@
87
77@@
imm@@
pop@@
te-@@
legislative
push
supposed
Nova
Award
watching
sister
ith
sin@@
mos@@
mirror
cour@@
Charter
evaluate
Afghanistan
cope
beings
heads
ros@@
specialist
strike
migration
89
Lim@@
Reg@@
West@@
smartphone
tech
calendar
ora
hate
201@@
inhabitants
Culture
74
produces
prof@@
57@@
empty
zing
mag@@
addresses
mes
outer
floors
configuration
Studio
tation
holidays
Vol@@
Maria
trouble
ry@@
spoke
ond@@
Rank
dependent
employed
ä@@
302
ici@@
MAR@@
keys
ust
Wi@@
Available
AT
dia
akes
Painting
oph@@
Ban@@
QU@@
don@@
Senator
terminal
lists
bread
Out@@
precisely
78
supplementary
helpful
aire
losing
escape
wishes
horse
aps
chamber
DNA
closest
ET
header
400@@
Sil@@
feels
transmitted
bling
finds
any@@
sought
Articles
duc@@
Mir@@
introduce
telling
organs
NATO
pur@@
grade
GI@@
Lar@@
76
D.
violent
acceptable
ulation
massage
disabilities
CT@@
oils
all-@@
feedback
amendments
moments
subjects
icon
encouraged
S.@@
ju@@
pension
calm
lessons
Bol@@
knowing
Rev@@
ez@@
considering
William
inspection
oxygen
operated
Current
weak
detection
PM
aming
coordination
exclusively
certification
samples
eu@@
110
TA@@
uck@@
wing
11.@@
breast
Norway
73
coach
shaped
oma
troops
capabilities
Sim@@
aut@@
outstanding
Ren@@
involvement
Being
Ang@@
Pope
borders
discovery
ining
Genealogy
faces
golf
ited
Kit
ples
RC
mit@@
lifestyle
width
Step
examine
guaranteed
adventure
Death
mounted
Communications
Honourable
default
Reference
affordable
gate
returns
4,@@
Supreme
employers
bird
coating
verse
relaxation
bearing
temp@@
mistakes
DA
dish
ek@@
Come
din@@
lif@@
clock
renewable
proportion
Golden
layers
wonder
acids
thereby
holders
84
Factory
principal
to-@@
toxic
smoking
internationally
lunch
partnerships
Date
arrangements
potentially
asset
Ur@@
~
Solar
Hospital
absolute
nose
score
outcomes
Mus@@
incident
Nov@@
calculated
indoor
Perhaps
XL
hyper@@
0-@@
banking
savings
deeply
alities
Statistics
Ir@@
founder
understandable
Students
lift
sum
thick
Powder
Sc@@
IV
path@@
Labor
column
combine
Costa
stones
Ju@@
Film
mask
mann
Wallpaper
profession
ich
Terms
nutrition
CP@@
Within
passing
Pres@@
contents
OR
Wor@@
Estate
surprised
dre@@
improvements
survive
Smart
HTTP
guys
accounting
yer
ily
tis
sof@@
swim
tle
veterinary
painted
seemed
childhood
ils
decorated
avi@@
deals
surprise
loaded
none
compare
120@@
Premium
euro
Men@@
visa
subsequent
Round
supplied
territorial
Super@@
solidarity
Sciences
birthday
grave
83
ceremony
Audio
Bathroom
x.com
eth@@
DA@@
reduces
Muslims
Rent
chairs
sustainability
illa
permanently
Bab@@
int
medi@@
Manufacturers
ech@@
slowly
fire@@
Super
meanings
structural
PE@@
.de
centers
reaching
ari
mel@@
gy
dollar
heated
Ltd
substantial
Chairman
TC
intense
possibly
resolves
proph@@
grams
amb@@
age@@
abilities
high-quality
Capital
R-@@
receives
measuring
reservation
contributed
Palestinians
journalists
TS@@
Cer@@
Ak@@
LA
apps
adjust
cheese
pen
Investment
ign@@
islands
1989
drinks
ame@@
Orange
portrait
density
Chapter
ward
Arch@@
manufactured
fantastic
Four
Net@@
optimal
extraordinary
environments
Tw@@
judgment
Hom@@
FO@@
loc@@
undertaken
customs
attractions
pu@@
ee
traveling
institutional
cho@@
Jordan
Nike
bol@@
forum
Over@@
tar@@
Southern
vertical
considerable
invite
workplace
Zealand
college
ico
enn@@
Les
summary
GO@@
classified
syn@@
down@@
permitted
decorative
Protocol
forever
officially
Universal
refused
Visit
cook
Deputy
erc@@
updates
sees
ington
membership
War@@
Screen
Korean
worker
Camp@@
Suppliers
precise
witness
ung
surveillance
BMW
panels
copper
Classic
cra@@
impressive
League
oldest
All@@
Display
Third
settlement
law@@
operates
derived
wearing
Forces
n-@@
ills
separated
associations
É@@
bet@@
3rd
tablets
sight
nit@@
Haiti
semi-@@
turning
Tax
stand@@
belt
ée
ements
scheme
glasses
tone
permission
violation
nearest
180
entities
Mount
corrections
Heart
ial@@
recipe
designer
ulate
Train
vation
lear@@
lu@@
aves
Supplier
apart
comparator
mineral
UL@@
entertainment
recording
psych@@
HI@@
Legal
Custom
fail
essi@@
Nobody
handling
Live
Annual
gap
literature
enterprise
Ministers
belief
Coast
Mari@@
aling
She@@
reactions
guided
lifetime
magic
Spring
foot@@
dishwasher
Ford
BA
counter@@
isolated
closing
150@@
Manuals
Engineering
icity
long-@@
Drive
Mont@@
checks
Lin@@
Prices
tin@@
BE@@
delicious
talks
Details
not@@
65@@
anymore
attended
Senior
67@@
nervous
reviewed
ament
preserve
complaints
MP
Daniel
sorry
poster
tain@@
blocks
ols
participated
convinced
play@@
Arabia
ped
demonstrated
ques
arity
zero
honey
survival
dried
Point
pray
beat
asks
Richard
ben@@
pcs
Cr@@
ko@@
ye@@
cultures
Mountain
mandatory
Madagascar
ira
mu@@
hurt
zones
exc@@
smoke
trials
native
constitute
accuracy
detected
upcoming
ère
amended
CB@@
matic
observe
guides
warning
consume
cannabis
emotions
ji@@
designs
rad@@
fireplace
dispute
ony
ji
DR@@
Tattoo
frequent
productive
computers
flows
grew
filling
Item
Not@@
earn
ator@@
Kal@@
busy
Gas
Exchange
Cro@@
originally
resulted
ues
holes
gun
dating
minor
psychological
FAQ
three-@@
ym@@
deemed
detect
vitamins
Az@@
legally
ix
organize
fairly
involve
capture
pot@@
Bureau
Ker@@
MI@@
corruption
preventing
branch
exports
copies
dered
personally
Fabric
Palace
Medicine
Brake
fridge
migrants
bet
focuses
customized
unusual
AI
J.
consciousness
WHO
cheapest
Portuguese
Tal@@
reply
UM
Ou@@
amine
anxiety
Create
Fil@@
ti
ced
spokes@@
courage
ij@@
declaration
achieving
professor
listening
Co.
Treatment
Dark
Caribbean
140
occupied
Cu@@
surfaces
med@@
tablet
talent
Class
sheets
Declaration
Ven@@
compound
attitude
clues
Times
engines
seats
consulting
furnished
conflicts
gri@@
affairs
Coffee
intention
1,000
apparatus
GmbH
athletes
ric@@
boost
tourists
Enjoy
producer
passenger
economies
orange
throw
Fran@@
ography
batteries
unemployment
catch
kin
Hill
hypo@@
determining
completion
violations
collabor@@
Victoria
shift
pour
Defence
regulated
characteristic
gue
resident
personality
EUROPAGES
workshops
Cat@@
Green@@
er.com
fifth
Philips
Ly@@
Player
logged
NI@@
Lawyertys
ease
pressed
adds
loans
ultimate
acute
May@@
infected
graduate
excessive
eing
Manitoba
M.
sentence
subcat
Cab@@
lit@@
Alliance
recover
citizen
thesis
optional
ao
Electronic
attract
je
nor@@
retail
noticed
elsewhere
Mol@@
PA@@
lowest
eas@@
79
performing
Black@@
liability
Fri@@
younger
Cream
Week
suite
eries
circulation
bot@@
logical
pp@@
Sand@@
pel
ification
rising
Joint
tele@@
Rock
interaction
Dem@@
Given
m-@@
Dep@@
eastern
belong
.ca
oring
carrier
Framework
intensity
Interior
Cultural
burning
inj@@
Lyon
Tom
Sem@@
excited
gifts
GR@@
Compare
ó@@
ress
travelling
pay@@
drops
lasting
sanctions
losses
plates
Creative
Help
Electronics
wards
Denmark
oid
Mos@@
clo@@
Dal@@
Storage
preferences
trains
organised
lying
grey
ush@@
guarantees
SS@@
spare
x-@@
indicator
Call
murder
bigger
chat
loves
mo
PVC
substantially
destinations
prohibited
Nation
belongs
enhanced
vac@@
Easy
pul@@
concepts
stra@@
revol@@
extract
at-@@
hearts
Under@@
describes
urgent
met@@
onal
boxes
Beijing
pointed
resolve
killing
partial
worthy
achievements
illustration
lig@@
herself
Pu@@
Sen@@
Delivery
timely
Sta@@
greenhouse
Fire
IM@@
honest
medications
Marine
refrigerator
grand@@
execution
Donald
executed
hide
tens
ownership
philosophy
ga@@
dressing
prime
Communication
Camera
pets
enjoyed
blog@@
Related
Sheet
ultimately
Marie-@@
Finland
pra@@
Yeah
Jan
Eli@@
ass
Poly@@
crew
cap
compatibility
cheaper
circle
erg@@
Ve@@
aches
ida
pursue
Cri@@
Spare
anda
verify
styles
Dress
pot
unnecessary
Nigeria
delete
chocolate
import
Nevertheless
Computer
entr@@
Gos@@
Laser
File
examined
succeed
hr@@
maker
plot
ther
Ul@@
olive
Georgia
Singapore
eline
ables
Amsterdam
tel@@
Cemetery
ingen
inclusive
chose
precious
minority
excellence
pin
Penal
varieties
Original
sor@@
Bell
Smith
Short
Designer
Pas@@
SS
Forest
ston
magazine
Milan
Jack
ket
ren
ón
mistake
Summit
mac@@
refugee
Dr
passage
CAR@@
Flat
Nothing
Pon@@
solving
oul@@
ceramic
shell
Share
Insurance
Fort
repeated
tra
disability
cross-@@
Multi@@
yesterday
ille
charging
detention
interactive
shock
Unit
U.@@
Edition
waves
actor
annually
Lebanon
Finding
Vo@@
guess
squ@@
pace
lat@@
occupation
ace
130
falling
Categories
net@@
wake
priv@@
dignity
civilians
DS@@
Hand
Au@@
airports
reforms
ops
imported
Source
cle@@
Hy@@
wet
barriers
Jud@@
App
TE
-B@@
Epoch
itis
AP
indigenous
Level
tonight
Sin@@
static
Return
ater@@
recommendation
disorder
part@@
chest
gardens
creativity
enabling
Notice
ip
supplement
raising
ologists
oli@@
whereas
burden
strict
UC@@
run@@
coin
vacuum
160
consisting
parks
counter
assume
ME
Romania
aph@@
novel
AU
disaster
ministry
propose
Loc@@
Tourism
mood
mic
ew
confident
council
izer
compact
classification
retirement
Den@@
egg
forests
injuries
identical
she@@
ela
sum@@
el-@@
municipal
reflects
Lau@@
san@@
newly
castle
Construction
OECD
op
illed
atives
ards
ential
downloading
opposed
injection
commission
Engine
Bat@@
Battery
1988
Tom@@
lucky
ket@@
LG
Iranian
Night
Criminal
renovated
magnificent
strange
les@@
cuisine
Pakistan
spots
1.2
ald
pon@@
sli@@
Urban
earned
enter@@
leg
forth
amendment
Hungary
lic@@
caught
Bed
350
Language
Sab@@
Auto
sy
Rooms
warehouse
wal@@
Ku@@
adjustment
´
ishes
bil@@
rarely
bowl
adjusted
Additional
FR@@
tional
notably
Angeles
injured
tobacco
trips
shirt
seed
reverse
SW@@
newspaper
B.
separation
namely
reveal
Currently
railway
pocket
A.@@
fewer
WITH
Send
Posted
inspiration
contributes
ote
intake
HE@@
beer
rh@@
prec@@
villages
ect
20-@@
deep@@
Cotton
tivity
broadcast
deb@@
codes
ran
reliability
matches
Study
chicken
c.com
Never
alised
reflection
purchases
Pic@@
bun@@
proceed
3.5
stressed
delegation
bel
001
worn
withdrawal
Far@@
iled
Floor
focusing
discount
360
Pot@@
iPad
Initiative
binding
tie
rs
accommodate
estimate
accidents
autumn
aux
studying
freely
esti@@
aled
municipality
hop@@
strictly
Express
eled
Inn
unions
Collection
Performance
Euro
Safe
wholesale
is-@@
E.
è@@
branches
equity
sequence
Organ@@
Pikbest
heim
initially
advised
Micro@@
Empire
uted
author@@
cy
announcement
sible
B2B
develops
decision-making
ef
Hun@@
Rules
idi@@
shoulder
durable
PH@@
Vill@@
arrangement
Content
applicants
ty-@@
dimension
18.@@
knife
MB@@
dro@@
esh@@
ye
nov@@
painful
suspension
Hon@@
125
solely
volunteers
break@@
ex
vessel
affecting
Maintenance
specifications
.name
vic
eds
breaking
vaccine
responses
uring
Play@@
http
Las
MM@@
mul@@
Learning
fication
Indonesia
highlight
sentences
Comments
ved
ero
ab
Dun@@
therapeutic
respected
Images
wid@@
Preface
Leg@@
z.com
answered
collections
expanded
equally
riding
Export
specialists
translated
et-@@
ord@@
pan
Military
30-@@
acted
cru@@
PD@@
Ev@@
zer
hill
proteins
Met@@
seeks
golden
precision
arrest
obviously
electro@@
Kr@@
ican
notification
receipt
Pack
End
Common
Test
navigation
explo@@
Depending
BL@@
Together
bon@@
lens
FC
tier
attorney
Installation
welcomed
Prize
keeps
Argentina
Australian
Was
Dam@@
Virtual
Sunrise
stainless-steel-case
protocol
reflected
chances
Events
une
Wireless
suicide
tired
Tell
venue
qualities
flag
Guests
fraud
enting
guard
Integrated
heaven
fying
Mand@@
ading
eller
PP
199@@
OK
Doc@@
sleeping
gel
Gro@@
traditions
winner
Five
pressing
Marie
Chamber
quar@@
hospitals
retain
fitness
gathered
ws
Cooperation
inclusion
Chicago
lar@@
sta
urs
Server
mir@@
gen
adverse
Vintage
super
moisture
safely
gained
ural
integrate
Lan@@
Castle
Belgian
voluntary
11-@@
headquarters
references
mini
exploitation
conscious
enemies
ruling
disk
narrow
Future
fron@@
600@@
Budget
monetary
Secretary-General
rey
imag@@
Palestine
truck
lip@@
Mission
societies
LCD
Casa
whenever
separately
horizontal
snow@@
15.@@
berries
Na@@
Fishing
wheels
tain
ranging
controller
suddenly
fri@@
consultations
trad@@
addressing
val
Motor
revenues
rejected
functionality
ashes
Cou@@
returning
lec@@
threatened
ine-@@
smell
Bags
ases
ces
ear
acceptance
ze@@
supermarket
gray
ligh@@
modifications
NOT
zh@@
aya
900
icate
prev@@
habits
1985
GU@@
ives
modify
Additionally
ecological
indicating
variable
Moon
publications
ums
Assessment
til@@
ri
syndrome
widespread
ula
investing
Bil@@
essentially
Publications
MC@@
Mul@@
disclosure
lovely
34@@
predic@@
clinic
mut@@
Movement
tracking
Stop
remarkable
Iron
transform
ession
Meanwhile
hat
Village
bour@@
everybody
thr@@
Francis
Crown
arian
Assistant
pped
chart
wines
Age
servers
Gulf
Tu@@
cottage
Give
simultaneously
ark
-P@@
apped
Filter
Economy
peak
ail
Bour@@
dad
revolutionary
converted
signature
temple
sex@@
jacket
ests
ve-@@
ancy
treating
Weight
surroundings
Chi@@
FM
Gallery
spoken
promised
Directors
agr@@
apping
Bay@@
itting
Cour@@
ost@@
1987
identifying
Archives
routine
Rio
but@@
mol@@
directors
sus@@
nutrients
Aluminum
itch
ami
ock
na@@
Michel
subsequently
1.1
Ty@@
recognised
Gay
favour
sciences
devoted
tags
Land@@
Lady
treaty
Sudan
testi@@
read@@
publish
Hum@@
alarm
Average
attempts
Fa@@
eti@@
foam
Wine
publicly
or-@@
grace
Tech
Memorial
Sainte-@@
Ash@@
prisoners
assessed
tennis
alleged
Advisory
abol@@
book@@
Example
1986
alling
Ring
allies
coins
feeding
Awards
Political
Books
inquiry
Francisco
announce
SK@@
promises
Standing
black@@
repeat
kil@@
cake
talked
minim@@
thir@@
forgotten
GPS
reserved
je@@
activated
Sales
sm
eda
entrepreneurs
broad@@
moves
PP@@
colours
memories
HR
Journal
penalty
10,000
Henry
exit
remedy
vector
Cape
CO2
initiated
sad
Scotia
disrup@@
tissues
orientation
an.com
Governor
removing
fun@@
with@@
entries
Nedgis
celebration
Ref
Risk
promotes
Venice
campaigns
Norwegian
Libya
Tips
coastal
metals
Ga@@
overview
son@@
tract
Ear@@
184.168.221.@@
posts
Upper
honour
oriented
prevents
Beau@@
home@@
underlying
tened
FL@@
spir@@
histor@@
sur-@@
modules
mid@@
wisdom
Tel@@
prote@@
conclusions
stem
Techn@@
spe@@
Shower
romantic
berry
ays
alia
harmon@@
Dom@@
aud@@
Navy
Huawei
publ@@
ep
BACK
K-@@
thinks
Especially
sin
academ@@
Until
Often
UV
awards
somewhere
Apply
hot@@
joining
cuts
Active
enters
lounge
explanation
dil@@
Coun@@
pageviews
liked
calories
hyp@@
Sm@@
EV@@
asser@@
commit
photographs
Tower
promising
CH
Ali@@
revised
texts
exhibitions
acked
Lamp
I-@@
incorporated
anim@@
Reserve
regarded
dol@@
rap@@
beam
jet
charming
tower
imports
50.63.202.@@
reli@@
bottles
phil@@
rence
Below
aded
odi@@
convert
Revolution
clicking
ani@@
bilateral
Door
Treasury
Avenue
favor
coat
locked
begun
definitions
supervision
lining
highways
ups
corporation
pping
.co.uk
Strategic
restored
protects
itch@@
passes
sto@@
agn@@
Edward
pression
vic@@
nom@@
buried
ometer
85@@
silence
merely
pharmaceutical
Could
leisure
Chatroulette
well-known
roc@@
Van@@
ight@@
Workshop
Lee
sensitivity
Algeria
Bridge
milit@@
tension
42@@
agon
restricted
ul
preliminary
com
mar
Out
genuine
Dog
insi@@
outs
Kenya
immigrants
purchasing
aching
Animal
tropical
periodic
interventions
Al-@@
strip
Direc@@
ik
á
cro@@
Vice
resi@@
FA
ethical
critic@@
aga
ared
ii
terrible
Technologies
torture
authentic
Rob@@
partially
superior
dd@@
th-@@
reviewing
arise
Cloud
tape
ki@@
stuff
harmony
lips
spectacular
mothers
mad
person@@
Lower
Cuba
amenities
machinery
passport
sta@@
Saskatchewan
hopes
yed
plac@@
insulation
gan@@
pic@@
paintings
pull
steam
by-@@
skilled
AW@@
searching
Glasses
adjustable
craft
bo
Parking
MM
tail
collecting
speaks
han
challenging
Furniture
Dou@@
mouse
implications
Lev@@
discharge
TION
Lisbon
globe
corporations
p.com
complications
minerals
Polish
night@@
moderate
and-@@
Panasonic
gallery
puts
hat@@
Quick
constitutional
desc@@
gather
kid
Bio@@
han@@
synthetic
confirmation
lev@@
GA
bing
hi
Spa
geographical
angel@@
acks
hire
trafficking
flat-screen
ova
disabled
proposes
wider
ite@@
witnesses
-subcat
uniform
sharp
cinema
Template
eng
civilian
shade
grid
non
que@@
Mur@@
Gor@@
Off@@
realistic
ae@@
one@@
voting
dly
encouraging
Pass@@
000@@
toys
improves
Vienna
fatty
ecosystem
Ann@@
independently
summit
grass
Adam
invested
lam@@
past@@
sle@@
cancellation
nuts
u.com
ministers
fault
cats
excluded
engineers
fol@@
66@@
tun@@
follow-up
holy
rig@@
Stone
premises
13.@@
Way
py@@
transfers
4th
Has
convenience
washed
encies
sons
ires
tis@@
agu@@
ALL
belonging
graphics
cord
GE@@
tot@@
gro@@
spa
1.6
suspended
expense
Making
ret@@
Hand@@
ender
hasn
aster
Repair
varied
DV@@
repe@@
Jewelry
Pool
essence
spectrum
Conditions
mur@@
Fo@@
segment
ck
Programs
observation
tif@@
emphasis
Account
Relations
Others
comman@@
dear
Fisheries
Bitcoin
long@@
compete
administered
giant
prestigious
OL@@
Sel@@
parliamentary
Girls
tab@@
renewal
dor@@
pt
Veterans
Led
CP
Cold
van@@
Picture
yours
shouldn
fur@@
divine
neutral
Bedroom
third-party
classical
deserve
Users
Opening
enjoying
planted
Materials
1980
wind@@
ought
exchanges
nan@@
Cancer
complexity
blind
half-@@
continuously
short@@
impression
Bah@@
Ki@@
Tokyo
95@@
stove
logic
Bluetooth
twenty
enormous
rers
respiratory
Advanced
reaches
uck
ature
somewhat
Soft
readers
cure
ased
distinct
esis
babies
Jan@@
ric
threshold
weapon
ius
prov@@
uro@@
requiring
101
speakers
fa@@
Lingerie
kin@@
Inc.
Egyptian
ins@@
proved
Credit
developers
tight
wise
fellow
Driver
rel
Philippines
dom
substrate
celebrated
Dubai
Heating
Still
43@@
RAM
BU@@
Reports
recipes
calculation
bury
staying
Arctic
alists
Trust
crazy
analyze
Woman
indication
fur
ity-@@
aking
neighborhood
Bottle
clubs
Sor@@
churches
reader
bert
Veterinarians
Dol@@
interpre@@
Puerto
missed
Experience
museums
Battle
tip
Croatia
renowned
breaks
Der@@
sanc@@
Tam@@
confron@@
ored
renewed
elderly
Log@@
Acc@@
faithful
investigate
diagnosed
m.com
intelligent
quantities
highlights
respecting
interact
graphy
Gran@@
anne
adap@@
Bike
Flower
denied
motor@@
gear
chem@@
placing
prize
emergencies
mass@@
ati
Toyota
tured
YouTube
organ
ort
ais
experiment
U.
relaxing
ull
laundry
profits
ete
cell@@
billi@@
bach
Cop@@
votes
Tool
refund
17.@@
consumed
HT@@
crystal
portable
seller
inger
ility
Tran@@
rotation
signing
1.
×
hang
grain
prints
cameras
ax
asylum
Breakfast
Skin
gay
Johnson
abandoned
Transfer
borne
tab
nec@@
Analysis
identi@@
ello
encounter
blade
committees
preserved
jewelry
parliament
invitation
guilty
ign
COM
Statement
scenes
investigations
OEM
RESULTS
Process
Kur@@
ental
mom
tives
Kon@@
observations
Base
zo@@
110@@
R.
wage
enabled
first-@@
emb@@
tec@@
ified
Partnership
Cos@@
seal
screening
Rel@@
checked
ho
Syn@@
discipline
Cath@@
14.@@
swe@@
speaker
judges
rings
rows
sand@@
alisation
urine
breathing
Divorces
ert
fold
undertaking
infl@@
conducting
amp
EEC
texture
restoration
limitations
0.5
cing
44@@
doses
Commerce
diplomatic
nar@@
Always
dat@@
alongside
meth@@
acking
warming
ram@@
ales
compl@@
Marketing
sey
lovers
sensors
colored
doc@@
Ken@@
inflation
thread
ester
flash
designers
Parks
mont
subjected
demanding
olog@@
ux@@
vice
satisfy
Hyundai
ials
tiles
hydrogen
VER@@
shaft
fleet
coun@@
edges
Pap@@
membrane
Colombia
Bad
crops
mystery
argument
Resort
flu@@
cin@@
upgrade
Ideal
conce@@
closure
viewed
Swimming
cyber@@
constitutes
buyer
elec@@
Kat@@
Portrait
Sav@@
apparent
ae
measurements
fingers
enders
Arab@@
ogy
Ay@@
counsel
ique
calculate
NA
Ben
ambitious
disc
AK@@
asing
hosting
oxide
eded
hoods
yard
Alexander
aces
Sat@@
Manufacturer
zi@@
shapes
BoatDealers.ca
IF@@
ection
Suite
Organic
drying
Naz@@
loading
Freedom
circular
GS
FT
biodiversity
56@@
inate
sing@@
atively
irs
Resolution
jo
itive
Put
calcium
21st
obstacles
Daily
GN@@
Bun@@
radical
mad@@
ands
Pur@@
Emergency
breath
aside
consequence
hell
pricing
weekly
AB
viral
Module
Scientific
High@@
Bush
Vision
Irish
achievement
cute
INE
structured
leaf
Swedish
Important
profiles
presidential
allergic
mere
p.m.
landing
Crystal
cop@@
metabolism
buyers
ed-@@
NGOs
Remote
ps@@
umb@@
linear
Things
inventory
RA
transformed
Planning
coal
specify
nights
1000@@
Stu@@
hear@@
tail@@
Sn@@
accelerate
Waterproof
cosmetic
Write
affir@@
Corporate
Girl
canvas
Works
bal
spl@@
friendship
cartoon
charm
lers
PAR@@
prop@@
Len@@
sisters
DJ
lamps
recruitment
grateful
nobody
18th
united
dryer
hou@@
deployment
sely
Years
NEW
tant
ify
viewing
nia
1984
couples
Anne
premium
Bad@@
aria
Knowledge
Instagram
hormone
inary
Rad@@
printer
Basic
conver@@
behavi@@
VI
architectural
modes
salary
C.@@
pel@@
250@@
undertake
robust
Production
comparable
Bulgaria
phot@@
Son@@
crossing
Bordeaux
Disney
Lou@@
SD
Birth
admitted
Gol@@
you@@
Ice
Equ@@
Transportation
afford
sodium
supplements
expanding
differently
Obviously
ship@@
conc@@
zation
underground
neg@@
Sul@@
Phil@@
Top@@
systematic
1.4
Portable
Besides
Hen@@
Simple
ext@@
nel
Upon
p-@@
pepper
concentrated
suited
pin@@
cabin
High-@@
visibility
joints
Co-@@
tough
shooting
butter
ly-@@
influenced
MON@@
physically
prosperity
Marc
valley
ni
ange
cel@@
consensus
Jacques
rays
governing
astr@@
households
pride
exploration
Owners
itary
perception
Side
anna
posed
new@@
decreased
lis@@
finger
ault
Fine
positioned
cloth
connector
Prevention
was@@
Hamilton
submission
ato
rit@@
hero
16.@@
gran@@
Soci@@
tering
IL
L.
ital@@
reveals
ont
ino@@
TRA@@
controlling
significance
screw
WC
buttons
Christi@@
j.com
Defense
virtually
obtaining
dominant
intensive
neutr@@
onia
towns
APK
quest
ema
rolling
filing
TER@@
editor
utions
grants
Self-@@
journalist
hunger
Packaging
nail
foster
Think
ather@@
.fr
ASA
impose
citizenship
VA
likes
barrier
Ad
efficiently
Peru
experiencing
dental
Reviews
bb@@
Sound
SD@@
planting
special@@
Know
Mid@@
respondents
ima
tt@@
Harry
highlighted
preparations
short-term
full-@@
desert
powered
EA
TER
Kin@@
wil@@
ila
ener
Truck
HS
expenditure
supermarkets
Countries
2.
Dan@@
habitat
Lac@@
accountability
beliefs
ache
racing
Standards
fal@@
kettle
Rear
cent@@
bay
Speed
Net
Fun@@
electoral
camps
voted
cholesterol
Cat
vil
Pin@@
defeat
worried
elastic
databases
originate
welfare
disciplinary
Fish
basket
wars
PI@@
varies
ali
mus@@
broader
appliances
sacred
rescue
Main@@
si
rod
possession
scre@@
Close
Fab@@
delivering
bones
resin
stayed
aggressive
attributes
erec@@
cylinder
cam@@
organ@@
show@@
imagination
Af@@
pers
Temple
5,@@
Money
Cel@@
Gri@@
globally
DI
P.@@
Ball
extends
tray
sel
adaptation
justified
100,000
suggestions
transit
fi
tag
literally
mist@@
fabrics
li
Vil@@
Pop@@
luck
nails
combines
resolved
750
specially
stood
skill
Tobacco
zy@@
Indoor
interviews
CHF
drawings
class@@
oke
constructed
kins
impl@@
DC@@
Pra@@
acknowledge
heading
Again
condem@@
inations
Ski
prescription
450
Contract
Frank
interactions
surveys
fate
hosts
practitioners
allocated
aki
Kam@@
physician
shr@@
ok
Toys
hur@@
act@@
eling
800@@
dict@@
thoroughly
Index
attacked
relate
plug@@
-to-@@
Customized
subscription
15-@@
Chile
ight
commands
lateral
eternal
public@@
papers
Clean
Save
ation-@@
secre@@
itz
EU@@
broke
surprising
Florence
conferences
Cyprus
5th
Sup@@
Bos@@
Form
the-@@
scored
wa
farming
remedies
lemon
loop
high@@
Photos
funny
Beige
processor
ux
consistently
Ale@@
sla@@
Diamond
Fu@@
illustrated
intermediate
tries
Major
warned
Kor@@
string
Facilities
Route
deleted
overnight
displays
Though
Wire
Address
gains
automated
ball@@
heavily
anyway
prosec@@
phases
collapse
ave
ñ@@
dropped
SI
ez
Merc@@
Honda
vari@@
Matterhorn
Places
medicinal
royal
invitations
consist
Supply
minds
sym@@
remind
BI
Som@@
Water@@
ifying
Replacement
max
asc@@
volumes
1.3
alert
Pul@@
competitiveness
iner
individually
ool
gene
auti@@
Medi@@
spo@@
bat@@
SN@@
scenario
recipient
2.2
Otherwise
peri@@
Pos@@
boo@@
lady
split
hem@@
tes@@
69@@
sacrifice
harvest
tap
Face
Bir@@
captured
unfortunately
recovered
Usually
tracks
Da@@
guitar
és
jour@@
Cities
airline
get@@
Nu@@
Tea
Purple
executable
secured
Rou@@
hydraulic
AI@@
mortality
tolerance
veterinarian
apple
ardi@@
adhesive
cryp@@
Kh@@
Appeal
tiny
embr@@
Up@@
importantly
2018-0@@
220
sapphire-glass
discourage
gly@@
piano
four-@@
Us
Except
BM@@
precipitation
desirable
unlikely
unprecedented
Solutions
dying
notified
built-in
Albert
progressive
adjacent
Virgin
boots
fasc@@
clinics
gross
Operations
incidents
plug
Explore
uality
electronics
Heat
Pennsylvania
gol@@
Red@@
tours
corridor
ny@@
lasts
Cinema
intr@@
Phase
Cleaning
fed
Scott
ader
Dra@@
assistant
episode
doctr@@
disappear
wildlife
ā@@
Touch
mented
stretch
Spec@@
Consumer
red@@
50-@@
Female
cancel
soap
SL@@
stroke
amm@@
sufficiently
competitors
arguments
Virginia
hun@@
Starting
gases
Early
da@@
Guidelines
fastest
withdraw
tism
Stand
Nar@@
ERS
Contemporary
Jobs
poses
fatigue
innovations
storm
fever
hygiene
esses
Chris
absorption
atric
human@@
discretion
encourages
Venezuela
la-@@
CU@@
trou@@
spray
etal
coordinated
sovereignty
insert
Jos@@
Summary
ital
responded
Band
Documents
colon@@
2.1
sett@@
permits
moder@@
broadcasting
aqu@@
Final
1982
Multi-@@
theatre
Munich
LES
awa
nes
porter
SMEs
WTO
Sl@@
Wales
spouse
autonomous
eland
Consequently
gym
aker
informal
Customs
viruses
Dri@@
g.com
wages
Rh@@
Staff
asis
tively
crowd
advis@@
Platform
tations
fuels
oo
ia@@
evaluated
Hamas
manip@@
authorization
Hur@@
Mar
boundaries
fulfill
Bla@@
secrets
casino
Similarly
credits
politicians
xes
divorce
partly
Marriage
EP
displaced
confidential
polymer
cha
settled
Diesel
stimulate
yield
colorful
RS@@
Aqu@@
containers
Var@@
air-conditioned
Wat@@
folder
executing
sized
fulness
P.
Steve
cardiovascular
modern@@
bond
Fon@@
mounting
ICE
fort
stance
liable
lesson
2030
porters
notify
favourite
ika
collaborative
mature
conclude
glad
meaningful
passionate
nu@@
bra
Mis@@
Sorry
hunting
rog@@
Growth
Cli@@
lid
comprise
existed
suits
disclosed
Cla@@
Letter
vel@@
potatoes
hiking
ken@@
59@@
positioning
emails
Fast
overlooking
ity@@
proximity
bonus
attraction
Shar@@
sam@@
lia
Similar
listing
popularity
Sector
absent
mi
Manchester
Philippe
etary
Nat@@
founding
CIA
Hi@@
stat@@
Putin
Accommodation
damages
hybrid
locking
Sher@@
asses
Dig@@
cleaner
Frankfurt
Shows
Che@@
ots
decides
pa
5,000
PER@@
laptop
stimul@@
shoot
58@@
Pil@@
cred@@
determines
crow@@
shareholders
Perfect
Calgary
Representative
exported
sac@@
Ka@@
ulated
retro@@
personalized
itor
vintage
recognizes
wherever
TH
documented
Student
sophisticated
Lab@@
deployed
Competition
ota
52.@@
ace@@
chi
stabil@@
Bot@@
Title
visitor
constitution
Flight
Rubber
GT@@
okay
vit@@
Sou@@
thi@@
appreciated
Newfoundland
fel@@
Tag
teenth
Anna
Sing@@
Lav@@
cry
taxi
Direct
absorbed
6,@@
tent
generating
breach
NRC
delighted
argued
Loire
minimal
variant
eau
Jackson
n.com
advocate
governed
consistency
SR@@
analy@@
ingredient
symbols
nerve
Ré@@
seasonal
welcoming
gathering
N-@@
chains
freezer
170
len@@
bi
harder
oming
owed
inserted
repairs
deeper
Century
mold
edi@@
yoga
emo@@
Switch
ATE
incredibly
ented
glory
paste
balls
quote
spac@@
farms
eding
titles
diamond
kilometres
outlet
FOR@@
Simon
19.@@
somebody
Guest
assessments
welcomes
Mah@@
exterior
tex@@
Amnesty
Rol@@
kets
surgical
Rue
Israel@@
ually
mortgage
rich@@
singer
gs
perceived
arising
Mike
array
fam@@
tend@@
Je@@
Changes
Client
Frame
instruction
exploring
distinguished
tre
seasons
pockets
Landscape
fallen
terror
pro-@@
Ep@@
manually
stocks
textile
carries
shore
arrange
Strasbourg
hormones
23.@@
Fal@@
flour
Spe@@
Ze@@
coalition
1979
Cut
mysterious
assembled
Carbon
Tun@@
Better
Almost
bled
Shanghai
familiarize
lifting
Ari@@
Inv@@
variations
Mexican
Vehicles
robot
rank
EF@@
REN@@
Ky@@
Lights
cavity
Hop@@
occasions
Pel@@
Gil@@
XX@@
protest
jury
GL@@
Bath
admission
aer@@
CM
inflammatory
Porto
frozen
Shopping
Survey
Laval
objec@@
senators
sqm
single-@@
©
compromise
tonnes
workforce
Ill@@
GO
activists
hardly
Ron@@
rebel@@
verification
cooked
suspected
Hil@@
Radi@@
oli
logistics
bin
FE@@
flo@@
Sau@@
uk
cognitive
Lace
municipalities
surely
suc@@
ries
Question
izations
Tel
Different
wheat
Field
vicinity
nic@@
Mali
Near
gie
trail
stunning
Mé@@
fits
Taiwan
Whatever
encing
Card@@
twelve
Steering
religi@@
Sir
aluminium
Han@@
jump
FAO
Complete
VAT
Stephen
bud@@
combining
physics
tem@@
incidence
Inf@@
Various
sequ@@
organizational
ogen@@
zer@@
bleeding
downtown
s.org
Nan@@
customize
tender
documentary
symp@@
bulk
formats
righ@@
SR
ent-@@
repeatedly
Rot@@
profitable
Accordingly
eration
COR@@
accordingly
temporarily
delicate
decor
ray
Gray
Evaluation
priest
Boat
preservation
chemistry
CBD
mentation
Os@@
grows
mem@@
um-@@
Liber@@
crown
kidney
cycles
Rab@@
admit
nam@@
Fitness
packages
M.@@
amongst
wallpaper
harassment
Days
Persons
utility
deadline
slight
RestoMontreal
generator
64@@
Overall
ains
school@@
l-@@
testimony
Ori@@
sleeve
Back@@
mild
sake
uph@@
lap@@
generous
Branch
minimize
rie
sink
Jun@@
pain@@
uncertainty
assault
plain
Wall@@
emission
Enter
servic@@
105
random
agg@@
shed
Deb@@
panoramic
Blood
digestive
weak@@
outlined
acceler@@
oms
2-3
Kir@@
ethics
trace
1983
oting
profound
Event
ud
MENT
react
amend
rehabilitation
kar@@
1990s
iOS
interference
Kim
procurement
Elizabeth
MC
ood
PSD
industri@@
ind
antibiotics
charity
molecules
FF@@
sudden
Sum@@
Monitoring
check@@
inches
reward
foundations
Fresh
geo@@
roller
construc@@
BB@@
BS
sav@@
circum@@
ough
state@@
shut
activate
Att@@
eta
barbecue
tec
trigger
glue
Head@@
Later
bronze
Connect
taxation
assumed
campus
ree
True
tongue
recycling
1981
Xiaomi
airlines
Much
pap@@
headed
terrorists
Ax@@
maritime
Vel@@
Taking
portions
Oc@@
rol
alls
Properties
LU@@
tia
CAS
countryside
20.@@
Prague
maps
disclose
alled
wit@@
unlike
tax@@
Languages
cross@@
Ry@@
diplom@@
ousness
defines
tied
Wa@@
travelers
wool
TF@@
jointly
promotional
AA
ía
atri@@
Cul@@
DU@@
Patrick
MAN@@
rup@@
Guinea
fought
Hydro@@
Prior
basement
ulous
irrit@@
DO
secretary
sho@@
disappeared
vo
automotive
Printing
elite
offence
backed
proc@@
Hit@@
ible
Ukrainian
herbs
intend
isc@@
meditation
referring
portal
cruise
ison
1970
keyboard
protests
coated
1.8
Pump
crop
refined
Communities
Boston
Gender
oper@@
Antonio
2,000
Someone
theoretical
Fair@@
enne
limiting
Less
pil@@
Prof@@
Audi
Intelligence
Agenda
researcher
emerged
Impact
tex
Lat@@
Mars
experiments
analyses
silent
Hus@@
Renault
Jones
sauce
Dev@@
Am
weakness
motivated
87@@
extr@@
Gam@@
alternatives
recommends
ask@@
aka
angry
LS
civilization
regulate
dest@@
Benefits
oration
molecular
shorter
fisheries
Records
bad@@
stairs
franch@@
fer
iss
xing
Fore@@
pools
fails
MT@@
fare
Andrew
Bern@@
plasma
Jersey
complementary
bid
strap
dense
Wood@@
tible
CI
Administrative
fibers
Applications
eli@@
Cathedral
cosmetics
Born
walks
utes
humidity
ç@@
deficit
insul@@
corn
Joe
Les@@
ore@@
volunteer
102
unexpected
instruc@@
securities
licensed
GD@@
full-time
alk@@
valued
lo
ros
zo
EP@@
corners
Yemen
garlic
ower
Football
-related
Thai
prominent
Organisation
Archive
z-@@
Work@@
Recent
Plan@@
fro@@
zes
entary
aring
DP
rests
Alex
17th
ranking
External
Greater
Marina
business@@
Points
apparently
dam@@
shelf
shelter
Ali
audi@@
marking
RS
Wooden
Neu@@
Avoid
picked
assure
Theatre
flesh
subsidiary
suff@@
Eye
Arm@@
anthro@@
tops
methodology
day@@
thy
alloy
frames
consecutive
Via
health@@
souls
Fle@@
tattoo
24.@@
accessibility
Housing
reas@@
payable
attracted
solved
inter-@@
registry
invites
loads
ories
publishing
tensions
thro@@
KE
enhancing
marble
rob@@
Pay
Commun@@
instant
phy@@
compositions
accurately
constraints
HR@@
Update
IMF
oni
engineer
Generally
Permanent
arthritis
illing
Senegal
H.
voices
●
assured
dealt
receiver
Sri
Claude
CF
bomb@@
ignor@@
disputes
arr@@
ounding
rati@@
trusted
paths
settle
Temperature
Ambassador
Tab@@
directive
concentrations
landscapes
g-@@
toy
Ret@@
care@@
vel
god
Bachelor
Juan
cooperate
skiing
Mess@@
capability
Stay
fats
cables
legacy
usion
Toshiba
mal
Happy
ashed
Poster
tour@@
Pom@@
Stri@@
house@@
Flo@@
Aff@@
accomplished
relieve
dep@@
commerce
accompany
boiling
Six
oz
loving
promoted
inter
lob@@
conjunction
resume
pipes
Cle@@
2019-0@@
six@@
puzzle
autonomy
inde@@
avoided
unpleasant
tournament
makeup
Parliamentary
throat
Too
distribute
oak
tening
displacement
camp@@
aro
glucose
origins
Doctor
ographic
punishment
lease
NO
lab
photographer
optimize
tiv@@
backup
cookie
itate
1980s
dramatic
magical
Def@@
pharmac@@
Contracting
Ell@@
ologically
.com.@@
cement
Lawrence
1970s
à
Chemical
pH
dairy
weren
suspect
monitored
ety
tubes
7,@@
Gifts
kn@@
Hey
roughly
Length
bases
horses
Around
Ohio
insufficient
orn
Alzheimer
chip
pers@@
on.com
enced
yn
ake
occupational
Demographic
tial
-de-@@
competence
arrives
athy
Long@@
alliance
Photography
Cap
conformity
thirty
synthesis
performances
journal
RCMP
Revenue
az
releases
aviation
Season
fluor@@
François
Visa
rency
dealer
Classical
tires
in.com
blocked
strain
lac@@
TU@@
tooth
Div@@
fla@@
shortly
shoe
experimental
,00
tariff
Clinton
targeting
intim@@
mill
86@@
ix@@
Monaco
strikes
sian
pad
ump@@
chan@@
Ltd.
pro
Hamburg
Adv@@
eld
Electrical
cleaned
MIN@@
Cell
Commons
distinction
icing
Art@@
Questions
elimination
eliminated
itter
Captain
carriers
eless
telecommunications
Tan@@
off-@@
Vatican
Chur@@
bers
insulin
capitalism
installing
w.com
organisms
tumor
termination
motivation
actu@@
darkness
economics
kel@@
2017-0@@
EM
correspond
Plant
necessity
od
slow@@
JO@@
desires
Dur@@
SP
Provincial
retention
eigh@@
poss@@
stays
Status
arding
obesity
theater
modification
defects
mates
Course
ria
intimate
mot@@
quartz
rid@@
recall
Request
detained
amounted
inte@@
Birthday
Pay@@
peror
W-@@
Arabic
dale
distinguish
autom@@
Inuit
Yukon
ruled
tanks
89@@
Abu
separ@@
fig@@
Cs
b.com
Cit@@
repl@@
contest
4.5
kel
ank
decent
slide
Infrastructure
Cher@@
advances
eth
ares
Mak@@
innocent
welding
oss
Chain
floral
locate
BER@@
sion@@
adapter
winners
Theme
paren@@
real-time
bin@@
fran@@
acker
protec@@
co-operation
transmit
there@@
ACE
architect
preceding
icians
sauna
ecosystems
aesthetic
configured
earnings
fake
prospects
UNICEF
mines
elt
judg@@
Guard
Supplies
Monitor
3.0
ided
ignore
2.3
Schedule
Cabinet
Non-system
block@@
owing
boss
allegations
Tour@@
prevented
ounded
automation
dioxide
frag@@
Against
rein@@
attending
genes
ound@@
fears
finishing
mic@@
liqu@@
intensi@@
arming
Dance
hub
Athens
Princess
mount
train@@
laying
packing
fired
ped@@
stor@@
agon@@
mon
ICs
Flash
deposits
emergence
ured
defining
attributed
Ethiopia
associate
shop@@
Marseille
contractual
Dry
Developer
1975
Nuclear
Railway
engaging
justify
improper
happ@@
Tree
Il@@
obliged
Eric
Courses
opt
vin@@
paragraphs
infectious
kl@@
Job
expenditures
road@@
gaming
render
blo@@
heav@@
Range
criticism
Communist
planes
civil@@
una
Activity
tioning
Bet@@
ér@@
brut@@
Fol@@
assurance
Sti@@
Throughout
Iraqi
amino
HA
bir@@
Spo@@
ister
eman
al.com
linen
on-site
eks
chairman
1967
nationals
1960s
Jim
banned
woven
atten@@
complement
olic
Cham@@
Vin@@
allocation
networking
mixing
firmly
Appendix
venture
row@@
shades
symbol@@
propri@@
life-@@
gan
initi@@
decorate
inos
key@@
amaz@@
deficiency
TD
efs
stylish
Vehicle
Ow@@
wr@@
VO@@
ambi@@
over-@@
190
Keywords
on-line
cher@@
alli@@
sou@@
Franc@@
c-@@
W.
main@@
Bul@@
ge-@@
Independent
Coolblue
demonstration
l.com
swelling
ally-@@
Faculty
cited
MP3
-sur-@@
Beverage
ante
dosage
fix@@
salad
3.
folk
emia
handed
Winnipeg
Certificate
bonds
num@@
Snow
Islam@@
SB@@
sustained
ères
H-@@
age-@@
Truth
sixth
Brazilian
operative
Magic
safer
Hollywood
fascinating
worship
Jacket
tomatoes
iper
validity
oth
Operation
collar
VPN
relatives
laugh@@
Non@@
gaps
Toilet
GM
zi
rub@@
arriving
cross-border
v.
auto
dozens
25-@@
locks
a.m.
satisfactory
interpreted
escal@@
PhD
lic
Capacity
18-@@
donors
isolation
Bob
Hard@@
án
ML
dial
wallpapers
resolutions
considerations
Magn@@
Miami
lun@@
Nissan
BE
tackle
Malaysia
aci@@
anch@@
Unless
MO
Bec@@
predict
correction
Brother
occurring
1978
Drug
mate
evol@@
Vegas
ventilation
featured
obe@@
Workers
Lé@@
extrem@@
cycling
iz
zy
threatening
ovo
Brands
pec@@
Roc@@
screens
prolonged
Ci@@
1945
confidentiality
lov@@
shuttle
ENT
0.1
Test@@
urge
vir@@
◦
los
mankind
cut@@
URE
parad@@
Instruments
reconciliation
double-@@
hallway
Found
Male
notary
Rather
Ms
Arn@@
Zone
shadow
intent
voc@@
declined
och@@
contrac@@
iser
favorable
Renaissance
osity
dra@@
scri@@
immunity
antly
authorised
onne
currencies
EU-@@
locally
ericgown
ele
basically
hil@@
Volkswagen
CS
App@@
stuck
Cameroon
hab@@
Spir@@
considerably
maintains
U-@@
tica
Friends
Sensor
Wars
Bag@@
gues
Pendant
nutritional
Belt
variation
ratings
seating
quet
elevator
negotiate
essions
yan
VW
ONE
sco@@
palm
oh@@
diff@@
investor
endants
usi@@
idity
hang@@
waterproof
Kn@@
scores
script
N.
tends
Traditional
Enterprise
non-profit
thetic
gli@@
Voice
Flixbus
Chin@@
indirect
ú@@
privileged
3.1
ea
Shipping
15th
pairs
Airports
230
races
Sierra
pas@@
confusion
Adapter
normal@@
phen@@
UT@@
replied
Letters
privilege
Television
completing
immun@@
Models
Canon
Advisor
se-@@
Côte
Agricultural
B.@@
Replacements
blocking
Sac@@
ications
contradic@@
Illinois
aud
MD@@
ka@@
relevance
nevertheless
itions
grand
abstract
vis
probability
biology
schedules
CK@@
design@@
strengthened
overseas
CRTC
Device
regret
sentenced
patience
set@@
Key@@
installations
inspire
icated
extending
edit
Bran@@
ounce
qualifications
aper
polyester
layout
mark@@
Carolina
acrylic
beads
reproduction
possess
icked
210
graduates
Clar@@
antenna
mig@@
after@@
supporters
vate
writes
tran@@
Nav@@
Solid
medieval
vering
lay@@
qui@@
ard-@@
anticipated
spite
RE
Mart@@
Presid@@
cups
org@@
iter
jan
IE
macro@@
severity
bomb
Yamaha
takeMORE.net
mb@@
Version
D.@@
uro
custom@@
Wind
14-@@
conqu@@
bab@@
dou@@
thri@@
Strip
Suitable
kh@@
lan
130@@
resist
less@@
wardrobe
16th
chron@@
Rule
Fair
pole
Terrace
ful@@
hills
abl@@
dynamics
ILO
1.0
etic
asting
investig@@
Calculation
deck
Hay@@
Russi@@
acknowledged
advisory
insects
Architecture
LIZARTE
evident
watched
practically
iny
Delta
Hem@@
Superior
imperi@@
catalog
dar@@
scar@@
COMP@@
Whirlpool
colonial
Lyn@@
ori
depend@@
Conditioning
Beyond
K.
qualify
ch-@@
beans
Promotion
addic@@
notion
Democr@@
SF@@
charger
Blog
euro@@
hn@@
Sign
Dre@@
scan
certificates
du-@@
DL@@
dietary
Suites
ste
ate-@@
pounds
Emirates
plurality
itable
Story
chlor@@
wound
Tak@@
Founded
240
towels
eric
Deep
writers
handles
2.4
defe@@
phenomena
Fron@@
cence
combustion
dresses
Ball@@
WH@@
f-@@
tribute
ishment
ple
Micro
blame
organizing
featuring
Hard
adj@@
retained
Tube
Wel@@
gloves
preference
Cent@@
Gall@@
urrec@@
Ps
Provid@@
endeav@@
assessing
discomfort
Pre-@@
Projects
occurrence
econom@@
Residence
Ah@@
diesel
computing
104.@@
open-@@
Ric@@
hanging
Hence
stu@@
VE@@
01@@
agrees
But@@
minorities
presenting
Bea@@
FIN@@
clause
noting
Offers
hoping
Liberal
selecting
circul@@
escap@@
tery
Sec@@
tech@@
convince
Europeans
ter-@@
ua
Mrs.
dge
intends
ump
Junior
xi@@
Value
rier
unlimited
esh
Shirt
heal
racism
CT
pedi@@
organism
clin@@
ques@@
Directorate
Assistance
Bosch
Buddh@@
tum@@
Arthur
gently
lex@@
habit
cellar
lessly
alizing
atics
ptions
clarify
Stre@@
1976
gem@@
unt
replacing
sul@@
h.com
prejudice
Diffe@@
Copper
Session
struck
Ten@@
Day@@
influ@@
ush
bishop
PD
polis
ticul@@
invisible
YOU
packed
milli@@
1973
Silicone
earthquake
of-@@
believ@@
Him@@
Lap@@
pop
oos
FR
Import
Rwanda
xed
sh
dough
ido
extraction
coordinate
ense
sphere
ranges
Fiber
touched
metric
osa
instantly
Listen
dominated
villas
rul@@
responding
stake
PM@@
lor@@
ested
blend
viable
deny
outbreak
Laboratory
specialty
Taylor
lou@@
ky@@
wounded
assass@@
matching
78@@
Airlines
sat
time@@
Broad@@
strive
16-@@
ago@@
TP
iro
Canvas
oh
tremendous
use@@
š@@
Edmonton
segments
Email
inno@@
reasonably
marry
hl@@
Pure
compartment
Linux
NE
None
arch
pag@@
Task
Hope
dll
enjoys
Pressure
capitalist
Istanbul
Payment
avoiding
Zurich
contacted
G.
Researchers
micro-@@
interim
Shops
exclusion
Sho@@
band@@
tap@@
jewellery
servants
worlds
efully
gravity
Boys
25.@@
Horse
delivers
ift
hazardous
diagnostic
amps
Optim@@
cozy
wel@@
rem@@
urged
vely
Malta
well@@
margin
convention
deputy
soluble
Human@@
reject
lip
Seven
Tours
Sarah
Mot@@
instances
Sam
vinegar
ès
argue
Tit@@
Leader
demonstrates
nitrogen
07@@
ahu
Supermarketworldguide
Understanding
persistent
cargo
ester@@
chrome
Amendment
Pipe
ean
laugh
3000
custody
Jam@@
placement
converter
ex-@@
summar@@
Operating
creatures
assisted
Vitamin
facial
vern@@
global@@
osex@@
tub
constituted
MR@@
rivers
attempted
pir@@
sends
Channel
water-@@
Championship
Income
ø@@
bow
financed
TT@@
Contributions
BLACK
dist@@
evolving
pipeline
Partners
iri@@
Sydney
aires
own@@
ackers
Cottage
Left
GS@@
thorough
catalogue
bacterial
oured
premi@@
rest@@
referendum
brass
trav@@
RES
appellant
Sky@@
reinforced
palace
Thir@@
Fuel
fav@@
distr@@
Jet
life@@
dozen
influences
composite
abil@@
ingu@@
tears
le.com
breathe
invasion
Danish
booked
silicone
54@@
Excellent
fast@@
illary
Sleeve
accompl@@
gy@@
Surface
cann@@
monuments
sail@@
accessed
saf@@
tell@@
Naples
burned
hectares
pushed
10th
Removal
smallest
Uganda
Desk
forbidden
differenti@@
PT
decisive
Mit@@
psycho@@
fashionable
steering
neighbors
pants
thre@@
chloride
Labrador
bears
GB@@
cellular
aughter
hence
vaccines
Iceland
Dead
umes
mond
Anyone
communicated
6th
leather-band
Down
sealed
iling
iki
excluding
Dublin
ania
Mass
introducing
eo
ult
guil@@
Casual
fragile
environmentally
mesh
fusion
launching
cartridge
icul@@
disappointed
Shi@@
Month
Vit@@
ente
Scri@@
ock@@
implies
declare
participant
Getting
PU@@
presentations
GH@@
apolog@@
lawful
domin@@
Catherine
bre
Plaza
Rate
Downloading
Goals
legisl@@
Hoo@@
rot@@
104
crash
Release
remarks
urgently
tan
Jac@@
bicycle
ian@@
owns
NH@@
ram
fixing
tendency
preventive
evolved
formations
uting
Fel@@
columns
absorb
ilia
Ads
ar-@@
Michigan
bills
Valencia
incurred
WW@@
Core
ury
cough
patri@@
IR
console
Premier
24-@@
Brexit
downloaded
liters
sponsored
phrase
imaging
LL@@
attachment
curious
Inside
mini-@@
concentrate
lung
proceeding
distant
rack
offset
sunny
bis@@
Armed
explosion
Attorneys
Vacuum
Governments
traders
Oceans
5mm
dirty
Okay
ms@@
silk
hungry
found@@
anonymous
seniors
appetite
Ceramic
8,@@
MD
Pow@@
luxurious
master@@
iller
no-@@
ager
oux
ART
solvent
mission@@
brigh@@
AND@@
aters
Imp@@
Motorcycle
advisable
Sky
nal
Lad@@
erson
donor
CG@@
accountable
Fall
stric@@
Juli@@
desktop
expec@@
capacities
FL
patch
Leave
Trad@@
scal@@
hes@@
abortion
connects
coupled
Explorer
af
interfere
donation
drain
persecution
refin@@
Aut@@
skirt
tory
divide
oes
Lind@@
conscience
7th
drives
walked
immer@@
cali@@
Chap@@
tune
otic
offensive
Document
Designed
Economics
Participants
electr@@
slip
3.2
Vincent
accessory
lightweight
algorithm
adays
sid@@
Chrome
giv@@
developer
striking
admire
attach
eting
list@@
`@@
fires
Managing
beloved
conversations
power@@
kitchenette
Wik@@
Evening
contamination
Showing
pret@@
detector
adver@@
mari@@
negotiation
ames
pub@@
roll@@
py
actress
onom@@
FREE
consuming
Kas@@
Falun
Orchestra
Magnetic
verified
Cra@@
abundance
Dining
streaming
Hear@@
ander
repres@@
conv@@
f.com
magnesium
twenty-@@
recipients
invented
Diego
incorporate
Bell@@
tril@@
nt
certainty
newspapers
lows
disciplines
40-@@
neighbourhood
KO@@
Arti@@
Kan@@
storing
cab@@
bey
Moroccan
anne@@
chy
wings
dn@@
teaches
thor@@
Lovepik
scenarios
Fox
ox
Exhibition
designing
Tou@@
lover
RF
rigid
activation
LAN@@
omb@@
neur@@
trucks
large-scale
1968
Mem@@
Lang@@
Cookies
clouds
mile
Lor@@
tionally
Eu@@
nut
retired
anti-inflammatory
sleeves
fulfilled
best-@@
disci@@
loyalty
complain@@
Max@@
Partner
timing
Memory
Situated
inequality
colleague
appointments
Aud@@
comprised
resid@@
40.@@
í
pac@@
ogenic
vibration
rum@@
horri@@
visu@@
gentle
shoulders
Laurent
F.
cigarettes
Ray
Ghana
Wol@@
1977
sheep
medal
cere@@
L.@@
Consider
endor@@
orous
scroll
Satellite
angel
adjustments
unacceptable
compression
lowing
Produc@@
ails
Est@@
confused
schemes
recogn@@
HDMI
stolen
clay
ingo
Shell
flavor
Rub@@
DB
till
Heaven
insight
sovereign
shor@@
disasters
CR
ounds
hose
ayed
Rates
shield
Experts
Creator
expressions
lakes
clarity
accomplish
Provide
ne-@@
Wheel
pup@@
limitation
sacrif@@
orial
maxim@@
Higher
erous
continental
Gir@@
heart@@
anth@@
comb@@
indi@@
banner
Jazz
1960
By@@
iconic
recycled
yo
Walk
psychi@@
Bak@@
rocks
Qatar
Printed
SY@@
wealth@@
ape
exceptions
xx@@
VER
ann
Haw@@
HU@@
jun@@
Audit
theft
e-commerce
COMM@@
Antwerp
recognise
Vice-President
cong@@
1972
Goods
u-@@
ava
Phoenix
traces
circles
Networks
virtue
variables
Cologne
alo@@
liberty
appliance
folding
baking
potassium
loud
shine
Expl@@
champion
Hello
kits
sliding
1500
followers
unforgettable
augh@@
anic
Meth@@
shelves
Sites
Blo@@
occup@@
onian
Ten
Camp
freedoms
Serbia
las@@
matrix
accepting
Cooper
centr@@
CAN@@
Cutting
soup
Adjustable
nursing
tide
virtu@@
vist
Embassy
ution@@
aster@@
27.@@
singing
corrosion
des-@@
Boy
R.@@
Sig@@
acqu@@
EG@@
manages
missile
tragedy
hair@@
Shel@@
renovation
drum
1974
rough
Silk
accumulation
Rural
talented
Real@@
bulb
femin@@
115
connectivity
unemployed
Mix
delayed
astic
Matthew
deliber@@
exceeds
succeeded
zip
Mun@@
appearing
flu
fossil
exclude
tol@@
Good@@
tailored
lenses
Entertainment
orph@@
vil@@
soldier
Ce@@
0,@@
Cars
sunlight
Bavaria
MAN
conve@@
acet@@
bracelet
catastro@@
scientist
Wind@@
Extra
Fire@@
gon@@
metallic
Flowers
speeds
Manufactured
multilateral
projected
53@@
Introduction
tivate
acne
revi@@
28.@@
regation
eliminating
revel@@
pdf
tility
Aviation
Certain
Casino
buil@@
Maritime
TI
photograph
oca@@
adi
Bit@@
Dec
dings
lier
Disease
commemor@@
220@@
idation
Join
Reading
TW@@
physi@@
iced
pronounced
79@@
stre@@
Nik@@
confirms
Tony
Outside
tones
diagram
ice@@
clos@@
vs
ression
Nazi
delays
Tren@@
deduc@@
Purchase
luggage
Window
atic@@
Mirror
Pun@@
maximize
ck@@
ugs
650
disposed
masses
ague
Motor@@
offences
chips
finger@@
sky@@
Stat@@
Acrylic
Friendly
Williams
refusal
abundant
det@@
shots
Meteorological
Physical
eligibility
Ladies
cryptocur@@
und
iction
Raw
Cycling
nie
Off
collaborate
Pearl
decreases
pet@@
5G
Hou@@
consult@@
fraction
Racing
spices
crises
ness@@
juana
aligned
Ultra
eping
appreciation
needle
counts
rape
Turn
survivors
inherent
drew
Bom@@
Territories
strengths
Bow@@
climb
economical
catalyst
technicians
Om@@
1-2
appoint
ambition
Historic
sad@@
exam
Registration
ano@@
eps
Highway
onds
Sto@@
borough
wy@@
Divine
spirits
os.com
tual
brick
pensions
aim@@
projec@@
Masters
correc@@
Post@@
Wilson
Northwest
ario
remembered
lungs
Dominican
Toulouse
dirt
geographic
rational
700@@
trailer
contaminated
struggling
now@@
Polyester
predictable
hop
ffs
Names
cooperative
Falls
Hardware
Talk
ulating
Handle
winds
efficacy
jets
Implementation
plated
fiable
penalties
terraces
purple
HC
reproductive
bus@@
Ja@@
curve
evolve
Dial
intestinal
Booking
administrator
OL
crossed
Rock@@
dier
Conservation
04@@
Every@@
Intel
ARD
Adri@@
Mass@@
sealing
ultra-@@
Fortunately
reaffir@@
observ@@
Mou@@
Along
ret
cran@@
Advertising
ic-@@
highway
Owner
3,000
fifteen
inity
extracted
undergo
laboratories
beef
gaining
blow
conservative
miracle
renew
parameter
ached
basin
Gab@@
jurisdictions
toxins
generic
qual@@
epidemic
bac@@
XP
outh
fighters
1971
panic
Author
Decoration
perspectives
borrow@@
asleep
Veterinarian
statutory
VR
bou@@
analyzed
prayers
WordPress
accepts
itiz@@
trademark
fies
chil@@
market@@
LIN@@
view@@
Tanzania
Boots
tification
.pl
breeding
masters
inging
blockchain
-watches
Regular
Ecol@@
doubts
entia
Topics
motorcycle
Gold@@
Practice
rad
metabolic
Volvo
Championships
zinc
rowing
60-@@
dual
reservations
vinyl
Templates
dys@@
indispensable
pine
dimin@@
accor@@
otherapy
anga
travellers
deposited
ML@@
ador@@
resses
concerts
indirectly
tains
Abraham
fulfil
systemic
criminals
arily
RF@@
ION
1200
ABS
Big@@
fibre
06@@
oy@@
persu@@
erup@@
migrant
Patients
Mental
ARE
underway
endless
itic
vill@@
good@@
intermedi@@
omed
yu@@
Ful@@
Gem@@
knee
kind@@
hem
Procedure
attitudes
ported
Sah@@
forcing
Distance
ECO@@
Link@@
CER@@
TB
CRA
oste@@
fir@@
revision
Recently
shipped
reads
Tank
Gener@@
loo@@
delegates
racial
Lite
kes@@
allergies
dic
prog@@
physicians
expos@@
Snow@@
wounds
dorf
photo@@
tian
consulted
Aid
Far
32.@@
scholarship
best@@
Evolution
competitions
Reservations
Oxford
simplicity
Essential
Recommended
patio
incorrect
Charger
Orthodox
meas@@
Democracy
gh
bell
Focus
inevitable
evid@@
dimensional
Plate
curtains
energies
formally
vert
vin
ells
understands
flow@@
106
Response
watches-@@
diving
GRA@@
spr@@
accessing
vent
Published
superb
heroes
ignored
aug@@
wins
ailing
Dear
ug
Schools
beverages
Mik@@
whilst
saturated
capital@@
them@@
advertisements
asty
Prepare
sculpture
liberal
arly
Challenge
right-@@
coloring
comple@@
mill@@
purity
II@@
floating
WA
Jer@@
anybody
DIS@@
Yoga
Clinical
Block
Lakes
FIFA
shif@@
shar@@
lace
gang
inge
ground@@
iva
departmental
Paul@@
claiming
asthma
Spr@@
Built
Ober@@
Budapest
Manufacturing
Din@@
lobby
goo@@
raises
monies
bility
South@@
Nicolas
Patri@@
tum
Something
Lec@@
Jacob
compulsory
Ot@@
Liv@@
elli
pays
protocols
aba
lot@@
Religion
ole@@
ANT
Decorative
ution
Adult
safeguard
Smoking
simul@@
pig@@
realization
relaxed
non-governmental
Grand@@
Azerbaijan
Mountains
grip
visions
Tennis
Roger
supre@@
unwanted
continuity
Aub@@
lighter
1969
itching
hook
-of-@@
rinse
fiction
Liquid
activ@@
exemption
Ji@@
Bernard
tac@@
MI
renal
76@@
E.@@
hired
suggesting
teach@@
Text
qualification
aving
cylindrical
H.@@
Effects
cancelled
ost
Selection
vocational
ven
Inte@@
Ped@@
inventions
Term
legend
dos@@
guns
cad@@
Ok@@
onate
IV@@
pending
123
extra-urban
Bedrooms
boil
transported
cit@@
Wild
chro@@
tunnel
Easter
algia
Ground
philosoph@@
imper@@
IX
â@@
Printer
circ@@
conviction
Cambodia
seekers
wondering
Strap
Power@@
stupid
contractors
365
Mau@@
careers
Patent
aks
Rings
scared
iding
Quantity
Any@@
top-@@
pulse
contracting
eu
metro
job@@
uals
seminar
xy@@
painter
deserves
respon@@
Trail
sticks
tance
affiliated
9,@@
Medium
rendered
Wallet
Azur
removable
analytical
convicted
Rand@@
altitude
march
spreading
ICS
Kel@@
draws
fai@@
Offer
passive
Americas
08@@
bap@@
Orders
embedded
Exp@@
gun@@
ladies
eff@@
brilliant
way@@
animation
respects
Ray@@
MT
Clothes
pho@@
Copenhagen
Imagine
rhythm
formerly
Videos
willingness
och
ITY
faculty
Roma
KM
Homes
Tru@@
strongest
Château
ão
ived
Autom@@
inheritance
demographic
Meg@@
exhaust
telec@@
UNHCR
adhere
jail
Effective
trauma
Apost@@
quarters
Prix
propaganda
spine
SMS
112
restrict
buffet
ocked
shipment
Mark@@
pass@@
circuits
norms
smar@@
in-depth
addiction
Mach@@
sed@@
pushing
shame
Record
simil@@
Mayor
cm@@
feder@@
nurse
variants
Lab
ograph@@
contribu@@
Lanka
Half
tangible
electrode
suggestion
wat@@
alter
green@@
ranks
Yu@@
simulation
Cav@@
T-shirt
popul@@
gio
Nom@@
embar@@
cave
condemned
Volume
Opera
educated
surfing
resting
gle
erad@@
uters
jar
Border
ideally
emphasize
donations
strips
Gloves
adv@@
Nig@@
distinctive
sweet@@
know-how
ero@@
favourable
cease
pedia
quit
penis
Wo@@
Hours
barely
longitudinal
combinations
hoped
Bus@@
magn@@
varying
-Saharan
Fro@@
Eur@@
announ@@
explicitly
handled
Label
petition
DP@@
1948
theories
API
mathematics
Vacation
Tol@@
Telephone
facilitating
Brian
Kil@@
aggreg@@
Berg@@
Vector
seg@@
SER@@
8th
invent@@
dressed
hiding
Tem@@
Healthy
tained
rectangular
Moses
Armen@@
Eng@@
evaluations
Maryland
dependence
registering
Pension
hn
readily
pled
thrown
Jon@@
Benjamin
N.@@
Animals
20,000
aqueous
som@@
voters
Provence
estly
emphasized
consultant
mm@@
eva
purely
Profile
math
swear
univers@@
Kit@@
FE
wanting
185.@@
Roll
Del
fled
Presidency
eaten
bits
calculations
lever
jack
Historical
offenders
SEO
WIPO
lex
nodes
Pads
divid@@
Stage
UR
rail@@
Grant
blades
Compact
likelihood
peripheral
deadly
po
ott
lime
oceans
dangers
forecasts
Lock
trails
time-@@
ond
slave
turnover
olo
103
bulbs
Deutsche
108
pilgri@@
Mode
bed@@
reconstruction
indu@@
PRO
te.com
Bis@@
divisions
Stan@@
31@@
yers
vig@@
resilience
vacc@@
PU
internship
ru
Hz
newsletter
Qual@@
plastics
mind@@
charts
pumps
gods
Bracelet
fut@@
redirect
FDA
Function
50,000
filtration
statue
towel
RES@@
celebrating
PRE@@
psychology
Esp@@
accession
conditional
Adobe
rot
casing
acoustic
tariffs
genocide
Controller
rin@@
North@@
it-@@
Squ@@
treasure
playground
synchron@@
flame
gos@@
subscri@@
Strong
Mes@@
durability
Flu@@
reactor
ku
countless
vulnerability
wick
bran@@
continually
recalled
Rac@@
particle
13th
Resource
arbitr@@
decom@@
Monetary
traditionally
stan@@
Cambridge
sia
onset
ld@@
acre
au-@@
Nutrition
los@@
angers
198@@
Telecom
approve
monument
Regions
Ready
athlete
severely
Person@@
tz
mach@@
gas@@
Cornwall
libraries
year-@@
fitting
sorts
aw
Bangkok
indications
smartphones
dancing
woods
Haz@@
Prote@@
Message
prud@@
Cruz
Holland
Halifax
EB@@
dissolved
expressly
optimally
ICAL
gram@@
comparing
ied
Maj@@
canc@@
outdoors
luc@@
Adventure
volcan@@
Hos@@
Violence
wishing
Us@@
linking
vian
les-@@
wanna
diver@@
festivals
Bath@@
tha
translate
Panama
impres@@
dedication
fon@@
5.5
sorted
ICT
commented
Governance
rubles
nm
1-0@@
fence
Integr@@
stitution
nd
ince
beige
easiest
Sex
uma
masks
degradation
nucle@@
switching
320
drama
Pad@@
competing
Missouri
vibrant
casual
Cairo
AGE
ips
coinc@@
Ensure
online.com
Footnote
Kevin
Logo
Former
quoted
PT@@
educ@@
malware
accounted
Somalia
schol@@
iter@@
Groups
Nic@@
feld
Tech@@
Electro@@
arma
Citizenship
Bin@@
Arrival
advisor
Angel
lodging
con
symptom
Attorney
cycl@@
modest
Distribution
SQL
rolled
sword
mother@@
survived
spiritu@@
rises
pressures
Fig@@
advantageous
suspicious
probe
pursuing
fortune
aggression
Porsche
vas@@
legendary
females
adequately
jec@@
900@@
chronograph
olar
anian
Minimum
Bishop
atro@@
Cartoon
lon@@
Myanmar
identifies
certif@@
smo@@
factories
DER
Kab@@
Cin@@
enh@@
acies
bench
silicon
ias
Fav@@
Tennessee
substitute
foremost
mushrooms
intentions
Tim
Oli@@
SO
Primary
versatile
icons
Bac@@
Alice
paras@@
dged
eous
tasty
pursuit
38.@@
infants
ingham
dramatically
id-@@
promotions
editing
sty@@
linguistic
expects
subscribe
screws
districts
Mom@@
Bangladesh
poll@@
killer
sci@@
Ivoire
governmental
Heavy
Vari@@
Exc@@
ener@@
immense
mam@@
ig
RON@@
reportedly
eck
robots
rub
tear
ł@@
seventh
Simply
Editor
vaccination
Xbox
terminals
livestock
Degree
cigarette
talents
jus@@
Fur@@
empow@@
recreational
encomp@@
Cook
eable
Paintings
negotiated
exceeding
ê@@
won@@
Pir@@
O-@@
prob@@
wax
till@@
ICC
accompanying
heights
Formula
Py@@
mess@@
flies
repeti@@
Motion
controversial
hin@@
umin@@
Low@@
bridges
Oct
Monte@@
press@@
Principles
Shared
testosterone
Hague
Corner
Underwear
forgive
stopping
‑
Vietnamese
Chil@@
Halloween
reflecting
aying
reinforce
analytics
Slovenia
slot
chaos
winding
Vir@@
sman
onlin@@
Offices
12th
yle
AX@@
slopes
LD
Delegation
sport@@
devastating
undertakings
Dollar
conception
denti@@
hospitality
ECB
Denis
Coc@@
as.com
arises
Provincia
Zh@@
transmitter
Nobel
I.@@
surplus
1950
helicopter
graph@@
Continue
bathtub
opol@@
exotic
dum@@
Mario
Actually
influenza
credibility
tool@@
Ox@@
determin@@
Fan
carriage
Running
restriction
dering
anal@@
Sco@@
org
Coutu
KG
tall
dal@@
Cost
enly
emerge
encryption
Broadcasting
tou@@
hepatitis
Vic@@
Apart
practitioner
subtle
onym@@
influential
bold
doctoral
Domin@@
Recommendation
Eve
struggles
fertility
Kom@@
ician
polic@@
scand@@
acres
alignment
peace@@
ambassador
climbing
fax
associ@@
atch@@
paradise
abdominal
murdered
eur
treaties
q.com
prosecution
enzyme
ler@@
Customers
gin@@
ien
spot@@
BA@@
Markets
success@@
Ink
IG@@
android
vere@@
economically
episodes
meantime
CK
Meat
05@@
destiny
Nintendo
mel
SHO@@
Lithuania
Lot
Specific
undoubtedly
reco@@
angles
bec@@
socio-economic
Hungarian
Audi@@
Ton@@
cn@@
film@@
sug@@
CV@@
Planet
1A
integrating
ve.com
pills
curriculum
eve
Optical
andro@@
maturity
cles
girlfriend
clou@@
guards
loops
Auto@@
alike
WO@@
stop@@
atically
52@@
stro@@
mc@@
p.@@
ption
steady
Riv@@
incentives
ypes
iliation
onau@@
Mic@@
Hind@@
mice
browsers
Purchased
Creating
pathology
CAT@@
Long-@@
utionary
Resistance
T.
complain
lock@@
Analy@@
mination
essors
Creek
astro@@
validation
versus
healthier
Pep@@
wet@@
constructive
CAD
ICA
arbitration
adopting
ATI@@
sided
gin
1.9
bank@@
Dream
Arizona
Refugees
surgeon
NY@@
Grade
cardboard
Notes
135
Run
counter-@@
Players
tragic
rope
Civ@@
ska
ipe
tle@@
backs
Coach
counted
nour@@
Happ@@
edy
sampling
letting
ustr@@
Definition
zhou
acceleration
RED
boy@@
Iv@@
Consul@@
ers@@
Co
oxy@@
boarding
magnitude
ş@@
Eg@@
Lis@@
inform@@
fores@@
failing
Hend@@
Augu@@
iel@@
EX
communicating
hero@@
Jane
Edge
stems
umbrella
tooth@@
Background
IBM
accommodations
incar@@
breakdown
Brass
Mobility
breed
ushing
Grande
ogical
elev@@
Brig@@
Bud@@
enses
submissions
belong@@
Connector
sailing
Whit@@
26.@@
Dé@@
11th
111
J.@@
closet
poured
Lens
Armenia
infinite
hazards
alcoholic
unfair
hairdryer
am-@@
quantitative
Multiple
supervis@@
Scientists
Pass
Milk
icit
emphas@@
Fir@@
pione@@
shorten
2019-@@
Autumn
Wit@@
your@@
Nov
ATA
Industries
o.@@
frequencies
electromagnetic
hex@@
sexually
antine
forestry
Bed@@
--@@
cam
29.@@
cultivation
collectively
noble
complainant
Associate
gratitude
Dragon
var@@
boiled
consequently
medic@@
Stockholm
mus
deterior@@
funeral
Indi@@
Graphic
bladder
lit
busiest
bos@@
drone
Protec@@
Peoples
Henri
negotiating
Wildlife
Compatibility
settlements
Expert
orious
Netflix
Apps
Spray
ocr@@
grains
neighbouring
logy
enthusiasm
announces
T-Shirt
Hab@@
14th
establishes
mediation
contractor
Lebanese
jer@@
Types
Cay@@
initiate
Pilot
sar@@
insights
bargaining
abuses
Aug
Canal
cooled
designation
heater
ider
retailers
preserving
tyres
Miss
Cast@@
dissemination
pulled
authentication
vard
apples
Pet@@
74@@
13-@@
reversible
licensee
mes@@
midst
JE@@
carpet
demonstrations
batt@@
sandy
uba
enzymes
Comfort
poker
optimum
withstand
decentr@@
awesome
patents
ord
ees
induced
Z-@@
elegance
budgets
chic
Fully
Regulatory
embassy
ango
stal@@
Dan
quick@@
emotion
gram
ASE
Jackets
Parents
entrusted
approx
cast@@
Miller
aken
dium
hockey
fers
sd@@
veins
VII
rush
osing
Method
builds
fatal
broker
NGO
credible
Val
solo
intestine
hereinafter
abandon
whis@@
lumin@@
aca
diamonds
NA@@
seven@@
Rav@@
ulator
four@@
peti@@
Twin
Sli@@
classroom
coconut
alties
Sport@@
drilling
Clo@@
invoice
take@@
lions
kidneys
Meaning
Wide
RT@@
330
LGB@@
Lewis
Jeff@@
Inch
stry
hoo@@
Nation@@
Sub-@@
mathematical
quit@@
explicit
a.org
footprint
techn@@
twin
hiring
costly
Shoulder
investigating
intervene
restructuring
Charlie
predicted
males
Washing
pillar
soda
ogram
shortage
courtyard
tee
Threat
Analytics
digestion
seas@@
dissem@@
politic@@
gor@@
did@@
exhibit
Cannes
Thermal
160@@
kings
responsive
creator
Holder
SL
icks
Answer
WS
NG
obstacle
mayor
eria
Fourth
Santiago
examining
challenged
clicks
ï@@
prizes
continuation
vegetation
flowering
Pants
Representatives
saint
orig@@
hip
vy
Sus@@
ke-@@
Band@@
Brothers
travel@@
produc@@
Drink
sporting
servant
Women`s
Conserv@@
ighty
blessing
audiences
Vista
NRK
harsh
Ancient
exhaus@@
watch@@
Olympics
springs
salmon
cyber
stadt
suites
fier
literary
Nap@@
enta
poorly
mers
five-@@
doub@@
coil
embrace
experim@@
infrared
cost-effective
Austrian
coll@@
Petersburg
Massachusetts
heter@@
kiss
nick@@
kidn@@
nex@@
impressed
Rap@@
oversight
establishments
titled
Cause
reminds
detached
AF
navigate
mos
Lum@@
envelope
granting
Ethics
elementary
4.
Funding
Refrigerator
premature
exchanged
Resp@@
Cards
carbohydrates
atmospheric
ratified
hua
toiletries
organise
prostate
occasionally
Kosovo
Sym@@
dal
Cuban
Diff@@
flora
embarr@@
Conf@@
idel@@
Hydraulic
FO
oids
Origin
modular
insecurity
lad@@
offshore
Carlos
counting
budgetary
Pen
1950s
30.@@
parental
world-@@
quanti@@
hunt
somehow
assignment
helmet
cohesion
entures
09@@
Availability
Recovery
simplify
Stal@@
Secret
momentum
Necklace
4.2
Lub@@
bathing
yr.no
briefly
subsidies
trust@@
asia
graduated
rigorous
boot
hormonal
bie
interpret
GT
Lip@@
boundary
Protect
Rail
axial
Lincoln
tled
illustrates
Sweet
event@@
loose
Paint
mat
sound@@
presidency
exceeded
inhib@@
menting
Excel
man-@@
Rica
tar
ancestors
passi@@
ady
ision
loyal
Cru@@
Li
Inspection
depic@@
Ya@@
mynetfair
sustain
Dual
eye@@
Drugs
performs
eh@@
DRC
arities
pilots
Visual
vity
Retail
whol@@
Toy
▪
requesting
sensation
Conservative
seized
extensions
Pharmac@@
mou@@
pip@@
serv@@
J-@@
Cob@@
lean
Excellence
clip
140@@
serial
traction
Serv@@
Champagne
opponents
thyroid
Rep@@
NR@@
1.7
Haute-@@
Pattern
ocking
cancers
Mi
mint
Confederation
icide
Aer@@
queen
cot@@
INC
Ivory
weigh@@
ras
Cho@@
ode
Individual
Zoo
torate
accumulated
Examples
lum@@
invasive
ITE
pillars
Springs
4G
ro-@@
caring
edic@@
re.com
pesticides
aver
MIC@@
MHz
Gun@@
Lit@@
2-0@@
Xi
rist@@
ador
MBA
amending
Walking
iously
formers
trig@@
accredited
cus@@
tari@@
Bear
edly
ft@@
info@@
itu@@
vid@@
Tourist
demanded
Recon@@
č@@
tify
Shore
tories
geometric
inadequate
1944
Measures
Soon
Comple@@
PAN@@
beneficiaries
evo
en.com
LY
liveli@@
Dav@@
Zo@@
daughters
ected
plas@@
kW
★
entrepreneur
finances
Lux@@
Indiana
marketplace
threaten
Matt
uity
ACT
wer@@
excuse
304
reservoir
96@@
reminder
atoms
4.1
stell@@
filtered
realities
amping
side@@
Elements
LTD
ill-@@
big@@
destructive
opponent
sty
atis@@
dynam@@
TV@@
Transparent
Ebola
prohib@@
hand-@@
investigated
5000
illi@@
ei@@
shit
licensing
tuary
s.
formulation
TL@@
Municipal
diarrhea
Adap@@
Joh@@
chopped
ant-@@
Université
Shape
Fruit
onions
1965
six-@@
MEN@@
tionary
HP@@
oppose
authorisation
construct
witnessed
Earrings
wood@@
ss@@
Alps
Lem@@
inappropriate
Dental
BBC
discussing
Metro
ater
fathers
openly
cum@@
wrap
embodiments
Roy@@
MER@@
brightness
Nur@@
shirts
Wolf@@
attempting
uncomfortable
24-hour
Migration
on-demand
unite
discre@@
Ah
rejection
Grad@@
lowering
Offering
tek
ority
Hob@@
Psy@@
Boxes
Sain@@
vide@@
ui
ag
Meet
pencil
debates
Speaking
altern@@
tas@@
Non
SAR@@
ocy@@
Peninsula
athon
fish@@
Pumps
50.@@
commodity
expecting
aine
infant
Germans
Victor
orth@@
liter
Database
145
nings
arrow
hr
outlook
aquatic
reductions
describing
Kol@@
seas
itated
ults
thick@@
triggered
zen@@
screen@@
travels
Educational
Unique
,99
gall@@
Buddha
poetry
flav@@
KS
ieve
Dell
node
gem
dare
Well-being
bearings
evaluating
foreigners
productions
Creation
bite
Cool
rue
Satur@@
amo
retro
exempt
3.3
vet
Davis
FF
high-level
bilingual
canal
34.@@
rides
consolidated
99.@@
eze
toler@@
9th
additives
Agent
etta
lectu@@
rewards
MR
Rus@@
solic@@
wires
V.
microphone
Lun@@
-R@@
Bird
180@@
Build
Destinations
ativity
Mechanical
high-end
bourg
Viol@@
assing
failures
vul@@
Axess
±
Greg@@
turn@@
flood
Luke
lasted
Words
extrac@@
Andre@@
employ
Mauritius
LT@@
sportsman
Rice
Presentation
ë@@
phere
Bologna
jeans
adolescents
prevalence
consultants
OS@@
ego
chol@@
Anton@@
imprisonment
coc@@
etern@@
diagnose
Princip@@
imperative
Roller
seminars
phys@@
corrup@@
ght
monopol@@
jeal@@
bru@@
sz@@
longest
Coordinator
analyse
Above
gland
ín
correspondence
Bau@@
Artificial
One-@@
Native
Stuttgart
governor
drill
induc@@
STR@@
clar@@
aly@@
TN@@
hadn
ruins
ör@@
leverage
stating
Palm
oz@@
Laun@@
thin@@
census
ferred
IOC
olk@@
loses
asp@@
st.com
EE@@
Package
122
Specifications
registr@@
37.@@
Procurement
up-to-date
derivatives
encrypted
caution
deterioration
Y-@@
captain
politically
bubble
archaeological
bian
Detailed
Cyber@@
innov@@
98@@
Lodge
symbolic
mono@@
lined
Mercedes-Benz
Pla@@
30s
hen@@
watering
subscribers
nominated
AE
physiological
fibro@@
Adidas
White@@
ressing
far@@
collap@@
vi
dive
ound
inn
wellness
internally
Vall@@
compromised
Kelly
Say
galleries
coordinates
cle
Arc@@
leng@@
utter
prescribe
ensured
Position
2017-@@
iti
program@@
anded
Niger
Pes@@
motiv@@
idal
short-@@
porting
burns
prescri@@
Edinburgh
specification
preced@@
Leadership
Gardens
xy
Constitutional
Mail
cushion
BY
exercised
inputs
facilitates
Topic
charter
unch
world@@
Alarm
ause
waist
rea
Bronze
tv
senti@@
dg@@
altered
screw-down-crown
compan@@
isse
concludes
TPU
illnesses
interrupted
contro@@
Calendar
configure
flowing
Registered
Organizations
aiming
ceilings
keywords
stimulating
rd
yc@@
adul@@
equitable
Foods
enforce
pins
showcase
educate
von
margin@@
ights
organis@@
124@@
Et@@
trap
full@@
explaining
maj@@
Ryan
Currency
haz@@
Prec@@
amer
finishes
Las@@
Crime
Lag@@
damaging
550
21.@@
GP
swing
stery
lacking
Hyper@@
inexpensive
olds
ó
aus@@
high-speed
upset
continents
Regarding
sits
erie
ume
Macedonia
packs
Warsaw
Glasgow
Stars
Rich@@
José
Collec@@
perpet@@
p.
bles
Colors
soccer
Track
Jehovah
struction
esse
classi@@
Dishwasher
rotating
amin@@
uration
relies
asts
omas
Cooking
Nad@@
accelerated
intervals
16V
Salt
Waste
Cont@@
periodically
iden
cluster
camping
illo
shake
visually
neys
router
profitability
JVC
mentally
Lon@@
spar@@
salts
execute
nesses
refuge
capac@@
crimin@@
DEL@@
hall@@
onion
capsules
entrepreneurship
provo@@
beaten
LAN
allowance
payday
carton
Ama@@
vocation
decree
-1
nat@@
DES@@
Mask
Hat
favorites
rented
Multi
companion
profession@@
Kennedy
Bruce
fifty
auction
criterion
Chad
tioned
Race
m.
defenders
Vote
Increase
NET
Loss
farmer
blu@@
Acts
advocacy
plied
CBSA
Proper
att
yeah
Montpellier
twee@@
rooted
proportions
Pad
tomato
multin@@
Interest
I.
Shor@@
fluids
tro
Downtown
trim@@
isted
Brush
Gas@@
Gear
Alibaba.com
rogen
sponsor
Dro@@
exercising
benef@@
Respon@@
proliferation
Mill@@
Brun@@
51@@
sexy
MAX
Symptoms
AZ@@
inct
wallet
Publ@@
97@@
perceive
sellers
2020-0@@
icious
ecraft
pick@@
Recogn@@
sportswoman
2016-0@@
terminate
Oak@@
timately
polar
inspiring
oud
govern
elevated
incomplete
LER
Southeast
gel@@
crying
CEN@@
proposing
rab@@
piston
abdomen
ambient
interval
clearance
bj@@
biom@@
.eu
gad@@
naked
sooner
pandemic
ule
impul@@
Colorado
nurses
Period
arbitrary
freight
itted
Cad@@
Hot@@
Indians
Burkina
distances
Auth@@
balances
ta-@@
rounded
medium-sized
Mom
gates
atin
Stra@@
Employees
illers
ele@@
Areas
PO
emble@@
Particip@@
explored
sanitation
myth@@
63@@
literacy
Hiking
tam@@
perfection
allergy
assemble
TEN@@
Zimbabwe
cleansing
eb@@
Nepal
knowled@@
Usage
overwhelming
optimization
horizon
ashing
malaria
Samuel
ebo
Conver@@
snack
Maximum
IO@@
Java
hourly
commissioned
finest
Converter
94@@
Nelson
exam@@
approaching
Journal@@
uh
Prepar@@
pursued
Heypik
vik
Nunavut
Agencies
Compatible
ook@@
ints
methyl@@
entation
pes
gard@@
Mouse
toaster
cep@@
ept
Overview
mitigate
Six@@
Developing
hypertension
Neuro@@
Nantes
vomiting
Stor@@
contacting
Christ@@
1964
corrected
penetration
advantageously
morph@@
impaired
One@@
deciding
Quick@@
partition
Banks
alien
illustrate
Cisco
Morgan
terrain
individ@@
socks
Population
Kazakhstan
mercury
Emp@@
second-@@
1900
stimulation
sustain@@
inating
Tele@@
fli@@
sir
Slovakia
originating
Pop
Douglas
1966
part-time
Playa
monitors
conventions
Open@@
Guy
107
south-@@
institu@@
KE@@
Massage
antibodies
192.@@
22.@@
executives
cattle
issuing
MAT@@
dos
Spon@@
jazz
Clock
ferry
excav@@
dismissed
Pet
body@@
interrup@@
ña
descriptions
VIP
1-1
bic
enburg
compressed
manifestations
fan@@
appropriately
bush
dges
ph
HAR@@
oxid@@
KB
8.com
ateral
licenses
Phuket
tles
Mitsubishi
offerings
regulating
128
warran@@
deploy
therapist
simplified
lively
positively
din
progression
friction
fif@@
fragrance
lymph@@
Duke
pots
plun@@
supportive
mom@@
distributor
auto@@
insured
Really
Saf@@
kinson
san
taining
TY
10-minute
predetermined
projection
authenticity
Concer@@
Ban
Wisconsin
institute
YOUR
gg@@
Seat
lav@@
dilig@@
su
Estonia
.com.br
steroids
gum
Scr@@
ür@@
spatial
Coll@@
Balance
Home@@
Anthony
asy
occupy
exclu@@
Latvia
eni@@
creators
Mesh
issu@@
poorest
McGill
irritation
uri
day-to-day
wed@@
listened
wipe
reminded
magazines
Vladimir
approached
recognizing
knees
Feb
arians
neighbor
30,000
gang@@
unrated
Smart@@
ku@@
alph@@
Walter
hollow
internation@@
isi
Bring
debut
Volunte@@
v.com
senses
staircase
Neck
Piece
Jack@@
automobile
Yves
iest
Socialist
upload
Lille
Doctors
1961
Approximately
19-@@
sincere
Taxi
Ecuador
advancing
league
SV@@
Connectors
halt
lau@@
pric@@
doubled
Engagement
perfume
Birmingham
corp@@
WOR@@
Bosnia
discrimin@@
Issues
beautifully
Imperial
Reporting
Harper
cathedral
ordin@@
4.0
onde
creature
KA
defending
Ara@@
Deluxe
Sound@@
archives
elines
aked
tos@@
bom@@
Scar@@
commander
Detail
manship
ART@@
33.@@
routekm
regulator
sab@@
Ages
Processing
resorts
STE@@
lawn
Cong@@
mL
injected
Belarus
material@@
systematically
Garage
duct
manifest
capsule
notifications
bias
CB
500,000
coupling
bankruptcy
Ris@@
afterwards
quantum
Que@@
antioxidant
Trav@@
Scre@@
tang@@
1963
toxicity
imple@@
deceased
team@@
Yorkshire
Sleep
commerci@@
Soul
akers
guiding
weaknesses
disadvantages
compensate
dness
Mohammed
Collabor@@
Justin
Boo@@
counterparts
Jeff
discoveries
multimedia
Institutions
socially
Eth@@
optimized
alysis
HA@@
warrant
Unisex
ules
Celebr@@
enberg
hen
rats
tees
Ibiza
A4
Set@@
remo@@
uts
posting
rolls
recession
MF@@
owe
irrigation
GA@@
Icon
compos@@
liquids
bug
Philip
reconc@@
Sugar
ticism
CY@@
uninstall
cc@@
mixer
ratification
-in
Seoul
traveled
exhibited
Bicycle
mation
116
Chal@@
Hebrew
questionnaire
Aviv
restra@@
dub@@
Integration
DN@@
praise
Elections
costume
Nancy
cage
BEL@@
Chevrolet
mete@@
Gong
Clark
sensations
motive
oot
under-@@
gation
lik@@
Gate
than@@
3-4
Investig@@
Theater
Hills
tumors
stresses
demol@@
evac@@
intuitive
anie
380
10,@@
inability
radius
folded
oster
underes@@
Invest@@
Nec@@
door@@
Rapporteur
CN
Four@@
Kay@@
beams
enrolled
distribu@@
besides
Candy
12V
enty
Illustration
financially
Faso
conceived
MUS@@
kis@@
Mob@@
Dame
norm
Mut@@
1962
phe
ark@@
attendance
selective
robo@@
neighboring
stronom@@
recalls
eved
unclear
ation.com
peers
expressing
remuneration
Deals
Neither
Alaska
teur
grinding
illings
abnormal
RC@@
Seller
desperate
dh@@
govern@@
Created
Origin@@
itarian
boiler
Escape
ves@@
Fat@@
Di
interviewed
rif@@
ei
A1
ic.com
ained
weigh
peer
42mm
trapped
Afric@@
peas@@
earns
outline
ony@@
Ther@@
Hass@@
neighbours
wed
Valentine
XS
Afghan
Reply
ifies
Architec@@
Wr@@
irregular
spinal
cot
TOR
imagined
logs
pling
nausea
fa
ar.com
deal@@
Develop
TRAN@@
Reser@@
keyword
PowerPoint
115@@
cos
nozzle
-off
Jose
immigrant
Vas@@
lane
colony
azz@@
Lead
photograph@@
unchanged
pit
detri@@
crystals
Alex@@
Chocolate
employs
Certification
illon
sement
broth
Self
Includes
therapies
spra@@
withdrawn
5-minute
Director-General
aver@@
Keyboard
tale
unauthorized
eral
alle@@
ishments
RU@@
expresses
cott
0.2
Guatemala
CAP
cements
esty
Laura
Jason
architects
constitu@@
Cot@@
wolf
attracts
PPT
orship
Flexible
Orleans
Copy
bent
r.com
fried
39.@@
avoid@@
Pain
bee
transitional
ga-@@
Mercedes
cocoa
Emil@@
lightly
ometric
Guil@@
overwhel@@
175
165
amide
interven@@
freeze
badly
uniqu@@
dex
Were
Lost
IMP@@
horror
algorithms
athle@@
ver-@@
dawn
disman@@
assumptions
nest
updating
2018-@@
NY
tus
successive
Inc@@
Routes
operatives
Vul@@
championship
distributors
Packing
Charlotte
thers
§
Pharmaciesworldwide
earliest
INTER@@
inks
Hub@@
youngest
wrapped
textiles
123@@
Victor@@
referenced
POWER
insist
etti
compliant
Analyst
WA@@
BAR@@
geois
forgot
izers
Mont
frigh@@
IDE
prohibition
communal
scales
Agr@@
celebrations
touching
beginners
destroying
ref
forefront
questioned
explosive
eco
tolerate
cardiac
POL@@
A-HOTEL.com
templates
Vinc@@
Moz@@
elect
Nylon
Tub@@
ially
vests
FIGS
adventures
appeals
mare
ert@@
ade@@
fantasy
incub@@
6.5
wished
thermo@@
Ny@@
Io@@
wo@@
ailed
Kent
Kno@@
121
mechan@@
2016-@@
rosis
necklace
practiced
EAN
bend
here@@
bron@@
5.1
ettes
Georges
Wolf
crude
ook
sburg
glance
350@@
Da
creations
yuan
flooring
CAN
Decor
denom@@
visitmode.com
tated
satellites
kit@@
Barbara
gradual
erian
prone
ultrasound
Cash
COVID-19
Allen
Gabriel
jack@@
deprived
basketball
nity
imposing
ds@@
terri@@
Pocket
bunch
provisional
205
manipulation
terr@@
undermine
inspections
tyre
risen
trem@@
axy
straps
′
Lunch
109
infusion
84@@
igh
iring
Pac@@
blood@@
Said
subsidiaries
ocation
ance@@
behave
alie
Plans
tack@@
Salvador
jam
.jp
Chairs
Wid@@
VEN@@
iff
exploit
recur@@
Plat@@
Wear
mas
Browse
hl
FT@@
warmth
valves
deter@@
cool@@
Paradise
analog
pads
coherent
eption
André
shoots
â
fat@@
1920
chat@@
debts
uated
DF@@
metry
dine
ridic@@
Magazine
Compliance
liner
ambigu@@
KW
Sàrl
fighter
HS@@
matched
Papers
Peti@@
ulent
defect
observers
CIHR
shut@@
publisher
diets
mit
Participated
gasoline
iers
Chart
vibr@@
Secondly
orbit
drought
Napoleon
character@@
odds
practicing
bla@@
Secure
volatile
Judge
Roy
Atlas
Cir@@
monster
alter@@
Zero
Sz@@
allegedly
iving
Catalonia
proceeds
fiers
sain@@
griev@@
Canad@@
Rotterdam
73@@
BLE
Options
201
Studios
reper@@
2007-@@
Lift
Supervis@@
Turin
span
Aman@@
pleas@@
198.@@
glycer@@
las
Progress
brave
underwater
Subscri@@
unlock
Ross
drainage
rians
resear@@
postal
bid@@
yeast
infringement
ident
ensive
260
Cute
radar
elles
excitement
ects
mainstream
VA@@
oxidation
technically
Marco
umps
picturesque
fast-@@
Opel
UL
54.@@
Post-@@
Rico
enza
admin@@
grandmother
chin@@
AST
grocery
trunk
torque
Atlan@@
Revol@@
Tickets
eners
Stores
ribbon
Yan@@
Louise
Diversity
exporters
Antarc@@
cracks
Comb@@
locals
extracts
expose
Franklin
pitch
pointing
gig@@
Effect
17-@@
Cosmetic
Hostel
Tap@@
shampoo
curved
AE@@
biz@@
launches
Ombudsman
travelled
117
injec@@
light-@@
Bright
umentation
4,000
pasta
herbal
two-thirds
Cub@@
GAR@@
Expo
consolidation
Kyoto
affiliate
news@@
crushed
plat@@
notable
kan
uncertain
stants
aul
useless
bikes
pedition
Christopher
removes
Ital@@
Intellectual
Dir@@
ordering
Stadium
discounts
Ligh@@
Mining
Angel@@
jum@@
Nearby
Cum@@
Princ@@
SUV
molecule
radioactive
sigh@@
pizza
pillow
champ@@
Ö@@
veil
dan@@
Veterinariansguide
phic
ja@@
nur@@
scenery
sten@@
temples
Wash
Improve
Components
specif@@
boyfriend
Funds
132
treas@@
natur@@
icking
Authorities
Alb@@
five-year
game@@
magnet
vascular
malicious
dumping
listings
entional
Outlook
conductive
globalization
Tesla
wonders
dog@@
wol@@
25th
agan
Precision
battles
rotor
discovering
Buck@@
responds
GST
engraving
iler
Alloy
kens
Dean
wich
GRE@@
Book@@
pertaining
IM
uli@@
case-back-crystal
Floral
multitude
maternal
Care@@
Fit@@
Has@@
Grace
sperm
Philadelphia
jam@@
kid@@
offline
auxiliary
Accounting
non-woven
IPS
statis@@
eously
King@@
turbine
earrings
î@@
Numbers
quad@@
FP@@
sv@@
gest@@
DH@@
heel
Now@@
Warm
stool
Finnish
gm@@
Lil@@
intact
scratch
Ran@@
dam
attribute
Govern@@
glands
antioxidants
inar
EST@@
violated
throne
precautions
hydr@@
disappearance
Cros@@
Const@@
bath@@
Rain@@
borg
backpack
tactics
incap@@
Whereas
cabbage
cherry
ellers
cz@@
inspected
uel@@
Marble
7.5
bag@@
1940
Circle
gotten
Lov@@
drunk
Spot
mix@@
rede@@
residual
snacks
3-0@@
dest
tastes
Sofa
rim
accoun@@
suffers
Translation
acle
calorie
Kaz@@
Campaign
advancement
detec@@
et.com
eal@@
iko
encer
vent@@
Sant
Conduct
Defin@@
polymers
shel@@
Already
sequences
uit@@
stic@@
licences
start-up
conclu@@
Terror@@
utilization
fts
artic@@
state-of-the-art
succ@@
ricane
valuation
cow
Solution
Alber@@
ier@@
submitting
arri@@
Maker
anti
anes@@
proves
nowhere
HF
tling
Species
iy@@
ley@@
regulators
Share@@
Jonathan
casting
micro
haw@@
withstanding
Luggage
suspend
minors
River@@
infer@@
phosph@@
compiled
Romanian
ever-@@
composer
audits
convey
lead@@
salon
Opportunities
Nord
Wait
Ghost
browsing
Portal
closes
rene
Nick
Basel
ennial
spoon
Same
Disclosure
impe@@
UP
connec@@
Cand@@
punc@@
CL
Lucky
whatsoever
judged
Reform
narrative
Testing
flux
Wy@@
.us
dop@@
1949
Gard@@
nip@@
carrots
Regardless
domains
sweat
world-class
archive
pts
parall@@
formulated
Cushion
buffer
flats
vice-@@
consum@@
Kiev
compressor
boom
pper
orch@@
animated
Going
Sahara
supervisory
fit@@
pork
Woo@@
noticeable
sur
Descri@@
DGs
Centr@@
Sad@@
Dy@@
Cass@@
Fam@@
nets
has@@
derives
potato
Sud@@
wheelchair
studios
gir@@
Abstract
Gy@@
124
alise
alt
Legislative
poultry
12,@@
Liberty
sour
Domestic
streams
qualitative
114
Hybrid
voy
cript
regim@@
atomic
gling
Aluminium
differs
Dat@@
prosecutor
pow@@
Laf@@
know@@
curtain
F1
transl@@
Monte
ashi
pronounce
cabinets
uterus
Worldwide
fabulous
discriminatory
215
illumin@@
Bai@@
100-@@
newborn
Banking
.nl
engine@@
Deli@@
Hunter
elevation
coloured
230@@
03@@
atom
resa
Bahn
unil@@
rat
backgrounds
assign
bd@@
gearbox
mucous
bitter
Independence
beverage
unk
Feder@@
Writing
prison@@
perf@@
cruc@@
ı@@
Franco@@
whereby
Thr@@
Disc
Specifically
pse@@
grandfather
Gel
2014-@@
Mam@@
Bren@@
syrup
Municipality
Hockey
disadvantage
dig
argu@@
Extract
Canada-@@
Pair
EST
2004-@@
Michel@@
amplifier
stock@@
refuses
teen@@
FS
6-0@@
ired
agne
Blade
Knowing
persec@@
openings
Millennium
respectful
stats
CRE@@
Discovery
fulfilling
knit
admir@@
ores
tified
asse
celebrates
enjoyable
combating
atures
lifted
pli@@
mattress
Tut@@
chaired
treats
Gel@@
Protective
Frank@@
Sé@@
merit
memor@@
Preparation
shire
tasting
Maxim@@
ype
Cow@@
carbo@@
Harbour
Valve
Gou@@
percep@@
disruption
omes
MU@@
proportionate
bacter@@
64.@@
teenagers
Lausanne
dl@@
Nordic
stra
Laur@@
Libyan
nerves
digital@@
analysts
Zen@@
oon
comfortably
membranes
Omega
strengthens
nes@@
Duty
Loans
caffeine
pixels
fraud@@
ONS
mitigation
Instruction
prototype
movable
albums
endorsed
bic@@
1917
ogen
Dani@@
facade
centered
Guitar
isms
1947
Adults
oria
aggregate
DIY
aments
achment
lending
Enh@@
translations
scienti@@
bly
enrich@@
Sir@@
descent
itan
trick
Antique
stakeholder
wom@@
lyrics
4K
Registry
Dad
anium
Earlier
mud
ouse
Minnesota
utmost
leton
Author@@
adjusting
coding
Coalition
democr@@
Wer@@
DG@@
GEN@@
differential
erals
seedlings
Household
chapters
Sexy
DG
align
gastrointestinal
BT@@
china
cakes
Rud@@
vap@@
breathtaking
validated
landed
Oak
Nit@@
receptors
Dim@@
Medic@@
Increased
Puzzle
Pour
Bog@@
petroleum
Adel@@
outlets
charitable
musician
aerial
malfunction
surprises
aforementioned
Generation
aroma
Brain
conductor
regimes
insulating
Backpack
member@@
Exercise
uation
Free@@
License
jersey
cost-@@
evenly
Commonwealth
oman
vism
Role
ô@@
Colomb@@
aul@@
beneath
Lastly
oti@@
fairness
Seine
candle
slope
aspirations
Incre@@
Venez@@
Inner
ale@@
isa
Footwear
esteem
NU@@
Claire
analyzing
arded
triple
bear@@
Terminal
prospect
Cord@@
ousin
35.@@
struc@@
logging
Won@@
rat@@
1918
beneficiary
Maps
breastfeeding
cha@@
Pier@@
characterised
collector
explanations
FS@@
yon
Pedro
Mrs
hip@@
multidisciplinary
Steph@@
Asp@@
anges
sculp@@
Seattle
rebuild
ellor
harmonious
Territory
Ele@@
is.com
sells
Height
Complain@@
rew@@
125@@
picking
Burundi
appren@@
utilized
oth@@
aco
HY@@
casts
Khal@@
Command
problematic
eco-@@
BT
Featuring
ACK@@
drawers
quer@@
icates
stack
Russell
enger
wan@@
4-0@@
uit
Econom@@
HER@@
RO
explos@@
aced
wives
CIT@@
advoc@@
succession
280
handful
eme@@
Scottish
editorial
brand@@
Nokia
zel
Files
bia
revo@@
regener@@
constipation
comparative
comb
Maison
News@@
tails
accus@@
justification
scalp
lon
Ever@@
ardo
Likewise
TRI@@
VID@@
need@@
hausen
raz@@
cler@@
us.com
List@@
impacted
middle-@@
sibly
incre@@
modeling
instability
incentive
Anderson
Pit@@
Skills
TR
sights
seafood
chef
Firefox
itating
Sofia
Dogs
rez
Kate
detecting
anticipate
temper@@
stream@@
phy
intu@@
mits
eville
york
utors
prestige
validate
Oliver
ressed
VAL@@
memorable
focal
commit@@
arsen@@
BD@@
Ster@@
traits
Ever
benefited
Medal
crowded
specialised
MIL@@
-free
inn@@
manifested
rotary
beg@@
vine
-in-@@
ANG@@
Lisa
Split
02@@
fungal
slices
cocktail
2.8
blind@@
Synthetic
colleges
turb@@
PNG
You@@
Blue@@
Spl@@
alu@@
Fun
Blan@@
batch
balancing
tos
tique
Week@@
fibres
simplif@@
distress
devo@@
Sanc@@
ay-@@
third-@@
Wifi
Blanc
boring
XT
ucks
leuk@@
Africans
Andy
Herzegovina
clam@@
LEN@@
Cryp@@
rench
thic
UE
Telecommunications
wash@@
rocket
Alternatively
atable
intel@@
2000@@
Lot@@
oda
piv@@
frameworks
enclosed
ustice
drag
oa
deformation
reset
Hampshire
Eco@@
occupies
genre
Financing
aur@@
constra@@
Michelin
armchair
pois@@
Offici@@
View@@
condens@@
Oscar
versa
distingu@@
herein
Ethernet
transforming
YS
athers
newest
dece@@
LC
NOR@@
psy@@
ensi@@
ushes
rally
Consi@@
Cheese
debit
rain@@
BV
Establ@@
Delhi
Alabama
aser
envisaged
Dialogue
Themes
inqu@@
én@@
PayPal
.cn
manifestation
Alicante
mption
tability
Prepared
igr@@
securing
insisted
downstream
threat@@
vens
4.3
jac@@
Alan
Connection
poisoning
noon
oneself
collects
monastery
Julie
aromatic
Must
negatively
rib@@
Hawaii
ient
renting
earning
advocates
Mod@@
republic
northeast
s.info
Calculate
bot
inver@@
1958
resilient
filename
campsite
sson
capita
apper
Kings
Die
mountain@@
grapes
Kid@@
socket
weighing
rian
enny
enever
ows
steal
ration@@
Gur@@
Extension
toilets
Listings
Kim@@
elds
populated
poet
vigil@@
fertilizer
centimeters
oscill@@
lesser
inviting
exec@@
Circuits
switches
Kap@@
invo@@
nationally
Master@@
feat
Heads
Cell@@
near@@
Applied
synonymous
Event@@
flex@@
exploited
VeryVoga
Baltic
lax@@
Cé@@
rankings
projector
anticip@@
north-@@
Decree
reck@@
ancies
keen
Tax@@
Rogers
photographic
pig
Brow@@
oric
bride
voluntarily
salaries
Murray
Anniversary
baths
Requirements
Hygiene
Gaz@@
edema
hazard
270
Preferably
Observatory
mirrors
Class@@
bombs
gateway
chal@@
otted
dysfunction
exist@@
Villas
Leon
Peri@@
antibiotic
Shop@@
Sexual
nau@@
il-@@
prepares
OD
demonstrating
arer
Gren@@
joke
Connec@@
Mounted
reciproc@@
tice
pill
pulp
ang.com
Announ@@
cereals
BRA@@
Pig@@
upstream
Lorraine
Suc@@
crafts
MK@@
FORD
synthes@@
gorgeous
Gh@@
privileges
alp@@
artwork
GC
DW@@
Eat
compli@@
arre
chill
pav@@
iPod
Goo@@
Nex@@
practi@@
coma
SVG
delight
FP
Dave
birth@@
IB@@
Pan
acquiring
compet@@
definitive
actic
200,000
Leo
Angola
investigators
spi@@
rent@@
northwest
Program@@
forty
EEA
anni@@
reluc@@
navy
Turbo
Francophone
alternate
e-to-@@
Institut
dem
anatom@@
enriched
Gran
chess
mail@@
peculi@@
crack
trademarks
Pav@@
browse
motors
dispar@@
anx@@
e-up
amped
1939
ANCE
Methods
disposition
-8@@
30th
survi@@
Shoe
Centres
dessert
Mohamed
Campbell
Continental
journalism
binary
viewers
residue
dragon
respondent
thal
Ann
nylon
openness
tuberculosis
360@@
unified
Pak@@
saves
Kurdish
farm@@
iner@@
LM
Contr@@
asso
Wave
Written
advertis@@
antique
Serge@@
Measurement
USE
worrying
lam
contexts
electrodes
Allow
inherited
Sterling
susceptible
sis
writ@@
Cases
atr@@
culinary
tractor
mutually
107.@@
inevitably
Slim
lifts
porcelain
2022
itia
end-@@
PN@@
Iz@@
Ath@@
31.@@
ci
friend@@
nik
buds
bass
Natur@@
Peter@@
Crete
consul@@
legitimacy
Buenos
jud@@
firmware
Til@@
aton
stadium
micros@@
-7@@
Special@@
Beat@@
gauge
fic@@
ingh@@
deliberately
flour@@
Gau@@
CAR
erosion
0.3
Chang@@
Wegow
204
BNP
pearl
9-0@@
ographical
Lig@@
Cosmetics
Begin@@
vs.
clu@@
Cartridge
hydrate
kk@@
yen
Fif@@
discs
GER@@
arrior
Pick@@
ité
opera
bon
DM@@
call@@
startup
Nam@@
Det@@
Purpose
assisting
1.com
convinc@@
freezing
US-@@
entionally
stad
diluted
chambers
brook
3.4
urgency
qualifying
Polo
bucket
Pharmaceutical
feminine
SCH@@
tely
tutorials
osphere
cooler
ris
Robin
Trudeau
southwest
Bes@@
gar
Trial
shaping
cardi@@
debris
Inter-@@
housed
Naturally
drow@@
Hell
confined
outlines
pond
Acti@@
opathy
Khan
Anti
YO@@
tz@@
Relation@@
xon
sculptures
Choice
viewer
exe
zen
Microwave
chin
roy@@
illustr@@
Boutique
framed
Ship@@
Compressors
energy-@@
Achievements
arious
marker
F.@@
Contin@@
Refugee
decorations
Manhattan
cs
retaining
bamboo
UC
curiosity
stamp
Flow
ASS@@
thes@@
posium
mid
Hat@@
NOTE
cents
esia
139
scholarships
dupl@@
45.@@
ESS
uster
Beer
Hep@@
Success
ech
connectors
mapping
carcin@@
simplest
Feel
far-@@
hits
accum@@
plenary
acknowled@@
East@@
merger
va@@
microorganisms
Jere@@
Hair@@
aggra@@
thouse
therap@@
inas
portraits
DIN
,98
T.@@
Guardian
Bowl
elasticity
Gordon
expres@@
pt@@
test@@
IES
Windsor
Sak@@
Crisis
São
outputs
Alpine
Equality
Metallic
Giv@@
2006-@@
teles@@
devast@@
Howard
Marshall
Forecast
Rein@@
Oslo
lowered
dele@@
blanket
Religious
duly
Detroit
Moving
Aires
ulations
Sag@@
gut
grab
reven@@
.gc.ca
1959
merchant
xi
Damascus
tricks
dio
eches
pioneer
126
Lima
Blu@@
scanning
duction
dit
Luis
oe
Ach@@
calculating
Diseases
isions
communic@@
coordinator
inaug@@
attentive
Adhesive
Residential
vendors
relay
Fra@@
isations
blue@@
vitality
vest
sch
tribunal
Pizza
Button
Machinery
Thousands
mechanics
brow@@
XL@@
Chanc@@
chester
155
expiry
yar@@
Linen
exacerb@@
safeguards
confirming
iles
Rumbo
Contrac@@
adoles@@
Alain
SG@@
real-@@
Headquarters
Abbas
Payments
Inclu@@
iTunes
reimbur@@
25,000
bees
sanitary
promptly
eres
dj@@
Jes@@
ritual
LOR@@
SIM
carved
festive
surf
Humanitarian
ival@@
eware
CANADA
tv@@
per-@@
eted
0,0
groove
OT@@
facilitated
Bolivia
ginger
accommod@@
Graham
corro@@
Concrete
Typically
Bali
oval
Swe@@
kir@@
Departure
Rover
Healthcare
vineyards
Nor
hearings
Flex@@
projections
feasibility
Hood
Mont-@@
Cris@@
1957
SAN@@
LLC
Semi-@@
itas
anchor
Burgundy
duce
supervised
All-@@
warn
Fish@@
box@@
Polarized
wrinkles
Retro
DT@@
Lenovo
ugg@@
Bruno
Tob@@
nament
Person
tag@@
surprisingly
voy@@
reau
representations
dentist
amar@@
spiral
Specification
Neg@@
handy
Run@@
gene@@
t-shirt
1.5@@
Hub
disgu@@
coaches
240@@
stal
arena
Driving
Wis@@
bust@@
polished
outfit
Child@@
Teachers
highlighting
ags
Vice-@@
anomal@@
affiliates
Jennifer
UAE
hereby
deco
serum
destined
Settings
publishers
Corps
dez
melting
Syl@@
Entry
Sebastian
midnight
Either
Maurice
Carrier
distor@@
convic@@
Harris
blank
2.7
posters
Haitian
310
accumulate
plaster
Fax
thematic
concentr@@
Teles@@
Sci@@
Entrance
seem@@
turally
fights
oss@@
th-century
Mozambique
recordings
homemade
milestone
toll
ander@@
Lob@@
olig@@
enic
briefing
treasures
intolerance
fulf@@
Carl
nasal
recreation
bugs
ocks
bored
pies
Nag@@
deser@@
PI
weird
Devon
candles
lib@@
vet@@
pl
magne@@
ageing
Tot@@
yields
Lea@@
Tomorrow
fundam@@
towers
nan
caregi@@
Jimmy
Certified
remainder
lesions
fines
Laptop
Initially
925
JU@@
Copyright
naval
Wang
Inflatable
observer
Past
aa
retains
uous
purification
ward@@
Pets
alistic
Contacts
Electoral
setup
plantation
bod@@
nels
Paulo
cup@@
plant@@
Resistant
sie
baptized
closures
O.@@
terminated
geometry
Items
Politics
taxable
How@@
scattered
DER@@
TM
stirring
1956
headache
RFID
Universities
Martin@@
utable
penetr@@
Carter
ems
2050
Dynamic
Advis@@
225
bother
Frequency
leys
Phys@@
simultaneous
malnutrition
Foun@@
warded
2.6
directives
entially
Kra@@
72@@
1946
Serious
Coordination
guardian
Makeup
inters
drafting
equation
harvesting
Stanley
furnace
stimulates
Lounge
transferring
titanium
assumption
disturbed
BS@@
appropri@@
gr
1954
boasts
LIGHT
ouring
scarf
sectoral
essing
atter@@
tren@@
Liverpool
Automotive
Moore
OB@@
tagged
weakened
NB
Jamaica
Seas@@
vocabulary
pati@@
Balcony
origin@@
specializing
diploma
bark
RENAULT
sens@@
stain
Jin@@
selves
Laws
rainy
basics
scor@@
−
Plants
Break
reversed
Bron@@
Machines
MW
Anim@@
flat@@
barrel
decreasing
ecology
Applicants
cultivated
feast
Recommendations
Arcade
sville
skaya
soles
ission@@
anese
Lie@@
INA
Facility
Raymond
enary
tise
town@@
inclined
make-up
Launch
Johannes
assed
acquainted
Ein@@
minent
Turquoise
melt
sic
uda
Cleaner
smokers
Majesty
urable
ateau
118
colonies
Locate
disturbing
feasible
thered
alerts
Aus@@
counsellor
parish
programmed
Drawing
radicals
Entrepreneur@@
3G
lod@@
indic@@
urges
filtering
appear@@
TRO@@
Km
Proposal
computer@@
proofing
wip@@
nett
not-@@
Albania
Vor@@
chers
harbour
grou@@
coral
priced
Ideally
Geor@@
itations
foli@@
nomination
cho
202
examines
arium
navig@@
venues
Ferrari
pects
Concept
Auditor
Kun@@
Tin@@
lette
113
1.0@@
lacks
energe@@
smug@@
infrastructures
Dinner
undergoing
reflective
card@@
conditioned
izz@@
ers.com
Cooling
centric
developmental
defl@@
Ceiling
dreamed
agen
coaching
restoring
Va@@
Solidarity
pollutants
PG
agus
SEC@@
agement
fundamentally
Seville
ww@@
Honduras
procedural
Prescription
Who@@
ushed
trousers
exhibits
random@@
ANNUAL
Rich
copic
Wallpapers
successes
beside
Champions
Deleg@@
commodities
South-@@
handic@@
131
supplying
introduces
olf
attracting
volunte@@
Bru@@
AV
inaugur@@
Gene@@
flooding
ORY
virgin
retreat
sour@@
Trends
Reduction
menstrual
metabol@@
credited
Participation
Bé@@
simpler
3d
Trailer
atur@@
Houston
Ways
Gates
threads
wrong@@
Draft
After@@
Lay@@
weekends
ois
DING
uss
regeneration
5.
Consum@@
Cast
proactive
abet
Elegant
Devices
atal
observing
sponsors
gs@@
Signs
ishable
Circuit
reiter@@
ﬁ@@
niche
shareholder
regain
extre@@
Sever@@
ice-@@
fertili@@
feeds
Reader
specifies
Movie
Ds
reinforcement
Conclu@@
for-profit
Cool@@
lain
Honey
Num@@
grill
italy
prosper@@
DM
Alternative
anny
Acid
foo@@
laundering
itals
dot
twentieth
reproduce
enthusiastic
tablespoons
inlet
Steam
Engineer
IO
Firstly
Melbourne
IZ@@
eighth
å@@
Austin
inhabited
mainland
converting
as-@@
Finish
Colorful
Oregon
spect@@
1800
Aircraft
1942
Id@@
stret@@
Chron@@
Wheels
strains
Wayne
CNC
Pie@@
collec@@
Manuel
Had@@
varnish
Sign@@
Basin
declining
devi@@
Whe@@
acity
strateg@@
posture
poison
veterans
pupils
eager
counselor
Electricity
tick
jah
roses
armament
steroid
worries
Turk@@
Straight
atom@@
clim@@
Ec@@
Nord@@
tutorial
cemetery
hus@@
Nas@@
coordinating
Monthly
administer
borrow
tious
usa
zar@@
2018-10-@@
Become
iqu@@
volcano
Song
merged
scr@@
Consultation
DB@@
MAC
Two-@@
tta
impairment
spor@@
Ket@@
sively
Useful
FRE@@
pie
issions
humor
Fiat
may@@
photographers
Pris@@
136
io@@
Hold
Kos@@
moistur@@
nutrient
tray@@
odon@@
Siemens
taxpayer
WhatsApp
Trucks
Lanc@@
tedly
approv@@
Vegetable
hostel
fog
PV@@
dominate
financ@@
anytime
Gary
Tape
belts
exhausted
flash@@
Gog@@
kno@@
Piano
interfaces
nickel
2005-@@
Hans
Oven
Fit
PRI@@
Miguel
Protector
anners
standardized
taxpayers
enz@@
urinary
TUR@@
peninsula
Read@@
Fut@@
Scal@@
Probably
vial
supple@@
delegations
jects
raft
group.com
Ability
Glen@@
professionalism
Antoine
mobilization
cone
transi@@
rhy@@
cock
kay@@
Responsible
Leone
porno@@
multipl@@
sac
shop.com
Will@@
Clear@@
aboard
420
Bill@@
practic@@
.it
Ranking
knives
scrut@@
Move
correlation
1930
utilize
Consulting
aison
Nou@@
AIR
king@@
VIII
Hudson
4.4
alcohol@@
mixtures
-watches-@@
Ig@@
GHz
doll
chooses
rods
storms
broadband
tranquility
Liter@@
tough@@
backing
dicate
Dimensions
designate
zers
claimant
wastewater
Carlo
5-0@@
ring@@
103.@@
Structure
Argent@@
comic
ce-@@
Retur@@
chassis
Opinion
ANA
BB
Kis@@
high-tech
affair
obs@@
spective
sail
Travel@@
soils
Teacher
bes@@
Zu@@
Paribas
deple@@
CAL@@
condition@@
incomes
bn@@
Identify
Aj@@
rainfall
Oral
Phot@@
Chicken
Tiger
nier
aler@@
ferences
Duc@@
Agreements
ifier
refrain
Sep@@
needles
BP
BN@@
Castel@@
WIN@@
usable
Steven
ancing
Identity
contin@@
Pain@@
1941
911
Hire
ressive
bn
Alfred
lates
director@@
Fixed
Employee
Cameron
hammer
Pag@@
Olive
Corn@@
PRES@@
190@@
penetrate
stressful
messaging
144
Lion
nem@@
indicative
eleven
ocol@@
Warranty
tion.com
Visitors
genital
ESA
illicit
inten@@
administrators
hof
Ign@@
Citizens
Pays
insect
114@@
eni
ure-@@
bour
Thi@@
put@@
Karl
iso@@
Desert
ograph
Reduce
Alcohol
Leisure
specialize
scooter
Kuwait
nig@@
escor@@
rust
Ministerial
8.1
Improving
Chance
Re
Target
anical
Literature
veness
axes
Choosing
LD@@
odor
function@@
nals
labelling
Ner@@
conform
Utility
Hole
devote
explores
sar
Vac@@
Crow@@
Add@@
nas@@
beating
fr
grades
aerospace
cans
izable
Secondary
Lack
pharmacist
Tas@@
Gatineau
G.@@
eg
Ingredients
otes
link@@
Simp@@
Influ@@
doms
prospective
w.@@
Dhabi
appl@@
cervical
Satin
Midd@@
belly
ACCOUNTS
Congolese
post-secondary
Trinity
furn@@
releasing
br
storey
Sol
appointing
broadly
copes
myster@@
170@@
liquidity
cons@@
22-@@
effici@@
zon
1955
Hau@@
metropolitan
homeless
Graphics
Domain
stit@@
veterinarians
auc@@
endangered
plain@@
Bang@@
gil@@
jn@@
ASS
kov@@
BR
Gust@@
Closed
gent
enforced
Quad@@
Ø
moul@@
Emmanuel
ies@@
plugin
chang@@
typ@@
CBC
unveiled
retri@@
Edi@@
solvency
loos@@
Compared
irre@@
83@@
tiveness
ser
Victi@@
wick@@
Life@@
it.com
Palais
vesting
caps
Ride
stereo
GIFTS
fetus
Santo
Jak@@
VC
moreover
Playing
fishery
restrictive
Oval
stant
Petro@@
Lic@@
horn
Leaders
billing
Saint-Jean-@@
warnings
Rain
hardness
SON
pod@@
Tex@@
Was@@
donated
vain
Helsinki
gif@@
½
tablespoon
traumatic
Classification
cogn@@
Episode
Epson
rette
tural
nab@@
Groupe
2015-@@
chapel
Exec@@
15,000
habitats
Hall@@
emitted
Hugo
keep@@
Liberia
flavors
950
Formal
mam
Fla@@
Buff@@
slides
landkreis
Mercury
Rho@@
medium-@@
Metropolitan
color@@
Policies
Lom@@
Inst@@
Lac
consec@@
annex
.ch
Bull
Hydr@@
baggage
185
Eff@@
arg@@
Fraser
igu@@
20s
Bahrain
Sequ@@
Tum@@
Pok@@
aband@@
weights
renew@@
Families
5.2
bubbles
pendant
thanked
perfec@@
EIB
Museums
asha
olia
guit@@
thereafter
Clin@@
LP
acknowledges
Deposit
demo@@
Raf
thy@@
ege
hierarchy
DFO
categor@@
gesture
11,@@
0.00
smen
FI
Margaret
Some@@
uncle
definite
consisted
switched
expectancy
packaged
RI
In-@@
prohibit
fittings
pulling
Robo@@
Emer@@
Hann@@
check-in
obli@@
X-ray
encoun@@
seals
peel
bodi@@
requisite
cumulative
omet@@
teenager
SF
e.org
DY
Vinyl
119
Interview
essly
Instant
ipelago
isol@@
BRO@@
pile
Dum@@
sies
stly
neau
redness
provoke
adapting
Maz@@
ophobia
Walker
shadows
Athle@@
presid@@
synerg@@
Agu@@
ickness
Appliances
pronunciation
tg@@
lact@@
ACP
aids
injections
carpooling
agged
Math@@
prompted
super-@@
expan@@
quir@@
Rodri@@
PCB
font
offender
Craft
14,@@
Atlanta
ilers
SEN@@
d.@@
Normal
enhances
deficiencies
pathological
omen@@
itely
mAh
XML
eship
21-@@
Tip
stagn@@
vie
Á@@
bean
triangle
Jar@@
collision
Output
princess
Olivier
uto
Alph@@
theat@@
Plug
Stress
Tat@@
joins
bureaucr@@
Shock
Aro@@
Therapy
therein
Liberals
consci@@
Duplex
aquarium
Temporary
extingu@@
Ott@@
Stretta
Mixed
shores
Textile
expedi@@
pores
joy@@
Cook@@
Sex@@
usal
lithium
chemotherapy
cal
turing
ARY
passages
Dafa
proxy
unstable
Behind
Negoti@@
akh@@
pixel
starch
ary-@@
Trend
Sophie
negoti@@
Café
eon
sent@@
biomass
Rig@@
Conflict
Alp@@
undergone
yogurt
readings
litigation
reinforcing
wrist
bak@@
spam
ensu@@
anced
institutes
glu@@
chen
Changing
honor@@
TT
grasp
tants
alty
spouses
Johnny
minded
Tariff
icle
TON
Pin
Bathrooms
Clearly
buff@@
rains
Inten@@
Tunisian
revealing
specializes
convergence
excre@@
BO
Kle@@
aux-@@
slower
fiel@@
merch@@
Block@@
Detec@@
Providing
Injection
EMS
ove
Brittany
genic
paper@@
hospital@@
.biz
disable
Este@@
encour@@
Get@@
nell
Rouge
Must@@
tightly
above-mentioned
Emma
Passion
1914
Trading
-T@@
anj@@
insur@@
currents
nominal
personalities
Cart
UE@@
850
processors
lar
honoured
recruited
mise
232
uate
Oper@@
stripes
Ideas
ceased
stereot@@
izard
1951
ito
neo-@@
vre
Posters
metal@@
motorcycles
enjoyment
Moto
Figures
ridge
euticals
Baz@@
asted
Quartz
Fight
IST
sne@@
laun@@
eliminates
Andr@@
NC
Silicon
consolidate
torn
Tile
arc
ector
policy@@
additive
Eyes
Diabetes
Covenant
beta
Coming
asm
47.@@
heels
in-house
counterfe@@
pol
steadily
Luc
Sof@@
182
analysed
concer@@
Baker
oscope
smoothly
examinations
silica
Teaching
Individuals
requ@@
liabilities
N-
Tablet
Chairperson
Drinking
conveyor
91.@@
us-@@
Down@@
machining
comprehen@@
aline
ence-based
vou@@
Preferred
prioriti@@
Pioneer
Chro@@
Reality
fishermen
AO@@
Grill
transplant
banana
remotely
had@@
kon@@
Lud@@
ilee
Normally
Foot
Path@@
Vend@@
directional
itus
Considering
case-@@
floo@@
incorporating
Sant@@
ancers
manag@@
Fed@@
recruit
Immediately
incoming
bis
6.1
bery
.in
residences
foreseen
braking
aden@@
ett
40mm
fos@@
neglect
Silver@@
wifi
Info
Late
Committees
HTC
Aug@@
Pé@@
barrels
Cruise
equip
antic
Ble@@
accreditation
docum@@
median
46.@@
whales
elong
vision@@
quarterly
iii
Montana
Sets
Fifth
80-@@
access@@
Biological
Fred
Speech
incompatible
sunshine
ergy
Clos@@
Trip
traded
leak
-H@@
comedy
professions
2D
Joseph-@@
Cab
Xi@@
Fan@@
enco@@
Install
Hell@@
dealers
Lane
Previously
4000
Psych@@
electronically
defective
cubic
family-@@
EI
Had
congratulate
fundra@@
Towards
1953
Eye@@
sr@@
dock
Tommy
itude
notices
suction
agre@@
diagnos@@
sunglasses
Yor@@
Global@@
homogeneous
dissolve
Seeds
Allied
departing
entrepreneurial
stretching
wl
Guer@@
at.com
transp@@
ulu
subsidi@@
iasis
icky
fic
geography
Pix@@
Nursing
Tuc@@
proportional
stickers
Stand@@
touches
ministries
Berry
Success@@
ample
therm@@
forec@@
strands
clean@@
Gan@@
Oceania
kne@@
assimil@@
ruin
www.nana10.PlayDGame.co.il
assemblies
rick
Alpha
headaches
Julia
Evidence
Jup@@
pc@@
mea
Call@@
Granada
ING@@
omm@@
ministerial
refreshing
Let@@
earing
harness
eliness
disappears
197@@
Continu@@
Métis
Graduate
attic
cies
Generator
recru@@
Sources
Pictures
wn
who@@
mammals
opted
Sharing
MX@@
Seg@@
Shropshire
2019-01-@@
jungle
17,@@
IEC
fork
mosaic
bare
datas
deem@@
participates
left-@@
XX
exporting
Buil@@
glut@@
commercially
sibility
dv@@
siveness
B.C.
burst
98.@@
är@@
el.com
Coin
trusion
2A
sourcing
burgh
odes
G20
Counsel
extensively
stral
stainless-steel-band
ustration
eh
IA@@
AH@@
DF
yarn
ISA
Avi@@
Accounts
fruit@@
Complex
fostering
smoked
Angela
ologies
Cran@@
CW@@
Woods
commissions
poles
contested
Flag
argues
Normandy
Steps
lacquered
-1@@
marketed
Grenoble
allerg@@
creams
RGB
15,@@
pack@@
conserv@@
alleviate
audiovisual
2018-09-18
Rhône-Alpes
Peugeot
Associated
Separ@@
erce
story@@
copying
206
proportion@@
CNW
nineteenth
DJ@@
frost
Surf
pler
Domaine
ACH
inted
keeper
apers
Poverty
passwords
Voc@@
objection
ento
collagen
depths
Vie@@
cl
Flor@@
surround
Rum@@
Buyer
demonstr@@
exemp@@
Manage
Forms
Commander
Wash@@
Memorandum
uti@@
Rosa
compliment
craf@@
len
garment
127
COP
fluctuations
Philosoph@@
allied
yk@@
93@@
landmark
chr@@
todocoleccion
clarification
umption
SAS
margins
3.6
spontaneous
GP@@
BLUE
login
SAP
behaviours
grap@@
TED
empowerment
PW@@
7-0@@
70-@@
entials
Dallas
edited
Comman@@
ilation
utili@@
Accep@@
rell
1952
genetically
novelty
tubular
ary@@
enhancement
Actions
Parker
corrective
Ville
induction
cauti@@
august
LV@@
Failure
hurry
opposing
holistic
Mongolia
swa@@
13,@@
Birds
conflic@@
Manu@@
reactive
Ex
192.64.119.@@
ood@@
polyethylene
Prosecutor
Yugoslavia
rever@@
erts
pneumonia
Eight
Liqu@@
ă@@
balconies
store@@
pc
pod
Marrakech
Bowling
KING
Producer
Practices
DEN@@
VP
quietly
sharply
Stereo
instrumental
QUE
ife
Treas@@
Altern@@
centi@@
hec@@
brushes
hub@@
assad@@
Sustainability
Units
Redmi
rit
throwing
CSA
lays
adopts
advisors
inking
elephant
southeast
medals
5x@@
rabbit
refriger@@
Palma
2019-05-14
easy-to-@@
seize
grow@@
radial
ting@@
sewing
perpetrators
fs
deadlines
kick
prompt
loyd
sus
195
concep@@
prot@@
Included
Screw
Woven
unc@@
MH@@
utation
rens
garbage
Metro@@
Gothic
abolic
eder
Tul@@
Hi
ais@@
Abuse
WD
ethanol
purified
Ess@@
pist@@
junc@@
fragments
chandise
motorway
rink
balloon
ripe
24,@@
naments
slots
relied
timer
essively
Oh@@
gny
endurance
Port@@
jackets
Bloom@@
assumes
Versailles
Marri@@
baked
AST@@
workout
Cartier
fortunate
Suzuki
rip@@
Non-smoking
jeop@@
ointment
Clip
evenings
rendering
foil
Regina
detainees
antry
Refl@@
hd@@
SSL
Solomon
Reasons
labs
andan
advent@@
greens
Quar@@
uz@@
Proof
candy
hai
implant
Fuk@@
Brad@@
fet@@
133
tolerated
accidentally
Ye@@
Algerian
92@@
eyel@@
oton@@
insulated
ALS
LINE
bull@@
750@@
soy
Hip@@
Ind@@
weed
configurations
tut@@
teens
HST
numbered
teran
shocks
tien
wan
narrow@@
rets
EO
tices
ć
lord
Boy@@
Beng@@
SET
mould
dir@@
translator
non-compliance
ev
oro
airplane
Stick
kov
tina
CPU
oner
Musée
istan
Tenerife
CLE@@
Career
timber
embry@@
lubric@@
Cross@@
subconscious
Hidden
endant
Romantic
Arena
amateur
Bristol
DEC@@
wall@@
217.160.0.@@
quin
Clinic
Investments
icopters
Problems
mess
asa
rheum@@
16,@@
stretched
m3
dd
18,@@
4x4
9001
disadvantaged
Angl@@
Harmon@@
MOS
Musical
Advoc@@
Snap@@
carb@@
three-dimensional
Beds
steep
Discus@@
dermat@@
atism
stro
vered
woo@@
138
＞
enclosure
washer
EPA
Show@@
grading
gender-@@
A3
Experim@@
pound
Ard@@
Bulgarian
lectures
bell@@
mills
ICO
muscular
Mill
ato@@
decla@@
acquisitions
aman
will@@
Circ@@
aquaculture
mall
styling
Menu
Ed
remedi@@
Skype
Mazda
ATIONS
phins
A2
ulates
Michelle
stains
90-@@
auth@@
bitr@@
harm@@
after-@@
Rentals
Seal
Leaf
antibacterial
air-@@
Scholarship
tern@@
Chi
snake
immobil@@
coefficient
delegate
Indic@@
supervisor
22,@@
annular
Mineral
Decisions
Fem@@
Develop@@
maneu@@
Andrea
loire
picnic
Poor
Folding
Measuring
old@@
Canyon
Weap@@
dur@@
Park@@
Zoom
abe@@
unfortunate
rik
grass@@
subway
atorial
anus
db@@
clips
Signal
bore
enrich
Cloth
Norman
smiling
Salon
Fly
shorts
wer
epilep@@
agua
patented
Cannabis
cubes
RIGHT
Socks
ships-within-24h
231
eil
tow@@
classifieds
destro@@
mah
cem@@
CITY
bro
ral
outreach
expired
Theory
Personalization
positi@@
Coated
Shenzhen
trait
b-@@
Dakar
tima@@
trades
Cancel
Calls
Colonel
reiterated
XXL
fauna
Baroque
enlarged
diversified
Cafe
STAR
Licence
FRAN@@
Farm@@
aws
reser@@
Carm@@
superf@@
Hein@@
markers
pherd
ticultural
BIOS
transmitting
Occup@@
Cler@@
fu
grease
wiring
integr@@
nea
Euros
three-year
coron@@
slogan
Com
kal@@
ls@@
warehouses
freel@@
LET
whist@@
Opens
surg@@
minimalist
issuance
Warning
stine
Olymp@@
co.com
entirety
preferable
Logistics
Elite
Bapti@@
Chem@@
Gros@@
expiration
hard-@@
astern
engen
jug@@
him@@
Vig@@
french
vor@@
Moul@@
calibration
cleared
Diploma
phosphate
Supporting
141
printers
timate
CJ@@
Liège
Bern
ISS
ffle
BAS@@
hoo
eme
Foc@@
hed@@
Kris@@
EURO@@
me-@@
surveyed
Centro
Ian
acidity
phin
ABC
aise
hike
Alo@@
Wester@@
answering
hob@@
force@@
Adams
Arri@@
Disposable
Foam
Jeep
SOR
eton
Lak@@
prim@@
Womens
essive
Nine
arta
Election
Smo@@
Clou@@
Statute
pigs
2000-@@
bonne
bolt
exquisite
organizers
Desktop
CES
Rectangular
CLO@@
evacuation
adhe@@
Roland
skins
certain@@
metr@@
Navigation
line@@
KT@@
shells
Sand
rupt
intestines
adem@@
do-@@
haul
vaginal
MOD
tera
Ai@@
spicy
ozone
enna
TING
Sev@@
Bearing
Uruguay
veget@@
PET
note@@
dan
imbalance
yang
constituents
Decor@@
ject
hist@@
menti@@
Neigh@@
129
european
poli
Ahmed
anemia
Shield
DAY
Verde
Optional
arteries
dropping
SPEC@@
perpetr@@
finely
SW
harvested
substantive
Motorola
134
trainer
Nak@@
450@@
vertically
assuming
franco@@
agers
Um@@
editions
Efficiency
ethyl
oto
69.@@
Warren
Upcoming
neglected
ghost
firm@@
atar
Aven@@
Wool
Physics
metro@@
Fellow@@
ocytes
inequalities
Neil
Youtube
fucking
thful
ling@@
2018-10-03
hoc
filtr@@
Past@@
floods
nap@@
264
reti@@
R2
trus@@
atories
entive
Glob@@
icating
pests
pros@@
Discount
Hour
Few
Pack@@
footwear
acetate
fj@@
icon@@
Lieutenant
securely
contracted
knitting
CIS@@
authorize
wee@@
Roman@@
Basque
Tops
inception
repaired
educators
fertilizers
ghts
termin@@
cafe
spell
-N@@
Niagara
Fast@@
Ref@@
Nevada
ourt
rounds
aboriginal
haus
tuition
revit@@
polar@@
parasites
Mail@@
Basketball
tenant
steril@@
volatility
Lucas
shortcomings
menus
exemplary
Thompson
CAF
ladder
Histor@@
ston@@
iel
Montre@@
gotta
Established
Nuremberg
Knight
carolina
Circular
gress
Maur@@
Plain
bloody
draw@@
munition
Benin
sj@@
Fis@@
Rachel
20,@@
quotes
19,@@
XVI
Prev@@
Dest@@
Beth@@
Films
Beirut
reimbursement
Richmond
Montenegro
vagina
Fill
1600
obstruc@@
Genoa
restric@@
Setting
fountain
Quebec@@
parti@@
amper
psd
paints
25,@@
Bam@@
conditioner
ulin
Added
POR@@
Moo@@
semiconductor
Thor@@
Securities
leaf@@
2013-@@
emer@@
iv
Option
bending
Brit@@
Jon
glazing
Stewart
zia
Submit
strings
Raz@@
vest@@
Chelsea
Alsace
excursions
tatt@@
THAT
Identification
62@@
ISE
low-income
Process@@
jan@@
free-@@
CFIA
Maine
1919
ine.com
upunc@@
chalet
attributable
urg@@
Resin
expl@@
Trains
breath@@
VAC
amus@@
typing
recurring
separating
lend
mob@@
Transmission
oles@@
Job@@
Identi@@
PH
delving
flagship
Baptism
SAL@@
champagne
Agri-Food
Practical
PF@@
Campus
satin
Gon@@
jiang
benchmark
anes
Boulevard
miti@@
itative
yearly
plaque
emphasizes
clutch
souven@@
Minim@@
2.com
Cart@@
gaz@@
hemorrhoids
bedding
neighbor@@
honourable
exchanger
watts
lengths
sums
Governing
fen@@
question@@
disposable
straigh@@
atitis
00-@@
phas@@
omo
199.@@
oxidi@@
zon@@
PCS
offs
craft@@
Jenn@@
folders
Asia-@@
junior
Congratulations
Orlando
signatures
hibition
410
Zambia
Sao
unanimously
Cut@@
stained
frustrated
inflatable
Rotary
residues
guin
builders
odiac
Operational
EUR@@
Uzbekistan
tranqu@@
fastening
MINI
foun@@
Your@@
Comprehensive
dome
Tic@@
More@@
Sicily
Towels
Billy
recep@@
cash@@
RCA
Scale
Airways
Sid@@
Chef
Gym
protector
thal@@
FX
JEC@@
Alexand@@
Responsibility
claim@@
itor@@
anned
Knife
Scottsdale
dark@@
monsters
Eden
whe@@
Alc@@
Priv@@
Eiffel
emerg@@
epidemi@@
cd@@
41@@
2018-09-26
initiation
Road@@
eri
ironing
tary
dividend
picion
UNDP
maternity
embroidery
rine
Ves@@
inger@@
eter
English-@@
arc@@
hib@@
folds
5.0
Connections
eval
undesirable
mean@@
Chris@@
Intro@@
dar
tment
teria
welded
cons
Sold
inth
ILL
baseball
Genuine
OH@@
bonuses
MG
Jay
drafted
secretariat
fungus
subjective
INT
Extreme
abu@@
accidental
molding
clearer
displaying
WAS
shi@@
estones
MERCEDES-BENZ
Batt@@
lil@@
Priority
utensils
hydrated
Somerset
fecture
MY
receptor
Benefit
Cycle
ipped
Png
Vacc@@
Kansas
commissioner
spheres
goodbye
Julian
appealing
optic
amplif@@
omers
competitor
Institutes
vities
62.@@
edo
sponge
styl@@
Nairobi
Chec@@
Gin@@
clauses
Foot@@
sb@@
-Saint-@@
Rece@@
℃
PEN@@
angular
knoc@@
Société
merits
Holding
approves
de.com
Jord@@
onics
satisfying
usted
Occupational
Logic
Q-@@
CD-@@
enlargement
complies
Signific@@
LAND
lied
Composition
tenth
Info@@
corner@@
chos@@
rio
abi
BBQ
Nest@@
endorf
charcoal
fting
Gaming
replaces
follic@@
ifications
AO
hotel@@
Honor
UNI@@
His@@
teaspoon
Specialist
HOL@@
Comparison
retail@@
Infin@@
Tox@@
Jen@@
biotics
Marcel
porous
elaborate
Rescue
rents
Rick
sensory
scrap@@
Roo@@
junction
RT
stir
rash
FRANCE
Correc@@
opsy
ch.com
transnational
duplex
oce@@
Coats
CSC
depos@@
brokers
avan
improv@@
Ple@@
must@@
Kingston
aning
portation
frac@@
Gun
DT
DD
Businesses
Champ@@
Eagle
t.
Plated
HEL@@
stic
vibrations
zoom
inscri@@
Roof
sati@@
urer
TRE@@
Morning
quota
hp
8mm
Causes
safeguarding
deserved
reson@@
ADA
juven@@
Songs
Bh@@
Basically
round@@
asti@@
gentlemen
tu
tabled
ibility
tilities
t.@@
STO@@
splendid
stationary
Punta
rement
235
ados
ney@@
environ@@
ardis@@
Zagreb
Polar
fas@@
infr@@
shallow
Judg@@
lonely
Ho
WN
Jol@@
exceptionally
eper
rod@@
Refriger@@
recourse
Import@@
Dresden
incorporates
noun
zzo
Christine
asion
pulmonary
outset
Welding
terrestrial
162.255.119.@@
sauc@@
divor@@
Mast@@
Pole
Genealogie
John@@
Proce@@
pale
frying
Pick
trim
cav@@
graduation
predominantly
Diameter
Globe
Cec@@
Path
asym@@
unanim@@
derly
Sandals
Devil
Jur@@
manicure
pedestrian
urred
lush
ian-@@
Radwell
spreads
fortress
cured
Yam@@
Apoll@@
itinerary
enda
PLA@@
two-year
parade
Linear
deplo@@
child@@
yel@@
carpets
wells
leakage
Vide@@
Shirts
Jas@@
ITS
puppy
Autonom@@
Kid
ml@@
Abdul@@
Viv@@
Map@@
embark
shipments
.1
resis@@
T1
mans
p.m
judiciary
cows
Riviera
worth@@
Agn@@
Ultimate
geon
Maple
Testosterone
Decker
magnets
Syste@@
undergraduate
Castell@@
oly@@
Doors
fills
polyurethane
pher@@
freshness
datas@@
precip@@
grove
ampton
RNA
Sea@@
Prog@@
ologic
162.@@
theses
tion-@@
arriors
seamless
Night@@
Bamboo
0.0@@
rustic
Associ@@
energ@@
RD
publishes
neph@@
amas
or.com
vegetarian
hemis@@
Filling
hon.
Emo@@
Nun@@
ordination
fab@@
fly@@
cushions
troubles
mim@@
idents
Heights
Promote
Chev@@
STEERING
i.@@
catching
Vent@@
Town@@
Isaac
phon@@
Egyp@@
usher
2008-@@
led@@
chlorine
Albu@@
Meter
marke@@
predecessor
amel
Giovanni
instructor
320@@
appreci@@
é-@@
right@@
TOR@@
Stock@@
atlan@@
Dyn@@
ECU
Infl@@
contaminants
Hang@@
cub@@
Well@@
drag@@
Arsen@@
B1
occasional
Dist@@
WE
Bail@@
Radwell.com
Aquitaine
iver
Wag@@
councils
Legend
209.200.154.54
Asset
notarial
rical
ifa
án@@
Exterior
SK
ht@@
fec@@
6x@@
lement
ophy@@
nicotine
inda
Instrument
Chemicals
ferring
jaw
customary
ferr@@
cele@@
sq@@
137
UPS
minibar
persist
Chan@@
ž@@
remin@@
scary
abs
nos@@
Leon@@
ns@@
crystalline
vendor
vanilla
geological
chromos@@
conven@@
wig
Amp@@
Vertical
Quarter
T2
contracep@@
Mine
FU@@
dé@@
Bry@@
End@@
curves
sell@@
Hunting
ton-@@
enthusiasts
198
adversely
orchestra
Kre@@
Exhaust
Norfolk
advertisement
seaside
dissolution
mailing
originality
Row@@
princ@@
liv@@
Arms
Ferr@@
Lots
Scho@@
ankle
Amy
Interested
entals
simulator
outw@@
Iran@@
Psychology
Fundamental
aus
inquiries
monial
depri@@
childbirth
algae
apk
Seven@@
Harbor
viscosity
acon
rollers
ress@@
fres@@
c.
lightning
Electr@@
kt
modi@@
Catalogue
pens
Mat
addy
Interactive
Sleeves
Nicholas
Pou@@
CAS@@
Drop
Rail@@
RestoQuebec
Reas@@
deliveries
Tanks
refundable
Nem@@
Exclu@@
climatic
labeling
acier
chen@@
Anne-@@
Growing
max@@
Amar@@
ct@@
ention
par
illy
Fat
quotation
arth@@
cutting-@@
soak
Equity
grouped
Moldova
Forex
MED
nutri@@
GH
Sept
beforehand
Sherbrooke
inhal@@
Lightweight
Host
lymph
drug@@
alogues
O2
Colon@@
Dub@@
ror
eli
costumes
zz
randomly
Tang@@
Dead@@
olin
fertile
etown
IK@@
TG@@
earthqu@@
Format
Ron
fair@@
bler
Sla@@
chair@@
easing
drugstores
Tow@@
delegated
vineyard
perpendicular
collectors
ritis
Wellness
dle
prey
couch
Bond
Honor@@
oters
vulner@@
onry
scanner
derivative
Ey@@
assists
ister@@
search@@
toe
Isle
It@@
MPs
C1
wide-@@
DIN@@
cess@@
non-smoking
Diet
-2
pane
celebr@@
suring
lingerie
Charge
artis@@
straw
itability
approximate
fermentation
3M
Possibility
puzzles
AVE
catering
GRO@@
ennes
tactical
ben
operability
swim@@
bio-@@
Aaron
granite
Arc
Buying
cleans@@
dialog
deposition
Ankara
citrus
equival@@
Spacious
Durable
small@@
NAT@@
Seychelles
hij@@
Accessory
Rhe@@
tiers
jj@@
entally
Karlsruhe
ras@@
umi
kan@@
sandals
twist
inspectors
LM@@
Multimedia
ia.com
cir@@
ène
Mey@@
mun@@
counsel@@
OFF
Pist@@
figured
zoo
Enter@@
Pip@@
utting
Demon@@
showers
reset@@
oba
iters
awaits
teau
EE
recruiting
Advantages
perimeter
.com.cn
340
transistor
turquoise
temporal
asi
Gazette
Known
Malaga
ennium
lef@@
accust@@
precau@@
transverse
Conversion
Pillow
arrivals
tempor@@
stom@@
semester
ish-@@
Horizon
dian
honey@@
66.@@
Giant
impurities
reconstructed
Pascal
defendant
phosphorus
fe
esta
Wilhel@@
Ralph
pom@@
inet
fairy
spectro@@
light@@
Elli@@
CLA@@
Bubble
PWGSC
phrases
gated
wi
modernization
Triple
Racks
Jacuzzi
Law@@
apolis
152
Isol@@
rav@@
demic
organiz@@
Susan
Shir@@
second-hand
Hilton
surge
contraindications
oca
y-sur-@@
Occas@@
tern
desper@@
Travelling
evapor@@
adows
TDI
taine
bow@@
Muscle
alth
PK@@
identifier
Dryer
NW@@
plate@@
Vila
squares
Anyway
kr@@
Ave
illuminated
immersed
Sean
Aur@@
stroll
rix
Pages
cafes
Channels
high-performance
Hir@@
duced
Teams
Lands
Ridge
endo@@
diversification
estion
biotechnology
Mississippi
Düsseldorf
traff@@
tigh@@
zipper
Repeat
canad@@
156
shiny
icy@@
ystic
Alexandre
damp
float
spin@@
Wardrobe
Attrac@@
PSC
vein
fry
flags
Rid@@
ICK
ody
Nep@@
consortium
void
Challenges
M2
Dipl@@
C2
supplemented
directs
Own
surance
seated
Brand@@
142
ence-@@
othy
Gand@@
yan@@
hass@@
ief
tron@@
BL
richness
dye
Midi-Pyrénées
commune
Chronic
gal
breasts
frank@@
Dj@@
cris@@
loun@@
bicycles
Officers
COM@@
Selec@@
dispose
boutique
iev@@
asbestos
Hart@@
Electrolux
Insert
ceramics
pvd-case
OJ
sulph@@
itte
ear-@@
ISO@@
Ces@@
Tec@@
onn@@
32-@@
Ma
TAL
Guin@@
discharged
oping
éri@@
Conventions
NOW
Chalet
Sle@@
23,@@
conductivity
echo@@
Orth@@
Biology
ROM
mir
ry-@@
1000-2500
Algarve
electrically
Havana
enacted
ipes
Motors
iri
Ek@@
248
lowers
149
OSCE
electron
uris@@
phos@@
plur@@
umed
ad.com
aar
pool@@
inous
metre
equilibrium
Zam@@
6.2
a.info
Jab@@
Did@@
Watson
administrations
lodge
harbor
Monument
Euro-@@
rom
sim@@
rotate
community-based
Container
ller
2500
atization
isk
poc@@
diffusion
blown
hands-@@
staffing
Virus
Durham
ether
blowing
beck
Sauna
premiums
Eco
technician
centralized
Pub@@
ğ@@
convened
diary
143
203
alis
juices
Lamps
Reduced
Meetings
Cau@@
timeless
ount
ancer
Kamp@@
ICRC
E-mail
Deal@@
terly
rails
Pieces
buck@@
cooker
circulating
Jr
Pear@@
Institutional
direc@@
icidal
Sure
KIT
Statistical
umental
cau@@
Benelux
butterfly
ZE
Gloucestershire
informing
dB
Joan
entertaining
STER
Nick@@
inspect
148
Caroline
h-@@
Claims
23-@@
fined
480
dz@@
Cz@@
packet
burner
Rob
competencies
nal@@
otal
plots
ZA
CEL@@
pumping
0.4
coastline
Poker
Kits
arose
solvents
crafted
Marg@@
oc
bachelor
fashi@@
153
Gasoline
Catalan
FLE@@
shifts
second@@
derog@@
151
Brid@@
Feature
613-@@
ELE@@
ery@@
avored
wording
organizes
Strengthening
rison
plating
urban@@
skull
etheless
dwell@@
regul@@
forwarded
mandated
VEL@@
multiply
PB@@
Mt
2002-@@
fresh@@
soothing
itory
Sharp
faction
ickers
Gig@@
Barry
mp
calculator
Club@@
LEDs
Need@@
Sudanese
factor@@
Verona
palette
pathogens
trendy
Mec@@
pent@@
Quiet
inferior
Gul@@
Š@@
Stro@@
informative
achiev@@
method@@
Skating
exagger@@
regi@@
surfac@@
ai.com
pains
conducts
adel@@
yne
dashboard
Fos@@
black-@@
Rennes
Newton
650@@
5cm
canceled
AH
Therap@@
intergovernmental
cereal
rans@@
hea
uling
él@@
Imple@@
Stories
alleg@@
Ethiop@@
extra-@@
Custom@@
neat
tn@@
gab@@
gible
Fern@@
O.
Structural
dispos@@
bor
open@@
distributing
Genre
MET@@
impregn@@
sol
immer
Hanoi
vention
illes
enty-@@
ün@@
dition
Edit
147
parcel
am.com
locating
controllers
romance
icient
Gö@@
Chapel
H2@@
Jeans
ipper
risk-@@
stown
Directions
Transition
pep@@
inconsistent
worms
Leonardo
Sax@@
Dil@@
eco@@
subsidy
modelling
conia
Prairie
sweets
alkaline
digit
Positive
preparatory
avi
And@@
scratches
ia-@@
cottages
Applicant
sponsorship
Mer
Beads
Alto
Characteristics
chefs
Jacqu@@
ference
bay@@
Richelieu
luminous
Beach@@
Linda
Zel@@
Mobil@@
EPC
enture
118@@
altar
newcom@@
tham
Boss
phar@@
kra@@
bouquet
2.5@@
abling
finals
tox@@
Namibia
Indonesian
psor@@
furnishings
DEN
warmer
feed@@
Elev@@
peptide
methyl
beginner
Phil
Photographer
ding@@
club@@
}
tised
viability
Waterloo
Nicar@@
orus
fo
Ef@@
146
rying
sore
melon
yacht
.be
amy
complexes
ril
engraved
2.0@@
yards
sys
axle
vals
edical
21,@@
OM
bc@@
jumping
hips
ACH@@
kewise
Dominique
Moder@@
Hearing
sandwich
Subsection
statute
wrest@@
Comfortable
action@@
tage
Dup@@
bump@@
Adjust@@
OPEL
Port-@@
pedal
horse@@
ELISA
Procedures
210@@
vitro
{
regulates
HE
oles
sincerely
mina
Whole
Cake
Parisian
patches
repairing
Cardi@@
Institution
occupations
North-@@
Parad@@
cleanliness
isolate
amento
parliamentarians
products-@@
Mind@@
Convert
conceptual
ilization
inland
Pisa
kitchens
pes@@
itual
ced@@
thumb
lecture
Wes@@
dives
Croatian
COP@@
Acting
insurer
PHO@@
Catal@@
ninth
LS@@
VES
7.1
spark
24V
colourful
Ide@@
NL
refresh@@
Eva
hurts
knitted
resor@@
Serve
Strat@@
anta
PAT@@
sper@@
anas
GR
conducive
declarations
Mid-@@
.blogspot.com
Brooklyn
World@@
Cali@@
Acad@@
renov@@
side-@@
PLC
ge.com
pal
pierc@@
enamel
Improvement
Tap
eases
Deal
shelters
www.c@@
Ultr@@
forged
dwelling
otta
peaks
ffed
Metz
61@@
underlined
FROM
crush
Funny
aven@@
Kla@@
blender
Physi@@
amer@@
bowel
rhin@@
aired
bos
Fisher
utilities
rug@@
Deco
Compar@@
outskirts
eman@@
Jerry
west@@
appealed
enge
anesthesia
nutritious
Nes@@
inkle
EF
terminology
para
sensi@@
Franç@@
see@@
Updated
ulcers
Condo
rees
federation
slo@@
Des
Views
430
Element
Zip@@
baseline
icial
avo@@
lavender
Modi@@
station@@
wig@@
2x@@
Sisters
HOME
MAS
Sear@@
downs
Cumbria
affili@@
Pursuant
technolog@@
8-0@@
pathologies
Resid@@
LIMITED
tonic
Costs
repository
resolving
1200@@
exporter
Emily
Suz@@
nees
Patio
y-to-@@
Carmen
Iowa
Prison
april
bi-@@
kilograms
pology
counselling
havi@@
carto@@
Enforcement
Intern@@
iano
numerical
Present
Zan@@
usty
Mall
Onlin@@
Cherry
Photo@@
gynec@@
Sales@@
Fou@@
fra@@
tes-@@
thirds
WIFI
.ir
wrec@@
Leipzig
Utah
eppe
Zinc
Experi@@
baroque
urgical
rider
Messenger
Numerous
Aw@@
IF
sdorf
Greg
promp@@
cocktails
boro
inmates
IAL
Champion
prediction
resc@@
Inspired
Castille
await
idi
ransomware
Surveillance
Marne
readiness
Sheikh
Clean@@
oplas@@
-01
LO
10-15
isha
insti@@
anted
intersection
Chateau
skin@@
gums
depicted
BOX
caster
ever@@
CCC
Buffalo
Journey
2011-@@
wavelength
ith@@
presently
Therm@@
downloads
litres
etus
touch@@
FRA
STER@@
2010-@@
reduc@@
elly
117@@
hos
Compensation
Tan
tech.com
lee
restart
handmade
Charging
Sister
Shim@@
reproduced
comparisons
mati@@
Vs
Balk@@
dreds
harmless
pumpkin
TX
presses
photovoltaic
WAR@@
omatic
artery
Fake
GROUP
Cylinder
ment-@@
Cube
mative
Louvre
nik@@
Bris@@
lag@@
velocity
Lod@@
3-5
RY
Crist@@
aton@@
GAN@@
Kath@@
iana
Asked
Rapid
methodologies
landmarks
Wing
SPA
grape
declar@@
Less@@
coag@@
whale
das
Apr
Mortgage
Costume
2019-05-11
hats
Sed@@
arden
Cogn@@
Academic
trays
Wright
EMENT
s.net
Tuscany
Automation
Artworks
15-minute
tem
MEPs
Wiltshire
Tonight
ineffective
Firmware
Thinking
aan
bat
ANY
Craig
host@@
Bremen
Shadow
Poultry
iors
TD@@
Convertible
decay
peacekeeping
UND
kee
ection@@
illustrations
go-@@
copied
acidic
umbrellas
oul
Cabin
iza
Chemistry
rap
health-@@
Advantageously
2015-0@@
ORS
dra
Terry
Klein
owski
Tab
starter
cf@@
overlap
CHAR@@
Bass
fie
bau@@
quin@@
Dakota
6000
Heav@@
reb@@
Tunis
hung
IH@@
Payday
Relief
adam@@
Lif@@
bind
uria
rane
192
flange
0.6
ts.com
31st
550@@
scripts
Mallorca
Cork
9.00
doping
Than
Sticker
Lop@@
Hav@@
reflections
520
oeu@@
foregoing
Intelligent
Galvanized
AK
Stein@@
6.
Cré@@
chandelier
172
ville-@@
Ord@@
Speakers
Match
245
board@@
Ville@@
rett
ACK
cane
Johannesburg
riders
anz@@
particul@@
Just@@
coatings
trophy
Elec@@
anco
changeable
Wea@@
thought@@
Malawi
fancy
Die@@
stringent
Sacr@@
radiator
Asi@@
ts-@@
carbon@@
Scholarships
sneakers
Iber@@
Promoting
crane
212
small-scale
glam@@
sur-Mer
Booking.com
Utrecht
wors@@
2mm
Janeiro
anti-virus
achable
Lock@@
Daw@@
elo
Modified
cht
smoo@@
refurb@@
interfer@@
116@@
Strength
contrad@@
participatory
Ark@@
Titanium
Relax
162
illumination
ics.com
opathic
Canton
Citizen
stipul@@
cand@@
actuator
Diana
valu@@
clientele
Robinson
thly
cus
1916
pean@@
Fuj@@
OC
menopause
DEL
MUL@@
ichi
Canary
buckle
congestion
fracture
eces
Concentr@@
Possible
allocate
Instructions
nonetheless
Butterfly
Gaulle
advises
Rod
brakes
calcul@@
xer
through@@
firing
Hero
OTTAWA
Habitat
plex
ometr@@
Leuven
1910
white@@
290
Built-in
similarly
bricks
halls
clusters
system@@
Dictionary
0.8
half@@
abor@@
Viking
agonist
disp@@
subordin@@
Spring@@
nursery
deduction
Bs
guaranteeing
Sleeping
God@@
SAT
es.@@
T-shirts
ß@@
AIR@@
440
sterile
ate.com
vase
Transl@@
Louis-@@
Alexandria
ardi
government-@@
SMD
Od@@
Yo@@
jap@@
diabetic
2019-02-01
textures
scent
coherence
invoices
ön@@
fuck
chest@@
36.@@
Stability
fares
rested
ylene
dens@@
oci@@
Across
bibli@@
amba
tron
uta
aspir@@
transformer
Provides
Away
Gent@@
Delete
lap
ini@@
μm
Symphony
some@@
Dust
defender
Consult
blinds
ont@@
Danny
stipulated
ambulance
Regul@@
WHITE
Larry
elo@@
acia
progressively
Bank@@
arina
cabins
buc@@
Fres@@
beli@@
insu@@
contem@@
insertion
3000@@
Oklahoma
Binoculars
McDonald
fordshire
pneumatic
HC@@
value-@@
330@@
GMBH
decision-makers
wardship
mins
Storm
28-@@
Selling
raid
co-ordin@@
3.7
multilingual
LT
Receive
podium
eather
Innovative
caus@@
sils
Mechanism
centred
Gib@@
Patter@@
crosses
Crafts
370
Aux@@
Collective
Approach
Issue
chim@@
rough@@
slice
adhesion
opor@@
trajectory
THIS
handbags
ma-@@
anal
Isa@@
Louisiana
ergonomic
BAN@@
logos
APP
strawberries
vegan
anner
Rog@@
omi
smooth@@
ultraviolet
Automobile
Ship
Arm
esome
Gilles
Distribu@@
retrieve
merge
rena
SEL@@
spin
uten@@
Avignon
ève
Grove
fungi
correspond@@
Tropical
zu@@
Spy@@
SM
departures
Gateway
4x@@
omer
Acceler@@
Cote
Pregnancy
Portfolio
PHP
FER@@
alyp@@
model@@
oll
hairstyle
january
TEC
grad@@
longevity
format@@
recre@@
Gad@@
Mare
ono
Contribu@@
wheel@@
208.@@
c.@@
Joy
Bang
group@@
SIT@@
fuc@@
tj@@
Lumin@@
sleep@@
june
distur@@
SB
Castro
Scan
ternal
gle@@
dispenser
SME
yram@@
coli
heat-@@
Census
Prosec@@
inspector
osh@@
Voltage
annoying
Achiev@@
review@@
y.org
Bonn
tiff
Purch@@
mosquito
Mauritania
verte@@
stering
Jessica
Basilica
Harvey
Salv@@
Rw@@
isely
anks
Robot
senator
Fé@@
Suff@@
Shampoo
168
fant@@
iciency
dex@@
benz@@
param@@
Increasing
landlord
ingen@@
Administrator
replen@@
long-lasting
dun@@
Arrang@@
Kentucky
Mitchell
gastric
Erit@@
Georgian
sal
2003-@@
DX@@
ingent
cultiv@@
oks
8.5
protot@@
OT
acha
Coat
163
Doha
Principal
onda
gins
beard
essa
B2
cil@@
Cables
Improved
26,@@
presso
integrates
Fried@@
intang@@
Rhône
Nicole
Degrees
NT
Powerful
Yellow@@
Quite
TAR@@
freshwater
LAR
ocar@@
ruption
bouti@@
aler
ACTI@@
Guadal@@
v1.@@
Equipped
standardi@@
mr@@
211
gings
Breton
3.8
surrounds
beach@@
manu@@
Jet@@
dead@@
stun@@
ction
uv@@
Critical
Sach@@
Hill@@
ao@@
goat
dividing
specimens
Bottom
Resol@@
French-language
Togo
lys@@
photos@@
Dog@@
interruption
token
Coating
Oracle
iodine
rock@@
ysis
Combined
preview
Diam@@
tels
onally
food@@
Beat
july
agonal
mustard
urt
Separate
amplitude
envis@@
Liu
GAM@@
gia
DRI@@
bloc@@
paved
anno@@
subjec@@
extern@@
clarified
humidi@@
miniature
guid@@
Duration
Casablanca
Accueil
Steroids
Proble@@
FLO@@
Ken
Peg@@
apa
periphery
ju
Raf@@
idd@@
Trio
Uh
pity
richer
Kia
resemble
Reti@@
Kob@@
Determination
clearing
acquain@@
umph
rejuven@@
Nutri@@
mentary
2018-09-13
wired
6.3
lone
gi
Win
Substances
Intergovernmental
wc
galvanized
Interface
discreet
ers-@@
subsi@@
policy-@@
gou@@
accent
Rainbow
polishing
VP@@
campa@@
3mm
tb@@
lu
WAS@@
brochures
MRI
thromb@@
ght@@
Parc
Awareness
ballot
Disability
diction
Fusion
Queensland
andro
Rosem@@
GI
formity
208
Innov@@
ī@@
alg@@
Nail
ional
y.@@
trainers
odor@@
beginnings
atical
.....
Paragraph
oncol@@
Jed@@
loy@@
Kirk@@
Sunset
Tir@@
PLUS
Break@@
inga
Denver
directing
TC@@
toner
pancreas
Competent
Tempered
27,@@
tric@@
Nicol@@
erase
Renewable
Pierre-@@
drawbacks
quette
orally
hydration
º
MF
Cauc@@
Shaw
Hook
discus@@
minster
dip
detergent
Morris
posing
2012-@@
EVA
erre
Parti@@
Wet@@
penal
sweater
171
dissi@@
OM@@
Nikon
MEDI@@
auditor
affor@@
1-3
gles
cataly@@
pedest@@
bile
Sap@@
modifying
aye
Maya
Conven@@
bund@@
VIN@@
TVC-Mall
mandates
Released
backdrop
Rack
antim@@
competes
adherence
CAT
conjug@@
cartridges
sew
Sardinia
forward-@@
amen
text@@
rt
Pride
damn
seri@@
zzi
diversify
cinnamon
Xin@@
Mechan@@
Dah@@
Capit@@
resonance
etr@@
fibr@@
gluten
ieves
Mines
builder
aties
tram
Friend@@
ffing
Platinum
2018-09-14
INS
parquet
Chat
brities
Oman
Moun@@
seizures
Elementary
Lambert
Layer
localized
tje
Laundry
Davidson
Width
room@@
Evalu@@
lis
Employers
uded
t-up
KO
E-commerce
Mans@@
eph@@
hu
Lamp@@
december
Marbella
ensemble
tabs
Signed
tast@@
ted@@
Enterprises
nav@@
Pretty
ay.com
AMP@@
Sample
Coordin@@
gence
5.3
ise@@
Dream@@
oline
Immun@@
skating
dean
Petit
Paralympic
snap@@
Mathematics
ent.com
arrows
artworks
seiz@@
resembles
ior
1100
ATOR
Famous
homogen@@
distinc@@
Pine
Yel@@
atus
Ste-@@
Mosque
DX
jacuzzi
Trousers
dots
Miscellaneous
decorating
Î@@
Ana
prospec@@
pallet
ellow
sticker
oil@@
eties
inhibitors
bread@@
envelop@@
Madam
toire
gon
latitude
vapor
1905
Flash@@
boun@@
Bread
trash
MW@@
platinum
etto
GHG
parliaments
Transpa@@
melan@@
Andorra
bonding
Discrimination
spectac@@
NEC
moun@@
aska
admissible
Partnerships
install@@
Virtu@@
SH
agues
coff@@
resumed
Columbus
ission
ios
mium
VIA
Surgery
THER@@
Bros@@
graphical
stur@@
petals
spraying
Planner
deco@@
Diving
IKEA
slim
ammonia
interconnected
TOP
TRA
racks
cellulose
ometers
forthcoming
otte
Esti@@
tgages
VO
Best@@
Safari
Patient
Push
Leonard
stub@@
COUN@@
arin
exhibitors
Farmers
Phen@@
613
bial
overdose
february
BK
vera
downward
rah
Karen
Comment
glossy
Bois
Clau@@
worthwhile
scars
Registrar
Reception
newer
Dang@@
Conv@@
yramid
VIL@@
stud@@
flap
Belgrade
Astro@@
Member@@
Rex
Receiver
ke.com
PCT
abin@@
fabricated
Developed
sect
Lincolnshire
eux
Eis@@
Bras@@
cook@@
absorbing
Soap
Nath@@
Bik@@
runner
^
permissible
ilian
robe
Exclusive
purchaser
compens@@
Concep@@
Voy@@
upward
HI
Territorial
anya
disturbances
pi
breathable
Wu@@
Premi@@
SAR
Python
deer
Mim@@
LI
var
Dodge
bec
god@@
Flex
igns
geable
washbasin
Fantasy
attor@@
sional
Corsica
gos
ogly@@
flor@@
scissors
topical
GLO@@
49.@@
105@@
atech@@
neu@@
francs
PS4
Professionals
Celsius
loon
formulas
roy
minus
fluctu@@
capturing
6mm
rop@@
montblanc@@
Tos@@
bypass
cache
grab@@
WEL@@
surviv@@
modernity
Lessons
Collections
mart@@
Tus@@
kt@@
Swa@@
Panels
IRE
infring@@
Micha@@
dee
evalu@@
Feed
issioners
specialties
Approved
rently
bio
Trou@@
154
Baptiste
.co.@@
1,0@@
2018-09-12
izh@@
VAN@@
ulative
net-@@
atel
BEN@@
salads
Bouch@@
laminate
unreasonable
Proactive
discrete
tico
Potential
Hands
routing
informations
matt
pad@@
yad@@
Portland
arel
Amazing
revise
Bilbao
Penn@@
Concert
booth
continu@@
dispens@@
Scandinavian
pigment
df@@
articulated
Ivan
tenants
me.com
center@@
headphones
Nau@@
secur@@
uch
cerebral
Stream
int-@@
Departmental
Spi@@
perme@@
persi@@
216.@@
substituted
r.
Jun
91@@
BC@@
dancer
Guidance
Lines
freshly
singular
Chanel
compartments
29,@@
Guided
Gowns
referral
Buildings
Per
Yog@@
hered@@
quotas
zio
Hewlett-Packard
Smoke
ouses
Pis@@
tative
GY
Objects
eb
Bulletin
Calcul@@
replies
alloys
Recipe
Smooth
postponed
polymer@@
demo
pd@@
Sara
Appli@@
bracket
gourmet
Crane
Lal@@
cen@@
Medicines
tl@@
RB@@
Roch@@
reuse
cork
Abbey
manager@@
Julien
nic
extra@@
GHT
Amb@@
istr@@
hybri@@
niv@@
enia
comprehensively
hamm@@
intra-@@
limbs
spontan@@
royalty
breaker
Mint
inorganic
Chim@@
radio@@
allow@@
iya
manufactures
Forestry
59.@@
oun
brochure
imitation
degrad@@
ligible
Backup
versal
aesthetics
Gabri@@
Chel@@
Île-de-France
Kum@@
Ls
Settlement
Zar@@
lander
nette
endocrine
bells
antimicrobial
Provinc@@
Mini@@
Aerospace
generators
AAA
AUDI
164
ved@@
fications
ewing
compensated
bloom
IOM
metalshop
Ain
Naval
bookings
Dong@@
Rapha@@
rin
Hut@@
Arrivals
aspiration
loft
Tac@@
Rolex
Downlo@@
Soccer
escent
ppm
EUROP@@
icker
analysing
Count
NF@@
Clutch
Protected
26-@@
versi@@
carbonate
fixtures
Brigh@@
old-@@
badge
conveniently
Tire
masterpiece
TY@@
Europa
brevi@@
istering
Hairdryer
a.ru
GIS
tc@@
petrol
Minutes
ALLE@@
seismic
spotlight
JavaScript
detectors
70s
depreci@@
assignments
FAR@@
ux-@@
WHE@@
Astronomical
se.com
Acquis@@
Gross
span@@
Interpretation
emen
Atomic
Mans
dispersion
Certificates
mia
gz@@
Acer
Furn@@
Palermo
Baseball
Absor@@
weighs
158
Fernando
underwear
Engineers
allowances
flavour
Bella
burger
authentic@@
Comic
mater@@
minibus
transporting
home-@@
Monster
kking
ommunication
site@@
Mang@@
Aging
tress
porch
inc
capacitor
ECO
XI
inactive
cortico@@
otti
01.@@
secretion
Chen
itz@@
Surrey
eleph@@
oted
stronomy
wild@@
Bearings
bananas
alo
Reducing
additionally
Mens
ECH@@
bows
FRONT
sleeved
78.@@
gul@@
Estimates
sme@@
Sneakers
RP
Bob@@
Anch@@
KR@@
98.4
Freder@@
cylinders
armor
LEGO
ahn
Ques@@
ec
Helen
■
Stefan
disturbance
Actor
TVs
tuous
CES@@
Jaguar
pearls
Diagnos@@
fairs
dream@@
2018-09-11
neath
ingual
edic
propon@@
thereto
peas
pickup
Barbecue
immersion
centrally
stopover
glazed
Recycling
achi
fen
glo@@
Establishment
Fen@@
Ae@@
Youn@@
30,@@
Sic@@
inders
phal@@
additions
Courts
Unknown
dispersed
xen@@
Tables
self-employed
constituting
Tall@@
Led@@
holdings
Swarovski
saint-@@
coats
biography
recorder
Semiconductor
ensen
Horn
TN
FX@@
Socket
directories
redund@@
blog.com
Jav@@
Faro
Sonic
Toner
entations
uer
Result
champion@@
Interim
prolif@@
Bari
employing
CNSC
Zanussi
Gonz@@
512
marg@@
glomer@@
Rolling
majestic
cham@@
bench@@
128@@
Correctional
touring
swee@@
RentBoard.ca
achel@@
7.com
Tractor
inserts
Sie@@
72.@@
82@@
157
Rocky
Knights
EDF
ern@@
importer
AY
Aurora
over-2500
Urgent
French-speaking
Fountain
PER
Ghent
Console
Initial
ignition
Athletics
Hans@@
obiles
Re-@@
oily
upgrades
purpos@@
aerobic
ara@@
Frederick
Grants
theore@@
Cleveland
aran@@
ALE
jas@@
spas@@
DES
Mov@@
Fas@@
Krak@@
slightest
recycl@@
Alban@@
.es
deviation
ford@@
onymous
Perry
odic
Rip@@
tomatic
phony
Valent@@
ylon
Fond@@
maple
migratory
Objective
28,@@
ane@@
Osaka
References
cass@@
indoors
Pod@@
Personalized
Bret@@
Fe
cill@@
ultra
tighten
mp3
kirchen
arial
1500@@
tended
ub
Market@@
VS
neigh@@
socio-@@
placements
scenic
upgraded
ATM
Rochelle
cant@@
Situ@@
twisted
Eco-@@
preval@@
Crazy
upholstered
pee
user-friendly
OFF@@
macy
Ost@@
upstairs
rum
oft
money@@
mucus
Syndrome
Melvin
Pointe-@@
blast
Roberts
Fruits
inhibit
WOMEN
facelift
Chic@@
Coil
-E@@
Coral
athlon
PY@@
aide
courtesy
pouring
2018-09-08
rocky
lem
offici@@
pathogenic
yler
Thickness
memorandum
oy
Sheets
Simul@@
aris
leyball
chez
Saving
Initiatives
cape
Energ@@
instr@@
81.@@
Adding
Excellency
OH
Torre
retrac@@
preferential
Highly
ECE
jewel
ONAL
antation
Schul@@
460
UI
andra
-and-@@
Publisher
Phones
fted
dries
Europe@@
N1
vier
congrat@@
Attention
NER
isen
Safe@@
Ez@@
2001-@@
Flying
SYSTEM
Petroleum
53.@@
summarized
188
Victory
aper@@
Requests
sob@@
Namur
ity.com
rol@@
issa
Coo@@
armrests
fiber@@
herb
Advice
denly
grooves
ishers
UT
MEN
cube
Tracking
esoph@@
fluorescent
Everyday
Hubert
Thunder
Mann@@
Judicial
silhouette
Including
Investigation
subscriber
Sweaters
upgrading
opping
hooks
Suspension
Mü@@
alternating
255
seau
aber@@
280@@
persist@@
bloo@@
adren@@
rella
Ring@@
ambia
Kub@@
gravel
Feminine
september
BRE@@
incid@@
Celebrities
ight-@@
adsor@@
ř@@
africa
Dijon
SEA
agh@@
rapporteur
Tah@@
festi@@
Municip@@
xia
dehydration
mortar
Andalusia
Grain
detox@@
jection
Managers
Carl@@
azole
bushes
Bulk
Algiers
emitting
Griff@@
este@@
groundwater
worm
choir
brief@@
ultrasonic
beats
estim@@
Capac@@
Lagos
Seminar
TP@@
ime
rug
IST@@
cutter
res.com
Vegetables
Navig@@
ogs
issi@@
spice
Accur@@
diagr@@
Motel
GL
Comics
eared
Slovak
icles
Gif@@
9.com
With@@
3A
Winter@@
compar@@
VIS@@
forehead
condo
154.@@
Recognition
Mist@@
Serving
Elisabeth
intraven@@
Ratings
Sections
Curtain
2.9
aromas
store.com
Input
31,@@
Contribution
Rim@@
Thermo@@
-M@@
Gibraltar
Joy@@
doba
bolts
Andreas
strand
Elastic
outi
Egg
S2
Basket
222
Closet
hostels
blows
adequ@@
Dynamics
finalized
Hospitality
cutaneous
Bow
École
step-by-step
urbanization
jar@@
fem@@
Dawn
rece@@
IMO
CFA
Moncton
Object
Juice
Wake-up
unused
slippers
exemptions
propag@@
receipts
nu
Alert
Rest
oidal
ribs
Blanca
Modern@@
scarce
PL
NP@@
RAN@@
2x
Charen@@
Find@@
SAN
Concerning
169
Plastics
CCP
Low-@@
visc@@
Planned
LEY
uneven
hi-@@
bps
Sens@@
fenced
habit@@
agli@@
udes
skip
TIONS
hibitions
Christophe
209.@@
excursion
etry
ratios
undue
Cargo
Jules
neighbour@@
wri@@
bei
submits
abad
succe@@
2018-09-27
entin
ed.com
noisy
PEUGEOT
Provided
Crescent
Rouen
Filip@@
Fren@@
KitchenAid
Disabilities
agle
Enti@@
ung@@
nica
attering
glued
Lightning
cab
Bucharest
ticular
bios@@
ooth@@
Charming
comforts
Fees
fing
Folk
LAR@@
Keith
moisturizing
october
Seine-@@
tates
NAFTA
96.@@
qi@@
og
Ander@@
suburbs
Cycl@@
Amazon@@
Webshop
Plac@@
arran@@
Restor@@
Inquiry
Facil@@
bol
revisions
sensing
enth@@
ño
CPA
Covers
leaks
decon@@
assess@@
63.@@
omer@@
Facial
elin
parsley
recor@@
inte
Madison
contr@@
CSS
ombies
Unic@@
Ethnic
Regi@@
rought
Bourgogne
sewage
Djib@@
10cm
Chlor@@
wears
com.@@
astery
peppers
V2
DRA@@
IJ@@
gn
161
Temperamental
Secre@@
TON@@
sprink@@
yb@@
Guarantee
LAS
EESC
cucumbers
crust
adop@@
Taj@@
cleanse
substitu@@
.com.au
chickens
americ@@
Rating
Signature
cade
Zak@@
Licens@@
w-@@
Chest
optionally
pillows
Americ@@
Accountability
Kay
27-@@
-00@@
Botswana
chinese
SUR@@
bud
002
prior@@
Helmet
MAX@@
pest
Tablets
gmbh
LEFT
ticle
FlixBus
gur@@
ence@@
satis@@
ilities
abel
2018-09-15
bake
Pup@@
fully-@@
ALE@@
attachments
Madeira
duo
0.7
bakery
Bach
avoc@@
polypropylene
Flav@@
SION
asus
disconnect
ifer
Fantastic
Jal@@
Lemon
HERE
perseverance
Ts
swell
numer@@
Levels
applic@@
encoding
DINKYBUY
✓
Hag@@
510
insp@@
illin
breeds
arab@@
Hose
ampa
Montgomery
sep@@
maid
Zamob
contour
2018-10-02
uter@@
shan
n.@@
orite
4A
GSM
MY@@
tempered
sket@@
weighted
mucosa
oso
XV
aeros@@
sectional
Consider@@
Asc@@
4-5
Savings
LY@@
daylight
clic
ter.com
Du
Beta
chop
refine
♪
incur@@
Lovely
tents
south@@
2014-0@@
velvet
Light@@
lus@@
ORE
ib
arius
vor
scen@@
thorn
316
Hé@@
Evans
whit@@
Connecticut
darker
2018-09-05
hail
Kinshasa
Values
tr
apor@@
SAT@@
70.@@
ffy
Flemish
dish@@
osaur
Flanders
Proposed
EW@@
present@@
Cardboard
Violet
Discussion
trade-@@
Mater@@
T3
sturdy
REPORT
sulfur
ów
peroxide
occ@@
Drum
Bankruptcy
`s
Accessible
didates
sat@@
pestic@@
Vera
COL@@
Pollution
gens
lub@@
Daddy
04.@@
Axis
focus@@
ube
ushi
packets
factu@@
refresh
UNF@@
nuances
EPO
nin@@
dt
Matt@@
brun@@
angi@@
ecy@@
Nozio
peeling
lars
M1
precursor
malignant
Sud
thyro@@
stabilization
Xavier
166
tiger
mats
completes
pollen
stan
Coins
Schw@@
differentiated
amines
Beno@@
LAC
rels
Rod@@
Aal@@
Speed@@
213.@@
thrust
clamp
dible
Angle
esters
Murphy
erta
Promotional
Modular
beek
BAL@@
breast@@
Fli@@
OUT
FIR@@
hairs
Functional
Ç@@
tization
front-@@
INK
sberg
Hitachi
Publication
Ted
Renov@@
Xperia
sorting
internships
polish
Madeleine
red-@@
95.@@
afr@@
119@@
Dortmund
Dome
Thre@@
Wells
soo@@
div@@
rika
Cuisine
weaving
Bulb
infect
Smi@@
chap@@
thes
297
Controls
2B
sofas
Workplace
isot@@
178
ivory
174
Miles
Asus
Fighting
ific@@
broadcasters
Turner
distortion
avier
legiti@@
Photos@@
butter@@
recycle
Director@@
atch
titu@@
TIME
Make@@
lett
lava
Generous
inscription
AQ@@
e.info
Subaru
Watt
Applic@@
MAG@@
Vau@@
Pablo
Zen
olan
Stats
Eau
north@@
forman@@
EH@@
THE@@
ede
entic@@
Gat@@
Andro@@
ollen
Cats
ghing
314
Design@@
a.
Romeo
assortment
tensive
lv@@
mated
Round@@
Esch@@
1800@@
UNEP
Seed
PUMP
PF
Cam
rus@@
motif
ople
hill@@
aceful
taire
filler
Bug@@
encia
DND
Ug@@
Saw
Labs
ys.com
robes
constituent
Saint-Ger@@
surgeons
push@@
Yang
Velvet
Jewellery
Noise
10mm
Ras@@
Simulator
Mounting
Murcia
3d@@
Co-operation
lazy
uri@@
Flam@@
duplicate
.com.apk
toes
281
ometry
Biom@@
guez
ks@@
employ@@
rists
4mm
rown
DN
μ@@
Attack
squeez@@
reliably
smells
23.236.62.147
opport@@
Piazza
incorporation
avenue
159
elabor@@
74.@@
este
Got
Strategies
Tay@@
Mother@@
SERVICES
Industri@@
Collins
184
toral
Beverages
ware@@
CY
Sur
Claim
Filters
indices
DU
DY@@
melted
Vé@@
poo@@
entious
ashi@@
aj
CRO@@
De-@@
KI
notebook
cia
sprinkle
Fall@@
Clara
customization
Mills
Determin@@
ance-@@
Quest
Protein
Pound
www.k@@
ench@@
Traveling
DRO@@
Bridal
316@@
Johanna
Soft@@
strug@@
chel@@
Shelf
try@@
mx
Mai
Bars
hierarch@@
limming
Competi@@
café
2020-02-@@
overs
Silva
Bart@@
Nie@@
edible
EME@@
Molecular
Gabon
32.dll
sensu@@
isy
ception
Shorts
Disk
Condition
Schol@@
Charlot@@
tribu@@
Nim@@
CSR
kol@@
yson
GN
sf@@
corrupted
duck
antibody
Vid@@
Lotus
Survival
Subsequently
Swimsuits
PAS@@
Steroid
Desjardins
hides
drawback
colds
Gilbert
Belle
dismissal
riad
registers
tet
HONDA
Dark@@
ancho@@
Scot@@
rechargeable
e-de-@@
inee
greeting
MG@@
AA@@
thres@@
Rhinestone
Dob@@
electrolyte
Glo@@
48.@@
BAT@@
interiors
squeeze
dim@@
Replace
60s
bandage
0s
Cov@@
atti
Prestige
abled
FIA
age.com
obligatory
zzle
commercialization
ël
alpha
stem@@
2009-@@
arks
marsh@@
hydrocarbons
Carnival
ten-@@
ghtness
PIN
Acqu@@
Sussex
barn
Easy@@
oblig@@
Heater
275
Supports
ré@@
1B
apol@@
BP@@
MV
Oriental
Cove
43mm
drums
prac@@
Blues
Lex@@
nano@@
hunter
berger
Allow@@
importers
Deut@@
BMO
dilute
isi@@
metadata
liness
Geo@@
Legislation
Consolid@@
gradient
DH
transitions
kim@@
loid
Pixel
selections
Yos@@
pulses
Imag@@
Determine
a-watches-@@
enton
discipl@@
incumbent
Arth@@
Baltimore
Kha@@
7.2
lotion
orthop@@
pend@@
4.6
veranda
Jacobs
berland
10-0@@
isers
Dennis
Mixer
Vec@@
Jans@@
Lily
VM@@
agri-@@
Claus
alth@@
sq.@@
Dick@@
Riding
lie@@
Associates
Kou@@
seams
ece
Zipper
Kö@@
lingu@@
christmas
Tai@@
saucepan
scrat@@
inspir@@
dryness
Bride
Eas@@
Lion@@
Yak@@
Drag@@
saturation
victor@@
phalia
Heroes
58.@@
loons
eno
101@@
Notre-@@
kindergarten
Biz@@
177
timetable
milling
ABLE
GER
Schneider
port.com
pense
look@@
skeleton
Programming
207
plumbing
preserv@@
SOCI@@
rek
Screen@@
220V
litre
Improv@@
Nos@@
Cheerful
elu@@
Ded@@
lux@@
LBM
Ant@@
warmly
Pot
ous-@@
gastronomy
85.@@
UST
castles
Ø@@
Italia
Arist@@
complemented
Gla@@
lysis
tili@@
Effec@@
nish
inclu@@
Manag@@
Lauren@@
irc@@
skiy
bang@@
V.@@
graphite
wag@@
800-@@
Ace
Santos
sx@@
Temp@@
Diane
es.org
chronological
ERE
cellulite
gro
Guy@@
syl@@
Harrison
Echo
TIN@@
Transit
176
ie.com
opho@@
LP@@
sap@@
acs
november
aldehyde
Camer@@
cust@@
SCO@@
bunk
ENCE
Frozen
renity
solid@@
WHAT
Pont
earth@@
atta
ng
tlement
CDs
Monroe
petro@@
federally
Fans
Recip@@
Ast@@
Rd
utri@@
191
AMA
µ@@
park@@
Edit@@
allergenic
rus
Guid@@
64-bit
avia
YE@@
2007-0@@
BD
Bio
zip@@
Xia@@
hoe
Pavilion
Boards
MENTS
Measure
Unlimited
guide@@
Computers
English-language
lamb
stap@@
VIEW
Jamie
rites
s.dll
Roberto
Crew
overload
ffiti
Struc@@
ossi@@
Sensors
nut@@
Inform@@
VR@@
latex
Destination
Closure
kar
wiches
Hous@@
curls
antiseptic
lified
Means
igs
Full-@@
eyebrows
GBP
Handbook
cb@@
Particularly
Listing
VIT@@
mushroom
dix
35-@@
Breast
Tig@@
istries
acchar@@
agro@@
meric
flavours
pur
solves
tare
Fau@@
12-0@@
chio
iques
poster@@
STU@@
4.8
umb
Removes
René
sweating
4.7
ecz@@
Français
VB
Eggs
Warehouse
vivid
Superintendent
Rugby
homepage
equip@@
254
jelly
itment
bidet
BER
condos
Bobby
1870
ibid
principally
CLU@@
Lenn@@
microscope
Gob@@
Pitts@@
ski@@
Consumption
coded
Apr@@
HARDLINES
network@@
tings
locom@@
Put@@
audited
Elena
SPORTS
PIP@@
ATED
huh
Belfast
Supplementary
256
fus@@
characterize
power-@@
ider@@
oses
soaked
Coul@@
Counter@@
KU@@
emulsion
TELUS
brew
ayan
Health@@
optics
Skirts
Josh
Them@@
prun@@
Purity
Draw
EZ
Sense
sor
omy
skirts
Châte@@
oper
web.com
ako
kop@@
Kl@@
2C
pe-@@
tightening
embroidered
sau
FN@@
Checkout
D2
ARE@@
1x
iscal
sulfate
NET@@
greenery
permitting
spider
Lut@@
blue-@@
Polyn@@
arom@@
laminated
160.@@
effected
add-@@
nicely
Arkansas
specifying
resp@@
workload
Selected
380@@
Ribbon
Foster
Essex
calend@@
Calais
Intertruck
jars
congratulations
fetal
Amber
2019-05-06
echo
196
BUR@@
Ü@@
Survi@@
dong
Angelo
Jul
Styl@@
Atmosphere
horizontally
overl@@
Menkarta
atine
HKTDC
wald
Coch@@
EI@@
Sundays
305
avik
Schwar@@
polling
Log
Accord
vines
preparedness
versatility
recomm@@
Drum@@
b.
200.@@
Combine
mitted
biking
Keys
demon@@
Lear@@
VGA
Rare
garde
32,@@
erotic
BOR@@
NC@@
Kad@@
cussion
beau@@
Salzburg
irregularities
420@@
ista
Deer
awning
Chen@@
upwards
Welfare
amshire
.l@@
DAR@@
rationale
Character
paddle
cq@@
load@@
CTION
108.@@
resis
TIC
zj@@
liers
Kyrgyzstan
Moon@@
facilit@@
vern
Acklands-Grainger
Cyr@@
Three-@@
8x@@
growers
S3
YORK
inhalation
cross-section
Aqua
5V
Actu@@
Royalty
pum@@
Kati@@
verages
Skirt
Alt@@
2018-09-25
tuna
elbow
Felix
childcare
2-
189
aste
-12@@
essibility
Côte-@@
Hunt
twood
xn--@@
ramp
Lucia
uy@@
gradu@@
41.@@
mezzanine
Got@@
erroneous
wear@@
ATS
217.@@
CIDA
manif@@
Maastricht
Nikol@@
ha-@@
MER
Sushi
181
uary
Educ@@
sharp@@
just@@
tann@@
vie@@
rupture
Provence-Alpes-Côte
String
decryp@@
Appo@@
Byr@@
esa
720@@
stration
evaporation
Advertis@@
feathers
klift
round-trip
year-round
Charle@@
teful
HOUSE
89.@@
cs@@
quil@@
BM
pursu@@
720
sheim
shu@@
Kem@@
cry@@
CON
FIAT
Trinidad
Polar@@
Conseil
kindly
eving
Washer
NING
understand@@
progn@@
Sop@@
manifests
Combat
Forming
thermometer
Won
Score
clamping
unning
dm@@
hospit@@
fade
icular
modulation
Indicators
Rebec@@
Lawn
ethylene
79.@@
Kot@@
air-conditioning
pressur@@
Mog@@
CIS
Continuous
meats
Glen
ffe
sedi@@
auto-@@
symmetrical
Grou@@
Passenger
trouser
Alta
uled
emit
enium
V6
SES
Siberian
S1
curren@@
contraindicated
ées
Baden-@@
Collect
gc@@
M3
Jim@@
tai
eyelashes
foodstuffs
coo@@
MAS@@
Guangzhou
Emb@@
plugs
Minibus
importation
té
illas
5m
Patricia
proof@@
Blog@@
ducts
oppos@@
Senators
lamp@@
Scan@@
Propos@@
CHAN@@
Tent
print@@
Trees
Collar
ornam@@
SHI@@
Chrysler
CX@@
CPP
contain@@
WP
45-@@
Thierry
Gasp@@
Cole
Wend@@
Sep
ATES
Nam
dew
BIL@@
airing
rezulteo
rubbing
glow
5-10
esc@@
Rhodes
AY@@
www.b@@
beta-@@
traven@@
pivot
Smile
Malay@@
png
Shuttle
Hain@@
union@@
Elsewhere
Campo
Agents
GF@@
1x@@
Component
absorbs
Say@@
See@@
ICH
Soc@@
transmitters
Francophonie
199
gros@@
Actors
BIZ
entitlement
Angers
Answ@@
Switches
gest
CLI@@
Leic@@
Newcastle
gler
ern
Thomson
1300
ø
compress
Civic
intoler@@
MH
Guess
March@@
2018-09-28
Chambers
Watch@@
stiffness
183
Spending
74.208.236.@@
ND@@
ta.com
infin@@
221
dermatitis
Highlights
strokes
gap@@
tana
ynx
BAR
AEG
roofs
RON
TOYOTA
fin
Miss@@
smil@@
spoil
Stap@@
V8
Zer@@
mets
menstruation
cafe@@
bitch
compreh@@
kw
marina
485
Bruges
Rat@@
2018-09-06
façade
MAC@@
respec@@
Cup@@
endi
dizziness
i.dll
MSI
Yv@@
studi@@
Smartphone
tuned
amorph@@
immunization
Pcs
estimation
cartilage
labor@@
Vegetarian
Flip
MID@@
Clerk
convertible
Bull@@
sparkling
coupon
aeronau@@
Fridge
diode
Dior
Paraguay
daytime
wardrobes
Ward
IB
en-suite
urb@@
coronavirus
ulus
Rope
resins
uel
soy@@
194
Wellington
Personnel
Sty@@
bundle
Calvin
aint
yo@@
avoids
detects
Bass@@
brew@@
Marin@@
Symb@@
shaf@@
flakes
kor@@
selec@@
degradable
week@@
ht
itness
Inver@@
Existing
lime@@
doc
ND
Opport@@
Tremblay
Buy@@
Easily
english
girl@@
Construc@@
bracelets
11-0@@
yi
Looks
Fujitsu
Poli@@
knot
Mason
Playground
abrasion
Vik@@
point@@
Haiti@@
Roses
Infec@@
plastic@@
bois
Treat
Pepper
Outlet
401
Cave
BRI@@
luded
Termin@@
dign@@
ente@@
Fredericton
Wheel@@
Fly@@
Serge
lav
miner@@
Lef@@
ones@@
ansk
bration
Frigidaire
ige
Kawasaki
Mumbai
banners
7.
AJ@@
rons
lla
Fi
A5
headset
Recipes
Whis@@
660
gog@@
encryp@@
ás
brit@@
tak@@
reminiscent
res-@@
Dic@@
Jew@@
Eurostat
klaces
Ships
concise
oxides
inher@@
suitcase
CUS@@
Clarke
a.net
tine
resul@@
free@@
5.4
RV
Braking
lag
Kenwood
Newsp@@
quets
Configuration
Combo
Lombardy
Wyn@@
apprais@@
Rechargeable
absor@@
propagation
stamps
Chip
trand
plywood
gyp@@
Operator
Priorities
ö
Reyn@@
Explo@@
mart
services.com
classic@@
fragment
15-20
comfor@@
rainbow
LOW
Comuna
Garmin
bronchitis
Fur
canton
icy
OP
Tip@@
Lü@@
guer@@
overhead
Guillaume
toxic@@
ITI@@
3x@@
Mate
tivated
moon@@
EMA
Med
Clay
vag@@
STA
pastel
Xerox
decre@@
CALIDA
vis-à-vis
Appeals
ailments
spherical
610
3.com
creek
Environ@@
Jungle
lt@@
acquires
pick-up
Wan@@
Chlo@@
mailbox
Corp
Rent@@
Grid
999
Constant
Za@@
tuning
M.-@@
elab@@
Landing
Peak
cracking
Hollow
Fresh@@
sheath
FAC@@
Coron@@
Check@@
dolls
asph@@
THO@@
corpor@@
styrene
fx@@
Marqu@@
locality
juicy
Fig
eron
Jorge
foliage
eus
Animation
hinge
Supplement
Connecting
Hul@@
resol@@
anish
200-@@
wers
idly
Thin
Minigolf
shad@@
emaker
Stic@@
Jean-Pierre
propylene
William@@
even@@
20-minute
Vim@@
TAN@@
Zadar
ZTE
209
Bum@@
Lauren
cheque
xj@@
Preliminary
insectic@@
530
-out
siding
Rabbit
Solo
Powered
Renewal
gowns
pantry
pouch
87.@@
sist@@
roman@@
Corporations
sketch
ILE@@
ce.com
Visitor
Load
Sailing
thms
Cry@@
Sandy
anza
Saskatoon
consu@@
Horizontal
chamomile
5-6
kom@@
adapts
Unions
167
deserted
Perf@@
runway
bé@@
diaphragm
1400
Include
Esc@@
jk@@
oil-@@
RPG
igny
crum@@
hara
venti@@
élé@@
titude
Brief
ieu
Wild@@
inox
cobal@@
odiversity
dre
calf
ELECT@@
Ernest
Way@@
Rous@@
ultr@@
Gom@@
Holidays
airs
Amendments
Seafood
Initi@@
um.com
Tool@@
consequ@@
pus
art.com
Dess@@
grind
mania
awe@@
renti@@
Ultrasonic
Matte
land-@@
ning@@
oved
Resorts
Biovalley
tl
Banner
substanti@@
Trus@@
exhib@@
Moham@@
Krist@@
Annie
Simulation
NT@@
punch
Legacy
Nouveau
opaque
faceted
Repe@@
pens-@@
Direction
88.com
son-@@
pub
cyclo@@
raine
igan
ographs
Objectives
Siena
67.@@
-G@@
Bear@@
ICLE
jewel@@
AIN
Qui@@
Var
Coupe
SERIES
riers
locker
ership
adjoining
yl-@@
Spot@@
LR
Na
facil@@
smith
rugged
Advance
walnut
threaded
enco
-19
Died
hol
Hanover
glove
shi
osclerosis
contrasting
Coconut
Shap@@
harmonic
Isabelle
242
atis
zu
There@@
Denti@@
Cooler
Pau@@
uil
Fr
uries
phthal@@
cucumber
face@@
oprene
forum@@
shrimp
Papua
cation
inverter
waterfall
sette
otropic
stirred
Volatile
EG
umen
Phy@@
installer
1896
R1
Bottles
odynamic
dunes
BW@@
PV
onable
rors
Hanging
congenital
Libr@@
unks
Cree
uli
5A
Elimin@@
pation
tions.com
bug@@
rique
GX@@
Bever@@
On-@@
shoo@@
Cruc@@
Vermont
Dairy
310@@
Access@@
Freezer
solu@@
Ljubljana
exten@@
cavities
pert
stag@@
design.com
Traff@@
ribbons
partitions
lem@@
elia
W.@@
elongated
5.6
Millenium
oten@@
Haier
Error
Fix
Equal
Aar@@
159.@@
Anth@@
wen
user-@@
sunrise
Limoges
rences
Stretch
for-@@
abrasive
powders
Craw@@
strawberry
Here@@
getaway
bek
DCs
teas
Updates
Chiang
216
Hak@@
Hp
Enhanced
112@@
Milton
structuring
Inventory
g.
ulcer
osph@@
enson
2006-0@@
landscaped
CIC
Transc@@
conductors
syner@@
Landmarks
WG
Charm
CTA
Ceremony
aik@@
Haut@@
trolley
Franz
embodi@@
pastry
Saxony
solids
Productions
chain@@
Stabil@@
2019-05-04
ope
ophone
alla
ACO@@
Flood
chur@@
decoction
Cross-@@
cliff
Helmets
Entre@@
deleting
franc
365@@
azur
Leeds
Slide
ivers
Thur@@
awi
501
Networking
yog@@
T4
hemat@@
Sodium
uterine
Ã
Short-@@
CRC
tainment
Starter
ARC
sulphur
Duncan
hemorrh@@
65.@@
imo
WAT@@
customizable
71.@@
Ste
House@@
Mend@@
buy@@
Staffordshire
Sheffield
Sophia
binder
Rehabilitation
acio
Lach@@
Zip
unsaturated
Flooring
shiel@@
Encyclo@@
Mix@@
Stud@@
approxim@@
sunflower
0.00@@
hey
Venues
173
Tray
stain@@
urely
Biarritz
strada
6.0
Album
Pyramid
CHO@@
Laz@@
Harmony
iden@@
Skatepark
pou@@
polys@@
43.@@
flam@@
initis
ITION
newborns
Pier
thicker
390
Kau@@
typo@@
Novelty
youn@@
well-equipped
Brembo
grinder
hydrogen@@
34,@@
revis@@
quis@@
Wake
oblast
drop-down
mud@@
Garcia
fusions
introduc@@
gent@@
violet
cockpit
proce@@
Pedi@@
Ear
synonym
Conditioner
delic@@
1080@@
Inspir@@
ebr@@
Dorset
panorama
Helps
GREEN
gla@@
american
Pa
Calle
Radio-@@
145.@@
SG
Weber
BG
Handmade
Stones
Nude
Salmon
Chic
ilight
Recruitment
Quartet
Havre
ISH
condominium
pover@@
Appl@@
nude
94.@@
sterone
gne
Yok@@
Infinity
Wed@@
Drop@@
ège
Pins
instant@@
ongs
defin@@
seater
Accoun@@
CG
Haven
Statements
Yang@@
Volun@@
finder
Jura
GENER@@
Fashionable
ol-@@
✔
Hats
Fay@@
Mug
rooftop
Marino
mini@@
Nab@@
Corp.
oga
HO
notic@@
lb
Appropri@@
appell@@
Lol@@
estive
moist
Designers
category-@@
Orig@@
Barn@@
Mod
Humor
avy
ODA
Pf@@
agram
habil@@
DLL
Ela@@
Zürich
owl
YES
furthermore
vio
cd
ephal@@
tertiary
42.@@
Foldable
antum
anni
Tracker
partite
pro.com
isher
RSS
Cord
Sandra
ocial
Azure
Nearest
skate@@
pid@@
Petr@@
251
Organizer
edoms
Marguer@@
mec@@
traum@@
0.9
308
in-room
Sheng
Examination
tian@@
Cus@@
LTE
pigments
salted
Ern@@
Luk@@
Auckland
Scooter
share@@
solidi@@
Aix-en-Provence
striped
Frequently
caf@@
Jo
Notre-Dam@@
jewels
Mini-@@
drop@@
Longueuil
Doc
pinch
325
dyes
Loop
BON@@
Infrared
tra-@@
Rectangle
qq@@
eves
conduit
Employer
gentle@@
Dried
Prov@@
Shin@@
EK
3.9
gluc@@
coils
Brick
2018-09-10
alpine
104@@
Pyre@@
beaut@@
Muse@@
Franc
Eddie
olives
descriptive
187
Kenne@@
infinity
exerted
193
barley
640
Cog@@
amor@@
Tes@@
litter
Bradley
Heil@@
detail@@
COU@@
ucle@@
Alpes
Si
Inspector
Perfume
synchronization
Assess@@
skel@@
corrid@@
cow@@
244
363
IPC
crushing
amin
Marsh@@
213
molded
nest@@
MAL@@
go.com
cathe@@
Moistur@@
Textiles
appar@@
kie
Jour@@
Oxygen
MED@@
CHRIST@@
214
Feed@@
Injec@@
localization
375
303
TIN
eti
bore@@
ando
Gemeente
RAL
Hotpoint
UNG
aesthe@@
Till@@
trailers
CSV
ont-@@
Kav@@
encapsul@@
Capitale
FRA@@
BUS@@
hing@@
Expendit@@
Taupe
etro@@
harass@@
NB@@
DIO
Beg@@
Criteria
Guesthouse
DHL
Cardiff
det
Appellant
andin@@
Idaho
Taipei
Dau@@
asphalt
Bent@@
RG@@
A6
Cutter
NI
jk
Dubrovnik
Norton
Underground
Optic
thermostat
specimen
ophthal@@
exaggerate
nb@@
Transi@@
260@@
Submission
SUN@@
drained
Rhy@@
clip@@
sence
compass
Antenna
B6
brated
condensation
paired
Rimini
ancement
Colle@@
Alamy
anova
Surve@@
Waters
thous@@
710
Span@@
assu@@
alog@@
farmhouse
OU@@
addle
Maritimes
lite
Matrix
Vag@@
esium
hob
Helena
consen@@
265
cn
pim@@
Pencil
sticky
xim@@
ammable
bane
bonded
Furnished
Revised
Bub@@
diver
Fireplace
antennas
Allerg@@
Exhibit
les-Bains
sg@@
analogue
sched@@
cots
revers@@
map@@
antom
Los@@
Nederland
2018-09-30
jpg
Wonder@@
aining
quiries
vets
diffuser
Delaware
Pig
Terra
emi
Ruby
carrot
then@@
pension@@
ZZ@@
pharmacists
Sug@@
gloss
fox
TBS
lyn@@
hep@@
león
238
ivan
éal
Started
urs@@
tality
prejud@@
LOS
Tail@@
notch
ingle
categorized
BEST
Wri@@
Router
Slow
lown
ong.com
fins
iso
canned
Ash
iche
Edgar
galows
mie
vr@@
2018-09-24
Cun@@
CCD
verage
wardly
Boost
Loading
Privy
Triangle
50mm
Mickey
ONLY
Shooting
inges
Consultant
No.@@
alan@@
-ups
Cruises
INAC
transmits
Mack@@
downlo@@
cra
scap@@
md@@
DK@@
amar
Flame
ASTM
FTP
K.@@
2018-10-26
Boul@@
GIE
outfits
124.@@
disks
Butler
188.@@
Immobil@@
consolid@@
crochet
unic@@
Lux
MORE
placeable
Grow
bloss@@
Icel@@
Scope
pros
C3
Citro@@
rigidity
Buckle
oise
Anne@@
AQU@@
Kod@@
Sloven@@
wyer
Pho@@
rabbits
Coal
atsu
clerosis
booklet
Percentage
rano
2018-09-09
Graph@@
gaseous
fonts
Joseph@@
fall@@
wholesalers
macro
Perugia
solarium
Thunder@@
groom
walk@@
Labels
elty
rolment
6.com
news.com
lop
sten
Praia
44mm
Designs
Superb
allegation
furt
lio
GC@@
Coloring
Seating
aa@@
eroy
Camille
Cleans@@
grated
syringe
186
Nin@@
occupancy
Hig@@
Waist
effor@@
Ivan@@
burgundy
ounder
herpes
Follow@@
formulations
Alfa
PG@@
306
Iron@@
multiple@@
streamlined
Au
mont-@@
Compos@@
cling
fragrant
Rati@@
Gius@@
Rov@@
ORT
lm
Vesira.com
aloe
oia
sha
Sched@@
KER
appeti@@
Brook@@
tized
ma.com
SX@@
347
gov.@@
etric
FC@@
ocular
Sochi
xx
uki
stopovers
handel
almond
Carre@@
club.com
flip
Yar@@
Turning
rik@@
coarse
DVDs
develop@@
eco-friendly
Slo@@
SAC@@
Aerial
enlarge
deliver@@
dc@@
Deck
540
silic@@
valid@@
Gast@@
orca
withdraw@@
Villeneu@@
Bee
www.j@@
bush@@
lagoon
vodka
JA
ophil@@
proble@@
Knitting
necess@@
hygienic
reno@@
Sudbury
ces@@
Scanner
Tie
Gér@@
ot.com
106@@
Tag@@
ensburg
Kri@@
carte
Coup@@
hydrox@@
Proxim@@
Jou@@
assembling
mod
kos@@
chet
Controlled
controll@@
SRL
aph
ionally
small-@@
WAY
Spin@@
-0.@@
modem
mell@@
erful
ū@@
Parliam@@
ecting
garments
orient
stup@@
til
distillation
Departments
restor@@
circumference
mail.com
flex
än@@
cyan@@
Aless@@
APKPure
Approval
torch
playback
Thom@@
allevi@@
sightseeing
practising
disper@@
unloading
WAL@@
aths
fabrication
2020-05-@@
Jeanne
Sliding
Wet
Sham@@
Peel
itches
DUC@@
Reduc@@
wave@@
extrusion
AMD
51.@@
u.@@
esn
ighs
P2@@
620
umping
filament
above-@@
acea
Forward
Breit@@
Rs
224.@@
gd@@
Mackenzie
Chip@@
DAN@@
oom
Abbot@@
hktdc.com
Alberto
Lexus
Outer
ogging
coccus
nac@@
ot-@@
254.@@
chop@@
Typical
distill@@
stuffed
Micros@@
Coastal
apo@@
tincture
Perform
Intermediate
rina
Multicolor
Eugene
Embroidery
appo@@
RN@@
Yun@@
PET@@
cp@@
preser@@
AUTO@@
hydrocarbon
porridge
AVI
babys@@
FIL@@
dor
glass@@
enci@@
Marion
33,@@
█
Dam
umpet
Recreation
Trieste
Contains
P2
Nev@@
Vos@@
cester
cover@@
hydroxy@@
Needle
s-watches-@@
Kron@@
ST-@@
Libro
Toledo
IPO
Qing@@
Thy@@
simulated
Mün@@
Swing
bye
screwed
Etienne
Script
Koh
2-4
asy@@
107@@
elas@@
Maxi
218
Dos@@
peptides
weave
meaning@@
Carri@@
Laboratories
padd@@
RIC
IDRC
Rafael
arterial
abo
yster
cath@@
iosis
2005-0@@
Baden-württemberg
Incorpor@@
MON
compost
234
Zir@@
aft
147.@@
aple
cleaners
aperture
surve@@
VAR@@
chip@@
León
dielectric
.tv
French-@@
epi@@
contemplated
Uninstall
promoter
Savoie
UX
BOU@@
Detection
1-
desserts
appen@@
tying
codile
ellular
mony
TF
000.00
slau@@
0.01
coa
Edu@@
catalytic
edings
Yacht
LC@@
Maf@@
Completely
Stef@@
ETS
refrigeration
truder
Spar@@
IDS
Fix@@
Pau
3C
geting
fruity
pop-up
situ
toc@@
Pens
Yas@@
Detector
tapes
clocks
disinfec@@
MTS
sortium
Stella
Johann
forti@@
Balearic
Glu@@
252
ose@@
amber
Extended
Il
Sizes
owy
Insulation
wonder@@
Wrap
sau@@
AMA@@
YS@@
av
afa
tral
thermoplastic
ambo@@
hz@@
03.@@
notif@@
Emerson
der.com
Browser
MINI@@
adverts
isson
CIP@@
Salamanca
Toil@@
VM
0.05
C4@@
179
INI
Thessaloniki
Louis@@
html
Bungalow
462
Candle
Chate@@
RR@@
Stickers
Kand@@
embro@@
PRODUC@@
Well-@@
Aquarium
Notebook
ya@@
Butter
knots
ticks
Caps
Mich@@
Hôtel
ana@@
Ade@@
elast@@
Lifestyle
buzz@@
mol
lang
Detached
sag@@
Sis@@
№
Shannon
eto@@
uga
Sno@@
venous
itionally
france
Porcelain
Luna
curvature
ley-@@
orifice
Es
décor
media.com
asian
conferen@@
Lithium
Exper@@
kHz
50s
Couple
Puebl@@
ensees
WR@@
Kick@@
Ft
CUR@@
Wen@@
TIC@@
Brandon
printable
epoxy
Conc@@
Generic
m.@@
vectors
BIO@@
Sleeveless
atly
Toe
2018-09-29
Tog@@
Brest
Boot
-D@@
intment
Plug@@
phis
surcharge
1.6@@
vapor@@
Horm@@
engl@@
sionism
olone
tful
pastries
Gav@@
ière
Transfers
fig
Stove
tangle
JP@@
ove@@
Panda
LL
dry@@
cock@@
ccoli
Canada.ca
lubricant
Stéphane
wales
Andre
HT
ERA
Toulon
ºC
Drawings
Sensitive
Mathieu
Gap
sibilities
5-7
Kro@@
Allows
Monkey
gymnastics
gua
Sieg@@
Sort
Coupons
pp
Table@@
SOS
Guang@@
jas
Santorini
armac@@
S8
multi
manganese
HK
OTHER
ier.ch
cio
Surrounded
lation
ricate
Celebrity
FLA@@
Ciudad
firstly
kitchenware
Scen@@
Poul@@
Pregn@@
hull
attan
Se
crystalli@@
assy
bu
blankets
Frag@@
banknotes
minton
.co.jp
Controll@@
soften
Bois@@
assis
inclination
zan@@
Closing
d.
sterilization
CONNEC@@
Pandora
Orch@@
Grass
195@@
harmonization
spinach
Cabo
Dry@@
Soil
1700
appropriations
normalize
absorber
Aber@@
PN
essen
matte
Sit@@
Hi-@@
very@@
ii@@
Expansion
cosy
linkages
encils
2-1
resourc@@
Sculpture
Riga
attro
INGS
Rever@@
kat@@
uter
ess-@@
roix
Doll
217
AMP
Ami@@
Ave@@
tona
douard
Counter
DD@@
Promo
Spac@@
substrates
enoid
alex@@
ddler
unciation
ffles
ventilated
Brandenburg
gastritis
zir@@
Diagn@@
Stop@@
inea
all.com
terior
ANO
Editus.lu
hinari
Recorder
Trip@@
404
Required
S.A.
HAN@@
egg@@
Hansen
Tropez
gered
Dud@@
norkeling
alkyl
7000
Sylv@@
Stylish
Mig@@
ross
lead-time
Painted
sec
ODM
where@@
IP65
Anton
feather
Mile
80.@@
NAM@@
inert
SERVICE
Yarn
oleum
Pey@@
inc.com
20mm
CONT@@
www.n@@
Ira@@
inser@@
permeability
224
Spark@@
Quil@@
cierge
Nashville
55.@@
aluronic
www.m@@
blanc
aun@@
Ano@@
kö@@
241
mA
JBL
Seasonal
bust
turkey
Silent
adhes@@
Pub
lington
Refer
ş
châ@@
Elephant
ocyan@@
ointments
Southampton
Chop@@
weeds
SARL
FD@@
REAR
SKU
umber
Philipp@@
Magnet
Dancing
Armor
ac-@@
01-@@
BLO@@
susp@@
track@@
apric@@
epidermis
Votes
NRCan
8000
itters
pregn@@
https
2018-09-16
ammonium
Alle@@
ieux
tbsp@@
fib@@
stead
Sunny
36,@@
Boasting
wes@@
avit
bedside
Burgos
ats@@
damp@@
Eindhoven
CED
epis@@
requis@@
manure
ARCHIVED
asters
lightness
630
widget
allo@@
sung
Antibodies
jamas
coffe@@
Lus@@
Jean@@
follow@@
Mama
Relay
camel
ENTS
aia
ío
creamy
help@@
Patch
Mm
pie@@
es.net
mak@@
Bench
Thé@@
Alma
bowls
moist@@
Rut@@
Ironing
Colours
Shark
Jay@@
Lour@@
413
smart@@
corrugated
subtitles
Curtis
Diplomas
vd
Fox@@
handbag
INO@@
calor@@
YA
iga
turbo@@
Cottages
Presented
migr@@
yak@@
ustin
Covered
edonia
Box@@
Friedrich
WS@@
evaporated
vn
315
unas
470
Derived
ried
amic
lith@@
invol@@
Ate@@
Batteries
æ@@
mathem@@
P1
Supermarket
Nina
spaced
overflow
188@@
Apk@@
aville
KY@@
chwork
accents
Indicator
interconnection
6000@@
orr@@
r-@@
exer@@
Expres@@
Firm
decor@@
kini
uch@@
06.@@
Grammatically
net.com
km@@
Rose-@@
Functions
Frédé@@
ventr@@
postp@@
oodle
intoxication
ebra
Spectrum
suit@@
spect
TEL@@
MacBook
ims
Hendrik
fastened
Surgical
fuse
cord@@
ès-@@
abo@@
panc@@
cod
Auction
baskets
Knitted
iw@@
STEEL
oka
Univers@@
Skiing
otto
Auvergne
Vod@@
EBC
Carry
Addi@@
fortun@@
brushed
Francesco
orites
Lid@@
Suit
Cere@@
Gü@@
186.@@
stre
Ted@@
.cz
London-@@
9.5
aeological
Li-@@
SON@@
VERY
self-catering
isters
172.@@
Nip@@
Vu@@
Mall@@
Pull
Artem@@
3-
cones
U.S.A.
178.@@
sit@@
Drill
multiv@@
Philip@@
immuno@@
cuits
der-@@
Cen@@
Geometric
Ler@@
Tier
pancakes
CAM
jx@@
Smar@@
remark@@
complimentary
Sut@@
Restore
amen@@
tivation
muscul@@
hp@@
stabilized
Jul@@
Girona
illet
MN@@
Plas@@
mov@@
contours
click@@
vases
pear
Å@@
Blu-@@
Ame@@
Prints
Inser@@
Sink
SUPP@@
44.@@
yah
Essen
Cups
Figh@@
ready-made
bli@@
lipid
Provence-alpes-côte
vivo
anto
perenn@@
Engines
quez
Drying
Rita
urious
Requi@@
1pc
WORK
fractions
Prad@@
Quartier
diam@@
AMG
burg-@@
trail@@
gee
Jap@@
perforated
spectral
Parma
WORDS
AdForum
Root
intrac@@
C4
Annecy
Acoustic
prise
BLA@@
Requ@@
Apk
icia
entioned
Recording
softness
lipstick
ANS
Explos@@
AFR@@
Valle
bead
5000@@
Spread
Cigaret@@
upholstery
NAS
SCR
Streng@@
Rush
MANUAL
foldable
Know@@
Combination
TB@@
cyclist
www.d@@
Mex@@
Taste
10.1
IDE@@
lacquer
etings
Kore@@
ulty
Magnificent
TECHNOLO@@
Tart@@
cara
gau@@
uments
butt@@
Ocean@@
Roche
gear@@
Gim@@
IDA
PLE@@
seal@@
eased
ignon
peeled
refu@@
ETH
lbs
Sidi
coon
heaters
NISSAN
VOL@@
hemoglobin
sweat@@
Rin@@
Hypo@@
conti@@
sion-@@
Caen
music@@
Mindful
MP4
Ambro@@
rebate
Gis@@
ITAL@@
VEL
pv@@
zie
Fence
Herm@@
Trendy
pneum@@
Rasp@@
Manor
Dar
Column
umont
Wheat
seam
urus
108@@
Tripp
separator
dang@@
PART
Mati@@
EPS
stronomic
conical
Scienti@@
ipers
Glue
Gron@@
COMPRESSORS
larvae
396
igrants
tx@@
WO
sax@@
LOT
Vitamins
multi-channel
45mm
eca
Schwe@@
Funeral
4-star
EK@@
Pasta
dresser
gov@@
DOOR
ambo
35,@@
Jérôme
schem@@
proper@@
cium
Eil@@
actus
Kend@@
Rivi@@
SP-@@
adium
shell@@
HB
APC
atra@@
ouflage
Cock@@
Lorenzo
197
HOTEL
gry
pineapple
Catania
atoes
ucalyptus
emor@@
absc@@
reusable
particulate
aoke
metall@@
LR@@
Eug@@
Colored
phr@@
ien@@
Condos
nd@@
Social@@
ornaments
Christina
Leaves
Paolo
predec@@
aret
multicol@@
Real-@@
12mm
headlights
pancre@@
Cô@@
pallets
4x2
palms
refr@@
Mary@@
Lithu@@
conduc@@
Bridesmaid
benches
inars
Epo@@
Cedar
acetic
Hed@@
Harm@@
..@@
avail@@
Alpes-@@
ASSI@@
indle
onomic
Tone
CAP@@
opener
Duo
liquor
safe@@
Lep@@
ourites
Aren@@
Alcohol@@
Fittings
Inspec@@
Variety
Ced@@
polarization
azzo
ARS
Luxemb@@
LX@@
S.R.L
Javier
Bergen
hemian
apy
sockets
hairstyles
Mississauga
bble
Loft
DRE@@
Mega
SEAT
combin@@
flashing
Flats
tration
vous
journal@@
560
Supplements
pery
programmable
Astronom@@
sludge
IX@@
textured
Competitive
Yugosla@@
Func@@
236
pla@@
sediment
Nord-Pas-de-Calais
ps.com
Chamb@@
Lego
Sapphire
bault
Bergamo
Sweater
Chu@@
white-@@
recess
movi@@
birch
Mold
05.@@
pra
münchner
Releases
autostoff
reachable
Relax@@
perfor@@
Jewels
Oils
gels
table@@
00am
T5
Dag@@
GAL@@
ethyl@@
Lac-@@
polymerization
sage
TRE
un.com
480@@
bill@@
Esper@@
403
RR
Mate@@
questionn@@
Charleroi
yellow@@
mayonnaise
Swimwear
ad-@@
197.@@
shrubs
spacing
world.com
ire-@@
appe@@
Flan@@
Bod@@
insufficiency
Chall@@
wooded
Tote
Gill@@
solute
anca
Perpignan
a.com.@@
Miner@@
vious
transistors
shaded
thel@@
Observ@@
glycol
ELECTRIC
Eaton
icacy
Hampton
Stops
iao
hand-painted
DL
t.dll
append@@
plen@@
Impressionism
vais
campsites
Garonne
Troubleshooting
rescence
Trac@@
lotus
Slippers
34-@@
Hop
gra
eder@@
changer
yu
.edu
jor@@
lac
gauze
solub@@
mattresses
uan
Apart@@
jet@@
DOM
én
trap@@
sleek
Styles
Bibli@@
IAN
palate
Dj
RB
Projector
doctor@@
GY@@
AZ
Osc@@
DVD-@@
hydroxide
usk
s-
Nob@@
restrial
Ontari@@
VILLE
FUN@@
ı
diuretic
Hin@@
2M
peach
referen@@
bras@@
Advantage
Ferrand
500-1000
Hammer
webs
oscopic
Faucet
02.@@
Swan
Adaptive
nourishing
selectively
Wheelchair
cas
Ride@@
Ultra-@@
Myr@@
ousine
electroly@@
wrapping
ionic
aid@@
mitting
Melissa
Stable
Towel
fc@@
inspec@@
Min
company@@
Kne@@
75.@@
Fabrics
CR-@@
LIN
A3@@
tilt
Telec@@
Blind
Dul@@
lings
purulent
Montérégie
Designated
Davi@@
chromium
zel@@
baz@@
Shot
Aberdeen
ulia
Carton
nj@@
mé@@
Isabel
aneous
68.@@
motifs
Thorn@@
lle
gastro@@
suppl@@
promenade
Are@@
exper@@
ENERGY
4D
Kg
fru@@
rela@@
MK
Dolce
Jade
teur@@
Drinks
250-500
EPP
ody@@
meadow
226
Sync
bach@@
SX
Ses@@
36-@@
Alten@@
Ä@@
Mainly
Ginger
tti
exfoli@@
2018-10-01
ske@@
REGUL@@
Hand-@@
�
Casting
Europ@@
ients
roasted
cutlery
Heated
syste@@
GHT@@
buttocks
Pulse
delim@@
equipments
Trois-Rivi@@
Fertili@@
Promotions
cop
shav@@
freez@@
sq
chev@@
PUR@@
gents
Amer@@
polo
chal
warmest
243
Picardie
distilled
0000@@
Hong@@
Township
zil@@
anode
zac
402
xt
Duck
varicose
REFURBISHED
Shaped
hay
iliary
Massi@@
Notices
Calabria
oura
Perth
sley
irus
Duvet
absorbent
cheeses
Mush@@
libr@@
onyms
Lid
Vegan
Benef@@
probes
Glitter
cathode
nitro@@
soft@@
sbach
Ferry
Chronograph
WI@@
aq@@
ng@@
-V@@
Carpet
Texture
Align@@
Impres@@
184.@@
Compressor
Sedan
umbo
Nuts
Exerc@@
Wonderful
Pv@@
arez
tronic
S.C.
Alibab@@
ilst
PAL@@
cer
erra
seiko-@@
Ti
FD
Sovi@@
ISSION
ical@@
Nickel
Sewing
Pro-@@
Plush
Practi@@
triangular
rib
Dash@@
Robert@@
Photographic
kam@@
Screening
Piedmont
respir@@
lubrication
tbsp
90.@@
amo@@
Vand@@
Northumberland
Photograph@@
experi@@
intere@@
Hermes
elle-@@
Multi-Prêts
Derbyshire
Reebok
Rim
vitis
Scene
watercolor
Pog@@
GG
longitude
assays
ouldn
Ignition
Arrow
schematic
227.@@
Model@@
nag@@
galvan@@
raymond-weil@@
vertebral
Poitiers
aar@@
Sectors
varn@@
Consultants
Sebas@@
rc@@
millimeters
City@@
ver.com
Clif@@
0,00
nos
OUR
3-star
Eb@@
Étienne
Biel@@
appa
idine
Tiles
WoT
25mm
word@@
Palmas
Hospit@@
Honeywell
architec@@
Lip
Champagne-@@
lins
INTERNATIONAL
wis@@
Shou@@
Touch@@
t.org
upper@@
Compet@@
Administr@@
113@@
Banana
Research@@
Color@@
rese
Pleasant
rential
Cheshire
TECH
christ@@
ob
38mm
self-adhesive
dust@@
Hooded
Canaria
Erg@@
city@@
disinfection
HM@@
junker@@
Stur@@
akia
Hostal
wijk
Cater@@
Emerald
TEC@@
Tiffany
Pneumatic
48-@@
-L@@
shaw
ATI
Braun
methanol
66.96.@@
2018-09-17
å
Chat@@
ós
Ion
appro@@
stacked
Kul@@
lang@@
repellent
warm@@
idas
be.com
Body@@
Antalya
estyle
Saguenay
agh
hesion
rinsing
Ush@@
inting
almonds
roofing
Saint-Martin-@@
Microphone
FUR@@
knob
chloro@@
urry
223
effec@@
Lifting
Boxing
shov@@
2m
BUL@@
Thread
blouse
Almer@@
Dimension
Lt@@
suede
kr
code@@
iba
Milano
G1
sesame
X4
WN@@
TL
INO
Cameras
estrian
etle
Ston@@
Bratislava
olet
ation.org
A0@@
Vog@@
HN
la.com
nox
mis
Choir
TRY
Double-@@
Lantern
≥
Kop@@
Laguna
tach@@
Orléans
PRODUCTS
Qué@@
walk-in
orm
chequ@@
XR
5D
Suffolk
≤
eira
Padua
efeld
chec@@
24h
233
NW
lumbar
ZE@@
chimney
yng@@
gelatin
mund
37,@@
ousse
strasse
Gymnastics
ught
Casio
drap@@
app.com
mani@@
Lagoon
CX
7.0
rosted
Gare
-shaped
brackets
hibited
Frames
180.@@
kha@@
Jasper
aza
2020-03-0@@
Found@@
Spider
rescent
429
ender@@
fisher@@
Reverse
Anto@@
granules
Jus@@
Bolt
tuce
reve@@
rosem@@
anders
Corn
FAQs
Reproduction
eyelids
65-@@
stat
Mecatech@@
feren@@
estivals
isting
GAT@@
MES
ROY@@
Schles@@
D1
baby@@
scape
IG
185@@
Gli@@
2.4@@
Reflective
icer
rotational
letin
RENT
Trolley
Uphol@@
Amen@@
Row
USB-C
stitute
centrifugal
Catering
Thick
Snake
Analog
228
spark@@
33.602
-111.888
liter@@
8.
Mid
o.org
253
Tester
Rinse
beech
condominiums
Tek@@
washable
Chamon@@
Guaranteed
Word@@
Volga
802.@@
transducer
Zombie
Station@@
Fluid
Augsburg
denim
Insul@@
Oise
fixation
Stations
88.@@
Vibr@@
Esk@@
epithel@@
ance.com
PowerShell
PARIS
Bone
noodles
Mr@@
id.com
que.com
applicator
gardeners
Handbags
haircut
Manit@@
Heel
shaving
ensee
HF@@
intellig@@
Sail@@
Olympus
KN@@
Valladolid
Giorgio
Removable
peat
Gagn@@
Epis@@
saw@@
ion-@@
s.ru
00pm
S.A
B3
hb@@
aig@@
Mould
solutions.com
Upload
Cash@@
sulf@@
T-Shirts
Chandelier
Swee@@
calc@@
Altitude
hinges
hogany
rec
shred@@
winery
Landscap@@
deau
brow
Eber@@
uj@@
efruit
Air-@@
2008-0@@
urn
eer
Leopard
upe
103@@
hosp@@
washers
Málaga
Vauxhall
spindle
Languedoc-Roussillon
sprayed
waf@@
swivel
mex@@
icol@@
BN
bowling
ocide
stead@@
Brief@@
Trim@@
sonville
Taobao
Empty
Off-@@
Consu@@
fasteners
Reims
ère-@@
ao.com
resistor
Saint-Laurent
Brac@@
Uz@@
1.8@@
Panor@@
enam@@
rov@@
Cage
850@@
kefir
elop@@
SAINT-@@
ai-@@
SN
KL@@
chateau
X1
Push@@
Gucci
Cardig@@
Croix
bure@@
teo
9000
FG@@
rubbed
arcade
carbide
Khar@@
ISH@@
007
In-Room
visor
drive@@
braid
Pouch
infec@@
that@@
claw
Crescendo
McG@@
jp
Replica
sprouts
ghi
Spareparts
aily@@
495
emat@@
Apparel
dc
.gr
ingersoll-watches-@@
Ik@@
embell@@
titanium-@@
bolone
NATI@@
tement
er-subcat
RD@@
plings
life.com
AW
Meals
edit@@
Grip
phenol
uca
Berg
.se
bb
zg@@
Beam
SQ@@
Assi@@
ockets
ES-@@
Exam@@
lesion
ss
achts
centrifu@@
Xenon
520@@
DressLily.com
cuttings
Chau@@
Hbf
illi
satur@@
droplets
ò
Lith@@
aic
uphol@@
ferable
shutter
56.@@
RH
vey
rhe@@
Atten@@
roulette
Exceptional
atro
aggio
cursor
trip@@
impedance
forb@@
Asturias
Insulated
187@@
inged
Pam@@
quen@@
splash
count@@
lx@@
KIT@@
Expenses
Méri@@
nl
agna
2G
myocardi@@
Rag@@
HOR@@
TIVE
20x@@
utor
able@@

racite
WD@@
hack@@
ur-@@
cor
KH@@
PvE
dressers
SPORT
sig@@
SUL@@
Promo@@
inian
169.@@
POS
tign@@
1080
TABLE
scrub
breakfasts
Quinta
uminous
Blades
herit@@
alum@@
Trap@@
chia
Turn@@
Fairy
EZ@@
Instr@@
andel@@
Cap-@@
accep@@
Projec@@
479
intro@@
MDF
RM
elem@@
Appro@@
1999-@@
sewn
bur
Umbrella
ArtsDot.com
5W
thane
Amplifier
Alz@@
polycarbonate
ación
30pm
WLAN
crumbs
Bend
vid
EAS@@
Muziker
75cl
boa
oo.com
reflector
a-watches
EMP@@
usages
tik@@
osteochondrosis
Zaragoza
jy@@
Pleas@@
Jiang@@
axially
Search@@
ende
KAR@@
mx@@
ANE
X2
COUR@@
ext
Ip@@
radially
nozzles
Lugano
Treat@@
athering
LAT@@
basil
SPR@@
Haute
ór@@
LCD@@
coast@@
apos@@
40,@@
ROOM
rag@@
Chester
rants
sham
Correcting
Composite
-A@@
PRIN@@
dess@@
relieves
Krasno@@
CEPA
Veneto
IE@@
langu@@
HL@@
CO-@@
BK@@
analogues
amoun@@
iam@@
gios
Labeling
ik.com
ôme
BET@@
Modules
H2
2020-11-@@
DAC
sponsor@@
boot@@
icals
HAND@@
afric@@
ferrous
molds
rl
Food@@
Siber@@
Justification
Solitaire
translucent
dyeing
armchairs
NP
rile
eng.com
iday@@
Hip
►
muff@@
grilled
Couture
ow-@@
RACK
VED
igsaw
Junction
Denim
249
provinc@@
usb
[...]
