</S>
de
&apos;
,
.
la
et
à
le
l
les
des
d
en
est
un
pour
du
une
que
dans
a
sur
)
(
:
qui
vous
par
pas
au
avec
plus
-
ou
il
Le
sont
ne
ce
/
&quot;
n
Les
qu
La
nous
être
aux
s
»
été
ont
«
se
?
votre
Il
L
y
peut
son
comme
cette
mais
je
En
si
tout
leur
autres
1
ces
faire
fait
elle
!
c
ils
tous
C
Nous
on
sa
ses
Je
;
2
&gt;
notre
même
était
également
entre
deux
temps
données
Vous
...
ai
›
Si
pays
très
%
aussi
é
jour
ans
Pour
bien
3
er
peuvent
monde
sans
pouvez
où
leurs
vos
ent
Dans
domaine
ant
vie
adresse
avoir
in@@
-@@
ée
ainsi
Canada
avons
personnes
autre
és
m
fois
nos
10
Ce
ons
Un
4
Une
j
S@@
après
avez
cas
non
moins
travail
–
ées
ait
5
produits
De
e
nom
site
depuis
&#124;
toutes
ez
dont
informations
A
avant
me
eau
sera
cela
partie
o
J
re@@
doit
recherche
an
enfants
E@@
utilisation
système
ligne
Et
chaque
façon
services
B@@
avait
peu
t
Mais
K@@
i
encore
soit
afin
G@@
A@@
beaucoup
pendant
dit
es
lui
contre
s@@
mise
cours
nombre
mois
P@@
T@@
dé@@
toujours
F@@
M@@
toute
D@@
vers
R@@
développement
Cette
6
elles
produit
D
tant
jours
santé
sous
voir
N@@
besoin
&#93;
&#91;
prix
sécurité
C@@
L@@
ville
Par
année
H@@
IP
environ
mon
similaire
hui
années
suis
plusieurs
maison
r@@
Elle
grande
11
premier
e@@
jusqu
&amp;
utiliser
seulement
ré@@
personne
te
t@@
7
k@@
donc
À
b@@
gouvernement
n@@
.com
I@@
base
ici
d@@
exemple
première
Ils
12
eux
trois
selon
enregistré
V@@
aient
Accueil
20
qualité
W@@
8
permet
alors
rapport
y@@
êtes
al
processus
h@@
service
femmes
membres
gens
aide
chose
compte
niveau
droit
nouveau
fin
heures
ation
projet
grand
manière
S
O@@
doivent
2018
30
g@@
programme
chez
quand
tu
prendre
nouvelle
On
États-Unis
partir
bon
trouver
jamais
Au
aujourd
Des
demande
homme
ensemble
cet
sommes
lieu
entreprise
moment
l@@
vue
c@@
ma
minutes
groupe
droits
possible
quelques
z@@
15
as
en@@
p@@
Ces
savoir
forme
déjà
J@@
al@@
car
lors
assez
politique
000
i@@
an@@
o@@
m@@
place
ar@@
déterminer
marché
accueil
point
cadre
aider
eu
f@@
activités
entreprises
traitement
raison
important
article
comment
0
famille
principale
société
bonne
seront
corps
maintenant
accès
résultats
ceux
v@@
va
souvent
mesure
B
Cela
moi
effet
a@@
Conseil
el
ch@@
étaient
France
page
9
lorsque
•
problèmes
ants
certains
Dieu
dernière
co@@
information
Comment
question
mettre
gestion
déclaré
application
côté
mes
près
x
type
millions
clients
era
4@@
problème
dire
age
région
is@@
parce
suivant
ti@@
nécessaire
50
offre
pouvoir
km
quelque
Europe
Notre
5@@
vol
es@@
conditions
matière
équipe
Z@@
période
N
nouvelles
ad@@
ça
24
3@@
ine
ante
h
25
100
am@@
histoire
protection
part
or@@
er@@
di@@
eurs
compris
obtenir
us
18@@
bus
enregistrements
U@@
là
loi
+
nombreux
mieux
fonction
plupart
questions
devez
j@@
at@@
Y@@
$
6@@
différente
pourrait
on@@
utilisé
w@@
ie
expérience
salle
concernant
u@@
faut
devrait
7@@
eur
tes
mesures
as@@
total
con@@
ale
utilisateurs
ais
ing
enfant
jeu
ag@@
long
8@@
Note
état
production
femme
e-@@
T
Avec
2019
u
pré@@
choses
im@@
é@@
in
par@@
notamment
général
environnement
M
Page
propre
.@@
x@@
vraiment
tels
k
catégorie
hommes
hébergé
meilleur
mer
aucun
9@@
cher
vendre
centre
Commission
moyen
présente
ations
19@@
Impossible
analyse
air
énergie
plan
formation
18
ter
www.@@
secteur
el@@
Après
Tout
Chine
début
rien
manuel
2@@
tr@@
em@@
œuvre
carte
juste
Liste
privé
valeur
liste
voyage
simple
14
contrôle
intérieur
situation
*
ité
public
argent
13
I
taux
différents
économique
Comme
g
ab@@
ri@@
M.
mis
certaines
laquelle
Re@@
ts
seul
politiques
existe
assurer
euse
ement
travers
16
trop
2013
chambres
créer
contient
it@@
ales
nouveaux
able
dernier
assignée
européenne
pièces
utilisateur
particulier
rôle
P
chambre
risque
vi@@
or
inter@@
mode
ac@@
Tous
jeunes
besoins
°
président
améliorer
haute
choix
action
ressources
ayant
groupes
É@@
croissance
avis
quantité
ton
nombreuses
activité
suite
Ch@@
petit
ers
ni
X@@
différentes
voiture
puis
étude
terme
pourquoi
Voir
aucune
membre
réseau
sujet
proximité
at
grâce
reste
État
quatre
Votre
projets
17
décision
li@@
trouve
guerre
disponibles
2017
aire
ens
accord
et@@
Google
ministre
hôtel
programmes
agit
serait
sur@@
similaires
personnel
donner
cuisine
om@@
espace
parties
donné
font
40
X
Afrique
emploi
mondiale
Plus
aller
zone
Cependant
affaires
IPv6
Union
distance
mars
Bien
ar
recherches
R
voulez
Internet
modèle
In@@
semaine
pris
capacité
os
face
Selon
train
appareil
bois
ite
bi@@
ateur
art
1@@
rendre
Con@@
Web
études
seule
antes
dernières
présent
0@@
maladie
facile
systèmes
DE
éléments
O
sites
propriété
directement
F
résultat
but
21
fournir
industrie
deuxième
haut
cinq
internationale
généralement
dollars
ex@@
p
disponible
taille
nature
19
points
sens
re
couleur
objectif
E
vacances
té
rapidement
étant
endroit
renseignements
st@@
sûr
r
autour
texte
international
is
tel
Allemagne
av@@
ro@@
—
Lorsque
po@@
qu@@
banque
soutien
outre
cause
€
frais
pa@@
22
unique
lumière
ère
poids
bas
technologie
évolution
09
porte
petite
Ar@@
occasion
gu@@
peau
date
Quand
suivante
avaient
population
mort
acheter
telles
Al@@
ables
difficile
of
main
Mar@@
soient
2016
simplement
tu@@
enregistrement
car@@
contact
entrée
comprend
technique
vu
10@@
importe
si@@
juin
sein
sorte
trouvé
au@@
solution
film
évaluation
organisation
national
2015
ez-vous
Sur
ou@@
dis@@
ap@@
G
V
and
pense
pression
meilleure
ni@@
titre
âge
pouvons
mm
nationale
réduire
lequel
passé
série
Lors
février
États
peut-être
soins
amour
types
ance
travailler
pratique
op@@
Tu
ol@@
artistes
construction
aires
23
position
rapide
meilleurs
ai@@
comprendre
grandes
terre
vente
intérêt
situé
utilisée
changement
ot@@
heure
communauté
il@@
effets
bureau
décembre
pi@@
tard
The
UE
per@@
téléphone
réponse
2020
entier
ique
passer
graphique
Que
température
création
26
ailleurs
amis
ent@@
contenu
Pourquoi
économie
ordinateur
dispositif
documents
concerne
fut
moyens
cm
moteur
60
28
Chaque
charge
MX
Québec
propos
vidéo
propose
image
générale
culture
pl@@
est-ce
origine
Nord
blanc
Saint-@@
f
nécessaires
commencer
quel
lorsqu
parmi
devant
celui
extérieur
ph@@
tête
effectuées
esprit
huile
client
pro@@
Par@@
éducation
quoi
New
commerce
mai
signifie
objet
noir
idée
ir@@
Amérique
telle
siècle
31
objectifs
table
janvier
man@@
musique
de@@
faible
souhaitez
importante
Paris
durée
surface
journée
particulièrement
certain
iste
techniques
actuellement
pr@@
a-t-il
style
br@@
euses
gr@@
devraient
2014
principal
su@@
b
peux
Alors
th@@
_
avenir
louer
écran
fonctionnement
marque
coût
Car@@
parler
document
étape
utilisés
publique
éviter
ver@@
trans@@
nuit
septembre
soleil
cœur
ements
aura
version
anti@@
celle
pu
Co@@
els
actions
Centre
acier
moyenne
prise
ak@@
électrique
ateurs
propres
source
27
ét@@
Produits
étudiants
européen
le@@
eront
choisir
paix
efficace
ette
conception
lo@@
direction
ensuite
Ne
tiers
mal
grands
donne
veux
changements
Qu
Loi
dès
Comité
répondre
relations
Depuis
bande
force
pièce
.org
jouer
auprès
octobre
atteindre
risques
patients
Toutes
Université
responsable
passe
juillet
abord
Domaine
17@@
importants
os@@
Sud
régime
milieu
veut
succès
Le@@
aurait
ci@@
suivants
90
avril
no@@
commande
W
Pharmacies
route
K
tions
termes
faites
Q@@
quelqu
fonds
travaille
communication
mo@@
organisations
isme
ec@@
ages
médicaments
attention
ents
présence
possibilité
z
engagement
plutôt
transport
livre
appel
devenir
jeux
facilement
sais
ta
fi@@
permettre
ence
commencé
large
outils
école
durable
quelle
Sh@@
rester
ordre
s-@@
protéger
cu@@
Cet
visites
Nations
enne
Avocats
mondial
déterminé
confiance
hôtels
ente
euros
animaux
man
ques
ci-dessous
fil
it
longtemps
conseils
lien
sociétés
Israël
administration
novembre
invention
ard
01
solutions
20@@
règles
permis
sou@@
fichier
pratiques
établissement
reçu
semble
gaz
Son
utilisant
12@@
supplémentaires
tri@@
chef
sol
ate
utilise
maladies
presque
An@@
consommation
visite
puissance
efforts
Russie
29
autorités
venir
niveaux
serveur
res
machine
conséquent
parents
appartement
développer
2012
importance
retour
vivre
s.com
16@@
ser@@
oc@@
jardin
bain
séjour
avantages
bu@@
populaire
sous-@@
zones
80
Maison
importantes
05
manger
ouvert
cr@@
verre
eu@@
modèles
États-unis
mère
élément
35
français
En@@
connu
cheveux
numéro
ob@@
articles
sociaux
élevé
ins
vient
partenaires
proche
Ainsi
structure
mar@@
ise
15@@
ing@@
Br@@
surtout
aime
fille
photo
pourraient
employés
logiciel
directeur
salon
médias
financement
effectuer
Espagne
langue
pied
semaines
bo@@
régions
relation
appelé
mot
™
écrit
jeune
achat
permettant
uniquement
villes
200
offrir
manuels
approche
ra
examen
ér@@
coopération
raisons
istes
requête
six
montre
installation
République
Y
opérations
classe
mouvement
physique
référence
août
complet
travaux
mètres
départ
fonctions
augmentation
pu@@
longue
demander
caractéristiques
mission
professionnels
500
exigences
impact
applications
équipement
DNS
plein
am
a-@@
chacun
billet
détails
2010
lit
liberté
PR
père
sociale
00
responsabilité
apprendre
yeux
compétences
com@@
H
U
autant
visant
ème
lire
Cor@@
fins
matériel
ter@@
vont
ologie
Ro@@
photos
changer
technologies
conseil
ités
ss@@
procédure
emplacement
mi@@
gamme
trouverez
stratégie
rouge
mon@@
règlement
normes
teur
libre
genre
e.com
code
durant
images
principaux
2011
résoudre
fond
efficacité
américain
Hôtels
alité
événements
perte
piscine
visualiser
Tr@@
to@@
domaines
ang@@
conformément
Di@@
der
14@@
anglais
lutte
petits
créé
fils
belle
du@@
loin
end@@
Bar@@
13@@
travailleurs
indiqué
suivre
complète
coûts
aliments
police
voie
milliards
ill@@
vais
moderne
parfois
70
social
ajouté
ères
méthode
CA@@
bl@@
économiques
plage
CO@@
2008
disposition
Italie
vo@@
dispose
and@@
possède
devons
Royaume-Uni
paragraphe
te@@
suivantes
alimentation
prêt
suivi
ge
entièrement
événement
ren@@
ennes
lu@@
gros
valeurs
marchés
météo
forces
gratuit
tion
tive
Ontario
ines
Est-ce
ain
double
investissement
électronique
justice
immédiatement
saison
ve
section
tique
ay@@
ane
regarder
véhicule
avais
Président
petites
guide
billets
peuple
ministère
pourrez
demandé
mariage
mains
do@@
étais
Dé@@
organismes
quant
liés
ass@@
ah@@
davantage
fabricant
ah
premiers
exercice
De@@
2000
humains
probablement
réalité
Lu@@
45
réunion
a.com
troisième
vitesse
bains
Ré@@
canadienne
visiteurs
fichiers
ad
ratio
Voici
numérique
az@@
ey
ed
égard
cor@@
Pro@@
papier
ed@@
meilleures
forte
York
fort
Mo@@
toi
HTML
couleurs
échelle
Com@@
Catégorie
Montréal
télévision
bébé
PC
2006
principalement
via
celles
cent
chemin
représente
ites
continue
Pas
complètement
Bi@@
augmenter
médecin
sh@@
intérêts
ya
privée
Mot-clé
prend
précédent
2009
Météo
vrai
vertu
Même
montant
v
fournisseurs
partager
2007
divers
Etat
ajouter
Avant
ler
heureux
CE
derniers
appareils
réalisation
unité
da
enquête
mal@@
terrain
liquide
Bo@@
fin@@
II
dispositions
réparti
paiement
option
familles
location
devient
der@@
message
note
exploitation
crise
époque
ic@@
exposition
outil
matériaux
bord
commence
web
én@@
géographiquement
ul@@
cellules
32
spécifiques
décisions
.dll
hébergement
Jésus
1.@@
journalières
gi@@
sang
MA@@
collaboration
hi@@
éri@@
contrat
connaître
Hotel
dés@@
figure
Aujourd
méthodes
o-@@
participation
compagnie
res@@
facteurs
um
eaux
IN@@
connaissances
feu
non-@@
1er
Be@@
citoyens
Groupe
Am@@
garantie
2005
St@@
formes
gar@@
se@@
ka
personnelles
preuve
Non
réaliser
ier
campagne
premières
rapports
ch
Cour
naturel
permettent
mots
nourriture
ouverture
respect
plastique
vision
crédit
arrière
rés
ach@@
ant@@
Nos
cancer
sport
ancien
recevoir
connue
Etats-Unis
Gu@@
Th@@
peur
30@@
Grand
participants
Ex@@
avocat
RE@@
ami
tenu
Aucun
biens
alimentaire
traiter
mêmes
mariages
un@@
pages
connexion
commun
Ad@@
actuelle
canadien
for@@
URL
Su@@
propriétés
populaires
San
produire
us@@
Li@@
ay
avions
différence
24@@
ca@@
one
vin
ho@@
Services
automatique
port
af@@
laisser
Noir
province
direct
réduction
lois
tenir
scientifiques
ém@@
essayer
assurance
île
financière
ur@@
connaissance
ir
ana
Qu@@
sud
publics
IS@@
principes
Mon@@
faisant
déclaration
institutions
avocats
surveillance
né
aéroport
clés
comité
parc
humain
violence
armes
allez
ets
options
profiter
contacter
Parlement
design
SE@@
presse
sources
tandis
découvrir
For@@
sortie
experts
t-@@
42
revenu
veulent
50@@
dr@@
usage
q@@
chercheurs
convient
utilisez
erait
fédéral
èrent
continuer
#
poste
tour
cependant
bar@@
agent
diverses
communautés
ds
Se@@
Unies
gérer
fournit
pe@@
douleur
ies
promotion
rend
Toutefois
Pendant
2.@@
36
rec@@
caractère
ment
courant
réseaux
DMOZ
matières
lignes
historique
teurs
renforcer
accessoires
sait
conférence
fonctionne
dix
partout
payer
symptômes
fabrication
sion
mémoire
ia
gratuitement
majorité
pe
principales
internationales
ci-dessus
Chambre
utilisées
puisse
parti
relatives
professionnel
enseignement
Certains
Vi@@
48
langues
humaine
usine
Christ
Sa
2004
LED
og@@
vérité
urgence
clé
actifs
ade
récemment
responsables
manque
fier
vérifier
centrale
entretien
filles
Ceci
ten@@
Du@@
etc.
matin
contexte
Gr@@
John
multi@@
vêtements
trouvent
impression
Maintenant
située
US
Me@@
che
innovation
hiver
véhicules
perdu
locaux
met
demandes
soutenir
vert
ats
hu@@
supplémentaire
TV
présenter
télécharger
territoire
publié
supérieure
maintenir
fr@@
américaine
aine
rue
soir
AC@@
utile
Découvrir
porter
arrivée
02
tent
Per@@
Canadiens
dû
ati@@
participer
hors
allons
fer
liens
2003
Oui
alisation
organisme
tissu
couche
prises
résistance
faits
Mon
cou@@
.info
village
prochaine
circulation
honneur
chers
établir
auteur
secteurs
clair
entr@@
38
ble
amélioration
ner
ettes
médicament
mor@@
so@@
gauche
vols
Elles
doute
Ab@@
fruits
conçu
sélection
voitures
propriétaire
mé@@
garder
300
phase
ess@@
Prix
idées
carrière
fu@@
étapes
chance
nord
Or@@
bleu
principe
supérieur
lui-même
espèces
militaire
atteint
serez
arrive
our@@
voix
bou@@
tôt
ber@@
cl@@
quement
Accessoires
vigueur
transfert
café
entrer
mobile
bonnes
tif
alisme
33
rez
ina
moitié
Pe@@
²
armée
critères
devenu
essentiel
lesquelles
court
peine
34
ative
promouvoir
défense
Jeux
w
capacités
fl@@
AN@@
CH@@
RA@@
réel
Hu@@
milliers
maisons
id@@
atif
perdre
41
véritable
AR@@
idéal
objets
LE
Guide
tendance
test
gouvernements
Mor@@
03
constitue
CE@@
Qui
étranger
be@@
décidé
victimes
75
performance
chaleur
progrès
visiter
TA@@
rent
penser
25@@
rée
visage
marche
est@@
dos
mélange
06
livraison
aff@@
budget
tés
04
devriez
vise
1-@@
coucher
Japon
anti-@@
livres
ES@@
internationaux
procédures
films
résolution
Ac@@
3.@@
écrire
EN@@
ates
financiers
métal
iser
chaud
Service
entendu
spécial
interne
exemples
proches
ouvrir
Banque
terrasse
Man@@
batterie
ke
chaîne
Pr@@
Avez-vous
dépenses
ml
C-@@
indique
droite
08
variété
cré@@
Inde
isé
erie
Ver@@
trouvés
Recherche
to
thématique
pos@@
crois
aurez
bâtiment
appelle
cal@@
installations
correctement
Santé
00@@
Mc@@
entes
sac
potentiel
gagner
lis@@
arrêter
explique
quer
cartes
adultes
plantes
Bureau
liées
consommateurs
tor@@
quartier
ouverte
aise
di
affaire
Au@@
élevée
revenus
actif
2001
suffit
ang
ley
LI@@
PA@@
support
distribution
ches
condition
Windows
réserver
chien
joueurs
ru@@
Programme
07
min@@
opération
Londres
boîte
patient
noter
44
ment@@
chinois
SA@@
procédé
catégories
repas
offres
capable
‘
ue
réalisé
2002
Manuel
faite
coup
oeuvre
sujets
marques
El@@
Couleur
Col@@
consulter
vent
ll@@
acteurs
commentaires
fabricants
Pl@@
comprennent
envoyer
construire
délai
déc@@
the
obtenu
supprimer
clairement
LA@@
Donc
tez
annoncé
all@@
préparer
DE@@
ég@@
sal@@
ac
55
Grâce
by
adi@@
volume
champ
permettra
tableau
locale
appliquer
Quelques
co
apprentissage
Convention
AS@@
cycle
Seigneur
99
pieds
International
suit
sept
Ensuite
iss@@
lesquels
représentant
prévu
parle
iques
commission
ins@@
isation
ce@@
publiques
Q
exécution
ju@@
commercial
classique
tiques
alement
SI@@
avion
37
cuir
stockage
ell@@
ain@@
scientifique
lettre
.net
locales
pouvait
chercher
portée
réserve
accessible
apporter
accéder
modifications
ol
no
longueur
Soyez
considéré
Résultats
douche
LA
esse
défis
plat
seconde
est-il
agents
ET
Asie
Fr@@
dur
servir
Terre
Sal@@
émissions
désormais
consiste
rem@@
ven@@
investissements
60@@
identité
intention
préparation
Ru@@
modifier
peinture
don
ances
montrer
y.com
3D
restaurant
évaluer
attendre
beauté
commune
ES
cerveau
siège
sub@@
spécifique
prêts
appartements
mu@@
str@@
aw@@
recommandations
plaisir
mises
Homme
Société
marketing
Ri@@
MI@@
itinéraire
fleurs
plans
civile
extrêmement
Facebook
nationales
No@@
39
destination
représentants
ori@@
Agence
local
etc
présenté
coeur
certainement
possibilités
partenariat
faveur
MO@@
gl@@
cour@@
ca
Paul
Quelle
initiative
expériences
emplois
ois
Mi@@
auteurs
envers
Chaussures
chaussures
juridique
chimiques
complexe
Quel
EN
ains
puisque
derrière
dehors
endroits
TI@@
40@@
composé
annonces
ventes
oi@@
Veuillez
TE
Z
lieux
matériau
étage
dis
Du
Artiste
décrit
micro@@
pêche
ali@@
restaurants
internet
its
places
atifs
soin
46
Utilisez
Android
prévention
év@@
can@@
génération
aspects
Église
Beaucoup
relativement
naissance
nationaux
radi@@
savez
23@@
conscience
partenaire
choisi
pouvant
foi
comportement
maximum
venu
câble
noms
financier
cer@@
Saint
mauvais
station
2-@@
fer@@
habitants
actuel
logement
Bou@@
centres
suffisamment
CI@@
Po@@
ges
Supermarchés
Pu@@
identifier
bouton
dépend
ano
hauteur
conséquences
fournisseur
envoyé
Association
composition
conflit
globale
naturelle
nouvel
annonce
intégration
portant
des@@
LE@@
es-@@
stock
personnels
sciences
ari@@
5-@@
réfugiés
écoles
ï@@
contribuer
Air
acide
patrimoine
formulaire
cas@@
vaut
estime
Assemblée
ma@@
=
masse
scène
ot
différent
traité
thème
ig@@
um@@
m2
tellement
43
nécessité
rencontre
conduit
è@@
inc@@
Bu@@
fréquence
27@@
Deux
Australie
él@@
gratuite
célèbre
erreur
équipements
offrent
internes
expression
neuf
DI@@
carbone
Appartement
définition
garantir
passante
conduite
régulièrement
flux
disque
dossier
Pi@@
professionnelle
conséquence
communiquer
Mu@@
compagnies
dessus
certaine
planète
Noël
installer
He@@
erreurs
confortable
naturelles
sauf
existence
6.@@
aluminium
Télécharger
salles
parfait
Mme
47
absence
totale
Enfin
Femme
®
utilisent
échange
ira
pourra
climatique
beau
US@@
dée
issent
atrice
statut
détail
française
©
400
Organisation
Suisse
bons
viennent
dic@@
be
ne@@
autorité
Ã
tives
aliser
Sans
att@@
3-@@
prochain
concurrence
FI@@
int@@
vérification
confort
150
fication
réduit
VI@@
tée
étrangers
28@@
4.@@
composants
Etats
Vente
Emplacement
Ju@@
réception
Pièces
uni@@
95
Es@@
dommages
coin
mauvaise
onne
américains
26@@
virus
ellement
Est
rées
Autres
active
édition
sortir
RO@@
volonté
recommandé
change
he@@
équipes
limite
obligations
form@@
règle
vivant
erons
calme
Si@@
ger
combien
course
établi
Her@@
Cu@@
tin@@
AL@@
Afin
intervention
Informations
capitale
Can@@
PO@@
vues
chauffage
humaines
est-à-dire
luxe
65
mur
Découvrez
compter
Inter@@
tons
alimentaires
Institut
abilité
garde
tension
huit
Turquie
rose
52
sions
0.@@
envie
appui
fenêtre
église
signe
autochtones
anniversaire
dom@@
David
cul@@
lait
contr@@
veuillez
ge@@
tâche
mandat
minimum
résidence
ciel
collection
attaque
agir
Bl@@
ole
feuilles
chi@@
ER
Premier
avantage
NS
voyez
relative
espère
proposition
riche
couverture
montré
session
gare
quelles
ty@@
Iran
exactement
contraire
ER@@
hy@@
Ti@@
science
ba
pleine
ban@@
vétérinaire
efficaces
col@@
appar@@
jet
me@@
contenant
rou@@
port@@
égalité
menace
char@@
influence
nes
électriques
vivent
toutefois
trajet
IPv4
sociales
statistiques
pharmacies
..
na
applique
Sch@@
celui-ci
ard@@
Nom
Trump
vaste
Dis@@
compréhension
poly@@
1999
do
bien-être
pierre
développé
gue
pilote
Sou@@
ais@@
onn@@
rendu
spéciale
standard
SO@@
électricité
agréable
recours
dirigeants
iv@@
assistance
isés
tur@@
Ap@@
ancienne
militaires
5.@@
fera
en-@@
contribution
inclus
poser
sexe
paramètres
53
for
ann@@
animal
essai
my@@
répond
ak
terres
portes
central
Jo@@
cri@@
empêcher
planification
dou@@
ceci
élèves
association
Ses
Code
Toute
climat
Cr@@
Go@@
Ni@@
financières
avance
parfaitement
éc@@
substances
ly@@
All@@
licence
voulons
Ph@@
sk@@
bas@@
réponses
Mer@@
stratégique
cliquez
Location
Or
européens
aï@@
1,@@
land
nu@@
cookies
4-@@
jou@@
tera
ves
anciens
largement
´
vis@@
cro@@
35@@
pour@@
médecins
ev@@
auront
four
dictionnaire
nation
impossible
élections
Val@@
por@@
associés
0,@@
humanité
télé@@
thé
lancé
pen@@
pire
ck@@
possibles
cher@@
futur
disponibilité
simples
tres
fs
arbre
arriver
comptes
tient
bar
université
Hôtel
sé@@
limites
initiatives
rencontré
stress
joueur
respecter
éliminer
contenir
signal
solide
bles
ris@@
y-@@
rel@@
tests
tom@@
législation
TO@@
dynamique
ions
inoxydable
cap@@
men@@
présentation
sentir
puissent
ski
sup@@
ê@@
CR@@
réglementation
per
Apple
au-delà
intermédiaire
ME@@
aj@@
tirer
provenant
Ne@@
Combien
prévenir
transmission
exception
54
musée
étoiles
nettoyage
automatiquement
rendement
rom@@
unités
russe
oui
magnifique
combinaison
tifs
machines
Mal@@
carburant
former
profil
ok@@
49
marchandises
dois
agriculture
commerciaux
alcool
E-@@
disent
ché
Parce
soumis
ki
22@@
lecture
dor@@
rêve
fourni
dangereux
solaire
iner
co-@@
Ici
goût
51
-0@@
Te@@
th
lac
reçoit
situations
légumes
ex
centaines
Cas@@
augmente
portable
million
ong
travaillé
médecine
dialogue
arrêt
acte
Ser@@
signes
construit
éd@@
Ber@@
déchets
go@@
communautaire
concept
AD@@
joué
probable
actes
tées
particulière
participé
ist@@
comporte
IP@@
requis
commerciales
dét@@
RI@@
vidéos
instructions
faciliter
CA
Syrie
genres
réaction
Maisons
extérieure
erez
étrangères
vieux
ONU
Mat@@
équipée
nommé
instant
directive
conservation
tre
poudre
Modèle
candidats
ell
Cl@@
tâches
Belgique
bout
Angleterre
pass@@
sentiment
7.@@
Office
basé
ène
enti@@
conformité
TS
Style
vite
élevés
effectué
Acheter
équilibre
Site
seraient
Sujet
augmenté
Affaires
communications
difficultés
changé
vol@@
Cal@@
communiqué
dnstoolkit.net
excellent
oir
nie
jo@@
soci@@
Im@@
TE@@
mer@@
AP@@
graves
Rechercher
emballage
née
final
pes
Grèce
jaune
sti@@
cadeau
yl@@
danger
contrôler
partage
souhaite
gh@@
langage
Lunettes
radio
fais
banques
sucre
Fonds
cli@@
diversité
génér@@
joue
logiciels
hôpital
au-dessus
thé@@
iter
Quels
ov@@
UR@@
bras
froid
Dr
pauvreté
coupe
côtés
rencontrer
Retour
performances
conduire
chiffres
savons
entendre
publication
Home
tenue
baisse
Blanc
poursuivre
eng@@
retraite
Lo@@
médical
anc@@
200@@
Cam@@
bateau
mener
professeur
S-@@
gn@@
croire
29@@
voyager
stratégies
chargé
Ministère
crème
Tri@@
Directeur
Mag@@
Samsung
dimanche
vit
ck
Situé
format
annuel
GE
élaboration
bientôt
totalement
Jean
offrant
cabinet
utiles
britannique
T-@@
passage
âme
viande
·
sol@@
examiner
adopté
déjeuner
ff@@
­
musiciens
populations
We@@
façons
fête
connecter
reconnu
inférieure
gé@@
aines
Image
kilomètres
qué
kg
1998
autorisation
ON
artiste
circonstances
nations
messages
éli@@
Min@@
réalisés
super@@
Certaines
devait
ire
plaît
publicité
grave
propriétaires
dossiers
défaut
ber
pé@@
discussion
prom@@
individus
architecture
ature
roi
précision
téléchargement
donn@@
Trouvez
acheté
norme
fortement
Merci
fonctionnalités
ting
Washington
viol@@
Tu@@
sy@@
transition
illes
donnée
magasin
Ouest
USB
appris
Mac@@
êtres
œuvres
....
susceptibles
Ouvert
représentent
établissements
not@@
pourront
précise
éclairage
hausse
côte
sor@@
ille
modernes
3,@@
mis@@
invités
arr@@
prévoit
effort
dents
6-@@
Brésil
modification
reconnaissance
fon@@
signé
250
pon@@
canadiennes
es.com
vis
description
défi
latin
Park
Art
Em@@
Où
ens@@
opinion
inf@@
Parmi
inclure
Bleu
City
grossesse
Villa
36@@
réussi
ors
soi
transformation
employé
intérieure
ps
enfin
100@@
essentielles
électroniques
ity
commerciale
essais
plaque
ablement
consultation
ve@@
absolument
ko
Type
approprié
canadiens
Personne
fac@@
berg
bâtiments
travaillent
malgré
capit@@
second
Information
val@@
11@@
l`@@
Très
instruments
Pro
isée
8.@@
issant
ek@@
de-@@
démocratie
chacune
Ma
traitements
AM@@
d`@@
fil@@
ré
pleinement
voit
médi@@
LO@@
Bal@@
Rouge
Ottawa
capital
limitée
Taille
Por@@
Rome
7-@@
Toronto
Règlement
espoir
stabilité
ues
aspect
pétrole
pan@@
énergétique
basée
copie
cs
proposé
obligation
mou@@
espaces
accords
tement
fondée
sommet
gris
priorité
My@@
installé
her@@
associée
56
personnelle
constituent
stade
organes
affichage
cam@@
Ou
tis@@
off@@
ST@@
45@@
décès
due
approvisionnement
38@@
ino
lin
organisé
multiples
courte
ferme
adoption
cont@@
Hol@@
Conférence
ure
HD
remplir
cin@@
lan@@
48@@
domicile
eg@@
attaques
Sk@@
plateforme
privés
peuples
Corée
Plusieurs
don@@
Quelles
bal@@
organiser
Ag@@
circuit
agence
chat
Système
accepter
officiel
ara
od@@
opposition
Vol
parking
Fi@@
sommeil
nucléaire
devrions
conserver
réservation
Trans@@
tourisme
iné
cherchez
we@@
récente
réellement
légèrement
eusement
associé
dose
ion
dure
bases
faisons
ences
ç@@
Monsieur
quotidienne
finalement
couple
celle-ci
finale
correspond
négociations
juge
sel
trafic
lecteur
DA@@
i-@@
chapitre
courriel
religion
AT@@
vide
protéines
confidentialité
conseiller
revenir
frère
SOA
déf@@
pou@@
diagnostic
bureaux
atives
BC
adapté
sert
Ville
85
CO
inscription
59
département
supermarchés
National
prennent
del
prison
atelier
pal@@
Salle
critique
chaude
blo@@
collecte
ones
entraînement
commandes
ath@@
ong@@
70@@
définir
ron@@
Lire
cur@@
maintien
échanges
vote
pose
sie
comprenant
routes
lancer
oy@@
villa
mécanisme
facteur
comm@@
longues
causes
culturel
précis
elle-même
feuille
plante
régional
crée
lettres
cy@@
Pri@@
registre
st
conflits
Puis
médicaux
pharmacie
ada
structures
dés
mentale
Ass@@
are
quotidien
Rose
Lorsqu
Ça
chiffre
arrivé
alisé
découvert
on-@@
Bel@@
600
degré
belles
bat@@
tarifs
frontière
vélo
al-@@
rivière
lu
mené
arbres
oni@@
ani@@
externe
savent
troubles
monnaie
Har@@
naturels
transports
mouvements
ouvre
1990
préférence
Article
Wi-Fi
Mexique
intégré
combat
.ru
58
connecté
intéressant
rs
parlé
ki@@
réunions
excellente
che@@
maximale
Détails
ers@@
officielle
98
dispositifs
120
issement
générales
trai@@
concentration
incroyablement
POUR
européennes
souligné
atique
DC
Fondation
pensez
accent
doux
vous-même
juridiques
vois
ser
devoir
To@@
demain
lié
infection
80@@
printemps
Musée
El
étudier
CN@@
porté
basse
ram@@
difficiles
températures
BI@@
arg@@
allemand
mari
1997
expliquer
touche
motif
frontières
seuls
ford
NO@@
conclu
biais
investisseurs
accident
preuves
4,@@
mat@@
secondaires
A-@@
Fu@@
atmosphère
appeler
PS@@
particuliers
montagne
pourriez
Er@@
lundi
découverte
Développement
incluent
Kar@@
planifier
responsabilités
ront
nécessite
diffusion
sav@@
efficacement
auraient
2,@@
expertise
ouest
tissus
ha
répon@@
poisson
Vue
discours
laboratoire
Titres
univers
57
montrent
club
différences
numériques
coton
puissant
tonnes
débat
trait
Plan
vendredi
ash@@
salaire
mobiles
Guerre
refroidissement
énorme
auxquels
ast@@
tribunal
morts
UN@@
bes
précisément
Ou@@
ase
auparavant
réalisée
ingrédients
appelée
P-@@
Peut-être
SS@@
prenez
cultures
meubles
pointe
tiens
@
ep@@
sable
aidera
alli@@
précédente
infrastructure
traite
den
vies
ète
Microsoft
CC@@
blanche
64
infrastructures
â@@
PE@@
clinique
informatique
automne
em
cible
collectivités
dépôt
complexes
cliniques
considérablement
Ma@@
magasins
van
menu
physiques
ON@@
iPhone
annexe
Malgré
présents
procéder
aimez

leader
devra
ja
1996
angle
Ge@@
inv@@
Rom@@
inscrire
fédérale
affiche
Données
reconnaître
murs
prévue
ao
expliqué
noire
inférieur
tie
37@@
adapter
liée
mg
eux-mêmes
prochaines
bru@@
accroître
Sam@@
ans@@
Restaurants
sauver
ons-nous
boissons
Père
soyez
visible
habituellement
Bur@@
destiné
fonctionner
AU@@
Californie
Artistes
Av@@
Gar@@
secondes
espèce
panneau
hom@@
Wi@@
impôt
priorités
directe
chiens
Bruxelles
forêt
pri@@
accueillir
contiennent
Contrairement
considérée
chimique
centr@@
Grande
historiques
convention
informer
indépendant
Club
a-t-elle
élevées
devenue
PI@@
Femmes
CON@@
cat@@
World
match
graphiques
fié
sexuelle
neige
somme
Pays-Bas
Del@@
bouche
optique
o.com
ek
dre
parfaite
traités
compl@@
ü@@
tro@@
apparition
Tor@@
ze
donnent
pneus
favoriser
moments
producteurs
Esprit
essentielle
achats
apparaît
provinces
propositions
aqu@@
pouvoirs
Bas@@
appropriée
préférable
At@@
met@@
ox@@
discuter
arm@@
quels
atoire
Leur
opportunité
quitter
Ben@@
agricole
Char@@
décoration
approbation
boire
Inc
Irlande
assure
8-@@
audio
panier
9-@@
minute
lam@@
bri@@
VIH
révolution
trophées
sent
autorisé
décennies
Sol@@
filtre
ili@@
cad@@
thermique
restent
Bor@@
Pierre
remplacer
Michael
\
secondaire
Nouveau
PDF
tenant
prénom
AI@@
QU@@
renforcement
ent-ils
démocratique
nécrologies
paysage
entraîner
compétence
tombe
este
formé
riches
tube
lutter
Cou@@
ards
Ajouter
er-@@
Pal@@
théorie
quatrième
ls
ajoute
bro@@
Montres
climatiques
permanent
Vols
inscrit
consentement
ologique
asi@@
ks
immobilier
Trouver
lancement
donnant
BO@@
paiements
spéciales
ait-il
Marie
lits
Res@@
concours
pensée
ster
iez
fixe
agricoles
postes
ail@@
extrémité
réelle
médicale
laisse
axe
fournis
Téléchargement
lin@@
normale
bon@@
á@@
ham@@
logique
lou@@
ail
automobile
Tur@@
tendances
ax@@
pont
aut@@
rap@@
proposer
tuer
ti
positif
fiable
800
1995
dons
original
soldats
aliste
ata
Go
normal
affirmé
allant
bénéficier
entière
pauvres
crimes
voulais
faisait
FA@@
regard
sau@@
NI@@
demeure
secret
terminé
adopter
particules
acquisition
ace
auto-@@
profondeur
vitamine
oph@@
ami@@
SE
TA
voici
instrument
boutique
ide
remplacement
oirs
inform@@
alis@@
gouvernance
limiter
opportunités
d.com
fibres
SA
aiment
coordination
MA
léger
peints
CD
arts
balcon
cherche
mécanismes
chant
chanson
Français
dette
LES
correspondant
C.
soirée
rythme
caméra
cinéma
mobilité
enn@@
oiseaux
discrimination
ome
degrés
affirme
pers@@
PA
spéciaux
communes
Camping
ci
étudiant
PRO@@
ange
Communauté
mas@@
rejoindre
ew@@
aver@@
voies
navigateur
menaces
Aucune
CS@@
D-@@
Black
voulait
certificat
-B@@
ISO
ala
Ukraine
ton@@
plate-forme
incroyable
règlements
erai
acc@@
auquel
diabète
orientation
CV
familiale
Moyen-Orient
PE
estimons
Gouvernement
ip
œil
glace
Faites
cour
James
terrorisme
éch@@
sc@@
missions
encourager
tien
III
Uni@@
avez-vous
retirer
So@@
bataille
critiques
constamment
Is@@
1000
EL@@
Cliquez
territoires
Parfois
van@@
George
explo@@
Rapport
secrétaire
frères
libres
ris
annuelle
isent
jus
motifs
bruit
enc@@
`@@
vraie
africaine
isant
économies
modes
désir
essentiellement
Gi@@
appuyer
traduction
parcours
alistes
jeudi
OR@@
pensent
rechange
Rem@@
ga
formule
alisée
ji@@
agences
classement
ters
Nor@@
prati@@
actuelles
football
faibles
t.com
72
parole
ey@@
USA
Ci@@
canal
ke@@
laser
présentent
Vos
hor@@
écou@@
Nu@@
ec
autorisés
net
ama
accessibles
communautaires
immigration
diamètre
discussions
décider
exige
bor@@
61
Travail
Ko@@
identification
contributions
profit
fini
ini
étendue
victoire
chances
appels
plats
revue
garçon
Bre@@
SC@@
ministres
indépendante
MP@@
NE@@
majeure
moteurs
Carte
1994
pertinentes
sac@@
66
rier
venus
end
mercredi
mil@@
module
pourtant
Mont@@
Mas@@
deviennent
ière
Sac
ailles
crime
concert
press@@
uns
ur
contribue
forum
prestations
mettant
communs
fai@@
devrez
pourcentage
GI@@
bouteille
ME
calcul
9.@@
cons@@
Chi@@
San@@
DO@@
samedi
ary
quée
die
libération
cardiaque
chefs
Cro@@
BA@@
indépendance
paroles
rer
Sy@@
robe
institution
cit@@
contrats
ra@@
publiée
&lt;
Dès
dessin
Sw@@
fermé
Prévision
isées
Santa
contacts
yn@@
émission
onner
extr@@
présentes
Commerce
21@@
Beach
montagnes
culturelle
constante
substance
explorer
auto@@
lumières
za
îles
évaluations
Jusqu
effectuée
capables
99@@
cho@@
hydro@@
frein
rappeler
bio@@
configuration
déclare
applicables
Parti
conclusion
Avis
recettes
mentionné
génère
prévues
Bro@@
demi-@@
termin@@
min
cer
ver
maître
rant
X-@@
âgées
5,@@
positive
CD@@
tomber
gratuits
Street
Fin@@
placé
dimensions
bibliothèque
Robert
initi@@
interface
nationalité
DES
réfrigérateur
trimestre
zz@@
New@@
qui@@
accepté
conforme
révélé
battre
lampe
journal
rest@@
teneur
e-mail
sérieux
stable
rendez-vous
couches
industrielle
fournies
limité
raisonnable
colonne
civils
commis
claire
syn@@
navigation
Liens
abus
Str@@
enf@@
élection
laissé
tor
caoutchouc
ement@@
art@@
humidité
ture
blog
produisent
écrits
din@@
Luxembourg
p.
collègues
app@@
révél@@
attend
pér@@
rues
62
67
sch@@
te-@@
essayé
Un@@
investir
réparation
63
échantillon
passagers
fondé
Secrétaire
Car
Eglise
quelconque
compose
tan@@
ings
furent
implique
album
joie
américaines
Bus
compatible
positions
relatifs
West
enfance
Voilà
centre-ville
épaisseur
fermeture
ades
Congrès
incidence
programmation
ports
partis
ouverts
déplacer
judiciaire
Ku@@
Ham@@
ous
global
apparence
Mo
essentiels
​
log@@
connus
Bateaux
aimé
veille
jeunesse
Fer@@
semblent
industriel
atis@@
Wal@@
voyages
golf
exportations
oli@@
Ferme
tra
réforme
arrêté
aill@@
Whois
aurais
46@@
pompe
satellite
Machine
introduction
cité
contenus
Spécialisé
68
Ban@@
présentant
burg
eb@@
Ste@@
AL
conn@@
violation
ts@@
som@@
détection
apporte
bonheur
pay@@
champs
Eh
titres
acides
aimerais
composés
uniques
oubliez
menée
créée
division
exprimer
éventail
→
considère
ena
Sim@@
intégrer
ises
son@@
bil@@
pouces
Louis
périodes
Berlin
ack
documentation
Nouvelle
portefeuille
clientèle
servi
Tribunal
Description
í@@
compar@@
résidents
tables
destinés
détermination
Sell
Jean-@@
spécialement
Malheureusement
ément
dy
Dem@@
perspective
Iguana
situés
ö@@
employeur
ction
universités
alo@@
exercer
Aux
retrouver
veiller
essence
Pologne
Étiqueté
ko@@
dates
pluie
tradition
Des@@
continent
int
transformer
MAR@@
Irak
prê@@
rons
poissons
ee
réussite
camp
histoires
TION
conclusions
réalis@@
attente
procès
habitude
Pays
ly
On@@
enseignants
Cli@@
dites
mét@@
mesurer
sélectionner
Congo
DVD
field
préoccupations
MS@@
appartient
Charles
har@@
interdit
publications
tiennent
Do@@
rares
représentation
industries
océan
fibre
connaît
39@@
chang@@
ond@@
ker
Fédération
tou@@
M-@@
régionale
satisfaction
TR@@
passion
conducteur
trou@@
utilis@@
Monde
DA
way
toit
mardi
séance
Sony
aident
journalistes
manager
92
oublier
cen@@
fournie
approuvé
--
disposent
résolu
nés
lég@@
écouter
considérer
quantités
serv@@
TH@@
Dou@@
choisissez
recherchez
souris
mourir
del@@
titulaire
défendre
leadership
Los
re-@@
conversion
biologique
interprétation
Ho@@
bijoux
zi@@
k.com
privées
d-@@
mettent
Martin
Norvège
ita
adulte
actuels
ger@@
causer
passant
Point
phénomène
intégrité
cel@@
stations
exercices
majeur
Top
ach
pati@@
personnalisé
significative
QUE
FC
espagnol
allait
élimination
Américains
tage
onné
hé@@
entente
indiquer
90@@
Air@@
portent
religieux
Sur@@
eri@@
voulu
terroristes
gel
qués
gagné
Lam@@
AB@@
Genève
Portugal
ini@@
fabriqué
commencent
permanente
tué
garage
Ren@@
né@@
profonde
sortes
Première
6,@@
remise
collec@@
attentes
comparaison
expansion
exécutif
Direction
notes
inclut
96
Table
potentiels
aur@@
tailles
apo@@
continuent
délais
atteinte
pain
1992
indicateurs
concentrer
musulmans
plages
recommandons
cuisson
e-t-il
barre
fournissent
Vol@@
revêtement
expédition
destruction
répondu
nous-mêmes
mécanique
croy@@
calendrier
tures
lement
parl@@
EUR
88@@
Forum
transactions
versions
condam@@
venez
contenues
devront
illi@@
prét@@
présentée
Sécurité
tra@@
Politique
souligne
signature
pertes
laver
extension
super
veill@@
prière
environnementale
stratégiques
contre@@
confi@@
remboursement
âgés
Ke@@
parvenir
engager
charges
réputation
Aussi
obligatoire
acteur
itaire
symbole
ty
47@@
eure
Trois
offert
den@@
ess
liaison
.exe
ame
invité
relatif
pollution
aérienne
lier
Bay
Euro@@
muscles
placer
dées
primaire
pensées
Net@@
chrétiens
AF@@
RE
EC@@
intégrée
peint
bour@@
gam@@
copyright
préalable
forêts
fou@@
spécialisés
beaux
cos@@
CC
individu
rappelle
candidat
Hor@@
transmettre
débit
engagements
sem@@
faux
douce
appliquent
Mode
traditionnelle
trom@@
victime
environs
offerts
château
ica
Sous
taxe
cuivre
équipé
nez
vécu
pres@@
obstacles
légère
retourner
originale
ow@@
erg@@
assis
viens
graphie
1993
lam
Caractéristiques
industriels
Colombie-Britannique
plafond
Accord
soutient
HO@@
Sport
tionn@@
intellectuelle
transparence
vr@@
gras
ticket
Robes
arabe
ordinateurs
souhaitent
Pourtant
éventuelles
observations
humanitaire
Photo
57@@
CI
présent@@
Partie
informé
poli@@
reprises
difficulté
tisme
protocole
proposent
nettoyer
alités
HP
DU
mé
err@@
contribué
SS
parti@@
blessures
Suède
cation
directives
réduite
loc@@
prestation
navire
Bon@@
navires
développe
PS
Maroc
profondément
Cat@@
bloc
dormir
constitu@@
Dr@@
fre@@
prévisions
vieille
go
A.
Peu
usure
SU@@
ouv@@
ab
caractéristique
excellence
occupe
tre@@
sé
Boîte
souhai@@
cus
bancaire
spécialistes
Port
démarrer
acquérir
voudrais
évidence
Activités
essayez
om
vir@@
manifestations
Thomas
scolaire
indices
cale
euro
trouvez
diplôme
ouvertes
fondamentaux
L-@@
japonais
vapeur
boîtier
idéale
uti@@
ignor@@
Puis-je
eté
culturelles
Pré@@
oire
posé
conçus
théâtre
Dom@@
caractérisé
éthique
oubli@@
SP@@
sec
voyageurs
eff@@
ès
SM@@
labels
déclarations
dépression
ressemble
appr@@
respectivement
Environnement
activement
IS
chute
Département
signification
Gal@@
cien
can
diminution
Lin@@
exportation
Pacifique
cc
AG@@
Ed@@
défini
Cré@@
sacs
acquis
ciens
ett@@
gne
500@@
enregistrer
panneaux
gén@@
dimension
officielles
chansons
ff
inspection
déplacement
apparaissent
restauration
revendication
As@@
FR
trou
régler
House
Dor@@
hal@@
communi@@
normalement
sort
WE@@
Ger@@
hol@@
rie
dev@@
ft
Obama
revendications
Vêtements
graines
fans
alisés
offrons
Musique
Fl@@
chi
PAR@@
Gestion
logements
poignée
manches
Déclaration
listes
bactéries
comp@@
Prenez
dîner
signaux
fleur
c.com
American
chronique
Alberta
Barcelone
Paroles
Cuir
neuro@@
Se
Besoin
Sar@@
précédemment
rapides
photographie
soutenu
arrê@@
.fr
pensé
fenêtres
jambes
réservoir
chaînes
fruit
gouvernementales
Peter
durables
collabor@@
91
dy@@
UNESCO
ick@@
embr@@
étern@@
solides
migrants
sélectionné
préparé
Vert
93
générations
logo
sourire
ceux-ci
Juifs
tir
Pol@@
paire
Ensemble
rare
constitué
élaborer
pp@@
provoquer
tait
q
motiv@@
PC@@
Cham@@
constaté
puissiez
Bible
enquêtes
proposons
attirer
considérés
Faire
cadeaux
préserver
chômage
retrait
intervenants
Cour@@
gri@@
Kong
récupérer
post@@
St-@@
Al
voy@@
nucléaires
conf@@
dirigé
Group
ave
atoires
existent
bateaux
web@@
Coupe
AN
externes
intelligence
aperçu
ONG
étroite
hyper@@
continu
pur
graisse
représenté
Pan@@
aidé
ham
enjeux
observer
éprouv@@
danse
Histoire
aya
lie
retard
èse
IR@@
voient
bel@@
aventure
viv@@
Madrid
étions
étique
t-il
rait
utilisons
dé
Hy@@
joint
lumineux
eur@@
FE@@
itaires
hab@@
Sorties
ind@@
Mil@@
servent
chés
impliqué
réflexion
Famille
opér@@
infections
sw@@
ép@@
verser
iller
rejoint
arri@@
formations
merci
.de
régionaux
appel@@
continu@@
applicable
itation
observation
sent@@
associations
our
exc@@
69
bre@@
soumettre
recommande
surveiller
88
Premières
bel
compétition
couvrir
échéant
Sil@@
nécessairement
prenant
détachées
alternative
lot
productivité
pré-@@
assurez-vous
accrue
Ram@@
forts
cyber@@
esti@@
établie
tente
causés
sain@@
visibles
personnages
ose
ation@@
onde
tier
rac@@
échantillons
couper
Mari@@
testaments
entrées
AUX
71
fondateur
occuper
modifié
tiroir
1991
aque
St
atiques
assass@@
pratiquement
dirig@@
chev@@
94
partenariats
PR@@
Ir@@
sanctions
perspectives
colère
ing.com
adaptation
hôtes
1,5
dessous
retourn@@
z-@@
islamique
disant
saine
officiellement
rég@@
coordonnées
exclusivement
issez
Joseph
B-@@
Sports
ST
rembour@@
marcher
plainte
atteints
voisins
Journée
Design
artistique
pren@@
entretenir
invite
més
ez-le
10.@@
situe
sensibles
jugement
susceptible
Hong
oreilles
e.@@
Pagerank
MS
ino@@
touristique
als
EX@@
mol@@
spectacle
vez
arch@@
reg@@
97
satisfaire
sentiments
régionales
afficher
maîtrise
po
by@@
Introduction
visa
adhésion
préféré
siècles
Center
appliqué
86
nomination
directrices
proviennent
courants
çons
sacri@@
Meilleurs
Indi@@
montage
F-@@
précieux
ella
édi@@
201@@
états
démocr@@
gé
climatisation
rêves
arme
Mes
immeuble
300@@
foie
Chez
cule
bur@@
studio
conversation
700
fonctionnaires
Autriche
plaques
Ter@@
négociation
1980
Bat@@
ordinaire
confirmé
Numéro
Archives
venue
capteur
thérapie
thèmes
S.@@
incluant
Gen@@
week-end
pul@@
ologiques
Hommes
organe
inflammation
le-@@
Oc@@
pouvaient
évident
ake
ends
apa@@
wi@@
fixé
2.0
puis-je
oth@@
corruption
certification
onique
lav@@
aimer
fie
appliquée
roy@@
Royal
XI@@
Entre
oxygène
Ki@@
ign@@
mati@@
largeur
301
enceinte
richesse
témoins
wood
cérémonie
Alexa
magnétique
influ@@
régimes
82
ani
employeurs
Twitter
voire
cannabis
ador@@
Donald
analyser
Piscine
canaux
froide
toile
amor@@
Sav@@
appropriées
dizaines
naturellement
rassembl@@
dues
poche
TC
exig@@
tiendra
cep@@
dent
Recommandé
Bon
endre
attentivement
ordonnance
Cap@@
ax
évidemment
conc@@
mit@@
Constitution
technologique
chirurgie
métaux
enter
totalité
lent
moindre
out@@
festival
Vill@@
pel@@
concentr@@
traditionnel
délégation
Bri@@
indi@@
conçue
professionnelles
Fre@@
vin@@
Gris
drogue
vétérinaires
Aéroport
cellule
affili@@
ologue
Star
fréquents
ministères
organisée
mille
8,@@
détention
er.com
mi-@@
faciles
ader
séjourner
EL
nom@@
sons
sports
chem@@
ress@@
pommes
Van
personnage
bébés
hier
QC
accro@@
ars
soigneusement
courrier
gie
précédentes
jouent
Moscou
sses
conférences
entend
Organ@@
habit@@
optimale
assu@@
2021
AC
mac@@
débarrasser
marine
futures
sign@@
77
restrictions
Films
avi@@
spécialisé
81
Utilisation
chasse
analyses
Compte
détru@@
technologiques
Cuisine
vins
sain
pierres
9,@@
dia
prot@@
familiariser
tourn@@
engagé
intégrante
cadres
maritime
déterminée
verte
filtres
textes
Fils
estimé
ensi@@
couloir
routière
id
présentés
concernés
échec
110
87
transaction
micro-ondes
chinoise
sure
ack@@
tru@@
arrêts
moyennes
récupération
indiquant
Assurez-vous
La@@
analy@@
dév@@
générer
lar@@
Texas
top
fortes
éco@@
Mac
repose
Jérusalem
traditionnels
DS
tribunaux
piste
Nombre
lt@@
psych@@
North
faudra
Station
sûre
céramique
Suite
imprimer
89
divisé
toilette
extrême
récentes
biologiques
puisqu
74
colon@@
répondent
entité
discu@@
py@@
connaissent
ore
air@@
touristiques
gen@@
huiles
prête
audience
t-on
Galaxy
mondiaux
subi
Ministre
mann
email
déclar@@
rechercher
classes
interventions
ao@@
itée
suprême
révision
existants
connexes
réserves
trice
payé
mine
honor@@
ari
Pap@@
tal@@
tue
venant
vitamines
Ty@@
modalités
78
lib@@
accélérer
Justice
spécifiquement
vulnérables
menées
Mur@@
initiale
héros
fondation
écriture
reconnaiss@@
Ly@@
iz@@
fa@@
travaillant
tran@@
ill
Vancouver
emment
su
riz
culturels
profession
directs
équitable
hésitez
indépendants
profond
oit
55@@
métallique
67@@
a.@@
extrait
toucher
libér@@
Lou@@
destinée
traitées
Gaza
engage
Acier
égale
Mars
Max
préc@@
commissaire
76
indiquent
Festival
positifs
Immigration
XL
ive
Sun@@
han@@
blancs
rotation
élu
Néanmoins
Shi@@
progressivement
lever
faim
coll@@
Rou@@
fran@@
aci@@
mari@@
éti@@
négoci@@
quez
othérapie
et-@@
catalogue
sin@@
eant
semi-@@
visitez
radio@@
rendent
issue
enlever
Ét@@
quées
effectivement
proph@@
lune
77@@
attitude
eraient
contrôles
quent
73
arti@@
ä@@
Tour
ez@@
Mir@@
mono@@
tour@@
étrangère
fixation
combattre
p.com
suggéré
composée
papiers
ball@@
spécialiste
vou@@
ération
armées
mée
dri@@
pâte
plas@@
asser
enseign@@
cou
dur@@
édu@@
racines
affecte
Offres
ô@@
intensité
actives
hypo@@
réactions
rouges
héritage
pun@@
PIB
bre
302
dém@@
miel
Haute
Dernières
mondiales
examiné
horaires
ingénierie
toilettes
corde
grammes
couvre
kh@@
commentaire
émotions
ET@@
Tim@@
anciennes
serre
reçoivent
Oh
OS
isez
Ros@@
sensibilisation
gars
amen@@
autrement
rédacteur
tourner
Annuaire
dépendance
Mel@@
décrites
Défense
vendeur
oires
élève
collective
ajou@@
Vietnam
endrait
priv@@
rang
fiée
if@@
tasse
garçons
futurs
ci-après
‑
dera
laissez
sénateur
connaiss@@
survie
vers@@
hautement
84
agriculteurs
après-midi
sèche
Maria
durabilité
soupe
individuelle
drogues
entraîne
lique
contribuent
rôles
Mad@@
ron
temporaire
expliqu@@
occupé
Chambres
entation
nutri@@
Région
lev@@
touristes
cales
Mini
relever
intégrés
solidarité
33@@
tapis
ètes
cheval
expositions
Tissu
onnement
détruire
en-tête
ours
indice
personnalité
directrice
plac@@
paroi
importation
Cre@@
TRA@@
vari@@
oo@@
énergies
Palestiniens
vouloir
expert
monter
consultez
chargée
unies
sur-@@
atteintes
Héritage
Master
x.com
perm@@
tion@@
ison
mi
cherchent
part@@
écoute
associées
Rank
pot
Afghanistan
vice-président
clo@@
NA@@
se-@@
Supprimer
adolescents
ester
fri@@
Ltd
ession
égal
travaill@@
intéressé
R-@@
83
proc@@
là-bas
riv@@
universel
tionnelles
repos
pilotes
revanche
hauts
constituer
considération
classé
Protection
reconnaît
miroir
croit
S.
poursuit
poussière
LL@@
Kh@@
plu@@
Jam@@
décrire
réussir
fas@@
vendu
signifi@@
François
entrepreneurs
Généalogie
universitaire
environnementaux
ien
mène
pa
réparer
WC
ret@@
col
180
tiv@@
porte-parole
aim@@
écrite
MB@@
densité
entités
AV@@
aériennes
assi@@
appréci@@
lendemain
aille
tol@@
reur
flu@@
suspension
améliore
DR
morceaux
retrouve
cules
députés
monétaire
tabac
économ@@
demand@@
posant
ado
italien
définis
donnera
Vo@@
FAQ
empêche
Business
Rien
sensible
bénéfices
ambi@@
africains
nor@@
spiritu@@
tent@@
32@@
séparation
occasions
écart
avancées
s.@@
exécuter
doc@@
appelés
assister
post-@@
serons
appro@@
dispar@@
surfaces
bandes
éro@@
div@@
déclen@@
partiel
Studio
justifi@@
construite
accepte
ures
heureuse
charbon
provenance
agré@@
accomplir
68@@
ayez
qualités
Conn@@
indispensable
É
sive
provoque
équ@@
appropriés
masque
améliorations
mag@@
étudi@@
IA
sif
chée
HTTP
photo@@
Cer@@
Hot
mique
orange
exprimé
liques
ling
Période
loisirs
définitivement
Mah@@
tis
injection
cesse
contemporain
classiques
migr@@
milliard
7,@@
fusion
û@@
lucratif
emp@@
révèle
Dar@@
roues
incendie
assuré
minéraux
ennemi
mont
ns
Pat@@
Date
mot@@
nov@@
fus@@
ku@@
Hel@@
trains
effectués
ov
autonome
accueille
race
estomac
parcs
respec@@
fe@@
hum@@
accep@@
Gro@@
montr@@
William
G-@@
urbain
stationnement
Golf
participant
quête
croient
Pon@@
leaders
LU@@
produc@@
lunettes
icône
appartenant
allemande
In
issons
créés
carton
compr@@
proportion
esclav@@
eons
écologique
dess@@
tige
Sa@@
zéro
ws
suppression
Kit
ajoutée
trices
ste
ó@@
1989
consultations
maintenance
admis
cheminée
cau@@
auté
existantes
oul@@
Pas@@
réalisées
malade
confirmer
crédits
MC
Durant
itant
animé
tt@@
SH@@
ick
hou@@
fonctionnalité
bol@@
ator
connues
essaie
exécu@@
Thaïlande
équivalent
détecter
présidence
écri@@
individuels
compléter
batt@@
prochains
ands
opinions
Mol@@
hébergements
.ca
District
génétique
RC
ateliers
ray@@
finances
honorable
connais
prévus
immunitaire
aéroports
terminer
10-@@
Demande
ile
rarement
cherch@@
ry@@
poursuite
rempli
obtenus
Sénat
Dev@@
brevet
Arabie
all
olo@@
tuyau
mp@@
accorder
librement
vit@@
philosophie
École
mérite
carrés
hér@@
supérieures
identifi@@
encre
coûte
Matériel
gues
Soleil
120@@
déroul@@
HD@@
souvenir
Secrétariat
téléphones
fluide
audi@@
réformes
ut
CL@@
oi
bilité
fourniture
tentative
King
subcat
oblig@@
lon@@
dité
oie
trous
Atlantique
Stu@@
courage
pouvais
Cy@@
horaire
effectue
lut@@
impressionn@@
allu@@
engagés
ics
Argent
Restaurant
arabes
saint
Cadre
randonnée
fromage
catholique
revient
140
ky@@
Costa
BMW
démontré
imprimé
cercle
imaginer
introduit
sections
fabriqués
comparateur
présentées
ney
up
réalisations
recommandation
croissante
sais@@
trouvées
géographique
bit@@
chocolat
rig@@
tus
ji
fiers
interdiction
sinon
cellulaire
ona
Fe@@
quitté
Lake
Op@@
Lav@@
disait
Vidéo
détendre
cinquième
Effacer
tin
Grande-Bretagne
résultant
créativité
isse
consult@@
Déc@@
éventuellement
auxquelles
régulière
eil
tienne
ADN
pourr@@
anim@@
itent
regarde
produite
£
conservé
flexible
économiser
ple
1970
mousse
tester
smartphone
lentement
ner@@
suivez
démarrage
adoptée
Nike
chré@@
prévoir
violations
Moi
calories
mauvaises
eni@@
aiss@@
montres
boisson
valoir
tend@@
nutrition
Super@@
pousser
ID
Être
asile
h00
front
Eu@@
apparaître
coins
figures
lave-vaisselle
concevoir
Ceux
portés
Parc
collectivité
arrivent
extraordinaire
paquet
Al-@@
Exemple
Alliance
Daniel
Sainte-@@
dite
ater
Petit
appren@@
athlètes
TI
résistant
élégant
INE
illage
Jeu
environnementales
génie
Essayez
bourse
handicapées
guérison
Pay@@
proposés
composant
préférences
corrections
taxes
Vétérinaires
c-@@
troupes
sul@@
vallée
consommateur
les@@
Island
oreille
couvercle
OTAN
déposé
garantit
tir@@
sièges
hôte
œufs
autonomie
suffisant
décide
conjoint
gravité
étudié
civil
subventions
CS
ro
approches
intitulé
donnés
remporté
lis
Ford
eck
palais
Peinture
supérieurs
fréquemment
imag@@
Richard
idé@@
Han@@
Unis
exposé
silence
roue
Charte
Réseau
versé
généraux
intéresse
lor@@
suivent
verrez
.name
remettre
UI@@
jardins
Outre
amoureux
Ce@@
rencontr@@
joindre
éloign@@
sensation
intéressés
sélectionnez
Lampe
Boutique
stimul@@
anie
réfléch@@
plan@@
ote
cieux
Lau@@
Double
incident
tation
fonctionnent
attendent
One
PVC
parlementaire
CAR@@
représenter
provient
juifs
étiquette
ther@@
affecter
lab@@
aban@@
az
aises
the@@
inst@@
baie
lé
savais
conclure
recette
démarche
Anti@@
Vérifiez
GA@@
fli@@
plaintes
St.
Et@@
bière
ap
destinations
temple
Force
Téléphone
Hal@@
ero
future
apporté
~
chaise
serai
regardez
eut
eries
BR@@
Super
AG
métier
correct
Az@@
foncé
enregistrés
traditionnelles
investi@@
dl@@
rencontres
Arts
formés
Plu@@
iqu@@
Nouveau-Brunswick
attaqu@@
détaillée
étages
suffisante
noté
Tar@@
sembl@@
blement
Client
lac@@
ombre
eo
TO
allé
producteur
appuie
phot@@
gou@@
stimuler
illa
79
détenus
ois@@
médicales
fumée
refusé
béton
Lui
entré
ennemis
plateau
Européenne
échanger
accusé
district
considérable
rav@@
ection
adaptée
gol@@
comportements
Tom@@
immobilières
Ca@@
pris@@
inclu@@
merveilleux
finition
confron@@
Marie-@@
Étant
is-@@
cru@@
satisfait
journ@@
fiabilité
nager
Blue
dépasse
Bienvenue
rayons
isi@@
consommer
Lim@@
fournissant
pensons
anger
ols
recrutement
liquides
fixer
command@@
Pin@@
particulières
130
canapé
University
envoi
CU@@
annulation
souvenirs
Royaume
ING
explor@@
député
étendre
vac@@
Accès
habitudes
,5
noix
boucle
Bir@@
suiv@@
nerveux
occupation
synthèse
eli@@
Produit
vingt
chant@@
GmbH
jeter
Victoria
interaction
négatif
pil@@
visée
asse
constat@@
Philips
OMS
ea
EUROPAGES
path@@
demandeur
finir
universelle
Lumière
espérons
ste@@
Lawyertys
références
Mou@@
répartition
placement
morale
résumé
mobil@@
réglement@@
refus@@
organique
russes
mètre
gène
éré
bo
moi-même
Tro@@
terait
récent
adaptés
euro@@
sportif
souligner
160
adap@@
Lan@@
sen
Premium
Images
produ@@
Conditions
sse
montée
sombre
350
bénéfice
cryp@@
ager
inée
PD@@
métro
ory
Tags
Fort
viendra
charme
intelligent
musul@@
Côte
Rec@@
définit
supplément
Télé@@
instance
numéros
savait
prendra
199@@
baignoire
pli@@
situées
portrait
Sand@@
décennie
prévision
sique
vieillissement
jouets
ANT
déb@@
opérateurs
fi
quit@@
impéri@@
Est@@
file
aérien
propor@@
entrepôt
Choisissez
nation@@
concernent
avancer
sols
fit
vera
existant
Nouvelles
Ressources
établit
pas@@
DI
Win@@
impôts
recherchés
villages
The@@
déploiement
Red
continué
ïdes
ambiance
secrets
Pou@@
petit-déjeuner
Tom
destinées
Projet
recueillir
lle
at-@@
est-elle
développés
Général
estim@@
Mark
financer
ran@@
répercussions
requise
amment
salaires
Égypte
odeur
passent
Online
étend
livré
oeil
prim@@
Luminaires
Lyon
360
tradu@@
saisir
itu@@
accidents
établies
ash
néanmoins
ano@@
mariée
Réservez
proposée
témoin
gènes
auto
secours
çant
atu@@
Cours
maire
tenus
DS@@
incar@@
définie
royale
publiées
Sciences
blé
CH
diminuer
brevets
protège
envisager
line
conscient
posent
rémunération
GO@@
Achetez
obtenez
autorisée
xi@@
ots
réfléchir
contre-@@
centrales
eth@@
NE
procédés
refuse
contrac@@
esses
War@@
variétés
gagn@@
ms
eux-@@
t-elle
mus@@
Meilleur
Manitoba
consacré
guides
rement
score
religieuse
IN
connaissez
enrich@@
lavage
conseillé
Conseils
glis@@
intense
inés
ressort
hôpitaux
célèbres
tar@@
bouteilles
parallèle
adjoint
attractions
SC
renseignement
reflète
Administration
pension
dépasser
possèdent
inspiration
lisse
feront
devenus
visités
White
encourage
Don@@
dignité
Parties
seules
établis
codes
Autre
Series
lecteurs
refuser
remis
Multi@@
Global
succ@@
May@@
couvert
gran@@
Sin@@
ent-@@
rage
répertoire
Wil@@
PME
Amazon
remercier
chement
déposer
tern@@
School
constitution
proposées
Angeles
favorable
Star@@
massage
qualifié
Tam@@
anticip@@
star
eh@@
outi@@
superbe
West@@
Sor@@
Ali@@
header
Milan
Bibliothèque
D.
affi@@
34@@
ros@@
gouverneur
anges
com
recherchent
four@@
cibles
foyer
001
avancée
publi@@
dat@@
disparu
Dun@@
omie
hospit@@
permettront
bourg
HI@@
Danemark
inutile
chauff@@
participe
marins
mères
rot@@
75@@
concernées
125
étroitement
Tre@@
Profitez
examin@@
ronde
continuera
ord
BA
C.@@
ressource
bénéficie
JO@@
sensibilité
forment
reconnue
acheteur
arn@@
pens@@
littérature
poitrine
tionnelle
limitées
plancher
ón
morceau
TER@@
seuil
universitaires
Co.
attaquer
domestiques
observé
musées
Pom@@
Big
prouver
IV
quali@@
voyons
Ligne
ault
poulet
mo
amener
sexuelles
monté
antique
campagnes
visi@@
brû@@
alisées
religieuses
dessins
sexuels
tournée
ic
libérer
B.
Haïti
parent
Cin@@
étoile
publier
inverse
gile
collaborateurs
serveurs
cide
détaillées
EC
Green
suggère
Routes
Portrait
obtient
ae
GR@@
ïde
manières
dépend@@
vel@@
Série
journaliste
courir
reven@@
sk
ampleur
milli@@
opérateur
royaume
demandent
disposer
Amsterdam
Web@@
Jack
exposés
devaient
LG
dollar
mand@@
immense
teront
Je@@
Smith
syndrome
ceinture
fantastique
informatiques
Méditerranée
bassin
Mise
extérieures
agissant
side
Fil@@
hi
900
transférer
individuel
suivie
notification
el-@@
bars
fais@@
herbes
pin
top@@
400@@
ds@@
GE@@
z.com
tenter
manifestation
marqué
versement
anglaise
ora
tennis
12.@@
J.
ajout
alentours
adres@@
exigence
entre@@
Tou@@
yu@@
potentiellement
zo@@
pistes
transmis
1988
stein
surpris
ish@@
essi@@
dénon@@
aie
gestionnaires
pressions
Mus@@
gouvernementaux
passée
originales
FR@@
que@@
struc@@
publiés
créant
optimis@@
ores
mortalité
w.com
modules
dépit
reproduction
TES
racon@@
montrant
ky
itude
Franc@@
optimiser
VER@@
pin@@
Not@@
Link
aut
agissait
2.
ménagers
sensiblement
sauvegarde
Gre@@
traduit
souffrant
Der@@
mental
tiss@@
exploiter
éditeur
assemblée
Kal@@
africain
Gratuit
senti@@
fiables
laissant
Catégories
devi@@
artificielle
Qualité
Men@@
séances
SI
FO@@
union
concepts
coû@@
pac@@
endront
vendus
agu@@
abr@@
BE@@
lues
gée
régulier
odi@@
atie
aménagement
surprise
foule
vant
cosmétiques
65@@
Ben
mettons
heim
Kam@@
Neu@@
miles
Beau@@
TS@@
chats
amie
Nature
obtention
bul@@
infraction
partagé
formant
cid@@
Syn@@
effor@@
Tru@@
organis@@
sec@@
CEE
voler
excès
spécialisée
radiodiffusion
remarquer
installés
PH@@
Michel
inqui@@
Gri@@
Tableau
pol@@
fallait
expériment@@
repérer
vague
épouse
Roumanie
conven@@
traditions
mince
signer
précoce
apport
dédié
gestionnaire
syndicats
blocs
temp@@
kit
demandez
vocation
annoncer
agissent
causé
ardi@@
fondamentale
anda
émis
tivité
ongles
RÉ@@
alliés
tchèque
boutons
doigts
examens
souffrent
fermer
Historique
renouvelables
idi@@
Dan@@
noirs
visibilité
fiscale
mettez
ménages
douleurs
abri
ration
progresser
AVEC
hall
Log@@
virtuel
participent
admissibles
Met@@
obé@@
nique
DÉ@@
boucles
confirme
Las
ere
tine
travaillons
conformes
exceptionnelle
qualifiés
fédéraux
jug@@
Nav@@
accueill@@
king
brut
puissante
CT
Sacs
promenade
Pikbest
Est-il
audit
suisse
écl@@
quet
2,5
vement
italienne
UR
Hum@@
Ven@@
fondamental
Mid@@
Power
anxiété
MON@@
verts
Seconde
clôture
lig@@
créative
Ur@@
célébrer
précises
juges
rurales
OCDE
Actuellement
VO@@
12-@@
juif
démontrer
mes@@
lèvres
Liban
Commentaires
Hongrie
journaux
valide
surveill@@
uniforme
sélectionnés
http
décor
á
Finlande
féminin
avancé
ello
reprise
ascenseur
rép@@
tionnels
pertinents
potable
Quant
localisation
imposer
Dal@@
précisé
Voyage
Pres@@
B2B
amitié
land@@
celles-ci
Tunisia
compos@@
remarquable
fron@@
Prince
diver@@
parfum
Articles
dan@@
initial
confirmation
réglementaires
convaincu
ments
Bell
E.
bres
zh@@
tensions
mass@@
mathématiques
activ@@
Livre
galerie
expul@@
1960
tics
artérielle
ties
gaz@@
Bol@@
omètre
set
croyons
facilité
visé
accordée
emprun@@
Contr@@
soviétique
noyau
Lab@@
sant
attendu
classification
dro@@
oti@@
Radio
pourrais
Environ
sci@@
salariés
indépendamment
convertir
préfér@@
choc
particip@@
Fran@@
Encore
commun@@
Rock@@
statistique
latine
debout
transform@@
aki
Som@@
accordé
fine
progression
désigné
espér@@
affir@@
consultatif
humide
collections
ald
passi@@
Company
prenantes
Civil
vérifi@@
san@@
terrains
impliqués
duquel
spa@@
survivre
estation
ex-@@
ym@@
perception
issus
comités
bénéficient
lé@@
fournira
Huile
Ol@@
mineurs
DR@@
talents
humeur
spirituelle
IT
actu@@
possession
aideront
Ess@@
anneau
coûteux
fascin@@
Outils
finance
Conformément
itées
bourses
sagesse
oise
èrement
patience
Times
Sélectionnez
suppose
britanniques
individuelles
chaises
requises
marge
sit@@
mili@@
hygiène
MB
Trésor
constater
East
xe
acceptation
varie
USD
cuillère
hydraulique
Équipe
tarif
MM
migration
tro
Anglais
occidentale
citoyen
Chicago
acier-inoxydable-boitier
importations
CT@@
institut
Tal@@
TER
ladite
pape
favorise
-S@@
Orange
pure
ament
terroriste
harmonie
inaire
ingénieurs
pathie
Château
ez-@@
douze
low
figurant
la@@
mini
observ@@
Os@@
LS
chargement
fréqu@@
litres
quartiers
AS
SN@@
Cop@@
diffèrent
sage
Fon@@
iPad
ajoutant
accumul@@
magazine
occup@@
branche
doses
Inn
sauvage
acheteurs
mécaniques
usines
moto
Pénal
télécommunications
iteur
taire
main@@
record
adresses
ith@@
TU@@
Hi@@
encontre
arrête
balle
Pre@@
1985
oublié
immédiate
gel@@
plateformes
locations
thi@@
PL@@
Autorité
Corporation
buts
croissant
Casa
sécurisé
Rob@@
Caroline
chent
haine
fasse
exploration
diminué
surmonter
matique
faute
formée
puissants
organiques
présidente
terminée
confortables
leçons
mémor@@
contraintes
chargés
Verre
comparer
illustration
pit@@
Hôpital
sondage
CO2
maux
bran@@
manqu@@
semblable
trouble
multi-@@
musculaire
grav@@
scolaires
hautes
che-@@
autor@@
séparément
ont-ils
trop@@
variante
herbe
indicateur
météorologiques
industrielles
volontaire
Lor@@
AM
étr@@
confér@@
garanties
ein
chlor@@
inées
malheureusement
he
nécessitent
vaisseaux
Journal
out
TP
identifié
positives
préoccup@@
cir@@
tron@@
SK@@
ondes
meurtre
CP
Robe
administratives
démographiques
Province
étrange
personnellement
condi@@
UV
commercialisation
1987
indication
omes
Quoi
anne
visés
environnements
lance
enté
directions
Black@@
ate@@
logistique
candidature
pensais
significations
accor@@
asseoir
Photographie
complètes
complexité
définitions
lic@@
anni@@
bert
ènes
A.@@
complémentaires
Pakistan
divertissement
flexibilité
Ak@@
Ori@@
prisonniers
ultime
exerce
consci@@
Forces
Egypte
armés
FM
enceintes
sorti
varier
chen@@
tic
longs
transparent
témoignage
Cur@@
Rio
fiés
visent
und@@
phrases
dil@@
Pa@@
dra
Sho@@
vre
solaires
parlent
Divorces
modifiée
bol
préserv@@
gal@@
ri
1986
libertés
typique
Porto
réjou@@
relève
légale
vend@@
reprendre
estimations
fauteuil
réside
inaugu@@
atr@@
nourrir
prépar@@
paysages
variable
Singapour
tués
pcs
amusant
décrite
actionnaires
yer
Mot@@
Marc
courtes
empl@@
Palestine
objec@@
capteurs
c.
lat@@
Fri@@
Cab@@
chimie
comprise
Hom@@
ède
prie
négatifs
issante
11.@@
sauvages
Parking
stocker
capitaux
considérées
boîtes
sexuel
Vis@@
até
Pen@@
x-@@
GPS
AU
Isra@@
fraude
traitée
supermarché
cool
placés
Registre
bancaires
isolation
CB@@
maquillage
well
urbaine
Afficher
partiellement
ED@@
venait
licences
Finances
assurant
cogni@@
autoroutes
souff@@
phases
R.
graisses
ker@@
milieux
probabilité
hommage
styles
Modèles
inten@@
passeport
batteries
ps@@
maman
UM
trouv@@
franch@@
israélien
Haw@@
conseillons
pén@@
miques
Institute
notion
sorti@@
sme
nommée
détruit
crises
conclu@@
réglage
commerces
légales
rayonnement
scénario
séquence
News
fondamentales
simultanément
rit
atrices
sis
achetés
tab@@
facture
vas@@
ête
voile
trajets
South
gs
eta
appelant
physi@@
désert
Cemetery
engag@@
Nedgis
taches
alarme
diriger
Division
strictement
jury
184.168.221.@@
créatif
ination
UL@@
,@@
remplacé
différ@@
remplissage
compatibilité
atte@@
tenues
porte-@@
office
commander
aides
Francisco
MIN@@
féminine
tours
tionnel
camion
cia
Chacun
soie
Jacques
plani@@
ennu@@
0-@@
Sau@@
peintures
légal
age@@
ett
récepteur
entiel
biodiversité
rupture
œ@@
malades
déci@@
câbles
Bay@@
Vétérinaire
han
atti@@
préoccupation
ny
visées
Lev@@
Papiers
Kr@@
Watch
sen@@
conformer
racine
discipline
rend@@
promis
V-@@
astron@@
Ther@@
camping
neu@@
ye
accompagner
f-@@
interro@@
basés
ographie
accu@@
Mos@@
Peu@@
Ann@@
nutriments
Huawei
conten@@
Action
pratiquer
ech
pénale
Mobile
procur@@
Source
mar
poursuivi
Bour@@
érer
dépendent
Enfants
bi
tablette
souffrance
couples
allég@@
Argentine
mam@@
ouver@@
illu@@
AR
Juste
Blanche
légitime
musi@@
courante
torture
meur@@
Me
Pot@@
tap@@
Stratégie
sœur
Technologies
séries
combattants
1.
accompl@@
accompagné
pouss@@
ord@@
150@@
croix
apprécier
MENT
PP@@
personnaliser
Entretien
échapper
chrétienne
50.63.202.@@
lim@@
olive
semblait
protéine
cations
Ash@@
terminal
ories
Hill
visuel
abandonner
officiels
Madagascar
Ordre
voilà
onnements
réels
caractères
ruban
condamné
sépar@@
publicitaires
rir
contemporaine
me-@@
guerres
mir@@
ières
cal
invitation
vivons
menac@@
ern@@
roul@@
corriger
rapporté
complications
diagnosti@@
récolte
Ra@@
amateurs
ajustement
aug@@
visit@@
reau
dol@@
h30
minim@@
ressembl@@
ast
Bois
résine
absorption
clavier
demandeurs
imposition
Empire
enir
apprécié
revoir
compromis
confidenti@@
bis@@
sifs
doté
Indonésie
lée
ordres
demi
Jé@@
défaillance
Cloud
Bordeaux
admission
Près
confir@@
abor@@
Chatroulette
m.com
contrôleur
éb@@
épou@@
fiant
mail
la-@@
commencez
honn@@
prospérité
compatibles
Vit@@
ith
bleue
gains
vaccin
Photos
récents
superficie
mél@@
équipées
contract@@
instruction
administrateur
MM@@
policiers
évê@@
Nouvelle-@@
israélienne
cent@@
faudrait
tot@@
ries
test@@
Chef
Science
égyp@@
Wh@@
promesse
Fournisseur
liss@@
inclusion
chevaux
représent@@
relaxation
Personn@@
judiciaires
fatigue
Van@@
Py@@
Colombie
servant
Algérie
adaptées
DU@@
couteau
Yu@@
ag
cuire
faune
dér@@
Pack
Mère
cha
Lee
agi
hydrogène
Téléchargez
verse
budgétaire
barbecue
exclusion
Vin@@
esthétique
comprends
équité
Gl@@
visité
orale
Bitcoin
érique
dentaire
ationn@@
distinction
adéquate
découvrez
cé
LCD
al.com
domestique
yoga
intervenir
boutiques
plastiques
condu@@
pause
Auto@@
shi@@
imprimante
authentique
fam@@
basées
Audio
violences
magique
frapp@@
in-@@
Ant@@
sus
iers
view
apparait
calcium
Panasonic
drapeau
Road
intéressante
Music
favor@@
mentionnés
plongée
Droit
séparé
renouvellement
comté
exceptionnel
Saskatchewan
grippe
CAN@@
comportant
choisis
Micro@@
denti@@
supporter
révolutionnaire
expédi@@
lign@@
Manuels
réservé
Spéci@@
Dol@@
London
portion
discip@@
entend@@
convenu
reconnus
Marine
tim@@
essay@@
épreuve
collaborer
dangereuses
rire
cru
SW@@
Spi@@
innovations
GA
islam@@
ball
IL
gation
49@@
camps
Cuba
cident
domin@@
enseignant
alerte
fermée
lation
iteurs
Hall
fo@@
envoie
contribu@@
volontaires
Direc@@
Base
fiées
signaler
fal@@
trib@@
provinciaux
avère
fabriquer
abrite
Souvent
transferts
détermine
Nice
ok
look
Deuxième
Tel
prés@@
Adam
bénévoles
automobiles
conjointement
semblables
unis
oun@@
vill@@
bilan
dg@@
Comp@@
correspondent
dit-il
institu@@
blessés
Floride
néglig@@
assur@@
délicieux
Philippines
protégé
bénéficiaires
tenté
variations
silicone
marbre
approfondie
coupable
rangement
calculer
exacte
Suivre
interactions
ef
citron
amine
manifeste
apprendrez
concurrents
kin
plong@@
nier
CM@@
otte
ologues
phone
ame@@
Caraïbes
conducteurs
antibiotiques
Kenya
Pic@@
devises
Management
frag@@
puits
injec@@
métalliques
célébr@@
Store
fou
Soudan
commerci@@
municipalité
spécifications
CP@@
aga
encour@@
campus
Rock
nourr@@
ési@@
Application
permanence
élaboré
any@@
termine
compétitivité
inscrits
ettent
équipage
Son@@
Jour
émerg@@
déten@@
dirigeant
cop@@
Libye
sodium
vis-à-vis
Express
IE
loy@@
envah@@
Académie
Contactez-nous
visuelle
talent
erry
prépare
GN@@
métabolisme
bury
champignons
Nouvelle-Zélande
remarqué
gt@@
rendue
Salon
récompense
insectes
passés
vé
réglementaire
reçus
gorge
spatiale
branches
disques
CF@@
spa
quiconque
dommage
UNI@@
alier
terrestre
contin@@
ry
g.com
inflation
aspir@@
oss@@
Belle
tile
inconvénients
èmes
patri@@
Lever
dans@@
TÉ
régulation
College
bis
brillant
Ai@@
zu@@
habitat
précipitations
entraîné
intelligente
coups
Dam@@
nd
préjudice
perles
étiquettes
palestinien
cre@@
peupl@@
Bah@@
dévoil@@
variables
civilisation
mines
attent@@
grandement
impacts
Bar
sessions
bach
rati@@
cheur
let
indications
Om@@
logie
index
11-@@
gouttes
Bluetooth
Haut
émi@@
commen@@
Sel@@
lion
sus-@@
fa
restaurer
Cher@@
Puisque
démar@@
évo@@
magie
gouvern@@
culaire
accru
mélanger
Kur@@
catastrophe
laine
ng
grève
ks@@
Sociétés
provo@@
fiche
accessibilité
tiré
sûreté
Là
aimer@@
extraction
fidèles
cacher
NA
ouvrage
fis@@
alu@@
résident
gramme
Tokyo
VE@@
enseigner
unes
érie
Sous-@@
pourrions
embar@@
posi@@
aud@@
obtenue
DJ
appliquées
exprim@@
gent
Rol@@
primaires
détaillé
reti@@
IM@@
gain
beurre
Cos@@
brosse
bonus
42@@
transporter
aig@@
altitude
Remarque
circulaire
PD
220
public@@
souple
quart
hasard
feux
développeurs
substitu@@
mixte
cuis@@
CK@@
lanc@@
ato
définies
combustion
soulager
raconte
Hou@@
endra
Venise
Central
accompli
dérivés
Livraison
rayon
thermo@@
provincial
engagée
gouvernementale
coupé
blessure
rez-de-chaussée
défauts
sée
présid@@
voter
hormones
combiné
portail
traits
ethnique
amélioré
forums
Coll@@
Protocole
cloud
Logiciel
Référence
suc@@
exécute
RETOUR
magnifiques
intr@@
Toyota
flot@@
cass@@
refus
bague
déroule
élargir
jet@@
Reg@@
souffle
pole
Henry
ques@@
respecte
Play@@
lourd
motivation
sénateurs
Analy@@
grille
gâteau
paragraphes
cesser
Inscrivez-vous
diminue
estimation
vienne
ajoutez
Trav@@
végét@@
majeurs
far@@
rock
document@@
RÉSULTATS
concentre
inage
quel@@
admissible
énergétiques
stocks
sûrs
mobilier
Câble
conserve
développée
augmentent
extérieurs
Lisbonne
const@@
Mary
élev@@
fermement
consomm@@
Gay
poêle
Att@@
Fun@@
cliquant
sauv@@
menson@@
TRO@@
remon@@
Peut
aborder
Transports
101
contrairement
Étape
ode
alliance
COM
spirituel
anien
sécuritaire
réalise
évalu@@
dem@@
administrative
assist@@
conscients
anth@@
vecteur
indésirables
Comparez
entraîn@@
occasionn@@
fér@@
tex@@
ish
financé
minimale
vivants
figurent
explication
âgé
anes
subir
an.com
Vienne
chu@@
orient@@
bronze
grandi
Seulement
dul@@
Place
téléphonique
itz
GU@@
deviendra
Electronics
astr@@
IC
irr@@
Sab@@
conventions
inspi@@
partagent
protégés
Cul@@
connectés
tire
pauvre
sûrement
Êtes-vous
750
législatives
substrat
adore
croître
déficit
immigrants
acceptable
Dur@@
toxiques
illé
gué
dd@@
saisons
décédé
Croatie
serais
portées
autocars
Tech
aurons
cultiv@@
vas
réglable
recher@@
450
phrase
désigne
Bill
ster@@
Johnson
Far@@
tian@@
Med@@
Tunisie
VE
nord-@@
traces
awa
décrits
entrant
naz@@
Philippe
piano
assemblage
let@@
charg@@
bref
résister
b.com
règne
dale
aî@@
Hyundai
rédu@@
cess@@
précédents
VI
sanitaires
mystère
indiquée
Systèmes
Wat@@
comprimés
épisode
raff@@
schéma
perç@@
énormes
fraîche
familial
absolue
Brown
cab@@
résulte
erais
an-@@
Voiture
fix@@
RS
Life
io
affron@@
jugé
BoatDealers.ca
rond
Équipement
confrontés
farine
ple@@
récipient
ordinaires
ho
romantique
Dr.
chercheur
Man
estr@@
Membres
Culture
soutiennent
Regardez
aisse
congrès
ulation
rentrer
isations
gér@@
Tes@@
dangers
excessive
kil@@
envoyés
ce-@@
constituée
EE
oxyde
bat
carré
alise
provisoire
sains
terri@@
annon@@
massif
kin@@
ménage
Leurs
arriv@@
Nom@@
sanguins
aven@@
tal
trouvée
rétro@@
tier@@
xy@@
criminels
sky
tomb@@
achetez
inspections
Anne
fice
travaillait
44@@
bagages
chère
ken@@
GS
vie@@
séparés
honnête
tina
TRE
remercie
fleuve
enveloppe
entrent
MP
élastique
doctorat
Adresse
landaise
introduire
tolérance
polyester
prouvé
affecté
Regarder
augment@@
tionné
DV@@
aly@@
écar@@
tag@@
obstacle
faç@@
prenons
1984
volumes
main-d
négative
spectre
amb@@
préciser
lame
françaises
devr@@
tableaux
Pil@@
découvertes
converti@@
Posté
600@@
Ker@@
march@@
triste
Tour@@
sil@@
administratif
personnalisée
onnage
aéro@@
HT@@
micro-@@
savoir-faire
desquels
écras@@
systématique
it-@@
animation
harmon@@
casque
cholestérol
concerné
Propriétés
habil@@
Mouvement
66@@
catho@@
g-@@
texture
esté
posés
brun
Initiative
Bab@@
enregistrée
abonnement
wer
débats
extrêmes
recru@@
sida
P.
professeurs
clubs
Ivoire
SD@@
guitare
jum@@
Land@@
fol@@
trine
Autochtones
habitu@@
considèrent
tic@@
pomme
électorale
chera
appuyant
Moteur
ensembles
modér@@
isolé
dirige
aï
origines
évalué
Technology
Ach@@
poli
réservez
Droits
85@@
cie
impose
propagation
ida
Gor@@
échang@@
copies
annuler
imagination
sid@@
Tw@@
résid@@
Soins
réguliers
ister
archives
histori@@
Lieux
citoyenneté
circuits
vend
signalé
ical
recyclage
sés
Western
cathédrale
fonctionn@@
abordable
PSD
Film
cliquer
Lettres
lia
remède
soumises
signal@@
Rap@@
cabine
activer
profondes
-de-@@
Bush
Instagram
fond@@
vagues
ouvrent
ouvrages
800@@
OEM
Disney
fiscales
soumise
préparés
compa@@
Nouvel
lit@@
profils
lai@@
sus@@
recommandée
joints
collecter
possé@@
exister
sier
moule
act@@
ington
Internationale
juive
créent
lots
ola
criminel
reine
onnés
bot@@
Ev@@
Rel@@
ese
réagir
enseigne
améliorée
Lar@@
Créer
apparemment
ert
réchauffement
Collection
motion
commenc@@
YouTube
dits
troph@@
Roi
ferroviaire
maïs
conçues
montants
barrière
eller
détach@@
appliqu@@
espérance
reposer
virtuelle
95@@
K-@@
gagne
Bad@@
bracelet
sexes
Affiche
souviens
ctions
salut
annuels
élite
consensus
isses
ici@@
anon@@
examine
poches
attendant
spectaculaire
Thi@@
hosti@@
entrepreneur
j.com
endr@@
méditation
barres
initialement
casino
RAM
Support
compétentes
céréales
pousse
couverts
.com.@@
congé
tubes
rê@@
Human
Bag@@
minorités
rapporte
agr@@
séparée
Eau
réduisant
ele@@
bénéfique
courses
stu@@
Heureusement
Health
chair
hon@@
110@@
Agriculture
doigt
protégées
nulle
aria
concentrations
suicide
AP
Montrer
Ca
ock
L.
parlementaires
im
couramment
Version
vaccins
Vie
exigent
tiquement
PN@@
fuite
Rég@@
dant
oter
pur@@
diction
uer
euil
infractions
retiré
conseillers
arrivés
Var@@
spacieux
Museum
passées
Mer
Hamilton
sées
chan@@
Spa
débuts
ico
tionnellement
doubles
livrer
arguments
Bébé
quotidiennes
vo
bords
SD
linéaire
GM
enlev@@
chemins
Harry
star@@
ez-les
gratuites
statu@@
érée
publicités
rendant
posée
Appartements
photographies
collectées
harcèlement
eth
débu@@
ares
rouleaux
Systems
-subcat
guérir
Avoir
ik@@
jambe
entielle
collectif
System
subs@@
détente
back
graph@@
ago@@
érés
Bulgarie
onnier
Intérieur
fausse
TIONS
gin
émie
Vintage
périodiques
win@@
ny@@
Nouvelle-Écosse
li
environnemental
préférée
gloire
décideurs
PDG
allégations
églises
Trafic
opérationnelle
membrane
parlons
ñ@@
incidents
pères
sun@@
UN
AT
accumulation
fréquences
révéler
épidémie
restera
trente
je@@
écosystème
enregistrées
Palais
cache
flotte
chron@@
psychologique
oyer
bâtir
bienvenue
fumer
tez-vous
étiques
nou@@
exhor@@
supprim@@
disparition
portez
valable
jo
peu@@
1950
ech@@
suites
charger
Vel@@
exclu@@
guer
intelligents
guider
couronne
aître
produites
Chili
fixée
diplom@@
Lanc@@
baies
regroup@@
dirigée
souveraineté
insuffisance
affec@@
anor@@
Mariage
sentent
répar@@
Ang@@
connecteur
Standard
taxi
évoluer
persist@@
dépl@@
eter
Pour@@
ene
lacunes
décourager
choisie
Celui
Kat@@
quelques-uns
réaliste
péché
Sign@@
caméras
HE@@
1000@@
Corps
constant
onal
stati@@
collège
touché
dynamiques
Sat@@
reconn@@
éni@@
diplômés
invitations
led
OP@@
fondées
Cri@@
Jardin
lumineuse
écosystèmes
respiration
criminalité
CIA
nuits
gan@@
proclam@@
And@@
gg@@
blog@@
×
développements
mill@@
supports
caractérisée
construc@@
robot
Tel@@
Pérou
brefs
régu@@
́
Clar@@
Espace
laboratoires
organise
sont-ils
pires
Rue
Euro
constru@@
Society
Annonce
Econom@@
intéressants
rendus
exiger
orer
T-shirt
sty@@
prince
célébration
XX@@
faiblesse
innov@@
isons
lau@@
install@@
on.com
opérationnel
alliage
sévère
BER@@
Den@@
innovantes
Bell@@
Marque
Div@@
uel
mées
dieu
èques
Florence
ingen
Jaune
frustr@@
envoy@@
considér@@
séchage
jal@@
embl@@
causée
Ba@@
pensions
Quatre
vic@@
Mill@@
tatouage
abri@@
travailleur
horizon
anthro@@
manquer
point@@
significatif
cristal
sel@@
n-@@
touchés
procureur
Ji@@
II@@
rural
impliquant
ston
stage
FA
divorce
Module
bin@@
plais@@
foli@@
Village
oureuse
grandis@@
sécur@@
humanitaires
zer
Juli@@
administrateurs
colle
ule
pacifique
Aqu@@
polymère
Airport
politi@@
interview
fonte
personnalisés
expiration
Maître
essions
Beauté
wa
blanches
fédérales
développent
Donn@@
négatives
rédaction
municipalités
Honda
170
Auto
PP
SR@@
influenc@@
osité
eng
Ay@@
one@@
distributeur
regard@@
avant-@@
adhésif
Jan@@
passionn@@
hypothèse
Ball@@
mez
extrémités
cycles
ays
trace
box
diffuser
matériels
âmes
fluor@@
Véhicules
inspiré
connec@@
omb@@
alternatives
An
mû@@
Prévisions
Année
apportées
directeurs
Christian
alco@@
éclai@@
modifiant
diamant
détient
aka
ij@@
raisonnables
È@@
diens
pharmaceutiques
15.@@
OM@@
ima
adop@@
2018-0@@
Nourriture
intellectu@@
enci@@
automatis@@
MAN@@
réparations
présentations
composante
flor@@
convaincre
aiguë
Frank
sud-@@
Dét@@
volet
No
Neuf
chapeau
identique
coalition
douceur
i.com
ides
oeuvres
win
exe
identiques
sa@@
2ème
arité
connexions
crucial
ogène
sous-jac@@
sinc@@
anna
myth@@
verrouillage
EU
illon
Sinon
entée
allou@@
Ten@@
routine
Consid@@
sanguin
Ob@@
Cir@@
çon
effacer
Matterhorn
lancée
bs
perd
los
attendez
jur@@
pétro@@
exact
horloge
gio
enregistr@@
entrez
ventilation
CNRC
appuyez
électeurs
intensi@@
sédu@@
permettrait
fournitures
obtenues
faillite
suggestions
pouce
Orient
popularité
aviation
oiseau
compression
Sub@@
touchées
fau@@
mod@@
GO
ferait
abl@@
bab@@
Albert
attr@@
exis@@
frappé
vus
préférés
Digital
conserv@@
hém@@
prolongée
United
écriv@@
bin
n.com
diesel
agression
neutr@@
emporter
rénovation
Rot@@
altér@@
exécutable
inez
COR@@
catastrophes
phy@@
honte
cle
dépenser
Moderne
diminu@@
contrôlée
armoire
éder
dépôts
découlant
iront
obésité
Berg@@
tomates
Scott
pantalon
commandant
divulgation
électro@@
espi@@
ajuster
Drive
accompagne
chroniques
1982
stor@@
explosion
composantes
Main@@
ys
gagnant
calcul@@
décret
ze@@
communiste
0,5
travaillez
versée
Itinéraire
périphérique
rétablissement
Mak@@
privative
sentez
moral
immédiat
prob@@
étanchéité
dési@@
préservation
rouleau
disciplinaire
Gam@@
sœurs
courantes
Inc.
Sac@@
psycho@@
mentation
AW@@
symboles
ito
BI
tants
installée
Chris
blessé
des-@@
Sky@@
Tant
cessé
cancér@@
émin@@
Collège
classi@@
accorde
mini-@@
orientale
musicale
croyances
elle-@@
axée
achem@@
exemplaires
tueux
CM
sauvetage
Traité
var@@
resté
endrons
embau@@
Hamas
ambassade
segment
actualité
légi@@
past@@
savon
écr@@
beige
soud@@
docteur
bio
vitesses
couverte
Flor@@
River
Liber@@
Zone
acrylique
portables
japonaise
2030
iture
56@@
laiton
prends
électr@@
émo@@
biologie
Tab@@
élever
souhaité
landais
CHF
tourne
tentatives
congélateur
activation
religions
empreinte
foc@@
appartiennent
terrible
sér@@
pédi@@
délégués
impos@@
bouilloire
quin@@
mesur@@
ukrain@@
é-@@
polis
femelle
VA@@
changent
rappel
volant
Munich
onglet
juridiction
correction
entrepris
Procédé
rés@@
VA
dangereuse
hydr@@
wh@@
veste
info
paradis
od
océans
grains
correcte
gre@@
capitaine
Tit@@
complément
my
fièvre
FF@@
Petite
attributs
accueilli
Lit@@
définitive
transformé
mant
pro
Industrie
AE@@
organisés
Sommet
exemp@@
différemment
nette
Green@@
FOR@@
-montres
robuste
saoudite
leçon
du-@@
vingt-@@
interrom@@
indu@@
équipés
standards
Utilis@@
spécifi@@
paraly@@
balises
comptent
sab@@
souffre
quartz
mâle
UV@@
Anciens
invo@@
ext@@
rappelé
spécialisées
élimin@@
écrans
immobiliers
fournissons
nettoy@@
reçues
Steve
demandons
incapacité
TVA
vér@@
mention
nuire
Pel@@
préfère
kar@@
Instruments
stique
renforce
divisés
maternelle
statique
exclusive
utilisations
TF@@
OK
élus
justement
Ot@@
appl@@
fidèle
utilité
géré
Chinois
critère
souver@@
Gas@@
positionnement
IRE
montrons
fondement
mainten@@
commandement
étiez
bénéfici@@
négocier
ilité
Bank
k-@@
latérale
corpor@@
PLA@@
handicap
ône
Research
présu@@
Smart
chat@@
constructeur
épi@@
tombé
grosse
attach@@
cav@@
voisin
réelles
wal@@
TIC
Ajoutez
claires
Jan
puce
vrais
avancés
relâ@@
ienne
trac@@
sach@@
dies
ost@@
Poly@@
Server
Mess@@
Sainte
phénomènes
enquê@@
ordonné
fen@@
graphi@@
autoroute
18.@@
payés
conviennent
sing@@
organisées
yn
agres@@
Elec@@
béné@@
Blo@@
te-t-il
Mé@@
simulation
attire
véritablement
pend@@
onnaires
Kon@@
culte
justifier
traî@@
formats
ante-@@
bit
sour@@
gas@@
facil@@
-montres-@@
érant
ath
posséder
Ze@@
Voulez-vous
lésions
pic@@
Utilisateur
Zh@@
ental
tam@@
manipulation
chin@@
prospec@@
subvention
engrais
débuté
ande
restant
endu@@
ela
dier
affirmer
Lieu
croyance
Calgary
Alt@@
individuellement
conclut
fe
Lune
prime
Septembre
puri@@
day
Strasbourg
Compl@@
compétente
arc
con
respiratoires
avertissement
ingénieur
grec
queue
gère
fan
Madame
rique
considérant
Anna
fixés
modifi@@
bâ@@
hr@@
amendement
Couronne
Scotland
discrimin@@
faisaient
h.com
forcé
Mike
ativement
1979
titulaires
écrivain
palestiniens
tivement
Off@@
vélos
bloquer
générateur
courts
net@@
conver@@
amené
bien@@
onie
interprét@@
résidentiel
pes@@
aph@@
actrice
sauce
dus
destin
pairs
intérieurs
intérieures
chauds
partag@@
cle@@
antenne
Surtout
enseignements
Simon
spéci@@
passez
yr@@
mex@@
conseill@@
Hit@@
littéralement
sion@@
sho@@
Sem@@
contest@@
Maurice
consacrée
monsieur
dys@@
vendeurs
Fond@@
trouvons
endor@@
quotidiennement
complets
FAO
habitation
Liv@@
familiales
remplac@@
more
atures
trier
olympique
tifi@@
nettement
tort
normales
Basé
Stock
irait
facilite
lourds
amples
AD
résili@@
souhaitons
déplacements
Bijoux
chalet
pus
planche
pru@@
hen@@
ist
abonnés
évènements
adaptateur
cure
détourn@@
ôt
Section
massi@@
innoc@@
roulant
suggèrent
Jackson
coun@@
Il@@
Loire
CK
étés
dit@@
à-@@
associ@@
sonore
etta
Consultez
satis@@
contro@@
Associ@@
documentaire
maintient
dépistage
cera
sanitaire
satellites
Fournisseurs
More
esseurs
Propriétaires
Set
fir@@
donnez
aw
robes
poursuites
entouré
arrière-plan
regardant
déclin
Don
manuellement
demeurent
play
écoulement
accusations
attraction
Laval
souci
croisière
Fal@@
Resort
ever
apprend
militants
placée
43@@
assumer
intestin
Chypre
serviettes
correspondance
eur-@@
M.@@
Shar@@
piles
Les@@
Actualités
monuments
moment-là
vaccination
Mondiale
Gran@@
ENT
Bracelet
Wor@@
onnée
existante
souffrir
démocratiques
atten@@
assisté
combiner
alie
issance
ache
craign@@
din
Avenue
trouvait
durer
rétablir
Limited
noires
rejeté
reconstruction
favoris
ètre
î@@
identifiés
adoptées
XVI@@
favorables
prononcer
argument
tournoi
Rights
dieux
compensation
regardé
Const@@
Prendre
autrefois
dédiée
Entr@@
Quelque
pharmaceutique
résu@@
●
grandir
illustre
ocy@@
Marques
détermin@@
prescrit
épaule
autom@@
chiff@@
inger
Juillet
chaudes
créées
concentré
nat@@
CG@@
Amour
panoramique
ètement
Réunion
Communications
Annexe
exprime
24h
Bonne
Zi@@
juger
urine
exer@@
acceptez
maintenu
énormément
adresser
plantation
Ray@@
demandant
dégâts
péri@@
RestoMontreal
Total
sous-sol
High@@
larges
margin@@
architecte
105
jord@@
esprits
puissions
confusion
cavité
Rab@@
Loc@@
estiment
Aff@@
ota
abatt@@
incapable
jus@@
Spa@@
tel@@
yp@@
fausses
contrain@@
activé
hectares
ep
abs@@
tournant
trav@@
démontre
OMC
VEN@@
ding
oï@@
retenir
circul@@
exclusif
cat
terie
chris@@
multipl@@
olog@@
ressentir
Prés@@
FMI
nuances
opposé
rappel@@
inement
convi@@
médaille
Mis@@
molécules
cohérence
sixième
gués
mont@@
ery
enter@@
1983
épais
devrais
Valley
sèche-cheveux
Octobre
textile
chim@@
Media
neutre
Asi@@
rémun@@
Open
simul@@
dez
désire
dégradation
H-@@
semestre
affiché
Sing@@
endu
divis@@
Mark@@
crain@@
validité
1981
cham@@
roman
intéressantes
réunis
thérapeutique
JE@@
investi
Bru@@
tionne
traction
entreprendre
écologiques
blu@@
SP
sélec@@
antis@@
limit@@
physiquement
faisceau
gui@@
Haute-@@
tuyaux
massive
verre-saphir
répondants
linge
game
lampes
oux
chargeur
animale
Zu@@
fonctionnelle
légers
bourge@@
missiles
AB
ajoutés
refl@@
wn@@
varient
eus
inventaire
Vision
tranquille
ont@@
chocs
impu@@
pent@@
rentable
240
abil@@
obligé
-10@@
irani@@
Pent@@
gâ@@
Rappelez-vous
urg@@
250@@
alinéa
Harv@@
représentée
satisfaits
CAS
She@@
recueillies
parts
taient
etti
,00
master
angl@@
arrivez
racisme
dog@@
Toujours
ator@@
jeté
ais-je
constate
ato@@
Kim
secs
mobilisation
eme
supervision
Patrick
sérieusement
cière
portait
Juin
liv@@
génétiques
itures
til@@
roulement
stylo
attend@@
ward
Conception
réconciliation
ez-moi
équi@@
affectent
Mali
journées
morte
prof@@
optimisation
transparente
administrations
reporter
muscle
Quelqu
Obtenez
hn@@
fière
flash
aison
bad@@
côtes
aliers
N-@@
yle
hormone
patron
dique
rey
esseur
photographe
Prague
kr@@
iOS
52.@@
délibér@@
gon@@
ambassadeur
Finalement
Manchester
transmises
Claude
vaisselle
Shanghai
abandonné
Résumé
fiques
démo@@
quinze
ize
dedans
espagnole
fiscal
Suivez
répondant
Crème
escence
business
au-@@
Éducation
BL@@
glucides
intègre
Xiaomi
p-@@
insuline
gants
costume
ā@@
MD
10,@@
olique
limitation
Équipements
Hun@@
Antonio
Salons
Suivant
tactile
implication
fum@@
fardeau
perturb@@
détec@@
tiles
Augu@@
audit@@
Stephen
nouvellement
calculs
fibr@@
réveill@@
hai@@
masculin
Commencez
Max@@
œuvr@@
Unité
linguistique
.co.uk
volati@@
agon@@
compositions
Gare
suppléments
élevage
hâte
nan@@
atténuer
Da@@
altern@@
berg@@
ouvriers
Cis@@
reconnaissant
têtes
3,5
pê@@
palestinienne
compens@@
thèse
jan@@
Envoyer
Tourisme
touchant
abu@@
ware
Jones
Ky@@
recevons
Ins@@
raconter
affectés
bli@@
liqui@@
étonn@@
déposée
processeur
Mission
Siège
Traitement
digne
Wall@@
Gab@@
consul@@
marin
discuté
sportifs
proposant
op
iens
Nov@@
Gol@@
MI
ich
appellent
heur@@
œur
bes@@
èque
bb@@
monnaies
mat
occidental
avou@@
combats
sanguine
tante
Renault
coûtent
désespér@@
Real
Boston
Membre
L.@@
SF@@
escalier
130@@
divul@@
réci@@
ôtres
ban
révoluti@@
VPN
Kir@@
couvrant
STA@@
entielles
psychi@@
sportives
Ale@@
GB@@
propul@@
âges
inte
mettra
lun@@
Parcs
expérimentés
cave
traverser
pat@@
civiles
Figure
Audi
expressions
ottes
empê@@
Cap
yons
102
jonction
attribué
Alex
compenser
distribu@@
correc@@
fêtes
sauna
Sen@@
signée
stone
prier
Ali
menant
Papier
Marseille
Soci@@
gen
déterminés
ex.
ambiante
dal@@
ails
86@@
soutenue
Taux
genti@@
marron
3000
tière
chau@@
GRA@@
Cad@@
comptabilité
crainte
Gardez
susc@@
ium
manipul@@
book@@
déployés
agisse
pêcheurs
Astr@@
tements
émetteur
combustible
conjointe
FS
distinguer
transporteur
3.
Métal
autorisées
immun@@
GT@@
recevrez
demandées
décharge
conservateur
autoriser
cardiaques
permission
Ry@@
asis
comportent
Hab@@
Joe
végétale
zinc
enz@@
Attention
69@@
CN
elli
Patrimoine
législative
hot@@
drôle
fédér@@
ock@@
1.1
veu@@
chemise
amus@@
sson
Ligue
Sum@@
Obtenir
jugés
attendue
stabil@@
Temple
20-@@
GRC
belge
cherché
ú@@
restriction
isson
Compatibilité
pH
synthétique
las@@
ung
que-@@
XIXe
hau@@
ender
ledit
découvre
ura
libéré
réuss@@
matchs
wer@@
eda
intégrées
Che@@
2e
oin
sives
iment
SB@@
men
formulaires
coffre-fort
chrome
les-@@
Kit@@
autonomes
Face
affronter
Venezuela
agan
Juan
Alzheimer
Mai
Mes@@
Sud-@@
Guinée
envergure
épices
tig@@
façade
Sénégal
comport@@
scand@@
cosmétique
Solutions
provoqué
Toshiba
01@@
partagée
Sauf
Té@@
informés
MD@@
et.com
dimensionn@@
190
convo@@
Rus@@
visuels
ta@@
partielle
2019-0@@
accessoire
Chris@@
management
tac@@
Clinton
parois
prêtre
sensibiliser
mour@@
TEN@@
vé@@
ati
deur
ambition
frappe
abond@@
program@@
étonnant
deau
égaux
destruc@@
ía
ampli@@
admi@@
Na@@
Pennsylvanie
pourrons
qualit@@
gor@@
vêtement
souches
Aide
-je
eman
cardi@@
Af@@
Frein
vintage
réductions
attribu@@
ais-@@
retenue
issantes
Janvier
contamination
facult@@
variation
compliqué
filiale
manche
aker
voté
coloré
Construction
horri@@
distin@@
LAN@@
assurent
caché
fonctionnel
posez
Géorgie
disparaître
house
contraste
combler
goutte
Identi@@
Pêche
évènement
Key@@
magnésium
Température
riers
issues
P.@@
déclarer
oni
Nigeria
OU@@
endant
manuelle
précip@@
attraper
post
renommée
stre@@
résolutions
Bot@@
valor@@
lock
concerts
souhaitable
requérant
intermédiaires
emploie
cohérente
13.@@
Lac
quotidiens
bag@@
sembler
voulaient
ravis
escale
vice
infec@@
persu@@
deman@@
budgétaires
législ@@
max
Nord-@@
israéliens
testostérone
est-@@
tric@@
WiFi
Européens
nav@@
hiérarch@@
Free
Vic@@
ît
connaissons
comb@@
Data
décro@@
inégalités
230
Sun
Armée
pondér@@
offertes
paci@@
prestataires
nord-est
ambitieux
consacrer
fallu
clé@@
2017-0@@
toux
socio-@@
anciers
eton
propa@@
vastes
chauffeur
ventilateur
14.@@
Hil@@
Cinéma
Via
transforme
sorties
enfer
Louer
ASA
élégante
tun@@
séminaire
stéroïdes
collègue
align@@
APK
récompenses
ight
aviez
Transport
cens@@
FL
coco
intéressées
dentelle
existait
gan
volu@@
olympiques
distributeurs
ardo
axes
aud
UK
Naissance
incertitude
p.@@
verticale
bien-@@
attribution
ago
Lesquelles
accélération
lo
ogènes
ine-@@
influencer
Kin@@
renforcé
humides
certificats
Ohio
suppl@@
acle
configurer
Inscrit
tum
dit-@@
PI
Ah@@
apportent
légende
adolesc@@
POR@@
Brand
Classique
opportun
aidant
testé
Andrew
acadé@@
distingue
arbitrage
pertinence
State
livr@@
ouvrant
da@@
teté
Kan@@
non-système
attaché
Gir@@
fraction
orge
psychologie
cription
istique
azote
Lac@@
chass@@
COM@@
58@@
préfèrent
ss
vain@@
jolie
colis
accompagnée
achetons
pertinente
recev@@
concrètes
géo@@
1975
insertion
réunir
extrém@@
fur@@
entez
Cher
lieu@@
ema
Hon@@
prématu@@
colline
ial
étanche
Contrôle
Lib@@
enthousiasme
Automatique
Laser
représentés
parlant
devint
Bad
Yémen
Création
Réponse
rière
posées
stockées
jouant
Formation
occidentaux
Îles
pal
pé
pluies
collier
géant
effectif
Pékin
contrôlé
appliqués
accompagn@@
sud-ouest
pénal
paras@@
ayer
rubrique
Dubaï
f.com
apparu
fan@@
ventre
corrosion
Cot@@
dosage
séparées
it-il
exper@@
mb@@
inférieurs
expressément
Arch@@
pers
play@@
répression
commandé
jouet
abondance
Coolblue
qualification
Monaco
Disponible
affirment
Lis@@
intitulée
ning
èle
ting@@
intervalle
inconnu
omy@@
59@@
marié
Pass@@
rangée
blocage
créateurs
Profil
Radi@@
articul@@
socialiste
permanents
fémin@@
sn@@
palette
Calcul
compil@@
Cabinet
Red@@
repris
voyag@@
Panneau
officier
fourrure
CR
ficateur
pile
imperméable
devise
Fo@@
Princi@@
old
réclam@@
complémentaire
CHE@@
Of
Cru@@
Leg@@
académique
Wel@@
épa@@
live
Mar
Vers
trah@@
bénéficiaire
publiquement
mie
parrain@@
H.
limités
Live
Best
Nicolas
ouvrière
ling@@
avancement
minimiser
pêches
ums
pereur
dictions
impliqu@@
Driver
Vatican
messagerie
sale
artistiques
mê@@
Pet@@
augmentant
prouv@@
gasp@@
Ha@@
préliminaire
Capacité
regret@@
Aw@@
verres
coque
multitude
terr@@
zon@@
Bern@@
variantes
Test@@
ms@@
peut-il
recycl@@
pack
détenteurs
minière
Spr@@
jec@@
relevant
Croix
toxique
és@@
émergence
garanti
saurez
amer
illégale
tablettes
tionnaire
manifestants
imagerie
latérales
salari@@
1967
aiguille
réglementations
colonies
án
fes@@
Nationale
hôt@@
Arg@@
sui@@
simplicité
210
adéquat
Cinq
ku
débar@@
Innovation
illumin@@
dispu@@
continuité
Communication
EST
Main
Olympiques
prononcé
otes
législatif
tiqu@@
annuelles
effondrement
soix@@
corrig@@
forcément
Long@@
Bus@@
mignon
partisans
officiers
isolement
civil@@
détecteur
remplie
attiré
retrouvé
vibr@@
exposées
aies
ATION
épargn@@
Publié
macro@@
souffr@@
aro
itez
postu@@
Love
Cadeaux
fun@@
sanc@@
1978
Post
plomb
solde
minimales
observe
autochtone
à@@
Zurich
immunité
traduire
arrestation
cumul@@
nement
coul@@
CES
pera
courbe
DP@@
nord-ouest
Nat@@
brou@@
tionnée
Marina
Ever@@
foyers
protégée
publie
vesti@@
colonnes
égi@@
comporter
Ve@@
lè@@
yl
sectori@@
Bis@@
87@@
camions
chois@@
ink@@
ev
temporairement
Jim
kins
Titre
oration
Alexander
RA
industri@@
Yukon
copi@@
Ron@@
séparer
relié
déli@@
Utiliser
pre
atine
levier
MP3
reliés
ethniques
aggrav@@
saisie
mani@@
Ah
rénové
cylindre
seur
Anti-@@
Budget
transféré
ii
UNICEF
ericgown
dissement
nuages
bits
puissances
investiss@@
nau@@
épargne
bu
empire
désir@@
zy@@
Porte
spectateurs
renouvelable
neufs
Occasion
pau@@
elec@@
relevé
Prépar@@
éno@@
spr@@
1945
Mit@@
dép@@
généré
◦
rab@@
ria
dessinée
antérieure
Filtre
boy@@
Bob
créateur
mit
articulations
ait-elle
capture
TD
MEN@@
HA@@
midi
Jersey
indé@@
portugais
privilège
Notez
Miami
Gil@@
Four@@
salu@@
Île
gren@@
ayons
administratifs
cél@@
réun@@
emplacements
comparable
Foundation
grou@@
lez
exactitude
pharmac@@
astique
ense
suivis
anticorps
phil@@
poussée
rejet
Hist@@
orientations
polaire
angles
dor
optiques
ush@@
Jer@@
abilités
Winnipeg
My
Vegas
mage
tionner
mic@@
méd@@
EA
trag@@
Laissez
pesticides
devais
Nissan
ridi@@
Poudre
diff@@
saveur
défi@@
TRI@@
PER@@
Gold
doré
grap@@
Tan@@
Jordanie
cô@@
puzzle
W.
Elizabeth
Indiens
ressortissants
partition
syndicat
internation@@
ferons
allemands
disposons
assise
robots
réservés
tes@@
toire
mondialisation
moléculaire
onnes
Day
Volkswagen
cann@@
pai@@
Moyen
Fond
considérables
tas
CRTC
ût
Analyse
lacs
Poids
non@@
éens
Télévision
réunit
ez-nous
lave
kk@@
pouvez-vous
07@@
régl@@
eva
ons-@@
Lingerie
ententes
Chauffage
etés
caf@@
observée
ava
factures
Hébergement
Affichage
entremise
éducatif
Désolé
démonstration
rin
Wol@@
municipal
hypertension
maîtres
linguistiques
cibl@@
terons
homosexu@@
r-@@
yme
Pit@@
acné
tations
évolué
chons
istr@@
précède
véritables
quitte
biom@@
poivre
VW
Lyn@@
Venez
twe@@
tranquillité
Décembre
recommander
Royaume-uni
plasma
Chalet
sécheresse
bombe
plain@@
1500
fur
Illinois
spé@@
COMM@@
encourag@@
spectacles
scènes
Box
ten
commissions
chées
épaules
pertinent
accompagnement
perpétu@@
sh
bienfaits
Network
Puerto
vérifié
Montre
tribu@@
Visite
commodités
Fai@@
SUR
eait
peti@@
Décoration
obligatoires
visiteur
univers@@
Sher@@
chêne
rassembler
roses
fierté
PG
Heures
dispers@@
couture
revendi@@
Eric
W-@@
Ari@@
Jav@@
3ème
rob@@
châ@@
Mont
pir@@
bibliothèques
suggér@@
défavor@@
Blu@@
galax@@
coïn@@
dettes
Trai@@
acceptables
takeMORE.net
Line
parlement
ore@@
laiss@@
modernisation
orn@@
pureté
Yamaha
Chu@@
R.@@
maritimes
Allez
Puissance
arthrite
UNE
recul@@
Aim@@
extraits
vertes
Bow@@
parcourir
aul@@
cook@@
brûler
symbol@@
enten@@
vivez
progressive
répartis
Combattants
vinyle
conservateurs
oz
Retrouvez
PM
acu@@
dir@@
construits
marquée
remèdes
recourir
lais@@
Deuxièmement
souven@@
Flixbus
procurer
ismes
Pos@@
refuge
tempête
micro
aid
Xi@@
mois-ci
Canon
xit
LIZARTE
figu@@
certitude
AI
majeures
trad@@
64@@
surf
fines
smartphones
hybride
vivante
diamants
ping
tenons
légitimes
sauter
Lettre
indien
ye@@
paraître
hockey
Pouvez-vous
flore
orthodo@@
fréquente
mement
êtes-vous
scénarios
olo
saines
viser
Energy
promesses
CER@@
mentaire
terrestres
Prot@@
Ceux-ci
péril
originaire
cy
matrice
inos
Other
Graphique
disciplines
crochet
effective
turc
revi@@
oxy@@
CBD
Idéal
invasion
contrainte
alia
ritu@@
12,@@
Plan@@
sois
grain
sym@@
briques
sud-est
endrez
Nob@@
résol@@
évolu@@
continuellement
pot@@
reç@@
aboli@@
Jun@@
spacieuse
encl@@
doucement
sauvé
hés@@
potassium
nommés
Sti@@
pons
Hav@@
Read
content
ailes
itations
Brig@@
Jouer
réussie
validation
corporelle
viez
royal
techniciens
traverse
poi@@
indépendantes
tain@@
cristaux
cigarettes
Law
décorer
protocoles
irak@@
soumission
British
assurances
ali
accusation
vérifiez
dentaires
ing-@@
çait
Play
marqu@@
mm@@
tification
ouvertures
temporaires
voisinage
Enfant
G.
obie
logiques
dirait
respectifs
traitant
tumeurs
protecteur
certifiés
MT@@
Vierge
Vari@@
concurrentiel
poussé
board
métiers
Sec@@
2.5
monument
respectent
atern@@
armé
Vil@@
autorise
Linux
étrang@@
turé
plant@@
Lun@@
fique
tem@@
mérit@@
1976
encad@@
douane
Reu@@
phe
rets
adopte
dispens@@
Institu@@
insul@@
épuis@@
excellents
hist@@
1973
oo
Visitez
secr@@
vions
Toulouse
urbaines
Animaux
Alpes
aînés
haï@@
Cameroun
ballon
atmosphérique
Lég@@
nu
laissez-@@
Seul
caisse
sta
usées
concernée
so
attendons
obs@@
shopping
entraîneur
formidable
comprimé
donateurs
envoyée
prévoy@@
Arthur
adhér@@
perdent
Novembre
endommager
pensait
Bos@@
tax@@
originaux
Révolution
rideaux
compact
joy@@
san
reflètent
imposées
Ta@@
incroyables
MC@@
lant
89@@
tz
lymph@@
offerte
recevez
occupent
urbains
gés
Ani@@
Arctique
Emploi
eler
évi@@
Malaisie
ander
remédier
certifié
DP
cartouche
Plage
ken
mane
Bosch
IR
composent
XXe
a.org
lingerie
Dro@@
annuaire
ity@@
acoustique
000@@
précieuses
Ax@@
jam@@
KO@@
dégu@@
nuage
distribuer
orth@@
axé
acre
délivré
utérus
bibli@@
s.org
basses
filtr@@
Naples
laitiers
TV@@
ramener
Personnes
indiqu@@
Pad@@
š@@
BB@@
Couverture
1.2
énoncés
rich
ei
RS@@
trading
Plat@@
croyez
ater@@
dist@@
bouddh@@
ent-elles
échoué
CLA@@
indiqués
régulières
avortement
ettre
chères
F.
partitions
automatiques
Sup@@
sey
coopérer
septième
moniteur
étal@@
invent@@
répéter
Champi@@
chet
assistant
dame
dispos@@
cohésion
apprennent
Free@@
échou@@
Education
caractérise
2-3
vice-@@
reçue
tionnés
réclamation
disposés
fossiles
légalement
appréciation
meurt
différenci@@
simpli@@
créatives
iné@@
vacc@@
qualifications
cordon
paisible
case
satu@@
créatures
spon@@
ant-@@
venons
fiction
excellentes
Bran@@
Appliquer
Magasin
récepteurs
B.@@
Spe@@
décor@@
tumeur
console
ologies
habitant
assurée
dépassé
Adri@@
doctor@@
intégralité
sécher
impliquer
défaite
Whirlpool
audio@@
Sam
lon
Taylor
prestataire
Supermarketworldguide
mural
iquement
télécommande
bénéfiques
ento
you@@
accroissement
Four
exécutées
diversi@@
Istanbul
rén@@
illégal
Tol@@
rel
ultérieure
fidélité
chaussure
assé
Chapitre
Hay@@
BE
SER@@
Athènes
arrêtés
hop
antérieures
tissements
SL@@
médiation
oue
ebo@@
Seuls
Évaluation
airement
syri@@
disposé
adh@@
aux-@@
ark
philosoph@@
référ@@
Gouvern@@
wat@@
aliment
rej@@
Edmonton
dioxyde
tex
soldat
Naz@@
series
appelées
Sierra
présidents
ager@@
discrétion
ataire
dam@@
bienfaisance
Manager
Trin@@
inondations
human@@
Rad@@
villas
ARC
Route
optimal
défenseurs
allée
spontan@@
ft@@
Virginie
paquets
Maj@@
sportive
ingrédient
America
choisissent
périphériques
BU@@
désignés
énoncées
inat
aliment@@
réveil
commutateur
Bonjour
Renaissance
arma
Entrée
Paysage
pom@@
Long
génial
anonyme
amène
Contenu
BLE
sympath@@
appuy@@
tourné
omique
guér@@
elles-mêmes
faculté
échappement
5000
suffis@@
navette
glucose
provinciale
protest@@
joli
profitez
disons
comparative
FP
eville
Ul@@
Possédez-vous
marquer
lés
larmes
menés
prioritaires
lot@@
Buy
personnalités
Catherine
absent
Café
ha@@
merveilleuse
approfon@@
FT
organisationn@@
atlantique
éditeurs
assainissement
Little
Février
levé
Time
terrasses
650
Nord-Ouest
caractéris@@
ony
censé
Land
Micro
Mots
corrom@@
allergies
dessert
még@@
feld
Square
pi
péninsule
Din@@
salons
buffet
Bak@@
mons
peut-on
Boîtier
Pav@@
shire
ori
ros
115
dense
sculpture
étendu
Traduction
bê@@
conviction
affaibli@@
paramètre
développées
prudent
épic@@
combinée
mom@@
duc@@
BS
quanti@@
Saou@@
Habituellement
Marron
Lit
nommer
maximiser
brill@@
Connec@@
ourr@@
désirez
genou
oles
agro@@
Clo@@
tentent
risquent
sep@@
trésor
App
levée
town
instantanément
réuni@@
Syl@@
nombres
Azur
routier
af
illustr@@
peaux
occupés
licenci@@
intimité
Sydney
Jos@@
iale
rayures
lori@@
lati@@
Arabes
fiez
inhér@@
saurait
contraign@@
appétit
ine@@
employ@@
Edward
toxines
flo@@
tron
récupér@@
Nation
annonc@@
nis
Août
inquiétez
manteau
ë@@
conversations
17.@@
DIS@@
as.com
étudie
Tele@@
ision
Jac@@
Soli@@
cancers
PT
Michigan
104
vertébrale
innovants
till@@
verb@@
nocturne
Cologne
coussin
expérimenté
éventuels
Six
alcal@@
104.@@
automatisation
sentiers
directes
pro-@@
sollic@@
miracle
Dublin
TT
litige
lip@@
thérapeutiques
nd@@
étiquetage
auv@@
Fro@@
séqu@@
made
Bain
Temps
Appuyez
ouvrez
néerlandais
mets
lourde
perdus
ø@@
opérationnels
allocation
formulation
secou@@
ymes
Explorer
modifiés
classés
Rwanda
cents
api@@
correspondre
rentabilité
Avril
guer@@
AA
poumons
doulour@@
génocide
mun@@
désignation
défin@@
Extr@@
DES@@
manufactu@@
04@@
oh@@
Sarah
côtière
statue
Edition
précieuse
Suites
PU@@
gouvernemental
Kor@@
stock@@
recommandés
cuillères
Fiche
nul
Adaptateur
syst@@
Brook@@
progress@@
guidée
eill@@
IG@@
vinaigre
marines
relais
devienne
fraîches
fréquentes
multimédia
Haut-@@
Fabricants
Décision
amuser
planètes
TM
matelas
diffusé
pathologie
pare-@@
pleu@@
1930
spatial
baignade
Bau@@
masses
décoratif
papa
éo@@
âtre
FL@@
antécédents
ML
témoigne
douloureux
Statistique
wor@@
pneu
perfec@@
déchir@@
algorithme
suscité
ématiques
meurent
stades
artisanat
désolé
mutuelle
recueill@@
pic
descend@@
porteur
Whit@@
Ya@@
el.com
solvant
Rev@@
2.1
rendra
sexy
Recherchez
HDMI
acer
Anniversaire
opérationnelles
Batterie
Queen
Phil@@
Nar@@
calculé
fixes
50.@@
mad@@
rais@@
dix-@@
Lang@@
HS
chrom@@
briser
survenir
try
LC
mènent
ciment
mentionnées
Illustration
reconnaissent
concurr@@
salade
vic
inscri@@
associer
SY@@
combustibles
Jou@@
favorisant
up@@
porteurs
solid@@
comparé
addi@@
déplace
Mun@@
douanes
pénétrer
résilience
chanter
Project
indiquées
1968
syrienne
bless@@
Lovepik
grandeur
intéresser
Mand@@
Autrement
performan@@
annul@@
libéral
cellulaires
israéli@@
1920
accr@@
eld
rum@@
Études
Act
08@@
agon
vigil@@
trouver@@
poils
stes
remonte
préparations
resse
Viv@@
obscurité
DC@@
mes-@@
projecteur
Programmes
montres-@@
manquez
ces@@
maximal
cole
factu@@
eille
FI
UX
Falun
anti
contrôl@@
mér@@
Grands
50-@@
High
exceptions
ignorer
sto@@
servi@@
sionn@@
réc@@
bill@@
ele
filtrage
Mettre
Commande
maroc@@
Diego
acét@@
épisodes
Ran@@
Ski
silicium
ultra-@@
1977
Boisson
fondateurs
Cel@@
épidémi@@
géographiques
31@@
soudure
profit@@
prolonger
Commissaire
Vr@@
paraît
mesurée
coordonner
Moins
ask@@
Tun@@
agi@@
boule@@
amo
excursion
major@@
récit
Faculté
Chil@@
aimons
Noire
réservations
sements
paie
cub@@
mans
méthodologie
rigide
hépatite
1200
escalade
SMS
Bande
chauffée
présidentielle
ives
Lad@@
silencieux
frau@@
trouvant
cér@@
acres
estimée
suspendu
disposez
Premièrement
voi@@
PAS
luminosité
Mai@@
établissant
Adap@@
Propriété
non-fumeurs
mange@@
couv@@
ario
zi
clos
Dim@@
datant
Située
soi-disant
urgent
chinoises
rejet@@
Young
répan@@
ib@@
Durée
Villes
Bureaux
Documents
Mountain
norm@@
devrait-elle
Fab@@
distinctes
esp@@
autobus
visions
volé
lands
of@@
revê@@
1972
diable
votes
systématiquement
inconvénient
gia
coiffure
igh@@
différends
ai-je
végétales
octroi
ated
inspirer
Sri
téléviseur
dem
Tapis
diques
harmoni@@
référendum
tuberculose
frapper
hiques
Terrain
eto
gardé
distribué
ainement
impressionnant
versés
sacré
Boy@@
gê@@
textiles
Ancien
DL@@
Glo@@
perdue
reins
TEUR
rebelles
orique
amendements
assimil@@
1974
cachés
54@@
pèler@@
érable
Activité
Product
requiert
220@@
çage
débutants
tz@@
tiqué
essor
engendr@@
Présentation
effray@@
mentionner
Fair@@
pénis
missi@@
Question
bal
sécurisée
émergents
D.@@
approuvée
Brad@@
èbres
étroit
ouse
Hambourg
éducatives
v.com
détenu
IL@@
bénéficié
décoll@@
Arm@@
glisser
06@@
segments
culaires
Henri
I-@@
Entreprises
View
Christ@@
oul
Bet@@
Longueur
fermes
Vidéos
andes
Celui-ci
libéraux
Dec@@
casserole
coffre
aitre
notifi@@
IC@@
rédi@@
MO
impulsion
Climatisation
Mettez
envoie-t-il
concré@@
1.6
ür@@
Vall@@
aéronef
ete
tiennes
conteneur
complété
Inst@@
Qatar
Sites
CHE
chette
chariot
Ci-dessous
group@@
zen
supprimé
vulnérabilité
lentilles
restes
chic
truc
formuler
surprenant
vernis
combine
absorb@@
sachant
poin@@
light
Will@@
mangé
opère
réduits
Town
maîtriser
ponts
nées
Avi@@
strictes
incluses
Fin
tissé
squ@@
administr@@
fortune
gr
descendre
23.@@
accouchement
icité
désirs
bouger
Cas
prétend@@
aç@@
Golden
héberg@@
prestigieux
new@@
abst@@
leu@@
prudence
prêter
réfère
Tony
intime
Wo@@
Game
Islande
Annonces
fourniss@@
estimer
déployer
Plaza
rafraîch@@
agn@@
choisit
améliorent
asiatique
issants
dn@@
là-@@
Stor@@
média
ness
Mau@@
Garde
inflig@@
MT
achèvement
Hai@@
Wall
empris@@
TN@@
-sur-@@
GAR@@
interagir
Alexand@@
Jet
Chem@@
Cooper
interdite
espa@@
connectivité
méritent
améliorant
Collec@@
ampoules
crypto-@@
aveugle
combinés
lisation
oeufs
restitu@@
peindre
citations
catalyseur
navigateurs
divisée
enta
Contacter
ajoutées
exportateurs
Columbia
ataires
symptôme
substanti@@
ba@@
Paix
impliquées
Gé@@
ency
hl@@
combinaisons
devoirs
pots
ef@@
mirac@@
Terr@@
entourant
aches
multination@@
convertisseur
vrac
Japonais
invitons
mark@@
problématique
EP
porc
war@@
mange
3.0
soeur
doutes
délivrance
pluri@@
Veste
res-@@
citer
abordables
Malte
indienne
autorisations
illustré
princesse
Hollywood
affection
interdire
AK@@
âgée
inventions
Fron@@
essayant
dotée
litre
ponctu@@
blanchiment
châssis
Ray
Ayant
ester@@
cine
GB
20.@@
clause
mel@@
Z-@@
approuvés
profits
légères
recul
mir
Meilleures
Bit@@
adressé
minorité
seni@@
Mét@@
Hill@@
mutuellement
déco@@
abro@@
hex@@
liers
prières
Arrê@@
l.com
imagin@@
quad@@
lité
aline
TH
équilibrée
rément
low@@
rembourser
r.com
in.com
Vincent
Doc@@
ffi@@
Demandez
désigner
cis
intéressent
gonfl@@
amende
share
inquiétude
API
laire
atisation
championnat
Sujets
exposer
entoure
agne
5mm
enseigné
sphère
intentions
jupe
cho
11,@@
benz@@
5G
stadt
pt@@
défiler
ague
éventuelle
kel
coloration
paires
Garden
souhaitez-vous
Ghana
contradi@@
clairs
insécurité
certifi@@
comptable
rénov@@
constitutionnelle
Eri@@
oma
Moto
témoignages
Ê@@
mond
Intel
XP
with
marier
asthme
José
organ@@
aisons
Reine
Billets
avantageux
Fac@@
clarté
bottes
tose
insur@@
sombres
flèche
baptis@@
enjeu
e-t-elle
asiatiques
considérations
U-@@
inférieures
barrières
empi@@
innombrables
exclure
pollu@@
décl@@
Ras@@
phare
dage
2.2
gin@@
1971
medi@@
Écr@@
RG@@
ape
pompes
Laurent
souffert
grimp@@
All
Kom@@
occupée
consistant
entrevue
gag@@
Front
boule
intégr@@
évacuation
gravement
balance
tranche
tech
fati@@
infirmières
élimine
Chev@@
But@@
jette
peintre
es-tu
hel@@
es.@@
dait
Spécifications
cides
entent
Williams
cate
.pl
provinciales
menstru@@
Brun@@
Mémorial
situ@@
souci@@
confié
cateurs
box@@
respectueux
Wilson
Feder@@
atteignent
commençant
arc@@
obtiennent
vali@@
Anvers
rang@@
carreaux
instances
propagande
PRE@@
day@@
piscines
épanou@@
WordPress
Dernière
vs
violent
Enquête
partagés
édifice
w.@@
saou@@
cot@@
Résolution
désor@@
ageux
rist@@
répu@@
orienter
tén@@
dégr@@
immeubles
parcour@@
ost
Nouveaux
stimulation
Food
1,2
modélisation
Sn@@
lisez
chauffer
pla@@
énager
imposé
alisant
Tabac
anga
tible
HCR
fondre
techni@@
cuisiner
devis
violet
mondes
rétro
Flash
dividen@@
Luxe
divisions
volontairement
esc@@
gly@@
112
Lite
Volvo
cities
vén@@
isateur
acée
passera
omiques
soja
élégance
coopér@@
fications
Eur@@
outh
accomplis
ajust@@
consoli@@
pente
déficience
Allem@@
Ret@@
tardi@@
mini@@
Appar@@
laissés
zo
exécuté
serviette
pop
intervient
budgets
inquiète
australi@@
oci@@
ELLE
clam@@
chaos
perdez
anci@@
reconnues
commémor@@
cycl@@
effectu@@
dominante
oria
dessiner
bombard@@
enzymes
programmé
érir
cée
ts-@@
calyp@@
projection
respecté
quittent
sensations
Jon@@
jaunes
Points
EM
réalisateur
osph@@
Apprenez
tampon
106
elier
sonde
aves
internaute
récompens@@
évoluti@@
tiser
anneaux
Saint-Laurent
78@@
affirmant
remporter
Abraham
EUR@@
distincts
vivement
Fait
horizontale
envisage
long@@
Tak@@
oignons
eck@@
Nan@@
filtration
traitent
créations
Swe@@
vibrations
conteneurs
éph@@
Matériau
reproduire
survient
GES
assembl@@
nig@@
tend
éris@@
geste
aissez-vous
ort
accomplissement
365
authentification
Oxford
espérer
retourne
monte
éradi@@
murale
ador
activis@@
souplesse
Livres
30-@@
balles
Mem@@
esa
simplifier
ming
Ath@@
forage
Mots-clés
Thé@@
Bien-être
í
franchise
radicaux
Good@@
cafés
back@@
atténuation
excursions
adressée
financés
tissement
gré
sand@@
pétition
BM@@
DO
laissent
agone
chanteur
nylon
Partagez
bus@@
Sud-Est
endommagé
accréd@@
Trouvé
composer
absolu
apprécie
mation
rencontrent
respiratoire
renoncer
nécessitant
congel@@
cuit
décentr@@
arctique
transmise
promotions
prolifération
oot@@
baccalauréat
assurance-@@
15,@@
respirer
promet@@
320
pâtes
Top@@
vier
mobiliser
Journ@@
Capital
récep@@
trouvera
compagn@@
grecque
quets
123
Ltd.
rapproch@@
cœurs
latéral
maturité
mur@@
Bernard
restre@@
Prof@@
exposée
angulaire
Bil@@
enlèvement
amont
Airlines
mul@@
Golfe
ffe
ouvr@@
détérioration
agé
dom
Mass@@
francophones
défend@@
tionnaires
amovible
tranches
créez
compétent
énoncé
genoux
cultiver
consulté
normalisation
Fonction
Éléments
semences
dorf
émotionnel
scell@@
Priv@@
Blan@@
Budapest
précon@@
créatifs
1969
Francfort
trésorerie
Sco@@
Vér@@
offensi@@
Ouganda
champion
filiales
tia
implant@@
Out@@
ONE
naviguer
l-@@
engagent
exploitant
Classic
turée
na@@
gi
Beige
Enter@@
Roger
transit
motor@@
Vir@@
démarrez
amp@@
distinc@@
aidons
distances
Beijing
Jacob
icônes
tempor@@
autru@@
handicapés
Technologie
combin@@
Cav@@
remarque
pensez-vous
sérieuse
soulev@@
prestige
tragédie
enfer@@
cali@@
ão
curi@@
colonie
correspondante
Fox
arro@@
tombent
pair
itera
Violet
trie
tières
bobine
employer
Pau@@
GT
quer@@
yan
consolidation
allergique
polymères
By@@
Chron@@
Ober@@
Presque
inviter
rivières
admissibilité
Kab@@
BCE
bétail
chen
Niveau
kur@@
maîtr@@
artisan@@
40.@@
visualisation
acceptée
pourvu
essé
orph@@
vedette
déplacées
admirer
renforcée
essaient
flamme
vul@@
PU
lentille
endrai
chirurgicale
Proc@@
Bretagne
écrites
Résidence
Dav@@
puissantes
xx@@
Serbie
tunnel
purement
soi@@
portions
missionn@@
productions
jac@@
adi
concep@@
rénale
incendies
évidente
Derniers
duc
funér@@
8.com
isol@@
originaires
observateurs
clic
hebdomadaire
LAN
Pièce
enquêter
itinéraires
Capit@@
Présidente
Agent
Charg@@
.com.br
tatouages
exceptionnelles
humour
robinet
sin
entiers
ambass@@
époux
diarrhée
indemnisation
dudit
psychologiques
exac@@
niv@@
éman@@
chants
néo-@@
lad@@
u.com
mensuel
verra
ancer
Hau@@
cile
battant
bactéri@@
thon
parlez
tiges
DH@@
gardes
fère
gram@@
Ear@@
planter
KM
Post@@
maqu@@
16.@@
Word
Calendrier
SH
contribuera
Tourn@@
accompagnés
Opti@@
tiez
Seule
libre-échange
ania
crédi@@
fabrique
comparativement
impl@@
rencontrez
idéalement
auc@@
chutes
soup@@
culation
allés
Delta
sculp@@
aériens
14,@@
108
synonyme
Tech@@
bannière
affectée
viable
dien
fixées
Terrasse
soudainement
isc@@
roubles
Observ@@
Sea
Jordan
adis
eante
Flu@@
app
30.@@
issements
faut-il
pol
ners
sp@@
1.5
Confédération
Achat
cire
Emballage
Bavière
gique
affectation
198@@
comptables
color@@
intui@@
attache
pivo@@
africaines
VIS@@
emb@@
retrouvent
filet
PAC
Entreprise
engagées
SAN@@
instruc@@
repasser
FDA
compartiment
opposer
imprimés
loyer
ication
rencontrés
Cau@@
new
soudage
Medi@@
cir
Fau@@
champi@@
manqué
révèlent
dépense
sévères
cigarette
ABS
Eff@@
calculée
achète
1948
Luc
inhi@@
ryth@@
Bouteille
Changement
survivants
erre
personnalisées
PO
convaincus
préparée
rouler
inquiéter
questionnaire
Commissariat
fermés
13,@@
décidez
hua
aiguilles
mercure
dél@@
quelques-unes
ult@@
aimant
Maryland
déterminées
échapp@@
inventé
matéri@@
Consultation
registres
Ref
Réservations
implications
aharienne
VR
constructeurs
aques
-1
floral
placez
inutiles
décid@@
finie
stér@@
équilibré
olé@@
aver
diplomatique
Fried@@
alim@@
soi-même
structur@@
sex@@
célibat@@
blockchain
Florida
HC
émotion
Co
explos@@
Pensez
bridge
brillante
explications
ômes
cuir-bracelet
lâ@@
poker
did@@
135
affirmation
héro@@
rez-vous
résidus
PAN@@
dira
soupç@@
HU@@
Professeur
phosph@@
océ@@
prévoient
Oli@@
ler@@
gible
lente
Bai@@
nitr@@
1940
stables
andro@@
exercent
arron@@
Brian
préalablement
May
exemplaire
persécu@@
Chin@@
ras
articulation
vive
Kel@@
Vacances
stitu@@
vê@@
possédant
gérés
COU@@
augmentée
gh
soulagement
Réservation
Tanzanie
tenez
démarré
indigènes
Benjamin
pack@@
Kas@@
modifiées
Corn@@
vasculaire
§
tasses
propos@@
Pes@@
allerg@@
Fête
dirais
Jeune
Coton
consac@@
mers
vôtre
investisseur
réti@@
gab@@
Deutsche
curieux
Phoenix
échecs
ancêtres
NU@@
morales
Certes
érez
attaqué
incombe
favorisent
immobil@@
wit@@
synchron@@
représentations
General
Espa@@
chanc@@
hach@@
spo@@
ralentir
suff@@
Températures
dotés
Élément
ers.com
empor@@
Relations
185.@@
oli
scolarité
préavis
parasites
éveill@@
potentielle
atterrissage
annes
Douche
Lec@@
q.com
Gag@@
bé
otypes
indispensables
dyn@@
aveu@@
PRO
Adobe
peines
her
lap@@
iler
rurale
guée
dez-@@
ted
foss@@
interruption
Hot@@
enchères
sympathique
erson
INC
indirectement
vaisseau
Command@@
polonais
3.1
crédibilité
portera
agenda
succession
allais
désactiver
05@@
fusionn@@
épée
audaci@@
ller
attends
moul@@
coup@@
brève
Américain
stand
Jack@@
Collier
territoriale
ond
nir
aigu@@
réd@@
das
renouv@@
èche
stabilisation
103
soign@@
eables
panne
Gants
chronographe
quettes
Martin@@
contribuant
kit@@
3e
élargissement
bé@@
eri
bét@@
fondations
tré@@
dévelop@@
combatt@@
exigé
affectées
oscill@@
oblige
régissant
hélicoptère
Jazz
fiants
Techni@@
introdu@@
Halifax
auri@@
téléphoniques
réacteur
quin
Cambridge
-s@@
Lecteur
Missouri
CV@@
Trou@@
Studios
recensement
stop@@
infrarouge
Ok@@
Electric
épaisse
serré
compteur
53@@
informe
remarquables
alisations
entam@@
Alber@@
calement
ferai
Alimentation
atin@@
maill@@
330
sar@@
Cruz
agitation
essayons
avéré
Cambodge
ga@@
administré
Écrire
couvrent
ango
invisible
EURO@@
inquiétudes
dig@@
Bangkok
Sol
renouveler
parent@@
répertori@@
time
synthétiques
attendus
Del
Fabriquer
hydrat@@
vertical
Porsche
identifiant
usages
Ton
secrète
jumeaux
rectangulaire
fuir
habituelle
ouvrables
demandée
juana
cotisations
migrations
09@@
fonctionnaire
interpréter
fréquent
institutionnels
usagers
Clin@@
conjonc@@
onale
Réfrigérateur
Plastique
kid@@
Old
aurions
retourné
passages
Maz@@
trons
MER@@
dres@@
Dessin
Rober@@
SQL
remplace
Pompe
étagères
conseille
oisse
choisissant
Offre
privilégié
tance
touchent
Kevin
rhume
Phot@@
achevé
enlevé
tabagisme
Test
tifier
brev@@
15-@@
cap
nas@@
aimait
uni
aspiration
littér@@
ration@@
supporte
alimenter
robo@@
Gestionnaire
RDC
oxyd@@
WA
affichent
acceptés
modérée
fiscaux
ï
séminaires
ution
Housse
obtiendrez
Chemise
Acc@@
Tim
Pur@@
ph
Tag
auss@@
prostate
Alice
Directrice
durs
Mob@@
chantier
inscrivez-vous
creux
fabriquées
attribuer
Lanka
CIS@@
ED
sels
développeur
éducatifs
c.@@
annex@@
Aéroports
Denis
digestif
produisant
erci@@
continents
imparti@@
Sain@@
V.
cisme
illet
adu@@
aube
CEN@@
tri
Tennessee
allié
oral
Meubles
tenait
sèches
pénétration
dérivé
OB@@
had@@
Georges
piét@@
poursuiv@@
Provence
Sag@@
consultant
Télécommande
Fleurs
sco@@
siers
remar@@
subsistance
fumeurs
èves
mad
mier
Communautés
clave
Hz
continueront
argile
Décès
Alexandre
pneumatique
télé
Part@@
anium
soulign@@
Apartment
ÉE
quasiment
senti
placements
coréen
Lem@@
pluralité
lles
Book
respectant
envelopp@@
King@@
manipuler
flexibles
scrutin
menti@@
patio
implantation
réuni
You
avérer
Directive
aval
typiques
Bottes
tout-@@
théorique
piliers
vital
certes
entiels
aider@@
eh
LIN@@
atomes
Mario
mos
aér@@
aminés
Fel@@
assage
Immo
demeurer
Canadian
déterminant
consacre
secrétariat
rin@@
ro-@@
Azerbaïdjan
cérébr@@
cell@@
aquatiques
assorti@@
collines
acqu@@
mariés
dll
FIFA
Renseignements
candidatures
romain
label
prétend
Xbox
chol@@
111
Light
refléter
simil@@
borne
guère
enco@@
ben@@
perfection
masques
saisi
nm
détecté
ut@@
e.org
escaliers
Coutu
arrangements
antioxydants
vaincre
isait
Sci@@
chaleureux
Compagnie
offrira
transporteurs
acquise
mentionnée
League
diplomatiques
insérer
perfectionnement
news@@
Territoires
grand-mère
lir
as-tu
Show
meublé
other@@
cio
caus@@
intri@@
Chap@@
County
inciter
bet
ames
chou@@
ampoule
2019-@@
confronté
dec@@
Eli@@
Panama
grade
génit@@
potentielles
intu@@
contrôlés
ł@@
réalités
emprisonnement
échéance
plates-formes
condamnation
Centr@@
appartenance
incluse
enge
Matériaux
diplômé
Vendre
innovante
76@@
WI@@
class@@
prit
lames
Boucles
ship
alignement
ève
vents
VER
Community
romaine
compresseur
fructu@@
Afri@@
pros@@
Sé@@
piston
emballages
départements
Transfert
Ecole
électrode
admettre
GS@@
gad@@
ip@@
Gard@@
marchandise
commencer@@
révo@@
bra
Gros
végétation
alg@@
Arn@@
cc@@
continuons
perfor@@
infos
oly@@
hypothèses
Oak@@
Apprendre
animales
minus@@
INS
gardez
gro@@
contourn@@
violents
bulletin
nal
persécution
gyp@@
pénurie
distincte
arrangement
Canadiennes
envoyées
zer@@
litu@@
dissi@@
dressing
4.
omni@@
KG
demi-heure
North@@
insisté
128
festivals
Lum@@
cinquante
direc@@
observés
Tandis
travai@@
enfre@@
approvisi@@
GEN@@
dement
servira
saumon
passager
Halloween
horreur
localement
ériques
publicitaire
ahi@@
aéronefs
équival@@
constituant
1.4
infirmière
oies
rêver
fonctionnels
Pantalon
agréables
agran@@
ung@@
Grav@@
Shop
cn@@
MBA
ologiquement
Inv@@
survécu
OIT
ARD
régation
bec
Len@@
déco
Gold@@
rassemblement
Sant@@
we
Bangladesh
N.@@
Arizona
Caméra
Acheté
poignées
Security
gravure
grill@@
fat@@
cheurs
AE
interactive
effectuent
collectives
coopératives
exigeant
Aven@@
inspir@@
male
Sp@@
borg
versées
absorber
pleurer
enterré
restreint
excitation
ois-@@
vieilles
allaient
burn
polluants
athlète
attrayant
1900
réduisent
billes
délinquants
IBM
tues
météor@@
Théâtre
trembl@@
Dossier
rides
dûment
excuses
ambul@@
jazz
comprenait
Kenn@@
sug@@
Num@@
proportions
mineur
rassemble
baisser
gay
bola
éen
lan
Broad@@
parad@@
effectifs
J.@@
fax
China
Chargeur
désignée
adversaire
devenues
coller
Entrez
Nintendo
Marché
câ@@
sentier
inthe
entretenu
onnaire
J-@@
ajoutent
aurai
mations
André
Chrome
floraison
excuse
Récemment
CF
excéd@@
bie
appuient
tines
ake@@
dames
épreuves
adapte
restructuration
diam@@
manifester
TPS
ego
UE@@
visages
Pâques
cimetière
Cannes
formées
lycée
sélectionnée
eants
crayon
17,@@
brièvement
SG@@
lisses
centimètres
cam
maternité
¨
T.
charmant
zy
Jane
Gh@@
piège
os.com
plâtre
vif
émettre
16,@@
pirat@@
incorpo@@
vi
abeilles
gau@@
79@@
NC
Lampes
Mul@@
suffisantes
vide@@
cuisinière
sophistiqu@@
colorés
matiques
Rav@@
52@@
ML@@
chargées
modu@@
Cook@@
déploy@@
clics
Sc@@
Bom@@
pale
vierge
agement
Somalie
diffus@@
Plaquettes
rette
acher
MÉ@@
climatisé
Jus@@
Écran
authenticité
placées
GP
issu
ör@@
ophy@@
finit
répétées
tactique
singu@@
rh@@
Créez
touches
mélang@@
Européen
▪
eum
Master@@
RF
Sach@@
Excel
poésie
èdent
Up
agress@@
Lot
manus@@
respectives
Nantes
wn
Pêches
Parallèlement
KE@@
mutation
incapables
additifs
dh@@
suffi@@
Réf
kitchenette
vives
marquage
tendre
Slovénie
compliqu@@
clu@@
dress@@
venues
forcer
formelle
talen@@
Galles
entaire
1A
dévouement
FIN@@
suspendre
Dan
bir@@
Ye@@
remplit
emprunter
Chaise
ère-@@
rail
tionnement
Eco@@
qualifiée
param@@
ôme
jour-là
élo@@
head
Ele@@
Féli@@
musical
architectes
evo
capturer
circonscription
odor@@
cage
centaine
Riv@@
thématiques
crimin@@
clai@@
arbitr@@
délégué
grand@@
WO@@
Rica
Team
aming
aventures
MR
possédez
kes
BRI@@
douan@@
Statistiques
aquatique
battu
impressionnante
Control
Stockholm
versements
vall@@
grosses
super-@@
19.@@
crois@@
corporel
dois-je
gardien
Règles
Centrale
conservés
wick
extraire
empil@@
acité
réglé
Semaine
appliquant
FE
Valence
remplis
émotionnelle
cordes
territoriales
Générale
OMPI
cev@@
Sah@@
pulvérisation
hn
conqu@@
Précédent
to-@@
bouillante
Casino
fé@@
entourée
éruption
Haye
vitr@@
Allemand
Paul@@
Dru@@
énumérés
iti
moyennant
irrigation
épu@@
perpétr@@
entraînant
rejeter
19,@@
CIO
ddha
signés
renvoi
mai@@
félicite
démarches
bouchon
ges@@
sauvegarder
Lituanie
andre
moulage
las
Intellig@@
att
expose
pag@@
Cartes
déclencher
gonflement
nar@@
fonde
pôle
Celle-ci
Ciel
superfici@@
conceptions
connectée
diagramme
Agr@@
scrip@@
combinant
work@@
évolutions
morph@@
déformation
stimulant
č@@
park
récession
Diesel
allaitement
acti@@
DRO@@
pyram@@
Book@@
variés
repos@@
ova
cker
prescription
poussent
Tir@@
générique
Stan@@
NRK
résul@@
Indien
ben
en.com
empêchent
chou
aste
Voitures
oirement
disciplinaires
cacao
MR@@
Jeff@@
get@@
aile
Kath@@
Machines
Lewis
sexu@@
fondamentalement
ez-la
héli@@
imprimée
145
regroupe
stal@@
mélanges
U.@@
pathogènes
bonbons
routeur
causées
béni@@
Carlos
Inf@@
assurés
fê@@
cope
Brand@@
Bio@@
porcelaine
Fur@@
facturation
végétaux
inévit@@
demeu@@
rai@@
ouvri@@
retenu
Charlie
menthe
550
Événements
black@@
.nl
voudr@@
glu@@
dine
pays@@
anat@@
richesses
Wit@@
exercé
orbite
xy
attitudes
yon
inévitable
mâles
goûts
Questions
illégales
lourdes
réputé
Public
accusés
ressemblent
recevra
orchestre
e-temps
nuclé@@
réit@@
E.@@
approuve
mec
Au-delà
Industries
compéti@@
pp
Miller
démographique
Exper@@
ar.com
conservées
après-@@
Auteur
rad@@
aks
Massachusetts
flam@@
cruci@@
Espagnol
prouve
Vista
dissu@@
cos
dot@@
évalués
Dyn@@
concepteurs
levage
Clu@@
antérieur
profess@@
boulot
audition
ilia
ART
glacée
aia
1.0
procure
Caire
aperç@@
contac@@
immin@@
park@@
Lak@@
prenne
découpe
Fil
ésie
tos
rempl@@
éth@@
conditionnement
Posez
yr.no
clari@@
Objectifs
Personnel
rédigé
Démocr@@
remplies
Choisir
Val
déser@@
Avantages
carottes
fluides
bambou
Press
famili@@
remorque
74@@
inspire
transmet
culpabilité
femelles
emmener
Kol@@
organisateurs
mélangeur
cataly@@
parallèles
musculaires
yo
nég@@
édée
explic@@
rendements
plafonds
dar@@
RON@@
indiens
stipul@@
requêtes
hia
enza
arbitre
worth
préférez
turés
appuyé
entrés
REN@@
banc
denrées
cruciale
triques
I.@@
éthiques
mynetfair
lissement
Dés@@
individu@@
écu@@
duré
armoires
rich@@
Pix@@
Mieux
averti
304
itante
ott
Link@@
turque
comprenons
vraies
dge
Modi@@
Net
monastère
formul@@
European
justes
explicitement
financements
adolescent
piè@@
rapprocher
ssi@@
atout
Réserve
pixels
parfaits
peign@@
gagnants
bér@@
Manu@@
spécialités
Zo@@
désirent
chap@@
lure
io@@
Mam@@
PLUS
œuf
compétitions
fitness
Vend@@
Has@@
Tex@@
inspec@@
conform@@
Police
noble
protég@@
designer
mén@@
RC@@
Li
rabais
soucier
Power@@
asy@@
mosquée
red
Définition
citation
habituel
chlorure
requ@@
3-0@@
rétention
kel@@
ratification
pseu@@
Fid@@
baign@@
séquences
LT
socio@@
ingo
doublé
dj@@
ct@@
Wars
★
partent
confis@@
view@@
Prom@@
oignon
Lincoln
propice
commodité
ology
18,@@
Equ@@
1944
Silver
Pren@@
Document
reliée
gonflable
osse
maintenue
confor@@
puces
ian
ruines
erron@@
acceptent
intes
fient
recouvrement
condens@@
4,5
2017-@@
analogues
SM
DG@@
brique
traditionnellement
écologie
entour@@
courriels
Ie
interrupteur
le.com
tech@@
vanne
BAR@@
Academy
bac@@
EP@@
compagnon
encier
fassent
coupes
géni@@
swe@@
elé
diagnostiquer
maj@@
cm@@
profite
bom@@
1965
tram@@
acs
aissances
exag@@
Publi@@
communiqués
tremblement
routières
rat@@
gations
ín
allergie
décisi@@
Eg@@
divulguer
saut
recens@@
script
caux
généreux
Évitez
Frais
périphérie
gratitude
jointe
iso@@
Adidas
122
airie
inc
décri@@
rapidité
seurs
orts
infectieuses
progressé
sauve@@
Sir@@
oient
pre@@
1-2
ralentissement
mangez
gy@@
Mesures
empois@@
indemnité
ice
Space
vietn@@
ary@@
sexuellement
allai@@
Mich@@
refroidir
détaillés
Lisez
regar@@
déposées
criminelle
dédu@@
préférées
rup@@
Écosse
magazines
ches@@
caféine
EF@@
nomin@@
Qui@@
Band@@
Viol@@
oreiller
intéressée
Océans
Comté
suisses
Dame
pareil
kW
WW@@
manquent
compétitif
TR
bos@@
Comprendre
ramen@@
0,1
Orléans
magnétiques
Cho@@
réussi@@
approfondir
analystes
nomme
dériv@@
Immobilier
istance
Flo@@
Arménie
destinataire
partagées
foul@@
invalidité
protègent
chaussettes
décoratifs
ême
studios
roug@@
encouragé
vécue
Appareils
imprégn@@
Fly@@
Répondre
abandon
oile
inoubliable
seu@@
manu@@
Ultra
exceptionnels
raisonnablement
cht
LO
réveiller
Abu
Fol@@
harmonisation
proactive
32.@@
Capteur
transfér@@
stages
matérielle
ressenti
Kosovo
partici@@
guez
fret
réchauff@@
ili
Conserv@@
suivies
nia
aa
tch@@
suspec@@
employée
berry
Roulements
row
inclin@@
e-de-@@
accen@@
ALI@@
Ferr@@
pirates
Indiana
TON
videmment
énique
XXI@@
Montpellier
vérifications
700@@
occu@@
apportera
Classi@@
isants
Mount
privilégi@@
Water@@
considérons
précautions
Games
fic@@
Suppl@@
polar@@
atomique
Architecture
coc@@
ège
tice
Dell
remerci@@
ci-@@
Court
sz@@
coupl@@
Kiev
LM
4G
Né@@
Mini@@
nerv@@
Émirats
restée
récol@@
KA
hin@@
nage
découvrirez
borough
SL
Voy@@
arde
Victor
TL@@
carbon@@
Axess
retards
volets
recevront
Énergie
chapitres
cylindrique
révis@@
s.
plate
civi@@
viabilité
slov@@
liban@@
auriez
Objectif
design@@
composite
Ern@@
rive
Ell@@
finitions
significativement
ow
aster
ordonn@@
ka@@
mascul@@
extraordinaires
iner@@
KI@@
contam@@
SV@@
val
900@@
STE@@
requérante
détéri@@
pulmonaire
intervalles
gées
Trop
confère
chait
personnalisation
débute
iez-vous
stupé@@
Initi@@
commerçants
trucs
25.@@
aissant
Kris@@
ink
visas
off
boue
juridictions
atiquement
cohér@@
panique
dizaine
accélér@@
optim@@
inacceptable
Arti@@
Wood@@
dex
fit@@
contactez
Ris@@
amélior@@
amas
répéti@@
380
lions
Barr@@
Composition
pins
yant
2-0@@
approxim@@
ressembler
20,@@
SIDA
globe
athon
start-@@
ophi@@
comptant
problématiques
systémique
liaisons
Xi
navi@@
GC
Ka@@
avo@@
teux
ass
menacé
K.
évolue
naval
vité
coiff@@
Itali@@
exploitants
LLE
lavabo
aptitude
acquit@@
Dollar
habite
Davis
comparables
débou@@
notifications
imprim@@
2020-0@@
re.com
m-@@
ó
avenue
pattes
rediriger
Protég@@
Fis@@
indic@@
buanderie
Cheveux
onnette
suédois
Sul@@
consom@@
RH
spacieuses
neur@@
Répertoire
immobilière
icain
fatigué
diab@@
Stuttgart
Imaginez
stic
syndi@@
issait
MHz
Hen@@
prédire
Facile
Vladimir
payante
Dre@@
cassé
talon
sculptures
équivalente
siques
tob@@
concessionnaire
cis@@
Fit@@
ferm@@
vides
familiaux
Concernant
réservoirs
tombée
sible
recommandent
scor@@
signi@@
agri@@
Dig@@
2.3
Contact
recherché
voyant
itement
ther
glyc@@
anto
Mercedes-Benz
sélectionn@@
productive
gs@@
amin@@
no-@@
lang@@
Kelly
ultra
concern@@
teaux
ombr@@
enrichir
affichés
Council
élarg@@
QUES
.-@@
toir
crist@@
mystéri@@
LTD
démontrent
SION
Sym@@
collèges
recouvert
glo@@
Ox@@
soulignant
Expl@@
rapp@@
ahu
Compos@@
québécois
2018-10-@@
Over@@
von
Alaska
CL
interfér@@
courtier
alphab@@
paludisme
allergiques
Dernier
Abi@@
hétér@@
fabri@@
grand-@@
124@@
dium
zip
Pun@@
suspects
urban@@
respir@@
Possibilité
tori@@
Portefeuille
charte
Régime
véni@@
tambour
Constru@@
décoré
ş@@
terne
infiltr@@
Ton@@
ebo
dar
configu@@
Voyez
digestion
Evolution
fondés
restés
Applications
exu@@
déclarée
Int@@
Dri@@
yen
51@@
profil@@
transformés
fourni@@
traversé
pari
jeû@@
clarifier
échantillonnage
avantageusement
±
terez
thermiques
soutenant
mystérieux
modifie
aye
ases
contribuables
intégral
vieil@@
Bourgogne
fonc@@
vieil
oba
anime
fragile
cherchant
toires
akh@@
96@@
approuver
major
compac@@
anç@@
DER@@
Promotion
nourrissons
Vin
significatifs
profitant
trique
plaqué
intelligentes
primes
bouillon
initiales
Social
Usine
voulions
ska
consolider
Travailler
Marketing
Bach@@
health@@
esque
Mi
déplac@@
saveurs
URE
uk
judi@@
JVC
rangs
serrure
Troisième
cant@@
encourageant
comprenez
muqueuse
Nova
Gou@@
lux@@
16V
98@@
num@@
égales
TPU
ce.com
band@@
4-0@@
attachés
ménag@@
demandés
Ryan
sim@@
Bloc@@
bulles
175
Java
reli@@
adéquates
élé@@
Appel
ann
LD@@
relief
stimule
extinction
inconnue
grec@@
dav@@
finis
édé
obe
professions
inscriptions
installe
fermées
excessi@@
tempér@@
infin@@
Rain@@
cyclo@@
relèvent
Généralement
Kennedy
humidi@@
bj@@
octroy@@
hof
iz
entrepr@@
Andre@@
auberge
core
Portable
entretiens
masculine
Sport@@
home
stéré@@
Résultat
sortium
Appel@@
magistr@@
Alibaba.com
cu
Sir
continuerons
renvoy@@
sables
107
provoquent
siez
mensuelle
cue
HA
2016-0@@
téles@@
stress@@
interprète
work
ats-@@
aissent
xi
ignore
aîtr@@
Jeunesse
plex
DANS
gross@@
extensions
abou@@
immuno@@
déguster
prolongé
localité
renom@@
compétents
Comm@@
périodiquement
SCH@@
stockés
Nunavut
Destinations
manif@@
cibler
aler
instituts
orie
quants
designers
dures
arrivant
org
prévalence
ènement
Kil@@
triple
clini@@
détaillants
online.com
vendent
constitutionnel
DEN@@
Catalogue
brisé
adhérer
cérébrale
cueil
éments
pap@@
disparaît
arning
Améliorer
ht@@
malveillants
HY@@
Dispositif
Fabricant
ième
piég@@
alé@@
érées
contempl@@
compositeur
Bruce
innovant
Joy@@
Heypik
dommag@@
tw@@
1964
expérimenter
policier
Real@@
isseurs
-7@@
envisagez
VO
sets
qi@@
Nelson
réflexions
pilotage
attendait
ultérieurement
autri@@
çu
inaires
obligés
Agri@@
Secteur
collectivement
PT@@
Bulletin
convain@@
Playa
Chat
116
ox
ways
isa
inité
prescrits
Bref
épo@@
1966
piques
euve
éte@@
gom@@
rétr@@
axi@@
2016-@@
Chau@@
effr@@
glycémie
repère
appareil@@
28.@@
copier
Wifi
livrés
minimal
22,@@
embauche
verti@@
exactes
Water
trempé
raisins
IM
cités
Macédoine
Douglas
norvég@@
litiges
Santiago
frot@@
logue
Boîtes
fléch@@
titane
Particip@@
lève
stéréo
Yves
polit@@
Pow@@
Heure
Cisco
subissent
demander@@
douces
péni@@
14-@@
desc@@
edi@@
enger
TOU@@
192.@@
Train
globalement
Décor@@
bâton
électoral
ovo
référer
Map@@
territoriaux
INTER@@
Las@@
voudrait
Samuel
recueillis
94@@
spectaculaires
Cann@@
mos@@
CY@@
dation
chanceux
Opér@@
tumes
pilules
sales
Installation
quette
grand-père
désign@@
ION
importés
Plas@@
Card
galeries
Chevrolet
conduisant
explicite
pouvons-nous
sélectionnées
open
oniques
MAX
opérer
gny
prospère
contrer
superbes
Crédit
efforce
exemption
fontaine
Voyager
lov@@
cières
confirmée
attachement
aft
soli@@
parquet
Production
Randonnée
Open@@
craindre
Championnats
VII
CTION
ope
Jum@@
gers
Fres@@
VIP
TW@@
illo
fr
jiang
Respon@@
vain
iles
ale@@
Imprimer
oxydation
165
attir@@
Mondial
oto
tez-moi
Matt
aisément
équation
Morgan
Visa
TAN@@
huitième
acceptées
Francis
ASFC
compliquée
significatives
cubes
Bun@@
Myanmar
achet@@
assin
mesuré
Sto@@
pandémie
cable
Vestes
soulever
Tours
marti@@
roche
ende
ancier
Phuket
bloqué
istiques
Board
analogique
hur@@
peuv@@
Colorado
Wisconsin
1-1
préh@@
infirmiers
PPT
toxicité
PowerPoint
igh
tateurs
WA@@
brise
kinson
logici@@
nôtre
mens
conditionné
délivrer
Mohammed
vache
relie
ve-@@
geant
Tuyau
mc@@
revues
Manches
Né
souri@@
over
diviser
obten@@
algorithmes
rebon@@
Examen
prolong@@
bleus
cruciales
sén@@
Justin
Africa
mau@@
CHA@@
soutenus
DER
Bourse
imposée
Nigéria
concrets
Mitsubishi
index@@
1961
Kazakhstan
hausen
Trad@@
plaign@@
présentera
Big@@
NY@@
mix@@
Démar@@
gestes
diffère
plus@@
tale
identi@@
is-je
kov
Cris@@
nien
trage
mentionn@@
zar@@
gig@@
key
annulé
Color@@
praticiens
détresse
relier
Lille
over@@
bureaucr@@
astuces
lumin@@
impératif
république
260
isolés
contextes
intimidation
-01
attacher
2018-@@
races
esser
Niger
victoires
latéraux
modeste
hormon@@
vendue
1963
Slovaquie
Publications
exclus
investit
Walter
fant@@
stabiliser
cip@@
Porte-@@
onze
Copenhague
chage
issage
agers
fécon@@
trajectoire
Creek
indiennes
bâti
1-0@@
Conçu
TÉ@@
ordonne
parisi@@
doubl@@
2007-@@
dotées
97@@
demeur@@
collision
Lon@@
intoxication
PRI@@
Travaux
élargi
volon@@
èg@@
albums
EI
Sont
doubler
McGill
tirés
Arab@@
bron@@
opti@@
Vice-@@
Woo@@
bouill@@
2019-01-@@
isolée
égards
Cadran
érieurement
golfe
turquoise
appell@@
Mesure
Contactez
danser
péti@@
soufre
communément
tais
rô@@
stars
ID@@
ua
relevés
Imag@@
répandue
woo@@
wan
Exposition
Sound
Chang@@
Hat@@
Boul@@
examinés
typiquement
Tradi@@
sanctuaire
apportés
guidage
voudrez
util@@
entourent
placard
unilatér@@
Zimbabwe
Autor@@
Pul@@
feuill@@
dt
1.3
limitations
sondages
forc@@
entreten@@
nerfs
saleté
justification
recharge
stig@@
Hand@@
correspondants
Varsovie
franc
Products
Had@@
Fonc@@
déroulement
écoutez
Domin@@
Baby
devenant
Jeff
consommé
cachée
pistolet
raccor@@
monstre
HR
Harper
faces
gang@@
ANG@@
atori@@
découle
dépendant
lave-linge
ules
vendues
argu@@
cote
sibles
Glasgow
défenseur
Ibiza
intrins@@
Signification
acom@@
héri@@
mentionne
renforc@@
import@@
disposant
ajustements
réglages
répl@@
esco
conduisent
hydrocarbures
freinage
communiquées
Cob@@
z-vous
maille
Ken@@
chimi@@
reliées
Burkina
tournage
quasi-@@
habitats
Bâ@@
Changements
urgences
Estonie
Grossiste
commises
faiblesses
terai
thor@@
Sty@@
opter
ads
pos
Aman@@
démon@@
acquises
chapelle
finales
familier
Croix-Rouge
1962
shop
capsules
brûlures
servis
soigner
Fam@@
Plaque
24.@@
21,@@
chirurgien
acquitter
gentil
commencera
réversible
Aviv
poursuivent
mess@@
francophone
périodique
cercles
Salles
minérale
dragon
sis@@
Ny@@
archiv@@
IX
renouvel@@
gram
bli
Spo@@
Fille
codi@@
reliant
Rid@@
121
kon@@
pée
fédération
subven@@
cutanée
Hiver
Lettonie
démissionn@@
consacrés
Camp
analysé
e-mails
riel
Vinc@@
Clark
corrélation
dévou@@
acy
prévoyez
Development
tél@@
Alex@@
gueur
nocifs
ae@@
Commen@@
trouvaient
aléatoire
123@@
observées
LY@@
animée
influences
ats@@
One@@
modern@@
quis
creu@@
Stone
ation.com
Ric@@
empreintes
Pont
réclamations
influencé
vingtaine
hydroxy@@
éo
nominations
Fix@@
chon
bank
DM@@
Gong
lax@@
una
XS
rentables
Turin
COMP@@
Ouvrir
cott
RU@@
èses
wc
Nancy
rideau
achètent
nour@@
109
capsule
renfor@@
curiosité
susciter
arché@@
bun@@
mélangé
ana@@
ente-@@
forcés
nouveautés
gingembre
Déjà
distinct
MAN
garantis
STI@@
IRSC
minces
donnons
êtement
205
Claire
terminant
Prise
Wy@@
gardant
garantissent
ERS
ISE
co.com
aéronautique
Montr@@
sont-elles
e-et-@@
perle
garantissant
parvient
Sauveur
neuves
oh
sucré
arth@@
Gau@@
lob@@
ez-en
derie
OS@@
aît
Outil
aces
TUR@@
Honorables
prestigi@@
fabriquée
mortes
A4
de.com
vulnérable
Market
export@@
Diver@@
nik
arôme
Hass@@
souhaitée
imagine
jacuzzi
rus@@
carence
Dat@@
Scienti@@
drone
Spec@@
Musi@@
gluten
accident@@
h-@@
Galerie
Partenariat
Âge
apparente
Mercedes
sd@@
Dir@@
étudiante
strict
jurisprudence
Marti@@
ples
JO
bordure
férences
exploite
viendront
proté@@
quarante
sv@@
gang
serrage
117
03@@
gni@@
dan
Jouets
icaine
serpent
Led
papillon
terminaux
trésors
dramatique
nant
Récits
attrap@@
orial
projet@@
Forme
Carr@@
chèque
Menace
plat@@
célébré
reaux
construites
cles
Cité
adoptés
assujet@@
lton
réserv@@
24,@@
Palace
rénovée
ingu@@
Consult@@
Jason
protec@@
natation
ograph@@
Afric@@
présentons
faction
Gom@@
Chal@@
tache
ativité
Atelier
Idées
Couleurs
décident
ider
PM@@
Pharmaciesworldwide
phén@@
perçu
guid@@
LP
promet
lapin
Laura
Hop@@
figur@@
primi@@
apportant
irlandais
déplacés
ht
201
procède
cerner
Termin@@
enrac@@
restreindre
appelez
raccour@@
Next
Génér@@
Dani@@
Cape
privilèges
brand@@
anomalies
éclair
drainage
Toile
Georgia
touchée
fissures
42mm
installées
respectu@@
A-HOTEL.com
Yam@@
jouez
quasi
Autom@@
132
homologues
trau@@
costumes
covoiturage
1800
adversaires
évalue
stipule
réfrigér@@
signalisation
CAD
dégag@@
addition
shop@@
chauffé
Tendances
18-@@
usagé
promett@@
quarts
autocar
Work@@
27.@@
2014-@@
commode
mem@@
KE
haricots
First
show
Logo
variées
Agu@@
soif
menté
Agences
traumatis@@
FF
subit
Mont-@@
atin
sache
ys@@
identifiées
chall@@
You@@
LIS@@
formulées
sia
Birmingham
TOR
verrou@@
bombes
analyste
visitmode.com
wan@@
LLE@@
souhaitant
sonores
répétition
Pacte
porno@@
iss
instabilité
désaccord
stupide
méthod@@
bouillir
indre
e.
Cornwall
maternel
tactiques
Care
importé
Déb@@
Fleur
solée
étiqu@@
Guy
Sàrl
gton
buil@@
aptême
augmentera
chevau@@
aou@@
vern@@
artificiel
Ple@@
malnutrition
Guatemala
tér@@
Nettoyage
dépensé
Chacune
grille-pain
arom@@
accél@@
Smart@@
écarts
débutant
etto
cinémato@@
compétitifs
transférés
edo
australien
Gabriel
quar@@
uma
inscrite
volcan@@
DIN
Charlotte
times
néfastes
inette
munitions
Méthode
collabore
alien
forestière
1,3
dégrad@@
issi@@
renseigner
diteur
origin@@
Rapports
phonie
lointain
Mom@@
Lady
0,0
Info
arry
entin
ints
Salvador
T.@@
Nettoy@@
itar@@
fices
anglo@@
inox
firme
Falls
Hur@@
électrodes
intestin@@
Barbara
primordial
solo
tabilité
OU
Championnat
prédéc@@
coach@@
Shu@@
glandes
Gall@@
luxueux
LI
Coin
réservée
pâ@@
Nic@@
parcelle
intenses
ashi
fût
cades
Coussin
liez
évaluée
valider
subli@@
conjoints
allemandes
soulève
Kids
acés
financièrement
25,@@
RES
ne-@@
rotor
280
Jas@@
contrô@@
CAN
matinée
plénière
platine
concrète
Docteur
tomate
illimité
Tot@@
illée
collo@@
exprimée
63@@
fertilité
revêtements
1,6
Daw@@
cateur
I.
axés
pénètre
ull
wifi
rappell@@
aïques
Ocean
Cay@@
commentez
Feuille
Bateau
augu@@
mas
Dragon
0,00
méth@@
ébullition
institutionnel
Notre-Dame
114
homogène
démarre
issa
jection
Lampadaire
côtières
raccordement
Inoxydable
provoquant
mammifères
Kle@@
Catalogne
Champagne
cf@@
ders
serie
péd@@
pittoresque
Jéhovah
English
meuble
Medical
successi@@
coles
annuellement
TAL
primé
dissimul@@
stricte
Port@@
rejoign@@
transversale
rapportent
Roy
andais
faites-@@
itanniques
règl@@
éclairé
agen
catégor@@
mènera
descriptions
Convient
iseur
drome
rat
Miss@@
tisseurs
vibration
imprenable
Objet
Camion
délicate
fantaisie
localiser
orité
Nag@@
fonctionné
configuré
Opel
york
02@@
infini
MU@@
formules
RP
spécifié
nautiques
Imprim@@
Pir@@
inets
artisans
Jin@@
isement
normaux
Louise
3.2
Rotterdam
Dy@@
sam@@
ceaux
ciblées
Coopération
Communi@@
Uni
Chir@@
aton
maximales
concepteur
Soutien
merveilles
fici@@
Cass@@
cabinets
Allen
ètent
enregistre
Sad@@
dical
Eth@@
tentes
compacte
planétaire
précédant
PNG
gem@@
Rév@@
Trust
tirées
ulaire
mensuels
distribués
Fonctions
mus
surviennent
teinte
graphies
projections
progr@@
ciers
Philadelph@@
.jp
Lignes
Bridge
postale
handicap@@
modulaire
rappelez-vous
respectées
transformée
impér@@
dureté
lières
Ross
préliminaires
Chaîne
patronyme
av
désiré
conju@@
commenté
124
ect@@
atrique
-8@@
Kent
asse@@
Formule
arab@@
étagère
Basse-@@
dérang@@
amplificateur
prochainement
introduite
ariens
ométrique
Mohamed
téléphonie
manie
atri@@
RT@@
frigidaire
ométrie
globales
istan
essieurs
215
Occident@@
haut-parleur
ras@@
mandats
alimenté
Urgence
désagréable
digit@@
cor
entraînent
vivantes
DG
bau@@
boite
Prest@@
clip
Hard@@
assiette
municipaux
Veterinariansguide
Faso
TY
merde
cb@@
Népal
198.@@
ski@@
Chim@@
pédagogique
exhaustive
dumping
hil@@
inconfort
bia
satisfaisante
SEN@@
anique
lithium
mettr@@
instaurer
ravi
giques
tromper
ministérielle
current
passionnés
tributions
Atlas
ANCE
amaz@@
réalistes
valve
stat@@
timité
plonger
géométrique
vitrage
MENTS
purification
restants
Soin
incontournable
cession
brouillard
constructions
tag
envoyez
pliant
chiffon
Roy@@
Va
Éch@@
arche
abdomen
2004-@@
retours
siég@@
ay-@@
menter
promoteur
encombr@@
générés
igne
passif
centi@@
ion@@
identifie
astre
Aug@@
incur@@
Bog@@
récipro@@
aca
chy@@
administrer
enzyme
constipation
essaye
Tube
pper
profonds
Amériques
CB
aquarium
dal
trot@@
médiév@@
incorpor@@
repér@@
Franklin
Band
Parti@@
sécuriser
étin@@
160@@
renvoyer
comptoir
dépassant
UL
Rico
nickel
bizarre
cot
acé
sommets
continental
Circuits
érosion
tura
approximativement
aco
ozone
délégations
boy
immen@@
Appareil
accrocher
traductions
lyn
Stre@@
débris
reposent
140@@
reflet
Liège
déplacé
Exam@@
inclusive
locataire
présentement
270
Plate@@
ographe
aptitudes
arrêtée
multipli@@
rationn@@
évacu@@
causent
ı@@
définitif
Surface
hybrides
niques
fondu
prêtes
Bologne
emblématique
bénévole
plié
odeurs
CANADA
pois
Lodge
pill@@
Marco
Ni
To
Stri@@
Sky
Servi@@
Sant
OC
F1
radical
légendaire
évit@@
UA
Anthony
impliquent
Veill@@
valorisation
Kyoto
périmètre
signalés
ûte
Sahara
Aus@@
Â@@
scanner
olet
Thème
endurance
semelle
contemporains
évoqué
Aller
contrôlées
fiquement
Classement
insuffis@@
impressions
Tendance
mangent
ather
bougie
Pal
GD@@
Di
Tin@@
pavillon
voyageur
isseur
bras@@
payez
satisfaisant
doublure
perfectionner
tissant
accréditation
Administr@@
aspirateur
portraits
sirop
TD@@
pousses
Luminaire
Kno@@
Moz@@
Cath@@
sortant
oncle
boul@@
plaqu@@
marchands
commer@@
brun@@
rale
25-@@
inflammatoires
incidences
zons
drame
seins
Bin@@
burgh
elage
2000@@
thaï@@
Women
Préparation
Ta
Joh@@
subjec@@
Jonathan
ressenti@@
COVID-19
Pompes
imposent
sûres
coli
Fli@@
Age
FU@@
représentées
codage
améliorées
Nick
comptait
chuté
Vas@@
A1
23,@@
évier
JA@@
viers
résistante
énum@@
antiqu@@
soluble
auton@@
poign@@
nécess@@
commençons
Hob@@
entendent
quantit@@
rez-@@
Principes
curr@@
commutation
déman@@
Restez
chante
élasticité
retard@@
different
remarqu@@
résume
éros
arrière-@@
favori
hein
pétrolière
disparaissent
relax@@
libr@@
38.@@
traumatisme
Da
Bonn@@
natur@@
symbolique
Phase
ventions
Ç@@
book
remplacée
abstr@@
Amazon@@
opèrent
ß@@
nis@@
mile
valid@@
confortablement
souhait
diplômes
Antoine
Lux@@
ustensiles
fiduci@@
LD
dentiste
Éthiopie
cks
ontari@@
plait
Family
ally
1949
parviennent
franc@@
dela
KW
additionnels
viti@@
rep@@
asso
payée
clique
16-@@
obs
interdits
horlog@@
Patri@@
logi@@
jour@@
Bahn
dissolution
Fou@@
élévation
attribuée
çonn@@
desquelles
voyagent
mettrons
coopérative
municipales
Conseiller
yez
grossi@@
argo
effici@@
ministériel
gnols
Valentin
éthy@@
20e
finaux
baroque
vitale
84@@
emmène
Canadien
dront
insiste
conjug@@
savoureux
Souv@@
supprimés
city
cardiovasculaire
1,4
littéraire
s-de-@@
115@@
coquille
cérébral
bride
talons
Rh@@
colorées
passionné
témoigner
ARI@@
Provincia
Mexico
coff@@
sap@@
gins
évite
33.@@
GH@@
Bague
constitués
Jenn@@
répète
Miroir
dam
pénales
réputée
berge
EM@@
ral
molécule
visait
sph@@
Etes-vous
Statut
neau
occident@@
chor@@
communique
40-@@
ct
Ceinture
soulevé
Laz@@
entrepreneuriat
ÈRE
essionn@@
arrosage
tié
sures
delà
souhaits
osseuse
baptisé
apparten@@
représentait
voisine
pilier
révisée
préd@@
otage
instru@@
connecteurs
saura
Marg@@
attribués
hill
radar
démangeaisons
FP@@
anche
ush
pist@@
tendent
exon@@
amateur
arbor@@
aggraver
expérim@@
coutume
Étude
aisses
natale
Quartier
remarques
TT@@
Fournir
ww@@
Gem@@
bougies
recommandées
édit@@
ank
serrer
arienne
mutuel
sincèrement
DB
bleu@@
rangées
Ethernet
6-0@@
perturbations
hiz@@
diffusée
éventuel
è
éliminé
kam@@
motos
Tch@@
eantes
Marrakech
gym
militar@@
gares
contenue
régulateur
Sig@@
plaignant
Holiday
lubri@@
sanction
travers@@
estin@@
clô@@
impulsions
minuti@@
letter
prioritaire
Début
pon
contacté
transi@@
Aires
1947
enti
colorée
Dix
cland@@
opposés
rug@@
PAR
180@@
Utilisé
classées
1917
istant
flamb@@
Junior
négligence
percevoir
ña
mark
coag@@
libérés
vagin@@
ètres
décorations
bénéficiant
pno@@
détriment
South@@
Fauteuil
Lave-vaisselle
actualités
draps
eria
dir
Valeur
Hos@@
carrières
rhum@@
régénération
brute
rives
produira
airs
CNC
gles
19ème
Villas
décou@@
totales
-9@@
livraisons
Pens@@
regardent
alertes
4ème
Performance
Mach@@
73@@
coudre
examinées
synchronisation
acquisitions
dissoci@@
évitant
fondements
Poli@@
définissent
globaux
lumineuses
révisé
EU@@
Centres
voi
virale
éligibles
DH
Africains
comprendra
bulle
dio
néer@@
CPI
Normandie
asie
Full
intensifier
3.5
Sz@@
Mack@@
immerg@@
solvabilité
PH
aqueuse
éteindre
tiroirs
exploité
étariat
dépendra
réadaptation
Châ@@
EZ
Sécuritaire
Dimensions
queurs
sine
productif
Minnesota
Wer@@
Cancer
Jar@@
MK@@
19e
tropicale
pl
Bill@@
HF
1918
beau@@
déposés
pie
alternatif
Kim@@
éclat
dités
concentrés
intimi@@
suspect
comédie
pection
BRA@@
coupa@@
gâteaux
pores
factur@@
Ban
tarifaire
roches
Vivre
arriver@@
Ecosse
chevelu
agroalimentaire
TURE
Licence
avoués
-N@@
cose
Extrait
angu@@
Divers
portation
Taiwan
Back@@
FRE@@
inière
corro@@
continentale
Country
ating
Lausanne
Sept
ness@@
retombées
amar@@
encourageons
conduits
App@@
Gaz@@
fiches
cocktail
levure
Doté
applic@@
Pedro
Bes@@
doi@@
apte
DB@@
novatrices
aïque
cier
par-@@
NET
zir@@
prodi@@
gies
Invest@@
Nokia
Sak@@
dégénér@@
envisage@@
lavé
tirage
Alph@@
traver@@
Snow@@
projec@@
Seattle
andy
KI
Willi@@
inspecteur
respectés
Message
fœtus
horizontal
ancé
isolant
compt@@
atement
Bas
Sus@@
zen@@
comprises
Shop@@
trim@@
Medic@@
right
SUV
Julie
réhabilitation
fente
ament@@
cultur@@
tern
Script
Forest
shore
prononc@@
écoss@@
transfrontal@@
sans-@@
stocké
Seine
Sli@@
Étui
irritation
1.8
couronne-vissee
excu@@
tonn@@
Succès
Jets
convainc@@
câblage
Id@@
Firefox
préoccupé
list
idéaux
reprend
culp@@
Ministres
numérisation
jeu@@
rédiger
fuites
eland
statuts
encouragés
Sofia
phon@@
Benn@@
grad
Religion
criminelles
recouv@@
ang.com
Capitale
Zen@@
w-@@
combinées
Fitness
ﬁ@@
réalisent
Mr@@
séjours
hémisph@@
tisation
5e
O-@@
get
déclarant
pdf
chester
offici@@
Shell
Mang@@
virtu@@
Placez
Offici@@
Méd@@
interrog@@
Leon@@
acry@@
rétract@@
itable
usinage
Poignée
omég@@
mart
any
.us
Magnifique
sati@@
rondes
expliquent
métriques
cin
envisagé
Ouvrez
Économie
agenc@@
Asie-@@
émul@@
throm@@
acon
eter@@
intégrale
phones
225
posté
plaies
assume
Anderson
Buck@@
Touch
inconnus
ket
cérémon@@
crou@@
multiple
râ@@
fle
fous
anta
habiller
arrivées
ista
prospér@@
fameux
Glob@@
achevée
Law@@
bourgeois
GP@@
Pop@@
cendres
BT
artifici@@
préjudici@@
senal
programm@@
désinfec@@
nets
Alan
aciers
déroulent
descendants
paris
Lab
dram@@
assemblées
immig@@
digitale
155
entrevues
spec@@
écouté
subséqu@@
Andy
éclair@@
OR
cils
Impression
chaussée
afe
Partager
restez
TRAN@@
èn@@
imm@@
aîtront
compren@@
grad@@
apportée
itre
4000
différend
couvertures
ems
Kate
rite
intolérance
Tchad
Alabama
brus@@
agrément
audiences
Contin@@
bornes
convergence
LL
pénétr@@
voyageant
alt@@
banlieue
Feli@@
soucis
profitent
attentif
ams
Orchestra
sez
Texte
couvertes
Savi@@
lore
axées
Grey
zoo
auxiliaire
transvers@@
intégrant
précaution
dépassent
vocabulaire
accueillant
longueurs
promo@@
érations
pue
Notes
instar
ovale
diét@@
CRO@@
bail
agréé
204
antioxyd@@
algues
compromettre
Oliver
126
collectifs
descente
Suspension
onniers
Yan@@
Yorkshire
Tailles
Cen@@
GIE
lux
um-@@
méditerranéen
1958
exprimées
parlers
actionn@@
coût@@
immigr@@
GER
1,8
FRAN@@
tropicales
organisateur
cône
occupant
opéra
camarades
importer
Video
conç@@
Nation@@
queur
4K
Altern@@
Vu@@
teraient
dirigés
extra
2006-@@
Finance
affiches
déliv@@
SIM
forcée
Sit@@
éteint
LS@@
destin@@
Auparavant
hr
prescrire
citoy@@
arien
essie
élan
notation
tes-@@
séjourn@@
Enseignement
pratiquants
Française
São
enberg
minimaliste
délicat
VeryVoga
syndic@@
VAL@@
ationnel
pho@@
Alicante
continuez
précéd@@
fractu@@
aillé
inflammatoire
té@@
Presse
inverser
Lom@@
accordés
annu@@
cardiovasculaires
orientée
Moy@@
laires
vomissements
regions
affections
ossi@@
implic@@
ingue
relev@@
139
kim@@
.be
réparties
nienne
rats
Great
oper@@
inhabituel
musicales
gyn@@
financée
consécutive
bienvenus
Que@@
Bul@@
spatiales
mentaux
raci@@
anesthésie
Trade
justifié
rigoureux
interactif
Access
couteaux
maintes
avant-garde
intru@@
substitution
Harr@@
immu@@
Vig@@
Automne
½
craft
rouge@@
analogue
Polo
pig@@
évaluées
SVG
CLI@@
émer@@
df@@
Carter
aper@@
professionnalisme
électromagnétique
éclat@@
décr@@
excessif
amo@@
west
360@@
atteign@@
structurels
FORD
Eng@@
authentiques
prescriptions
coûteuse
nid
DD
Lacs
approuvées
Exchange
Vu
récolt@@
NB
resteront
génèrent
Continuez
concentrée
montés
Russell
prototype
dég@@
fonctionnelles
amph@@
traites
paye
payant
iPod
préci@@
isante
Up@@
minuit
aimerions
DEL
pronon@@
jouit
mémoires
renvoie
déployé
graphe
ven
310
consultants
hop@@
renouvelé
millénaire
lue
techn@@
pensant
uk@@
sérum
Crystal
trouveront
alisez
bition
éponge
TIE
Delhi
Monte
Meilleure
poignet
gnon
mate
cafetière
ôles
Locations
own
scooter
nol@@
embarr@@
tuel
fortifi@@
meu@@
arium
testés
intégralement
parfum@@
résidences
edu@@
finement
Springs
hard@@
118
réfugié
téléchargé
Murray
2022
Lisa
Non-@@
exte
commém@@
sécuritaires
illicite
ferez
semis
Hoo@@
itions
Agenda
souche
ellerie
dienne
abouti
Maman
ono
5.
rouille
imprimantes
Rogers
Football
proven@@
prior@@
balayage
célébrée
Grec@@
Excellence
vainqueur
Gross@@
grotte
themes
Horaires
elon
discré@@
ation-@@
pron@@
pourvue
évasion
illy
FER@@
exporter
rincer
supposer
pt
sages
fonder
distill@@
géométrie
arômes
Compresseurs
34.@@
programmer
eras
Représentant
allumage
posture
Mati@@
Infin@@
aid@@
Apartments
mach@@
conclus
résolus
zhou
élargie
wall@@
pizza
act
Ö@@
tournent
Activ@@
soulignent
Enterprise
mosaïque
dédiés
troit
ologi@@
spirale
Fruits
Pier@@
Wegow
fraîcheur
clauses
do-@@
Wes@@
nus
sémin@@
odon@@
remplacés
TEMENT
arisation
nan
ych@@
Retirer
portage
ition
extra@@
hu
sous@@
oscope
équilibrer
endommagés
colo@@
étendant
décorative
29,@@
lec@@
rapportant
-A@@
9-0@@
afri@@
aut-il
effondr@@
Day@@
Islam@@
Strat@@
Connexion
oique
étend@@
ei@@
Cartouche
agressions
BNP
Alain
associe
mutations
affectant
infecté
visuellement
MES
ajusté
113
fleur@@
interprété
DD@@
BN@@
correspondantes
explore
malveill@@
enda
1.com
Kay@@
aucu@@
azz@@
chaî@@
intérimaire
thérapeu@@
inscrites
berger
kir@@
promener
spécialité
recueilli
Dave
efficience
erv@@
spl@@
Simple
dre@@
Robin
Hills
ission
éoli@@
Printemps
englobe
blanch@@
N.
corri@@
fonctionnant
RIS@@
Io@@
cohérent
rit@@
sortent
tionnées
server@@
écho
Tennis
déclarés
décrivant
arrondissement
Magasins
inégal@@
réclamer
répété
circuler
bouclier
éditions
orienté
abord@@
médicinales
1959
tissage
vert@@
transfron@@
jack
abordé
poupée
NOIR
olf
hore
concert@@
clignot@@
Campbell
3-4
pénit@@
affichées
phares
lar
Thèmes
Turbo
144
stiques
cite
Lima
Apo@@
Vallée
Ow@@
blas@@
préparent
chy
milles
adou@@
Hauteur
endraient
ting.com
empêché
réussit
développant
prendront
RCA
Buenos
express
versez
côt@@
PV@@
jungle
2.4
faisabilité
dd
opposée
Manhattan
configurations
Peau
ementation
xon
austr@@
eures
échel@@
émanant
Masque
Chall@@
entrepôts
nouveau-né
douzaine
Steph@@
nuisibles
incarcér@@
exporté
Oslo
photographique
Natur@@
verr@@
Caisse
aler@@
Luis
Lorraine
ier@@
Longue
Ey@@
convenir
forestier
ocar@@
Expérience
roch@@
ÉRI@@
activée
ence-@@
aîtra
triangle
DW@@
recruter
annoncée
isera
apparaîtra
Vendredi
immatriculée
oign@@
4.1
ralenti@@
PRÉ@@
isté
inti@@
brésili@@
atouts
monétaires
Gren@@
HAR@@
Hollande
Khan
cs@@
coupés
H.@@
anti-inflammatoires
détenues
classée
médailles
Crimée
mutu@@
Rumbo
Gordon
Ann
électri@@
partant
JU@@
GRE@@
Italien
froides
lact@@
mette
Aur@@
Lord
microphone
Ouais
aboutir
salué
pool
ordin@@
dants
Connecteurs
Tob@@
émique
fermet@@
12V
Howard
bord@@
entement
pelouse
.eu
cées
coréenne
étroites
extra-@@
RD
lisi@@
ciblés
wich
aillon
tonne
Bruno
maxim@@
Honn@@
âtres
XVIIIe
lem@@
chaudière
230@@
élè@@
Jennifer
ologiste
consist@@
canton
ôle
hauss@@
Soit
génétiquement
Communiqué
neuve
aphy@@
1957
Racing
Cross
amèn@@
taxis
onlin@@
EV@@
Rover
Observatoire
Officiel
LLC
ficateurs
BAS@@
ital
Zoo
perturbation
expliquant
voyagez
ancs
jouées
champignon
décerné
TRA
maillot
coefficient
aérospati@@
explorez
soustr@@
Lati@@
appe
anémie
contradic@@
dotation
Gö@@
eco
crit
aser
matérielles
Populaire
Dentelle
dermat@@
WhatsApp
shampooing
référenc@@
établissent
silhouette
glande
exploitations
dessiné
elia
ido
apr@@
onge
affichée
mathématique
nano@@
Scar@@
136
water
aux@@
gnac
Médecine
pendentif
lèvements
iro
accordent
Volume
Kaz@@
chal@@
2015-@@
collagène
renforçant
Small
impré@@
aniques
fantas@@
marchant
iTunes
justifiée
déménagé
ectu@@
ed.com
agglom@@
925
Bali
atre
baleines
chari@@
dopage
digital
minibar
tôle
rotatif
Pati@@
Deluxe
Laboratoire
scie
étui
cadran
Étab@@
Laur@@
smo@@
vraisemblablement
ergies
haw@@
oid
célébrations
bandoulière
rendues
dispersion
Australi@@
iga
Windsor
Raj@@
victori@@
Angola
Napoléon
résis@@
420
osa
partageant
suspen@@
manifestement
Lenovo
refour
Inclu@@
Recommandation
kits
BT@@
und
interfaces
électrons
Lock@@
émergentes
Cross@@
méditerranéenne
sy
202
XX
boules
dynam@@
nutritifs
galvanisé
vitalité
4e
parallèlement
131
RENAULT
Amendement
recevant
26,@@
Ferrari
limitant
Rac@@
Sep@@
hypoth@@
environn@@
ANS
sperme
Financial
neuvième
Carl
silenci@@
teinture
Vec@@
records
silice
Hydro@@
Jimmy
01.@@
convenable
augmentations
canapé-lit
1956
insuffisante
Oscar
diversification
Gel@@
virtuelles
giv@@
raciale
FS@@
1ère
somm@@
Promouvoir
nent
gence
mobilières
annexes
Burundi
BB
png
coupées
Pop
pouv@@
Év@@
sérieuses
sterling
schémas
LT@@
aun@@
sépare
hydrate
utilitaire
photographes
sante
vel
2005-@@
gnes
actualisation
acétate
Wolf@@
Paulo
Dominique
portuaire
polices
unanimité
dignes
Commonwealth
are@@
moelle
atrie
inspirée
analytique
Yoga
mule
ouvrira
pulvéris@@
Applique
fiducie
Graham
musicien
War
brig@@
Projets
fonctionnera
Roc@@
exotiques
parapluie
épicerie
lauréats
goû@@
spectr@@
embrayage
capot
etée
sil
étaires
ud@@
ramasser
thérap@@
OE@@
centrée
ongle
Km
Grou@@
œu@@
tueur
optimisées
Séoul
otique
dominant
obst@@
Expo
cyclisme
stag@@
carrée
intures
espac@@
gagnez
BD
Surveillance
apk
italiens
prélèvement
erb@@
AND
menus
tilité
remonter
trimestri@@
biomasse
Christopher
antibactéri@@
just@@
décent
observateur
Dess@@
arbitraire
archipel
baissé
injections
Harris
fluctuations
facultatif
attachée
occurrence
Fern@@
Stanley
Cup
développ@@
itinér@@
Pensez-vous
francs
Corner
ciblée
Gust@@
forfait
immersion
BV
ay.com
SSE
Sot@@
courbes
champagne
Conclu@@
élémentaire
27,@@
BEI
Baie
d.@@
certitudes
attribuable
Effets
archéologique
ffes
tek
toner
pilot@@
Fas@@
rustique
puis@@
Écri@@
Mozambique
employées
â
107.@@
850
Tête
ence@@
épar@@
effectuez
Raymond
Toilettes
ray
Y-@@
URS
marches
théoriques
amies
calibre
By
effac@@
but@@
déroulera
étouff@@
Terre-Neuve
Processus
élu@@
témoignent
coupée
témoign@@
119
Aviation
rl
125@@
utilisable
Monte@@
EX
nourrit
N-
décer@@
décal@@
Johannes
hori@@
merveill@@
ë
diverg@@
grise
4.0
soft@@
FLE@@
oivent
partagez
Mann@@
fel@@
Palm
group.com
veines
thèses
Résistance
géographie
polyvalent
ble@@
durent
pompiers
Honduras
infir@@
énerg@@
se.com
Danse
sens@@
penses
prolongation
évoque
bitu@@
Wang
Olivier
éduc@@
54.@@
Sauv@@
ACP
signataires
Concept
infantile
déménagement
accompagnent
complét@@
Garage
185
émises
cevoir
Bed
annoncés
Offrant
limitent
Simpl@@
restric@@
pétroliers
LC@@
perdues
fiscalité
ellation
Sachez
lateurs
soirées
dépass@@
Gun@@
jer@@
idéales
poumon
Greg@@
Sophie
cht@@
stéroïde
barrage
transformateur
protégeant
Vélo
ALE
tateur
Fabriqué
hos@@
5-0@@
commandés
instantanée
Yo@@
ambu@@
mineures
Moore
tunisi@@
enduit
MW
Blogue
Appl@@
Personnalisation
BO
nouveauté
colonel
Passez
Motif
sori@@
esta
converti
bans
taires
Library
Shel@@
chia
216.@@
ld@@
ingham
conique
dynamisme
éloignées
Cum@@
inséré
sè@@
sympa
Hostel
lunaire
Angel@@
monstres
consommée
promenades
Diamond
pét@@
FO
greffe
Séville
sollicit@@
dégustation
fiançailles
vérificateur
barr@@
aspi@@
fantôme
polyéthylène
HR@@
heur
Hé@@
épilep@@
ressortir
ferroviaires
Inscrivez
å@@
visionn@@
dixième
ceau
IE@@
soul@@
Plateau
Lap@@
intestinale
NO
cast
adéquats
Ø
éthanol
Options
Seu@@
compare
Youtube
Liverpool
Engag@@
Xin@@
ref@@
portaient
asses
valables
24-@@
Celles-ci
accédez
merg@@
répét@@
Statu@@
Fiat
sophis@@
rigour@@
aborde
spécialisation
ikh
glaci@@
fraises
vent@@
bénévolat
crypto@@
équitables
classer
bac
surprises
db@@
Crois@@
compréhensible
défectueux
enses
Glen@@
coordonnée
NI
ebook
Course
ido@@
décalage
grasses
désirée
Hans
ander@@
spi@@
3G
Urbain
t-elles
pathologies
Extérieur
oculaire
économisez
déblo@@
Structure
Marche
Abr@@
Dum@@
O.@@
obstru@@
brochure
cape
Bolivie
bn@@
freins
ix
étro@@
pod@@
tantes
och@@
Idéalement
ciation
Cat
descriptif
inondation
berland
présidé
candi@@
plants
remercions
réagit
contrepartie
ran
brook
économiquement
interlocu@@
décour@@
jusque
eres
atre-@@
ferais
Proposition
entreposage
empêchant
instrum@@
Gel
étudiantes
Gran
Houston
eline
appropri@@
quarantaine
forteresse
locataires
Active
Run@@
Détail
isolées
hypothécaire
distor@@
méthy@@
Pok@@
fragiles
Wayne
vessie
Gallery
expé@@
Moon
4.2
éolienne
gets
réviser
Roth@@
950
bav@@
conduites
procéd@@
Iz@@
résidu@@
casse
Él@@
Concours
card
Diff@@
italie
séché
Austin
Ecou@@
prononcée
roll
mixtes
Maillots
littoral
primordi@@
RFID
jack@@
sulfate
profité
résistants
incit@@
adhérence
éné@@
.it
Siemens
goûter
canon
Gram@@
dilu@@
Condu@@
ferry
réduites
Steven
coqu@@
Jet@@
héréd@@
pharmacien
glissière
cuits
magas@@
GR
erge
figurer
roulements
Polar@@
élabor@@
résidant
grasse
ostéo@@
exercée
médiévale
étroits
propri@@
UTILIS@@
MPO
AO
onia
Modifier
Melbourne
Pers@@
monie
Fir@@
Miguel
Certificat
formulé
Garantie
Fashion
enthousias@@
fragments
Cyber@@
structuré
signale
clav@@
tétr@@
utilisables
odo@@
diversifiée
animés
Gary
issions
amusante
ade@@
bross@@
Universal
kov@@
BS@@
Carlo
hydrauliques
primés
découlent
Hudson
magiques
équitation
bilatérales
Lead@@
TEL
Classe
CNW
remous
tn@@
dinosau@@
Effet
excitant
HER@@
mém@@
plier
phosphore
ens-@@
décrivent
CADEAUX
BP
yang
DN@@
ël
plumes
polon@@
aha
ley@@
Cit@@
HS@@
éclairer
regrette
dévi@@
notable
transférées
ilique
rall@@
GI
isoler
cutanées
Ast@@
gradu@@
nœud
souti@@
Types
mécani@@
contour
Figu@@
solitaire
déception
landkreis
AV
Wu@@
atténu@@
Art@@
frontaliers
indra
ISO@@
DRE
délin@@
2,4
onc@@
gérée
charmante
Karl
inno@@
lag@@
Grand@@
Alfred
hospitalité
vidéo@@
Conditionné
VOUS
Tatoueurs
Austr@@
Marshall
Taïwan
entendus
nécessit@@
perturber
Nuit
Hein@@
SUR@@
30,@@
effectuant
Paribas
souscri@@
uniformément
Oregon
entine
protections
adé
aimants
Dimanche
renonc@@
au-dessous
muni@@
analgé@@
facettes
Index
solidaire
elly
millimètres
Balance
as-@@
baiser
Solution
itas
routiers
Us@@
Gon@@
timi@@
déséquilibre
ption
exclusifs
Arrière
Russe
ady
Geor@@
nausées
BRO@@
Hunter
nœuds
défilé
XML
red@@
Majesté
ood
angel@@
baseball
Omega
loup
confier
premium
pit
ocr@@
COMPTES
tirant
Citoyenneté
pèse
Á@@
coron@@
LN@@
Coc@@
retirés
istan@@
Gatineau
parentale
englob@@
Nex@@
cotisation
Pizza
télécharg@@
soude
esques
Tissus
québéco@@
VC
traversant
pez
Contribu@@
structurelles
Smo@@
Flam@@
excédent
NH@@
entraîneurs
cz@@
implém@@
ïne
Logement
fj@@
LER
jeans
hen
plume
tuelle
Player
seigneur
hip@@
carburants
choisies
éléph@@
navig@@
drait
reposant
b-@@
Impact
accélère
cul
72@@
Pass
Aluminium
uniformes
palier
permanentes
apprécient
consacrées
aute
pencher
agua
antimicro@@
élémentaires
passionnant
pan
Taxi
panel
BOU@@
tronc
sous-marine
isions
350@@
Coque
diffuseur
biscuits
travailleuses
blesser
Cameron
médicament@@
SSI@@
nécessiter
cteurs
1955
araign@@
gérées
radiation
induction
interroger
préven@@
numérot@@
moustiques
porteront
Doré
Stock@@
911
renforcent
LV@@
haut-parleurs
passerelle
Promoteur
̀
Jard@@
émise
loué
concret
Mur
niche
hivern@@
efs
Fraser
Bâle
éria
alis
Hugo
othérapeu@@
forestiers
restauré
Fire
datée
jan
Beth@@
dè@@
Secr@@
atteignant
alisent
mall@@
voulez-vous
artères
Paramètres
explosifs
alpin@@
vasculaires
alk@@
form
hémorroïdes
Wood
hl
pliable
acier-inoxydable-bracelet
Canal
désagréables
thyroïde
26.@@
Hampshire
rejetée
coule
planches
Carm@@
ect
plaid@@
perçue
étiquettes-énergie
kom@@
mensu@@
précisant
viseurs
selles
LET
Papa
oeuf
Disque
Albanie
promoteurs
CRE@@
pad
comprom@@
Casque
visu@@
marqueur
capitu@@
turer
gant
métabol@@
guées
oc
patrimoni@@
onic
scol@@
Musées
contras@@
Call@@
esh
avoine
Raf
internau@@
responsabilisation
dauph@@
Pharmac@@
182
sl@@
GHz
remarquerez
Cook
casser
privilég@@
s.info
ANNUELS
fru@@
Fer
FT@@
teuse
Astu@@
Helsinki
Garçon
obsol@@
Philip
Epson
Parfait
comparant
irs
notions
Assurance
64.@@
Également
night
tille
RF@@
Key
-1@@
éping@@
longévité
is.com
Noms
amical
haus
micro-organismes
prononciation
amplitude
cion
Joyeux
Nouveauté
ordonner
biographie
granul@@
DT
G.@@
arrang@@
Univers@@
minéral
absorbé
aments
antiques
autocollants
Exécu@@
sm@@
use
assais@@
architectu@@
rhin@@
Spir@@
103.@@
GNE
lées
83@@
Coalition
enton
diagno@@
métrie
Haz@@
Compatible
fourchette
montagn@@
complètent
bet@@
toiture
pak@@
232
culmin@@
Nou@@
sensori@@
zon
29.@@
lington
collaboré
assembler
Genre
gem
oth
-2
Lot@@
tise
deront
come
endes
propi@@
T1
mineux
donneront
donneurs
ourn@@
Fédér@@
Départ
Brun
ila
chaleureuse
Professional
canad@@
pôles
entrera
Donnez
cét@@
null@@
Lighting
random@@
antivirus
Excellent
Daily
ectures
5.1
Stretta
Leone
mah
unie
étri@@
bouquet
approfondi
care
payées
sovi@@
Dark
ordonnances
urgente
instants
Pai@@
Mall@@
globules
Frank@@
liser
étang
ffic@@
défaill@@
Aver@@
endi@@
How@@
PCB
étonnante
conventionnelle
cram@@
onnées
Aperçu
Fant@@
anières
NOR@@
Approvisionnement
pancréas
XVI
41@@
ONS
plantations
tte
demie
hypothèque
0,2
1600
automatisé
fall@@
Bron@@
Connecteur
pation
éché@@
aba
glisse
ciblé
OC@@
entrepren@@
ampl@@
Commercial
quai
bouillie
Scène
127
numéris@@
emprunt
Bel
anxi@@
retarder
solument
Atlanta
Tag@@
Isa@@
centré
cascade
inu@@
barbe
Nas@@
étriques
Gan@@
résidentiels
onor@@
Reli@@
liant
additionnel
exprimés
Angela
Dafa
STO@@
aller-retour
SON@@
Home@@
inn
ophil@@
Plac@@
métho@@
regroupement
cuisines
Asc@@
soupape
iver
Devon
cus@@
atome
montrée
cienne
dysfonctionnement
exclu
Aliments
amines
Préc@@
.ch
archéologiques
Bosnie-Herzégovine
turel
lisant
mâ@@
urbanisation
len@@
antérieurs
suffisants
aimerait
e-
ennal
accumuler
dôme
less
watts
28,@@
retirez
exécutive
1951
vaches
Ep@@
Bloom@@
nordique
émail
muni
réguler
jetons
Proch@@
Préparer
posants
DM
1914
Antiqu@@
renvoyé
climatisées
adjointe
êle
gibles
quera
Spot
seau
buse
isier
slogan
cylindres
Vieux
Voie
sément
enver@@
Carrée
Pâ@@
attray@@
aval@@
enflam@@
Lawrence
Explorez
13-@@
133
Sle@@
improvis@@
Stand
nt@@
proprement
rationnelle
real@@
municipale
Dai@@
levés
Johnny
Spécialiste
appliquez
kér@@
Lé@@
Emma
Gy@@
marqués
vocale
ls@@
escor@@
Satur@@
abstrait
ad.com
erne
206
e.info
substantielle
natu@@
honoraires
moules
pâle
abi
brillants
GBT
dad
Pendentif
banane
accus@@
féminines
Accidents
polyuréthane
Savoir
correctes
positionner
Trail
bob@@
soft
retirée
4x4
pneumonie
pains
tutoriels
cube
jugée
ODD
métr@@
croyais
Accessoire
2D
a.
souples
allumer
med@@
hémorrag@@
Fred
crèmes
dépos@@
vices
2A
quage
isie
déclenchement
précisions
ondu@@
197@@
auxiliaires
amide
song@@
Sexy
AVANT
pinceau
téléchargez
viandes
pédagogiques
Gul@@
boî@@
Joseph-@@
rapporteur
SON
Berne
topo@@
chirurgi@@
examinée
31.@@
modéré
duplex
ose@@
PCC
Sev@@
138
déchi@@
régie
pe-@@
requi@@
joign@@
premi@@
Nak@@
interrogées
métro@@
ansen
déterminent
apparue
édés
nels
pressé
pince
2013-@@
fracture
114@@
commandée
Répon@@
disposée
Tommy
Océan
filière
asa
leton
énage
attrayante
Montana
SAS
beaux-arts
séchées
oz@@
ups
mAh
Grenoble
IT@@
www.nana10.PlayDGame.co.il
icaux
eon
Let@@
Polyester
ré-@@
CATION
vice-présidente
échangeur
Lion
Climat
elière
Appu@@
tha
intestins
émet
verrouiller
t-ils
t-shirt
valent
nag@@
AGE
Développer
signatures
envis@@
är@@
train@@
Margaret
bières
orn
amien
soulevées
Animal
flammes
dissou@@
HTC
master@@
T2
Samedi
Hyper@@
titu@@
Consommation
adium
chlore
Rang@@
EAU
Corse
Normalement
kan@@
déduction
revit@@
tes-vous
Nin@@
BR
Accep@@
3d
covery
Format
Software
diligence
chanvre
manchon
deviendront
améliorés
Bey@@
Whe@@
brûlé
tau@@
print@@
contaminants
infectés
Julia
moulin
stagiaires
bascul@@
Manche
saignements
départs
oline
parfums
instantané
élec@@
XE
Crète
scho@@
délicieuse
ranger
coureurs
Ball
Mod@@
impossibilité
vres
Chan@@
représentaient
cueill@@
méthyl@@
sors
XT
exerçant
laissée
fleu@@
wel@@
Jose
collations
Beau
nicotine
insuffisant
Manger
annulaire
Voi@@
découper
Grace
Objets
Tran@@
planchers
octr@@
aménag@@
2018-09-18
escar@@
réper@@
acidité
crâne
guise
expédiés
vil
aménagé
pleins
ô
solvants
Fabri@@
bloc@@
cl
saf@@
Canton
Matthew
Saint-Jean
cuite
homéo@@
inspecteurs
Yougoslavie
confirment
AF
préventive
trico@@
F.@@
Sid@@
DIRECTION
peser
Apoll@@
inter-@@
cessation
élaborés
BAN@@
confiture
volaille
.biz
Éclairage
immatriculation
Walker
Rosa
sandwich
chain
pass
Quantité
mouth
anch
sb@@
noy@@
électroly@@
accordées
todocoleccion
spécification
Balkans
canne
emy
bor
bilatéraux
onco@@
Magazine
Grant
Jamaïque
Peugeot
acks
cheville
vik
ensoleillée
spectateur
caïne
proposera
Olym@@
Distance
EI@@
Jeunes
cocktails
œdème
Protec@@
WD
Réduire
sous-marin
-H@@
Iraq
Chur@@
IRES
Change
MX@@
facilit@@
fia
biotechnologie
Responsable
Grenade
.n@@
Océanie
tremp@@
extra-urbaine
savour@@
cinqu@@
Différ@@
SAP
illés
ée-@@
dez-vous
glissement
Cabine
refroi@@
21.@@
192.64.119.@@
ergie
z-le
ATA
répétée
aku@@
phr@@
141
quotas
AX@@
pinc@@
proch@@
déséquili@@
galvan@@
éléphant
cartographie
velours
réunies
vérifie
bâti@@
GAN@@
pique-nique
Core
195
prorog@@
habitable
drag@@
orti@@
Rhône
J.-@@
1,7
atite
129
teint
Armoire
poll@@
communiquez
déplacent
7,5
Bio
ABC
2019-05-14
ACIA
visuelles
paille
Salomon
.com.cn
mots-clés
courtiers
Fat@@
lésion
satin
1,1
ratifié
reté
Équateur
Tren@@
broderie
changeant
Grand-@@
conditionnelle
a.info
rétroaction
loyd
ingéni@@
insonor@@
user
Michelin
housse
7-0@@
World@@
organisationnelle
Nouveautés
éloigné
Tas@@
Cartier
Baker
prévoyant
joyeux
sor
garde-robe
Ingrédients
émetteurs
Maxim@@
Won@@
décorées
Dallas
dance
134
abdominale
permettr@@
positivement
situent
plateaux
lobby@@
gazon
allong@@
croît
RT
architectural
LON@@
retenus
tarifaires
PF@@
media
spécifier
pav@@
ć
affér@@
Supérieur
91.@@
Palma
Procureur
stom@@
Ja@@
ca.com
parcourant
assiste
nettoyé
simulateur
abî@@
clou@@
ALL
souterraines
217.160.0.@@
Arc@@
MINI
permettait
originalité
hydratation
provoquée
Etant
RO
Gén@@
vet
ementale
poiv@@
eue
azole
TEC
Bac@@
éter
entis
entières
ao.com
traversée
190@@
noeud
lavande
amiante
AZ@@
suppos@@
Dites-nous
utilisera
usé
cade
orat
majoritairement
River@@
tez-le
Favor@@
érieure
flexion
LEMENT
Ouverture
repor@@
Lind@@
épuisement
standar@@
fantastiques
And
nétiques
garde-@@
chasseurs
régr@@
Port-@@
commenter
chalets
ancrage
KO
oke
ssa
Essence
froids
chs
manne@@
Vers@@
comptabil@@
fordshire
électorales
oque
Shenzhen
pier
élégantes
portatif
acquerrez
Quad@@
turcs
marqueurs
Lumin@@
PEN@@
poursuivra
donneur
socle
Pack@@
Labrador
piration
Vor@@
exter@@
Votez
shop.com
37.@@
tolér@@
indésirable
Exigences
Suzuki
accueillis
semblerait
NEW
RES@@
Pam@@
vagin
abouti@@
moisis@@
Versailles
-même
Ami@@
réf
étudiés
BIOS
entou@@
Recherchez-vous
abo
délégu@@
géné@@
plur@@
Matière
offri@@
radiateur
5x@@
bactérienne
pc
Nam@@
22.@@
Balade
stad
m3
Dakar
TIN@@
concilier
inier
centraux
animations
Camp@@
Soft
Mex@@
disposées
Dj@@
transporté
Ian
capuche
broche
manucure
Analyste
O.
immer@@
poster
240@@
traversent
connexe
anco
firmware
Cari@@
ta-@@
Vide@@
entés
nit
magn@@
modes@@
privilégiée
ret
Mr
dissous
Comprend
Saint-Pétersbourg
apl@@
hauteurs
Michelle
solu@@
grue
strat@@
préparatifs
stitution
télécommunication
Mardi
foire
biotiques
collage
ai.com
Exécutif
Pacific
féliciter
court-@@
at.com
découvri@@
DJ@@
Chance
PL
witz
insister
tali@@
cami@@
métaboliques
mondialement
redev@@
Projec@@
turb@@
Tai@@
Consulter
génériques
reï@@
ennuyeux
détecteurs
dv@@
Langue
pipeline
bier
indon@@
érien
embou@@
planifié
Calcul@@
MOS
sville
entaires
ns@@
turées
Bull
dle
aquaculture
Nuremberg
générée
asion
Nord@@
Inuits
exi@@
high@@
Connect
Bret@@
PF
itor@@
Cadeau
TRE@@
taill@@
luxuri@@
Investi@@
Burg@@
myst@@
Boc@@
Kun@@
pm
issé
frire
étendues
Redmi
chiot
résonance
sière
contaminés
écorce
＞
Gérer
AA@@
tick@@
MF
requin
ombi@@
portug@@
ospec@@
balade
-L@@
accéléré
phy
routekm
Baz@@
model@@
Wom@@
entraînera
Ahmed
6,5
tenant-@@
MATI@@
264
oka
cit
Royale
fecture
gas
6000
Farm
gomme
ultérieur
tory
districts
vétérans
Bloc
XXL
Tap@@
Indic@@
expedie-sous-24h
Financement
stratifié
size
moderniser
chard
permette
Popul@@
il-@@
rapatri@@
porteuse
lio
gne-@@
opa@@
adjac@@
exist@@
Jak@@
BEL@@
tec
turbine
connectées
recherchons
Mazda
job@@
ahn
lletins
loire
établi@@
engen
bilingue
Distributeur
Mix@@
éma
étan@@
ôtre
descend
5,5
insist@@
jean
bah@@
guidé
exécutés
dres
angi@@
Évaluer
spati@@
énonc@@
zz
pec@@
probantes
abaisser
Castle
THE
miers
flan@@
pen
Bristol
9001
Dead
laqué
Lundi
assurera
intéress@@
Cast@@
plis
fermentation
alière
chauss@@
Silver@@
vigour@@
pixel
FRANCE
Escape
mali@@
virtuels
OL
Î@@
stéril@@
Imp@@
rehauss@@
architectur@@
mak@@
Metal
bœuf
Envoyez
Andrea
Ga@@
bactérie
kilos
forum@@
fourn@@
2500
brésilien
erges
60-@@
foot
MOD
interven@@
Bang@@
contractée
boitier
lâche
410
nerf
Spring
étendent
Véhicule
postal
μ@@
récupéré
trol@@
folli@@
Kits
tirée
camp@@
isky
2.com
Terre-Neuve-et-Labrador
juridi@@
cotte
RI
prié
iquer
hard
Hir@@
culum
ers-@@
Mauri@@
ciseaux
souscrire
Technique
Chien
Perles
Nad@@
ca-@@
requér@@
Parker
systémiques
o.@@
rhu@@
TX
agressif
désignées
40mm
45.@@
percepti@@
alogie
vign@@
èvres
chiffrement
Leu@@
mesu@@
législations
iode
vole
Iv@@
Ex
2018-10-03
Serviettes
Edg@@
A3
Buff@@
Motorola
Vérifier
2008-@@
réglée
CÔTÉ
antin
saignement
Distribution
doter
expi@@
R2
Anton@@
iges
Rencontre
Ed
Revenu
35.@@
rein
CIP@@
Edge
yst@@
MAC
Réseaux
Luci@@
agrumes
duo
vil@@
Regina
Poul@@
anus
fauteuils
parfaites
facilitant
sters
anning
transmissibles
Vélos
ancr@@
rine
désarmement
week@@
rigidité
vérifiés
nerveuses
métrage
Aber@@
tuiles
39.@@
TVH
gc.ca
chand@@
etown
CJ@@
CHAR@@
Ig@@
rapprochement
hors-@@
Squ@@
concurren@@
Duplex
plugin
guent
souhaiter
tionnalité
junior
formel
joués
vigne
Kru@@
psd
réseautage
supprimées
Tig@@
aume
viseur
Wolf
aissance
ome@@
aqui@@
lancent
235
viscosité
Labor@@
rho@@
119@@
bler
descrip@@
Normes
ror
tionneur
tracer
ael
vase
ference
Laisser
It
famil@@
défici@@
stru@@
Tat@@
alphabétisation
nageur
oir@@
OMD
antennes
Bowling
Rachel
Naturellement
impuretés
statiques
Réception
débarr@@
Christophe
fondant
informelle
Adams
progressif
ya@@
dî@@
ôt@@
Way
onni@@
innocuité
thy@@
Graph@@
jk
inhabituelle
bot
mpique
phosphate
rechargeable
19-@@
clef
enthousiaste
teries
Jours
particularité
coté
garniture
imprimable
Jon
noci@@
alla
diabétiques
Fournitures
lèvement
Divulgation
interrogés
Pist@@
2000-@@
moy@@
traducteur
vention
Richmond
interrompre
habill@@
minérales
.....
Automatic
Annuler
tubulaire
pvd-boitier
vignes
Nevada
Men
Boissons
cuve
Lucas
Nau@@
Church
PHI@@
danois
Côté
Rand@@
Oh@@
lèvent
conduc@@
attendues
TG@@
portefeuilles
brouill@@
pantalons
Lag@@
Gener@@
Prêt
faill@@
loint@@
Warren
dorée
hem
5ème
neutres
aissement
remercié
4.5
Sélection
exportateur
Batt@@
aude
Pie@@
Uruguay
syndicale
circonst@@
végétal
berceau
chromos@@
sr@@
FAC@@
Niagara
remor@@
Rapporteur
Feu
Centro
voulant
arrach@@
Repas
féminins
ero@@
ettez
Caucase
brochures
aligner
VP
illustrations
landaises
Mail
st.com
USE
tuber@@
Nik@@
abondante
rell
vet@@
constituait
now@@
orifice
assureur
137
remplissent
Andr@@
340
complétée
varié
subi@@
bation
once
heureusement
ennale
Neil
félicit@@
vécu@@
syl@@
Employ@@
gouverneurs
difficilement
fres@@
Roland
brûlure
habi
NT
amortissement
pti@@
aus
Execu@@
Pioneer
balcons
Saint-Jean-@@
imprimées
ch.com
Chelsea
jersey
sourcils
ferti@@
marges
sch
hépatique
échelles
sport@@
estes
Ajou@@
Paquet
anciennement
Brosse
ift
annulée
Poi@@
Environ@@
Berry
Île-du-Prince-Édouard
estion
asha
Silicone
itte
pénalité
metteur
générées
latitude
recueille
Respec@@
médiateur
réactif
coeurs
Thompson
thyro@@
ix@@
kers
For
NY
gelée
oriental
formateurs
solliciter
serve
170@@
pirate
ocytes
93@@
Well@@
certifiée
verre-du-fond
législatifs
fèrent
ameublement
promotionnels
granit
chauffant
TTE
détaillant
Jouez
2018-09-26
eira
nac@@
dz@@
Park@@
Alpha
ultrasons
comesti@@
serp@@
Scottsdale
artificiels
peinte
BC@@
Estr@@
navale
nombr@@
argenté
Orlando
digitales
trame
dégager
atom@@
m.
manutention
under@@
planté
Tac@@
ru
Head
avo
propreté
body@@
Liaisons
Sicile
Arc
Stewart
Maine
Sl@@
cars
Chand@@
incin@@
OD
Party
Acteur
marchand
Intégr@@
survenus
Œu@@
glob@@
Marcel
ménopause
Nairobi
Acrylique
sult@@
Magic
Physi@@
exclut
gastronomie
revêt
Recor@@
innovateurs
cket
Schw@@
multiplication
gest@@
AVC
Rendez-vous
contribuable
entées
Mono@@
Cler@@
Jeudi
WIFI
149
survenue
particularités
réat
Alp@@
Indice
Voix
chel@@
diffuse
rocher
anj@@
urinaire
sang@@
Get@@
calmer
AH@@
Jeep
machin@@
flottant
Kid@@
eine
antine
Light@@
suggestion
adoptant
Planet
immédiats
hérap@@
Case
tarification
assortiment
Factory
phyto@@
Réparation
bow@@
MERCEDES-BENZ
Diag@@
Nem@@
Médi@@
Puzzle
Ange
énumérées
intervenant
RIQUE
surveille
enzo
oïdes
PN
Billy
Düsseldorf
Eiffel
way@@
California
cd@@
Rhône-Alpes
anom@@
miroirs
facilitent
carto@@
Cycle
pè@@
sphères
isra@@
Conservation
grès
dai@@
John@@
Rick
Chauff@@
Breakfast
Focus
plane
contact@@
fy
baye
males
conte
affaib@@
Portugais
Night
dong
Sap@@
dente
ara@@
FX
SW
transplantation
croûte
Rappel@@
boeuf
méditerran@@
2,3
Christine
Élimination
NR@@
Tau@@
hotel
encadrement
gothique
tiède
Clair
tter
anesthé@@
bera
ARE
rêv@@
consécutives
italiennes
pd@@
Fabrication
sli@@
Vik@@
county
extensible
dent@@
Franco@@
Intér@@
conque
auditive
Health@@
souterrain
Sandales
Unique
versa
convivi@@
Estate
icon
connecte
Yellow@@
Punta
aissez
éco-@@
stan@@
Scho@@
achetée
ECO@@
graci@@
nouveau-nés
conservant
tendu
mn
Transi@@
3.3
Rejoign@@
FON@@
Industrial
veau
Situation
Genealogie
Original
moutons
atterr@@
édifices
ENCE
ultérieures
chromé
Zagreb
évid@@
distinguent
référant
régular@@
Kansas
inhal@@
coupure
bay@@
résistantes
Jay
VM
toxicomanie
inhabitu@@
Kingston
engins
lose
aan
AIS
financées
Cord@@
madame
A2
versité
Mélang@@
Bronze
100.@@
life
162.255.119.@@
Amélioration
bananes
sucré@@
asi
µ@@
courez
Jetez
hélicopt@@
buff@@
invitée
métab@@
Matières
00-@@
c.-à-d.
480
Bam@@
bours
crochets
minier
élaborée
cachées
run@@
tivités
minières
vidence
escapade
ématique
PNUD
parab@@
jun@@
Mic@@
Fili@@
localités
Naturel
Pure
Guil@@
Ecr@@
Radwell
inquiét@@
néo@@
Ambassadeur
atur@@
intensive
endom@@
Design@@
jau@@
Savoie
exceptionnellement
bassins
Ordinateur
cochon
sag@@
Stéph@@
Régions
hongrois
eling
pneumatiques
feu@@
VTT
subconscient
spir@@
brins
Ign@@
renferme
modi@@
Panier
Saison
ž@@
daté
eliers
félicité
Hygiène
156
introduits
plaçant
Giovanni
Continuer
préparées
tv@@
sush@@
baby@@
SK
vitro
épis@@
rails
142
interrup@@
Chaussettes
polypropylène
Elli@@
ûts
Infrastructure
Rum@@
adéqu@@
polaires
Lumières
THO@@
Lane
hand@@
intensif
bais@@
résultent
légu@@
filtrer
éniques
modernité
Enregistr@@
consécutifs
cci
Candy
Opéra
cend@@
2,2
convivial
endez-vous
folklor@@
Pantalons
152
équivalents
trousse
Tad@@
décorée
Decker
salée
impac@@
Économ@@
Creative
infusion
cés
Portail
accidentellement
zzi
dominicaine
Gênes
Mercredi
Philli@@
Fermeture
locution
Toy@@
Chaînes
elin
Tem@@
eve
Imprimé
KA@@
transpiration
Search
USI@@
sys
Steel
appellation
iii
ZA
avantageuse
ulu
Patr@@
saisonni@@
onel
broches
réchauffer
brillance
suspendue
Co-@@
tracteur
bi-@@
stop
guidées
DON@@
Porter
suédoise
attribuées
TPSGC
.com.au
Enseign@@
ror@@
143
Groupes
Radwell.com
skaya
contempor@@
Building
209.200.154.54
Col
0,3
Donner
excep@@
chapeaux
quante
chettes
ership
Suivi
Pink
vanille
148
Chi
cultu@@
Améric@@
tutoriel
constantes
armement
Sèche-cheveux
Techniques
manifestent
xim@@
supprime
Thé
Malaga
Péri@@
Tré@@
ilier
rar@@
TY@@
Canyon
ombres
eurs-@@
provisoires
Kins@@
minoritaire
drapeaux
ving
Santo
chars
institutionnelle
Beyrouth
fen
esqu@@
flèches
transistor
Memorial
Pascal
aire-@@
ă@@
Britannique
envisagée
Rennes
Rich@@
creuser
Fed@@
fraîchement
31,@@
Explorant
Arrivée
iva
LM@@
Construit
usagés
intra-@@
Nam
introduites
torat
informel
chill
Délég@@
ultravi@@
Shropshire
Régl@@
Manteaux
poutres
cicatrices
Aca@@
registr@@
dédi@@
Phy@@
quêtes
Inu@@
Parten@@
éruptions
NÉ@@
marchande
lum
tionneurs
pare
-C@@
consistance
contrôleurs
catal@@
congés
nocives
TIF
Aquitaine
adéquatement
te.com
acqui@@
Amar@@
Sao
Alsace
protectrice
ful
changée
or.com
Karlsruhe
multilingue
Dépôt
eno
RestoQuebec
til
éventu@@
plaie
réfl@@
autorisant
Personnalisé
participantes
bagu@@
profond@@
CUR@@
SAR@@
fig
ance@@
cha@@
olisme
interconnexion
additionnelles
Célébr@@
Ligh@@
Ore@@
boulangerie
transitoire
sangle
mera
passe@@
Listes
ordonnée
ensible
disparus
fosse
AMA
aman
brûle
IMA@@
Pla@@
rag@@
scr@@
Arr@@
intérim
abrasi@@
ign
copieur
retenues
Arri@@
habituelles
report
Rep@@
simultanée
ROM
vette
examinera
6x@@
canapés
Milli@@
147
diffuseurs
y-sur-@@
idité
isition
tude
203
Veg@@
JC
emballé
Motor
cultivées
Origine
jou
éra
échelon
Unisexe
Salut
essive
Sherbrooke
Diplômes
définissant
Cle@@
Commun@@
amidon
illustrer
248
mL
Agn@@
colorants
Écou@@
dren
ophone
administrés
March@@
commissaires
Retirez
Balcon
ICs
153
Hart@@
érit@@
instaur@@
tee
tv
Viande
Ankara
Secon@@
sivité
Peter@@
surprendre
excav@@
℃
Hotels
soudan@@
Choix
nettoyant
−
UE-@@
repassage
rendez
Dakota
fixant
KB
renseign@@
ordination
Politiques
TON@@
pion
oufl@@
palettes
forestières
Leon
membranes
151
Docu@@
habituels
eppe
vieillesse
recouverte
146
Def@@
grenier
acquiert
onnière
idés
ambiti@@
Jui@@
Deu@@
fauss@@
toiles
Bh@@
.cn
graduellement
Arbre
Syndi@@
Dépenses
graine
Assembl@@
199.@@
saint-@@
jj@@
douches
nominale
décomposition
ès-@@
arrest@@
oche
détectée
Méthodes
restaur@@
ping@@
Box@@
wag@@
Logi@@
mang@@
vor@@
fées
accou@@
Wag@@
Ruban
sommaire
eable
Aaron
Lud@@
oro
XL@@
Côte-@@
Ralph
intègrent
210@@
issable
aris
Présidence
èges
Zoom
TC@@
Oper@@
Hér@@
recyclé
mr@@
Sai@@
Diamètre
Lat@@
coureur
Laissez-nous
copes
Amy
résout
oa
magnifiquement
DIA
lb
ÉS
glaces
instamment
citrouille
réplique
caisses
nue
ergonomique
Lach@@
instauration
2002-@@
dépose
êt
Réserver
teri@@
remises
Jab@@
Zar@@
TDI
méridionale
ës
amique
technicien
see
sig@@
installez
élastiques
Langues
Canapé
métropolitaine
Correc@@
Visites
ainer
langu@@
AUTO@@
gos@@
Coiff@@
dérogation
Travel
rur@@
éther
fiante
indemnités
Sean
Joint
B1
cannelle
Bagues
oeuvr@@
spot
persévérance
arach@@
Cali@@
cac@@
ventil@@
savoirs
en-ligne
Shim@@
Changer
Vila
pesant
meublée
agonistes
délicat@@
Renforcer
nica
boi@@
Satellite
162.@@
sur-Mer
réexamen
précis@@
Dot@@
calc@@
Vecteur
stric@@
japonaises
ket@@
Fais@@
airies
diffusées
Superbe
axial
appui@@
ados
eption
eterie
seg@@
kj@@
Sex@@
expérimental
Ouzbékistan
pisode
éliminés
Thor@@
Stick@@
atmosphériques
cultivé
gil@@
sandales
documentaires
117@@
Holland
inhibiteurs
remplaçant
Electrolux
room
Outlook
hav@@
refroidi
430
Compar@@
coloris
Susan
Š@@
compliment
Dean
Scre@@
án@@
1000-2500
Différents
2x@@
partez
gla@@
Marchés
insk
Sis@@
Gru@@
inclinaison
stockée
gir@@
représentatif
am-@@
gencives
composites
Castel@@
Amis
lipides
Bénin
bracelets
Présid@@
cath@@
SCC
enzie
Com
marée
cabines
peluche
Filtres
réservées
Madeleine
M2
dupl@@
rw@@
flacon
auberges
bienne
ventu@@
onnant
coussins
Nichol@@
Buil@@
Det@@
Bull@@
Gos@@
VIII
endommag@@
constants
tom
Coun@@
Horizon
anic
Cap-@@
assujettis
Hendri@@
blis@@
Saf@@
1.9
Cryp@@
résidentielle
coupez
Good
institutionnelles
carrelage
habillées
robustes
Laissez-@@
Comb@@
retar@@
Photo@@
H2@@
Aer@@
CICR
Will
tion.com
pointes
ram
lour@@
strati@@
Bres@@
postsecondaire
zième
Menu
minibus
équili@@
structurelle
mâchoire
tilles
Grandes
déshydratation
outre-@@
relance
Dre
hanche
oculaires
esh@@
wil@@
élorus@@
Baignoire
sumé
onu@@
Courriel
Entrepren@@
Écoutez
Fati@@
arbi@@
tle
ch-@@
ssen
quot@@
retraités
Numérique
NES
Wilhel@@
Réduction
cola
vapor@@
OSCE
Monténégro
ultr@@
raffiné
Richelieu
States
appelante
instable
authenti@@
arrivants
Transparent
SOCI@@
2011-@@
talières
Pouv@@
agréés
search@@
conventionnels
tr
Hilton
bleues
BL
Set@@
Match
Rob
Boy
représentante
sous-ministre
hebdomadaires
piré
aménagée
Immobil@@
Shopping
redevances
poussi@@
changes
Jes@@
GRI@@
32,@@
atar
law
anca
préco@@
vap@@
esis
Surf
Alb@@
Quar@@
Split
Visi@@
2010-@@
exclusi@@
nies
ourne
importateurs
Beng@@
ourt
omètres
231
députée
voisines
Vitesse
collecteur
CLE
Meu@@
Energie
Portes
eli
electronic
Wild
pêcher
virement
contre-indications
refu@@
abonné
198
Andalousie
capuchon
Visiter
Giu@@
alcoolisées
ort@@
Pearl
-up
tensi@@
tibles
quons
abordés
inscrivez
filets
latex
manifest@@
culinaire
tropical
emph@@
Supérieure
clas@@
boom
enni@@
Soul@@
après-vente
élaborées
visitant
KS
MH@@
maîtresse
outs
botanique
Zambie
corporels
continues
ich@@
corré@@
annon
Woods
téléphon@@
520
Bénéfici@@
Pand@@
Liquide
ğ@@
Class@@
Psych@@
Linge
}
subsidi@@
parlements
JE
Avocat
allure
anti-inflammatoire
env
Benelux
ivoire
Hospital
Scor@@
libéralisation
Étu@@
Hub
Répét@@
Kw@@
{
Penn@@
couplage
lus
concili@@
kal@@
entér@@
Présent@@
érapie
am.com
inoffensi@@
entale
transférée
tracé
forgé
sensibil@@
préalables
xie
Assurer
connectez
allocations
OD@@
livrée
Field
climatiseur
8.1
Règ@@
adri@@
cônes
gob@@
cyc@@
Cd@@
saisonnière
couché
Résid@@
dB
notariaux
Leo
WS
OPEL
PK@@
aff
essa
estin
ENA
STAR
Louis-@@
bijou
multi
290
typo@@
Vieux-@@
embarquement
serviront
arte@@
antaine
ile@@
libellé
Heart
245
DIN@@
Mog@@
Vul@@
penderie
comparaisons
118@@
Affi@@
anni
gout@@
162
diversifier
gate
énonce
signées
endorf
Norfolk
pein@@
valise
POSI@@
fusions
autocollant
envisagées
9,00
370
ombie
carnet
Gravure
émet@@
onér@@
Girl
tré
Waterloo
ariat
v.@@
hydrique
déduire
sburg
GL@@
172
remplissant
Ama@@
EG
eb
antill@@
Bass@@
Nig@@
préparatoire
Acqu@@
agère
curseur
33,@@
cottage
récoltes
may@@
Q-@@
moutarde
lière
Assistance
Rideau
ml@@
SR
amiques
Tok@@
munis
scienti@@
transparentes
Out
440
tica
Large
presso
Eva
eron
1910
bh@@
améliorera
zio
Sortie
mélangés
isateurs
Blue@@
polarisation
bile
SF
appréciée
Hus@@
Tenerife
61@@
BUR@@
décisionnel
illustrée
éliminant
ciném@@
jointes
proxim@@
balise
6.
induit
Serv@@
Rempl@@
échographie
ffici@@
Linda
paillettes
Barry
constituées
Coff@@
tremper
Ave
bruits
ELISA
éblou@@
Brit@@
ascend@@
Apr@@
andum
Saint-Pierre
athan
résidu
partite
pop-@@
couette
indirecte
tricot
pli
fruc@@
Contexte
opératoire
véranda
violon
ycl@@
équiper
flav@@
vitrine
gaine
monom@@
ombies
elo
agrandir
spe@@
Globe
suggérées
fabuleux
logos
isser
circulaires
incorporer
cane
Ok
ön@@
Marne
interprètes
2012-@@
INT
adow@@
Connaissance
polissage
Program@@
veine
mel
168
colorant
C2
attribut
correctionnel
exposants
physiologiques
correctives
tle@@
elet
ensoleillé
brancher
ister@@
163
Véné@@
adel@@
Gaz
podium
116@@
hésiter
Bid@@
produits-@@
maires
abonner
rent@@
verdure
Industri@@
cortico@@
vulnér@@
ul
issippi
Édition
Pear@@
enburg
ulcères
Jerry
Lal@@
esthétiques
récipients
Alo@@
verticalement
SEC
Stein@@
chienne
MG@@
Fum@@
pré
Editions
max@@
CEI
Coul@@
ât
Rai@@
Arman@@
insol@@
fermez
Mend@@
versant
Theatre
oxi@@
linéaires
chômeurs
abdomin@@
Under@@
212
doc
plaquettes
spécifiée
tractus
Sebastian
Quick@@
dou
Norme
Nes@@
Gig@@
éine
b.
açant
Mélanger
Eden
Engineering
building
défil@@
Informatique
100-@@
appoint
implant
otechn@@
Snap@@
dérive
Can
Haut@@
Recette
Carmen
caution
spécificités
conventionnel
VIS
Jules
Passion
zoom
curren@@
consistent
Hong@@
IV@@
potenti@@
attentifs
avik
Metz
prin@@
Utah
rochers
Angel
pompage
Lustre
noyer
laissera
tricoter
devri@@
CHI@@
lition
Moul@@
ketball
ordures
participeront
Soie
Ei@@
omo
como@@
Gas
Ost@@
17-@@
abeille
CSA
Leipzig
green
Motor@@
hd@@
panorama
320@@
Andor@@
marteau
Model
ANA
^
Wild@@
maigre
1080@@
stores
écraser
minoritaires
De-@@
boro
avi
Fire@@
Greg
douz@@
asser@@
nommées
Actif
casques
Must@@
Specialized
Rat@@
anglophones
Tunis
gastrique
Oil
Dow@@
endeur
achev@@
Électrique
roulettes
piqû@@
assoupl@@
Pick@@
optimales
concertation
Cool@@
posium
Nap@@
informée
Tower
emball@@
ajustée
bro
Parcourir
réinitialisation
VOTRE
Développ@@
solubles
lisme
orig@@
Mesdames
conservée
Shin@@
born
négativement
Actions
.in
impec@@
Newton
harmoniser
Proche
détecte
OF@@
Guad@@
Forêt
montrera
Multi
RN@@
oliques
Visage
nic
Fisher
Condo
illustrent
comman@@
V.@@
2019-05-11
Sib@@
2003-@@
Utrecht
Sed@@
3M
Johannes@@
détent@@
hanches
évité
pton
Tchèque
Ste-@@
OT@@
ARTI@@
ferment
dissoudre
Miss
déterminants
pourri@@
Easy@@
consulat
estu@@
Pointe-@@
Coast
Guillaume
oya
Henri@@
jetables
62@@
Troisièmement
ogie
GY
parach@@
v1.@@
Pierre-@@
sachiez
Lac-@@
attestation
Gib@@
cussion
hypothéc@@
Isab@@
coincé
mente
conviviale
Gér@@
aj
œurs
remplissez
cre
192
pomp@@
Entièrement
achetées
Créatif
2015-0@@
BD@@
contactez-nous
courroie
Evénements
Préfér@@
compartiments
contex@@
Fourn@@
médicin@@
ergi@@
br
toits
endommagée
buds@@
variée
UI
salariale
virage
Kou@@
acht
agencement
idget
portuaires
supr@@
200.@@
Atlantic
condensateur
info@@
trouille
rou
Revêtement
ravag@@
successives
Klein
Assistant
Color
évapor@@
Alli@@
Do
accompagnées
glyco@@
yog@@
allégation
Stand@@
tuaire
Direct
atel@@
Chrom@@
bagues
Chaussure
Room
gun@@
reproduit
Avignon
Julien
Iowa
rot
cult@@
Koweït
Non@@
Toscane
Onlin@@
Emily
ney@@
randonnées
Franç@@
RM@@
bag
PLC
Durham
studi@@
adju@@
SPA
dérange
eca
petit-@@
Booking.com
buty@@
garantissons
Bridg@@
lies
dépendances
Craig
Search@@
Eye
mol
gymnastique
avoisin@@
frottement
.blogspot.com
territorial
fu
TION@@
championn@@
aquarelle
Hem@@
Coeur
Dém@@
revers
radios
stérilisation
professionn@@
vési@@
urgentes
derni@@
oix
totaux
Ingénierie
ception
Littér@@
ter.com
isements
localisé
romantiques
gêne
groupement
lake
62.@@
kt@@
Wright
ts.com
Mali@@
tridimensionn@@
surplus
salades
Session
Jr
Advanced
avor@@
1916
west@@
erve
commercialisé
cerise
dop@@
Back
entôt
LLA@@
encastr@@
Him@@
34,@@
Médaille
sement
judici@@
plaine
Investiss@@
défini@@
SPE@@
1100
Métis
hang@@
Rey@@
conv@@
Promen@@
End
rejets
clar@@
Rail
regards
Stars
annah
entrepreneuri@@
constatations
coordonné
rinçage
raisin
Til@@
promotionnel
jaun@@
chaleur@@
éolien
Bob@@
Jur@@
BILI@@
Particu@@
YO@@
bilatérale
moindres
Nutrition
alph@@
Sara
nev@@
écouteurs
diuré@@
énaire
DAN@@
nuance
2019-02-01
Anth@@
phili@@
Story
saisonnières
suspendus
axiale
MG
élèvent
Petits
Living
redressement
Elisabeth
Chaises
Envoy@@
bale@@
nab@@
arina
Innov@@
Québ@@
People
tum@@
kan
synonymes
Robinson
Metro@@
Serg@@
Édimbourg
Option
Hin@@
tari@@
prescrite
down
Terry
Albu@@
ergon@@
endocr@@
Dégu@@
Ambassade
inch
Concep@@
211
Soft@@
SMD
vidé@@
chine
171
clips
Ice
PHP
importateur
208
Gaulle
irrégulière
hode
Elis@@
CPU
Cent@@
stream
gazeux
B2
ille-@@
adapt@@
Tah@@
aign@@
GH
Namibie
boss@@
Evalu@@
interpr@@
conductivité
kb@@
Nouveau-@@
éclo@@
chaux
Lits
itali@@
Louvain
implémentation
déplaçant
micros@@
Crist@@
81.@@
phéno@@
CAP
GMBH
450@@
mineuses
Fig@@
y.org
Spring@@
Lic@@
HC@@
ineux
Été
capillaires
convoyeur
itale
ton-@@
Danny
chirurgiens
ood@@
Malawi
alliages
Investissement
TAR@@
olu@@
pétales
Shaw@@
Captain
fo
discrète
ménager
exigée
exécutée
soumissionn@@
bic@@
game@@
Discours
It@@
exclusives
Sund@@
poules
strass
Pot
arin
Caf@@
Somerset
alenti
Temp@@
cutan@@
géométriques
sar
512
Spy@@
Hors
shirts
Detroit
Economy
garanti@@
check@@
Saint-G@@
XI
Bourses
scén@@
aptes
fumé
yan@@
Grap@@
Loisirs
éthylène
envois
613-@@
transparents
Call
tach@@
réservent
notariale
thiopie
électromag@@
Janeiro
ll
bille
aii
s.net
Zan@@
squelette
Cristal
92@@
inhalation
SO
poubelle
aband@@
Retourn@@
Down
hion@@
jar@@
armure
Import@@
Doha
Eastern
CITY
para@@
Oeuvres
basique
calibr@@
thorac@@
Rédu@@
Brou@@
Nick@@
Jumelles
70-@@
ressorts
-clé
payable
Vac@@
Voyages
anu@@
ody
Minu@@
Fréd@@
Correctrices
matis@@
Solaire
Bris@@
Connexions
Heid@@
cartil@@
oms
suré@@
Norman
1200@@
Jessica
mp3
Cellu@@
bricolage
Algarve
4x@@
Oklahoma
completés
Ingénieur
illages
marie
andro
Casablanca
sof@@
broy@@
siff@@
boc@@
antisep@@
yo@@
projecteurs
sorb@@
akers
enlève
Ces@@
évaporation
éro
tième
Polarisées
igni@@
47.@@
cn
750@@
Mare
Orig@@
sq@@
psy@@
tog@@
PG@@
Maritime
■
Kia
absorbe
Améli@@
Mart@@
jardinage
Nicole
athlon
surcharge
Bonn
Nath@@
ué
pommade
98.@@
kilogrammes
synthétis@@
Gur@@
Modu@@
pette
ORI@@
Libre
Chemises
35,@@
réglables
balnéaire
Gares
assistée
optez
Oman
gèrent
º
Fle@@
prolongement
préventives
souterraine
basi@@
onda
éru@@
additif
Mobilité
FRA
Stockage
sj@@
brune
exotique
sélective
coude
Blou@@
aja
Textile
Tém@@
coordonnateur
ely
Eis@@
astronomiques
condensation
calculés
entiellement
clon@@
séjourné
TVC-Mall
vine
Kentucky
Citi@@
formulée
away
èvre
yne
CES@@
Casques
154
Commu@@
Mitchell
coronavirus
2018-09-13
inci@@
Die
seuils
caractérisent
PW@@
Ken
Vid@@
nel
ving@@
Couper
grati@@
gu
36,@@
C1
tranquill@@
Prime
notari@@
6.1
IF@@
èvement
simplifié
bagage
Ress@@
Brothers
Exemples
croisée
-E@@
Indiquer
érieurs
andises
réparti@@
précurseur
Arena
mative
MétéoMédia
élas@@
Chemin
approuv@@
superviseur
Faites-@@
ine.com
Majorque
Cél@@
lison
zia
Territoire
allin
Diplôme
aman@@
Ile
Kirk@@
tournante
balay@@
trap@@
Permet
99,@@
modé@@
raccord
46.@@
incl@@
onnettes
vestiaire
allume
commod@@
Campagne
Khar@@
Mobil@@
cellulose
Beaux-@@
sir@@
Gw@@
Cool
physiologique
fériés
ARN
UPS
O2
Carri@@
ceur
a-
crevettes
préparez
Île-de-France
ank@@
illant
Renforc@@
chanti@@
vecteurs
cloche
gourman@@
Trio
Dresde
Bang
poussoir
incré@@
lièrement
Sépar@@
Paris-@@
disco@@
Ventes
ophtal@@
nov
Buffalo
Dos
saut@@
chemises
endommagées
tain
rain
Queensland
nit@@
dition
AIR
Pér@@
sob@@
Niv@@
pancré@@
recharger
protecteurs
Famili@@
Rodri@@
Diana
208.@@
allier
ignes
dia@@
etage
négligeable
1870
acker
NON
fesses
discret
Séch@@
cartouches
abore
T3
bow
kt
isot@@
Schi@@
agneau
ITA@@
TB
Revue
Print
OTTAWA
Lambert
résiste
mous
2018-09-14
facturé
Perspec@@
Happy
pull
passer@@
uri
DRA@@
ün@@
Util@@
Soirée
DF@@
105@@
pson
Ana
Switch
MME
aigu
inversé
enroul@@
KIT
158
arb@@
Propriétaire
abe
Mongolie
Bé@@
efflu@@
Schu@@
e.net
stylos
Orchestre
eti@@
abilisation
erres
Swiss
cup@@
Financi@@
Rafa@@
escent
Ross@@
Principe
berges
Sardaigne
Novo@@
frotter
Lenn@@
Advis@@
Kais@@
châteaux
ailler
Morris
ANTI@@
Jean-Baptiste
GER@@
Pad
press
gammes
East@@
Marbella
vignoble
Karen
Chel@@
hormonaux
coinc@@
Chat@@
Anneau
gymnase
Mum@@
Fusion
insecti@@
Liu
restau@@
Petites
Chariot
PCT
osh@@
Italy
curseurs
téléchargements
Guy@@
MH
enna
chr@@
aal
enth@@
Denver
164
ather@@
immobilisations
elle@@
Um@@
INO@@
bug
Was@@
colori@@
fluctu@@
Computer
Mick@@
lt
NL
Harbour
arcade
Zero
Déjeuner
Couteau
Rex
Modern
rap
minster
oises
pard
buc@@
coupures
Nikon
613
fro@@
EG@@
Aire
pentes
chronologique
Monument
Harmon@@
Iron
recu@@
Ner@@
empo@@
mouss@@
Facil@@
poudres
Davidson
Avantageusement
circule
sul
Signature
well@@
Capr@@
onate
Carth@@
Tool@@
CAT
changez
france
escomp@@
huil@@
DRI@@
Contrôleur
frigo
immédi@@
Participation
desservent
Municipal@@
Georg@@
Prévention
interférence
yi
Kem@@
Rolex
Grove
Mobilier
scandinave
Position
régim@@
Plein
gastro-intestinal
SMA
cicatr@@
Belgrade
Heritage
Séjour
Feuilles
Entente
patch
Séri@@
vignobles
Pag@@
Bouton
gz@@
cytes
liqu@@
correspon@@
cellulite
mor
Machin@@
Slim
Canaries
Price
Edi@@
aska
Comparaison
Mt
ecs
ville-@@
Apk
world@@
couchage
Nicol@@
Sauna
BRE@@
délivrée
tenti@@
réfugi@@
460
expl@@
rente
discipl@@
ÈME
Problèmes
buste
Remar@@
chauffe
Ô@@
conciliation
Elite
1,9
Revenir
endriers
odes
alogue
trem@@
jon
lead@@
Guest
Fast
pel
remplaç@@
communic@@
purée
157
Consomm@@
déploi@@
Shaw
incen@@
MSI
RAPPORT
affai@@
olets
textures
pizz@@
Report
disponibilités
eric@@
Fromage
dérog@@
CD-@@
.ir
Audi@@
incorrect
Luxury
satisfais@@
AUDI
générateurs
vieill@@
Edit@@
Développeur
8-0@@
crête
Barcelona
otype
CAL
coulissante
Rent@@
Northern
Opérations
heu@@
Multi-@@
AO@@
80-@@
Zel@@
sité
aboration
exempt
8mm
gastronomique
Channel
distribuée
UP
Tatouage
Enregistrement
assée
montblanc@@
37,@@
Boh@@
age-@@
ī@@
PB@@
256
Mauritanie
félicitations
relaxant
uche
panor@@
hoc
world
Pyrénées
2018-09-12
Partenaires
Ho
René
plates
3000@@
69.@@
coiffures
Dji@@
malware
bâtons
zan@@
aromatiques
catrice
ui
placards
Gabri@@
itants
rol
cross@@
scintill@@
antibiotique
tj@@
liquidation
spas@@
4.3
trix
ival@@
arbustes
DX
eting
gall@@
road
Gamme
e-bracelet
stin
afi@@
Paire
market
Ivan
Bilbao
Récupér@@
jn@@
og
élégants
écrou
rampe
Repor@@
Bec@@
Bras@@
Mim@@
Laf@@
Togo
sum@@
TIQUE
nium
pping
wom@@
04.@@
aer@@
enregistreur
BK
Formulaire
Habit@@
Autocar
télécom
Perle
ako
Shampo@@
azi@@
Depart@@
Monter@@
aune
palestini@@
FX@@
SAN
électrom@@
stache
Gazette
armac@@
voudra
Hewlett-Packard
TÉS
mont-@@
Souhai@@
orgi@@
charnière
corail
beach
Spin@@
SÉ@@
Fish
soumissions
sécrétion
raccords
PS4
Portland
lav
obti@@
exacer@@
eutiques
scope
tox@@
Lien
sinus@@
graphite
650@@
jetez
Alger
simplifiée
Firmware
70.@@
référencé
RPC
ian@@
obus
porcs
kirchen
Corpor@@
Mik@@
Jupe
jeun@@
étain
Sax@@
pées
raf@@
COMPRESSEURS
oster
etch
brom@@
Gog@@
Networks
pell@@
metalshop
Accessi@@
Jacqu@@
enroulement
coor@@
PIC
opposées
Poste
pc@@
SPI@@
82@@
MER
188
Crit@@
Trains
marin@@
Mis
Bud@@
ocre
White@@
NEC
255
Kum@@
jah
DX@@
Recommandations
Chanel
Hall@@
Dynam@@
Barbecue
IKEA
offices
sulf@@
Cres@@
écoulées
aviser
trol
food
sueur
beaut@@
Blog
vestes
2,7
system@@
SERVICES
magné@@
Barri@@
dro
Mans
VS
Rouleau
MW@@
literie
Castell@@
XV
24V
Equipement
Heu@@
pub
lex@@
nº
hasa
craqu@@
ERE
count
métadonnées
39,@@
ol.com
marais
Deep
Aid@@
Augmentation
Kai@@
lesdits
550@@
ee@@
Aj@@
Terminal
déroulant
homologation
Licences
eti
oscopie
Dh@@
jard@@
Coordonnées
bobines
splendide
Fernando
abel
.ro
unitaire
ppm
ÈS
propan@@
bt@@
enay
Mécanisme
métrique
diag@@
Tall@@
bovins
Dog@@
Dodge
Summer
VIA
zodi@@
affiner
Saint-Ger@@
Now
Dubai
Custom
Nég@@
Midi-Pyrénées
persil
andi
amusants
bicarbonate
FlixBus
VILLE
collant
Acer
Stefan
nick@@
Caoutchouc
opportun@@
jon@@
folio
compteurs
concombres
Pise
camar@@
élector@@
camomille
Producteur
elée
Hell@@
ention
concr@@
Masters
gru@@
Cai@@
incorrecte
favorablement
ju
Jung@@
Tan
Gand
irrégularités
Contemporain
2001-@@
Aero@@
LEGO
Dijon
pâtisserie
Fantas@@
aryn@@
primer
Cyclisme
spor@@
Catal@@
Sharp
arre
.com.apk
XV@@
compromise
Lop@@
key@@
recy@@
Tarif
frac@@
ebl@@
emballés
Clé
mesurées
faisceaux
scellé
Wai@@
Wend@@
vectori@@
169
abrasion
Différentes
arta
2018-09-11
dm@@
ransomware
tings
Pain@@
Gloucestershire
carav@@
tit@@
Rochelle
excré@@
VTC
rÃ
ño
wo@@
LAND
cycliste
GSM
préhension
Bas-@@
stown
exportés
tropicaux
perru@@
FAC
22-@@
º@@
Aspirateur
Share@@
Postes
from
u-@@
multiv@@
collation
lotion
Zanussi
Tools
VAN@@
lif@@
luminaires
Piano
ashi@@
frig@@
Coût
apprécierez
amant
Suz@@
MIS@@
fec@@
isible
tez-@@
vant@@
asia
Compact
Lour@@
alt
ombo
Bari
GL
sten
ché@@
Montreal
Maquillage
loger
Obli@@
Photographe
rid
incorporé
cats
percer
ridge
éditer
Bundes@@
Munici@@
ambo@@
dot
Alto
Stream
parcelles
recomman@@
révisions
tyle
étalonnage
sév@@
vous-@@
RentBoard.ca
passation
Esp@@
exhau@@
épit@@
black
bach@@
Maritimes
Soc@@
ouvoir
douille
indemn@@
161
tec@@
MES@@
réfract@@
maturation
over-2500
bak@@
bird
Fan@@
Terrains
atl@@
vée
accoudoirs
ree
Bella
sell@@
Brunswick
Vice-président
LAS
designs
Déf@@
simultan@@
Gonz@@
Hubert
als.com
Polonais
Bett@@
Carav@@
erronées
ons@@
coupe-@@
Dah@@
Clip
222
virales
Swarovski
Speed
Namur
AAA
D2
it.com
kw@@
délibérations
éphal@@
alpha
Melvin
Week@@
LIV@@
Safari
foires
Quartz
connécté
GUI@@
estivale
acel@@
Connaître
SIS
azur
Eugen@@
Virginia
Loo@@
510
coulée
légume
cots
Rhin
Faro
Kis@@
convul@@
cyto@@
Biens
Future
défavorable
liber@@
emballer
additionnelle
oia
culinaires
2018-09-08
tical
cons
Jaguar
Intégration
Exclu@@
volt@@
Perry
Safety
Anci@@
intissés
AH
Nylon
rad
Navi@@
Planification
Clou@@
Végét@@
7.com
Run
Dick@@
soigné
agnes
profiterez
corne
anner
nigh@@
burger
Gene@@
mucus
EB@@
Bruss@@
Winter@@
Gour@@
Rouen
Hip@@
-00@@
ate.com
VIN@@
Élec@@
166
Torre
mina
arriverez
manag@@
yacht
SB
mouton
environnantes
tronçon
Planche
Médicam@@
Panneaux
MED
régi@@
glut@@
tx@@
Jose@@
ful@@
275
icide
Publicité
Convertisseur
tuile
rion
91@@
précipitation
clous
susmentionnées
Dong@@
.es
ÉTA@@
alogues
Isol@@
friction
ducteur
INA
crust@@
assurance-emploi
Got@@
Attendez
coutures
extrusion
Downlo@@
330@@
Pouces
noël
frontale
plomberie
COUR@@
Recevez
Certifi@@
Cuis@@
N1
rinc@@
.1
LIMITED
Jérôme
pet@@
21-@@
Mémoire
shirt
bung@@
Vau@@
oga
Passer
réactifs
Compét@@
fem@@
Osaka
Joan
illement
cone
inspectés
adow
Remplissez
Continental
2,8
fères
kl@@
peptide
Ridge
ork@@
fromages
Thermo@@
redress@@
sangu@@
obil@@
labor@@
aniers
number
Reproductions
Sweet
mezzanine
ground
Capricieux
ork
CCSN
MENTA@@
Haï@@
miniature
ticut
Range
intempéries
fongiques
tournesol
elop@@
sédiments
174
placage
Accédez
Patinoires
Ventilateur
Opera
Expert
bouff@@
disé
ganglions
artère
Charge
Maillot
cky
allumé
mail@@
condo
Cube
saturation
lymphatiques
Reim@@
3A
French
putain
oigne
ace@@
ise-@@
mouv@@
verticales
5.5
ministériels
002
prescr@@
TECH
recouvre
écharpe
BRE
échangés
PCS
Richar@@
178
vich
Cleveland
Andreas
concessionn@@
9.com
Fe
haut-@@
Autour
Ander@@
big@@
ecz@@
owski
ssel@@
Cremailleres
bell@@
66.@@
implanté
oreillers
Gear
allo@@
croisement
amp
otti
ik
S2
poulets
Minigolf
inoubliables
canard
Ont
celu@@
dore
servie
préval@@
torsion
aiman@@
chure
fly@@
absorbée
Sud@@
flash@@
hollandais
Princesse
azi
climatis@@
Race
RY
ORS
Véritable
jetable
316
coordonn@@
rach@@
LF
importées
Mines
olig@@
Bains
Moncton
hydratant
mortier
ternes
Remplacement
crue
5.2
foudre
Bever@@
Feu@@
Cow@@
ananas
ducteurs
ceintures
Embr@@
Motel
2018-09-27
ral@@
bilatér@@
art.com
Town@@
Jeans
Tul@@
Ois@@
Tree
bourg-@@
Body
crip@@
Gibraltar
Régi@@
exten@@
patron@@
Anne-@@
Virtu@@
Années
OT
envisag@@
gour@@
aze
calmes
159
Pneus
KitchenAid
Lagos
poupées
grossistes
déraisonn@@
soph@@
carrosserie
Wiltshire
Massi@@
Blanca
Thessal@@
RAN@@
défendeur
centrifu@@
Atlanti@@
carbure
alises
Recettes
isco
réiniti@@
anine
céramiques
ves@@
Ech@@
chèvre
Circuit
insatu@@
bancs
Consulting
PEUGEOT
Gray
Solar
molé@@
climatisée
pédale
Dres@@
Paradise
électroménagers
Pages
PRIN@@
vom@@
var
Maker
PIÈCES
SCI@@
quantitative
correspondances
map@@
vidange
Canada-@@
salubrité
Professionnel
étrique
es.org
Crochet
Sérieux
lacets
98,4
host@@
Artis@@
Wind@@
foncée
184
wig@@
Hope
vider
Luc@@
analo@@
sea
bei
pliage
égr@@
illers
environnante
Apa@@
magnét@@
Médias
Jeanne
Diamant
Sébastien
découpage
dénu@@
nautique
Twin
ience
MOTEUR
PPE
PY@@
Vérification
Mü@@
NT@@
Kap@@
pâtur@@
Mariée
liège
2018-09-15
Calais
isir
Oly@@
bulgare
divisées
Bertr@@
GLA@@
CESE
boré@@
Aventure
bénéficiez
Chalets
gmbh
len
Motion
England
43mm
capillaire
Évaluations
pelle
Flex
297
T-shirts
pans@@
Ted
link
720
imitation
V2
dification
Diane
Thur@@
DINKYBUY
cahier
apan
Alban@@
puzzles
Equipment
grove
Trouv@@
réver@@
tins
tion-@@
Guer@@
pinces
gél@@
Massage
store
ROU@@
2018-10-02
cq@@
dément
avantag@@
paress@@
protected
feat
5cm
Winter
chocol@@
DT@@
Chiff@@
LR@@
Poker
ornement
boulons
Colum@@
Natural
Triple
montées
314
loft
Cottage
beek
discrets
Fox@@
larg@@
microscope
pathologique
Filles
stérile
plantés
papillons
copropriété
Robot
lava
aging
ř@@
branché
orang@@
frit@@
coques
2018-09-05
color
illeurs
philos@@
noti@@
a.net
apper
diri@@
2009-@@
équilibrage
Automobile
bascule
Madison
Xavier
RATION
èbre
rubans
photovoltaïque
bordeaux
Terme
Brother
joues
furt
Soul
1300
TIS
Made
estre
Brême
207
sous-vêtements
serts
fumeur
bloquent
téléviseurs
détectés
ébauche
Smit@@
ando
peuse
chirurg@@
injecté
Leonard
Fêtes
Étage
Urban
cock
cargaison
online
IPS
Coffre-fort
Barre
2014-0@@
muqueuses
thétique
Commerci@@
Europa
inflamm@@
personalisée
NOUV@@
lapins
Ø@@
Riy@@
carrel@@
Souris
azer
perfusion
personnalis@@
host
101@@
Slo@@
Petro@@
Boss
kayak
OM
MON
congélation
homolo@@
ö
bles@@
blog.com
Rod@@
det@@
Protecteur
Poster
176
poutre
177
rd
river@@
oxydes
Interface
Ko
72.@@
Surrey
Vouz
Paill@@
281
Origin@@
courbure
Hitachi
Edu@@
amusement
sur-le-@@
Hydr@@
into
SET
culo@@
sélectionées
sf@@
nappe
mart@@
phalie
aménagements
Lancement
colorier
Glass
lustre
istre
daires
WH@@
2.0@@
Rog@@
GRATUIT
Nottin@@
tro-@@
jets
astuce
Cathédrale
hydroly@@
longitudinale
éries
plo@@
Gad@@
médiane
✓
pia
décontracté
fuseau
Auth@@
ics.com
dez-nous
Vie@@
voeux
Celsius
ètr@@
ity.com
adhésive
Stratég@@
Comparer
hermé@@
onix
Imper@@
roux
Nozio
Pablo
Asus
Cable
Montagne
Montgomery
massages
rd@@
street
Campus
Sop@@
désinstallez
chages
olives
209.@@
Baptême
agen@@
Honor@@
lex
0.1
RB@@
TS-@@
rugu@@
chevet
tranqu@@
POMPE
PON@@
Vis
Bear
Phone
mentaires
hun@@
carb@@
réfrigération
Pig@@
casier
Durable
Dortmund
bai
Kay
rigides
Gat@@
web.com
3,2
213.@@
procès-verb@@
Residence
oste
aisser
Lenti@@
4A
Chapelle
Céré@@
blanchisserie
abad
189
Cosmétiques
mante
Progr@@
Fland@@
orte@@
asphal@@
eils
Bed@@
Chauss@@
Jupes
154.@@
légèreté
CG
bonn@@
pastel
boulev@@
conti@@
feutre
-12@@
espagno@@
bb
RAL
Nun@@
arthrose
M1
Couvercle
électriquement
abstraite
paupières
ops
Size
Zamob
chirurgical
DEO
défl@@
achalandé
Subaru
lyn@@
Gui@@
contours
rio
Disques
Ether@@
Costume
Distribu@@
refroidisseur
Lex@@
geon
23.236.62.147
Botswana
cobal@@
Légumes
hydroph@@
doy@@
Mec@@
guichet
pille
Commander
accueilli@@
établiss@@
palmiers
Chen@@
Kau@@
dunes
CÉ@@
commu@@
plaisance
Baby@@
vid@@
blan@@
Clara
MMES
Orth@@
locu@@
athér@@
isch@@
Ü@@
Maladies
Wa@@
aissé
catalogues
Langu@@
gener@@
brutes
Baltimore
insert
LEUR
lipo@@
peptides
différentiel
contracté
pollen
serviable
boute@@
désinstaller
flow
pong
acia
wald
sphérique
longitudinal
eau-@@
thern
Rivière
double-@@
paliers
Emil@@
cra
Johanna
Xperia
Princ@@
Mate
Bord@@
Effic@@
Foire
restaurée
32.dll
2020-02-@@
2-
Plongée
chio
Prin@@
ej@@
305
liner
Dream
VM@@
particu@@
fav@@
eurre
HONDA
contreplaqué
Pool
tungstène
Filter
Condos
Disponi@@
Eagle
prétention
Sauve@@
MUL@@
IER
191
Fit
Hypo@@
Fontaine
dites-vous
Gilbert
calcule
diode
vec@@
CFA
amer@@
Liberty
kios@@
souder
Isabelle
ng@@
Last
CHAM@@
lomb@@
VEL@@
pique
word@@
ps.com
bian
volutions
Inform@@
Silva
cloison
-d
Hé
MDN
çonnerie
frais@@
Sonic
Effectuer
patch@@
réactionnel
ventilateurs
Radio-@@
mou
dessinés
Franc
Partition
Chefs
1400
dégagée
Largeur
taliers
Voice
cerises
Desjardins
pendice
0,4
mx
Charlot@@
Marguer@@
ain-@@
Hockey
CBE
cross
étiqueté
èlement
2B
colore
Ultr@@
Kirg@@
ligh@@
popul@@
Cafe
Psy@@
196
Compu@@
TANT
bers
Manteau
wy@@
stéri@@
ITE
Valenti@@
Céramique
név@@
usion
rainure
Bâtiment
Safe
endur@@
Certification
zzo
aira
DN
Pull
concombre
raffinée
Lecture
interchang@@
gna
Zak@@
ondo
ight@@
déménag@@
254
bilités
copiques
-G@@
procédu@@
assiettes
styrène
FRA@@
Écoles
résist@@
alto
ahu@@
Schmi@@
still@@
Sensi@@
BMO
wear
habillement
estiv@@
kat@@
c-en-ciel
Gilles
Integr@@
Verser
aldéhyde
succursale
détergent
Guitare
MY@@
pote
pis@@
thermomètre
d.
skis
kee
spray
lus@@
reddition
MV
Ancienne
mure
récipi@@
10cm
kes@@
biliaire
ludique
TÉRI@@
SIS@@
polyvalente
Guill@@
anas
KU@@
Ment@@
paux
amic
Wireless
oir-@@
pv@@
drain@@
Localisation
Cog@@
OH
ressortiss@@
Eco
orne
LBM
mign@@
yuan
late
Visu@@
gravier
dites-@@
181
BIT
candidates
respon@@
pulpe
armature
Tek@@
store.com
ophie
Rosem@@
Cumbria
serrés
hotte
Ek@@
LINE
TP@@
Posi@@
Stop
rières
grange
CONSE@@
périm@@
0,8
oda
fentes
métallur@@
Jacobs
inda
Railway
Etudiants
butée
Calculez
Ambiance
pédie
Freder@@
demment
Para@@
MOR@@
conci@@
Lob@@
and-@@
Tay@@
Illu@@
Roberto
correctif
clin@@
Steven@@
clôturé
mélangée
SCT
yb@@
séchée
Moulin
circonscriptions
LEN@@
Logiciels
Schol@@
us.com
esi@@
voil@@
proper@@
flocons
set@@
chets
ACH
Bucarest
paysager
Gî@@
bass@@
demanderesse
EVA
symp@@
Liqui@@
bidet
nettoie
Mois
Beck@@
Prairies
greff@@
agricult@@
UC
Cuivre
uss@@
Hend@@
lee
T4
yss@@
erra
Local
Bruges
3d@@
utér@@
Rim@@
Lait
Serge
bay
PET
Aurora
38,@@
AK
ondulé
Sén@@
atrième
metal
99.@@
Mém@@
positionné
.p@@
bouchons
verdoy@@
CHAN@@
alpin
inet
peigne
volts
insec@@
OF
Prairie
.gc.ca
Monnaie
Parfums
Dennis
CEA
Préparez
pharmaciens
Santos
promen@@
modulation
nes@@
directionnelle
lithi@@
RIC
Cherchez-vous
wall
hélium
och
Harbor
183
lak@@
assemblé
design.com
BAL@@
LY
façades
Roues
hai
confinement
Works
Viking
Class
Upper
Boulevard
5A
actus
prolonge
séparateur
adam@@
envoyez-nous
illing
oper
Sterling
pivot
ite@@
199
cock@@
fours
POU@@
SUP@@
ids
Visual
eps
Moun@@
gon
Wis@@
Conver@@
réfléchissant
ecu@@
Amical
jetée
demoiselle
Léon
permett@@
achi
10-15
murales
Laurentides
Rit@@
Heli@@
der.com
épilation
apa
Combinaison
ppo
Séminaire
pigments
jolies
←
Élections
Ë@@
peroxyde
5m
canonique
meublées
Combin@@
XIX@@
VGA
HARDLINES
dépann@@
7.
citr@@
Dance
Oce@@
leg@@
MF@@
zj@@
Exerci@@
Comman@@
kar
Dites-@@
Renouv@@
kas@@
Patt@@
amyg@@
enverrons
impul@@
Kö@@
embout
Nim@@
intol@@
eil@@
Schneider
194
Vera
Cim@@
Frigidaire
bc@@
Kot@@
droites
Actualité
soc@@
Dream@@
Piazza
JA
ZI@@
enne-@@
Short
RSS
Déterminer
530
Monroe
ocket
Mini-@@
Ful@@
orchi@@
12-0@@
Dil@@
esthé@@
raqu@@
GBP
atisé
lavés
Rub@@
Perfec@@
intraveineuse
TIFS
Mél@@
bourgeons
GÉ@@
maillots
gy
Ec@@
trer
TELUS
Rebec@@
artis@@
Bobby
Bagagerie
aa@@
bretelles
reconstruites
Sug@@
NAS
JET
HAU@@
View@@
étoil@@
gli@@
Moham@@
Beauty
apore
Panor@@
Font@@
2019-05-06
éenne
lèvre
spécialis@@
Thunder
billard
Spor@@
Voyagez
160.@@
résines
bilingues
Angers
Compa@@
Câbles
saillants
Châte@@
March
transformateurs
Sang@@
221
Install@@
HKTDC
Bent@@
Détermination
juri@@
gard
dilué
660
Blon@@
Biss@@
Petr@@
intellig@@
Appliquez
myoc@@
Pend@@
M3
ril
aromatique
SAC@@
1500@@
2mm
LU
Uniquement
collé
V6
paume
flat@@
Padoue
débouchés
homogéné@@
Cand@@
chloro@@
ding@@
CIS
carbonate
rami@@
2007-0@@
tangu@@
Parts
yogourt
Extension
Configuration
xj@@
aigne
abc@@
Gauche
Arkansas
Sagu@@
yer@@
épaiss@@
confec@@
carter
track@@
aza
célè@@
brûleur
illées
uniformité
pales
acoustiques
Arrêt
poly
Acklands-Grainger
Hanovre
skiable
2018-09-25
biblio@@
TIVE
ferr@@
st-@@
UVER@@
global@@
Restauration
snowboard
FAN@@
Papou@@
Menkarta
Lave-linge
représentatives
absorbant
Farm@@
Elena
Maastricht
Léon@@
gravé
1B
Rd
Sommaire
sdorf
üb@@
Roma
Hô@@
ghan@@
matisation
Moteurs
ard-@@
ded
buccale
IDE
Civ@@
saillie
normaliser
travel@@
167
Mécan@@
Clear@@
Assez
allongé
port.com
485
316@@
mirats
polymérisation
noyaux
oun
6mm
Monitor
EMP@@
ulateur
Déco
cristalline
tian
Détecteur
uto
Oak
chur@@
plom@@
erine
0,6
very
égout@@
Forte
LOGI@@
ignez
préscolaire
tapez
inhibiteur
ibid
Bracelets
tonique
Lotus
Pant@@
Béné@@
éclairc@@
èdre
souper
2C
elberg
CFP
restruc@@
Schwar@@
sili@@
53.@@
CW@@
ACC
répartir
1700
CIC
Provence-Alpes-Côte
Seg@@
Belfast
ouvre-@@
YS
prescri@@
3mm
ty.com
Boucle
frites
Spar@@
oks
Situez
FIAT
.pdf
dru@@
Modification
constituants
Marin
Tiger
personn@@
Navigation
rellement
aq@@
lanceur
adia
CONNE@@
RD@@
hton
Cha@@
etter
Lus@@
209
émulsion
AMP
possi@@
pelli@@
SAT
PES@@
Établissement
ayon
www.b@@
Patricia
itz@@
1x@@
Rhodes
illac
Hag@@
HT
Sources
Say@@
STRU@@
sorption
denses
Cracovie
isque
sinus
Dob@@
Incorpor@@
.tv
coupons
DF
flex@@
Chrysler
Kras@@
FIL@@
zu
Diam@@
law@@
HP@@
opard
Industry
effec@@
spécifiés
610
rafraîchir
nois@@
sapin
Minibus
tracas
NEU@@
Jen@@
gion
corti@@
Angelo
999
DY@@
Pain
org.@@
bannières
hémoglobine
nasale
OH@@
..@@
dÃ
ading
Suggestion
culé
.r@@
Vim@@
sonn@@
BIZ
Thomson
Entraî@@
Italia
Virus
lures
Jean-Pierre
autés
en-gorge
teintes
Lincolnshire
Infos
recommand@@
laryn@@
lactique
Roue
alo
Part
gro
desserts
2018-09-28
Amus@@
LOS
8x@@
vannes
74.208.236.@@
AEG
terti@@
sum
Blog@@
Premiers
än@@
Flexi@@
girl@@
Special
gilet
Emer@@
Mani@@
résultante
endaire
Giv@@
Pin
amel
Roman
inga
401
Déli@@
anova
pres
Généreux
ic.com
325
toni@@
Downtown
als@@
2018-09-06
lor
ás
7.1
ouille
chauffe-eau
smart@@
V8
Ark@@
ATTEN@@
ale-@@
Fog@@
Gate
sabl@@
Jal@@
Lucie
e.dll
SHO@@
Glen
complém@@
Snow
wi
390
lesdites
Campo
pier@@
etterie
conjo@@
sax@@
vinaig@@
polyvalence
gra
désinfection
illez
pochette
S1
Easy
Tremblay
assor@@
aisance
BP@@
Fru@@
ADI@@
adhésifs
squel@@
CHO@@
hoe
Assu@@
Actu@@
Millenium
Horloge
Marin@@
absol@@
baz@@
Adventure
Gior@@
perméabilité
ig
Conversion
LIE
avy
Clean
e-shirt
LEY
bicyclette
diplô@@
375
SES
Tec@@
piers
217.@@
IEC
hos
andra
toxi@@
11-0@@
mij@@
T-Shirt
alls
ventri@@
gar
oureux
Néerlandais
SPORTS
PHO@@
poni@@
Console
APP
Rouss@@
2x
essuyer
pathogène
Pratique
eco@@
pam@@
coniques
Roch@@
Professionn@@
Campan@@
173
calais
susp@@
services.com
German@@
LIN
Fujitsu
Pan
EW@@
engine@@
horizontales
lage
eillir
Cherchez
cervi@@
ources
rebord
Gardens
verrouillé
8000
Wellington
Laine
Adel@@
multicolore
greffier
242
Calvin
serrures
Heights
Turquoise
oteur
Wales
munie
BEN@@
ascens@@
Inspec@@
Converter
Lily
pittor@@
élév@@
déchargement
1-3
Tél@@
Médec@@
TOYOTA
coupon
décoction
7000
emi
Dior
spin@@
pigment
216
prothèse
z-les
Tableaux
112@@
semi-conducteurs
M.-@@
instantan@@
hémo@@
Accél@@
Bol
Princess
Instructions
écan@@
moi@@
Termes
monture
élévateur
310@@
djan
41.@@
pick@@
Camera
OFF
Ampli@@
notarial
cil
èce
Sais@@
Kawasaki
TIN
aven
pro.com
ogen@@
Parcours
symétrique
Eas@@
oting
Kenwood
Comuna
3.4
Etienne
ISA
porche
renfort
Webshop
anny
Stér@@
Nikol@@
JEC@@
3.com
Graines
vitre
Wyn@@
express@@
BIO@@
Flex@@
wig
WIN@@
volants
ward@@
Tum@@
décisionn@@
dun
haché
filament
asper@@
3x@@
ogging
jupes
director@@
Eurostat
nap@@
RECHERCHE
ZTE
kol@@
contenants
PERSON@@
Stade
No.
Chant@@
sénatorial
Tanks
manganèse
cyclable
ennem@@
prédéterminée
Signaler
light@@
power@@
Notre-Dam@@
LP@@
Xerox
choir
Lauren
selle
hée
concom@@
niture
iston
EH@@
MTS
mond@@
Transmission
Etudes
harnais
amandes
lubrification
IMP@@
Procédure
clou
Fay@@
Garmin
Email
embel@@
187
Paraguay
Escal@@
ACDI
Étudi@@
[...]
