#version: 0.2
t h
i n
a n
th e</w>
t i
e r
r e
e n
o n
a r
o n</w>
o f</w>
o r
t e
r o
in g</w>
i n</w>
an d</w>
a l
i t
e s</w>
t o</w>
e r</w>
o r</w>
o u
i c
a c
ti on</w>
s t
e d</w>
a l</w>
a t
o m
i s</w>
e s
i l
e c
o s
a s
e l
o l
i s
u r
a p
a n</w>
a m
a tion</w>
l e</w>
i g
a t</w>
t s</w>
T h
en t</w>
f or</w>
a s</w>
q u
t r
p ro
a b
d i
u s
e n</w>
o t
a g
c h
ti on
a te
l o
i d
v e</w>
c on
it h</w>
l e
l y</w>
a d
u n
u l
w ith</w>
re s
t er
c om
u c
i m
Th e</w>
e m
i r
a r</w>
ap os
apos ;</w>
& apos;</w>
o p
r i
w h
p l
d e
it y</w>
s i
c e</w>
a y</w>
n e
b y</w>
e x
ro m</w>
f or
th at</w>
ar e</w>
f rom</w>
er s</w>
o w
ou n
e t
ig h
at e</w>
qu ot
quot ;</w>
& quot;</w>
v er
f f
te r</w>
te d</w>
tion s</w>
u m
s h
l i
b e</w>
i t</w>
o o
e t</w>
p or
p er
r a
o u</w>
c l
o d
ur e</w>
p ar
th er</w>
s u
2 0
t a
i c</w>
n o
u t
o c
m ent</w>
h a
e d
& #
ate d</w>
ab le</w>
com p
ic e</w>
ag e</w>
in e</w>
on e</w>
C h
es s</w>
1 2
y ou</w>
c o
d uc
s p
s e
ou r</w>
e l</w>
i es</w>
m e
st r
ou t</w>
re c
al l</w>
I n
c an</w>
ti c
m a
v i
er e</w>
in g
d ing</w>
en ts</w>
am p
b e
ar y</w>
w or
S t
d s</w>
m an
r an
w e
12 4
124 ;</w>
&# 124;</w>
a y
s o</w>
igh t</w>
v er</w>
b u
es t</w>
g t
c h</w>
en t
g e</w>
s te
a ti
ic h</w>
p res
p h
p r
a i
for m
re n
a d</w>
a v
o te
il l</w>
th is</w>
th e
k e</w>
o g
ou r
an t</w>
S h
or e</w>
i z
wh ich</w>
gt ;</w>
& gt;</w>
i p
u d
a tions</w>
p os
ac c
p re
m o
i a</w>
f ac
e ar
t h</w>
id e</w>
i al</w>
w as</w>
k ing</w>
l s</w>
i f
d is
ti m
al ly</w>
c re
b er</w>
ti es</w>
as e</w>
tion al</w>
u m</w>
s t</w>
u s</w>
re d</w>
e v
w ill</w>
I n</w>
es s
e w</w>
s y
no t</w>
e p
l d</w>
s er
u g
t ing</w>
re e</w>
l is
com m
an ce</w>
om e</w>
f in
s e</w>
us e</w>
d er</w>
A l
ha ve</w>
h as</w>
con t
20 1
en ce</w>
P ro
A n
or y</w>
por t</w>
re s</w>
0 0</w>
t o
it s</w>
al so</w>
m in
o w</w>
tr an
u e</w>
h e
pro v
i on</w>
as t</w>
it e</w>
ic al</w>
an d
in ter
p e
t y</w>
i d</w>
ac h
lo c
E n
R e
am e</w>
m s</w>
f l
ti ve</w>
o b
a in
u b
si on</w>
b o
pro duc
v el
d es
o ther</w>
u p
or s</w>
ou s</w>
ar d</w>
i r</w>
lo w
al s</w>
v en
C on
s ec
i st
tran s
C om
ac k</w>
l in
as s
en c
u p</w>
k s</w>
ate s</w>
ate r</w>
ec t</w>
ab out</w>
a f
U n
ti c</w>
y our</w>
oo d</w>
il e</w>
il l
d ic
m ore</w>
ac e</w>
os t</w>
c i
at ing</w>
b le</w>
al e</w>
E N</w>
uc h</w>
g r
e a
t u
F or</w>
an g
S p
o m</w>
ig n
amp ;</w>
& amp;</w>
H ote
on g</w>
al l
es e</w>
o ff
W h
e st
en d
c ol
ac h</w>
g ro
ow n</w>
en er
P r
el l</w>
c oun
al ity</w>
form ation</w>
in cl
ou ld</w>
re g
w i
an y</w>
an c
us ed</w>
f i
C ol
on s</w>
a in</w>
i tion</w>
os e</w>
t w
s ol
em ent</w>
ta in
m ay</w>
ser v
a tional</w>
m ar
re l
En g
f er
P ar
d e</w>
1 0
ic es</w>
t ure</w>
c ar
k e
sp ec
ar i
at er
en ti
b r
y p
p ol
th ro
tim e</w>
t or</w>
th er
oun d</w>
A c
. .</w>
ing s</w>
f ir
f r
m on
sy ste
A r
ig h</w>
ac k
u al</w>
f u
i v
u st
pro c
P h
a il
D e
P l
s uch</w>
an t
wi th
. ..</w>
Th is</w>
el ec
d o
B l
a re
ad e</w>
us t</w>
ne w</w>
o d</w>
I t</w>
su p
lo w</w>
s ur
Eng lis
n ec
o f
1 0</w>
w e</w>
igh ts</w>
su b
b et
te c
te m
i l</w>
t ur
g u
N ew</w>
e w
t en
ol og
l a
te s</w>
Un i
the ir</w>
el l
a m</w>
ver y</w>
in d
o v
0 0
M ar
ut e</w>
a u
l ine</w>
ate g
m ents</w>
r is
or t
E x
c en
c or
L E
ow n
no w</w>
d r
ic ation</w>
ul ar</w>
1 9
ay s</w>
a k
p o
wor k</w>
c ri
tion ary</w>
U S
l ation</w>
in formation</w>
i p</w>
di rec
20 0
ar m
C o
ri v
ven tion</w>
re qu
ac t</w>
&# 9
at ure</w>
fir st</w>
di ff
il ity</w>
a ir
an s</w>
str uc
ow er</w>
bu t</w>
o s</w>
un d
por t
syste m</w>
op er
I N
oo l</w>
ar d
A N
in t</w>
tw o</w>
is h</w>
A d
w ater</w>
H O
l ec
in a</w>
g o
v al
i an</w>
ou s
e ff
e ar</w>
h ote
m ost</w>
en s
om en</w>
b as
n ational</w>
Q u
for m</w>
t on</w>
at a</w>
ai r</w>
amp le</w>
an n
v is
de vel
con s
ig n</w>
res p
g et</w>
we en</w>
l es</w>
i ties</w>
th an</w>
t re
w ay</w>
l l
prov id
w ere</w>
D i
ti v
in to</w>
as h
n on
im p
be en</w>
d ay</w>
coun tr
u t</w>
an ti
incl ud
T o
f e
C ar
as s</w>
p er</w>
cont ro
g re
en d</w>
bet ween</w>
2 0</w>
an ts</w>
el s</w>
m er
u res</w>
de v
fu l</w>
ag es</w>
T o</w>
pr ice</w>
thro ug
C l
d ec
b l
f ol
H e
i b
e qu
ter s</w>
man y</w>
m e</w>
F l
h el
Y ou</w>
c er
ati ve</w>
C oun
devel op
Hote l</w>
or g
O R
y s
a st
me th
m od
ear s</w>
t ro
u ro
f ree</w>
In ter
e ach</w>
diff er
er e
5 0</w>
c ur
t e</w>
c ap
f il
acc or
s ti
at or</w>
Englis h</w>
d o</w>
on d</w>
d ur
j ec
o t</w>
G u
H ome</w>
d ro
em ber</w>
l and</w>
m is
B r
S e
co m</w>
ai d</w>
v e
ol d</w>
om e
l ess</w>
ch ar
s k
in vention</w>
si ble</w>
on ly</w>
1 .
t al
res s</w>
an ge</w>
ap pl
iz ed</w>
tic al</w>
par tic
em b
d ata</w>
ou se</w>
res ul
is t</w>
u tion</w>
us ing</w>
b est</w>
k m</w>
t yp
. com</w>
ateg ory</w>
M an
c ul
wh en</w>
throug h</w>
e -
ta in</w>
M a
m il
v ing</w>
li c</w>
ren t
T ran
Uni ted</w>
g ener
per i
p en
f un
il d
h igh</w>
k et</w>
i ve</w>
m an</w>
O n
m ater
R E
r e</w>
D es
on al</w>
c r
ch n
y ears</w>
b ec
the y</w>
T E
ot h</w>
st s</w>
A L
di st
o ver</w>
od y</w>
ter m</w>
wh o</w>
k n
s ign
om s</w>
op le</w>
lo ad</w>
fin d</w>
vi ew</w>
l l</w>
y ms</w>
n um
th ere</w>
ir e</w>
te chn
Hote ls</w>
n ing</w>
m i
on g
ex ample</w>
m m</w>
v el</w>
A p
pres s
par t
h y
tr a
en g
pres ent</w>
il y</w>
ad di
ou t
i f</w>
fac e</w>
on d
c ar</w>
w ell</w>
con di
arm ac
l ar
b i
Tran s
for e</w>
S er
ent al</w>
ro s
v ari
S y
ec h
T ra
con nec
accor ding</w>
ap p
p tion</w>
enc y</w>
e g
E uro
W i
A R
qu ality</w>
at ter
u str
th ese</w>
W e</w>
in cre
ro om</w>
dev ice</w>
is h
li ke</w>
B o
c a
u fac
tem per
s ch
with in</w>
ver s
R es
con tain
B u
h is</w>
b ro
ap pro
differ ent</w>
e as
id e
g l
pe ople</w>
h igh
st a
comm od
3 0</w>
v ol
s ide</w>
por ts</w>
ic a</w>
ren t</w>
C O
x im
M on
G re
y ing</w>
M in
f o
th ing</w>
en s</w>
1 2</w>
h ol
org an
s ome</w>
s el
bo di
wh ere</w>
v ir
olog y</w>
e y</w>
n o</w>
contro l</w>
D is
Pro duc
oo k</w>
L a
af ter</w>
proc ess</w>
s w
s aid</w>
o ver
cen tr
s oc
C ar</w>
m ade</w>
G er
0 .
ach ine</w>
in ce</w>
j ect</w>
st ar
me di
are a</w>
h e</w>
s et</w>
it al</w>
y l
I C
ac tion</w>
f ul
im il
ad d
spec if
r ap
ic k</w>
f ur
W or
2 .
r y</w>
sh ould</w>
a ut
re n</w>
o p</w>
oun t</w>
am es</w>
ab ility</w>
et y</w>
us in
fol low
A T
in k</w>
t le</w>
S u
c el
at ur
ic i
i ed</w>
er ed</w>
ot e</w>
p s</w>
I f</w>
j o
I tal
th en</w>
b el
c ity</w>
T R
ne ar</w>
own load</w>
comp le
b ody</w>
un d</w>
b er
l ight</w>
commod ation</w>
W ith</w>
pos sible</w>
per s
O r
av ail
ub lic</w>
v es</w>
m en
b ed</w>
od ay</w>
ou g
s m
P P
m er</w>
do or</w>
F ree</w>
in al</w>
b in
de l</w>
num ber</w>
ne ar
is e</w>
par t</w>
ati c</w>
a ve</w>
W omen</w>
hote ls</w>
or der</w>
z e</w>
with out</w>
ro ute</w>
temper ature</w>
H igh</w>
imil ar</w>
comm un
dic tionary</w>
er y</w>
US A</w>
Al l</w>
D E
in s</w>
f t</w>
h um
produc ts</w>
trans lation</w>
F ran
pl ac
or d
dur ing</w>
T r
fun c
or t</w>
to o</w>
C en
sta ur
B a
re duc
O ff
Com p
St ates</w>
ild ren</w>
A S
ha d</w>
or ies</w>
b a
u ding</w>
in c
al th</w>
s ame</w>
g ood</w>
Pr ice</w>
ch ange</w>
E R
e ver</w>
y ear</w>
elec tr
ke ts</w>
loc ated</w>
des cri
serv ice</w>
3 ;</w>
&#9 3;</w>
iz ation</w>
1 ;</w>
&#9 1;</w>
d el
c y
pro tec
ic o</w>
sec ond</w>
pol y
o l</w>
c ase</w>
U N
V i
resp on
Bl ack</w>
M o
m y</w>
near by</w>
1 00</w>
n er</w>
ay er</w>
pro per
ow s</w>
non yms</w>
usin ess</w>
el y</w>
I m
Coun ty</w>
a x
5 0
pl ay</w>
C al
e f
ur ity</w>
incl uding</w>
- term</w>
P ol
ea ther</w>
ti s
S up
pl ace</w>
u r</w>
ne t</w>
im port
b le
x t</w>
ul ti
li f
te n</w>
ic s</w>
ew s</w>
ab ly</w>
er n</w>
re ad
r u
E R</w>
qu e</w>
an ds</w>
avail able</w>
w ould</w>
me as
m et
1 5</w>
S te
ur y</w>
ul ation</w>
develop ment</w>
ere in</w>
le t</w>
se e</w>
bas ed</w>
a z
t ors</w>
n ame</w>
our s</w>
us e
ea p</w>
countr y</w>
f am
A ir
lin s</w>
pre fer
O ther</w>
ma p</w>
ma ke</w>
B e
c al
p ing</w>
S an</w>
ad v
gr am
serv ices</w>
pre dic
e ed</w>
S w
L e
on om
D ic
acc ess</w>
iz e</w>
R o
ic ations</w>
Col lins</w>
man ufac
le g
at ch
Ch ina</w>
u di
N or
it ch
S ec
el d</w>
A C
B i
T H
d ra
f ile</w>
m it
c le
I O
un der</w>
ma in
1 6
mater ial</w>
ne ed</w>
em bodi
wor ld</w>
A s
p lo
fl u
oc k</w>
A mer
tr ac
Dic tionary</w>
produc t</w>
in d</w>
i m</w>
s ale</w>
m un
er ing</w>
p a
tr av
j ust</w>
P er
ol s</w>
tre at
B est</w>
M e
p ur
g y</w>
mis sion</w>
tic s</w>
tr ip</w>
1 8
L I
t able</w>
D ec
comp ris
off ers</w>
vel y</w>
i ons</w>
C ity</w>
E lec
the m</w>
c es</w>
ther e
p ec
c op
pos ition</w>
ex c
ou th</w>
C as
o x
eff ec
typ e</w>
LE D</w>
O p
enti al</w>
i ti
sup port</w>
od e</w>
T V</w>
le ast</w>
b re
B y</w>
ic an</w>
k now</w>
en ing</w>
comp os
g ra
c le</w>
rent al</w>
k ed</w>
s ite</w>
th ree</w>
s cre
ai m</w>
ar t
ac ti
des ign</w>
in st
at h</w>
D I
y -
ap er</w>
R O
201 8</w>
st ud
at ures</w>
g o</w>
in es</w>
requ i
gro up</w>
und er
th ose</w>
S ale</w>
v ed</w>
d oc
P ort
rec e
at ch</w>
A P
in f
3 0
S HO
u tes</w>
am e
o ve</w>
as ed</w>
predic tion</w>
prov ide</w>
follow ing</w>
op s</w>
I s
h -
ag ement</w>
p le</w>
ort -term</w>
res id
l im
it u
b ur
P re
1 5
es si
an a</w>
B ar
t ly</w>
mi x
1 1</w>
ta ke</w>
meth od</w>
An d</w>
ter min
er a</w>
in v
i o</w>
on ic</w>
i str
en n
y s</w>
ph one</w>
H ol
a use</w>
i e
is m</w>
g en
ac commodation</w>
s elec
as si
y l</w>
le vel</w>
fin ition</w>
an al
ci ties</w>
an ish</w>
as es</w>
Sh ort-term</w>
3 .
a ther</w>
m ed
p ower</w>
at too</w>
id s</w>
an k</w>
addi tion</w>
Elec tr
M ic
countr ies</w>
ma in</w>
includ e</w>
ne t
be ing</w>
u x
to p</w>
tim es</w>
bu il
e ther</w>
b ut
wh ile</w>
cont in
lif e</w>
ate ly</w>
hel p</w>
in te
enc es</w>
res s
oper ation</w>
ar ds</w>
cl os
s al
sp eed</w>
riv ate</w>
h ouse</w>
wh at</w>
as tic</w>
lis h
tiv ity</w>
treat ment</w>
l a</w>
b oth</w>
des ign
ar t</w>
A s</w>
E N
st ate</w>
ear ch</w>
hote l</w>
import ant</w>
r ight</w>
ro oms</w>
d ays</w>
proc ess
t -
a w
p age</w>
4 0</w>
S ch
i um</w>
press ure</w>
F or
D o
p ri
w omen</w>
ed s</w>
V al
y le</w>
v id
h ow</w>
em ents</w>
ow ever</w>
Englis h-
h ere</w>
vir on
sh ip</w>
pro ble
ev en</w>
pl i
ch ildren</w>
19 9
c our
at t
resul ts</w>
p op
us si
S U
ec onom
ter n
atter y</w>
C an
oug h</w>
n ment</w>
2 5</w>
com e</w>
o il</w>
O n</w>
armac ies</w>
am p</w>
pl es</w>
bu s</w>
sm all</w>
se qu
n ess</w>
F r
ic ally</w>
sur face</w>
S T
ac ter
we e
C ategory</w>
Sp ain</w>
m ust</w>
t ory</w>
T attoo</w>
inter national</w>
M ex
c ategory</w>
ys is</w>
we ight</w>
p ut</w>
1 6</w>
d em
p i
1 4</w>
equ ip
l ab
U S</w>
F I
an e</w>
ar m</w>
con tr
Trans lation</w>
in dic
wh erein</w>
U s
il ities</w>
al low
g e
Air port</w>
d ri
val ue</w>
de p
h er</w>
ch ang
Sp anish</w>
sol ution</w>
us er</w>
om atic</w>
ust om
produc tion</w>
n or
d en</w>
2 4</w>
ain st</w>
e p</w>
k en</w>
is ion</w>
id ay</w>
ent ly</w>
f ig
fer ence</w>
on t</w>
c u
un i
L a</w>
go ver
me ans</w>
com bin
ro w
Th ere</w>
m achine</w>
hum an</w>
ar ound</w>
a im
ran ge</w>
201 7</w>
f ri
G r
C am
P o
w ays</w>
Euro pe
L ight</w>
H om
p ati
end ed</w>
ag ainst</w>
on line</w>
O ut
ous ly</w>
s imilar</w>
M en</w>
g er</w>
comp any</w>
g n
res t</w>
at s</w>
p an
S ol
kn own</w>
ac id</w>
c ess
h ic
1 4
um in
b ack</w>
f ound</w>
k er</w>
an other</w>
R ussi
comp on
lo o
Europe an</w>
ste p</w>
ec k</w>
fur ther</w>
lar ge</w>
lis t</w>
F i</w>
provid es</w>
Wh at</w>
ent ation</w>
non -
2 4
Bu y</w>
in ter</w>
Di rec
L oc
vi ews</w>
si ze</w>
C or
vi ties</w>
provid ed</w>
p e</w>
low er</w>
r ing</w>
m emb
Ser v
rap h
oc c
gro und</w>
D ownload</w>
G ener
R ec
c ould</w>
atur al</w>
m us
form ed</w>
ke y</w>
c ir
ust ri
H ow</w>
l ast</w>
loc ation</w>
b en
m ulti
c m</w>
in t
specif ic</w>
B ra
A ut
Wh ite</w>
ro ad</w>
cl aim</w>
i ted</w>
he alth</w>
Ph one</w>
S k
w ant</w>
ech an
a ff
includ es</w>
st and
bec ause</w>
ard en</w>
on es</w>
b usiness</w>
le ad
ha ving</w>
trav el</w>
1 8</w>
k es</w>
W e
se ver
ver age</w>
6 0</w>
o re
be fore</w>
di vid
A ir</w>
R I
sh own</w>
R em
au th
h ours</w>
D ev
e e</w>
en viron
er r
sti tu
struc ture</w>
s on</w>
re le
1 3
P e
appro xim
Uni vers
d er
P u
us ers</w>
ener gy</w>
tion ing</w>
col lec
Inter national</w>
Cen tr
part ment</w>
A f
1 7
T ri
th s</w>
hy dro
ra di
ter r
Fran ce</w>
I I</w>
G l
St ate</w>
plo y
ar ly</w>
loc k</w>
A m
0 00</w>
er c
N e
mar ket</w>
l ed</w>
J u
as h</w>
gro w
S il
or ig
ul t</w>
thro om</w>
as ter</w>
ul es</w>
b lo
lin es</w>
ex peri
p le
pro gram
e y
struc tion</w>
Ch eap</w>
tr ain</w>
s our
w al
in ation</w>
Qu ality</w>
cons id
un g</w>
s imp
bo ard</w>
min utes</w>
m ot
embodi ment</w>
anc es</w>
t oday</w>
us es</w>
b al
P al
Ch ar
f essi
C re
om an</w>
oc i
T ur
comp an
o -
A u
str ic
ig ital</w>
t or
f ood</w>
ill a</w>
s of
m ic
b ack
pres en
Mex ico</w>
po int</w>
g iv
o es</w>
all ed</w>
gt h</w>
Ital ian</w>
an g</w>
tu res</w>
descri bed</w>
ar ran
in o</w>
up s</w>
Sp ec
en ds</w>
1 3</w>
am ount</w>
id enti
cont act</w>
st ain
u es</w>
s c
on a</w>
g ing</w>
d on</w>
F e
reg ion</w>
O c
sy nonyms</w>
itch en</w>
ash ion</w>
ot al</w>
off er</w>
st re
s ing
s af
ag n
re co
m al</w>
ti f
s itu
W ater</w>
et ing</w>
ag o</w>
ab ove</w>
2 1</w>
h ib
I T
F i
nec ess
te e</w>
ph ot
S al
w id
ag s</w>
um mer</w>
col or</w>
ad a</w>
B el
re mo
i als</w>
li on</w>
b ility</w>
ri st
ac tive</w>
ch o
li qu
d ate</w>
re staur
f lo
par ts</w>
Wh en</w>
l it
si ve</w>
D r
jec ts</w>
h ome</w>
Produc ts</w>
cel ls</w>
ec tor</w>
u ary</w>
b oo
fu el</w>
G ro
F ren
or age</w>
m echan
dist ance</w>
s il
condi tions</w>
ed uc
si ons</w>
p ublic</w>
th ers</w>
To p</w>
lo b
h ist
tic le</w>
add ed</w>
wor ds</w>
J o
ap e</w>
ux ury</w>
ide o</w>
De finition</w>
fe atures</w>
soc ial</w>
at al
ad min
sec urity</w>
partic ular</w>
A B
tr y</w>
id es</w>
IN G</w>
gre at</w>
scre en</w>
un it</w>
s ince</w>
gra m</w>
ful l</w>
m at
s en
IO N</w>
c ost</w>
ve hic
c ustom
man ual</w>
rel ated</w>
In formation</w>
l ong</w>
i ous</w>
loc al</w>
h al
pl ay
r ights</w>
b or
Re g
tur al</w>
cre ate</w>
Ger many</w>
doc um
L O
ver sion</w>
cl es</w>
g ed</w>
m ember</w>
s ome
h er
cur rent</w>
ep age</w>
il s</w>
wh ite</w>
b ook</w>
fi eld</w>
is su
fi ed</w>
cen ter</w>
M ed
are as</w>
it able</w>
prefer ably</w>
s o
p aper</w>
ste el</w>
Hom epage</w>
est ab
L i
Bl ue</w>
net work</w>
ir t</w>
2 5
og raph
car ri
V er
g en</w>
S outh</w>
cons um
p ass
T -
e u
vari ous</w>
pro of</w>
imp le
cri ption</w>
b on</w>
fam ily</w>
F ac
an ing</w>
l ayer</w>
od s</w>
appl ication</w>
de f
de ta
il d</w>
te st</w>
H owever</w>
read y</w>
i al
A N</w>
pr ices</w>
M ot
h ear
u le</w>
Gener al</w>
p ly</w>
n am
H e</w>
ic k
US B</w>
ang u
proper ty</w>
4 .
rel ess</w>
p rivate</w>
t ar
e th
it ing</w>
F in
Fren ch</w>
p ool</w>
m en</w>
p ed</w>
c an
de termin
8 0
char acter
Par k</w>
i e</w>
olog ical</w>
do es</w>
ap art
rece iv
A M
c o</w>
e ase</w>
syste ms</w>
A L</w>
Wi Fi</w>
h t</w>
S am
p rec
R ep
de tec
oo m</w>
vi a</w>
compos ition</w>
On e</w>
S P
d ue</w>
A fr
A I
pos i
l ong
B re
incre ase</w>
l ing</w>
man agement</w>
a red</w>
techn ology</w>
tr ain
Con tro
f ast</w>
B each</w>
M od
de fin
acti vities</w>
S et</w>
P an
m ol
Y or
en e</w>
for man
pol ic
d om
T a
in e
sub st
w ide</w>
on -
ne l</w>
m ing</w>
f low</w>
if t</w>
n it
necess ary</w>
sever al</w>
sh ip
2 2</w>
at ors</w>
W ind
por tion</w>
N o
Th ese</w>
A D
tain ed</w>
in iti
p ow
um p</w>
b ar
y st
ai l</w>
v ent</w>
S E
or ation</w>
mo b
L eather</w>
im prov
il le</w>
E m
am ples</w>
ar ch
k ers</w>
s or
u re
ol ution</w>
con cer
um e</w>
im e</w>
f er</w>
ou ble</w>
direc tions</w>
c are</w>
wor king</w>
ne xt</w>
g as</w>
T oday</w>
sec tion</w>
w y
s ul
i ev
partic ip
inte gr
N ational</w>
S I
ic ial</w>
T w
b all</w>
s uc
sk in</w>
le y</w>
cl aim
r ate</w>
Con t
u b</w>
ou l
t a</w>
b ed
M ore</w>
8 0</w>
le ar
manufac tur
c ell</w>
u g</w>
t own</w>
em ploy
blo od</w>
a tion
ne w
tic ally</w>
if ic
O F</w>
am ong</w>
ac tivity</w>
est s</w>
le x
H ot</w>
b ra
g ame</w>
ch e
ag ing</w>
w ind
pro te
W al
ma j
h and
Sy ste
C T
Re staur
In d
o to</w>
Ph armacies</w>
u ter</w>
c ent</w>
n s</w>
ros s</w>
design ed</w>
be g
F il
V I
4 0
se par
f requ
protec tion</w>
spec ial</w>
H E
R ed</w>
re r</w>
B er
1 7</w>
sp ace</w>
C N
forman ce</w>
ol f</w>
m ental</w>
a k</w>
liqu id</w>
N o</w>
1 -
bo x</w>
ad j
m l</w>
pro ject</w>
Ste el</w>
ac ts</w>
equip ment</w>
Af ter</w>
L U
ec e</w>
6 0
ass oci
c ep
bro w
n atural</w>
Car s</w>
Yor k</w>
u red</w>
a di
A b
ustr y</w>
C r
O R</w>
m a</w>
ri d</w>
op ening</w>
G en
resul t</w>
co sts</w>
gro ups</w>
fl ights</w>
An dro
op en</w>
peri od</w>
A t
i ally</w>
Ch in
bl ack</w>
but ton</w>
he ad</w>
con centr
Vi ew</w>
S ain
M achine</w>
R el
re port</w>
un e</w>
func tion</w>
in ing</w>
P ower</w>
wor ks</w>
m uch</w>
co ver</w>
Col or</w>
Wor ld</w>
an ks</w>
P i
ex pl
N ov
s l
w ood</w>
On line</w>
e .
comm on</w>
Ac cor
coun t</w>
B U
p ack
ac ity</w>
te xt</w>
a th
d ownload</w>
d own</w>
S tr
ist ance</w>
st o
A t</w>
P C</w>
k a</w>
t otal</w>
r ic
Fl ights</w>
J ap
id ge</w>
cont ent</w>
e ts</w>
soc i
Andro id</w>
m ess
n ight</w>
ad s</w>
u ally</w>
por ted</w>
Euro pe</w>
we ar</w>
Op en</w>
201 9</w>
fessi onal</w>
oun ds</w>
a way</w>
comp ound</w>
eff ect</w>
im pro
Amer ican</w>
Port ug
mater ials</w>
f our</w>
ab les</w>
i te
lish ed</w>
ir d</w>
bet ter</w>
emb ly</w>
inter est</w>
s -
ap s</w>
re ad</w>
ol es
g ive</w>
di a</w>
Ital y</w>
mo del</w>
T yp
pr in
econom ic</w>
r o</w>
E l</w>
ul l</w>
no v
ne y</w>
M il
ex ten
5 00</w>
O ur</w>
form s</w>
sh ows</w>
it or</w>
pos ed</w>
M ad
h ous
atch es</w>
os p
at us</w>
ther ap
im age</w>
res our
eff ici
in divid
Ger man</w>
um n</w>
bel ow</w>
W eather</w>
mix ture</w>
comm it
M i
del i
stud y</w>
g le</w>
gener al</w>
istr ation</w>
s es</w>
lob al</w>
re action</w>
dra w
s le
adv ant
ci l</w>
ch em
gl ass</w>
ail y</w>
1 9</w>
M et
p ast</w>
k il
M al
C D</w>
direc tly</w>
memb ers</w>
Produc t</w>
Out door</w>
p ot
as k</w>
ond a</w>
tion ed</w>
of f</w>
n e</w>
compan ies</w>
mil lion</w>
sti ll</w>
c s</w>
e i
z z
a -
on y</w>
E S</w>
ac y</w>
n a</w>
con fig
d ed</w>
R om
fin anc
SU PP
sing le</w>
re comm
it ch</w>
connec ted</w>
D V
i or</w>
ou ch</w>
d om</w>
vi ous</w>
al th
sign ific
ant a</w>
ul a</w>
or ing</w>
A -
2 -
ul arly</w>
F ig
proble ms</w>
N ow</w>
cy cle</w>
G over
n ed</w>
al ways</w>
Inter net</w>
st ation</w>
20 0</w>
M us
dep end
ti ful</w>
h im</w>
gover nment</w>
gu ide</w>
us ion</w>
use um</w>
l en
M O
w all</w>
e ous</w>
G e
3 D</w>
m p
Des cription</w>
air port</w>
ar riv
e very</w>
ter ms</w>
t og
Com mission</w>
s ens
S cre
le vel
at ory</w>
udi es</w>
an im
rec or
w r
fr ont</w>
ul ts</w>
R oom</w>
c ent
b ab
auth or
ti g
allow s</w>
buil ding</w>
pr int</w>
, 000</w>
gr ap
Coun cil</w>
b site</w>
B ut</w>
m oun
Com mit
grow th</w>
ful ly</w>
experi ence</w>
al ready</w>
ag re
b ase</w>
a h
ustri al</w>
S C
t ow
b ar</w>
pl ate</w>
T O
Ac cess
a i</w>
contro ll
T ech
Chin ese</w>
m ag
us h
5 .
G al
sy n
l ands</w>
C y
F ashion</w>
DE AL
Nor th</w>
h or
Dev el
mil es</w>
proper ties</w>
he at</w>
h and</w>
st ing</w>
ed er
eas y</w>
lo t</w>
R ental</w>
co ol
i ble</w>
connec tion</w>
an o</w>
C ase</w>
el ement</w>
po in
pres s</w>
H ouse</w>
cl ose</w>
is ed</w>
uc le
N E
Sy nonyms</w>
dis ease</w>
met al</w>
H onda</w>
mon ths</w>
dist ri
St re
sh ow</w>
med ical</w>
B al
H um
e ve</w>
w ash
of ten</w>
Th ey</w>
pres sion</w>
selec ted</w>
S ur
st ren
sh e
er to</w>
c ard</w>
b attery</w>
f re
tem ber</w>
impro ve</w>
C our
a verage</w>
i red</w>
mob ile</w>
per formance</w>
sign al</w>
approxim ately</w>
aut omatic</w>
F ur
mo v
ben ef
Devel op
es ter</w>
c ou
cer tain</w>
l y
o thers</w>
st yle</w>
c alled</w>
tog ether</w>
Commit tee</w>
tur n</w>
er v
proc ed
pers on</w>
Off er</w>
n al</w>
a u</w>
Tra vel</w>
oun g</w>
sh e</w>
Des ign</w>
L uxury</w>
meth ods</w>
se a</w>
ph armac
P S</w>
vi ol
7 0</w>
H y
R i
ri c</w>
m as</w>
ol e</w>
AP K</w>
C H
el ements</w>
g ames</w>
B as
s et
contain s</w>
ris k</w>
ill ustr
st orage</w>
igh ting</w>
tw are</w>
mod els</w>
com par
ar ch</w>
Tech n
m ote</w>
z a</w>
F o
st ra
addi tional</w>
201 6</w>
i er</w>
Min i</w>
vehic le</w>
p ub
L o
S le
am a</w>
s ung</w>
su ff
W ater
er g
9 0</w>
H and
bur g</w>
w w
fac ilities</w>
C I
ser ies</w>
level s</w>
tro duc
su itable</w>
re as
vi ously</w>
compon ents</w>
under st
tu rer</w>
ti cles</w>
an ia</w>
S A
re f
V ol
S imilar</w>
high -
Ma p</w>
ver y
contain ing</w>
Russi an</w>
c anc
pro gram</w>
cul ation</w>
b ot
condi tioning</w>
go ing</w>
ate st</w>
contin u
per f
M P
ind ustry</w>
C ha
to ber</w>
lin k</w>
it ation</w>
if e</w>
con struction</w>
st er
in vol
we ather</w>
th ink</w>
H er
ne eds</w>
l angu
A n</w>
V e
ot ton</w>
D S</w>
flu id</w>
An al
ant on
m al
i onal</w>
ex per
Pro tec
I r
umin um</w>
ta ken</w>
Cen ter</w>
tr i
effec tive</w>
Pr int</w>
en jo
S O
c ess</w>
compris es</w>
A g
. e
sour ce</w>
an ding</w>
H D</w>
B us</w>
ic ip
L in
g .</w>
Access ories</w>
Accor ding</w>
en ter
us h</w>
P resid
dri ve</w>
v en</w>
li ving</w>
Contro l</w>
fil m</w>
L ist</w>
ie ve</w>
con duc
Amer ica</w>
ic on</w>
Pu erto</w>
p ic
st ore</w>
su g
con ven
S c
Syste m</w>
la w</w>
c ases</w>
Sam sung</w>
S pr
D el
3 2</w>
C E
T e
os s</w>
g an
di tional</w>
dev ices</w>
Univers ity</w>
maj or</w>
st ay</w>
C le
ex tr
l or
requi red</w>
anton yms</w>
M E
AN D</w>
2 8</w>
min im
y er</w>
H el
u tions</w>
mic ro
H ar
ur ing</w>
id ence</w>
ver ed</w>
ist s</w>
Electr ic</w>
Com mun
2 6</w>
ó n</w>
cour se</w>
im ate</w>
C ap
acc ep
e an</w>
k itchen</w>
N ations</w>
S ep
G ames</w>
Sec urity</w>
equ al</w>
s a
it ary</w>
ach ed</w>
direc t</w>
T em
Se e</w>
qu es
chang es</w>
ch es</w>
str ateg
ome ters</w>
se arch</w>
uc k
ens ure</w>
P C
lit tle</w>
es pec
stric t</w>
ff ic</w>
Par t</w>
Cam era</w>
dis play</w>
Typ e</w>
hel d</w>
re al</w>
ma xim
et c</w>
e. g.</w>
mus ic</w>
Co ver</w>
sel f</w>
oo ds</w>
in -
pli ers</w>
apart ment</w>
st ar</w>
ip e</w>
espec ially</w>
ver se</w>
pl ant</w>
s ave</w>
ul t
L ong</w>
ma king</w>
ar k</w>
10 0
ut ure</w>
ac u
3 -
d ge</w>
g ir
tiv es</w>
om b
un g
al ong</w>
mar t</w>
K ing
c amp
anal ysis</w>
ob tained</w>
fl ight</w>
in ary</w>
wee k</w>
S oc
ame ter</w>
S anta</w>
os ph
wor d</w>
g arden</w>
anc ed</w>
B attery</w>
H I
cap acity</w>
e k</w>
am s</w>
A T</w>
B ea
ol l
ag ent</w>
s ci
M un
ru n</w>
w el
f oc
con si
res earch</w>
P M
f -
commun ity</w>
ar ticle</w>
bl ue</w>
direc tion</w>
p ain
g es</w>
a p</w>
S pe
al ia</w>
ag ed</w>
frequ ency</w>
20 20</w>
pol i
2 3</w>
es ted</w>
in ner</w>
S of
L E</w>
di um</w>
re li
reco gn
situ ation</w>
ad ing</w>
M useum</w>
dur ation</w>
hear t</w>
l and
ish ing</w>
is ter</w>
E U</w>
m entation</w>
Bra z
financ ial</w>
S af
en h
udi o</w>
su per
Serv ices</w>
sup ply</w>
in stitu
5 -
acc ount</w>
ph ys
mo ve</w>
ec h</w>
develop ed</w>
be au
port un
o k
orig inal</w>
electr ic</w>
it er
Mot or
mon ey</w>
B usiness</w>
stand ard</w>
201 5</w>
ex p
educ ation</w>
Do ors</w>
typ es</w>
P ur
ud e</w>
ex press
meas ures</w>
Sep tember</w>
g et
Ch rist
str um
ch eap</w>
J une</w>
wind ow</w>
high er</w>
z er
Th ings</w>
ell ent</w>
kil ometers</w>
star t</w>
ak fast</w>
claim s</w>
mot or</w>
ac tions</w>
h u
Gu ide</w>
S ta
pr im
Bo x</w>
c li
si bility</w>
resour ces</w>
he ating</w>
Ba g</w>
D C</w>
c ode</w>
N A</w>
G ood</w>
K ore
re presen
C K
is on</w>
pati ents</w>
St ock</w>
an y
oun d
el low</w>
car s</w>
Th at</w>
ro t
di d</w>
d riv
S ports</w>
bu tion</w>
vis ion</w>
P R
T er
al low</w>
s er</w>
pos e</w>
environ ment</w>
ish ed</w>
ten tion</w>
f ew</w>
train ing</w>
in troduc
6 .
Portug u
J an
Par ts</w>
G oo
mo di
ad ap
bec ome</w>
ti l</w>
De als</w>
M ag
3 5</w>
giv en</w>
4 -
fi ve</w>
D e</w>
inf ec
ba throom</w>
Sh oes</w>
b and</w>
manufactur ers</w>
Wi reless</w>
ne ed
v ideo</w>
L ond
ill ing</w>
S ize</w>
mod ern</w>
He alth</w>
tern al</w>
fac t</w>
sel ect</w>
I S
te am</w>
B ack
use ful</w>
ser ver</w>
d ress</w>
I N</w>
star ting</w>
for ce</w>
m em
comp ounds</w>
l ations</w>
c lo
hol iday</w>
V ector</w>
simp ly</w>
pre par
de par
techn ical</w>
aut om
Or gan
n ucle
pl an</w>
E l
dr y</w>
h ar
f uture</w>
associ ated</w>
t age</w>
beau tiful</w>
Presid ent</w>
te l</w>
enc ies</w>
partic ularly</w>
em ale</w>
tu al</w>
ro r</w>
E s
i k
e very
S tain
medi ate</w>
back ground</w>
As s
resp ec
wy ers</w>
P ack
Gover nment</w>
w a
ow le
ig er
2 7</w>
fi x
FI G</w>
e ti
mon th</w>
j u
phot os</w>
G ir
Oc tober</w>
F ind</w>
P or
Afr ica</w>
Man ufac
reduc e</w>
G et</w>
H u
ob ile</w>
an nel</w>
plac ement</w>
ari an</w>
h om
wh e
vis it</w>
commun ication</w>
proble m</w>
Ph ot
fri ends</w>
U R
Stain less</w>
requi re
qu are</w>
li ve</w>
Gre en</w>
P O
SHO PP
mar kets</w>
Gre at</w>
Dec ember</w>
O f</w>
or i
fo re
vi l</w>
d es</w>
D et
inv est
fil es</w>
S a
s im
le ft</w>
g ar
S earch</w>
C lo
ti vely</w>
g est</w>
op portun
igh t
loc ations</w>
bu y</w>
D E</w>
Lond on</w>
re ference</w>
C amp
ef for
ch ild</w>
Mar ch</w>
le t
compris ing</w>
pres ence</w>
Portugu ese</w>
re p
z ed</w>
C ur
includ ed</w>
or al</w>
al k
com for
ati vely</w>
P U</w>
il ls</w>
re al
R A
lim ited</w>
ap pe
Nov ember</w>
av ing</w>
7 .
g ree</w>
d ance</w>
Bl u
Gro up</w>
ell ing</w>
L ar
m ig
th em
Ch eck</w>
elec tro
wh ether</w>
terr ace</w>
A partment</w>
ass es</w>
al u
pro file</w>
medi a</w>
T el
in ch</w>
d en
og ue</w>
ob serv
n er
Rep ublic</w>
B en
if ied</w>
plac ed</w>
TE R</w>
ei ther</w>
Off ice</w>
comple te</w>
th ird</w>
pati ent</w>
c ra
w ard</w>
Sh ops</w>
f y</w>
we bsite</w>
ro le</w>
reg ul
add ress</w>
Dis count</w>
V illa</w>
7 0
gr ad
ach iev
ro w</w>
b an</w>
o id</w>
jec tion</w>
oper ations</w>
ar s</w>
spec ial
3 1</w>
maxim um</w>
De al</w>
M ulti
as er</w>
acc ess
op h
l d
D igital</w>
ri l</w>
ba g</w>
G old</w>
n ia</w>
King dom</w>
polic y</w>
m g</w>
uc k</w>
op tion</w>
len gth</w>
y r
f a
re t
s mo
pop ular</w>
determin ed</w>
fer red</w>
par king</w>
U p
sof tware</w>
V E</w>
organ iz
appro pri
ill ed</w>
T or
de st
2 6
M ay</w>
consum ption</w>
M A
arriv al</w>
F rom</w>
flo or</w>
W ed
receiv ed</w>
comp uter</w>
c am
im ming</w>
fil ter</w>
F ol
T ex
g ran
c ed</w>
loo k</w>
g lobal</w>
et o
un til</w>
f av
ate ll
4 8</w>
w are</w>
S m
ess ential</w>
y a</w>
as ing</w>
S i
appl ied</w>
im mun
hist ory</w>
wor k
ack et</w>
y oung</w>
M r
cr im
appl ications</w>
Ro ad</w>
ac es</w>
ed ing</w>
ut y</w>
prefer red</w>
I D</w>
fin al</w>
pro jects</w>
Po int</w>
An g
incre ased</w>
2 8
f low
A ustr
j our
st a</w>
d am
4 5</w>
J ew
L amp</w>
B ab
embodi ments</w>
dis c
occ up
leg al</w>
combin ation</w>
ar ding</w>
os is</w>
d igital</w>
ex pec
respon se</w>
effec ts</w>
t ool</w>
S ci
collec tion</w>
c .</w>
W est
b ers</w>
s us
w oman</w>
there fore</w>
F ood</w>
v ille</w>
tis su
di t</w>
compon ent</w>
es sion</w>
Cont act</w>
ca use</w>
il i
es -
ograph y</w>
l ights</w>
ing -
C ard</w>
brow ser</w>
m ine</w>
e z
istr y</w>
stud ents</w>
Goo gle</w>
Anal ysis</w>
plac es</w>
U E
air s</w>
a qu
sec tor</w>
oles ale</w>
en -
atell ite</w>
CO N
E M</w>
ti t
B ur
eas es</w>
St yle</w>
cl ing</w>
S ummer</w>
ar a</w>
de ter
T re
trans fer</w>
val ve</w>
ic h
if ication</w>
Fig ure</w>
Br and</w>
pr ac
Ch ildren</w>
F lo
F am
G arden</w>
Ba throom</w>
sol id</w>
pl astic</w>
saf ety</w>
cor por
Ac commodation</w>
gre en</w>
process ing</w>
Wind ows</w>
c atal
diff ic
v ent
Centr al</w>
C er
O pen
M ater
th us</w>
cont acts</w>
mess age</w>
m ach
centr e</w>
T u
ar r
ph ase</w>
trans port</w>
val ues</w>
Ar t</w>
M oun
individ ual</w>
m b
carri ed</w>
Bi g</w>
l in</w>
d at
C able</w>
ot a</w>
il et</w>
Res ults</w>
restaur ants</w>
Develop ment</w>
B ud
Ap pl
process es</w>
go t</w>
U l
S ing
ex ist
L CD</w>
me eting</w>
h es
car bon</w>
centr al</w>
restaur ant</w>
Sil ver</w>
ti n</w>
al most</w>
sch ool</w>
comp eti
there of</w>
ar an
f ication</w>
ec u
p cs</w>
A R</w>
pop ulation</w>
inst all
T err
off ice</w>
Russi a</w>
Sch ool</w>
ti l
anal y
ch ec
bas ic</w>
ing ton</w>
Scre en</w>
gre ater</w>
u als</w>
Ju ly</w>
z one</w>
cor respon
rent als</w>
ch ain</w>
anti -
T I
ip s</w>
is tics</w>
h ot</w>
ati s
W atch</w>
L ab
canc er</w>
T ic
con ver
G ame</w>
clos ed</w>
M or
Water proof</w>
c ut
Or ig
ag er</w>
v ic
B ri
s ummer</w>
B E
A W
Serv ice</w>
com pl
anti ty</w>
h old</w>
be ach</w>
Pl us</w>
ber g</w>
D A</w>
Mad rid</w>
c able</w>
ant ly</w>
prote in</w>
eto oth</w>
resp ect</w>
atter n</w>
u ine</w>
D ay</w>
sh all</w>
Au th
i tec
fo rec
sequ ence</w>
n ature</w>
simp le</w>
poli tical</w>
201 4</w>
Sh ower</w>
wid ely</w>
cop e</w>
th re
d ouble</w>
AT ION</w>
mol ec
id a</w>
op tions</w>
ap est</w>
ad or</w>
sh op</w>
defin ed</w>
S M
pl at
lo ve</w>
is s
la un
W inter</w>
at trac
im ages</w>
ti z
s ports</w>
owle dge</w>
W all</w>
Pr o</w>
Jap an</w>
T S</w>
T H</w>
re fl
st ri
L u
s ay</w>
i k</w>
A C</w>
ati n</w>
DEAL S</w>
d own
c ros
D O
3 5
D ress</w>
poin ts</w>
d a</w>
ann ing</w>
Christ mas</w>
le ts</w>
de pen
Port able</w>
tran si
00 0
con f
c y</w>
w ater
appropri ate</w>
t on
P rivate</w>
Restaur ants</w>
ac ks</w>
V en
I L
Su per
d or
cre ated</w>
Loc ated</w>
Jo h
hal f</w>
res istance</w>
N ear
H air</w>
per form</w>
m ent
R adi
Hol iday</w>
cl ick</w>
c a</w>
br uary</w>
Met al</w>
tr o</w>
Pro v
id ed</w>
tu be</w>
cho ose</w>
A U
s ample</w>
p ay
R S</w>
n u
descri ption</w>
Par is</w>
th ough</w>
Un ion</w>
W ash
V ir
i -
cool ing</w>
re views</w>
or ity</w>
des ired</w>
docum ent</w>
b ran
si a</w>
t oc
R ou
vol ume</w>
G B</w>
LU CK
se as
aff ec
um s</w>
r a</w>
9 .
produc ed</w>
por ting</w>
b on
ann els</w>
depend ent</w>
an ese</w>
M obile</w>
ev alu
depar ture</w>
un c
ha m</w>
i on
or g</w>
Bar cel
F re
ha ir</w>
ar ing</w>
v al</w>
ph armacies</w>
rent ly</w>
sh ow
S el
Y DEALS</w>
sp a
F ull</w>
3 00</w>
manufac turer</w>
tion ally</w>
T O</w>
F u
d u
p ul
di tion</w>
LUCK YDEALS</w>
ti de</w>
av es</w>
TH E</w>
ne tic</w>
Can ada</w>
Near by</w>
Im age</w>
oc k
200 9</w>
int age</w>
a h</w>
ot ing</w>
ic ate</w>
am ic</w>
loo king</w>
G H
v o
icip ality</w>
ress es</w>
min ute</w>
S ub
dis eases</w>
sur ro
ur ation</w>
i tions</w>
f ab
A ug
Y our</w>
lead ing</w>
ch lor
am ent</w>
9 0
su stain
de finition</w>
B ul
S o
d i</w>
m it</w>
et c.</w>
me et</w>
selec tion</w>
sh ort</w>
E qu
ay a</w>
v it
ach es</w>
require ments</w>
assi c</w>
Man ual</w>
yst al</w>
ad o</w>
organ ic</w>
un its</w>
as p
St ation</w>
S -
ma kes</w>
Tw o</w>
P L
lo g
char ge</w>
en z
Hum an</w>
exc ellent</w>
forec ast</w>
ac tiv
T able</w>
Ph il
N et
for d</w>
al ing</w>
N ew
adj ust
Cal culation</w>
vari ety</w>
t our
Blu etooth</w>
ob ject</w>
W est</w>
tr ade</w>
pa red</w>
yl ene</w>
res olution</w>
Gl ass</w>
B O
al tern
accor dance</w>
am in
nor mal</w>
eas ily</w>
id ent</w>
gu est</w>
fr ame</w>
Mus ic</w>
i Phone</w>
sol utions</w>
b it</w>
PM Y</w>
t op
SHO PMY</w>
Al so</w>
pro fessional</w>
nit ure</w>
func tions</w>
S our
id d
Man agement</w>
mem ory</w>
ust om</w>
signific ant</w>
U K</w>
ic ity</w>
n ers</w>
ta king</w>
ur ch</w>
Ap ril</w>
str ong</w>
en ed</w>
on t
imple mentation</w>
L Y</w>
He ad
comple x</w>
U se</w>
Jan uary</w>
ak er</w>
v ant</w>
all paper</w>
pi ece</w>
g ent
admin ist
un ning</w>
OR E</w>
C -
te le
ro ll
DI RE
therap y</w>
re ach</w>
M os
St ud
pl ayer</w>
ch annel</w>
reduc ed</w>
te ly</w>
ang le</w>
Barcel ona</w>
it ors</w>
ab sor
k in
V is
cl imate</w>
h osp
b ir
in ning</w>
K it</w>
L ow</w>
imp act</w>
mo tion</w>
out side</w>
P E
id ing</w>
cl ass</w>
am ber</w>
arran ty</w>
M ember</w>
A S</w>
disc us
es h</w>
enjo y</w>
m or
recor d</w>
N ame</w>
Stre et</w>
cor rec
3 6</w>
P ow
f f</w>
pre vent</w>
cl us
er t</w>
med ic
DIRE CT
to ols</w>
wor ld
sub ject</w>
d -
he ad
ob viously</w>
ax y</w>
H ous
201 0</w>
ail s</w>
L os</w>
er -
out door</w>
A part
M ost</w>
par atus</w>
V ill
c all</w>
custom ers</w>
Cal i
201 3</w>
at -
ex t
iz ing</w>
chem ical</w>
ti ce</w>
s ing</w>
t ab
Sh ip
d ers</w>
ste ps</w>
wh ole</w>
com es</w>
20 00</w>
Cl ub</w>
c e
d re
pli er</w>
ut ch</w>
B oo
Mr .</w>
fr iger
sens or</w>
in nov
deta ils</w>
E ast</w>
ch all
2 9</w>
IN G
I P</w>
d y
s em
l ay
re view</w>
z ing</w>
fac tory</w>
B ro
d n</w>
tra ditional</w>
h ab
dr ug
g ress</w>
cir cu
G olf</w>
pre pared</w>
throug h
Col omb
gener ally</w>
Au to</w>
dr ug</w>
S mart</w>
inc ip
oper ating</w>
inter nal</w>
issu es</w>
form ing</w>
ing ly</w>
consid ered</w>
in strum
sh irt</w>
a rest</w>
Pr in
sh ape</w>
Par ty</w>
sp ea
ir ts</w>
par ty</w>
er ful</w>
ann ual</w>
phys ical</w>
er ation</w>
th ous
D aily</w>
S L
N ews</w>
con cep
I P
dat ab
estab lished</w>
ne ver</w>
cle ar</w>
L im
C i
h owever</w>
provid ing</w>
st ant</w>
F ir
l oss</w>
di men
201 2</w>
hous ing</w>
equip ped</w>
l er</w>
in ser
c os
re -
cul ture</w>
in fl
ti li
3 4</w>
mov ement</w>
ev ent</w>
Ch ange</w>
Cas ual</w>
b ul
I C</w>
poly mer</w>
techn i
gover n
trans mission</w>
olog ies</w>
st -
le -
deli very</w>
H or
di es</w>
ag ain</w>
m es</w>
li p</w>
8 .
tain s</w>
re pres
ac qu
b an
W HO
ur al</w>
sp ir
a vi
. org</w>
der iv
inter mediate</w>
represen ta
subst anti
f lex
to m</w>
tr a</w>
Sain t-
LI ER</w>
Pl astic</w>
ast e</w>
some thing</w>
ati ves</w>
bodi es</w>
C atal
uni que</w>
ten ance</w>
Ser ies</w>
ag ents</w>
N ex
Austr alia</w>
Us er</w>
fr u
S o</w>
admin istration</w>
Y ear</w>
P a
ass embly</w>
av y</w>
ex amples</w>
row n</w>
perf ect</w>
D M
Pro gram
Th e
co ff
op ping</w>
Pr ices</w>
T ren
SHO P</w>
S T</w>
Sle eve</w>
Aut omatic</w>
U r
ac ross</w>
in ten
Ch e
ad op
P op
7 5</w>
h o
SUPP LIER</w>
F eder
in s
multi ple</w>
pharmac eu
Med ical</w>
s port
CN SUPPLIER</w>
ic y
j a</w>
ap paratus</w>
en a</w>
O b
pers onal</w>
contin ue</w>
S tra
Mo del</w>
C H</w>
bas is</w>
Bab y</w>
Rom an
bu d
Gen uine</w>
cap e</w>
op tim
b lock</w>
ub ber</w>
un a</w>
mit ted</w>
Re al</w>
V ideo</w>
Lar ge</w>
co operation</w>
0 1</w>
Th us</w>
G ar
et te</w>
An ti
S ha
P ublic</w>
Motor cycle</w>
W a
Orig inal</w>
S ome</w>
reg ional</w>
di ameter</w>
r up
soci ety</w>
form ula</w>
C .</w>
o ols</w>
d ens
ac king</w>
te x
a c</w>
B ar</w>
3 6
R ico</w>
B M
up on</w>
st age</w>
concentr ation</w>
th es
ther n</w>
i tes</w>
de al</w>
oc cur
p ump</w>
To ols</w>
Techn ology</w>
Centr e</w>
Sup port</w>
ob tain</w>
19 8
B ed
pan el</w>
Braz il</w>
Ship ping</w>
in side</w>
wee ks</w>
st ance</w>
n y</w>
approxim ate</w>
ph en
lo y</w>
WHO LE
Gal axy</w>
N O
9 5</w>
ci tiz
Bo ard</w>
il it
tow ards</w>
rec ent</w>
commit ment</w>
ov en</w>
organiz ations</w>
suff ici
through out</w>
G ran
ob jec
el ing</w>
co vered</w>
lis h</w>
acu um</w>
Fe bruary</w>
sto res</w>
E d
Con nec
comp ared</w>
tic kets</w>
oo den</w>
le ad</w>
st ations</w>
N i
A v
K itchen</w>
af f</w>
Rem ote</w>
for nia</w>
La ke</w>
a ug
mod e</w>
D -
kn owledge</w>
D ri
B et
h erein</w>
in hib
me an</w>
V E
m ight</w>
stren g
rece ive</w>
si x</w>
ap p</w>
out put</w>
es tig
au di
P en
pro p
eng ine</w>
m o</w>
In dia</w>
and a</w>
b loc
Spec ial</w>
T un
d ates</w>
ear ly</w>
ne arest</w>
B ased</w>
W he
B ook</w>
R os
oll ar</w>
c ular</w>
oug ht</w>
requ est</w>
c as
ch r
environ mental</w>
ren cy</w>
rele ase</w>
contr i
hist or
st udies</w>
P ort</w>
sch ed
ind ustrial</w>
al -
ex pression</w>
C a
com b
200 8</w>
HO TE
L t
S an
B ank</w>
st aff</w>
trans lations</w>
Fam ily</w>
X -
is ol
Im ages</w>
A G
cal cul
sti t
1 ,
K ids</w>
Cali fornia</w>
rele vant</w>
T OR
G od</w>
th es</w>
ad d</w>
s ed</w>
tra ffic</w>
el ry</w>
re turn</w>
l ig
tissu e</w>
ex change</w>
proced ure</w>
ur ban</w>
ac tu
D ouble</w>
se ts</w>
pl an
produc e</w>
ex ternal</w>
coff ee</w>
qu es</w>
O il</w>
sur g
i di
Ph oto</w>
ateg ories</w>
col l
s .com</w>
In n</w>
201 1</w>
R ob
rec ep
comp ati
C op
S ens
pot ential</w>
k g</w>
val u
or a</w>
Univers al</w>
per formed</w>
minim um</w>
l amp</w>
9 9</w>
P os
pr is
Rem ov
fi ber</w>
op in
anc y</w>
To ilet</w>
D om
P ain
D RI
k et
reg arding</w>
2 7
en se</w>
S itu
pl ants</w>
cl in
i a
C otton</w>
bed room</w>
M y</w>
f res
sel f-
J er
h ard
c ell
ta kes</w>
f it
Co sta</w>
inter net</w>
b s</w>
3 3</w>
H am
C ub
E ar
ra ti
ad em
r ation</w>
ship ping</w>
pr acti
m ed</w>
S D</w>
4 00</w>
correspon ding</w>
h our</w>
tem por
sal t</w>
Tri p
T E</w>
Is land</w>
co ating</w>
Ass embly</w>
E X</w>
w on</w>
it oring</w>
M aster</w>
P D
ec es</w>
of t</w>
wal k</w>
In te
Spr ing</w>
in flu
T ouch</w>
Col lec
ax is</w>
fac tors</w>
Mater ial</w>
mod ule</w>
st ab
is ions</w>
le ather</w>
ar ies</w>
C R
th ings</w>
Pro per
Aug ust</w>
st ock</w>
ch eck</w>
m el
S ter
ran e</w>
li p
4 2</w>
IC E
S un
G AN
sh ap
br and</w>
st op</w>
posi tive</w>
com ing</w>
ple ase</w>
distri bution</w>
datab ase</w>
1 1
Nex t</w>
v ector</w>
effor ts</w>
end ly</w>
pers on
Tic kets</w>
par ti
program me</w>
combin ed</w>
K ey
B ut
ch ro
n ames</w>
D en
ac et
si tes</w>
re ally</w>
sp ring</w>
character istics</w>
de gree</w>
r ates</w>
Con vention</w>
stain less</w>
4 5
bre akfast</w>
develop ing</w>
gu aran
Ar gent
Kore an</w>
í a</w>
Mun icipality</w>
bi o
arch itec
est ing</w>
Al uminum</w>
in ate</w>
t ings</w>
i eld</w>
effici ency</w>
ug ht</w>
Pack age</w>
sh are</w>
expec ted</w>
ar ti
is tic</w>
par k</w>
dec ision</w>
se en</w>
erc ial</w>
Ad d</w>
install ation</w>
ord ers</w>
r ules</w>
P V
refl ec
l ic
dr yer</w>
ox y
M ir
pur ch
As k</w>
exist ing</w>
ne igh
v ill
inter face</w>
pro pos
200 7</w>
S .</w>
se e
Cy cling</w>
on ce</w>
p ep
ro und</w>
ST ORE</w>
4 8
il ed</w>
St and
rel ation
e es</w>
og en
E r
st ate
idd le</w>
at tention</w>
organ ization</w>
M any</w>
bed rooms</w>
C AR
w ell
3 8</w>
cur rently</w>
W ell</w>
ad es</w>
cra ft</w>
He ating</w>
ap ter</w>
N ight</w>
electr onic</w>
pur pose</w>
E con
E duc
ch amber</w>
ox ide</w>
G O
Is ra
- up</w>
Sh irt</w>
Sh e</w>
C an</w>
G ol
u n</w>
b il
M is
Se a</w>
boo king</w>
am pl
per cent</w>
l ater</w>
ship s</w>
D o</w>
3 2
inf ra
B ot
ess es</w>
D iv
Ve ter
Ar ticle</w>
prov ince</w>
Mod ern</w>
pl ane</w>
H ere</w>
ev olution</w>
W el
B ody</w>
V ic
grap h</w>
vi ew
AB S</w>
contain ed</w>
Co .</w>
p u
Fr ont</w>
di al
Mic ros
inv estig
ell a</w>
ER S</w>
In di
pri or</w>
C off
in ed</w>
G o
contain er</w>
e tr
di agn
F OR</w>
Sm all</w>
saf e</w>
up per</w>
devel op</w>
author ities</w>
Th ere
ag en</w>
k i</w>
exc ep
g old</w>
H igh
Dis play</w>
to -
langu age</w>
sw imming</w>
co ord
deter mine</w>
comm ercial</w>
H al
ev ents</w>
con tain</w>
ide al</w>
w s</w>
pre vious</w>
il ing</w>
wor kers</w>
C ab
el a</w>
m L</w>
condi tion</w>
k ind</w>
S ou
I F
B ay</w>
app y</w>
Des ign
a tically</w>
ain s</w>
o g</w>
m et</w>
lo s</w>
v a</w>
c ore</w>
ol a</w>
mar k</w>
er o</w>
is co</w>
tis h</w>
w inter</w>
St udies</w>
Sup er</w>
con y</w>
Saf ety</w>
op e</w>
main tenance</w>
La wyers</w>
d ig
ame work</w>
200 5</w>
comple tely</w>
sci enti
i .e
f ar</w>
medi um</w>
V intage</w>
em erg
s um
ach ieve</w>
ph oto</w>
Loc ation</w>
O h</w>
E g
P RO
institu tions</w>
C A</w>
mil itary</w>
Econ om
oun ts</w>
HE AL
h on
y et</w>
meas ure
c at</w>
H on
Tur key</w>
C ode</w>
f it</w>
Pro fessional</w>
6 5</w>
M I
Electr on
ist ant</w>
N ote</w>
ch ed</w>
need ed</w>
l atest</w>
ke ep</w>
Wh olesale</w>
s ter</w>
t ook</w>
i.e .</w>
D oc
d aily</w>
diffic ult</w>
acc el
S we
on ia</w>
oul der</w>
ro c
om a</w>
circu it</w>
TE R
J e
d os
resul ting</w>
Pan el</w>
Ex ample</w>
ro utes</w>
ul ture</w>
Equ ip
Radi o</w>
suc cess
Commun ity</w>
tu red</w>
ti s</w>
Pol ish</w>
S ince</w>
he alth
col ors</w>
6 -
j ud
sh ower</w>
re mote</w>
3 8
cul tural</w>
HEAL TH</w>
T ab
struc tions</w>
b o</w>
B ir
icy cle</w>
- w
Fir st</w>
can not</w>
L e</w>
pa th
p ack</w>
d ated</w>
cou pl
cap ital</w>
prim ary</w>
200 6</w>
reduc tion</w>
er al</w>
ex hib
pl as
HOTE L
Restaur ant</w>
Ind ustrial</w>
s un
tre ated</w>
N atural</w>
ra m</w>
ine ering</w>
de x</w>
enti re</w>
M ov
e br
Phot os</w>
cent ury</w>
ul tural</w>
ann oun
bra ke</w>
ag u
func tional</w>
t i</w>
n es
S S</w>
me aning</w>
P E</w>
cle aning</w>
cam era</w>
men tioned</w>
t ub
Pre vious</w>
men u</w>
invest ment</w>
config uration</w>
r y
tar get</w>
ud i</w>
fl ic
Tra in</w>
sal es</w>
pos sibility</w>
mp t
mechan ism</w>
h en
world wide</w>
ww w
agre ement</w>
Coff ee</w>
pl ies</w>
al co
R ights</w>
estab lish
C z
econom y</w>
ong s</w>
con fir
Soc ial</w>
ach ing</w>
fac ilit
stre am</w>
S port</w>
Fl at</w>
play ed</w>
W il
oo king</w>
P at
C D
oo t</w>
UN I
D uring</w>
reg ions</w>
g oods</w>
ne g
appro ach</w>
O ver
we b</w>
W atches</w>
str ate</w>
w ise</w>
de ath</w>
5 5</w>
prepar ation</w>
Pol y
L as</w>
BU Y</w>
pow der</w>
T ool</w>
Qu antity</w>
man ner</w>
res erv
h am
ed ge</w>
Tra vel
TR UE
ad hes
gener ation</w>
wi reless</w>
pro mote</w>
5 00
OR GAN
R et
C A
TRUE HEALTH</w>
s ou
G ift</w>
Remov al</w>
zz le</w>
ecu tive</w>
IC S
Ad dress</w>
L atin</w>
o o</w>
r ig
L og
protec t</w>
ot ball</w>
remo ved</w>
ou ter</w>
she et</w>
h ire</w>
radi o</w>
sy ch
dor f</w>
pic ture</w>
er gy</w>
SUPP LY</w>
ame ters</w>
3 7</w>
B ed</w>
rap h</w>
se l</w>
vers ity</w>
grap h
Th er
ac ation</w>
D ata</w>
st one</w>
col d</w>
enn a</w>
mi um</w>
su it</w>
2 2
t un
bi g</w>
ass ess
er ous</w>
bo x
f al
se y</w>
ag ue</w>
meas ured</w>
the tic</w>
am ine</w>
fam ous</w>
ap k</w>
www .
T ro
K ar
co in</w>
H ung
met res</w>
O N
h und
docum ents</w>
E X
H ist
d one</w>
1 50</w>
am ino</w>
al ized</w>
practi ce</w>
buil t</w>
s .</w>
De partment</w>
l es
form er</w>
stit ute</w>
ir a</w>
dec re
T im
plat form</w>
D NA</w>
p ay</w>
jour ney</w>
ll ig
as y</w>
P ic
gir l</w>
qu ar
s ent</w>
an -
re a</w>
DIRECT SUPPLY</w>
bor n</w>
pe ace</w>
s ure</w>
Char ger</w>
lear ning</w>
amp s</w>
HOTEL .com</w>
A- HOTEL.com</w>
w ar</w>
re ferred</w>
pers ons</w>
d y</w>
sup pliers</w>
H ong</w>
There fore</w>
Auth or</w>
h ood</w>
it self</w>
observ ed</w>
F er
a ult</w>
l ess
b ank</w>
Sain t</w>
J os
c um
Manufac tur
us ually</w>
ORGAN ICS
ORGANICS SHOP</w>
fac es</w>
L eg
Sh ort</w>
en tr
IO N
sch ools</w>
dem on
in i</w>
Tem per
s end</w>
tain ing</w>
p ain</w>
4 4</w>
b acter
ad y</w>
p t</w>
ap top</w>
cy lin
es tim
vol tage</w>
K ong</w>
form at</w>
2. 0</w>
el im
b es</w>
c ut</w>
substanti ally</w>
N um
w ar
acc ur
T enn
ar ia</w>
h ard</w>
s ession</w>
ques tion</w>
wh ose</w>
D u
gr ade</w>
AW TOR
AWTOR EM</w>
compos itions</w>
is ation</w>
f ashion</w>
mechan ical</w>
p al
it a</w>
pre gn
Colomb ia</w>
ex tre
ap prov
ta tions</w>
H os
y n
F emale</w>
benef its</w>
te ll</w>
L iv
X L</w>
M P</w>
re di
C E</w>
y al</w>
AL E</w>
s a</w>
c are
P ad</w>
T ime</w>
he ight</w>
on na</w>
S n
P le
rel ative</w>
br ing</w>
fr ag
Cz ech</w>
Direc tory</w>
ou se
ec k
effici ent</w>
es tiv
od es</w>
kn ess</w>
H and</w>
anim al</w>
me ters</w>
D ual</w>
advant age</w>
incre asing</w>
B ol
opportun ity</w>
Sw itch</w>
f ail
lar gest</w>
assi stance</w>
Tex as</w>
Be fore</w>
Y C
de b
K E
Roman ian</w>
Fran c
off icial</w>
ome ter</w>
ep ing</w>
r ay</w>
M at
hous es</w>
G PS</w>
ag a</w>
M ac
Terr ace</w>
ti an</w>
ter ed</w>
separ ate</w>
ca used</w>
Wh ere</w>
bab y</w>
Ac tion</w>
P -
sle ep</w>
prin ting</w>
Ver sion</w>
pol ice</w>
K n
mpt oms</w>
12 0</w>
comfor table</w>
Cour t</w>
m ass</w>
pr incip
SA LE
a j
ir on</w>
is ms</w>
par ticles</w>
Bi ke</w>
stren gth</w>
catal y
fam il
lab or
con flic
N on-
langu ages</w>
sequ ences</w>
Bu il
us tice</w>
S im
n ect</w>
mon itoring</w>
200 4</w>
electr ical</w>
polic ies</w>
B ath</w>
issu e</w>
re tur
ress ed</w>
ver tis
s n
sh ire</w>
l ack</w>
M er
play ing</w>
T ags</w>
ari o</w>
Apart ments</w>
t t
p il
Micros oft</w>
en ough</w>
sc ale</w>
clos ure</w>
tif ication</w>
Us ed</w>
S E</w>
Comp are</w>
pen sion</w>
t um
s ound</w>
bec om
6 00</w>
invol ved</w>
Net work</w>
char ac
ac e
G i
presen ted</w>
ag g
Bud get</w>
Jap anese</w>
custom er</w>
s ex
s atellite</w>
Gu est</w>
l ighting</w>
import ance</w>
requ ire</w>
compris e</w>
W OR
respon sible</w>
m 2</w>
con text</w>
col umn</w>
new s</w>
200 3</w>
sol vent</w>
In f
ub le</w>
C ro
st on</w>
c ab
WHOLE SALE
anti body</w>
7 -
sw itch</w>
fe ature</w>
I M
Bri tish</w>
ur a</w>
requi res</w>
dam age</w>
wh y</w>
He ad</w>
al ization</w>
allow ed</w>
A h</w>
TH EX</w>
indic ated</w>
Sol ar</w>
TR AN
Equip ment</w>
s we
Lt d</w>
dis p
Fil ter</w>
main ly</w>
in duc
re ported</w>
m i</w>
suffici ent</w>
p at
in corpor
hy dr
improv ed</w>
w ire</w>
ph ones</w>
Fl or
La w</w>
am b
Ar ch
w atch</w>
Per s
aqu eous</w>
Ch i
Co in</w>
gu id
ac ids</w>
I s</w>
le x</w>
y m
row ave</w>
Z e
th in</w>
g in
Qu e
N u
Re ad</w>
L ou
sto red</w>
St orage</w>
M AS
ing en</w>
on ing</w>
rati o</w>
M M</w>
S uch</w>
M AR
l uxury</w>
Afr ican</w>
rep air</w>
h ost</w>
S quare</w>
B ags</w>
attrac tions</w>
al uminum</w>
2 9
D ro
h a</w>
pos t</w>
it o</w>
en ted</w>
underst and</w>
mag netic</w>
u tili
dem and</w>
sen si
L ov
et ro
character ized</w>
D em
6 2</w>
stand ards</w>
Ph armac
A no
ren ts</w>
4 6</w>
citiz ens</w>
B ack</w>
M ay
p attern</w>
par ties</w>
e f</w>
access ories</w>
M an</w>
integr ated</w>
controll ed</w>
in sul
Sup pliers</w>
anim als</w>
ph osph
Tre at
ac el
re main
li m</w>
Ge org
te s
f ic</w>
t om
in k
5 5
R ome</w>
g i
er ship</w>
ti re</w>
own s</w>
w allpaper</w>
A sia</w>
L L
p ite</w>
f ish</w>
F a
w ind</w>
spa rent</w>
Protec tion</w>
I II</w>
fab ric</w>
L ine</w>
p ipe</w>
cho ice</w>
driv ing</w>
S A</w>
provid ers</w>
termin al</w>
fur niture</w>
C ustom
do ors</w>
ote s</w>
st ates</w>
se g
arran g
ste ad</w>
s en</w>
O per
M erc
F ri
C u
sh ared</w>
m in</w>
Di strict</w>
wid th</w>
ing redi
L ights</w>
p d
Ch ris
s cen
to on</w>
en ter</w>
v o</w>
for ces</w>
ic one</w>
st ops</w>
conven i
R F
C C
pre -
toc ol</w>
recomm ended</w>
an sw
in jection</w>
tempor ary</w>
every thing</w>
S and
li k
remo ve</w>
men ted</w>
v ents</w>
Sp are</w>
ther mal</w>
proced ures</w>
high ly</w>
on to</w>
spec ies</w>
P ink</w>
A ma
Ju an</w>
whe el</w>
ea h</w>
Stand ard</w>
Ri ver</w>
R C</w>
in put</w>
pl ates</w>
l v
Fac tory</w>
c ris
v ers</w>
M AN
re pe
Bea uty</w>
inter ior</w>
it ory</w>
detec tion</w>
E ach</w>
s .
fr amework</w>
Hous es</w>
fore ign</w>
ul ated</w>
U p</w>
ib ute</w>
pub lished</w>
el ds</w>
re ports</w>
m ir
es tic</w>
employ ment</w>
R en
Al though</w>
if i</w>
d ose</w>
SHOPP ING
Min istry</w>
t ree</w>
in dependent</w>
To y
vehic les</w>
ob jects</w>
8 -
l -
pl us</w>
K E</w>
viol ence</w>
fav or
compar ison</w>
chall eng
coun ty</w>
av oid</w>
Ch ang
bot tom</w>
re ached</w>
st ability</w>
chec king</w>
sustain able</w>
um b
Re ar</w>
fres h</w>
c ast
so dium</w>
rel atively</w>
ar ticles</w>
SHOPPING BUY</w>
c otton</w>
K ing</w>
4 1</w>
bin ding</w>
ol ina</w>
i x</w>
Sh ow</w>
fri endly</w>
H i
12 V</w>
ex erc
m y
dra ul
F it
pack age</w>
p m</w>
in structions</w>
od ing</w>
op tical</w>
Jew elry</w>
fru it</w>
Spe ed</w>
est er
mo ther</w>
5 2</w>
fer ences</w>
app ear
sh af
all ery</w>
L en
Do or</w>
ex trac
W E
occup ies</w>
fix ed</w>
Sci ence</w>
orig in</w>
S en
par ameters</w>
t y
n ation
depen ding</w>
Ad min
pec ts</w>
in ery</w>
oc ket</w>
Cl ick</w>
e o</w>
We b</w>
Joh n</w>
lin ks</w>
id ity</w>
ex pan
at- screen</w>
st atus</w>
pd f</w>
ar ity</w>
oo d
Situ ated</w>
M c
inst alled</w>
cons ti
Bra ke</w>
z er</w>
mig ration</w>
leg is
S ex
pl ays</w>
DV D
th ic
Ano ther</w>
mo l</w>
a to</w>
BM W</w>
re ac
PR ICE
concep t</w>
S ony</w>
sof t</w>
Pl ace</w>
co w</w>
stre et</w>
is ing</w>
Sour c
SHOPP ING</w>
no ted</w>
tic ket</w>
Col or
ve get
fl at</w>
ag ric
qu al
strateg y</w>
M A</w>
Pro gram</w>
am en
alth ough</w>
s cape</w>
P ed
st able</w>
W ar
fol low</w>
Wh ile</w>
á n</w>
m om
th anks</w>
manufactur ing</w>
PRICE SHOPPING</w>
sm all
program s</w>
l aser</w>
Sw ed
St ar</w>
y e</w>
Comp on
ar ily</w>
cl ud
C L
dri ver</w>
iz er</w>
Con di
app ly</w>
Clo thing</w>
cut ting</w>
l t
M ess
ch annels</w>
ad er</w>
Ir on</w>
hel ps</w>
sk y</w>
apart ments</w>
t ren
well -
in king</w>
Gr and</w>
Sens or</w>
K ey</w>
g onna</w>
sour ces</w>
az a</w>
AD E</w>
M ount</w>
1 10</w>
Ad j
Ne ther
H an
e m</w>
u el</w>
W IT
T i
10 -
h ol</w>
z h
sy mptoms</w>
sp ac
j ew
appl ic
B ran
T ow
reg ard</w>
Ang el
cle an</w>
adv anced</w>
foc us</w>
av ig
R h
Y ellow</w>
I S</w>
ri a</w>
3 00
conven tional</w>
2 50</w>
y ellow</w>
jec ted</w>
ul ations</w>
bud get</w>
g el</w>
enc ed</w>
sol ar</w>
prac tic
En ergy</w>
sch em
YC HO
ma il</w>
fri end</w>
t ons</w>
pi eces</w>
lay ers</w>
to x
West ern</w>
An im
PP ERS</w>
br ary</w>
m agn
main tain</w>
H AND</w>
ater al</w>
et h</w>
ut ing</w>
HO N
PV C</w>
B -
pl ur
h ap
sti r
YCHO PPERS</w>
BU YCHOPPERS</w>
Val ue</w>
o red</w>
A rea</w>
2 20
bu ild
Sourc ing-
ch ing</w>
C ru
T A</w>
am ond</w>
techni ques</w>
fir e</w>
ant e</w>
Argent ina</w>
DRI VE</w>
English- Italian</w>
bu ff
it zer
V eg
t ouch</w>
Sec re
illustr ation</w>
Nether lands</w>
U L
nec k</w>
co -
3 9</w>
Aut umn</w>
sp o
Wed ding</w>
vit am
long er</w>
eng er</w>
cros s-
altern ative</w>
ide a</w>
200 1</w>
J acket</w>
Rel ated</w>
draw n</w>
H ear
relation ship</w>
St .</w>
M aps</w>
E -
As soci
7 5
draul ic</w>
c in
d il
B ou
mar t
s tic
reduc ing</w>
autom atically</w>
Toy ota</w>
- -</w>
m on</w>
sy m
asp ect</w>
Dev ice</w>
itzer land</w>
achiev ed</w>
advant ages</w>
un ch</w>
B or
s quare</w>
signific antly</w>
T C</w>
estiv al</w>
C ustom</w>
express ed</w>
ther more</w>
si b
D istance</w>
an i</w>
Ber lin</w>
D ra
id -
man uals</w>
differ ence</w>
infec tion</w>
Mic ro
bu ted</w>
Ex c
rel ates</w>
gl y
z ation</w>
b ach</w>
deta il</w>
recomm end
an ch
f our
10 .
giv es</w>
s ays</w>
in j
Ch urch</w>
Gir ls</w>
Pl ay</w>
Open s</w>
I T</w>
oc ol
C os
ac compan
as pects</w>
M S</w>
sec ond
el ess</w>
am ing</w>
c ement</w>
con trac
L ed</w>
H air
Sw itzerland</w>
Sh e
m osph
L ev
H un
e ously</w>
R u
techn ologies</w>
ra tive</w>
pr ise</w>
chang ed</w>
H oo
re stric
ou d</w>
cap able</w>
sh ops</w>
il a</w>
s tim
Ch ile</w>
appe ar</w>
al le
V -
w an
d ll</w>
C ir
1. 5</w>
M ain</w>
200 2</w>
r ac
ser ve</w>
te a</w>
initi al</w>
li es</w>
therap eu
dec or
Sol id</w>
famil ies</w>
consti tu
ib ility</w>
4 3</w>
ca uses</w>
ul ate</w>
bel ieve</w>
controll er</w>
Con ference</w>
pos es</w>
B ec
20 21</w>
B ang
Pl ayer</w>
B rown</w>
S C</w>
be h
f und
ound ation</w>
il ian</w>
t ol
G ra
fe el</w>
config ured</w>
Moun tain</w>
particip ation</w>
ac i
Ad v
gre es</w>
C OR
pro xim
ti le</w>
T- HAND</w>
ci ples</w>
Det ails</w>
ar ms</w>
pharmaceu tical</w>
f emale</w>
Cas a</w>
al ed</w>
ven ess</w>
ab e
hum an
temper atures</w>
7 2</w>
mil k</w>
p H</w>
A D</w>
G A</w>
el -
A udio</w>
W ood</w>
res in</w>
E le
situ ated</w>
inst all</w>
d on
be aut
Ac cess</w>
di e</w>
che apest</w>
pro gress</w>
gener ated</w>
om i</w>
In stitute</w>
as ks</w>
B an
Mon t
h em
6 4</w>
sh oes</w>
B it
p ath</w>
tr as
tr ic</w>
reli able</w>
m ut
S t</w>
en g</w>
ab ol
neg ative</w>
wh ere
s amples</w>
Dr .</w>
if y</w>
Ap ple</w>
MAS TER</w>
sur ance</w>
f all</w>
fessi on
ari ans</w>
is land</w>
multi -
ci vil</w>
S tic
D C
carri er</w>
A ra
R ent</w>
al and</w>
arran ged</w>
bal ance</w>
Aut om
off ering</w>
R ot
c on</w>
v in
Th en</w>
friger ator</w>
gen e</w>
M el
d able</w>
Adj ust
incre ases</w>
audi o</w>
l ace</w>
conf idence</w>
R ound</w>
w aste</w>
b anks</w>
man ent</w>
beaut y</w>
thes is</w>
L ighting</w>
smo king</w>
fac tor</w>
affec ted</w>
shap ed</w>
plur ality</w>
I ll
infl am
n i
b one</w>
K e
a ke</w>
Sing le</w>
b ing</w>
Pl ay
Di ff
res istant</w>
pl ans</w>
B L
t old</w>
con struc
sug ar</w>
air craft</w>
DVD STORE</w>
ist an</w>
sup ported</w>
Man ager</w>
accep table</w>
h i
s man</w>
G E
rec ently</w>
v acuum</w>
sil ver</w>
reco very</w>
rec i
camp a
sug g
st anding</w>
lt ;</w>
& lt;</w>
on ds</w>
de -
Hol der</w>
off ices</w>
struc tures</w>
t ank</w>
ar i</w>
d ou
on es
enz y
shaf t</w>
k -
d enti
k ra
id ents</w>
ser ious</w>
ti vities</w>
C O</w>
le ave</w>
pro posed</w>
sa w</w>
Cl assic</w>
exper im
T our
F ab
buil d</w>
end ant</w>
H o
identi fy</w>
sign als</w>
jo int</w>
commun ities</w>
ab ilities</w>
nam ic</w>
C are</w>
Wash ington</w>
Educ ation</w>
10 00</w>
Mo re
rec ord
ed om</w>
li er</w>
ep ik</w>
a we
go ti
hydro x
it ter</w>
con version</w>
low -
Tra ffic</w>
Organ ization</w>
k it</w>
beg inning</w>
Manufactur ers</w>
qu ick
Ad apter</w>
ac t
ti tle</w>
Appl ication</w>
respec tively</w>
r ich</w>
5 4</w>
Sp a</w>
lear n</w>
specif ically</w>
D I</w>
Flor ida</w>
introduc ed</w>
ge ts</w>
cre te</w>
iz es</w>
be an</w>
Num ber</w>
an s
Su ites</w>
emerg ency</w>
P enn
el ines</w>
L is
follow ed</w>
g er
e z</w>
typ ically</w>
C ast
DV D</w>
t our</w>
adop ted</w>
Sh op</w>
flex ible</w>
poly mer
in ated</w>
own er</w>
avail ability</w>
O ld</w>
Gre y</w>
mat ter</w>
me ter</w>
I A</w>
en ding</w>
O S</w>
F F
oo k
3 9
H osp
is ine</w>
ro ug
T own</w>
Wi -
reas on</w>
H z</w>
At l
D R
medi ately</w>
S S
dri ed</w>
port ation</w>
ta x</w>
reg ular</w>
cir cum
ha vi
b ri
6 8</w>
ver ing</w>
gir ls</w>
M B
c ame</w>
res sion</w>
e x</w>
Prov ince</w>
f ather</w>
E ff
ma ins</w>
r unning</w>
H P</w>
ul ator</w>
CN C</w>
Com mer
M ach
ite ms</w>
enc our
di strict</w>
re ar</w>
h ands</w>
a o</w>
Sec ret
opportun ities</w>
express es</w>
z es</w>
ev a</w>
rel ig
consi sts</w>
unc tion</w>
N ear</w>
hap pen
ox id
G lobal</w>
Tur k
P A</w>
u d</w>
i es
Electr onic</w>
ry lic</w>
Fl ash</w>
ann er</w>
ur s
vertis ing</w>
L an
reg ist
over all</w>
receiv ing</w>
Cr ystal</w>
Al l
measure ment</w>
d ining</w>
N ic
R ing</w>
ing er</w>
thic kness</w>
D A
en su
Des k</w>
Y es</w>
com .
sub strate</w>
Min ister</w>
D utch</w>
S atur
Par king</w>
b ath</w>
lik ely</w>
art z</w>
Ab out</w>
at tle</w>
v oting</w>
T X</w>
Eng land</w>
isol ated</w>
C ra
ip p
Mos cow</w>
v as</w>
S und
infra structure</w>
am i</w>
program mes</w>
S ign
2 ,
read ing</w>
M em
vir us</w>
sub sequ
jo b</w>
cre ation</w>
st y
8 5</w>
opin ions</w>
cris is</w>
g ift</w>
E C
if ier</w>
Wor d</w>
br idge</w>
Sex y</w>
p riv
ie f</w>
os a</w>
C el
Fur thermore</w>
di dn</w>
pre vention</w>
DEAL MASTER</w>
sign s</w>
ont al</w>
3 7
ke y
AC H
ac kets</w>
wal ls</w>
ell er</w>
beg an</w>
hosp it
oc y
il er</w>
Res ort</w>
M ari
Direc t</w>
gu ests</w>
sp read</w>
ain ed</w>
l ost</w>
p sych
X ia
at mosph
seas on</w>
sen se</w>
en ous</w>
m atch</w>
w ooden</w>
identi fied</w>
C up</w>
Car olina</w>
drug s</w>
mor ning</w>
net works</w>
Wi- Fi</w>
g s</w>
air -
y ond</w>
Wal king</w>
ag on</w>
ex clus
g a</w>
st and</w>
N ice</w>
l igh
appear ance</w>
there by</w>
o k</w>
pa rents</w>
mix ed</w>
ib er
sel ves</w>
con stant</w>
v illa</w>
high est</w>
Comp any</w>
att ached</w>
M ol
dens ity</w>
P age</w>
awe i</w>
ri es</w>
f ine</w>
an ol</w>
do ing</w>
R ol
mar k
pay ment</w>
W oman</w>
Temper ature</w>
rel ation</w>
lv ania</w>
Isra el</w>
Sc ot
H a
se arch
dom estic</w>
8 00</w>
or ts</w>
ri x</w>
r ating</w>
E p
re mains</w>
D on
w arranty</w>
memb rane</w>
Collec tion</w>
ne goti
e di
ten sion</w>
integr ation</w>
subst ances</w>
b our
b ags</w>
L and
enti ally</w>
ren ce</w>
ti fied</w>
claim ed</w>
M ale</w>
Sof t</w>
ra ther</w>
Ac tivities</w>
. la</w>
star ted</w>
ip es</w>
all ing</w>
alco hol</w>
ex pen
Is lands</w>
pl anning</w>
LE F
in for
Y eah</w>
P T
ob lig
s atis
it ten</w>
dis h
Lov epik</w>
moun ted</w>
r ings</w>
w ine</w>
D own
iv al
respec tive</w>
Bed room</w>
bab .la</w>
oxy gen</w>
d ark</w>
qu ite</w>
Sup plier</w>
sub stitu
for ward</w>
Mi x
cour t</w>
O N</w>
off ered</w>
v es
F -
l ate</w>
Pe ople</w>
bec ame</w>
re place</w>
W ire</w>
o v</w>
g a
if ts</w>
C ath
hol e</w>
Th ree</w>
ag encies</w>
radi ation</w>
t ation</w>
C lin
M E</w>
sy lvania</w>
L atest</w>
TRAN SL
C ities</w>
W r
im mediately</w>
en able</w>
Wh y</w>
HON DA</w>
benef it</w>
er ve</w>
Liv ing</w>
5 6</w>
anc ing</w>
v acation</w>
t ac
int ended</w>
D U
sp on
lim it</w>
Bre akfast</w>
flow ers</w>
M ur
Us a</w>
TRANSL ATION</w>
health y</w>
ag ency</w>
uck y</w>
Fil m</w>
1 20
r ubber</w>
be havi
surro und
cre ating</w>
Cl os
con nect</w>
Spec ial
de dic
S RS</w>
build ings</w>
U N</w>
L ace</w>
announ ced</w>
C LO
us s
beh ind</w>
N G</w>
chlor ide</w>
For m
U R</w>
tr act</w>
0 2</w>
WOR DS</w>
E E
deta iled</w>
quick ly</w>
D on</w>
compar ing</w>
sur ve
v acc
in arians</w>
To ys</w>
r ated</w>
sw itch
6 6</w>
meas ure</w>
ven ue</w>
del eg
sp e
v an
si on
C anc
f oun
us ted</w>
a x</w>
et e</w>
princip le</w>
favor ite</w>
T ai
sub cat</w>
ic king</w>
L -
S um
r al</w>
wash ing</w>
h tt
aff ect</w>
he im</w>
car ry</w>
ab led</w>
par ag
bel iev
ques tions</w>
a res</w>
se at</w>
cri tical</w>
grow ing</w>
Hu awei</w>
Sy n
C ari
sec re
Ze aland</w>
um p
an i
la wyers</w>
b it
or ial</w>
ta x
n ote</w>
cr iter
ta il</w>
t end
is s</w>
N -
B R
pack aging</w>
6 1</w>
i j
C ategories</w>
min i</w>
Penn sylvania</w>
ign ed</w>
ard ro
Tu es
set ting</w>
ear ch
bal cony</w>
M ass
cel ebr
sh o
coun ts</w>
d ol
rele ased</w>
w ing</w>
A qu
purch ase</w>
Dec oration</w>
ey e</w>
es sible</w>
cop y</w>
Ve hic
record ed</w>
adhes ive</w>
An ton
ge able</w>
cour ses</w>
D ollar</w>
M u
Vir gin
Ind ones
fe ed</w>
m aster</w>
el ev
D ub
U kra
continu ous</w>
st atis
o a</w>
Po st
enc ia</w>
Re views</w>
5 1</w>
mon itor</w>
E asy</w>
C ou
f ly</w>
pro mis
oc ra
y o</w>
Cre ative</w>
B lo
F ore
ad ed</w>
nor m
it ting</w>
challeng es</w>
Travel ers</w>
Ple ase</w>
is es</w>
bur g
suc cess</w>
Ro yal</w>
cop per</w>
Adjust able</w>
dom ain</w>
E L
camp ing</w>
L aser</w>
ur o</w>
prin ciples</w>
g olf</w>
Tren ds</w>
th day</w>
N eck</w>
Fi ber</w>
mess ages</w>
specif ied</w>
lin ked</w>
es el</w>
S l
use ums</w>
neigh bor
b us
W ar</w>
po st
Virgin ia</w>
bro ad
h os
in ks</w>
end a</w>
T otal</w>
Angel es</w>
ov o</w>
IC E</w>
4 7</w>
dis sol
Tr ade</w>
Pro ject</w>
S em
S H
Re placement</w>
ing u
ti veness</w>
Jer sey</w>
atch es-
car ds</w>
pres ident</w>
p ap
A ustri
L angu
Bec ause</w>
cle an
L uc
fi elds</w>
En viron
lo ves</w>
TR ADE</w>
VI C</w>
competi tion</w>
2. 5</w>
r i</w>
ti des</w>
hand le</w>
St and</w>
In ch</w>
D a
al a</w>
7 4</w>
se ven</w>
P as
V ER</w>
En ter
RF Q</w>
practic es</w>
Pop ular</w>
av a</w>
k top</w>
con j
lo d
contr ast</w>
li ament</w>
Eg yp
S TE
Cha in</w>
pro fession
conflic t</w>
N a
1 50
in stead</w>
clin ical</w>
qu anti
B I
In st
Kore a</w>
0 5</w>
NE W</w>
por tions</w>
Clo thes</w>
p ages</w>
s cri
R am
4 G</w>
f lower</w>
mach ines</w>
St udio</w>
d ang
L aptop</w>
transi t</w>
N O</w>
M y
y ed</w>
moun tain</w>
scienti fic</w>
t owns</w>
Ap p</w>
repres ents</w>
le aves</w>
w ed
sk ills</w>
b ad</w>
a er
M L</w>
Wed nes
ip per</w>
al one</w>
Tel e
P ack</w>
O k
th i
I R</w>
Gir l</w>
therapeu tic</w>
ph as
D resses</w>
Sta tis
P res
Mot or</w>
Mon itor</w>
M EN
sle eve</w>
3 3
Ex ecutive</w>
bra in</w>
correc t</w>
Qu ick</w>
d u</w>
M S
s pl
min d</w>
po or</w>
. dll</w>
umin ium</w>
s port</w>
connec tor</w>
Dri ve</w>
D ol
r ad
continu ed</w>
prote ins</w>
St ore</w>
el eg
inter ests</w>
PD F</w>
rel and</w>
cr yst
allow ing</w>
cr ystal</w>
H D
di et</w>
Un der
ver tical</w>
s ign</w>
l o</w>
- based</w>
th ought</w>
posi tions</w>
Per u</w>
tw o-
st ent</w>
H ard
cre dit</w>
F A
fig ure</w>
ent e</w>
demon str
Ch ic
Mon day</w>
wan ted</w>
sur vi
we ap
Fr iday</w>
pos it</w>
pro f
TH AT</w>
Ex amples</w>
p yr
lar ger</w>
S mo
hor iz
employ ed</w>
Sh oulder</w>
Direc tor</w>
cu isine</w>
N ot</w>
Sund ay</w>
For d</w>
administ ered</w>
D AN
4 9</w>
doc tor</w>
UNI TRADE</w>
B all</w>
wash ed</w>
consid er</w>
pro motion</w>
v s</w>
lo ading</w>
e uro
Bea u
show ing</w>
V o
tain ment</w>
ris e</w>
inf o</w>
ult i</w>
ri er</w>
ass ist</w>
modi fied</w>
s cope</w>
J ust</w>
un ding</w>
S atellite</w>
v ul
fi er</w>
em a</w>
second ary</w>
sk i</w>
e book</w>
H is</w>
thous ands</w>
W arranty</w>
dec ided</w>
Spec if
til ity</w>
f ast
cer tif
at ten
6 7</w>
anti bodies</w>
m ac
b order</w>
Al tern
re main</w>
pro per</w>
C ut
ug g
Car bon</w>
ro ll</w>
E L</w>
Contro ll
Ara b</w>
F R
id er</w>
C af
am ounts</w>
concer n</w>
es n</w>
deriv ed</w>
10 80
eth yl</w>
em e
bro ught</w>
in et</w>
Turk ish</w>
architec ture</w>
AI R</w>
M ast
em is
M T
s atur
D P</w>
te ach
pro b
contro ls</w>
fur n
Prin ting</w>
Pl at
h i</w>
sci ence</w>
molec ular</w>
exper ts</w>
occ ur</w>
ad equ
htt p</w>
li ver</w>
5 8</w>
d am</w>
ev idence</w>
Con ver
est ate</w>
al loy</w>
um es</w>
Q U
9 9
f at</w>
t ou
Comp uter</w>
ens es</w>
tr ue</w>
A udi</w>
3. 0</w>
Com ments</w>
Ven ez
li ves</w>
A z
mo ist
Br acel
u k
Xia omi</w>
Res earch</w>
su n</w>
representa tive</w>
Trip .com</w>
Ch amp
Fran k
F lower</w>
H C
5 3</w>
Mod ule</w>
arm ing</w>
pow erful</w>
un k</w>
Franc isco</w>
Fe atures</w>
WIT H</w>
pre viously</w>
ill er</w>
L ife</w>
becom es</w>
er ies</w>
S P</w>
et ings</w>
Gol den</w>
be yond</w>
ro gen</w>
improv ing</w>
indic ate</w>
objec tive</w>
M ig
ad ding</w>
Portug al</w>
fun ds</w>
Manufac turer</w>
sh opping</w>
A Z
sol id
eth ylene</w>
k y</w>
Pain ting</w>
wash er</w>
E mer
Sel ect</w>
Ro oms</w>
tr idge</w>
c ast</w>
O x
W O
N T</w>
in spec
CO UN
en ge</w>
G E</w>
Cari b
ext ended</w>
G RE
cl assi
tal k</w>
In v
ref ers</w>
v an</w>
Hung arian</w>
6 3</w>
jec tor</w>
accompan ied</w>
Hear t</w>
Hair dryer</w>
chr on
cli ent</w>
S ALE</w>
flo ors</w>
w arm</w>
S oci
12 .
influ ence</w>
dro p</w>
dest ination</w>
hund red</w>
Me th
pharmac y</w>
ocra tic</w>
fo am</w>
z y</w>
cataly st</w>
off ici
app reci
e ight</w>
Feder al</w>
t ask</w>
I l
no tes</w>
hydro gen</w>
A K
or ge</w>
Rou te</w>
long -term</w>
oc r
alle l</w>
em p
TR Y</w>
ite ly</w>
c up</w>
an der</w>
D ep
De ut
op ened</w>
dec oration</w>
Mar ket</w>
ap or
sup ports</w>
underst anding</w>
evalu ation</w>
f ight</w>
2 3
z en</w>
hen sive</w>
re verse</w>
equ ival
A M</w>
chang ing</w>
S V
mot or
comfor t</w>
l ens</w>
particip ants</w>
depen ds</w>
se x</w>
bu tes</w>
conduc ted</w>
R ose</w>
direc tor</w>
respon sibility</w>
T it
ver si
I deal</w>
de als</w>
di abe
F OR
instrum ent</w>
t ot
con ve
iv es</w>
produc ing</w>
acc o</w>
tr ition</w>
Coun try</w>
Carib bean</w>
qu i
po ver
air lines</w>
G -
oper ate</w>
recommend ations</w>
pur poses</w>
f if
F ishing</w>
n is</w>
state ment</w>
inter esting</w>
comp re
id den</w>
av i</w>
p ass</w>
hosp ital</w>
H ill</w>
B ay
low ing</w>
on e-
Pur ch
Mov ies</w>
f eder
ac ting</w>
giv ing</w>
do esn</w>
G S
m os
en try</w>
fre edom</w>
adv ance</w>
Val ley</w>
compati ble</w>
qu et</w>
surg ery</w>
ey es</w>
I reland</w>
10 00
Econom ic</w>
divid ed</w>
9 8</w>
f air</w>
In c</w>
cl assic</w>
iter ran
cl ub</w>
inst ance</w>
199 9</w>
M ade</w>
ress ing</w>
Wor k</w>
u x</w>
O range</w>
Ad vis
n al
so on</w>
m Ah</w>
w ent</w>
immun e</w>
7 50</w>
te sting</w>
Whe el</w>
y m</w>
dra ft</w>
pro mo
Qu es
pos ite</w>
sus pension</w>
D ark</w>
P attern</w>
V it
A lex
b a</w>
experi ences</w>
K o
as ked</w>
Fr ame</w>
disp ens
Pal ace</w>
CI VIC</w>
B os
m ers</w>
Merc ed
T am
P aper</w>
Electron ics</w>
U V</w>
Ar ab
I ts</w>
IN E</w>
h r
A V
he ated</w>
Tu be</w>
al i</w>
streng th
c av
hol ding</w>
l at
dis k</w>
no thing</w>
doc tors</w>
Ch annels</w>
no ise</w>
extr a</w>
am ination</w>
te ll
do g</w>
On -
res ol
ig enous</w>
R ac
Ser ver</w>
L A</w>
own ed</w>
some times</w>
at tem
S lo
oun ge</w>
Hel p</w>
et ting</w>
ma tic</w>
regist ered</w>
Fo otball</w>
Al arm</w>
innov ation</w>
sw oman</w>
ob s</w>
ch air</w>
subst ance</w>
sport sman</w>
Su n</w>
M ar</w>
prec eding</w>
CLO TH
as cular</w>
con ference</w>
w ond
expan sion</w>
in come</w>
w in
comp are</w>
Fur ther</w>
dedic ated</w>
ru le</w>
p on
sur faces</w>
0. 5</w>
reas ons</w>
i g</w>
acc essible</w>
sh ut
m ale</w>
ingredi ents</w>
Cl imate</w>
b ound</w>
Pal est
0 3</w>
at ers</w>
inter ested</w>
Cub a</w>
criter ia</w>
V an</w>
em s</w>
thous and</w>
og s</w>
vill age</w>
Pl aza</w>
wy er</w>
er as</w>
Fac ebook</w>
individ uals</w>
T al
pli ance</w>
1 10
Ex press</w>
comple ted</w>
car bon
su ite</w>
G as</w>
terr or
CAR S</w>
remo val</w>
manufac ture</w>
ha i</w>
contr ibute</w>
ak es</w>
s av
estab lish</w>
More over</w>
S ar
it ud
Ar e</w>
histor ical</w>
T our</w>
c ro
concentr ated</w>
sport swoman</w>
mo ving</w>
gen der</w>
tr ack</w>
num bers</w>
contr act</w>
wal king</w>
L y
E valu
M en
representa tives</w>
Statis tics</w>
I V</w>
illustr ated</w>
ak ers</w>
te sts</w>
om as</w>
P ump</w>
Cl aim</w>
Ch ro
P ul
Georg ia</w>
spec tive</w>
S anti
thro oms</w>
G mb
Camp ing</w>
pre p
P ot
sup plier</w>
facilit ate</w>
success ful</w>
avig ation</w>
sup porting</w>
M ens</w>
LEF T-HAND</w>
M -
4 7
part ners</w>
ex pos
in ian</w>
S lim</w>
an ium</w>
exerc ise</w>
ide as</w>
W ifi</w>
sec tions</w>
Sal v
yl on</w>
k ids</w>
b eds</w>
Ma x</w>
4 00
A gr
O h
B on
2 1
cre ative</w>
p es
tran sparent</w>
f an</w>
V ari
star s</w>
ograph ic</w>
sol uble</w>
bo l</w>
al g
A ff
air e</w>
rel ations</w>
occur s</w>
Med iterran
Bel g
land scape</w>
er n
zer o</w>
dis crim
R io</w>
9 -
sup pl
ple as
guid elines</w>
boo k
h ouse
re ve
prov isions</w>
Veter inary</w>
Re tro</w>
defin itely</w>
ti ll
ag ram</w>
Venez u
them selves</w>
Mar ia</w>
recogn ized</w>
up date</w>
T ag
nucle ar</w>
K r
st e</w>
R ap
it age</w>
Deut sch
sol e</w>
Associ ation</w>
m mol</w>
approv ed</w>
el ed</w>
wr itten</w>
ph y
m ic</w>
c ross</w>
bot tle</w>
M iddle</w>
au l</w>
rot ation</w>
organ ized</w>
pub l
bi ological</w>
em o
pover ty</w>
o ther
R F</w>
yl ing</w>
usin esses</w>
cre am</w>
j i</w>
instrum ents</w>
vi e</w>
Proper ties</w>
ke eping</w>
bre ak</w>
W IF
Wor king</w>
T ours</w>
al ers</w>
up dated</w>
Braz ilian</w>
exten sion</w>
M C
O ne
er ic</w>
lod ging</w>
sh el
f at
process or</w>
l os
lead ers</w>
vo ice</w>
o di
ve ter
em phas
m ation</w>
at able</w>
CLOTH ES</w>
ci um</w>
V A</w>
Bet ter</w>
mar ri
Pr inc
P ants</w>
fil tr
Ci vil</w>
trans mit
Gmb H</w>
w ards</w>
in dex</w>
Gre ek</w>
vis itors</w>
F A</w>
expen sive</w>
S K
accel eration</w>
small er</w>
it arian</w>
Gre ece</w>
De gree</w>
extre m
2 50
gener ate</w>
E ast
go al</w>
draw ing</w>
k o</w>
mig ran
E ven</w>
Al loy</w>
te l
form ulation</w>
br ation</w>
grad u
We bsite</w>
concer ning</w>
P ac
concer ned</w>
f el
W H
Fac ilities</w>
st ress</w>
D ur
A P</w>
ar o</w>
employ ees</w>
Inte gr
p s
uni vers
Trans lations</w>
par allel</w>
tr ip
g ent</w>
mechan isms</w>
Par liament</w>
air ports</w>
w an</w>
ten nis</w>
protec ted</w>
ex plo
I te
fu n</w>
ann ed</w>
Stud ent</w>
tim ate</w>
hy per
guaran te
Hist ory</w>
in ity</w>
diagn os
super markets</w>
igh tly</w>
assess ment</w>
connec ting</w>
st atic</w>
acc idents</w>
hol der</w>
B B
E stab
cur rency</w>
st ory</w>
some one</w>
P ress
L T
ar di
des ir
ay ing</w>
f illed</w>
com man
commun ications</w>
inte llig
0. 1</w>
vis ible</w>
C la
consi sting</w>
6 5
real ized</w>
lis ted</w>
inte st
p air</w>
p etro
B icycle</w>
T V
clo thing</w>
Anton io</w>
Mex ican</w>
remain ing</w>
charac ter</w>
any thing</w>
Di amond</w>
9 00
i x
F ort</w>
WHOLESALE CLOTHES</w>
w in</w>
r ural</w>
sign ed</w>
surro unding</w>
Pre fer
gl asses</w>
ite m</w>
GH T</w>
bel t</w>
COUN TRY</w>
u ted</w>
A A</w>
Produc tion</w>
adap ted</w>
ies worldwide</w>
Pharmac iesworldwide</w>
c ial</w>
R a
S imp
electr icity</w>
sex ual</w>
u tr
b ig
L et</w>
ide os</w>
Pl an</w>
beg in</w>
la ws</w>
improv ement</w>
m useums</w>
ote l</w>
bre a
th -
lead s</w>
DI Y</w>
Hosp ital</w>
F RE
um ps</w>
V in
Buil ding</w>
bir th</w>
Catal ogue</w>
Pro mo</w>
Ch o
S pl
ly mp
ad vis
me at</w>
9 2</w>
le aving</w>
6 8
ci ent</w>
p aid</w>
ta tive</w>
C ross</w>
profession als</w>
compati bility</w>
s mart</w>
G S</w>
clud ed</w>
z o</w>
- P
effor t</w>
o res
Sk in</w>
ã o</w>
cl usion</w>
Con struction</w>
c ustom</w>
he avy</w>
bo at</w>
R ed
condi tioned</w>
effec tively</w>
acet ate</w>
N eck
on e
le a
St ar
tele phone</w>
Pl aya</w>
B il
fund am
Lim ited</w>
s k</w>
G R
Pl ug</w>
Mediterran ean</w>
lit er
in ts</w>
ard ens</w>
b ol
te ls</w>
boo ks</w>
T y
6 00
dimen sions</w>
ch urch</w>
streng then</w>
ad t</w>
os en</w>
AC K</w>
conveni ent</w>
atmosph ere</w>
Ar riv
er ror</w>
imple mented</w>
To y</w>
long itud
ti ps</w>
Prefer ably</w>
fo rest</w>
pos sib
3 60</w>
wor ked</w>
K u
c ia</w>
HI V</w>
p in</w>
be aring</w>
app ears</w>
o is</w>
ca using</w>
ph il
Santi ago</w>
P ool</w>
bi ke</w>
pol yp
n g</w>
C M</w>
Austri a</w>
Un it</w>
co ated</w>
et ary</w>
K en
oul dn</w>
sim pl
E C</w>
Syste ms</w>
Tab let</w>
aug h
DAN CE
un ds</w>
DANCE COUNTRY</w>
j o</w>
L ear
detec ted</w>
legis lation</w>
enh ance</w>
Proper ty</w>
R ech
Feder ation</w>
L ens</w>
show ed</w>
cou ple</w>
S ell</w>
bar s</w>
play ers</w>
fail ure</w>
nucle ic</w>
a ren
SI DE</w>
re placement</w>
Re frigerator</w>
Design er</w>
Commer cial</w>
p ig
n ish</w>
A gre
A l</w>
dis orders</w>
ir ing</w>
0 4</w>
mix ing</w>
p ers</w>
Cle aning</w>
ro b
S ide</w>
innov ative</w>
sup ple
ult an
Dom in
P ay
Admin istration</w>
in surance</w>
guaran tee</w>
Ch r
lab oration</w>
S .
C K</w>
jo y</w>
Pro vid
St art</w>
sul f
Stra p</w>
T om
v ity</w>
zh ou</w>
fig ures</w>
w atches</w>
7 8</w>
meth yl
M ain
ent ary</w>
Reg ion</w>
Per f
F ast</w>
7 1</w>
propos al</w>
ac ent</w>
S I</w>
dep th</w>
prin ted</w>
pro mot
E leg
S ound</w>
advant ag
wee k
D riv
campa ign</w>
ail and</w>
tour ist</w>
hospit als</w>
cylin der</w>
protec tive</w>
Press ure</w>
prac tical</w>
Co ol
r ying</w>
struc tural</w>
C ore</w>
lin ear</w>
tele vision</w>
res earch
comm and</w>
strateg ies</w>
ent ing</w>
Anti -
5 mm</w>
bo y</w>
to il
al d</w>
educ ational</w>
compre hensive</w>
ell o</w>
D ig
wed ding</w>
T est</w>
chr onic</w>
ro id</w>
tif icial</w>
Tow els</w>
qu e
anc a</w>
Sh irts</w>
h un
si an</w>
La dies</w>
7 00</w>
hu ge</w>
9 6</w>
get ting</w>
p el
Me dia</w>
P il
vari ants</w>
ti que</w>
it ar</w>
Treat ment</w>
direc ted</w>
train s</w>
d ingly</w>
L ink</w>
An d
per cent
Mar t
um ent</w>
th ly</w>
F T</w>
car di
sec tors</w>
L it
dro p
collec ted</w>
id ential</w>
ur ches</w>
Tele phone</w>
s ence</w>
in ess</w>
stab il
F oundation</w>
g ave</w>
R ock</w>
meas uring</w>
terr itory</w>
ag on
gl uc
per manent</w>
D ate</w>
og a</w>
r un
L G</w>
C ape</w>
ti ble</w>
trans mitted</w>
ba throoms</w>
stir red</w>
dr ink</w>
tim s</w>
.e u</w>
re new
ex ec
resour ce</w>
re ly</w>
Ap ps</w>
WIF I</w>
maj ority</w>
Ta g</w>
7 6</w>
cle arly</w>
polyp ep
fl av
att ack</w>
indic ator</w>
nu tri
alk yl</w>
s ides</w>
P ri
em ail</w>
B ad
brow n</w>
f ying</w>
scre w</w>
met abol
On ly</w>
S D
app ing</w>
Ma ke</w>
roll er</w>
me etings</w>
consid er
1. 0</w>
represen ted</w>
adj acent</w>
atch ing</w>
medic ine</w>
8 8
t le
Un der</w>
Mil itary</w>
V el
for dable</w>
am bi
C ut</w>
tem plate</w>
T ar
Beau tiful</w>
ü n
norm ally</w>
Saf e</w>
Th ailand</w>
can di
Sh o
poin ted</w>
Ter ms</w>
Rech ar
ci v
In strum
cal ls</w>
la wyer</w>
Med ic
i res</w>
5 9</w>
H T
avi d</w>
out let</w>
indic ates</w>
Av ail
d ollar</w>
oug h
adjust able</w>
M as
differ ences</w>
decre ase</w>
sh irts</w>
n ic</w>
b ow</w>
drug stores</w>
m ur
Ch em
str ong
y land</w>
Secre tar
i est</w>
col or
actu ally</w>
mis sions</w>
Pan ama</w>
R ent
ra w</w>
Indi an</w>
1. 6</w>
wh olesale</w>
ac commod
F M</w>
connec tions</w>
us en</w>
agre ed</w>
Jos é</w>
Fl ight</w>
Ac t</w>
and ed</w>
D im
sensi tive</w>
ch osen</w>
coun ter
H en
a g</w>
let ter</w>
DE R</w>
p ful</w>
- English</w>
issu ed</w>
L A
kin ds</w>
Sup ply</w>
ne um
B S</w>
V ision</w>
aut umn</w>
g h
f illing</w>
Program s</w>
tra it</w>
Do g</w>
Hi king</w>
mom ent</w>
Can vas</w>
D ist
transi tion</w>
des k</w>
ex em
L od
ol y
le ge</w>
Wal let</w>
eng ineering</w>
arm ed</w>
me tic</w>
h appy</w>
Br idge</w>
f ishing</w>
F E
Ster eo</w>
aim ed</w>
j ustice</w>
de ep</w>
Eng ineering</w>
sec ure</w>
trans portation</w>
p et</w>
tr ig
R ubber</w>
On ce</w>
G o</w>
h ex
ing e</w>
k in</w>
sec onds</w>
parag raph</w>
identi ty</w>
tre es</w>
I R
M r</w>
I -
P et</w>
ard ed</w>
li e</w>
arrang ement</w>
ac r
t ang
des pite</w>
C lear
strateg ic</w>
g in</w>
Br ass</w>
P ub
Re port</w>
Ac adem
0 9</w>
lead er</w>
th ium</w>
it z</w>
ir o</w>
id al</w>
Eng ine</w>
L ove</w>
adequ ate</w>
sh ort
P un
Y oung</w>
F ile</w>
Tues day</w>
arti st</w>
p ink</w>
ardro be</w>
F O
ut h</w>
B and</w>
dr ying</w>
stud ent</w>
ste in</w>
ch e</w>
str act</w>
y ield</w>
b ou
th ane</w>
h ope</w>
n ar
n ice</w>
H DM
Tri avi</w>
as ion</w>
Back ground</w>
cav ity</w>
7 7</w>
bran ds</w>
th ir
ic y</w>
S end</w>
hab it
I ra
C it
wind ows</w>
ra in</w>
o on</w>
I gu
extrem ely</w>
Key board</w>
Chang es</w>
equival ent</w>
ü r
end or
histor ic</w>
H appy</w>
Val encia</w>
g ol
ed ral</w>
desir able</w>
p ure</w>
contin ues</w>
B A</w>
Bel ow</w>
ad ults</w>
flu or
Th urs
cons ult
sol d</w>
s and
atter ies</w>
tum or</w>
resp ond</w>
Sil icone</w>
i tive</w>
n -
pass ed</w>
auth en
mo ved</w>
establish ment</w>
y- General</w>
mach inery</w>
Te a</w>
Dec or
1080 P</w>
F C</w>
199 8</w>
No .</w>
gen e
COR D</w>
M ulti</w>
s outh</w>
e dition</w>
ate mal
initi ative</w>
cli ents</w>
g al
O s
expos ure</w>
tra -
DI T
ome tric</w>
is ted</w>
Estab lish
k id
imple ment</w>
ben z
re st
ak i</w>
che aper</w>
inter pre
Che apest</w>
pol l
br ight</w>
220 V</w>
seas onal</w>
3 d</w>
dec isions</w>
sl ightly</w>
need le</w>
prep are</w>
fac ing</w>
J es
sp aces</w>
en der</w>
m iddle</w>
surg ical</w>
coupl ing</w>
u al
crim inal</w>
competi tive</w>
ste m</w>
P NG</w>
in depend
t les</w>
gu n</w>
acc oun
em er
c ategories</w>
calcul ated</w>
serv ed</w>
O l
ex port</w>
excep t</w>
C C</w>
Com for
D avid</w>
ov a</w>
di versity</w>
Rep air</w>
1. 4</w>
HDM I</w>
wor th</w>
Gu atemal
four th</w>
W ooden</w>
Cor por
6 4
qu ick</w>
hom es</w>
Controll er</w>
H all</w>
eleg ant</w>
ri ver</w>
num erous</w>
qu antity</w>
Que en</w>
pur ified</w>
resid ue</w>
we b
G U
discus sed</w>
re z</w>
10 2</w>
cal cium</w>
be am</w>
vir tual</w>
part ner
De tec
thre e-
col laboration</w>
Ear th</w>
atur ing</w>
lab el</w>
lab els</w>
follow s</w>
tras onic</w>
col our</w>
op posite</w>
Ul tra</w>
Thurs day</w>
5 7</w>
comp act</w>
separ ation</w>
de grees</w>
serv es</w>
re pl
8 2</w>
ves sel</w>
f oot</w>
T ea
Us ing</w>
re infor
off ic
ab sence</w>
Y O
Sh opping</w>
Secretar y-General</w>
e ast</w>
0 8</w>
Vic tor
t s
v ary</w>
particip ate</w>
Eleg ant</w>
ther m
ind ustri
fin ished</w>
comp ens
F estival</w>
a is</w>
bloc ks</w>
requ ested</w>
ic als</w>
reserv ation</w>
Pro cess</w>
etr ies</w>
te -
Rechar geable</w>
au x</w>
st an
recogn ition</w>
set tings</w>
ter ing</w>
man age</w>
F an</w>
adjust ment</w>
cor ro
objec tives</w>
dis played</w>
dy namic</w>
longitud inal</w>
er ate</w>
entr ance</w>
ish es</w>
Col ors</w>
D ar
PC S</w>
AC CORD</w>
Ukra ine</w>
diabe tes</w>
ord inary</w>
Sw imming</w>
1 30</w>
w est</w>
vic tims</w>
eg o</w>
v ar
st ated</w>
Ste p</w>
underst ood</w>
is ure</w>
ha ust</w>
diffic ul
h app
con crete</w>
C ell</w>
Agre ement</w>
Mic rowave</w>
pregn ancy</w>
identi fication</w>
br e</w>
or ca</w>
tre at</w>
Diff er
su s</w>
ocol ate</w>
al li
Am ong</w>
al ities</w>
Cru z</w>
J ord
typ ical</w>
P RE
ach el
pri ority</w>
al p
Special ized</w>
expl ained</w>
R ight</w>
reduc es</w>
od y
se al</w>
Dro p</w>
o tic</w>
clo thes</w>
F al
ch urches</w>
fi bers</w>
loc king</w>
LI KE</w>
roug h</w>
tes ted</w>
agric ultural</w>
sim ultan
y es</w>
us ual</w>
L ow
Wednes day</w>
R od
P ass
s aving</w>
tab let</w>
en ables</w>
Tr uck</w>
g as
lar g
Phil ipp
cons ul
sh ell</w>
th ouse</w>
Ind ustry</w>
M all</w>
rap id</w>
mat rix</w>
n m</w>
cl ass
L ive</w>
Sing ap
s cr
Pre mium</w>
ra il
ex ecu
eme ter
e at</w>
p ist
chro mat
T ob
err a</w>
elec tion</w>
in c</w>
Program me</w>
cl asses</w>
ber ry</w>
m ary</w>
satur ated</w>
m ass
univers al</w>
electro de</w>
end ar</w>
ari at</w>
av o
R -
W arm</w>
0 6</w>
part ner</w>
laun ched</w>
them e</w>
oper ator</w>
if ic</w>
cap ac
V ER
bl ade</w>
N ap
Fur niture</w>
recor ds</w>
8 8</w>
t ant</w>
Vill age</w>
Tun es</w>
is n</w>
horiz ontal</w>
P ocket</w>
it i</w>
P ress</w>
Establish ment</w>
Mal ay
posi tioned</w>
V es
jo in</w>
For um</w>
vari able</w>
ter ior</w>
comm er
4 2
0 7</w>
sym bol</w>
st ern</w>
A li
g ain</w>
separ ated</w>
situ ations</w>
foc used</w>
or d</w>
commit ted</w>
re vol
M IN
T ower</w>
3 ,
o tive</w>
com pliance</w>
conver ter</w>
C e
am id</w>
o ts</w>
ar g
M esh</w>
def ault</w>
- to-
ne utr
dissol ved</w>
Off icial</w>
Tr ump</w>
ha el</w>
percent age</w>
ac tual</w>
P aul</w>
se p
Singap ore</w>
ex ac
gar age</w>
F our</w>
extr act</w>
r on</w>
af ter
vul ner
prec ip
fil ters</w>
ic tion</w>
n ot
D ue</w>
gu ides</w>
Cap acity</w>
tr ying</w>
pro g
B ear
toil etries</w>
prec ision</w>
Fl oral</w>
syn thetic</w>
m aps</w>
ca p</w>
ACH I</w>
port able</w>
M T</w>
P cs</w>
1. 2</w>
f ill</w>
C PU</w>
other wise</w>
An y</w>
sever e</w>
am ide</w>
wel ding</w>
S ev
G O</w>
i ver</w>
hy draulic</w>
fundam ental</w>
in e-
SU V</w>
s oil</w>
AT M</w>
T an
al es</w>
mus cle</w>
ari um</w>
G raph
f ant
introduc tion</w>
24 -
Connec tor</w>
P endant</w>
reg istration</w>
Ar c
w as
em ul
bacter ia</w>
Condi tioning</w>
Belg ium</w>
govern ments</w>
form al</w>
activ ated</w>
O H</w>
In tel</w>
F res
7 3</w>
se aling</w>
func tion
6 9</w>
Oc ean</w>
Cle ar</w>
Fig ures</w>
c c</w>
al i
dis closed</w>
Tai wan</w>
ñ a</w>
ess or</w>
el ine</w>
ig e</w>
fur t</w>
a b</w>
Ite m</w>
Mar ina</w>
i Tunes</w>
moist ure</w>
man if
vitam in</w>
F L</w>
dest ro
every one</w>
mir ror</w>
pep tide</w>
D re
administ rative</w>
sus p
f ro
Tag ged</w>
de ploy
Ni ke</w>
Mag netic</w>
ear lier</w>
Satur day</w>
Sp ace</w>
Cro ati
Sw im
car tridge</w>
are t
p ad</w>
ol ic</w>
ic ated</w>
n or</w>
ind igenous</w>
Ag ency</w>
ris ks</w>
um -
ne ys</w>
char t</w>
ax ial</w>
w ish</w>
Fab ric</w>
Cour se</w>
Col l
F un
si zes</w>
trans l
t led</w>
Cle an
et a</w>
vis ual</w>
op les</w>
m ort
Chro me</w>
To k
dis cover</w>
techni que</w>
L ower</w>
acc um
P AR
char ging</w>
F ul
mart phone</w>
Mar yland</w>
stitu tion</w>
RA M</w>
C lock</w>
Sh ang
Tra ining</w>
sal ts</w>
per spective</w>
W allpaper</w>
U .
distri buted</w>
re form</w>
Pur ple</w>
fat ty</w>
S TR
key board</w>
Ill ustr
pu ts</w>
special ized</w>
ju ice</w>
s now</w>
Am ster
cool ed</w>
Amer ic
li ft</w>
il ton</w>
om er</w>
re present</w>
Flo or</w>
w n</w>
Mil an</w>
Ar ts</w>
7 8
promot ing</w>
Sof tware</w>
3 4
Off ers</w>
S EN
tre ating</w>
ab sol
O L
weap ons</w>
re ality</w>
h yp
indic ators</w>
g ear</w>
A th
char ged</w>
co vers</w>
k er
st op
vent ure</w>
R ich
UN E
D ell</w>
Cast le</w>
m ar</w>
Swed en</w>
N et</w>
accur ate</w>
J ul
mod es</w>
Ger man
An n
P S
comple x
d augh
lar ation</w>
cer amic</w>
De f
u a</w>
Vi et
she ets</w>
Appl ications</w>
view ed</w>
li brary</w>
w ife</w>
u an</w>
t ables</w>
S elling</w>
Arriv al</w>
uc et</w>
pro tocol</w>
i Pad</w>
e ing</w>
go es</w>
í n</w>
Wind ow</w>
Vol k
DIT ION
F it</w>
Bit coin</w>
Mic h
Ex pl
Re view</w>
s y</w>
East ern</w>
Ques tions</w>
al arm</w>
c lock</w>
person nel</w>
ven tions</w>
k ing
O ver</w>
Tenn is</w>
ste p
ad vertising</w>
is i
resid ents</w>
sub mitted</w>
P on
comp et
S us
g ency</w>
Mic ro</w>
Sec ond</w>
fin ally</w>
prov ision</w>
T ac
Color ful</w>
Bot tle</w>
chall enge</w>
M eas
Pow der</w>
Mir ror</w>
F und</w>
T ank</w>
Pl ate</w>
sched ules</w>
sens ors</w>
N I
F RO
less -
ac adem
pris es</w>
F air
Anim al</w>
Lin en</w>
C ute</w>
lab our</w>
l ateral</w>
V acuum</w>
is ode</w>
cal i
molec ules</w>
Back pack</w>
ub s</w>
Aff airs</w>
S ant</w>
P U
s ity</w>
ob a</w>
Car toon</w>
C ros
Reg ional</w>
Sh ell</w>
vol un
. pdf</w>
diagn osis</w>
Lu is</w>
di tionally</w>
F ire</w>
18 0</w>
Str ateg
r ack</w>
m old</w>
ver ages</w>
Fl at-screen</w>
Ba h
rup tion</w>
exclus ive</w>
wa it</w>
R ica</w>
exten d</w>
pain t</w>
C B
ard o</w>
r h
To ken</w>
author ity</w>
lo go</w>
R ev
ma y
c ot
Ch ild</w>
s elling</w>
Ar my</w>
auth or</w>
P ak
dis covered</w>
L ag
H ind
Over view</w>
at tri
applic able</w>
j acket</w>
Bracel et</w>
f le
D or
al ist</w>
Se at</w>
Fi x
estim ated</w>
Al p
Val ent
A ri
l ounge</w>
Br it
id en
aw are</w>
pain ting</w>
rel ating</w>
la ke</w>
coupl ed</w>
Al b
partic le</w>
relig ious</w>
In door</w>
main tained</w>
Inter ior</w>
H av
Dec or</w>
ext ent</w>
re member</w>
H ire</w>
E M
human itarian</w>
Tea m</w>
Stre et
AP ACHI</w>
agre ements</w>
trans ferred</w>
si x
ill ance</w>
E cu
Bel t</w>
Pol ice</w>
5 V</w>
im ag
Wash ing</w>
comp u
Pol and</w>
l ad
ip er</w>
co verage</w>
S Y
Al ber
M echan
gener ator</w>
F el
tol er
Bl ack
M aker</w>
dial ogue</w>
t asks</w>
Al ic
m ouse</w>
D el</w>
Simp le</w>
pre determined</w>
recor ding</w>
ci pl
b icycle</w>
de partment</w>
ac a</w>
Th anks</w>
nit rogen</w>
st ly</w>
re d
Prin ted</w>
Guatemal a</w>
ig aret
sup plies</w>
P ati
S om
mark eting</w>
resp ond
S et
id ery</w>
Igu ana</w>
P rec
con serv
tour ism</w>
nor th</w>
essi ve</w>
pres entation</w>
sk illed</w>
Amster dam</w>
C at
s lo
o ils</w>
ir ates</w>
L ady</w>
ne ur
nucle o
T ree</w>
mat ory</w>
wel come</w>
subsequ ent</w>
C T</w>
MAN U
pr inter</w>
fil tered</w>
de ad</w>
atter ns</w>
V W</w>
Mi ami</w>
Salv ador</w>
M it
cor ner</w>
g ri
Cur rent</w>
seg ment</w>
air- conditioned</w>
V all
w ants</w>
par ameter</w>
pan els</w>
Ama zing</w>
hol es</w>
sh ot</w>
water proof</w>
f ers</w>
fol der</w>
ro d</w>
ak a</w>
s cal
ugg age</w>
confir med</w>
O r</w>
Cop per</w>
C and
W all
pain ted</w>
Loc al</w>
CON DITION
comp ression</w>
L ook</w>
Fit ness</w>
Wh o</w>
Cl ass</w>
ing er
m u
On- line</w>
nu trition</w>
ent s.com</w>
ne uro
peri ph
ra il</w>
ti p</w>
S HI
mi x</w>
em ic</w>
ste am</w>
wr ite</w>
buff er</w>
X X
sur ing</w>
bu m</w>
Venezu ela</w>
def ine</w>
in let</w>
ra ised</w>
AS T
7 9</w>
ic s.com</w>
Oh io</w>
M id
ro bo
har mon
l u
Reg ulation</w>
en on</w>
n ine</w>
prob ably</w>
Egyp t</w>
vent ing</w>
in ating</w>
low est</w>
1. 8</w>
Altern atively</w>
F ace</w>
discus sion</w>
O lymp
ec tors</w>
G allery</w>
8 6</w>
sw agen</w>
Boo ts</w>
ist a</w>
ow l</w>
Vehic le</w>
ro se</w>
1 40</w>
sh aring</w>
phen om
ri an</w>
9 4</w>
Pro tocol</w>
Ex per
A x
Spe aker</w>
Commun ication</w>
pa .eu</w>
Electron ics.com</w>
Sourcing- Electronics.com</w>
P es
wond erful</w>
199 7</w>
exem pl
OR Y</w>
Mast ers</w>
reac tor</w>
Col d</w>
inser ted</w>
ear l</w>
opin ion</w>
Up per</w>
Sur g
mic rowave</w>
ij ing</w>
f ran
Protec tor</w>
ign ment</w>
stri p</w>
R NA</w>
equ ality</w>
d ly</w>
n an
an cient</w>
0 -
dist al</w>
concer ns</w>
be aches</w>
m outh</w>
car b
n ode</w>
absor ption</w>
T U
de grad
s id
comm ents</w>
Indones ia</w>
Fin nish</w>
Inte llig
Mic hael</w>
hol ders</w>
ing ham</w>
po st-
accep ted</w>
oper ational</w>
ch ol
Me eting</w>
N on</w>
K il
ic ian</w>
ow ing</w>
up dates</w>
h ur
I b
g allery</w>
ath able</w>
j e
tow ard</w>
Hand le</w>
MP 3</w>
O EM</w>
h op
Volk swagen</w>
Hos tel</w>
H -
W ine</w>
reas on
in ar</w>
P P</w>
c it
plas ma</w>
sur -
Ex change</w>
ta ste</w>
um ents</w>
m esh</w>
extrac ted</w>
por ter</w>
ici ous</w>
car toon</w>
T ips</w>
f as
st ro
se ems</w>
bil lion</w>
st udi
initi atives</w>
t one</w>
tr ial</w>
for ced</w>
Char ging</w>
tic ip
ch en</w>
el i</w>
suppl ied</w>
Pac ific</w>
ap ph
But ton</w>
og raph</w>
offici als</w>
d ust</w>
st ances</w>
poly mers</w>
o ke</w>
Nor way</w>
man ager</w>
recomm end</w>
L at
az ine</w>
or ange</w>
Sour ce</w>
ro ads</w>
y our
pic tures</w>
di r
s co
co at</w>
em e</w>
Agr ic
discrim ination</w>
B achel
Ter min
re friger
br ush</w>
A B</w>
Re ferences</w>
He at</w>
im pl
mob il
tion er</w>
or ities</w>
P ipe</w>
Bu en
and -
w oven</w>
sol ve</w>
is c
te en</w>
in door</w>
go als</w>
ch ester</w>
contri bution</w>
M eg
an k
ins ulation</w>
consum er</w>
con st
h an</w>
ne e</w>
dis posed</w>
rece iver</w>
9 1</w>
W in
S ome
ste el-
exten ds</w>
Super markets</w>
in y</w>
Bo x
rel ax
hard ware</w>
ex posed</w>
N T
cer tain
Pl aces</w>
P ap
F low
16 .
c ooking</w>
Develop er</w>
ud ad</w>
SC O</w>
15 .
in tr
G L
ca the
dis plays</w>
ev apor
L ast</w>
resid ence</w>
ell ers</w>
K y
es ium</w>
Be ijing</w>
pe ace
ill o</w>
ex press</w>
Shang hai</w>
D un
y ear
W ardrobe</w>
mar ked</w>
arti sts</w>
car rying</w>
lo aded</w>
w ave</w>
deli ver</w>
Fore ign</w>
id ad</w>
effec tiveness</w>
9 00</w>
Ex ternal</w>
recep tor</w>
Vis it</w>
research ers</w>
4 4
Merced es</w>
bu tions</w>
J am
nam ed</w>
a .com</w>
pe ti
p ick</w>
Wor ds</w>
di agram</w>
ast ro
D ining</w>
D ou
Per formance</w>
igh t-
os ter</w>
Clear ance</w>
a ur
activ ation</w>
ref ug
S ite</w>
S UN
An ti</w>
adj usted</w>
10 1</w>
v et</w>
ment ing</w>
p a</w>
cont ents</w>
oles alers</w>
He y</w>
inflam matory</w>
stain less-
T ops</w>
st ages</w>
Compon ents.com</w>
I AN
st ers</w>
peri or</w>
CONDITION ER</w>
st om
perf ec
Ped ro</w>
el astic</w>
att acks</w>
b ass
uc e</w>
eng ers</w>
op l
I con</w>
s burg</w>
ent y</w>
Deutsch land</w>
Fin ally</w>
cr ime</w>
ack er</w>
dish es</w>
gro w</w>
fil ms</w>
ib ar</w>
at re</w>
Cer amic</w>
fo otball</w>
s ell</w>
Academ y</w>
Stud ents</w>
SP R
C at</w>
M AN</w>
labor atory</w>
investig ation</w>
compos ed</w>
R unning</w>
Wor k
12 5</w>
bu ying</w>
fe ed
Cre am</w>
16 0</w>
bu l</w>
Cr im
y outh</w>
acc ounts</w>
4 x
Su ite</w>
specif ications</w>
prop ylene</w>
fun ding</w>
Pack aging</w>
produc tive</w>
answ ers</w>
ass ay</w>
con c
Cour ses</w>
modi fy</w>
on ze</w>
ass igned</w>
g am
regul ations</w>
Wel come</w>
j et</w>
collec tions</w>
au x
Caf e</w>
determin ing</w>
Dist ri
I ce</w>
as sets</w>
uro pa.eu</w>
High -
fe eding</w>
L and</w>
p p
si onal</w>
Ci udad</w>
m -
Lin ks</w>
mar ks</w>
G ay</w>
pen etr
stainless- steel-
at om
D anish</w>
sub -
design s</w>
ep t</w>
Illustr ation</w>
199 6</w>
ig an</w>
co vering</w>
dis cipl
D ry</w>
govern mental</w>
m useum</w>
ul ed</w>
h im
fl at-screen</w>
3. 5</w>
Qu artz</w>
re ds</w>
aim s</w>
dre am</w>
re placed</w>
cen ters</w>
E very</w>
Rou tes</w>
h o</w>
ac le</w>
Soci ety</w>
N ik
A Z</w>
enzy me</w>
assi ve</w>
K al
H Y
Prov inc
N Y</w>
Ge orge</w>
A G</w>
in er
en suring</w>
inter vention</w>
corpor ate</w>
meth yl</w>
TE D</w>
Evalu ations</w>
j i
r ice</w>
St one</w>
C ent
8 4</w>
dra w</w>
dom in
Mar k
so red</w>
co ast</w>
O FF
al leg
pharmaceu tically</w>
Gu ests</w>
st or
C ooking</w>
th m</w>
Scot land</w>
rec y
ad ult</w>
Cl ose</w>
Pr im
9 7</w>
ant enna</w>
s an
Victor ia</w>
Protec tive</w>
C ap</w>
lin ois</w>
compos ite</w>
C arm
Domin ican</w>
Val ve</w>
h en</w>
pres ents</w>
m am
Inf ra
molec ule</w>
jo ined</w>
inc ub
bus iest</w>
reg ulation</w>
near ly</w>
lo op</w>
U -
B ase</w>
.e uropa.eu</w>
ic ons</w>
ann a</w>
ast s</w>
dis charge</w>
appl i
ke -up</w>
stre t
2 20</w>
B at
Il linois</w>
Techn ical</w>
AI DS</w>
surround ings</w>
inten sity</w>
re actions</w>
C ost</w>
ang ing</w>
D O</w>
flow s</w>
cl oud</w>
G a
man aged</w>
3 50</w>
uni versity</w>
un ion</w>
quar ters</w>
2. 2</w>
O L</w>
syn thesis</w>
Sw iss</w>
me an
Cath edral</w>
essi ons</w>
s and</w>
deli vered</w>
beg ins</w>
exper t</w>
row s</w>
od a</w>
Trans port</w>
mon t</w>
ti ous</w>
pur su
M B</w>
W A
Mar tin</w>
tr uck</w>
tor al</w>
A k
op tionally</w>
Lit tle</w>
de ep
k illed</w>
organ ize</w>
Pol icy</w>
ed o</w>
laun dry</w>
dos age</w>
8 1</w>
ut t
Sourcing- Components.com</w>
m its</w>
Wa ist</w>
Cre ate</w>
15 -
dis per
ta g</w>
T ION</w>
enc ing</w>
S or
flex ibility</w>
recep tion</w>
Ex port</w>
Y am
fin ding</w>
g ate</w>
ex ist</w>
B lock</w>
pl ug</w>
fir m</w>
f aster</w>
c emeter
Re qu
Princ ess</w>
wr iting</w>
ta b</w>
M ul
6 50</w>
op tional</w>
-w atches-
9 3</w>
Re f</w>
Direc tions</w>
por te
P ER
vers ary</w>
sp a</w>
roc k</w>
whe els</w>
Rom ania</w>
Gr ay</w>
circum stances</w>
consid eration</w>
199 5</w>
H ard</w>
stan bul</w>
b rid</w>
appe ared</w>
Vol tage</w>
ro pol
En joy</w>
D y
Car los</w>
es see</w>
Th rough</w>
cell ul
Pi ece</w>
z ona</w>
res sive</w>
tr um</w>
ne x</w>
Secret ary</w>
z on</w>
itch en
y an</w>
J ustice</w>
serv ers</w>
scen e</w>
inspec tion</w>
val id</w>
N am
medic ines</w>
ro l
F L
An dre
Pers on
Pow er
V il
che ese</w>
adap ter</w>
en ix</w>
petro l</w>
mod ules</w>
min ing</w>
la st
Bas ic</w>
pi x
Pa ul
we ak
Fi g</w>
el le</w>
Tenn essee</w>
Con gress</w>
water -
c ing</w>
s dorf</w>
om ens</w>
sh ar
certif icate</w>
incorpor ated</w>
res ort</w>
tu b</w>
Emer gency</w>
Des ktop</w>
Alic ante</w>
L ea
Rac ing</w>
O ff</w>
Ma x
jour nal
wa iting</w>
sy mb
el se</w>
daugh ter</w>
ip i
t ags</w>
Cont in
fe et</w>
Ta ke</w>
H U
a ine</w>
U .</w>
r ides</w>
T Y</w>
m ice</w>
er t
Multi -
a w</w>
Pers onal</w>
parti ally</w>
b ella</w>
k ia</w>
dis c</w>
um a</w>
d inner</w>
ax ony</w>
W anda</w>
F ru
infec tions</w>
eng ine
O w
associ ation</w>
filtr ation</w>
gram s</w>
Sle ev
E D
10 4</w>
exten ding</w>
gluc ose</w>
Des pite</w>
reg ularly</w>
Wi th
Res our
ist er
Rent als</w>
determin ation</w>
anc ial</w>
adv ent
d ings</w>
chromat ography</w>
ce iling</w>
R E</w>
he ter
exhib ition</w>
comm only</w>
a e</w>
p as
Swe at
1. 1</w>
b or</w>
im s</w>
te ams</w>
ocr acy</w>
ess els</w>
Se ts</w>
laun ch</w>
Li qu
pre venting</w>
lar s</w>
P I
Fin ancial</w>
Jord an</w>
p ical</w>
sp ray</w>
P R</w>
Super b</w>
ble -
li ons</w>
ush ed</w>
t attoo</w>
con s</w>
P M</w>
n d</w>
feder al</w>
sequ ently</w>
amp ing</w>
L ux
8 00
O K</w>
l ub
Di esel</w>
ic ks</w>
c ash</w>
k ept</w>
mo on</w>
high- quality</w>
t ape</w>
alg ori
Z ipper</w>
S H</w>
ach e</w>
b y-
iti s</w>
é s</w>
o ir</w>
coord ination</w>
b ine</w>
cul p
ar ter
experi enced</w>
mon d</w>
app ed</w>
ch er</w>
un .org</w>
Co st
ei ver</w>
am az
proxim ity</w>
w olf</w>
ro man
fo ot
Philipp ines</w>
om ers</w>
Soc ket</w>
al ian</w>
spon sored</w>
V EN
at i</w>
F lex
Len gth</w>
am mon
comm is
access -
Di ego</w>
Vi enna</w>
S ant
polypep tide</w>
m ask</w>
l amps</w>
con dens
conj ug
char ger</w>
ug u
icip al</w>
Em bro
Hos tels</w>
fl ash</w>
tissu es</w>
ug s</w>
a .
Street Map</w>
Accor dingly</w>
h all</w>
f em
te eth</w>
Chic ago</w>
We b
decor ative</w>
it an</w>
And al
star ts</w>
Open StreetMap</w>
A .</w>
l ot
D ay
exist ence</w>
detec t</w>
dist inc
MANU AL</w>
in vi
pat ent</w>
D am
Su itable</w>
i z</w>
con sequences</w>
Fin land</w>
posi tioning</w>
4 6
K T
aw aren
F requ
Bal cony</w>
dis pos
er ry</w>
strength ening</w>
arrang ements</w>
S on
driv en</w>
Mar ble</w>
of -
A gu
deleg ation</w>
p un
ur ies</w>
J ack</w>
own ers</w>
s la
l ying</w>
u l</w>
h ere
C ome</w>
S ust
Em irates</w>
tr ips</w>
pass age</w>
al ism</w>
. ...</w>
provid er</w>
resid ential</w>
Gen eva</w>
tr ies</w>
Frank furt</w>
bre ak
M é
es tion</w>
p atterns</w>
fre ez
hol ds</w>
R he
li ber
moun tains</w>
ch ip</w>
Hist or
execu ted</w>
Advis or</w>
V ery</w>
st ere
K ir
Cl utch</w>
mix tures</w>
bec ue</w>
30 4</w>
Ecu ador</w>
- time</w>
Tel ev
wr ong</w>
n ic
distri but
S ud
od s.
R oll
eas ier</w>
Centr o</w>
exc ess</w>
n am</w>
Li brary</w>
mon ol
s in
gr ay</w>
your self</w>
d access-
pres cri
ods. un.org</w>
daccess- ods.un.org</w>
treat ments</w>
mechan ics</w>
conduc t</w>
A ro
co il</w>
tur ned</w>
E arr
20 -
re l</w>
rail way</w>
Mix er</w>
199 4</w>
iz a</w>
res er
Wil li
y .
I D
Gu ad
lab or</w>
R V</w>
G B
24 0
Sk i</w>
proc e
Earr ings</w>
v essels</w>
no zzle</w>
di v
An sw
Mess age</w>
Es s
hand ling</w>
propos als</w>
Op tical</w>
industri es</w>
moun ting</w>
stra ight</w>
enter ing</w>
Por to</w>
search ing</w>
lead ership</w>
w et</w>
C U
Da Wanda</w>
N ature</w>
optim al</w>
bu b
Den mark</w>
ric h
appl ying</w>
Wr ite</w>
Bul b</w>
pro be</w>
ati le</w>
ell ed</w>
enter ed</w>
RO OF</w>
r ics</w>
E D</w>
amen to</w>
b ent</w>
charac ters</w>
Mar bella</w>
st udio</w>
ac ute</w>
sem i-
La un
Ex tre
prepar ing</w>
re fer
answ er</w>
ri ve</w>
L ite</w>
correspon ds</w>
bre ast</w>
Driv ing</w>
comman ds</w>
Avail able</w>
G N
process ed</w>
car box
sil icone</w>
est one</w>
authen tic
comp ress
bl ed</w>
Mig uel</w>
ac tor</w>
24 V</w>
P ure</w>
u k</w>
sy r
ra ise</w>
ph ases</w>
n ur
W ER</w>
L L</w>
enh anced</w>
cre ates</w>
b usinesses</w>
Su it</w>
c ool</w>
IS O</w>
pist on</w>
ou red</w>
ori entation</w>
cl im
ear th</w>
elim inate</w>
ic it</w>
ac rylic</w>
accep t</w>
I B
inv ent
K -
tab lets</w>
Ar t
dro me</w>
lat ter</w>
Poly ester</w>
O ut</w>
US D</w>
inter action</w>
She et</w>
Ret ail</w>
I stanbul</w>
Nor thern</w>
let ters</w>
wor st</w>
od ed</w>
D res
We ight</w>
meth od
clos ing</w>
us age</w>
br ings</w>
ev ening</w>
3 G</w>
Ad venture</w>
ful l-
O u
gener ating</w>
fix tures</w>
lin ed</w>
Fo rest</w>
substitu ted</w>
au to</w>
Sup plies</w>
ch ild
tal king</w>
Bir thday</w>
cab inet</w>
Chris tian</w>
consum ers</w>
sil ica</w>
ap er
fr ac
Co at</w>
main taining</w>
For ce</w>
ing ing</w>
k en
J ack
techn ological</w>
Ac rylic</w>
ul ating</w>
big gest</w>
us tin</w>
S ongs</w>
sur fac
ol ig
st u
Malay sia</w>
tex ture</w>
Bachel or</w>
B oth</w>
Cha ir
ed a</w>
mar ine</w>
Al am
et -
Gre en
Log o</w>
ti les</w>
17 .
parti al</w>
tit ude</w>
l as</w>
B e</w>
Ma j
vin yl</w>
Comp le
po int
T op
poly ester</w>
to ilet</w>
Ma c</w>
uss els</w>
expl ore</w>
Palest inian</w>
Si erra</w>
ab ov
loo ks</w>
L ong
U M</w>
w av
ar tificial</w>
M Hz</w>
r ub
M all
th res
oper ated</w>
function ality</w>
M M
comb us
n om
te aching</w>
Ch il
in ations</w>
ass em
L if
the ory</w>
re porting</w>
G ab
T F</w>
s lot</w>
n ation</w>
De posit</w>
5 8
N av
te ch</w>
P A
Veg as</w>
success fully</w>
as ingly</w>
di ble</w>
de pos
cathe ter</w>
E LE
R ain
ro of</w>
pass engers</w>
Br ussels</w>
5 7
um ping</w>
Rec ently</w>
eg gs</w>
CO MP
L ight
ment ary</w>
financ ing</w>
behavi or</w>
b ury</w>
bar rier</w>
hund reds</w>
S R
manufac tured</w>
carbon ate</w>
cop ic</w>
arm y</w>
sh r
occ o</w>
m able</w>
R educ
sh oulder</w>
Col lege</w>
Fol ding</w>
di ed</w>
M EN</w>
ex ecutive</w>
A sian</w>
Sust ain
L es</w>
C li
L iber
trans formation</w>
phy si
to b
ec tion</w>
Pe ter</w>
kn ows</w>
smo oth</w>
assi um</w>
AT E</w>
li fer
Hung ary</w>
Arch itec
d ale</w>
Ir an</w>
. info</w>
ver sions</w>
invol ves</w>
T C
f arm
5 6
ol e
con solid
nam ent</w>
Pr ime</w>
d t</w>
box es</w>
th inking</w>
corro sion</w>
SV G</w>
illustr ates</w>
hear d</w>
en er</w>
dr ical</w>
w ro
id ges</w>
exac tly</w>
E t
L au
ad just</w>
reg ister</w>
h us
am ed</w>
T ol
dou b
ol ine</w>
j obs</w>
T AI
Bre men</w>
per me
Le ague</w>
K ö
year -
Pr inter</w>
R an
ans as</w>
id ly</w>
L ock</w>
om mun
B ak
DV R</w>
dial og</w>
pro hib
tub es</w>
in formed</w>
Pr incip
W is
T P</w>
S ti
ay ed</w>
re y</w>
iss an</w>
uck le</w>
IT Y</w>
i ety</w>
St yling</w>
at oms</w>
institu tion</w>
e k
Ph o
M D
G ifts</w>
4 ,
am bo
draw ings</w>
mon o
Tem ple</w>
migran ts</w>
tren d</w>
S ol</w>
statis tics</w>
de ed</w>
k new</w>
M emb
ch i</w>
d as</w>
t ap
P in
intest inal</w>
Comp ati
12 -
lo ads</w>
Ira q</w>
per ia</w>
im mediate</w>
at tr
C ool</w>
thre at</w>
i ans</w>
4 3
s qu
R ail
al ty</w>
stra p</w>
z -
Hun ting</w>
al lic</w>
m id
dang erous</w>
ah a</w>
li st
g ers</w>
Inv est
a z</w>
A vi
R ange</w>
Organ ic</w>
min eral</w>
where as</w>
deb t</w>
Veter inarians</w>
c ann
th or
Cas ino</w>
Ven ice</w>
E dition</w>
pre ven
con temporary</w>
With out</w>
radi us</w>
ke ys</w>
all erg
vitam ins</w>
Buen os</w>
exten sive</w>
org ans</w>
S Q
character istic</w>
ard less</w>
w a</w>
d ogs</w>
sal on</w>
as is</w>
press ed</w>
hel ping</w>
es a</w>
pe oples</w>
F ish</w>
Mem ory</w>
E UR</w>
mis sion
ag enda</w>
S ER
Cre ek</w>
fit ness</w>
ne akers</w>
accur acy</w>
contri butions</w>
Lev el</w>
controll ing</w>
exempl ary</w>
produc es</w>
ren e</w>
F unction</w>
Neck lace</w>
Gr an</w>
oper ators</w>
receiv es</w>
incre asingly</w>
detec tor</w>
fa res</w>
org an</w>
awaren ess</w>
aci ón</w>
um per</w>
ch amp
L ic
recogn ize</w>
Spr ings</w>
tren ds</w>
Hy draulic</w>
ha ir
cy clo
e ties</w>
inser t</w>
er als</w>
h aps</w>
av aria</w>
d .</w>
Exc ellent</w>
Hind i</w>
emis sions</w>
k ill</w>
I L</w>
Flo rence</w>
l ing
agric ulture</w>
Bo at</w>
w ri
produc tivity</w>
se eds</w>
Se ver
Gover n
á n
uni form</w>
Par t
qui et</w>
cir cular</w>
Fol lowing</w>
ensu res</w>
and roid</w>
r yp
fin ance</w>
Pro cess
s low</w>
KE TS</w>
At tor
ad option</w>
v intage</w>
9 25</w>
U E</w>
vis iting</w>
elec tions</w>
compl ain
t ower</w>
Ster ling</w>
Af gh
requ ests</w>
00 1</w>
Fi eld</w>
pres sive</w>
Tour ism</w>
E st
Hol e</w>
co very</w>
Bol i
A ires</w>
Sec tion</w>
gu ard</w>
Telev ision</w>
D er
loc ks</w>
Jes us</w>
versi ties</w>
W ay</w>
t ty</w>
I g
J i
s u</w>
f are</w>
Sign al</w>
l amin
exc e
de al
affec ts</w>
Hor se</w>
reason able</w>
L ib
exp and</w>
Tic ket</w>
ail ed</w>
spir it</w>
J ackets</w>
s aying</w>
an eous</w>
M ill
Tok yo</w>
c af
simultan eously</w>
G loves</w>
Fl u
lim its</w>
stre ets</w>
gene tic</w>
v ideos</w>
l i</w>
ic ates</w>
W omens</w>
St utt
O B
ros es</w>
elec ted</w>
view ing</w>
ps d</w>
repres entation</w>
design er</w>
Flow ers</w>
ici ans</w>
n erv
yp e</w>
G IN</w>
pro s
Stutt g
Is l
em ia</w>
Char les</w>
in habit
Re presen
S occ
L IN
e able</w>
neighbor ing</w>
N iger
it ance</w>
M agn
t- in</w>
concentr ations</w>
Indi ana</w>
Cer tif
f oods</w>
L et
p ed
mon thly</w>
Sci ences</w>
N ylon</w>
low s</w>
Bou tique</w>
Environ mental</w>
b atteries</w>
Sur ve
og en</w>
iz za</w>
im a</w>
C S
V I</w>
cep t</w>
MEN T</w>
priv acy</w>
be half</w>
care fully</w>
D S
achiev ement</w>
Wh ich</w>
T PU</w>
I ES</w>
de x
r ace</w>
se ed</w>
pap ers</w>
R GB</w>
negoti ations</w>
Ac tive</w>
cemeter ies</w>
Mar ine</w>
care er</w>
D N
Hon dur
Sp ir
Tra ditional</w>
Dis cover</w>
1 st</w>
Cre dit</w>
retur ned</w>
ne -
n es</w>
F err
-w atches</w>
dimen sion</w>
advantag eous</w>
sof a</w>
Ch annel</w>
ha usen</w>
ener ife</w>
He alth
ogen ic</w>
D ani
ing o</w>
it ude</w>
0 4.
ag o
ev o</w>
ush ing</w>
G T
li x
B ad</w>
spa rency</w>
ke up</w>
OFF ER
ach ment</w>
t y-
h arm
English- Russian</w>
si zed</w>
serv ing</w>
catal ogue</w>
Rem ove</w>
tw ice</w>
on ics</w>
fit ted</w>
dist ingu
oo ter</w>
Socc er</w>
extr action</w>
e bl
J AZ
quar ter</w>
col labor
flu ores
SPR ICE</w>
R ad
OFFER SPRICE</w>
im e
Decor ative</w>
enn e</w>
el f</w>
v ap
E T</w>
IC AL</w>
ep s</w>
in her
su le</w>
veter inarians</w>
C ultural</w>
Form ula</w>
t ories</w>
dimen sional</w>
b al</w>
denti sts</w>
oblig ations</w>
exc eed</w>
Down town</w>
E y
n ative</w>
amen ities</w>
N issan</w>
sched ule</w>
o z</w>
f arm</w>
Ar m
K a
Dri ver</w>
n as
In nov
fin ish</w>
b and
Li ke</w>
cir culation</w>
s ac
J ames</w>
magn esium</w>
Valent ine</w>
we g
stom ach</w>
JAZ Z</w>
Hel pful</w>
ec ts</w>
be er</w>
D own</w>
consi stent</w>
Lis bon</w>
any one</w>
h idden</w>
cros s
custom ized</w>
Secret ariat</w>
veget able</w>
vis cos
F E</w>
spec ially</w>
terr it
Plat form</w>
expl os
W ind</w>
fu r</w>
Croati a</w>
U. S.</w>
ex chang
teach ers</w>
direc tory</w>
m ap
partner ship</w>
l ac
at ings</w>
w it
Cub an</w>
Can adi
R S
No kia</w>
he ar</w>
ket ball</w>
T- Shirt</w>
An k
mov ements</w>
u te
s ent
trip wolf</w>
design ated</w>
reli ability</w>
ar tis
W IN
S in
m ul
bacter ial</w>
H aw
del ay</w>
app a
C ot
t ance</w>
inhabit ants</w>
p ip
anti gen</w>
enter tainment</w>
S N
J our
pl anned</w>
Al uminium</w>
th al
in ates</w>
st at
vis its</w>
part ments</w>
sp are</w>
Sa udi</w>
Ma h
l lec
ha z
p ocket</w>
FRE E</w>
F oc
pleas ant</w>
m uc
he ater</w>
D av
vari eties</w>
Pl an
Mo tion</w>
dis count</w>
Conver ter</w>
10 6</w>
L ucky</w>
sub jected</w>
specif y</w>
l ose</w>
4 9
enc il</w>
Ben z</w>
FI D</w>
n on</w>
ic on
Rh in
o ted</w>
6 6
2 10</w>
pos ter</w>
gen es</w>
sub scri
m .</w>
L AN</w>
Mis sion</w>
spea k</w>
Isra eli</w>
schem e</w>
8 9</w>
por ters</w>
ook ies</w>
S W
om m
N an
I cons</w>
n ut</w>
lea f</w>
A venue</w>
Swed ish</w>
G ear</w>
F la
Div ision</w>
Ch al
l unch</w>
to ys</w>
Par ties</w>
cell ular</w>
enc oding</w>
sh ield</w>
pro lifer
L S</w>
tra ff
no vel</w>
pl ated</w>
h ep
Mor occo</w>
Custom er</w>
f eld</w>
sch e</w>
dis closure</w>
pass enger</w>
weg ian</w>
extre me</w>
A er
mass age</w>
in sp
m as
M ask</w>
ug h
bro ad</w>
Pr ague</w>
ch ance</w>
O ber
B A
gre y</w>
dist ances</w>
di vision</w>
s o-
ro ad
enter prise</w>
b ia</w>
Trip Advisor</w>
Z h
H amp
st ones</w>
di oxide</w>
tr ay</w>
UNE SCO</w>
li sts</w>
ro tor</w>
ch a</w>
Adv anced</w>
re fer</w>
F lip</w>
vir al</w>
ann i
sp ent</w>
in form</w>
As si
reg ime</w>
electr ics</w>
f ans</w>
Nor wegian</w>
Comp an
clos ely</w>
mo bility</w>
BE GIN</w>
Fin ance</w>
Electr ical</w>
E state</w>
W id
pro files</w>
Inter nal</w>
Sand als</w>
os ing</w>
Guad al
Me ter</w>
C P
ic ken</w>
f estival</w>
es ides</w>
graph ic</w>
leg s</w>
Fa ucet</w>
ir us</w>
cap abilities</w>
arr ay</w>
Del i
ici ency</w>
Bre athable</w>
sub si
Fer n
book stores</w>
T enerife</w>
plan et</w>
ur is
eng aged</w>
g ap</w>
ac tors</w>
G as
ra p</w>
neum atic</w>
c ust
gro unds</w>
syn chron
Pl anning</w>
combin ations</w>
S now</w>
burg h</w>
f usion</w>
in ches</w>
academ ic</w>
mix er</w>
L C</w>
tr ust</w>
mo vie</w>
end ers</w>
sh or
fun g
sur names</w>
p o</w>
iden tical</w>
ex haust</w>
Sha red</w>
ol ive</w>
ter fly</w>
resp ir
h it</w>
il ization</w>
Lo ose</w>
color ful</w>
ris t</w>
wro te</w>
l an
8 7</w>
tox ic</w>
g lo
T T
pes o</w>
pil ot</w>
1 A</w>
th read</w>
E S
enter prises</w>
inflam mation</w>
proper ly</w>
J av
ox y</w>
deb ate</w>
ed -
Medic ine</w>
S uc
or row</w>
al bum</w>
tr u
in ding</w>
require ment</w>
t od
appro aches</w>
Bo ys</w>
a e
or ces</w>
ma ker</w>
jew elry</w>
di c</w>
pass word</w>
aw ard</w>
Pho enix</w>
Cut ting</w>
p c</w>
met als</w>
ex it</w>
Trans fer</w>
Sta dium</w>
M s.</w>
B C</w>
mar ch</w>
o x</w>
Tac tical</w>
im port</w>
O P
In dic
Ad ditional</w>
z u
Ur ugu
H ave</w>
cr yp
Pos ter</w>
for tun
Fol low</w>
Hom es</w>
ush ion</w>
Surg ery</w>
Sof a</w>
lo on</w>
attem p
Termin al</w>
Fu el</w>
Se ating</w>
ag ers</w>
1 3.
V ar
T ul
14 .
regul atory</w>
B row
op en
sp end</w>
DIRECT ORY</w>
Ma z
sour i</w>
veget ables</w>
Canadi an</w>
IO S</w>
lo ween</w>
Pu zzle</w>
5 ,
est yle</w>
Th re
WHOLESALE DIRECTORY</w>
8 3</w>
7 7
dol lars</w>
Sh ar
d ar
or -
eth anol</w>
stic k</w>
id o</w>
d uty</w>
H ouse
sep tember</w>
is a</w>
Pro f
uc ks</w>
sug gest</w>
s on
F le
contain ers</w>
C ulture</w>
Ad ditionally</w>
sol di
ew er</w>
G etting</w>
R ic
E ye</w>
pot assium</w>
har v
iti zer</w>
Stud y</w>
ambo o</w>
H ills</w>
ed ges</w>
Mar ía</w>
swe et</w>
all -
ab r
Integr ated</w>
publ ication</w>
descri bes</w>
coll ect</w>
pur ification</w>
attri butes</w>
tub ular</w>
R ate</w>
O t
Mis souri</w>
Se as
bo ards</w>
M other</w>
Ham burg</w>
C M
Ep isode</w>
G ri
Ret ur
os oph
St an
pregn ant</w>
MAR KETS</w>
cap ture</w>
un less</w>
ket tle</w>
d ual</w>
il es</w>
R FID</w>
integr ity</w>
P ng</w>
D H
Ber n
J ose</w>
C ard
accel er
combus tion</w>
Tran sparent</w>
l aptop</w>
R T</w>
Hous ing</w>
dis order</w>
imple menting</w>
cent res</w>
D ish
th ick</w>
bel ong
Re ference</w>
graph ics</w>
Pr ince</w>
vis ited</w>
environ ments</w>
1. 3</w>
an ish
A sh
Cha ir</w>
cylin drical</w>
viscos ity</w>
il legal</w>
Ok ay</w>
D ort
2. 0
Con sul
sp ra
R ab
thres hold</w>
al uminium</w>
AS IAN
to s</w>
ad ow</w>
F arm</w>
ack ed</w>
o h
C ov
dec ember</w>
ip z
measure ments</w>
plac ing</w>
CC TV</w>
ASIAN MARKETS</w>
l um
approv al</w>
E dge</w>
oper ative</w>
ran king</w>
i ing</w>
Joh n
perfec tly</w>
ut ation</w>
el ong
happen ed</w>
w ild</w>
o ids</w>
Pe ace</w>
und ai</w>
ter a</w>
protec ting</w>
hol low</w>
b y
G on
viol ations</w>
cy cles</w>
Le ipz
incl usion</w>
deriv atives</w>
Elec tro
ü s
ome try</w>
V ia</w>
Fl ash
ail ing</w>
Dort m
Out let</w>
enti ty</w>
Inter face</w>
f ing</w>
R oman</w>
. net</w>
th r
w ash</w>
su m</w>
s apph
il itation</w>
spea ker</w>
ser um</w>
Fil es</w>
tur ing</w>
fant astic</w>
exp anded</w>
hel ped</w>
dr inks</w>
spe ech</w>
an x
AB LE</w>
e a</w>
Ex peri
Br ush</w>
Viet nam</w>
Gu itar</w>
O ri
Mag ic</w>
dep ic
0. 0
Mich igan</w>
aw a</w>
valu able</w>
L um
air y</w>
SM D</w>
Gu ang
Tob acco</w>
N S
English- French</w>
cri pt</w>
me tics</w>
k ok</w>
Pal ma</w>
M ün
L ift</w>
per forming</w>
set tle
se ek</w>
W ide</w>
Sh ape</w>
F F</w>
c and
SE Q</w>
Lab or</w>
ch ocolate</w>
happen s</w>
abov e-
acr yl
AL L</w>
Sh orts</w>
sup er</w>
him self</w>
studi ed</w>
e ball</w>
pe ts</w>
Liqu id</w>
pe ak</w>
vacc ine</w>
Res pon
In iti
Canc er</w>
SI M</w>
comb at</w>
ac ted</w>
f ts</w>
F ar
Com mon</w>
nerv ous</w>
construc ted</w>
N C</w>
X peria</w>
sp ot</w>
J ud
im possible</w>
In fl
r ide</w>
dis placement</w>
so- called</w>
gre at
amaz ing</w>
switch ing</w>
pre mium</w>
el i
A y
So vi
utili zation</w>
ve -
fru its</w>
ick el</w>
commit tee</w>
ass ess</w>
sec tional</w>
fr action</w>
P OR
y or</w>
special ists</w>
oc tober</w>
Le e</w>
Dem ocratic</w>
add ressed</w>
reflec ted</w>
o therapy</w>
A U</w>
Clos et</w>
fac ility</w>
ar rive</w>
ure thane</w>
G EN
Wi thin</w>
O m
Color ado</w>
Lou is</w>
it ate</w>
Com par
ep id
V an
Res idence</w>
ist ers</w>
fl ag</w>
Pak istan</w>
compress or</w>
ra tions</w>
Qu ar
7 00
is -
E li
func tioning</w>
acti vely</w>
le g</w>
L ess</w>
for th</w>
indic ating</w>
ang o</w>
ti me
m id-
qu artz</w>
P earl</w>
it ual</w>
ran es</w>
Intellig ent</w>
St ock
Hy undai</w>
diagnos tic</w>
coun ting</w>
tr uth</w>
dr inking</w>
de t
Mal aga</w>
b ands</w>
Provinc ia</w>
ill umin
organ isms</w>
ate -
Ma ur
K i
Mon ey</w>
Be verage</w>
surve y</w>
becom ing</w>
L am
Inst all
oly mer</w>
kin i</w>
T- shirt</w>
ak h
ast ing</w>
W D</w>
F ine</w>
es h
Prec ision</w>
institu tional</w>
Pat ent</w>
enti ties</w>
ro ot</w>
G el</w>
le isure</w>
N AT
K az
ed ed</w>
N avy</w>
inj ury</w>
c er</w>
WHOLE SALE</w>
vulner able</w>
tra dition</w>
Z ar
gu y</w>
dis counts</w>
M .</w>
sensi tivity</w>
S trip</w>
form ulations</w>
L T</w>
spea king</w>
B our
Blo od</w>
igaret te</w>
adv ice</w>
z e
j an
evalu ate</w>
s ules</w>
W ol
IL -
5 2
pris on
ic ing</w>
agu a</w>
house hold</w>
gi ene</w>
reg ardless</w>
improv es</w>
dr um</w>
Pu ebl
M ode</w>
invol ving</w>
if ying</w>
et al</w>
G h
Ad ult</w>
ograph ical</w>
199 3</w>
Ma king</w>
B ub
syn drome</w>
tic a</w>
p ut
b lin
program ming</w>
enn ium</w>
oo th
pay ments</w>
v ote</w>
bel ongs</w>
T ask</w>
PL C</w>
shut tle</w>
Compati ble</w>
is ition</w>
g rid</w>
10 5</w>
V acation</w>
spac ious</w>
c oc
Ap p
Comp act</w>
ok .info</w>
t ag
monol ok.info</w>
Her itage</w>
G ER</w>
stainless-steel- case</w>
ov ascular</w>
lo g</w>
ex amination</w>
b its</w>
organ is
concer t</w>
ol der</w>
dro ps</w>
p acking</w>
val ves</w>
Le ft</w>
K lin
a head</w>
d ating</w>
f ec
col on
classi fication</w>
llec tual</w>
F ort
A 1</w>
cast le</w>
G ER
P AS
ti a</w>
peri ods</w>
re store</w>
R ock
y ers</w>
cor d</w>
li thium</w>
encour age</w>
ess entially</w>
Mechan ical</w>
ight ness</w>
agg reg
D .</w>
1 12</w>
in take</w>
bir thday</w>
zz i</w>
cast ing</w>
de struction</w>
W ell
Pe ter
p ants</w>
cr uc
D al
hon ey</w>
PC B</w>
De grees</w>
poly ethylene</w>
z inc</w>
cons ci
P ad
ff s</w>
Vi ol
Extre me</w>
rap idly</w>
ent h</w>
M ER
rel la</w>
believ ed</w>
Mil es</w>
L ate</w>
in ally</w>
discus s</w>
sub jects</w>
S ab
TH AN</w>
LI VE
trans mit</w>
1 30
re fin
Langu ages</w>
refl ect</w>
insul in</w>
T end
F lix
English- Polish</w>
Lear n</w>
Com press
if ug
Austr alian</w>
zz les</w>
en em
ed e</w>
C N</w>
Compan ies</w>
contr ary</w>
T A
prim arily</w>
Pl ant</w>
cl ude</w>
L D</w>
c oding</w>
ingredi ent</w>
Direc tive</w>
dem ocracy</w>
li d</w>
Situ ation</w>
read er</w>
es is</w>
attrac tive</w>
s ongs</w>
Sw itch
art a</w>
fun d</w>
dic tion</w>
col um
retur ning</w>
in sec
C V</w>
an tic</w>
as ive</w>
cr ude</w>
A TER
Vo ice</w>
iv ers</w>
Sci enti
Di agn
Dish washer</w>
Bang kok</w>
inser tion</w>
hum idity</w>
C all</w>
Cir cu
sugg ested</w>
def ense</w>
di pl
tiv ation</w>
Hand made</w>
nov ember</w>
suff ering</w>
top ics</w>
fe e</w>
pro jec
Cl oud</w>
s i</w>
ater ing</w>
b our</w>
see ing</w>
G ym</w>
Je ans</w>
nucleo tide</w>
loc k
D s</w>
ti e</w>
cl icking</w>
ex ists</w>
b ird</w>
Sou thern</w>
Mall orca</w>
tran sparency</w>
Treat y</w>
induc ed</w>
emb ro
04. 2018</w>
M ary</w>
consult ation</w>
atch ed</w>
str o</w>
gre atest</w>
W ood
benef icial</w>
tr ied</w>
ol ar
D a</w>
St op</w>
reli ef</w>
legis l
v oc
G ul
Ap k</w>
particip ated</w>
cer tification</w>
guarante es</w>
p y
fac tion</w>
M od</w>
possib ilities</w>
ou l</w>
C lip</w>
periph eral</w>
collec tive</w>
phosph ate</w>
compu ters</w>
E .</w>
surround ed</w>
gen ic</w>
ed y</w>
y ar
dec ades</w>
work shop</w>
dil uted</w>
ac compl
sl ide</w>
New est</w>
ma x</w>
English- Czech</w>
ri sts</w>
cal endar</w>
T om</w>
Compon ents</w>
fol d</w>
is o
c at
E ther
Chris t</w>
ess ed</w>
Am pl
bo ys</w>
Purch ase</w>
e ur
str onom
T B
op ens</w>
Pos ition</w>
In cre
i as</w>
str a</w>
he ads</w>
dep end</w>
gradu ate</w>
es tive</w>
necess arily</w>
od er</w>
amp oo</w>
press ing</w>
anal ys
LIVE STORE</w>
s low
F P</w>
sur name</w>
Ch ev
terror ism</w>
eng agement</w>
occur red</w>
mat ters</w>
fe eling</w>
repe ated</w>
c am</w>
del e
P ra
b un
do s</w>
cr u
ab use</w>
survi val</w>
Ch ap
n avigation</w>
Hard ware</w>
at oes</w>
umb ia</w>
dec ide</w>
Sovi et</w>
c us</w>
phenom enon</w>
ex e</w>
4x 4</w>
Len ovo</w>
ab ling</w>
Hondur as</w>
eg g</w>
bro ther</w>
Co ast</w>
A le
it ted</w>
Dub ai</w>
c ence</w>
Por sche</w>
J O
GRE ATER
Bear ing</w>
GREATER THAN</w>
phosph or
gran d
T ou
ux e</w>
p es</w>
cl ubs</w>
Ther mal</w>
or i</w>
bl u
sched uled</w>
E vents</w>
P en</w>
n atur
icon duc
b ell</w>
endor f</w>
nor thern</w>
N avigation</w>
Con stitution</w>
10 8</w>
ash ion
Ul trasonic</w>
Stuttg art</w>
Environ ment</w>
t ours</w>
to y</w>
Spr ay</w>
th read
scienti sts</w>
LI GHT</w>
ref use</w>
foun ded</w>
ll a</w>
on going</w>
subsequ ently</w>
ell ery</w>
G ardens</w>
Bo y</w>
E very
c odes</w>
Mic hel
Corpor ation</w>
pre vents</w>
g ay</w>
ven ti
In dex</w>
r ab
advent ure</w>
p ipes</w>
expl ain</w>
C ann
ori ented</w>
f ed</w>
cellul ose</w>
Ce iling</w>
Bro ad
en za</w>
Pol i
M AT
St y
Ib iza</w>
r d</w>
4. 0</w>
i el
Sal es</w>
g one</w>
Dec laration</w>
M á
air fares</w>
mun icipality</w>
seg ments</w>
b les</w>
lim iting</w>
suc c
m ad
great ly</w>
pr ison</w>
op ol
ili ary</w>
FRO NT</w>
n a
r id
Gran ada</w>
cir cul
fel t</w>
str ing</w>
pack et</w>
enz hen</w>
In troduc
w aves</w>
i re-
Flex ible</w>
De ep</w>
g ue</w>
exc essive</w>
s anc
val id
Cas tell
dem ocratic</w>
cer em
ap point
vi an</w>
M and
ro s</w>
z ones</w>
tion -
V O
ten d</w>
og ne</w>
eth yl
ri tis</w>
C in
si t</w>
am in</w>
LE S</w>
ber ries</w>
O ven</w>
at t</w>
w t</w>
cap sule</w>
sustain ability</w>
ic op
17 0</w>
intellig ence</w>
2. 4</w>
pr on
ang er</w>
Lim a</w>
are n</w>
The atre</w>
is er</w>
is ex</w>
driv ers</w>
et able</w>
Em ploy
const antly</w>
establish ing</w>
Boli via</w>
i i</w>
Pi er
- 1</w>
wh om</w>
Str uc
E au</w>
author ized</w>
1 1.
tang ular</w>
G I
Ad vertising</w>
In divid
conver ted</w>
Carm en</w>
cam eras</w>
Sn ow
10 ,000</w>
c ue</w>
so ap</w>
bro ken</w>
Princip al</w>
Sil k</w>
AU TO
Dres den</w>
K h
marri age</w>
str y</w>
oc ean</w>
fac ts</w>
a ks</w>
Yam aha</w>
Purch ased</w>
poll ution</w>
dos es</w>
g ot
Educ ational</w>
ac o</w>
sh ift</w>
pass ing</w>
th y</w>
Smo king</w>
Swe et</w>
ch ina</w>
man n</w>
t al</w>
S ug
ex terior</w>
J .</w>
Stic ker</w>
S av
cir cle</w>
Com mission
d ental</w>
Bl ade</w>
Rob ert</w>
p ush</w>
alco hol
On t
PC R</w>
Gr ade</w>
bl ing</w>
pul se</w>
ab road</w>
A ren
hus band</w>
s ong</w>
hom ogen
S lip
vel ty</w>
tob acco</w>
M O</w>
C ay
en abled</w>
En d</w>
de z</w>
euro s</w>
P etro
spec trum</w>
Clean er</w>
suc tion</w>
r iding</w>
produc ers</w>
imil arly</w>
substanti al</w>
c ion</w>
difficul ties</w>
inter ference</w>
s essions</w>
Instrum ents</w>
SE T</w>
tur bine</w>
re combin
demonstr ated</w>
ar -
S ri</w>
Answ ers</w>
chem icals</w>
P in</w>
ur ious</w>
ri o</w>
ol o</w>
n i</w>
D id</w>
B all
secre t</w>
b ad
P ost</w>
7 20
enc ryp
Res idential</w>
proxim al</w>
P ep
ar c
IT E</w>
Air lines</w>
Roll er</w>
Hal loween</w>
H ER</w>
Al li
te lec
Ren ault</w>
f ish
differ enti
conserv ation</w>
lis ten</w>
ri f
h ose</w>
Rec order</w>
Sum mit</w>
Mun ich</w>
and o</w>
Low est</w>
pass es</w>
no ver</w>
clud es</w>
w ound</w>
sel dorf</w>
K itchen
In jection</w>
b uses</w>
invest ments</w>
appl ies</w>
Pen al</w>
Bay ern</w>
porte ur</w>
Enter prise</w>
H ou
m ature</w>
Vari ous</w>
bran ch</w>
F R</w>
crim es</w>
AB O
asp ir
G am
Key words</w>
Deli very</w>
in um</w>
L M</w>
P acking</w>
Bul gar
Hor iz
uni versities</w>
bi om
ga ther
c rown</w>
ropol itan</w>
W ill</w>
sou thern</w>
ar row</w>
CH IN
Moun ted</w>
2 40</w>
Rec omm
H S</w>
j us
aur us</w>
remo ving</w>
ap art</w>
B og
analy zed</w>
man ip
p en</w>
im migration</w>
S neakers</w>
Cont ent</w>
relation ships</w>
app s</w>
jud icial</w>
happ en</w>
plat forms</w>
all ine</w>
de posit</w>
chol ester
Meth od</w>
st an</w>
W -
Fr on
PO WER</w>
Sh enzhen</w>
US E</w>
ok ay</w>
sing le-
sl iding</w>
thre ats</w>
V R</w>
tit anium</w>
ra ft</w>
but tons</w>
RE AR</w>
og y</w>
min ute
Lab or
reve aled</w>
Sou th
sen ding</w>
pro portion</w>
ob taining</w>
loc ked</w>
4 50</w>
g ifts</w>
Ess ential</w>
D üs
B avaria</w>
Pre par
Mod els</w>
week end</w>
liter ature</w>
Ama zon</w>
actu ator</w>
refug ees</w>
di al</w>
Stra ight</w>
tr e</w>
ign s</w>
0. 2</w>
ap pointed</w>
L i</w>
Ta p</w>
Dr agon</w>
Perf ect</w>
meth anol</w>
Res istant</w>
9 5
app le</w>
30 -
le v
O O
ec tive</w>
Scre w</w>
traff icking</w>
v ital</w>
cons tit
8 5
reserv oir</w>
6 7
de pression</w>
comp ressed</w>
dec la
ub a</w>
LE R</w>
Cho ose</w>
oc kets</w>
He avy</w>
English- Hungarian</w>
Out put</w>
sty les</w>
T ech</w>
cur ve</w>
achiev ing</w>
co al</w>
sec ret
2 A</w>
Sk y</w>
r ug
ten ing</w>
Th ose</w>
N ot
o ol
P sych
Gu aran
a king</w>
Min im
l ung</w>
P y
Wis cons
Comfor t</w>
ch ains</w>
Tw o
ath le
anni versary</w>
minute .com</w>
attem pt</w>
h ot
retur ns</w>
bloc k
compens ation</w>
S ound
last minute.com</w>
Or der</w>
well- known</w>
L uggage</w>
Y outh</w>
mil lions</w>
Br un
prepar ations</w>
Mar k</w>
pow ered</w>
eas ed</w>
Motor ola</w>
no on</w>
nation ality</w>
d ering</w>
Phot ography</w>
her itage</w>
vir tu
d in
trav el
ro und
respir atory</w>
I gn
e ph
transmit ter</w>
199 2</w>
F ro
enti tled</w>
g el
E uro</w>
it y-
M ouse</w>
tend encies</w>
ca ke</w>
P G</w>
L .</w>
harm ful</w>
ure ment</w>
L ind
w are
i an-
contrac ts</w>
ste ering</w>
- 1
K on
pre me</w>
pop ul
l ight
Sur face</w>
fif th</w>
dam aged</w>
reg ener
Rol l</w>
T I</w>
H at</w>
es .com</w>
tor que</w>
Th ai</w>
A V</w>
sc ore</w>
ent re
tow els</w>
M iss
Embro idery</w>
new sp
Wiscons in</w>
modi fication</w>
con v
Gu ard</w>
2 nd</w>
4 K</w>
K ent
grad ually</w>
Se bas
Th eme</w>
K aw
rec re
bul k</w>
Bulgar ia</w>
nor mal
fr ames</w>
u h</w>
e ating</w>
mus cles</w>
com partment</w>
addi tives</w>
ch icken</w>
ti er</w>
For m</w>
mic ros
I ber
f ighting</w>
im plant</w>
hor se</w>
B ow
adv oc
bl end</w>
algori thm</w>
Div orces</w>
m ist
L amps</w>
se aled</w>
Ab stract</w>
1 .</w>
we stern</w>
dist ant</w>
str ug
ch rist
idi fier</w>
th ank</w>
p iv
s culp
lub ric
Dig itizer</w>
B and
duc t</w>
ur ine</w>
invi ted</w>
Gu n</w>
One Two
N ev
Mater ials</w>
S ul
ra k
Col umbia</w>
furn ished</w>
infra red</w>
determin es</w>
Ly on</w>
Com bin
dem ands</w>
commer ci
P V</w>
up lex</w>
en for
w ich</w>
P H
mo ves</w>
coll ar</w>
ass um
R ib
Post al</w>
gol den</w>
af fordable</w>
pyr amid</w>
At t
elev ator</w>
Ma xim
c i</w>
Em p
conduc tive</w>
comb ine</w>
aut onom
ö r
w atches-
Anal y
Rec or
combin es</w>
trac king</w>
ha ven</w>
appreci ated</w>
the -
s ink</w>
dis h</w>
Gl asses</w>
K am
id ays</w>
th y
x y</w>
wor ry</w>
K G</w>
ish i</w>
im ported</w>
D i</w>
top ic</w>
Vol vo</w>
Brit ain</w>
ag ree</w>
Fe aturing</w>
ester day</w>
SQ L</w>
hab ilitation</w>
continu ously</w>
Cost ume</w>
colum ns</w>
at ro
GH z</w>
over come</w>
OneTwo Trip.com</w>
t ants</w>
cos metic</w>
s itting</w>
pur ple</w>
Al ger
out standing</w>
rec ru
mov ies</w>
analy zing</w>
Por trait</w>
ous tic</w>
BL ACK</w>
aff ir
Pi eces</w>
coun ter</w>
roman tic</w>
des ktop</w>
Ir oning</w>
ush es</w>
Mo on</w>
H as</w>
see king</w>
gran ted</w>
deploy ment</w>
A 4</w>
Nov a</w>
ati tis</w>
f oundation</w>
pre neur
hor mon
g ases</w>
di verse</w>
24- hour</w>
t ar</w>
emp ty</w>
em br
run s</w>
plo t</w>
oo p</w>
ou n</w>
tom orrow</w>
Boo ks</w>
V ila</w>
199 0</w>
inter active</w>
Qu ad
Sol utions</w>
Fri endly</w>
trav eling</w>
m ph
renew able</w>
s cap
S aving</w>
Adv ant
er ts</w>
on i</w>
di esel</w>
Det ailed</w>
govern ance</w>
agn e</w>
nam ely</w>
K in
J al
DRI VER</w>
sapph ire-
Th in</w>
olog ically</w>
I G
i ther</w>
Custom ized</w>
ju ly</w>
ussi ons</w>
sapphire- glass</w>
exchang er</w>
E T
prov ed</w>
bal anced</w>
ran ce</w>
Tend ances</w>
Mach inery</w>
Con sum
as onic</w>
The ir</w>
br inging</w>
CO 2</w>
w -
Install ation</w>
P air</w>
sle ev
ord ered</w>
ener g
Ph ys
gly co
guid ance</w>
cal culation</w>
k r
compl ications</w>
m ill
dur able</w>
S AN</w>
re aches</w>
Pal m</w>
Sh er
enc oun
ash es</w>
em plo
rot ating</w>
su perior</w>
oo s</w>
OR S</w>
Ar k
vis ual
Th es
C HE
9 8
i vely</w>
Tw itter</w>
t ops</w>
ri b
van ized</w>
restric tions</w>
exec ution</w>
ch i
b attle</w>
Wel ding</w>
frag ment</w>
vi vo</w>
ran ging</w>
kn ife</w>
AC E</w>
Op el</w>
att achment</w>
li a</w>
f ear</w>
mit ter</w>
f ications</w>
- H
W O</w>
venti lation</w>
Enter tainment</w>
A I</w>
GS M</w>
separ ately</w>
Coll ar</w>
dou ble-
m otes</w>
bi e</w>
pro sec
Pro file</w>
ic acy</w>
ack n
Memb ers</w>
oxid ation</w>
Comp ound</w>
Th omas</w>
Je ep</w>
PR O</w>
N ote
l ay</w>
Laun dry</w>
B E</w>
connec ts</w>
C AS
disper sion</w>
frag ments</w>
gr ass</w>
Sy ria</w>
repres enting</w>
eng age</w>
A ven
Mo to</w>
L AN
admin istr
V ista</w>
Wa ke-up</w>
m one</w>
igh ter</w>
Tri m</w>
ha us</w>
Sustain able</w>
tro pical</w>
motor cycle</w>
Paul o</w>
con cluded</w>
u tility</w>
bir ds</w>
in jec
S eller</w>
Ether net</w>
im aging</w>
eth nic</w>
C ord
respon ses</w>
trans actions</w>
j e</w>
confir m</w>
stra in</w>
Cy lin
lo vers</w>
os y
cor ruption</w>
ai red</w>
improv ements</w>
evalu ated</w>
log ical</w>
di amond</w>
owle d
Cas es</w>
tif y</w>
Leipz ig</w>
ati vity</w>
Ed itor</w>
j une</w>
au ge</w>
flu x</w>
AP P</w>
cas ual</w>
acqu isition</w>
Br ight</w>
C air
cl oth</w>
mol ding</w>
W ear</w>
Olymp ic</w>
fi re
c alling</w>
Cl ass
leg i
g ardens</w>
an es</w>
20 00
Mon ter
2 pcs</w>
ur ities</w>
polymer ization</w>
impro per</w>
Camp o</w>
bur n</w>
3 20</w>
tr im
San to</w>
be ads</w>
Gran de</w>
Strateg y</w>
introduc e</w>
tr ading</w>
fa ith</w>
remain ed</w>
ro ut
Rec eiver</w>
- R
re tro</w>
ex amin
Vin yl</w>
G row
AT A</w>
offic ers</w>
c atering</w>
H TC</w>
smo ke</w>
An gle</w>
comple tion</w>
br ass</w>
Agric ulture</w>
M i</w>
fail ed</w>
opl astic</w>
l umin
P AN
Commission er</w>
consider able</w>
Cal le</w>
pro fit</w>
vari ables</w>
Fru it</w>
ar th
Secre t</w>
s martphone</w>
ag e
recombin ant</w>
concep ts</w>
o ch
ic ed</w>
Doc tor</w>
it ations</w>
pres erv
Comple te</w>
us ive</w>
sulf ate</w>
lic ense</w>
Pun ta</w>
Af fordable</w>
dis pers
gra in</w>
p tions</w>
Lod ge</w>
we alth</w>
cholester ol</w>
ad verse</w>
gre en
Colomb ian</w>
char ges</w>
h at</w>
U T</w>
Tra ins</w>
res ted</w>
á rez</w>
ligh ted</w>
cor on
0 8
le ver</w>
docum entation</w>
House hold</w>
c lic</w>
al ize</w>
frequ ent</w>
Infra red</w>
ap ers</w>
err ors</w>
e ze</w>
Min i
Pan asonic</w>
cl ar
el e</w>
shap es</w>
st airs</w>
clos es</w>
K os
ar bit
Ur ban</w>
p umps</w>
over view</w>
li ved</w>
ass is</w>
cardi ovascular</w>
Chem ical</w>
en abling</w>
c ed
clos er</w>
Thes aurus</w>
over -
Can on</w>
roll ing</w>
demon strate</w>
di m
c ute</w>
is lands</w>
S O</w>
Non- smoking</w>
n ose</w>
ate ver</w>
Americ as</w>
am end
organis ations</w>
inter s</w>
susp ended</w>
f a</w>
AS S</w>
cour ts</w>
M I</w>
ob b</w>
Arab ic</w>
infec ted</w>
her o</w>
al lo
25 00</w>
sh ock</w>
Kil ometer</w>
electr onics</w>
C F
ic e-
roug h
re t</w>
T Y
we igh
indic ation</w>
Requ est</w>
CO M</w>
collec ting</w>
Rec ent</w>
Art works</w>
st ories</w>
gu ided</w>
In side</w>
Pl as
develop ments</w>
on ed</w>
l aga</w>
let te</w>
lin ing</w>
bot tles</w>
pre tty</w>
pack ages</w>
Mess enger</w>
br a</w>
p ick
Nor th
Me di
ti se</w>
n esses</w>
Pro jector</w>
se ater</w>
c ables</w>
R af
ar ts</w>
ir r
AR DS</w>
F ant
C TR
ven ing</w>
T os
in er</w>
X P</w>
promis e</w>
tem plates</w>
Dortm und</w>
enzy mes</w>
5. 5</w>
Un isex</w>
Sever al</w>
S ão</w>
emer ging</w>
SM S</w>
fol ding</w>
viol ation</w>
fr on
star ch</w>
marri ed</w>
Rail way</w>
employ ee</w>
st adt</w>
decre ased</w>
2. 1</w>
An nex</w>
r are</w>
G ate</w>
18 .
mar ble</w>
stim ul
s lip</w>
invest ors</w>
b ond</w>
LT D</w>
Cool ing</w>
P riv
independ ence</w>
adop t</w>
E P
grow n</w>
WO MEN</w>
- S
cor n</w>
im mer
H F</w>
we ak</w>
w ool</w>
sp her
metabol ism</w>
- B
oper ates</w>
E th
absol ute</w>
Bur g
possib ly</w>
in der</w>
il li
fl ange</w>
ra ys</w>
L D
ant ation</w>
Atl antic</w>
ev ol
sol vents</w>
ver ify</w>
Attor neys</w>
V O</w>
Dro p
cap sules</w>
D at
tar gets</w>
A h
gen uine</w>
ran ges</w>
back -
robo t</w>
ex act</w>
dom ains</w>
bre ad</w>
belong ing</w>
ven d
consi st
mar i
c k</w>
Ath ens</w>
sor ry</w>
long -
est ers</w>
R iv
B y
m n</w>
calcul ate</w>
Ox ford</w>
Ari zona</w>
ta p</w>
Lin col
S AN
E v
ach t</w>
yl -
p ast
fol io</w>
m ys
e iro</w>
coun ted</w>
con du
50 -
sum mary</w>
c ure</w>
rig id</w>
Y oga</w>
Direc tor
vari ant</w>
Ont ario</w>
y lic</w>
F low</w>
ta il
per -
Le ón</w>
add resses</w>
Dani el</w>
5 4
r in
Y ears</w>
ab or
L ord</w>
FI GS</w>
F ive</w>
G all
Cor ner</w>
N A
id ine</w>
fi b
the ast</w>
Ar ticles</w>
tou rists</w>
descri be</w>
WE GO
Head set</w>
conve yor</w>
cl ou
h ill</w>
ge ted</w>
sa una</w>
Ba ja</w>
0 6
Re f
affec ting</w>
WEGO SHOP</w>
Langu age</w>
ati gue</w>
l as
os s
artis tic</w>
Par ticip
ch airs</w>
decla red</w>
col ored</w>
Kent ucky</w>
trans action</w>
ap h
intellig ent</w>
exp ect</w>
ie ties</w>
stir ring</w>
j an</w>
H B
christ mas</w>
RE N
acqu ired</w>
see m</w>
l aid</w>
lin king</w>
spec tac
u i</w>
W A</w>
commun icate</w>
authentic ation</w>
R ings</w>
ra ving</w>
fr iction</w>
R A</w>
Isl amic</w>
p ill
d ay
cho osing</w>
Techn ologies</w>
D M</w>
w ifi</w>
candi date</w>
s or</w>
a es
man date</w>
un known</w>
Ar men
Or land
C oc
Exc el</w>
fortun ately</w>
en th
aw arded</w>
sen ior</w>
Experi ence</w>
he av
ob ic</w>
Sun glasses</w>
w inning</w>
hum ans</w>
whe at</w>
p .
K er
Ste ering</w>
J un
5 3
s h</w>
pr o</w>
Afgh an
Ch am
farm ers</w>
co ast
st ands</w>
TV C-
An dr
burg -
9 6
may be</w>
vi bration</w>
La wy
des ire</w>
Per manent</w>
ter -
ambi ent</w>
Be ads</w>
depar ting</w>
ran dom</w>
electro des</w>
UR E</w>
c ock
b ic
2 30</w>
Flix bus</w>
ak ed</w>
j uris
ert ys</w>
gu ys</w>
Lawy ertys</w>
pow ers</w>
d ys
g la
w aters</w>
Vill as</w>
R .
initi ally</w>
ug e
hear ing</w>
Indones ian</w>
pep tides</w>
oc ks</w>
cl uding</w>
ain ing</w>
A ds</w>
state ments</w>
ling ual</w>
Ar ti
volun te
reflec tion</w>
pop ulations</w>
ol i</w>
L ang
co s</w>
S L</w>
n ations</w>
z i
d ered</w>
w ard
Pre mi
pro motes</w>
AU TO</w>
A E
e- mail</w>
F und
Man chester</w>
B ash
Nic ar
SUN ROOF</w>
utili zed</w>
A ustin</w>
frequ ently</w>
out come</w>
N P
b ound
ar omatic</w>
k no
R is
K im</w>
L C
7 4
sil icon</w>
I denti
Econom y</w>
prov inc
fi x</w>
clin ic</w>
F oun
0 4
RE D</w>
prolifer ation</w>
Cros s
anti bio
R og
Foc us</w>
rig ation</w>
iv ed</w>
A verage</w>
cul tures</w>
ev ent
dish washer</w>
St age</w>
Cr yp
w ouldn</w>
O li
L ac
mort ality</w>
lo v
N ob
F ather</w>
la sting</w>
emo tional</w>
St ars</w>
con vers
Afghan istan</w>
Rhe in
ch est</w>
cop olymer</w>
ad der</w>
po t</w>
o e</w>
G T</w>
pro ve</w>
H ilton</w>
DO OR</w>
Play ed</w>
ch ief</w>
Coun tries</w>
p ra
degrad ation</w>
fal ls</w>
Del uxe</w>
Con nect</w>
Má laga</w>
for um</w>
M K
centr ifug
h ook</w>
Z IP</w>
Head light</w>
T ig
K re
ang a</w>
W ave</w>
Orland o</w>
de a
them a
m M</w>
sav ings</w>
Certif icate</w>
In spec
n odes</w>
Resour ces</w>
Al ab
mus ical</w>
er ic
Micro phone</w>
ew ing</w>
ex ports</w>
for ma
al ine</w>
re aching</w>
occ as
mor ph
hydrox y
az z</w>
Vis ual</w>
k i
l ux
Th ank</w>
P el
qu ir
mut ual</w>
en berg</w>
w ild
for get</w>
sav ed</w>
en to</w>
rot ary</w>
log ic</w>
un ci
se ats</w>
neigh bour
tig h
R ail</w>
tex tile</w>
me ant</w>
experim ents</w>
priv il
Br onze</w>
compet ent</w>
con clusion</w>
Vehic les</w>
ten der</w>
H ur
rep utation</w>
Bo ston</w>
In -
fe bruary</w>
f on
inte llectual</w>
Car di
phil osoph
aug ust</w>
cruc ial</w>
Co ord
N ep
re tr
read ily</w>
F em
per haps</w>
5. 0</w>
16 0
Co operation</w>
pres er
par ks</w>
K ur
j er
g -
dy nam
L ap
AG E</w>
Ne u
per mit</w>
Inter -
zu ki</w>
d ressing</w>
at or
Me dium</w>
independ ently</w>
consid ering</w>
suffici ently</w>
Anti que</w>
k ir
as ka</w>
dis aster</w>
M R
m id</w>
Represen tative</w>
anti oxid
su its</w>
ad oles
cas e-
p ping</w>
po ol
Be ige</w>
dic h
pro of
cryst alline</w>
Graph ics</w>
L ayer</w>
ec cion</w>
Gon z
sta ke
S axony</w>
Sp anish
Jav anese</w>
Ital ian-
contr ib
exclus ively</w>
Andal us
S port
Jo int</w>
integr al</w>
resul ted</w>
Tit anium</w>
ch am
v ascular</w>
pri orities</w>
high- speed</w>
uge ot</w>
f ra
ba o</w>
For mer</w>
ch in
Pic ture</w>
Tor onto</w>
S cr
Fi re
vis ed</w>
Im port</w>
tod ocol
pro mp
enjo ying</w>
Us ers</w>
Tur bo</w>
Ex hib
lif ting</w>
uck land</w>
analy ze</w>
Wh olesalers</w>
todocol eccion</w>
jan uary</w>
in ven
appa rent</w>
hi king</w>
a ud
Fres h</w>
Urugu ay</w>
we aring</w>
ro p
re frigerator</w>
r is</w>
Hy dro
1. 6
In s
re nov
Kö l
Cas h</w>
trans cription</w>
om er
autom ated</w>
or th
fl ats</w>
Y ou
Crim inal</w>
tr ials</w>
polymer ic</w>
li fe
Land scape</w>
prec ise</w>
expl an
cerem ony</w>
ef s</w>
Lt d.</w>
s ampl
neighbor hood</w>
in ver
et ts</w>
detec ting</w>
no tice</w>
in as</w>
18 0
se -
d est</w>
Mur cia</w>
He ights</w>
S equ
im posed</w>
us a</w>
thre at
Mass age</w>
Ex tra</w>
su d
S cript</w>
selec ting</w>
de hy
olog ist</w>
l y-
at ured</w>
bet ting</w>
R ub
man ually</w>
att ended</w>
add le</w>
S B
there in</w>
D ental</w>
sk ill</w>
199 1</w>
fac ial</w>
J E
clus ions</w>
Cle an</w>
high lighted</w>
z io</w>
Mon te</w>
in ator</w>
SP OR
B ass</w>
RI GH
L TE</w>
tion ers</w>
Catal onia</w>
St adt</w>
Con ven
ver ified</w>
ul ing</w>
mis es</w>
evapor ated</w>
Pic tures</w>
C ul
kid ney</w>
G or
train ed</w>
deter i
fal z</w>
ra ising</w>
ION S</w>
gro ove</w>
c row
10 3</w>
end it
es ity</w>
mac ro
carri ers</w>
war ning</w>
Ch ief</w>
real -time</w>
T ap
1. 9</w>
los ses</w>
sol ub
Invest ment</w>
surve illance</w>
ob st
ent -
comp ly</w>
Dis ney</w>
cli p</w>
k ar
over e
la w
Fo g</w>
p aste</w>
incre dible</w>
Sev ille</w>
ad ise</w>
1 200</w>
St ate
correc tly</w>
Niger ia</w>
f uc
tr ail
k u</w>
Govern ments</w>
f air
Hol y</w>
H KT
experim ent</w>
ot t</w>
og rap
ion ship</w>
co gn
where by</w>
inter nation
follow -up</w>
ca th
tic ity</w>
br on
v ast</w>
per cep
conflic ts</w>
Dub lin</w>
il -
re min
ach us
E U
ex ported</w>
fl ying</w>
mel ting</w>
auth ors</w>
Phil ips</w>
loc ate</w>
A 3</w>
mel t</w>
jew els</w>
particip ating</w>
be verage</w>
emul sion</w>
arriv ing</w>
Chil ean</w>
ji ang</w>
b ay</w>
Di pl
config ur
T ester</w>
UN ICE
Ar m</w>
c up
Re ader</w>
re tention</w>
s ville</w>
Ver tical</w>
h oo
mag net</w>
Hand held</w>
map .com</w>
Pe ugeot</w>
ad ds</w>
Le ad
form ats</w>
ti m</w>
tur ning</w>
Ch el
met allic</w>
al ignment</w>
ommun ications</w>
v is</w>
H er</w>
accoun ting</w>
Mon te
on map.com</w>
road onmap.com</w>
usin ess
tras ound</w>
T og
tion ery</w>
st ats</w>
m ount</w>
Hoo ded</w>
D ir
vit ro</w>
re active</w>
op position</w>
at ric</w>
uni or</w>
D ance</w>
u tely</w>
N E</w>
coll ap
N ord
por trait</w>
R U
me al</w>
ver ification</w>
em ed</w>
Mass achus
ne ts</w>
H A
bas in</w>
ti al</w>
. exe</w>
vari ations</w>
tex ts</w>
character ised</w>
Bir m
pil low</w>
www. roadonmap.com</w>
In stitu
furn ace</w>
excep tional</w>
am ent
or ph
cot tage</w>
Hol low</w>
cap it
be ar</w>
PT ION</w>
g loves</w>
stro ke</w>
de m</w>
expl ains</w>
visual ize</w>
Tur n</w>
Rap porteur</w>
win ding</w>
mis sing</w>
scre ening</w>
Massachus etts</w>
acu zzi</w>
mo stly</w>
Op tions</w>
fin dings</w>
ec osy
Cap ital</w>
Lab el</w>
aut o
SE AT</w>
Specif ications</w>
por ous</w>
contri butes</w>
H A</w>
Su preme</w>
Expl ore</w>
sub mit</w>
Alab ama</w>
p airs</w>
im pressive</w>
Dis counts</w>
el as
mag azine</w>
A AA</w>
excep tion</w>
Pro motion</w>
7 6
dig its</w>
Pi x
it iner
enh agen</w>
and er
tic o</w>
g ym</w>
b in</w>
E vening</w>
phot ograph
Ac c
head quarters</w>
Arab ia</w>
1 15
k h
our g</w>
deriv ative</w>
o res</w>
Differ ent</w>
Z ur
RO M</w>
work shops</w>
la -
inter view</w>
Tan z
f atigue</w>
cont amin
wri ter</w>
R .</w>
Im migration</w>
be ar
quanti ties</w>
M ak
í o</w>
K le
cap ability</w>
N ar
c oo
J im
Z one</w>
Bu ff
hol m</w>
Res erve</w>
tr ib
H ose</w>
AR T
Div ing</w>
Uni que</w>
AS ALE</w>
Lear ning</w>
bul b</w>
accommod ations</w>
P av
G iv
CHIN ASALE</w>
t z</w>
ab stract</w>
Rob ot</w>
ó r
eng ines</w>
mod ern
specif ication</w>
f i</w>
lo an</w>
a ju
Op tional</w>
vari ation</w>
D ak
regul ated</w>
Produc er</w>
M otel</w>
a ic</w>
Sc ale</w>
He ater</w>
b atch</w>
l ers</w>
soldi ers</w>
ai a</w>
ant i</w>
C S</w>
O D</w>
conj unction</w>
Trans mitter</w>
a uc
per forms</w>
Swim wear</w>
A uckland</w>
Cer tified</w>
strong ly</w>
S 8</w>
TVC- Mall</w>
om et
lo ts</w>
Gl as
UNICE F</w>
appli ances</w>
Ang el</w>
k ins</w>
chro me</w>
Up dated</w>
X i
Re fl
P ound</w>
sco res</w>
edi ted</w>
sh ore</w>
HKT DC</w>
ace tic</w>
o z
conver t</w>
Z TE</w>
K el
VEN TION</w>
20 2</w>
è re</w>
psych ological</w>
1. 5
et ta</w>
The ater</w>
c amp</w>
al b
3. 1</w>
M ill</w>
os te
super market</w>
CE O</w>
Leg al</w>
Dr yer</w>
Bang lad
boo ts</w>
identi fying</w>
atch work</w>
N H
h ub</w>
ammon ium</w>
Italian- English</w>
enfor cement</w>
f ies</w>
resid ues</w>
eur -
Bran ds</w>
resid ual</w>
fer ring</w>
as aki</w>
th el
o in</w>
mis s</w>
Z oom</w>
precip itation</w>
m yst
x -
br acel
ban king</w>
S car
AR T</w>
up grade</w>
on ne</w>
D IN
Cl im
complex ity</w>
acc ident</w>
toc ols</w>
odi c</w>
ine a</w>
Düs seldorf</w>
inhib itor</w>
feed back</w>
invol ve</w>
B in
c ents</w>
Qu int
ad sor
dis placed</w>
é r
A ge</w>
dis abled</w>
G ard
English- Dutch</w>
AR D</w>
m ill</w>
ph a</w>
commit ments</w>
Introduc tion</w>
F S</w>
dr ag
R are</w>
y right</w>
A ward</w>
w ick</w>
four -
spir itual</w>
Innov ation</w>
Eff ect</w>
pep per</w>
de fe
man aging</w>
us al
Con cer
symb ols</w>
insp ired</w>
di tions</w>
cou ples</w>
K at
K O
was n</w>
requ iring</w>
vol umes</w>
Su zuki</w>
lin en</w>
. 1</w>
Sy rian</w>
pot entially</w>
in os</w>
est a</w>
sil k</w>
continu ing</w>
adap tation</w>
Chair man</w>
b ill</w>
ig -
b all
Fal ls</w>
sub ishi</w>
ABO ARDS</w>
Lab our</w>
open ings</w>
G RO
lex .europa.eu</w>
eur- lex.europa.eu</w>
A ur
Sug ar</w>
Ph ase</w>
en ers</w>
dich lor
tar geted</w>
after noon</w>
at on</w>
is ely</w>
relig ion</w>
clean er</w>
isc al</w>
lear ned</w>
W rist
Ali bab
Slo v
o h</w>
il ia</w>
fro zen</w>
F ish
eff icacy</w>
de tention</w>
cl onal</w>
su it
7 2
K W</w>
in jected</w>
Se oul</w>
Ex plo
16 V</w>
- of-
E sp
De al
Ad ap
nu ts</w>
mean ings</w>
isol ation</w>
g y
scre ws</w>
disc ussions</w>
sk aya</w>
pro jection</w>
s ounds</w>
CT ION</w>
B ody
Tex t</w>
Com peti
iz ations</w>
Alex ander</w>
Qu ad</w>
Sud an</w>
M ob
ste dt</w>
al e
ashion able</w>
Nap les</w>
Sho e</w>
mar ker</w>
1 14</w>
vir uses</w>
toler ance</w>
Moun tains</w>
K its</w>
U L</w>
Argent ine</w>
tour nament</w>
statis tical</w>
C RE
defin es</w>
bl ack
Roman tic</w>
ty ard</w>
B LU
Tr in
ul ty</w>
R 1</w>
K Y
Ch arm</w>
econom ies</w>
Syn thetic</w>
min istry</w>
ond ed</w>
Cab inet</w>
person ality</w>
Gro ups</w>
pos s
D an
2 h</w>
D ong
b is
Kn ife</w>
trans duc
b owl</w>
hydr ate</w>
Sch ools</w>
Prof essor</w>
Le ad</w>
U T
M L
bil ateral</w>
Bub ble</w>
H ab
Str ong</w>
Ju árez</w>
R un
ax es</w>
er ia</w>
termin als</w>
ish ment</w>
A X
slow ly</w>
ut or</w>
peace ful</w>
in struction</w>
exp endit
M C</w>
BO X</w>
Wal es</w>
T ub
vari ed</w>
pro tr
p acks</w>
L av
J ac
D ays</w>
gener ates</w>
C Y
c d</w>
arriv ed</w>
ampl ifier</w>
Stic k</w>
Fren ch
et on</w>
Le on
broad cast</w>
12 2</w>
Don ald</w>
u ter
i ously</w>
dis sem
cer e
ill on</w>
E 27</w>
L ines</w>
Ni eder
Ampl ifier</w>
oblig ation</w>
N ur
si r</w>
b ps</w>
Manufactur ing</w>
Autom otive</w>
T ile</w>
anal og</w>
Al c
sul ph
ach i</w>
th tub</w>
buil t-in</w>
re tail</w>
pro por
organ ism</w>
spo ke</w>
interpre tation</w>
German -
f inger</w>
Bi kini</w>
induc tion</w>
ic er</w>
R anch
IC A</w>
tig ious</w>
entre preneur
correc tion</w>
inhib ition</w>
th u
qual ified</w>
atten d</w>
Jew els</w>
Mit subishi</w>
ly wood</w>
Bl an
CO U
cons ensu
S 7</w>
ed ings</w>
modi fications</w>
year- old</w>
Pop ulation</w>
dis covery</w>
I v
C EN
tur ns</w>
adap t</w>
restric ted</w>
ch o</w>
st ressed</w>
combin ing</w>
AC K
Fun ny</w>
Al -
ph y</w>
p urity</w>
min erals</w>
El astic</w>
promo ter</w>
appe al</w>
U g
dr am
cons ent</w>
y uan</w>
pe ted</w>
M G</w>
b ai
M H
fac ed</w>
Hand bag</w>
Whe els</w>
T oul
K it
Car ds</w>
allerg ic</w>
here in
fam ili
Con go</w>
C AT
Den im</w>
er son</w>
occ asion</w>
Che aper</w>
2 30
he im
fres h
co ach</w>
legisl ative</w>
inf usion</w>
s car
Han nover</w>
y on</w>
appoint ment</w>
i us</w>
ad el
AM P
h ou
el ig
O thers</w>
Kn owledge</w>
- 2</w>
pa rent</w>
bel ong</w>
aux iliary</w>
trans fers</w>
the ore
star ring</w>
assess ed</w>
ag r
le mon</w>
D P
s an</w>
no tification</w>
sugg ests</w>
pos ing</w>
Ed in
exper tise</w>
Ta b</w>
p and
certain ly</w>
den burg</w>
W S</w>
sec ured</w>
co .
Multi ple</w>
te x</w>
TO N</w>
c ub
3 50
v ement</w>
Res olution</w>
hy brid</w>
cer tified</w>
Multi function</w>
Ma keup</w>
Oc e
S ION</w>
di ent</w>
Dim en
satis faction</w>
pe e</w>
Bil bao</w>
me ets</w>
Hal f</w>
mov able</w>
c ans</w>
Se g
w arm
F our
t am
Lan ka</w>
or amic</w>
fi replace</w>
But terfly</w>
Gro und</w>
FI FA</w>
own ership</w>
olog ists</w>
n oun</w>
assem bled</w>
Diagn os
F unc
or ia</w>
5 A</w>
re habilitation</w>
am less</w>
L umin
on ucle
vic inity</w>
V P
T ape</w>
G y
teach er</w>
R ain</w>
N ail</w>
Tim es</w>
ograp her</w>
mon omer</w>
Pol o</w>
rec tangular</w>
L ot
produc er</w>
im ports</w>
B ag
design ers</w>
ro let</w>
li t</w>
t ability</w>
constit ute</w>
clos est</w>
co st
s ort</w>
anc ement</w>
e dit</w>
decor ated</w>
Slip pers</w>
T S
observ ation</w>
inter val</w>
ver th
new ly</w>
Spec ification</w>
Trans mission</w>
verth eless</w>
king dom</w>
as k
anc o</w>
P yr
IN VENTION</w>
5 9
D J</w>
Gener ator</w>
Architec ture</w>
agon ist</w>
D ash</w>
Connec tors</w>
B EN
T en
ac io</w>
H ello</w>
sp ending</w>
of the</w>
emb ed
t ary</w>
Jew ellery</w>
jo ints</w>
Ex tension</w>
Fo am</w>
wav el
K or
car bo
under taken</w>
Cath olic</w>
con stra
ar rested</w>
Up date</w>
suff er</w>
V ideos</w>
Mov ement</w>
method ology</w>
enh ancing</w>
autom ation</w>
A do
Un like</w>
buff et</w>
d resses</w>
ago za</w>
u ph
bo ats</w>
Sens ors</w>
6 9
respon sib
Del hi</w>
TE S</w>
compris ed</w>
occup ied</w>
C am</w>
po ols</w>
1. 7</w>
ri ers</w>
natur ally</w>
ma kers</w>
Jack son</w>
stere o</w>
chec k-
bloc king</w>
anch or</w>
C rist
Al co
He el</w>
Hou ston</w>
exc iting</w>
boo ked</w>
bal loon</w>
Frequ ency</w>
B en</w>
p an</w>
ten s</w>
experim ental</w>
p atch</w>
res ili
Min ibar</w>
l act
k s
at al</w>
spea kers</w>
st yling</w>
fer tili
at ories</w>
FA O</w>
RIGH T-HAND</w>
Birm ingham</w>
tot ally</w>
In surance</w>
ex tra
D B
N Y
dispens ing</w>
S ave</w>
off set</w>
pre fer</w>
R un</w>
3 3.
ro les</w>
Ken ya</w>
he aling</w>
settle ment</w>
larg ely</w>
ou fl
N az
y esterday</w>
Cov ers</w>
Pre -
Col our</w>
J ean</w>
M IC
un ity</w>
Jer usal
I I
B RI
IN TER
phot ography</w>
inhib itors</w>
Car peted</w>
u -
6 ,
D all
adhes ion</w>
Do es</w>
depend ence</w>
de vi
car t</w>
Surve illance</w>
pres su
H .
Bu ying</w>
tum ors</w>
re ver
os c
at u</w>
bo iler</w>
re ferences</w>
Puebl a</w>
Chev rolet</w>
us i
per si
n c</w>
Cor n
Mark eting</w>
Sal on</w>
ann e</w>
P it
ann ular</w>
activ ate</w>
C amp</w>
transmit ting</w>
migran t</w>
V GA</w>
u ation</w>
Bud d
B un
ocy an
Spl it</w>
SE L</w>
y oun
Cal a</w>
t v</w>
Ex tr
m assive</w>
Bor de
k its</w>
English- German</w>
pen dic
autom otive</w>
tiv ated</w>
1 15</w>
Ag encies</w>
back up</w>
in hal
Tr acker</w>
C AN
Str ing</w>
radi al</w>
config ure</w>
p -
b en</w>
LI Z
syn thes
w er
la dies</w>
trig ger</w>
Glas g
cl er
cre d
Mon itoring</w>
p y</w>
compl icated</w>
Re ading</w>
MO N
ta tional</w>
ma ster
Jerusal em</w>
oc ity</w>
Lux emb
8 mm</w>
Detec tor</w>
g astro
ate way</w>
Ri vi
C ris
pow er
memb ranes</w>
S ink</w>
Ad hes
refriger ant</w>
form ulated</w>
T ay
Ado be</w>
Sch ed
K no
English- Romanian</w>
e c</w>
re agent</w>
RE S</w>
Zar agoza</w>
M D</w>
terror ist</w>
J U
web sites</w>
l s
initi ated</w>
estim ate</w>
Auth ority</w>
over night</w>
M X</w>
stop ped</w>
hor mone</w>
Pes o</w>
sh eng</w>
are l</w>
p endant</w>
subsi di
Op tim
to ol
de ad
end o
Ac counting</w>
19 0</w>
wor ker</w>
Mal ta</w>
2. 3</w>
ac char
Ac tivity</w>
hydrox ide</w>
bal ls</w>
19 .
protec ts</w>
tim ely</w>
am ents</w>
ro uter</w>
s ister</w>
lux urious</w>
infec tious</w>
00 00
LL C</w>
mi tig
A st
all y-
sign ature</w>
es thouse</w>
c ookies</w>
Bi o
Ch er
ne x
S ach
Alex and
ly mph
In fin
Am bass
w ills</w>
fir m
sp r
ch arming</w>
30 00</w>
1 16</w>
Th ird</w>
Li thium</w>
under lying</w>
R ay
Tun is
Diff user</w>
A .
An a</w>
doub t</w>
spectac ular</w>
consensu s</w>
Del ta</w>
poly urethane</w>
on ate</w>
extr ud
St or
med ication</w>
del ete</w>
at ar</w>
UN DP</w>
te es</w>
strug gle</w>
C P</w>
rac ing</w>
Gul f</w>
candi dates</w>
medic ament</w>
insul a</w>
con sole</w>
P umps</w>
1 200
y lation</w>
T on
AM P</w>
A ud
enti rely</w>
Z -
Tr ack</w>
M W</w>
commer ce</w>
condu it</w>
Met ropolitan</w>
clus ive</w>
ver a</w>
A c</w>
ipi ent</w>
S martphone</w>
tru ly</w>
campa igns</w>
al dehy
At trac
un able</w>
ther mo
V ectors</w>
6. 0</w>
ro ots</w>
es cape</w>
brow se</w>
P B
G F</w>
uc a</w>
tig ht</w>
nar row</w>
Edin burgh</w>
offic er</w>
phen yl</w>
fe aturing</w>
v ectors</w>
ass et</w>
V 6</w>
classi fied</w>
Ch all
tain er</w>
-P falz</w>
vill as</w>
cri p
Main tenance</w>
re forms</w>
wi m</w>
oufl age</w>
lo ver</w>
Pre vention</w>
z ab
Bud apest</w>
B ell
mun icipal</w>
de partments</w>
Trans l
a is
Scienti fic</w>
Char lot
Rel ease</w>
8 9
ur gent</w>
P ick
Hum an
al igned</w>
roll ed</w>
mag ic</w>
pan cre
ge ographical</w>
fab rics</w>
syr inge</w>
ge on</w>
I de
Rhein land
B usinesses</w>
ru g</w>
spl it</w>
b ow
iconduc tor</w>
SO N</w>
Ther m
pleas ure</w>
Sm ith</w>
Com m
min or</w>
z ar
l ady</w>
Al to</w>
s ends</w>
ed ly</w>
Rheinland -Pfalz</w>
Con temporary</w>
Co ats</w>
invol vement</w>
tal ks</w>
m A</w>
addi tive</w>
special ist</w>
p up
H ER
Circu it</w>
con g
cons ist</w>
architec tural</w>
fl oral</w>
C UR
ul in</w>
Hum idifier</w>
Pati ents</w>
l ys
emis sion</w>
Wor ld
pp i</w>
guarante ed</w>
at om</w>
an es
wa x</w>
viol et</w>
Stan ley</w>
reg ards</w>
Wor ks</w>
out comes</w>
Vir gin</w>
c us
Par agu
ul trasonic</w>
- subcat</w>
cu ts</w>
C av
Aut o
DI E
Cos play</w>
dang er</w>
H ill
O AS</w>
inter rup
ig a</w>
Ther ap
ist ing</w>
bl ades</w>
ap ol
fa ult</w>
Distri bution</w>
glyco l</w>
l am
Gar age</w>
coll agen</w>
mon ary</w>
CA D</w>
BE ST</w>
bran ches</w>
ad ol
sh ine</w>
ach able</w>
fi bre</w>
bas ket</w>
Chr on
reflec ts</w>
as a</w>
selec tive</w>
M e</w>
D r</w>
12 5
Me tro</w>
Cand y</w>
ME T
ie v</w>
Man uel</w>
3 A</w>
Comfor table</w>
0 1
n ings</w>
put ting</w>
Sel f</w>
neutr al</w>
cust oms</w>
Ex act</w>
itiner ary</w>
Infl atable</w>
organ isation</w>
proce edings</w>
A di
iv a</w>
v aries</w>
s ile</w>
Lic ense</w>
Vir tual</w>
mach ining</w>
ang ular</w>
C ant
PRO DU
f ewer</w>
No velty</w>
any where</w>
E P</w>
t an
al ls</w>
gran t</w>
Nu evo</w>
2 .</w>
tis m</w>
P ush</w>
anc er</w>
avi er</w>
0. 3</w>
ar tic
or n</w>
inter -
c asing</w>
it al
nutri tional</w>
fl our</w>
Tel es
new er</w>
Me an
Hav ana</w>
re au</w>
pl ug
T N
W ild
ju ana</w>
fal se</w>
A zer
sho oting</w>
associ ations</w>
Ham ilton</w>
sp ati
Slo ven
min ister</w>
spo ts</w>
D in
f ell</w>
end ants</w>
adjust ing</w>
C AS</w>
con ce
ber t</w>
Cl ar
n ail</w>
PE T</w>
Pow ered</w>
Def ense</w>
stri ke</w>
port folio</w>
icop ter</w>
ate x</w>
prov en</w>
Sk iing</w>
in organic</w>
Hen ry</w>
wa ist</w>
exhib it</w>
col le
princip al</w>
con ia</w>
T B</w>
An ten
og lob
special ised</w>
nutri ents</w>
dis abilities</w>
20 .
ur ry</w>
Jan eiro</w>
cur ved</w>
Mo vie</w>
p g</w>
us ter</w>
inten sive</w>
b i</w>
H ay
is tic
it r
comple mentary</w>
Cl oth</w>
sym me
IL O</w>
Mach ines</w>
don or</w>
ke wise</w>
Jew ish</w>
n y.
k re
Cair o</w>
J et</w>
s overe
pub lish
reco ver</w>
ort e</w>
Bas ketball</w>
b are
Bel ar
om ing</w>
4. 5</w>
journal ists</w>
Tit le</w>
Me aning</w>
inhib it</w>
ke e</w>
deli vering</w>
T ak
Sweat shirt</w>
Can aria</w>
E aster</w>
hyp o
Labor atory</w>
Cylin der</w>
ther -
hal f-
po sts</w>
ev al</w>
case- back-
case-back- crystal</w>
L em
pu zzle</w>
p ull</w>
bour ne</w>
Zur ich</w>
v ice</w>
jo ining</w>
S imilarly</w>
th qu
ous ness</w>
MA X</w>
Mon tre
t ones</w>
ac les</w>
N au
see ks</w>
difficul ty</w>
resol utions</w>
dist ur
inst ant</w>
P .
F T
og g
therm oplastic</w>
s can</w>
V est</w>
l or</w>
U P</w>
Pro of</w>
sol ids</w>
rad ical</w>
Design ed</w>
Fur n
ON E</w>
Egyp tian</w>
fl ame</w>
Dis c</w>
R 2</w>
E mil
freez er</w>
gl ue</w>
fore sts</w>
bo ost</w>
expec tations</w>
believ es</w>
class ical</w>
May be</w>
prec isely</w>
reinfor ced</w>
Gr ad
stake holders</w>
dest inations</w>
English- Spanish</w>
A udi
R y
occup ation</w>
L O</w>
ELE CTR
prec urs
fol k</w>
omet res</w>
to oth</w>
ny. Net</w>
G il
Bash ny.Net</w>
revol ution</w>
bas es</w>
M ap
Ag ent</w>
t anks</w>
sh ares</w>
par a</w>
ad en
IC O</w>
Sk irt</w>
L P</w>
ar gu
Willi am</w>
MT B</w>
B esides</w>
be i</w>
G H</w>
Flash light</w>
prefer able</w>
tem ple</w>
DI N</w>
men tion</w>
B attle</w>
Cop enhagen</w>
Tro users</w>
St ay</w>
B ear</w>
ific ent</w>
Sh el
responsib ilities</w>
H id
reg im
nam ents</w>
contri buted</w>
J ava</w>
dea ths</w>
Pal mas</w>
mur der</w>
0 7
self- catering</w>
PAS SEN
sc anning</w>
Sy d
no tic
T us
R O</w>
V AL
Sal t</w>
vap or</w>
g all
ren al</w>
ak ia</w>
e ira</w>
switch es</w>
C .
absol utely</w>
Or acle</w>
rel ax</w>
minim ize</w>
d ad</w>
br ightness</w>
strong er</w>
ig u
ab and
F I</w>
un usual</w>
vic tim</w>
res erve</w>
ent a</w>
F air</w>
L ay
y ang</w>
solid arity</w>
J as
ocy tes</w>
the ater</w>
imp acts</w>
Se par
and el
AP I</w>
hal t</w>
consid ers</w>
Le ban
Cos metic</w>
chem istry</w>
PASSEN GER</w>
r ors</w>
ap ril</w>
I O</w>
H anging</w>
port al</w>
mar king</w>
connec tivity</w>
dom inal</w>
k nee</w>
der ly</w>
Mar ri
suff ered</w>
af ford</w>
En ter</w>
O S
m ere</w>
kil ometres</w>
P ouch</w>
inter n
D ial</w>
Fol dable</w>
Cur rently</w>
le ans</w>
l eng
defin ing</w>
Mil k</w>
trans formed</w>
foc using</w>
ind le</w>
j am
CO M
cross- sectional</w>
c ass
a que</w>
b ought</w>
af ore
gu itar</w>
L F</w>
ip ed</w>
P ads</w>
infl ation</w>
advantag eously</w>
K as
week ly</w>
prof essor</w>
dur ability</w>
S ed
ci ted</w>
ro l</w>
Fu n</w>
mon it
O f
micro phone</w>
mys elf</w>
min i
vi al</w>
Sc anner</w>
Gro ve</w>
dr illing</w>
Mis s</w>
4 50
poly propylene</w>
pub lic
Luxemb ourg</w>
Fo x</w>
p v
T FT</w>
Co il</w>
10- minute</w>
K I</w>
ran dom
s ought</w>
W TO</w>
ackn owled
Some times</w>
ab is</w>
r as</w>
Oper ation</w>
W ild</w>
V inc
Guaran te
G aming</w>
Em bass
B RA
Rhin estone</w>
remo v
T T</w>
C isco</w>
roll ers</w>
dispos al</w>
absor bent</w>
3 10</w>
H ip</w>
Embass y</w>
less ons</w>
saf e
ag le</w>
reco vered</w>
Rot ary</w>
nec k
att ress</w>
In ver
Tr u
schem atic</w>
Tr ad
Miss is
h r</w>
ing ers</w>
Buil t</w>
shar p</w>
at ri
Andalus ia</w>
Dec ision</w>
Swim suit</w>
Leban on</w>
me als</w>
12 8</w>
fr idge</w>
gr at
Bar becue</w>
Nor dic</w>
Dep ending</w>
Rich ard</w>
C ell
trac tor</w>
fav our
Her z
high ways</w>
R and
ser ial</w>
recommend ation</w>
aper ture</w>
Sleev eless</w>
ste n</w>
Dall as</w>
y n</w>
op ia</w>
observ ations</w>
ran t</w>
e igh
hon or</w>
W ars</w>
Alam y</w>
C I</w>
be c</w>
Sa una</w>
mod erate</w>
brea king</w>
Hoo dies</w>
ir rigation</w>
ig o</w>
Im p
re venue</w>
Fern ando</w>
incl usive</w>
Soc cer
v acu
Guang zhou</w>
fav or</w>
x ico</w>
St at
man d
B ell</w>
Peter sburg</w>
Sh ap
con ut</w>
Temper ed</w>
M ario</w>
Jam a
el ast
bor ough</w>
S election</w>
Cut ter</w>
manif est
Exhib ition</w>
diff er</w>
sk a</w>
Bas eball</w>
g ear
ep tion</w>
Borde aux</w>
Z ir
examin ed</w>
cin ema</w>
3 rd</w>
v ag
é e</w>
Thre at</w>
Hol lywood</w>
X i</w>
Poli tical</w>
hy giene</w>
V II</w>
TR O
O d
fix ing</w>
Off ering</w>
LE Ds</w>
We ek</w>
Val le</w>
in spir
z el</w>
Azer bai
as th
Fl ats</w>
re tro
f ting</w>
destro yed</w>
oc ular</w>
flu ids</w>
ac idi
ang les</w>
fi bro
X ML</w>
H ook</w>
Connec tion</w>
ur ban
2. 4
foc uses</w>
b orders</w>
pre ad</w>
sur pris
Fu j
bor ne</w>
Explo rer</w>
i OS</w>
cl utch</w>
integr ate</w>
aff inity</w>
T od
down town</w>
GER MAN</w>
Ear phone</w>
ge ometry</w>
bl an
K IT</w>
An na</w>
pl ate
18 -
Nicar agua</w>
p pm</w>
proof ing</w>
minim al</w>
S qu
sh ade</w>
pol e</w>
Back up</w>
w inner</w>
oph istic
Guarante ed</w>
Clin ical</w>
Bas in</w>
al located</w>
I AN</w>
can vas</w>
ob esity</w>
add ressing</w>
R ack</w>
To e</w>
L ip
n ight
end ship</w>
inter ventions</w>
e .com</w>
fir st-
Ac id</w>
scre ens</w>
configur ations</w>
P izza</w>
English- Finnish</w>
real ize</w>
S co
198 9</w>
travel ers</w>
con sec
BLU E</w>
gr inding</w>
explo itation</w>
ch im
id ered</w>
e i</w>
arth ritis</w>
F all</w>
w ines</w>
ep h</w>
l enses</w>
h anging</w>
20 4</w>
I d
bur ning</w>
immun ity</w>
Hy per
G la
m oul
cro ps</w>
Hon or</w>
cri tic
consul tations</w>
ub l
Rain bow</w>
elim ination</w>
Stock holm</w>
driv es</w>
conveni ence</w>
AT OR</w>
Op tic</w>
C iv
i phone</w>
p ir
C o</w>
Ark ansas</w>
Syd ney</w>
connec tors</w>
0 9
out bound</w>
ik i</w>
Fr amework</w>
0 2
H ob
ell ation</w>
celebr ation</w>
conduc ting</w>
P atchwork</w>
B id
T um
3 000
ver -
cali bration</w>
adel ph
t as
A sp
B AS
rub les</w>
orig inally</w>
Ros a</w>
Min ing</w>
Mo z
Nic ol
ig s</w>
stand .com</w>
B .</w>
2. 8</w>
1 11</w>
Soccer stand.com</w>
Sh are</w>
hu a</w>
band width</w>
Bro ok
Bet ting</w>
N GO
pix el</w>
Kaz akh
j as</w>
frequ encies</w>
Rec o
extrac ts</w>
ke -
u tionary</w>
K nit
embed ded</w>
ax aca</w>
am oun
al o</w>
bub ble</w>
there to</w>
commerci ally</w>
Soc ks</w>
Char ge</w>
Ch amber</w>
purch ased</w>
vic tory</w>
un t</w>
ampl ification</w>
ow a</w>
il st</w>
sex y</w>
Rou ter</w>
H I</w>
Gu an
S ong</w>
Li thu
Ambass ador</w>
G AR
Dur able</w>
CO L
Admin ist
she im</w>
pen sions</w>
Cap tain</w>
Pro ced
ome thane</w>
p in
anx iety</w>
exerc ises</w>
ag ues</w>
0 ,
Pl ated</w>
stim ulation</w>
Lincol n</w>
p ens
inten se</w>
W it
te tra
pro long
gr y</w>
Con fig
Char ter</w>
lit ers</w>
mil ing</w>
b ones</w>
s s</w>
pres tigious</w>
reser ves</w>
Meg a</w>
G DP</w>
unci ation</w>
sa uce</w>
gr o</w>
var ying</w>
TO P</w>
rec ipes</w>
Or leans</w>
occur ring</w>
St ro
sty lish</w>
Pain t</w>
B ow</w>
T elec
Glasg ow</w>
pro tocols</w>
5 G</w>
act ress</w>
T ee</w>
A Y</w>
Ob ama</w>
Prepar ation</w>
y alty</w>
vol can
human ity</w>
tim ately</w>
gro up
pati o</w>
if f</w>
8 6
ili ation</w>
7 ,
consul ting</w>
arm ament</w>
r he
In stead</w>
ex tra-
K now</w>
ic ide</w>
K iev</w>
el em
ass ays</w>
surfac tant</w>
penetr ation</w>
decre ases</w>
K I
se ating</w>
en burg</w>
Fix ed</w>
C R</w>
monit ored</w>
B ER
z ipper</w>
prop ag
Reco very</w>
Satur days</w>
flow ing</w>
al location</w>
H i</w>
z o
Phil adelph
ta ils</w>
dec isi
per pendic
In sul
radi o
hom a</w>
construc t</w>
se as</w>
OO O</w>
AM E</w>
sho e</w>
Res istance</w>
physi ological</w>
2 32</w>
m oral</w>
mic ro</w>
ud es</w>
en ters</w>
inc idence</w>
dec om
I cel
Grow th</w>
tax i</w>
Ele v
green house</w>
is ite</w>
O 2</w>
es e-
def iciency</w>
but ter</w>
down stream</w>
M U
roc od
event ually</w>
lo vely</w>
newsp aper</w>
Smo ke</w>
S ear
fl ora</w>
en rich
Ke ep</w>
fit ting</w>
pre mises</w>
afore mentioned</w>
p ur</w>
20 1</w>
respond ed</w>
al er</w>
distribut ors</w>
h l
Ta x</w>
electro magnetic</w>
com ment</w>
N eg
ham lets</w>
prec ious</w>
loo ked</w>
E thi
E as
g ens</w>
bo iling</w>
bar becue</w>
po p</w>
In put</w>
a el</w>
shel f</w>
dec line</w>
F .</w>
h .</w>
M .
effici ently</w>
en comp
Atl anta</w>
L ooking</w>
B T</w>
restric tion</w>
Det ail</w>
ren ch</w>
C ad
S M</w>
ab und
tor ture</w>
dre ams</w>
Tw in</w>
sh i</w>
com ed</w>
op er</w>
l ysis</w>
μ m</w>
Fla g</w>
B uckle</w>
fre ely</w>
Tanz ania</w>
Pharmac eu
K ha
Di ameter</w>
50 00</w>
rout ine</w>
COU PE</w>
publ ications</w>
sim ulation</w>
p ockets</w>
Anim als</w>
Be er</w>
vis ibility</w>
appreci ate</w>
L ot</w>
l ap
Je an-
G IS</w>
er ta</w>
sn ow
soc cer</w>
dig estive</w>
h 2h</w>
non- smoking</w>
ch apter</w>
Vol ume</w>
Tr ue</w>
Jos eph</w>
0. 01</w>
gra vity</w>
inc ident</w>
A 2</w>
lif estyle</w>
L INE</w>
w age</w>
cop ies</w>
12 8
r ight-
trans form</w>
Deal Extreme</w>
under ground</w>
recep tors</w>
f iscal</w>
Cam eras</w>
J an</w>
fo il</w>
micro -
high light</w>
Giv en</w>
s am
Philadelph ia</w>
3. 2</w>
S cen
h ip</w>
fir ms</w>
territ ories</w>
sanc tions</w>
Vit amin</w>
T own
MO BI
extr usion</w>
la homa</w>
SC RI
ph r
In ser
hydro gen
Sh ut
exp enses</w>
k el
vel ocity</w>
X- ray</w>
PO LI
SP EE
ang i
ob vious</w>
hol idays</w>
E G
n ights</w>
S F
Es sen</w>
Pro te
coast al</w>
B ird</w>
Mill ennium</w>
rest oration</w>
X R
ór d
pix els</w>
NGO s</w>
Cal endar</w>
carbox ylic</w>
se vent
I sol
W rist</w>
Gen der</w>
supple ment</w>
Trans portation</w>
Merced es-
cab in</w>
individ ually</w>
par l
dec ade</w>
car go</w>
H is
ul ous</w>
P .</w>
SY STE
alu n</w>
Bad en-
H il
Bracel ets</w>
Com position</w>
ess e</w>
ol ia</w>
Re al
AI N</w>
H ub</w>
t ack
s cription</w>
pre lim
Maz da</w>
Le isure</w>
H o</w>
h oods</w>
accommod ate</w>
- in</w>
plan ted</w>
ra id</w>
Ok lahoma</w>
hel pful</w>
struc tured</w>
S ic
si vely</w>
Autom ation</w>
plas tics</w>
man agers</w>
Mex ic
H ai
b uc
Cit ro
v otes</w>
spe eds</w>
Gar c
S lot</w>
i ke</w>
wor se</w>
wh atever</w>
us able</w>
cryst als</w>
citiz en</w>
ren c
pro state</w>
bare ly</w>
osc ill
Ran king</w>
termin ation</w>
R ural</w>
K S</w>
stu ff</w>
bl adder</w>
op posed</w>
emphas is</w>
cre ativity</w>
In her
y ard</w>
isi ana</w>
ch an
Lin ux</w>
estim ates</w>
bri ef
Ha iti</w>
prefer ences</w>
F alun</w>
Aro ma</w>
ur g
privil eg
invent ory</w>
jud ge</w>
lo ose</w>
oc a</w>
ea stern</w>
celebr ate</w>
wel comed</w>
del icious</w>
pre mi
Sum mary</w>
r at</w>
R T
AN D
Mo di
terr aces</w>
cor respond</w>
h ell</w>
12 4</w>
peri od
recy cling</w>
un employment</w>
re ti
health care</w>
E LI
concentr ate</w>
D uration</w>
tax es</w>
Up on</w>
I z
gi ant</w>
amp ton</w>
op tic</w>
X T</w>
search es</w>
é n
val ley</w>
enc ap
me ga</w>
Doc ument</w>
Alger ia</w>
h arm</w>
Adhes ive</w>
hand -
non- governmental</w>
electro ly
land scap
O axaca</w>
cas ino</w>
Y -
ho sts</w>
am ines</w>
b os
Lou isiana</w>
Sk y
cro p</w>
Retur n</w>
electr ically</w>
at tract</w>
10. 1</w>
Hy brid</w>
H idden</w>
o i</w>
illustr ate</w>
ex amine</w>
A wards</w>
wh olesalers</w>
aer os
stim ulate</w>
contrib uting</w>
ai i</w>
órd oba</w>
7 50
char m</w>
Por ts</w>
gra dient</w>
S ah
Dy namic</w>
rece ip
child hood</w>
L P
f alling</w>
Fron tera</w>
sup posed</w>
min ent</w>
ay an</w>
3 1
Ac count</w>
n ylon</w>
inv o
recomm ends</w>
flo ating</w>
e uro</w>
Tam il</w>
St ren
W ool</w>
E arly</w>
slo ts</w>
Cam er
r an</w>
P an</w>
z en
e on</w>
L or
C rown</w>
SP A</w>
vis ions</w>
ne ither</w>
elev ated</w>
Inter- American</w>
el ift</w>
Bal i</w>
An ime</w>
ys ide</w>
per mits</w>
S 6</w>
Let ter</w>
K ol
A men
Bi ble</w>
in sufficient</w>
P encil</w>
thro w</w>
P HO
qu er
m ould</w>
S mart
2. 4G</w>
log istics</w>
in trav
ab lo</w>
lim itations</w>
est e</w>
N ight
st oring</w>
P op</w>
I X</w>
Jo e</w>
carri es</w>
b age</w>
B amboo</w>
L .
sampl ing</w>
WH O</w>
y oga</w>
Th ick</w>
4. 1</w>
cur y</w>
enjo yed</w>
CON TR
coord inate</w>
th a</w>
Ste lla</w>
P reg
3 M</w>
SL R</w>
Dev ices</w>
co st-
Mar se
In k</w>
Pi ano</w>
B umper</w>
Sim ulator</w>
Lin ear</w>
az za</w>
f ound
off -
F ur</w>
N on
promo ted</w>
In deed</w>
T D
Cent res</w>
q i</w>
s ophistic
Per u
4 k</w>
develop s</w>
Chal et</w>
catal og</w>
B us
blo g</w>
Köl n</w>
attemp ts</w>
S ign</w>
al ert</w>
Pub lished</w>
2. 5
no ble</w>
O ak
for ums</w>
Mun icipal</w>
re viewed</w>
og n
H C</w>
Ph ones</w>
r ication</w>
pe z</w>
des ert</w>
Stic kers</w>
Res in</w>
Fran c</w>
John son</w>
an n</w>
per ial</w>
i os</w>
J eff
D uty</w>
aldehy de</w>
25 -
direc tional</w>
Gab ri
inj uries</w>
coord inated</w>
18 650</w>
att an</w>
R J
Con cep
0. 05</w>
discipl inary</w>
DE S</w>
sustain ed</w>
sk irt</w>
Sle ep</w>
An y
down loading</w>
uni verse</w>
fin ds</w>
con clusions</w>
2 D</w>
hydr ation</w>
col i</w>
ag e-
O reg
J in
all er
Her o</w>
ro pe</w>
n ity</w>
n ickel</w>
metabol ic</w>
ul trasound</w>
Mé xico</w>
pr us</w>
con sequence</w>
Commun ications</w>
i qu
7. 5</w>
trav ellers</w>
g io</w>
amp a</w>
accep tance</w>
treat y</w>
May or</w>
g um</w>
Instrum ent</w>
Col ogne</w>
240 V</w>
bin d</w>
Pi ed
til lation</w>
it ers</w>
in formal</w>
acqu ire</w>
offici ally</w>
prec ed
ast ers</w>
R over</w>
Sel f-
A LE
T at
ot ted</w>
CO VI
cy cling</w>
G lo
ill ust
well- being</w>
k id</w>
14 0
si ppi</w>
preven ted</w>
ir l
hos tel</w>
Re pl
4 WD</w>
1 18</w>
g un
ran k</w>
form ity</w>
stric tly</w>
jud g
n at
Diagnos tic</w>
expan ding</w>
la sts</w>
Sebas tian</w>
Ch ocolate</w>
dis till
Hel met</w>
H em
de formation</w>
1 1-
ble eding</w>
Ser bia</w>
Sof ia</w>
ap hr
Typ ically</w>
lim itation</w>
par as
inst ances</w>
au dit</w>
us ions</w>
lin k
B S
T as
Br ad
st y</w>
flav or</w>
absor bed</w>
Ukra inian</w>
with draw
t ent</w>
foun der</w>
encour aged</w>
lo ved</w>
Note book</w>
Bet ween</w>
gu ess</w>
d ress
Mercedes- Benz</w>
differ ential</w>
m 3</w>
f its</w>
b usiness
Tren d</w>
hard ness</w>
li br
larg e-
st ove</w>
K an
T DI</w>
tun nel</w>
Missis sippi</w>
cross- section</w>
ar ized</w>
3 20
ma id</w>
G MT</w>
k el</w>
m atches</w>
ir s</w>
P D</w>
ul um</w>
In stant</w>
U h</w>
A F
X S</w>
AN T</w>
spati al</w>
3 mm</w>
cy cl
ab dominal</w>
L yn
Jal isco</w>
k t</w>
Ste ph
w oo
S lip</w>
Cy prus</w>
tro ops</w>
theore tical</w>
br id
t in
7 9
16 -
de fl
liqu ids</w>
l aces</w>
king .com</w>
er mo</w>
cop yright</w>
aff airs</w>
2 B</w>
ner ve</w>
yl ated</w>
M at</w>
Cel ls</w>
r ick</w>
acryl ate</w>
car d
r on
ed itor</w>
E vent</w>
Sk ull</w>
Cal cul
to k
ware house</w>
ton ight</w>
compar able</w>
wi res</w>
te enth</w>
Sus pension</w>
720 P</w>
E ll
every day</w>
No ise</w>
Tor re</w>
Co ven
u lette</w>
commis sion</w>
1 ,000</w>
lab eled</w>
UN CI
w all
in struc
bour g</w>
certain ty</w>
l an</w>
incub ated</w>
rob ust</w>
B ill</w>
Gu ay
prelim inary</w>
per oxide</w>
et tes</w>
O -
qual ities</w>
Ranch o</w>
accum ulation</w>
Su r</w>
ma thema
Be ach
2. 7</w>
qu ito</w>
H ot
v in</w>
fle et</w>
decisi on-
iz ers</w>
wid er</w>
Emp ire</w>
c e-
M atch</w>
t ended</w>
Chris ti
administ ering</w>
Pur se</w>
Inher itance</w>
introduc ing</w>
ra z
c atch</w>
ang el
m atched</w>
co ins</w>
Histor ical</w>
p .</w>
L ex
mod ular</w>
gener ations</w>
b at</w>
ap a</w>
res on
20 th</w>
d ign
Spanish -English</w>
Corpor ate</w>
K A</w>
0 5
F oot</w>
ear thqu
c ats</w>
Red mi</w>
par k
my net
2 x</w>
Boo king.com</w>
n in
mynet fair</w>
i ers</w>
res ins</w>
nor ms</w>
al t</w>
glo bal
R G
dy e</w>
O ak</w>
P T</w>
pan ic</w>
in age</w>
gly cer
dispens er</w>
prescri bed</w>
et ti</w>
T ail</w>
R od</w>
ous es</w>
fe el
BB Q</w>
Commer ce</w>
et ables</w>
cent uries</w>
bi z</w>
Res id
WH ITE</w>
10 7</w>
z ens</w>
di methyl
J unior</w>
Dre am</w>
D 2</w>
reserv ations</w>
gl u
N S</w>
Compress or</w>
m at</w>
EN D</w>
philosoph y</w>
Bak ery</w>
g ings</w>
destro y</w>
h op</w>
13 2</w>
Si x</w>
pres erve</w>
nes ota</w>
Mean while</w>
. co.
fa x</w>
bar riers</w>
al go</w>
DIE SEL</w>
du pl
H R</w>
fi ve-
W ür
H ow
famili ar</w>
Paragu ay</w>
IC RC</w>
main tains</w>
Sh ampoo</w>
no te
enem y</w>
conduc tivity</w>
Vi ews</w>
ris ing</w>
an ticip
r us</w>
br onze</w>
Ab u</w>
S 2</w>
hex ane</w>
Bl anca</w>
Dr one</w>
5 x
Tor ch</w>
UN D</w>
r ing
ure ly</w>
de aling</w>
Adi das</w>
el ve</w>
ra d</w>
Can ary</w>
Gu inea</w>
cur ing</w>
C err
ju ven
Col onia</w>
fluores cent</w>
Ar tificial</w>
cos metics</w>
identi fier</w>
att or
Har ry</w>
AUTO WHOLESALE</w>
Appl ic
al ised</w>
Maxim um</w>
Tues days</w>
K ia</w>
ill ness</w>
H it
Co ated</w>
es pread</w>
N U
F org
sun ny</w>
Pier re</w>
Gener ally</w>
om es</w>
atch back</w>
B olog
Prov ence</w>
Br acket</w>
Sec ond
h an
Citro en</w>
le uk
VI II</w>
P ir
iv al</w>
n ik</w>
Min nesota</w>
ab a</w>
P et
w illing</w>
k W</w>
Chi ang</w>
i od
ear rings</w>
S R</w>
L ew
y east</w>
w anna</w>
Catal an</w>
th ic</w>
C ushion</w>
boo t</w>
V la
me tro</w>
c igarette</w>
Alli ance</w>
tim ing</w>
ah ua</w>
Oreg on</w>
N ames</w>
audi ence</w>
aphr ag
La w
or o</w>
co atings</w>
tw enty</w>
Fri ends</w>
C ock
ush i</w>
Wednes days</w>
b el</w>
soc ket</w>
sl urry</w>
Clin ic</w>
M use
Anten na</w>
ch al
V U</w>
si l</w>
F ly</w>
bear ings</w>
op ath
su ited</w>
bri ef</w>
EN G
re ment</w>
an tim
K nee</w>
vol atile</w>
G em
X 5</w>
ar c</w>
M 3</w>
trac ks</w>
re m
immun o
di ver
P 2
kre is</w>
bin der</w>
stret ch</w>
ro t</w>
prop yl</w>
cop ter</w>
Rivi era</w>
P om
embro idery</w>
h ence</w>
U tility</w>
cl ay</w>
b anner</w>
av irus</w>
accompl ished</w>
tra ditions</w>
co ag
g ast
U se
te ach</w>
br ick</w>
Cur rency</w>
In dependent</w>
B eds</w>
i onic</w>
Tri p</w>
S J
19 th</w>
E ar</w>
Preg n
ver sus</w>
fin ishing</w>
Br as
sun set</w>
consec u
co efficient</w>
M R</w>
Priv acy</w>
camp us</w>
elas ticity</w>
g or
syste mic</w>
I ran
wel fare</w>
dec laration</w>
s ellers</w>
h n</w>
li v
accel erate</w>
h ide</w>
o y</w>
C iti
ipi ents</w>
ste ms</w>
ann y</w>
Trin idad</w>
F D
E V
g eting</w>
stri ps</w>
pres sur
bl ank</w>
Har bor</w>
Dra wing</w>
s ed
bracel et</w>
lum en</w>
li ps</w>
Res erv
j un
above- mentioned</w>
Head phones</w>
J on
8 50</w>
pres sions</w>
D od
DE SCRI
Vel vet</w>
Sol ution</w>
c rane</w>
aw ards</w>
ou ts</w>
am ar
contin ental</w>
le y
ed onia</w>
R ates</w>
2 mm</w>
á s</w>
Im ple
h ome
ma il
memb ership</w>
P ay</w>
CR -
des er
at titude</w>
jec tive</w>
Ow ner</w>
Bed rooms</w>
investig ate</w>
elig ible</w>
Typ es</w>
Nu trition</w>
drag ging</w>
25 .
cl ed</w>
Bos ch</w>
Kaw asaki</w>
behavi our</w>
equ ally</w>
J obs</w>
ate n</w>
an ian</w>
infl atable</w>
K ansas</w>
bon ds</w>
om b</w>
parti tion</w>
A id</w>
ov es</w>
pol ys
sle eping</w>
i que</w>
Den ver</w>
12 3</w>
ta ught</w>
per for
Clim bing</w>
vers ely</w>
Montre al</w>
M 2</w>
regul ator</w>
Mün chen</w>
Whe ther</w>
In cludes</w>
emb lies</w>
R on
mo thers</w>
lic ens
cre w</w>
Advis ory</w>
W ant</w>
H au
h d</w>
LL A</w>
Str iped</w>
LO G
2 -</w>
v als</w>
ul i
ñ o</w>
5 50</w>
Pe ti
mar kers</w>
are r</w>
R H</w>
A Y
Ox y
o st
D J
ma d</w>
alleg ed</w>
T esting</w>
p et
re tain</w>
lay out</w>
V C</w>
volun tary</w>
Pr ac
ur i</w>
accompan ying</w>
Oper ations</w>
Mo ist
p ent
deploy ed</w>
phys ically</w>
Gr ill</w>
B rist
air line</w>
mol ded</w>
juris diction</w>
g est
Vall adol
H yp
Sor ry</w>
constitu tional</w>
z i</w>
pand emic</w>
pl enty</w>
comp uting</w>
res cue</w>
or ous</w>
trans verse</w>
1. 8
onucle o
oc key</w>
re ply</w>
cl amp</w>
ri m</w>
ran k
Reg ular</w>
condi tioner</w>
at s
Aqu arium</w>
cont acting</w>
h z</w>
Exper ts</w>
6 000
pres idential</w>
pre val
p neumatic</w>
r am
ea u</w>
ca ff
in ert</w>
multi lingual</w>
en tes</w>
T L
fil ed</w>
Sti ll</w>
express ing</w>
4. 2</w>
Z en
Fo ot
AR E</w>
su ites</w>
in deed</w>
el and</w>
tel ls</w>
prog ressive</w>
l anding</w>
m es
dist or
commun ic
addi tionally</w>
competi tiveness</w>
ben ding</w>
0. 00</w>
ul timate</w>
l uggage</w>
en gth</w>
Cam bodi
fil tering</w>
R R</w>
ol ar</w>
ili ans</w>
Respon se</w>
I ris
36 5</w>
c -
J orge</w>
B an</w>
la b</w>
To il
N ag
An der
Bul bs</w>
z ers</w>
cor respond
ar ise</w>
Or th
110 V</w>
hib a</w>
T F
pal m</w>
Ba thing</w>
Pro mo
en vel
M ong
pol ar</w>
mem or
poli tics</w>
part ly</w>
en oid</w>
ent y-
dichlor omethane</w>
Distri but
La b</w>
FOR D</w>
- de-
Autom obile</w>
DESCRI PTION</w>
Bo b</w>
Sh ock</w>
Br id
fib res</w>
sever ity</w>
H 2
ri e</w>
c k
ardro bes</w>
Tor re
Pil low</w>
Eli zab
resol ve</w>
Raf ael</w>
om eric</w>
hyper tension</w>
N ation
iz ard</w>
ep i
s b</w>
re productive</w>
vill ages</w>
Ch i</w>
ad os</w>
Dis abled</w>
quir y</w>
H ô
S even</w>
oun ded</w>
in tention</w>
optim um</w>
inv est</w>
i ff
Peru vian</w>
Bu reau</w>
A E</w>
L AT
Dol l</w>
viol ent</w>
a us
C AL
el derly</w>
comple ment</w>
n one</w>
Rom a</w>
arbit r
inter vals</w>
st al</w>
Marse ille</w>
G ig
AT HER</w>
i elds</w>
EN T</w>
Dr um</w>
Ma i</w>
Oper ating</w>
C ri
ob last</w>
high lights</w>
V anc
pen ding</w>
real istic</w>
wel ls</w>
up e</w>
v ac
it ative</w>
alk aline</w>
w atching</w>
St u
COVI D-
w ishes</w>
quanti tative</w>
path ology</w>
is ocyan
bloc ked</w>
198 8</w>
acc used</w>
Ex haust</w>
ER O
ri ble</w>
relax ation</w>
distinc t</w>
Banglad esh</w>
be at</w>
G un
con tem
C F</w>
qu in
per mission</w>
V ent
fund ed</w>
ac oustic</w>
Differ ence</w>
H ome
Sh ow
pas sion</w>
WIN DO
24 h</w>
W ai
Nik on</w>
iz able</w>
pos ted</w>
Gol d
install ations</w>
ad ers</w>
en ame</w>
Bran denburg</w>
T ote</w>
Fr ag
cont amination</w>
pain ful</w>
fe ver</w>
ab sent</w>
P od</w>
ox idi
ph alia</w>
P RI
LO W</w>
Con sequently</w>
Chang ing</w>
pig ment</w>
Tol edo</w>
Meth ods</w>
Ann ual</w>
la m</w>
inger print</w>
facilit ates</w>
il ized</w>
Hamp shire</w>
ol dest</w>
plan ting</w>
euro parl
ou ver</w>
time -
b es
multi lateral</w>
ac on</w>
rec ur
europarl .europa.eu</w>
Whe el
v d</w>
Use ful</w>
sou l</w>
J a
RE R</w>
magn ificent</w>
ar rest</w>
y lo
sum mar
qu ery</w>
fem in
Valladol id</w>
M ic</w>
Pri ze</w>
exce eds</w>
p ound</w>
f t
Slov akia</w>
Premi er</w>
perpendic ular</w>
is i</w>
c ouldn</w>
H .</w>
col ours</w>
ket place</w>
dec k</w>
F on
T ax
For ming</w>
Sa o</w>
COVID- 19</w>
C ob
4 000</w>
install ing</w>
hand made</w>
attr ibute</w>
Mem orial</w>
3 16
incorpor ate</w>
L ub
ote chn
p oured</w>
ep er</w>
ime ter</w>
feel ings</w>
los ing</w>
W ea
engine ers</w>
F AST
S cal
L lo
K B</w>
f ingers</w>
Ind ustri
vacu o</w>
per ce
M es
k illing</w>
f ted</w>
adoles cents</w>
S ir</w>
remov able</w>
B lock
un limited</w>
pron unciation</w>
six th</w>
or m
confir mation</w>
lin er</w>
In vention</w>
enth usi
ug o</w>
tr ace</w>
40 -
te c</w>
Mus lim</w>
transl ator</w>
Garc ía</w>
mon omers</w>
fun ny</w>
MB A</w>
ev ap
sc anner</w>
cap tured</w>
Administ rative</w>
di ving</w>
I SO
H aving</w>
Assi stant</w>
Ap ply</w>
B atteries</w>
prim er</w>
Rel eased</w>
c as</w>
War ning</w>
Con sole</w>
p ped</w>
administr ator</w>
E ver
B T
Lis ten</w>
I LI
care ful</w>
ter n</w>
re taining</w>
Bolog na</w>
de bit</w>
stud ying</w>
vi val</w>
P neumatic</w>
ma h</w>
inter fer
out puts</w>
St udi
O T</w>
Im port
bol t</w>
2 60</w>
f iller</w>
TE C</w>
Ch ip</w>
S ig
ch -
Z oo</w>
dis cre
ad vertis
ques tion
0 3
le ak
mono clonal</w>
for d
down -
Inst all</w>
thir d-
ap as</w>
AD A</w>
Out look</w>
Dis k</w>
B is
Ar n
datab ases</w>
n y
S ample</w>
MA X
ach -
Ac tu
SPEE D</w>
Es per
br ine</w>
us b</w>
N el
renc ies</w>
world -
del ivers</w>
ö n
Rel ations</w>
mon etary</w>
U mb
0. 4</w>
R ío</w>
F B
Ch apter</w>
sh oot</w>
r ats</w>
De ath</w>
ch at</w>
PRO N
4 A</w>
o ic</w>
d a
P SD</w>
5 1
hun ting</w>
fac elift</w>
Gu esthouse</w>
G M</w>
con ferences</w>
ed iting</w>
percep tion</w>
reac ted</w>
am el</w>
oul try</w>
bar a</w>
the ft</w>
ill ary</w>
Cir cle</w>
amoun ted</w>
Cl amp</w>
sing er</w>
wid espread</w>
ver te
Ris k</w>
A 6</w>
ke eps</w>
gu ards</w>
rug ated</w>
circu its</w>
San tos</w>
20 mm</w>
d B</w>
Fran k</w>
D R</w>
F uture</w>
un saturated</w>
stra ins</w>
re in
hydro ph
tem berg</w>
phot o
le um</w>
L ec
pe c</w>
convers ation</w>
ben e
Y em
Sh r
F e</w>
Dec k</w>
f ats</w>
Lo tion</w>
expl oration</w>
Bas que</w>
A sk
ti tis</w>
depos ited</w>
Box es</w>
Al i</w>
é n</w>
ster ile</w>
p ation</w>
tim etable</w>
expendit ure</w>
Cop y</w>
magn itude</w>
B AR
ad or
C ô
Monter rey</w>
civ ilian</w>
G od
Con serv
l es-
os ity</w>
W ash</w>
Hard wood</w>
Mi x</w>
Dr ying</w>
sus cep
ment ally</w>
3 .</w>
con vic
t ress</w>
sign aling</w>
tr ag
it ated</w>
Par adise</w>
HT ML</w>
toc ur
ra in
ir oning</w>
char geable</w>
bi ology</w>
pl un
du ties</w>
Qu er
deter gent</w>
contin ent</w>
till o</w>
cut aneous</w>
ad i</w>
Hid algo</w>
Nep al</w>
exc ell
int end
sw elling</w>
pe di
frag rance</w>
b und
HOTE L</w>
Fi at</w>
plac e
fil ename</w>
Z inc</w>
prov is
am er</w>
TO U
Ob serv
os ion</w>
L oft</w>
ch ips</w>
Ex cept</w>
insul ating</w>
gen -
b acks</w>
I V
Cam ouflage</w>
sum mit</w>
clou ds</w>
as king</w>
andel ier</w>
complain ts</w>
X box</w>
R ay</w>
Histor ic</w>
Dra w
AS SI
Set tings</w>
Atl as</w>
out doors</w>
13 5</w>
l ity</w>
re iter
olig onucleo
H AR
in security</w>
facilit ating</w>
Access ory</w>
peri odic</w>
Pi azza</w>
aw n</w>
Y u
af a</w>
12 6</w>
fr actions</w>
fas test</w>
def ects</w>
ul f
Fre der
l on</w>
Rod rig
Detec tion</w>
b ly</w>
happ iness</w>
f et
clus ter</w>
T el</w>
develop ers</w>
aj ara</w>
r u</w>
r pm</w>
ca ve</w>
V or
R idge</w>
mo s</w>
irl pool</w>
cel ain</w>
Drop shipping</w>
R 3</w>
withdraw al</w>
UR L</w>
virtu ally</w>
er es</w>
evap oration</w>
qu en
anti que</w>
UNCI ATION</w>
i ro
constitu tes</w>
I E</w>
Attrac tions</w>
y- to-
soc ial
Hol land</w>
car pet</w>
M am
1. 4
perf ume</w>
L es
bar rel</w>
re construction</w>
PRON UNCIATION</w>
Lod ging</w>
12 1</w>
Mus ical</w>
Jama ica</w>
achiev ements</w>
D est
def ence</w>
Tunis ia</w>
cogn itive</w>
D .
spac ed</w>
tell ing</w>
regul ate</w>
occur rence</w>
as co</w>
Aven ida</w>
th an
Bu ch
Bot tom</w>
s in</w>
Phys ical</w>
Dr ink</w>
inv ite</w>
Spir it</w>
sh ort-term</w>
W AS
Lo ren
bou quet</w>
L Y
French -English</w>
p ace</w>
B ob
leg ally</w>
dis closes</w>
consecu tive</w>
Car r
aphrag m</w>
conduc tor</w>
cham bers</w>
In duc
Cou pe</w>
6. 5</w>
bri di
Condi tioner</w>
O Ac</w>
DE L</w>
ud er
ol or</w>
K om
inten si
tre as
le bar</w>
Inspec tion</w>
preven tive</w>
p ackets</w>
cros sing</w>
So ap</w>
pul monary</w>
promis ed</w>
min ibar</w>
Ro of</w>
pr inc
jew el</w>
icip alities</w>
Americ ans</w>
fre e
E .
he at-
E- mail</w>
Ac cep
blin d</w>
100 -
S on</w>
vis a</w>
Vanc ouver</w>
F if
R ue</w>
s ick</w>
L anc
IM VU</w>
R av
Health y</w>
gastro intestinal</w>
N in
M ass</w>
head er</w>
Plan et</w>
wh ilst</w>
hydro carbon</w>
ab l
ym ers</w>
10 9</w>
T ec
Max i</w>
For ces</w>
FAST SALE</w>
X XL</w>
W C</w>
aw s</w>
for t</w>
are z</w>
Mon ster</w>
3 30</w>
Multi functional</w>
Pe ts</w>
infor ma
favor able</w>
IC S</w>
Go als</w>
C rane</w>
poli tic
N G
re production</w>
it ment</w>
Gal vanized</w>
tif ications</w>
ro tational</w>
Ne ed
dec or</w>
Nev ada</w>
jo in
S K</w>
L M
15 00</w>
ser iously</w>
k shire</w>
Y an
u ts</w>
complex es</w>
ur ance</w>
ass ume</w>
popul arity</w>
asth ma</w>
Sp ot</w>
Scot t</w>
Lo vely</w>
hur t</w>
Har bour</w>
Col on
B Y</w>
AS A</w>
architec t</w>
P ath</w>
gl ut
ME I</w>
D RO
Col um
un ions</w>
I l</w>
sm ell</w>
capac ities</w>
canc ellation</w>
Up load</w>
lo ans</w>
Sho oting</w>
sac rif
bur den</w>
S am</w>
Ky oto</w>
p neum
it as</w>
Graph ic</w>
im migrants</w>
gen ital</w>
ch assis</w>
Tos hiba</w>
HC l</w>
Guadal ajara</w>
cryst alli
W oven</w>
I .
con dem
E dit</w>
h n
spec tro
hydr ide</w>
Di al
At om
em ade</w>
20 5</w>
tim er</w>
ge ometric</w>
internation ally</w>
be ans</w>
a oke</w>
c ups</w>
a verages</w>
4. 3</w>
sur prise</w>
lo ader</w>
elim inating</w>
ff on</w>
ou tw
decision- making</w>
si c</w>
R ope</w>
Elizab eth</w>
bo arding</w>
Que bec</w>
prin ts</w>
Doc um
6 mm</w>
he a</w>
appli ance</w>
Tri ple</w>
ow -
cra zy</w>
POLI SH</w>
solub ility</w>
T OR</w>
L unch</w>
Par k
dispos able</w>
Econom ics</w>
assum ed</w>
HD D</w>
le z</w>
h as
P ablo</w>
clos et</w>
I phone</w>
w driver</w>
Se attle</w>
1 B</w>
extra ordinary</w>
as yl
L H</w>
ex ha
K ING</w>
Charlot te</w>
C um
person alized</w>
enc oded</w>
vend ors</w>
mon uments</w>
wel comes</w>
eng aging</w>
scre w-
dis rup
C órdoba</w>
A ber
Canc un</w>
s axony</w>
cl er</w>
Recor ding</w>
Ank le</w>
o ak</w>
fer mentation</w>
W .</w>
inv itation</w>
Of ten</w>
fe es</w>
relax ing</w>
cut ter</w>
ae ological</w>
accor dingly</w>
but yl</w>
ov ina</w>
z y
ch er
Struc ture</w>
F lex</w>
super vis
fab ric
Comp lex</w>
Aren a</w>
atmosph eric</w>
dor f-
at in
Iris h</w>
Car tridge</w>
C V
g aming</w>
Specif ically</w>
itr ile</w>
Dir ham</w>
Sh ield</w>
A PP
U z
l ington</w>
g es
ex clusion</w>
de plo
ari ties</w>
b ak
Im prov
o y
C all
ell i</w>
Swe ater</w>
t temberg</w>
hor n</w>
in n
ill es</w>
Sweat shirts</w>
op es</w>
f arms</w>
Rec e
Pub l
24 .
reser ved</w>
v as
Pl ain</w>
str ates</w>
ese- English</w>
th ough
tol u
2. 6</w>
sor ted</w>
5- minute</w>
tit les</w>
te les
err ero</w>
Li ver
weap on</w>
X 1</w>
Su perior</w>
He ight</w>
Dr ill</w>
st unning</w>
Mi ke</w>
legi timate</w>
Tay lor</w>
ff le</w>
schem es</w>
over looking</w>
rec ipe</w>
obst acles</w>
B od
Pharmaceu tical</w>
6 2
Su its</w>
C á
10 A</w>
tro uble</w>
P ist
re vised</w>
f o</w>
inter act</w>
explan ation</w>
Wh it
tom atoes</w>
al izing</w>
Ch atro
re chargeable</w>
brea ks</w>
lip id</w>
Chatro ulette</w>
ec ological</w>
dem anding</w>
multi media</w>
incub ation</w>
agon ists</w>
receip t</w>
ess ing</w>
Char ac
st h</w>
cul tivation</w>
Cra ft</w>
wavel ength</w>
tr ic
cle ar
cal m</w>
G .</w>
am anca</w>
Po ints</w>
di etary</w>
A ve</w>
hydr ates</w>
dic t
W ander
optim ize</w>
15- minute</w>
A re
H PLC</w>
tub er
In ner</w>
cru ise</w>
Dis counted</w>
D W
imp urities</w>
Pr acti
ly n</w>
West fal
Fre edom</w>
st ack</w>
yar n</w>
ong side</w>
Sloven ia</w>
Phil ip</w>
8 7
hormon es</w>
STR U
NE T</w>
l ung
AR M</w>
we iler</w>
sophistic ated</w>
col lege</w>
Process ing</w>
Oper a</w>
Des ert</w>
top -
dele ted</w>
K m</w>
u ent</w>
re vers
Rel ay</w>
Jul i
5 cm</w>
lev ard</w>
st own</w>
Ves ti
J acqu
Is ab
G aza</w>
h l</w>
B B</w>
TE CH
Employ ment</w>
p our</w>
am onds</w>
R ules</w>
2 12</w>
K et
Eff ects</w>
M um
us er-
olar ships</w>
ch ap
Mat te</w>
ran ken
ob serve</w>
bro thers</w>
mot ors</w>
ot yp
af raid</w>
partner ships</w>
ann i</w>
12 v</w>
bio diversity</w>
B uc
super vision</w>
P ie
- by-
brea thing</w>
in ia</w>
w ig-
un necessary</w>
dis ability</w>
A H</w>
g ood
Alibab a.com</w>
be ings</w>
Per son</w>
IS E</w>
Avail ability</w>
gar lic</w>
ast ery</w>
them es</w>
l av
c ushion</w>
ref res
au -
L ounge</w>
Arc ade</w>
co her
Transl ator</w>
En h
accur ately</w>
0. 8</w>
per man
Mag net</w>
B eg
ann ers</w>
Recomm ended</w>
D enti
J ones</w>
A O
Organ izer</w>
C ed
g an</w>
z oom</w>
t ut
Et OAc</w>
Deutsch e</w>
T 6</w>
Lithu ania</w>
Champ ionship</w>
min es</w>
Jour nal</w>
Man h
Con do</w>
St atus</w>
Iran ian</w>
10 mm</w>
ef in</w>
Evalu ation</w>
sp rings</w>
E spa
gri p</w>
encryp tion</w>
impl ications</w>
B owl</w>
An ne</w>
Tren es.com</w>
Mal ay</w>
pay ing</w>
pro ph
W ay
Re verse</w>
F AC
re ven
low n</w>
ere z</w>
ec o</w>
mod ulation</w>
Imp act</w>
domin ant</w>
S ak
forma tions</w>
hy bridi
er ad
an ical</w>
micro organisms</w>
S SD</w>
IL DER</w>
Multi media</w>
Auth en
y c
Can al</w>
explos ion</w>
J azz</w>
μ g</w>
6 s</w>
Dis ease</w>
F av
er ge</w>
ym ous</w>
tox icity</w>
as so</w>
am er
Conven i
Ful ly</w>
Cur tain</w>
rel ay</w>
op en-
ec raft</w>
ol -
Port land</w>
nas al</w>
g ained</w>
inven tive</w>
DM A</w>
an to</w>
1 16
z ir
gro und
fe as
d airy</w>
al tar</w>
s q
World wide</w>
p ins</w>
coord inates</w>
2. 2
m atching</w>
aspir ation</w>
ster one</w>
Ra w</w>
colle agues</w>
D ust</w>
medi ated</w>
H RS</w>
hydro carb
f u</w>
dis advantages</w>
Indic ator</w>
fuc king</w>
anal og
CO LO
pros per
prolong ed</w>
K id</w>
Scre en
Dep uty</w>
produc tions</w>
T es
Par tic
Ele ment</w>
o .
got ta</w>
Un fortunately</w>
è s</w>
illustr ating</w>
IB M</w>
TR I
Stre t
Bea m</w>
mon itors</w>
preserv ation</w>
ar bon
Ver de</w>
Har v
l er
en orm
Aut onom
ch air
Mr s.</w>
14 -
sign ing</w>
Mel bourne</w>
re conc
Tra il</w>
Bal ance</w>
ban k
k a
Iber ia</w>
rel ate</w>
reduc tions</w>
l ou
phil ic</w>
ward ly</w>
se es</w>
pi g</w>
tra its</w>
C l</w>
og ram</w>
H ang
Sha re
Hô tel</w>
1 x</w>
Al z
pub lish</w>
hos ted</w>
ad ows</w>
Se x</w>
sens ing</w>
elong ated</w>
GL ASS</w>
F 1</w>
B .
e .</w>
cus sion</w>
rot ate</w>
depos its</w>
Exper t</w>
Assi stance</w>
is ons</w>
telec ommunications</w>
D T</w>
P é
AK TB
60 -
in puts</w>
def end</w>
AKTB ILDER</w>
fi e</w>
en vis
eg ovina</w>
absor b</w>
N atur
Chi apas</w>
evalu ating</w>
a ul
20 6</w>
An ni
Mo ham
Goo d
G P</w>
chec ked</w>
ch t</w>
elec toral</w>
gr ading</w>
cor relation</w>
c ad
Cont acts</w>
libr aries</w>
pursu ant</w>
cons ult</w>
Apart amento</w>
W at
Le on</w>
conv inc
fi ers</w>
Joh ann
trail er</w>
t angle</w>
les wig-
az ines</w>
Health care</w>
German -English</w>
pa ths</w>
Ax is</w>
thro mb
anim ation</w>
R ear
Mont ana</w>
Fe ature</w>
os cope</w>
N ucle
Maj or</w>
fav our</w>
R evolution</w>
propos es</w>
ud a</w>
Fin ish</w>
Ji ang
consum ed</w>
promis ing</w>
bou tique</w>
b omb
p izza</w>
Condi tions</w>
st at</w>
Tow el</w>
stre aming</w>
Tour ist</w>
. ....</w>
ranken haus</w>
fast ening</w>
dra inage</w>
an j
Nor dr
J acuzzi</w>
n ica</w>
read s</w>
hep atitis</w>
che z</w>
V ice</w>
Class ical</w>
po ker</w>
li ter</w>
cardi ac</w>
5 W</w>
be verages</w>
Fac ial</w>
Che ese</w>
ell ular</w>
Bos nia</w>
T uc
ent ally</w>
sal ine</w>
sen -
dr ill</w>
ati lity</w>
Tri bun
su red</w>
Tr ust</w>
MO S</w>
D Y</w>
v ig
6 50
g e-
Westfal en</w>
bra tions</w>
alk ali</w>
T R</w>
Individ ual</w>
tom ato</w>
demonstr ates</w>
Os aka</w>
Lea f</w>
Ca stro</w>
on der</w>
sp inal</w>
il t</w>
employ ers</w>
pro ud</w>
bon ding</w>
Gener ation</w>
resid ent</w>
T ell</w>
re agents</w>
di arr
Mi k
Bo hem
dig estion</w>
antibio tics</w>
tr ical</w>
Sant ander</w>
C ITY</w>
Min isters</w>
Con tainer</w>
don ors</w>
Sim on</w>
mus h
mul tic
S 3</w>
B it</w>
herein after</w>
Cli ent</w>
h inge</w>
Prim ary</w>
Ex erc
te en
ru z</w>
he in-
R d</w>
Gu id
H az
C LU
4 80</w>
D rug</w>
phen ol</w>
enn y</w>
bo y
p ads</w>
ug h</w>
O H
in jector</w>
analy tical</w>
T 2</w>
sty rene</w>
V oc
P s</w>
Ch â
g oo
Horiz ontal</w>
ro v
ren owned</w>
en ever</w>
as se</w>
ep it
TI C</w>
p ine</w>
ear ning</w>
distingu ished</w>
A part</w>
M ist</w>
Ad am</w>
CO B</w>
AS T</w>
vacc ines</w>
Rel ig
ligh ter</w>
tr ucks</w>
survi ve</w>
ter y</w>
satis fy</w>
R ice</w>
F U
CO VER</w>
n avig
att oos</w>
fu els</w>
b acking</w>
Resour ce</w>
S OR</w>
us tic</w>
Mul tic
b uckle</w>
4 -</w>
sh it</w>
re act</w>
territ orial</w>
w ai
light weight</w>
Al ways</w>
ati es</w>
A 5</w>
q ing</w>
3. 3</w>
Agric ultural</w>
ten sions</w>
000 mAh</w>
y eah</w>
V IC
C ER
men str
Klin ik</w>
tra violet</w>
soc ieties</w>
if ies</w>
Venezu el
harmon y</w>
YO U</w>
th ms</w>
sub scription</w>
f ar
sh a
er arch
en bach</w>
diagnos ed</w>
Nordr hein-
Ca ke</w>
ST A</w>
depic ted</w>
as ted</w>
C X
comp ete</w>
be ige</w>
Wür ttemberg</w>
Nordrhein- Westfalen</w>
ess ence</w>
ate ur</w>
O mega</w>
ur ged</w>
p ane</w>
n ie</w>
i ya</w>
car cin
bub bles</w>
u ters</w>
M om
IN T</w>
thread ed</w>
Har ley</w>
F inal</w>
sh if
mil d</w>
Icel and</w>
Herz egovina</w>
avo iding</w>
H op
sub strates</w>
fra ud</w>
al ur
v i</w>
scen ario</w>
pr ime</w>
chec ks</w>
F as
Contin u
2 80</w>
er ships</w>
inter actions</w>
Brist ol</w>
- off</w>
ic ure</w>
emul si
R. L</w>
te ment</w>
G el
optim ized</w>
civ ilians</w>
u z
polypep tides</w>
Kazakh stan</w>
Fre ez
30 2</w>
ev en
Provid ers</w>
is ot
x i</w>
mom ents</w>
organiz ational</w>
Tun er</w>
ib li
consider ably</w>
promo tional</w>
pro pose</w>
be gun</w>
regener ation</w>
defin itions</w>
Al mer
fl ash
la p</w>
5. 1</w>
an atom
ammon ia</w>
Quad copter</w>
A sus</w>
on set</w>
P ea
Cu be</w>
ten ed</w>
it at</w>
repe at</w>
N it
Ch ic</w>
head ed</w>
IP 65</w>
Box ing</w>
Ab sor
ew ay</w>
er b
spec im
our met</w>
excell ence</w>
Alp ine</w>
42 mm</w>
dis tillation</w>
i able</w>
en ue</w>
Con trac
CR U
4 10</w>
ag onal</w>
Ul tr
4 20</w>
Cra zy</w>
hu ahua</w>
ba thing</w>
ari os</w>
IC T</w>
rol ls</w>
dign ity</w>
ar is</w>
T ire</w>
Ver ona</w>
N y
H ip
at inate</w>
2 x
l m</w>
pro jector</w>
cur ric
T UR
sculp ture</w>
ul timately</w>
prob ability</w>
F inger</w>
ul tra-
Tur in</w>
u pl
stand ings</w>
al ive</w>
hos tels</w>
con e</w>
vacc ination</w>
reinfor cing</w>
chem otherapy</w>
j ury</w>
Ad ults</w>
t ude</w>
constitu ted</w>
pro bes</w>
pressu res</w>
K ay
hear ts</w>
st ain</w>
Chr is</w>
Baden- Württemberg</w>
ul ates</w>
g om
g ang</w>
C 1</w>
Tor res</w>
Off icer</w>
9 7
.co. uk</w>
circum fer
jud ges</w>
Tem plate</w>
cur tain</w>
aci tive</w>
N otes</w>
tow el</w>
i ka</w>
S ard
Lan zar
o ing</w>
lo ops</w>
list ening</w>
illumin ation</w>
t ages</w>
dispers ed</w>
Pre ferred</w>
in als</w>
Cor al</w>
hydro us</w>
VI P</w>
B und
prefer ence</w>
J -
Fl am
5 10</w>
Ug anda</w>
lung s</w>
ION AL</w>
tal ent</w>
g land</w>
consist ency</w>
G P
Cos metics</w>
K amp
V AC</w>
pri ze</w>
precurs or</w>
Light weight</w>
ar yl</w>
tag ena</w>
T reas
ass emblies</w>
us -
ev acu
c al</w>
re flux</w>
Specif ic</w>
P isa</w>
te dly</w>
sim ulator</w>
Ap pli
AN A</w>
fol ded</w>
198 6</w>
H P
use a</w>
cor ners</w>
co operate</w>
K M</w>
26 4</w>
gear box</w>
col oring</w>
b amboo</w>
add y</w>
up stream</w>
den se</w>
Studi os</w>
subscri ber</w>
cou p
Sh ould</w>
Tran si
Manh attan</w>
deleg ations</w>
Minim um</w>
gather ed</w>
Bu ild
4 th</w>
round ed</w>
g auge</w>
Z A</w>
M X
v om
adv ances</w>
Ste am</w>
ateg or
M UL
selec tively</w>
s om
lab eling</w>
f ail</w>
War saw</w>
I owa</w>
Conver tible</w>
ish op</w>
Pur ifier</w>
A lex</w>
Ins ulation</w>
ac tic</w>
pa ren
stronom y</w>
Consum er</w>
d ness</w>
b ore</w>
Univers idad</w>
B locks</w>
emphas ized</w>
be y</w>
af ood</w>
ac ed</w>
op ard</w>
E yes</w>
medic inal</w>
UE L</w>
adj u
mand atory</w>
volunte ers</w>
Ma ison</w>
ha tic</w>
med ications</w>
gre w</w>
off line</w>
an th
Tr ash</w>
Sim ulation</w>
ung sten</w>
Toul ouse</w>
neck lace</w>
ew are</w>
re tained</w>
nucleo tides</w>
Co -
S WIT
Con crete</w>
t une</w>
dos ing</w>
m asks</w>
f ill
Y el
M er</w>
me g
antioxid ant</w>
vo ted</w>
Ma ine</w>
arter y</w>
Oxy gen</w>
prison ers</w>
investig ations</w>
Mon cler</w>
Con version</w>
applic ant</w>
ol efin</w>
Viet nam
Sh ows</w>
3 80
separ ator</w>
er ical</w>
cur tains</w>
7. 0</w>
tun ing</w>
syste matic</w>
form ers</w>
Tw o-
partic ulate</w>
eng raving</w>
SYSTE M</w>
de position</w>
Veg a</w>
PL US</w>
Z am
ab ria</w>
2 9.
th ick
W olf</w>
re mark
san itation</w>
c od
back pack</w>
b ute</w>
Co ating</w>
C B</w>
A par
me tric</w>
Lanzar ote</w>
st ap
m apping</w>
he jiang</w>
R iding</w>
Nu eva</w>
satis fied</w>
Sy m
struc tive</w>
stre ams</w>
Dis pens
br acket</w>
R ug
p umping</w>
Frequ ently</w>
Po in
tw in</w>
mun icipalities</w>
j ar</w>
m illing</w>
L ie
3. 5mm</w>
M bps</w>
E B
oun ced</w>
emerg encies</w>
Lea ve</w>
D X</w>
IN A</w>
perme able</w>
Gu errero</w>
LE ATHER</w>
pain tings</w>
y en</w>
en ary</w>
r hy
pat ents</w>
fo g</w>
HO USE</w>
di versi
p itch</w>
d op
Car tagena</w>
tempor arily</w>
2 G</w>
k on
ple ased</w>
Res orts</w>
Elev ator</w>
sp here</w>
Strateg ic</w>
Sain te-
altern atively</w>
h of</w>
por e</w>
altern atives</w>
apol is</w>
Wal k</w>
es burg</w>
di an</w>
sent ence</w>
re medi
it us</w>
i ter</w>
W HE
Me at</w>
Hand bags</w>
Car n
WINDO W</w>
198 7</w>
trav elling</w>
rab bit</w>
dipl omatic</w>
ci ón</w>
6 3
ran ked</w>
recre ation</w>
ic -
en ic</w>
Boo k
V ac
De ad</w>
M are</w>
C AM
Ad d
Pay ment</w>
LIZ ER</w>
Dis pos
pan oramic</w>
Sty lish</w>
attor ney</w>
Ne vertheless</w>
L iter
Z im
ligh t-
Ob ject</w>
X in
it aire</w>
R AN
- N
D T
1 13
ros is</w>
e. g</w>
prohib ited</w>
Gra in</w>
M old</w>
Cab o</w>
v s.</w>
gran ules</w>
sur fing</w>
St ory</w>
DH L</w>
an mar</w>
agg ressive</w>
Z agre
Mari time</w>
Mar rak
youn ger</w>
SC RE
He ads</w>
Trans fers</w>
mar gin</w>
Meas urement</w>
H R
ment -
P W
spec ts</w>
pres enting</w>
D B</w>
2 a</w>
m ulti</w>
il ion</w>
Si em
n ails</w>
English- Chinese</w>
Dak ota</w>
z ia</w>
ogen ous</w>
f ont</w>
fo reg
Sil icon</w>
uc tu
ast y</w>
harv est</w>
chlor o
fluores cence</w>
A ch
VP N</w>
Cla ims</w>
mit ting</w>
Cross body</w>
Ex pan
hab its</w>
But tons</w>
weak ness</w>
Wa ke</w>
H op</w>
tw elve</w>
bi kes</w>
Marri ott</w>
vi able</w>
pip eline</w>
sta tionary</w>
riv ers</w>
foc al</w>
analys es</w>
Bas il
fac tories</w>
wi vel</w>
Wor kers</w>
L ane</w>
div or
S aid</w>
con grat
μ l</w>
N B</w>
loc ally</w>
tr idges</w>
e u</w>
neighbour hood</w>
SA P</w>
dis asters</w>
announ cement</w>
Per i
cl amping</w>
Sleev es</w>
Pa z</w>
Z ero</w>
pill ar</w>
adop ts</w>
Custom ers</w>
ph ere</w>
inhib iting</w>
bro ok</w>
refin ed</w>
influ enced</w>
leak age</w>
bas ketball</w>
p av
ex cluded</w>
d ong</w>
Ar th
ü t
Arch ives</w>
ro it</w>
ov ol
le f
W y
intest ine</w>
bas ically</w>
simultan eous</w>
ep oxy</w>
al ongside</w>
al ition</w>
b et</w>
C LE
attr action</w>
CA P</w>
struc turing</w>
V .</w>
U TC</w>
hun ger</w>
SI S</w>
H ood</w>
A F</w>
sp ices</w>
Ken ne
0. 6</w>
Switch es</w>
wor thy</w>
T 1</w>
Ass ess
im id
Wol f
Fam ous</w>
estiv als</w>
alle vi
sh ut</w>
F illing</w>
A ub
cle av
E there
cu red</w>
May o</w>
Initi ative</w>
plas mid</w>
up coming</w>
Ben ef
athle tes</w>
Ank ara</w>
bus y</w>
br idges</w>
S and</w>
aes thetic</w>
Mag azine</w>
ta h</w>
par li
pl antation</w>
C igarette</w>
os o</w>
PO S</w>
ine ts</w>
Sta ff</w>
Sk oda</w>
A TED</w>
E agle</w>
Ag enda</w>
Dipl oma</w>
sho ts</w>
In cluded</w>
lo gy</w>
n an</w>
I MP
ung al
trav els</w>
gu iding</w>
c enti
per mitted</w>
Y O</w>
photograph s</w>
ab il
Ex tended</w>
cann abis</w>
Ele ments</w>
6 S</w>
A K</w>
8 ,
spea ks</w>
s wee
7. 1</w>
v or
em an</w>
certif icates</w>
Ph u
P ig
ol st
Cel ebr
Caf é</w>
v ow
Pen insula</w>
Mix ed</w>
cataly sts</w>
Liver pool</w>
transduc er</w>
encap sul
con vention</w>
Tog ether</w>
Spe ed
Con tr
Pain ted</w>
G N</w>
Ex tract</w>
B ig
bound ary</w>
Fit ted</w>
l ite</w>
mari time</w>
iss ors</w>
Mar co</w>
Gre ater</w>
ac ional</w>
hu h</w>
Ver ac
ro of
L ud
Chi huahua</w>
ep is
d uplex</w>
prac tically</w>
screw- down-
screw-down- crown</w>
My anmar</w>
ump kin</w>
c age</w>
S id
B 1</w>
er ly</w>
L anding</w>
Config uration</w>
igaret tes</w>
TAI N</w>
tar geting</w>
Zagre b</w>
Ar d
get ary</w>
op rene</w>
ab i</w>
Z E</w>
MIN I</w>
pack ed</w>
ener y</w>
pro pri
g lob
er ie</w>
cler osis</w>
Post Script</w>
P ine</w>
CT OR</w>
B uck
scen es</w>
n s
ship ment</w>
Sil va</w>
Cot tage</w>
s eller</w>
gen res</w>
dra in</w>
Rec y
Ho stal</w>
500 ,000</w>
C L</w>
conveni ently</w>
b low</w>
Tra iler</w>
2 80
i Pod</w>
Lo ad</w>
L ó
suppl ying</w>
chlor ic</w>
Est onia</w>
refug ee</w>
N at
Sch leswig-
Doc uments</w>
r ams</w>
ex cur
20 x
Se al</w>
Alber t</w>
10 pcs</w>
supple ments</w>
pre v
rec ess</w>
pec ted</w>
V al</w>
S can</w>
and ro</w>
Kos ovo</w>
Ku wait</w>
Clin ics</w>
ro -
D uplex</w>
8 4
N IS
Andal uc
c nc</w>
mer ely</w>
join tly</w>
Rel ax</w>
AC H</w>
l ingen</w>
thread s</w>
olog ous</w>
equ ity</w>
ch a
pro tot
enorm ous</w>
5 50
dec ent</w>
bur ner</w>
soci o-
j ack</w>
af r
ten ds</w>
English- Danish</w>
ip e
ep isode</w>
k ind
State ment</w>
arg ument</w>
Hamp ton</w>
k king</w>
cer y</w>
autonom ous</w>
ev ident</w>
M N</w>
Be verages</w>
ab normal</w>
L S
sti ff
ne z</w>
deal erships</w>
W I
P ass</w>
0. 00
strength ened</w>
pe dest
Cru ise</w>
ox ides</w>
Sal amanca</w>
CA M</w>
o ise</w>
celebr ated</w>
Ty re</w>
k u
dis solution</w>
X 2</w>
tro ub
B ris
ar ising</w>
M ate</w>
Andre w</w>
sh an</w>
in tu
Chic ken</w>
concer ts</w>
Fair y</w>
s son</w>
b onded</w>
wor ship</w>
h ec
extra- urban</w>
Tex tile</w>
absor bing</w>
g aining</w>
R ing
15 00
multi pl
Vietnam ese</w>
KY BUY</w>
DIN KYBUY</w>
e vil</w>
P BS</w>
some how</w>
medi eval</w>
a a</w>
m m
TE N
13 6</w>
recru itment</w>
her bs</w>
ac ia</w>
re jected</w>
3 -</w>
sul fur</w>
- German</w>
hes itate</w>
ven s</w>
MA C</w>
mo iety</w>
L omb
i ano</w>
Sc ooter</w>
SP E
pro pan
Wi red</w>
ro ds</w>
imag ine</w>
be ams</w>
am us
wav e
filtr ate</w>
e v</w>
v il
econom ical</w>
c any</w>
je ans</w>
Al cal
2 70</w>
ME D
spir al</w>
enjo y
an as</w>
Ind igenous</w>
sur geon</w>
re stored</w>
fl uctu
camp s</w>
Bre ad</w>
X I</w>
k h</w>
ation -
amb ia</w>
E vol
sou p</w>
s wear</w>
essi bility</w>
W iper</w>
Ph D</w>
Arc GIS</w>
Cool er</w>
dynam ics</w>
deteri oration</w>
qu ad
fas cin
en closure</w>
emo tions</w>
e ter</w>
L ip</w>
Tex ture</w>
benef ici
tr if
Det roit</w>
Al bu
landscap es</w>
hydroph obic</w>
I VE</w>
Fin ding</w>
trig g
gra ft</w>
E step
chec k
G ive</w>
b att
Therap y</w>
W W
Compon ent</w>
B ai
rid or</w>
M id</w>
EL D</w>
FRO M</w>
Im perial</w>
e to</w>
A ERO
whe el
regul ating</w>
tac le</w>
Fri ed
Ethi opia</w>
thel ial</w>
Mar g
satis factory</w>
i .
Ed ward</w>
high way</w>
d in</w>
amend ments</w>
Wil son</w>
L ook
Sp on
cul osis</w>
MO D</w>
8 GB</w>
transl ated</w>
Cl assi
proc eed</w>
L V
Ch at</w>
Ne uro
shor ter</w>
IC LE</w>
sci ences</w>
ta k
er i</w>
G et
E PS</w>
Ch erry</w>
Bah n</w>
in aug
Belar us</w>
Head phone</w>
ing es</w>
in direct</w>
ang es</w>
set up</w>
olar ship</w>
Or al</w>
ament os</w>
pro minent</w>
Rab bit</w>
CI A</w>
Wh irlpool</w>
EM C</w>
Infra structure</w>
C 4</w>
r í
low ering</w>
vers atile</w>
Sp ain
EE C</w>
del icate</w>
P ast
ut able</w>
sal ad</w>
el o</w>
e ur</w>
dial ysis</w>
vent ura</w>
na usea</w>
bu yers</w>
sm oo
lig and</w>
Par quet</w>
he m</w>
foreg oing</w>
e j
fair ly</w>
Gro ß
Im mun
bre w</w>
def enders</w>
T ent</w>
Nau tical</w>
- en-
rec ipient</w>
f os
scri pt</w>
collec tor</w>
cool er</w>
og ur
enjo ys</w>
assi stant</w>
ad mission</w>
Men u</w>
be k
author ization</w>
Ethere um</w>
G az
s al</w>
Z ap
separ ating</w>
rib bon</w>
Ther mo
s ar
ty re</w>
hou ette</w>
ure -
Del eg
reflec tive</w>
arriv es</w>
An th
M ust
Siem ens</w>
ST D</w>
sh orts</w>
as -
u ate</w>
bo asts</w>
Con cept</w>
inj ured</w>
Pro jects</w>
Dis covery</w>
s lip
X T
P and
Estep ona</w>
carri age</w>
Neck laces</w>
Op portun
AN CE</w>
ant ine</w>
D ome</w>
pul p</w>
a ver
Ch art</w>
les ions</w>
es cent</w>
el eton</w>
ok es
b esides</w>
Se eds</w>
Tr ab
Orig in</w>
recy cled</w>
cataly tic</w>
thy roid</w>
o ka</w>
secret ary</w>
S AM
g ar</w>
aff ili
Br on
ph in</w>
otechn ology</w>
hel met</w>
igh ted</w>
ard ous</w>
cor der</w>
Autonom ous</w>
alk yl
Gh ana</w>
C AR</w>
9 4
15 6</w>
refer ring</w>
ba i</w>
Par f
stor m</w>
Ste ve</w>
f lies</w>
cy clic</w>
Trip od</w>
16. 04.2018</w>
id el
reinfor cement</w>
O live</w>
Lat via</w>
ex changes</w>
Hosp it
s is</w>
Tus cany</w>
ul ators</w>
que en</w>
O PE
13 -
w is
em i
Cô te</w>
authen tic</w>
Collec tions</w>
reg istry</w>
D ogs</w>
k .com</w>
Gran d
hi erarch
b ial</w>
stric ts</w>
um b</w>
Ber ry</w>
8 3
t- shirt</w>
g aps</w>
compar ative</w>
No zio</w>
Di e</w>
N H</w>
30 1</w>
p per</w>
Leg end</w>
bre aker</w>
renov ated</w>
D V</w>
recogn izes</w>
P O</w>
TY PE</w>
Re ports</w>
80 2.
RO MAN
Tr ading</w>
40 mm</w>
Eg g</w>
fo res
Tig er</w>
c ategor
p assive</w>
cl arity</w>
E mail</w>
All en</w>
R oc
Plas ma</w>
dra g</w>
en yl</w>
iss a</w>
Protec t</w>
v on</w>
sh adow</w>
er y
X X</w>
H S
Gl en
Bou levard</w>
cop ol
asyl um</w>
some what</w>
Armen ia</w>
C CD</w>
á z
t .
e- up</w>
K ev
fe atured</w>
ad her
L oss</w>
inst antly</w>
eg al</w>
br o</w>
H as
inv asive</w>
i bus</w>
dr y
Mar qu
ut a</w>
KE T</w>
do t</w>
ch ess</w>
ten sile</w>
hair dryer</w>
W ang</w>
AT V</w>
fi br
citiz en
fa ucet</w>
el and-
B RO
od or
W N</w>
Bran ch</w>
stra w
she ath</w>
H our</w>
Ag ainst</w>
E specially</w>
un wanted</w>
Verac ruz</w>
Proced ure</w>
occas ions</w>
20 8</w>
y d</w>
Z o
28 .
bas ement</w>
C ust
Under water</w>
an z
block chain</w>
C s</w>
co ver
centr ally</w>
Ch ild
signific ance</w>
Nor mal</w>
bor o</w>
S cope</w>
Mig ration</w>
48 4</w>
v ine</w>
Wh ite
W ond
ecosy stem</w>
2 3.
s ight</w>
Fu er
Doc tors</w>
as ser
MEN TS</w>
A br
Sen ior</w>
S ax
kn owing</w>
ear ned</w>
Y et</w>
y ou
She ets</w>
- free</w>
lea ther-
T arr
tr ation</w>
ure a</w>
contrac tor</w>
encour aging</w>
deep ly</w>
Avi ation</w>
lim e</w>
Pri or</w>
H 4</w>
Clin ton</w>
reve al</w>
L oop</w>
dev oted</w>
El ite</w>
Therm ometer</w>
Cambodi a</w>
cons on
Trad us</w>
Mad ison</w>
O D
m ou
1 14
m ood</w>
O sl
A round</w>
ik um</w>
all a</w>
Apart amentos</w>
re placing</w>
1 pcs</w>
phen yl
ar ization</w>
min ority</w>
Z ip</w>
s it
d al
am o</w>
small -
fin s</w>
elim inated</w>
Rich mond</w>
amp er</w>
J ak
iss ance</w>
mam mal</w>
exc av
ate dly</w>
C AP
Day light</w>
az ole</w>
N ickel</w>
l ley</w>
AN G
ong ue</w>
Th read</w>
Lev ers</w>
inf ant</w>
og ens</w>
6 000</w>
J ump
Every thing</w>
Ac er</w>
e h
R ace</w>
T est
P IN</w>
mis sed</w>
ici ent</w>
PE G</w>
Com man
three- dimensional</w>
r ons</w>
ING S</w>
tolu ene</w>
an nex</w>
Re friger
onom ic</w>
rocod ile</w>
m ile</w>
journal ist</w>
Toil ette</w>
s ch</w>
ovol ta
iti vely</w>
For mal</w>
on de</w>
Sur name</w>
exhib its</w>
V OL
Fant asy</w>
Al aska</w>
Ou ibus</w>
phosphor us</w>
j pg</w>
stand ardi
ik o</w>
vi sts</w>
us her</w>
Sk irts</w>
inter medi
incorpor ating</w>
MS c</w>
Mov ing</w>
retr iev
Gi ov
Cer tification</w>
Vall arta</w>
Th om
M OR
Ad ri
chlor ine</w>
S au
provinc es</w>
M g
Foun tain</w>
in soluble</w>
Out side</w>
Hoo die</w>
Cas til
AR S</w>
ti te</w>
min i-
jour nal</w>
in coming</w>
Rec ogn
Part ner
N ai
ar u</w>
Promo tional</w>
ign ty</w>
dis armament</w>
autom obile</w>
pi ano</w>
D inar</w>
il ers</w>
K l
un es
am entary</w>
Pan els</w>
ur s</w>
et own</w>
M ous
La uder
out lined</w>
res et</w>
k w</w>
bi op
al isation</w>
po is
mo m</w>
O E
AC T</w>
neigh b
Sur vival</w>
optim ization</w>
High er</w>
anti gens</w>
T .</w>
H ands</w>
Cr ime</w>
employ er</w>
Str as
Cou ple</w>
est ock</w>
M eck
bab ies</w>
Ath le
s ons</w>
D ong</w>
22 mm</w>
198 5</w>
Gonz á
Coven ant</w>
preser ved</w>
k ie</w>
fin ed</w>
13 4</w>
del iber
s light</w>
ash ed</w>
ach ments</w>
8. 0</w>
sp indle</w>
US B
Mari e</w>
valid ation</w>
un desirable</w>
swe et
pl ating</w>
le m</w>
1. 0
vom iting</w>
Bo oster</w>
Work shop</w>
proc urement</w>
IM MOBI
ax le</w>
B AL
tw enty-
t um</w>
Q -
MER CE
pass port</w>
an hydrous</w>
Kar aoke</w>
grad es</w>
Ló pez</w>
ti res</w>
Pen sion</w>
po res</w>
Jeff erson</w>
CT S</w>
ell es</w>
4- star</w>
10 80</w>
ul us</w>
in ny</w>
T ang
Pow erful</w>
reg arded</w>
poin ting</w>
Mos que</w>
in no
RI GHT</w>
C are
M au
heim er</w>
inspir ation</w>
caf e</w>
pl ing</w>
ac án</w>
emerg ence</w>
V 8</w>
earthqu ake</w>
preval ence</w>
path y</w>
dep riv
secret ariat</w>
T- Shirts</w>
os copic</w>
Ne on</w>
trans former</w>
t ling</w>
mol ar</w>
m ir</w>
Venezuel an</w>
Rog er</w>
iel ding</w>
l ava</w>
gu ez</w>
Hy dr
Croati an</w>
s berg</w>
om o</w>
h ills</w>
copol ymers</w>
pe aks</w>
l atex</w>
c eiver</w>
d ess
Cin ema</w>
L ion</w>
raph s</w>
ro yal</w>
e tic</w>
Q atar</w>
incorpor ation</w>
en sive</w>
p it</w>
in fin
DE R
C ookies</w>
Port al</w>
saf ely</w>
plun ger</w>
Cann es</w>
Pol e</w>
Tim er</w>
Br idal</w>
E du
avi ation</w>
acidi c</w>
Plat inum</w>
Mo rel
G I</w>
la h</w>
secre tion</w>
al tered</w>
Quint a</w>
Pati o</w>
E co</w>
o b</w>
inher ent</w>
pi one
over- 2500</w>
a ther
p encil</w>
influ enza</w>
ford shire</w>
P N
p ie
5 20</w>
or if
ca ught</w>
ad esh</w>
M in</w>
prog ression</w>
ard y</w>
L akes</w>
CONTR OL</w>
hydro chloric</w>
advis e</w>
D u</w>
B ill
C 1-
in fer
G ust
id ation</w>
Sp ac
SEN SOR</w>
Pot os
One -
Sup ports</w>
Loren zo</w>
F S
B R</w>
drop ped</w>
Gi br
Compress ors</w>
Ros ario</w>
Assess ment</w>
ster ilization</w>
on ion</w>
Dom ingo</w>
dis charged</w>
on au
inter faces</w>
gl ing</w>
Reg ulator</w>
s lim</w>
Psych ology</w>
complain t</w>
D RA
dol l</w>
del ayed</w>
4 pcs</w>
tr adem
blu etooth</w>
sk irts</w>
li sting</w>
i y
S atin</w>
mil it
t less</w>
distribut or</w>
on ian</w>
pro test</w>
piv ot</w>
G 1</w>
Pal ermo</w>
Fac ulty</w>
Co vered</w>
az z
3. 7
mol ten</w>
radi ally</w>
ed er</w>
O M</w>
ab ase</w>
distingu ish</w>
f oster</w>
establish es</w>
DI A</w>
bro ader</w>
3 2.
dr agon</w>
engine er</w>
g od</w>
clear ance</w>
K ab
Cerr o</w>
9 9.
Veg etable</w>
W er
C ables</w>
yp ass</w>
gro ss</w>
co inc
Euro lines</w>
lob by</w>
bra king</w>
Y S</w>
14 4</w>
ph ab
disp ute</w>
ret ard
enn ial</w>
S etting</w>
Dim mable</w>
R w
Ba thro
step -by-
on itrile</w>
he el</w>
W LAN</w>
resol ved</w>
Design s</w>
20 3</w>
sevent h</w>
Tro pical</w>
on- site</w>
tro users</w>
surfac tants</w>
induc e</w>
W u
aju ato</w>
T one</w>
Avi v</w>
perme ability</w>
S 4</w>
Al t
pos itory</w>
Z U
Wander io</w>
rele v
re sts</w>
DE CK</w>
re affir
H ence</w>
H T</w>
step-by- step</w>
9 2
3 16</w>
S r
j ump</w>
Lag una</w>
L un
Qu al
Br igh
H ud
a str
design ing</w>
vulner ability</w>
st aying</w>
our ing</w>
A lo
S ession</w>
Pro fession
IN E
Cent ury</w>
fo x</w>
Tribun al</w>
expen se</w>
6 A</w>
re jection</w>
op her</w>
Pop e</w>
phys ician</w>
án dez</w>
L AND</w>
Knit ted</w>
ass ignment</w>
Rear view</w>
4 mm</w>
Euro sport</w>
k ov
diff usion</w>
ass isted</w>
Lauder dale</w>
F arm
gl as</w>
Her tz</w>
repl ication</w>
i b</w>
C up
qu isite</w>
mut ation</w>
mu tations</w>
CR- V</w>
Sh im
dis si
Wh ere
el ly</w>
Mar ketplace</w>
high- end</w>
K un
US T</w>
Sn ap
Cour tyard</w>
O FF</w>
amb a</w>
17 0
Ur gent</w>
Cor d</w>
ú s</w>
as ian</w>
I t
re trac
e- based</w>
Palest ine</w>
M ail</w>
our selves</w>
lamin ate</w>
-to- date</w>
sk i
ovolta ic</w>
es tions</w>
Ira qi</w>
ug a</w>
1 13</w>
per or</w>
ab ad</w>
g ateway</w>
collap se</w>
Sear ching</w>
with stand</w>
im pregn
de alers</w>
Integr ation</w>
t any</w>
Y acht</w>
X 4</w>
read ers</w>
Michel in</w>
tocur rency</w>
b od
Seas on</w>
quot e</w>
gover ning</w>
rot ated</w>
stic kers</w>
fast ener</w>
G s</w>
ot ype</w>
leg end</w>
Sh ip</w>
se als</w>
or ama</w>
b ian</w>
Pil ot</w>
bu yer</w>
Person alized</w>
shel ves</w>
leather- band</w>
dir t</w>
ff ed</w>
Franc is</w>
Res p
G ur
new est</w>
believ able</w>
TH F</w>
ti lis
ple x
l ar</w>
Pyr amid</w>
Mar s</w>
C 5</w>
cel e
Bl ouse</w>
fant asy</w>
ti um</w>
g ard
bran ched</w>
Hol stein</w>
pe -
asp berry</w>
TO S</w>
SO 4</w>
R é
Inf ant</w>
H 1</w>
ul u</w>
process ors</w>
est ay</w>
Hun ter</w>
14 2</w>
ar rows</w>
D uc
Aug ust
form ul
allo ys</w>
rac ial</w>
An cient</w>
f all
V iv
S tit
z burg</w>
plan es</w>
l un
condens ation</w>
card board</w>
fol ders</w>
Admin istr
p l</w>
TH E
sh are
hydro philic</w>
he ading</w>
car ton</w>
Buil t-in</w>
Au g</w>
LO S</w>
D in</w>
gom ery</w>
Azerbai jan</w>
Osl o</w>
question n
repe atedly</w>
wor n</w>
L ever</w>
Wall papers</w>
Sh eng</w>
es .net</w>
5 th</w>
y ana</w>
T ut
T ir
1- 2</w>
Ch eck
ks cm</w>
am ong
Tr ay</w>
Quar kscm</w>
phenom ena</w>
li ability</w>
kid neys</w>
ext ingu
T RE
inc enti
2- 3</w>
ti ll</w>
R N
tim ore</w>
ot ers</w>
Off ices</w>
switch ed</w>
ver tically</w>
se ud
di stricts</w>
Moun ting</w>
AS US</w>
ne a</w>
f ere</w>
N om
12. 0
hydrocarb ons</w>
gr and</w>
FA Q</w>
um ped</w>
X L
Rib bon</w>
Chi ffon</w>
Comp ounds</w>
reas ing</w>
C ow
32 GB</w>
gra ins</w>
ma keup</w>
an tes</w>
Do or
m attress</w>
C 2</w>
therapeu tically</w>
N .</w>
Mont gomery</w>
9 ,
Part ner</w>
SWIT CH</w>
Pers ons</w>
Tem plates</w>
pe i</w>
Sh ock
Frank lin</w>
h ate</w>
spher es</w>
gran ts</w>
e ber
cli ps</w>
identi fies</w>
def icit</w>
hab i</w>
M IT
1. 2
Spl itter</w>
15 2</w>
unc ture</w>
f r</w>
bas eline</w>
P H</w>
ag ona</w>
Yem en</w>
adjust ments</w>
Y ar
C AT</w>
tr al</w>
rap e</w>
l uck</w>
simpl ified</w>
electr on</w>
se wing</w>
pes tic
nur sing</w>
biom ass</w>
avo ided</w>
Can yon</w>
C 3</w>
veter inary</w>
carbo hydrates</w>
IMMOBI LIZER</w>
tend ency</w>
large- scale</w>
R HY
K .</w>
Import ant</w>
P od
Co ach</w>
ici o</w>
synchron ization</w>
Pat rick</w>
imp ed
Mac edonia</w>
Hon ey
S ac
Co ve</w>
tar o</w>
per forman
ister ial</w>
f e</w>
ch et</w>
vow els</w>
hal ogen</w>
hop es</w>
h p</w>
Maur iti
Hon ey</w>
ton nes</w>
inver ter</w>
bro ke</w>
C ook</w>
Sec tor</w>
Play ers</w>
Con sid
Practi ce</w>
Competi tion</w>
4 1
access ory</w>
Es cape</w>
Director ate</w>
17 -
inter fere</w>
Jour nal
par ad
im mobil
S AL
K ent</w>
ash i</w>
Nel son</w>
c igarettes</w>
p assi
U PS</w>
Dispos able</w>
stat ue</w>
Ta king</w>
gent le
del ays</w>
App arel</w>
b ag
2 10
citizen ship</w>
a f</w>
utili zing</w>
Wid th</w>
sovere ignty</w>
G AL
ve ins</w>
Col ored</w>
AU X</w>
U tah</w>
kn it</w>
fol i
au r</w>
Mont pel
D F</w>
fore ver</w>
Vir us</w>
Nam ib
under go</w>
p ushed</w>
conson ants</w>
as i</w>
Kitchen ette</w>
A RE
Bal timore</w>
persi stent</w>
nit z</w>
B N
sy cho
lamin ated</w>
Muse o</w>
in ev
dir ty</w>
p h</w>
col ogy</w>
Fa x</w>
m ust
cen tered</w>
s miling</w>
fri endship</w>
exhib itions</w>
G 4</w>
play back</w>
m s
la x
continu ity</w>
Gonzá lez</w>
Ge ometric</w>
Contin ental</w>
f ai
R az
p earl</w>
Phu ket</w>
Ign acio</w>
Li kewise</w>
tab les
sec uring</w>
gro oves</w>
thro at</w>
con sequently</w>
Qu ick
organ ised</w>
im plies</w>
end ary</w>
s ights</w>
r uling</w>
s ided</w>
nic ot
it ol</w>
entrepreneur s</w>
SE S</w>
c all
amend ment</w>
J avier</w>
defe at</w>
EU RO
Cam bridge</w>
Th or
Sk ating</w>
4. 4</w>
T ampa</w>
und i</w>
fif ty</w>
Repl ica</w>
Bal ear
ul traviolet</w>
maxim ize</w>
AB ILI
tr action</w>
ro id
of en</w>
challeng ing</w>
air ing</w>
P F</w>
An t
ur ing
ist or</w>
Jo an</w>
tr im</w>
M ort
roc ks</w>
incorpor ates</w>
N er
Mon ument</w>
DI O</w>
es .</w>
Rh ô
P added</w>
Camp us</w>
mal ign
constitu tion</w>
Ter me</w>
sh ades</w>
al ter
Com pression</w>
ti d
ov al</w>
Vis a</w>
hor ses</w>
Char acter
peace keeping</w>
p u</w>
Su ede</w>
ampl itude</w>
[...]
