#version: 0.2
t h
th e</w>
i n
a n
t i
r e
e r
o f</w>
e n
o n
o n</w>
a r
o r
an d</w>
e d</w>
o u
t o</w>
i n</w>
in g</w>
i t
e s</w>
e r</w>
s t
a l
r o
a t
i s</w>
a ti
a l</w>
o s
a t</w>
e c
o r</w>
i c
a p
o m
a c
q u
a n</w>
s i
e l
o t
i l
a s</w>
e s
i s
u r
a s
v e</w>
en t</w>
w h
qu ot
quot ;</w>
& quot;</w>
p l
o l
ati on</w>
p ro
u s
th at</w>
f or</w>
e n</w>
e m
ap os
& apos
t s</w>
l y</w>
r i
a m
c on
e v
i t</w>
&apos ;
l i
d i
n o
a b
on s</w>
s u
u n
a g
a d
@ -
@- @</w>
c e</w>
ti on</w>
c om
o u</w>
th e
h a
y ou</w>
w it
ar e</w>
e x
wit h</w>
t r
o p
re s
c h
l e</w>
e t
v i
b e</w>
c i
l o
er e</w>
ou n
f or
s h
it y</w>
a y</w>
u l
er s</w>
l e
g h
d e
th is</w>
b y</w>
&apos; s</w>
i m
n e
ou r</w>
l d</w>
at e</w>
u c
p er
no t</w>
b u
t er
a r</w>
m ent</w>
p or
b e
f f
w as</w>
w or
i r
v er
al l</w>
p ar
en t
th er</w>
p e
a k
on al</w>
ha ve</w>
f ro
w e</w>
fro m</w>
il l</w>
r a
ou t</w>
on e</w>
2 0
d s</w>
m e</w>
w ill</w>
s o</w>
ati ons</w>
m e
st r
s e
o w
c l
ou ld</w>
u m
h e</w>
re n
t e
d ing</w>
h i
g i
t ed</w>
c an</w>
o o
ur e</w>
t h</w>
i r</w>
es s</w>
a in
g r
an y</w>
ic h</w>
en ts</w>
it s</w>
c h</w>
c o
e t</w>
s p
wh ich</w>
si on</w>
ar y</w>
t er</w>
h as</w>
re d</w>
al ly</w>
gh t</w>
the y</w>
an t</w>
e ar
ti c
ou r
at ed</w>
pl e</w>
a y
bu t</w>
w e
p os
d uc
or e</w>
m o
f i
con t
ti ons</w>
an ce</w>
ati onal</w>
ti es</w>
ab le</w>
p re
c oun
d er</w>
for m
i z
o ther</w>
the ir</w>
d e</w>
y our</w>
s t</w>
a i
d o
in e</w>
u t
b er</w>
ec i
re c
in g
e p
ev el
an g
ag e</w>
m ore</w>
d is
es t</w>
com m
t o
th ere</w>
d ed</w>
c re
us e</w>
f e
u s</w>
g h</w>
g o
wh at</w>
p res
m in
om e</w>
en ce</w>
1 9
S t
es s
d er
os t</w>
ic e</w>
a in</w>
al so</w>
i f</w>
e st
us t</w>
i c</w>
s er
n ational</w>
en ti
in ter
p r
e l</w>
ab out</w>
U n
d o</w>
no w</w>
s e</w>
s ec
s o
20 1
ou s</w>
ak e</w>
a f
f in
&apos; t</w>
h e
d u
h o
ac c
cl u
evel op
at es</w>
ec t</w>
por t</w>
o ple</w>
am e</w>
a d</w>
w ere</w>
i es</w>
I n
em ent</w>
u b
com p
ic al</w>
as e</w>
ti me</w>
el l</w>
en er
l a
h is</w>
el y</w>
f ir
w i
it ed</w>
pe ople</w>
k s</w>
ac e</w>
g n
as t</w>
s y
es e</w>
t u
be en</w>
wh o</w>
us si
t ing</w>
C h
a v
o v
k ing</w>
C om
ti ve</w>
on g</w>
b ec
d ay</w>
am p
d evelop
R ussi
ev er
os e</w>
wor k</w>
o c
t ri
on ly</w>
ha d</w>
m ost</w>
or y</w>
t y</w>
re s</w>
st e
it e</w>
m y</w>
20 0
ne w</w>
r ou
m an
m ar
ai d</w>
wh en</w>
n o</w>
c es</w>
m on
re l
s ti
th an</w>
pro vi
k e</w>
ay s</w>
a u
al l
p ol
ser v
o b
i st
f ac
or s</w>
an s</w>
t ec
w ould</w>
ev er</w>
p h
in clu
al s</w>
m il
th ing</w>
b o
t w
i d
s el
fir st</w>
v es</w>
ar d</w>
ad e</w>
th ese</w>
ho w</w>
. .
por t
o g
su p
Com m
p ri
en d
su ch</w>
b le</w>
in v
g e</w>
pro duc
the m</w>
y e
r u
f u
an s
oo d</w>
ar i
sh ould</w>
re e</w>
ci al</w>
ff ic
b et
ear s</w>
Un ited</w>
amp ;</w>
& amp;</w>
u p</w>
0 0</w>
ver n
C on
h el
s aid</w>
oun d</w>
em ber</w>
ing s</w>
l is
lo w
g an
m any</w>
p o
y ears</w>
re qu
t en
s ome</w>
op er
wi th
u d
pro c
.. .</w>
m ay</w>
per s
u e</w>
i a</w>
form ation</w>
w ell</w>
wor ld</w>
su b
v ed</w>
res p
ati ve</w>
tr y</w>
li ke</w>
in to</w>
ver y</w>
o d</w>
ow n</w>
re m
g et</w>
ac h</w>
re g
at ing</w>
ti m
gh ts</w>
t ur
k e
st an
u m</w>
sp eci
w ay</w>
a re
r e</w>
c er
ac k</w>
c ri
st s</w>
g u
ch ang
f ic
h n
i ties</w>
f l
ol d</w>
li c</w>
il l
a m</w>
re gi
v ing</w>
af ter</w>
l l</w>
a use</w>
il ity</w>
i g
per i
ol u
ac ti
ren t</w>
su l
as s
com pl
tw o</w>
ub lic</w>
h er</w>
si gn
f e</w>
lo c
wh ere</w>
il e</w>
sh i
h um
u ro
en d</w>
j ust</w>
ye ar</w>
v en
tri es</w>
us ed</w>
si d
a il
on om
ch il
in formation</w>
em b
g re
ff e
c u
ov er</w>
ener al</w>
or gan
e i
inter national</w>
ol og
as ed</w>
r is
& #
k now</w>
coun tries</w>
ev en</w>
in i
ic es</w>
sh e</w>
develop ment</w>
e w</w>
e d
&apos ;</w>
d re
fu l</w>
&# 9
e g
con si
str uc
tr ans
a st
th rou
c ur
ste m</w>
el i
t ly</w>
n ing</w>
ur ing</w>
l ar
an c
E uro
n um
at er</w>
c ol
in te
ne ed</w>
i al</w>
om e
en c
for e</w>
tic al</w>
ec onom
th ou
St ates</w>
t ure</w>
th en</w>
m at
si ble</w>
we en</w>
ti c</w>
d on</w>
te e</w>
ri ght</w>
bet ween</w>
le g
tec hn
f r
o t</w>
c ould</w>
al ity</w>
th ose</w>
in cre
f t</w>
g e
li fe</w>
im port
A r
s ome
acc or
19 9
f un
em s</w>
no w
o re
P ro
c ap
un der</w>
c ar
b i
m is
m an</w>
ec ts</w>
p en
ac t</w>
i ght</w>
t ake</w>
m ake</w>
sy stem</w>
un der
e f
o s</w>
bec ause</w>
r it
y p
b l
b r
si ons</w>
coun try</w>
h ed</w>
d eci
d ic
t ak
el l
Russi an</w>
vern ment</w>
inclu ding</w>
S ec
it tee</w>
f ol
n ec
m s</w>
m er
di ffe
com e</w>
w om
sel f</w>
m ade</w>
organ iz
e ff
k now
throu gh</w>
s ur
N ations</w>
in k</w>
lo o
h ere</w>
im pl
cont in
li on</w>
d uring</w>
k ed</w>
ul ar</w>
t or</w>
d et
gr am
v e
se e</w>
ap pro
f ul
ur ity</w>
Russi a</w>
resp on
lo w</w>
e qu
so ci
bu il
an n
num ber</w>
Comm ittee</w>
d y</w>
w ant</w>
ap pl
s ame</w>
m ents</w>
re ad
en g
u p
an ts</w>
In ter
in ess</w>
hi m</w>
re t
for m</w>
hum an</w>
in ce</w>
j o
p s</w>
par t</w>
or der</w>
G eneral</w>
b us
is m</w>
is su
shi p</w>
j ect</w>
ti onal</w>
h ap
olu tion</w>
re sul
st ar
vi r
t re
ro w
P ar
dre n</w>
comm un
o f
i d</w>
en s
m a
d at
g o</w>
el ec
f am
y ing</w>
c or
ri ghts</w>
b ot
is t</w>
ci p
res s</w>
at t
C oun
sup port</w>
em ent
g ood</w>
pl ace</w>
ex t</w>
w ays</w>
au th
o ff
1 0</w>
t en</w>
e ach</w>
m ust</w>
il y</w>
import ant</w>
is e</w>
par t
ren ce</w>
d ec
p ur
&apos; re</w>
s it
A n
is h</w>
re sid
p ow
h ow
th er
chil dren</w>
par ti
c our
w s</w>
ain st</w>
ex p
gr ou
p er</w>
si ve</w>
et y</w>
d em
en tr
A mer
s ci
pos i
di d</w>
Amer ic
how ever</w>
ver s
l and</w>
in a</w>
pres ent
s ol
T he</w>
be ing</w>
t al
ag ainst</w>
ent al</w>
c ul
v is
st ud
u res</w>
et ing</w>
wom en</w>
an d
oo k</w>
he al
be fore</w>
mar k
ag es</w>
a ir
ac h
wh ile</w>
un i
d es
on d</w>
s ince</w>
ab ility</w>
u al</w>
ci l</w>
ec ted</w>
n ot
as es</w>
A s
pl o
qu ot</w>
di rec
uc h</w>
U k
ever y
y s
pro gram
c all
do es</w>
em ents</w>
po in
re port</w>
diffe rent</w>
oper ation</w>
ex am
m uch</w>
Uk ra
th ink</w>
R ep
G o
s k
hel p</w>
ab lis
Un i
2 0</w>
st ate</w>
ec tive</w>
chang e</w>
st ri
ou s
olog y</w>
dat a</w>
hi gh</w>
Coun cil</w>
wh y</w>
l es</w>
requ i
est ablis
su m
with out</w>
W or
bot h</w>
th ree</w>
impl ement
pos sible</w>
M ar
l ine</w>
I s
bo dy</w>
c ent
l ong</w>
sti tu
v al
comp any</w>
iz ation</w>
p a
vi ew</w>
ever y</w>
c ent</w>
econom ic</w>
la w</w>
on g
accor ding</w>
n ed</w>
l ess</w>
si de</w>
str y</w>
par tic
di vi
fol low
a ff
me di
t ain</w>
E n
o ffic
a z
bus iness</w>
l ev
li m
v er</w>
St ate</w>
ven tion</w>
pol i
b eli
cont ro
ad di
ou t
with in</w>
s ch
parti cip
serv ices</w>
ar ds</w>
be g
read y</w>
enc y</w>
&apos; m</w>
n at
le ad
d ra
as si
fi c</w>
s ite</w>
ch ar
e y</w>
or d
pro f
l ast</w>
an k</w>
m ak
d es</w>
sti ll</w>
b est</w>
lev el</w>
p op
so cial</w>
me as
con cer
man ag
in t
0 00</w>
ain ing</w>
iz ed</w>
s m
s ed</w>
F e
lo b
U N
is sion</w>
de p
st at
f ur
ad v
ap os</w>
Euro pe
st ance</w>
r y</w>
p ublic</w>
it al</w>
ag re
pol ic
an y
g en
b ack</w>
ain ed</w>
i p
hi gh
an other</w>
re st
le ar</w>
mil lion</w>
rec ei
res t</w>
o p</w>
t yp
i l</w>
S p
sh all</w>
g y</w>
s c
tic le</w>
to day</w>
re por
con di
fe rence</w>
Europe an</w>
ne e
A l
r ap
v ari
b ased</w>
vir on
proc ess</w>
l ed</w>
ic ation</w>
o w</w>
i an</w>
go ing</w>
ex c
an ds</w>
tim es</w>
sec urity</w>
c c
a ve</w>
ac tion</w>
qu es
e duc
e ase</w>
as s</w>
in es</w>
f ore
im pro
3 ;</w>
&#9 3;</w>
acti vi
le ar
1 ;</w>
&#9 1;</w>
res ear
ar m
Rep ublic</w>
e ve</w>
se t</w>
nec ess
u ation</w>
fin d</w>
pro g
provi de</w>
hi st
ac coun
pers on</w>
our ces</w>
s ay</w>
b il
h ol
t ors</w>
mark et</w>
an cial</w>
g row
do c
ex peri
col l
oo l</w>
activi ties</w>
ul ation</w>
call ed</w>
fi ed</w>
tr a
ig n</w>
es sion</w>
R e
e p</w>
ap pe
d el
t e</w>
s pe
go vernment</w>
c ase</w>
A u
wor king</w>
g n</w>
resid ent</w>
al ways</w>
a si
pro tec
enti al</w>
pro b
in du
auth or
3 0</w>
Inter national</w>
in d</w>
S o
heal th</w>
a w
re comm
su cc
ou th</w>
n er</w>
inv est
w ater</w>
c an
gre at</w>
f ri
at ely</w>
i de
m ental</w>
us ing</w>
v en</w>
s en
lob al</w>
p u
re present
pr in
v ely</w>
fin ancial</w>
Ch ina</w>
re co
st om
ut ure</w>
tic s</w>
ut e</w>
pl an
poli tical</w>
m emb
leg al</w>
i fic
th s</w>
it ary</w>
ati on
re as
al e</w>
t le</w>
D ec
p e</w>
Ukra ine</w>
P resident</w>
f ound</w>
en viron
l it
b er
o m</w>
ati c</w>
T r
D i
pow er</w>
Sec ret
to o</w>
le t</w>
sec ond</w>
res olution</w>
ar ound</w>
thou gh</w>
an t
bec ome</w>
re li
em plo
, 000</w>
peri od</w>
ti on
vi ol
implement ation</w>
As s
necess ary</w>
fam ily</w>
n ess</w>
f uture</w>
d ays</w>
G er
5 0</w>
o ver
n ever</w>
di es</w>
loo k</w>
pl es</w>
ic s</w>
si m
contin u
f ree</w>
m ain</w>
exam ple</w>
me eting</w>
divi du
1 5</w>
we e
b re
me ans</w>
f a
th ir
h ome</w>
n ext</w>
wh e
b ility</w>
A c
in ation</w>
produc ts</w>
c ity</w>
ad op
in dividu
d ate</w>
h ar
follow ing</w>
the re
ke y</w>
know n</w>
h ear
ma j
some thing</w>
j ects</w>
compl et
1 2</w>
am ong</w>
en s</w>
str at
A d
pl ac
m i
ain s</w>
ent ly</w>
at h</w>
g ener
ener gy</w>
mat er
emb ly</w>
fur ther</w>
pl ay
ar ly</w>
bet ter</w>
g g
grou p</w>
&apos; ll</w>
G od</w>
m ain
ex per
min i
speci al</w>
t ers</w>
ou se</w>
de si
fac t</w>
tre at
Euro pe</w>
O r
sm all</w>
av ail
b as
d r
u ally</w>
fi el
p ub
co operation</w>
comp an
ac hi
gi ve</w>
tr ac
ur al</w>
f er
serv ice</w>
th ers</w>
ch o
lo ve</w>
al ready</w>
ad d
ef for
tak en</w>
contro l</w>
pres ent</w>
d ev
re ally</w>
produc tion</w>
of ten</w>
pro ject</w>
r .</w>
al i
n or
f il
ar ticle</w>
Con vention</w>
v ity</w>
are a</w>
memb ers</w>
s ever
ec tion</w>
fun c
ro s
ti s
t ot
de red</w>
E x
L i
dep end
b ro
n on</w>
li ght</w>
der ation</w>
an al
h al
h an
fr ic
Comm ission</w>
c a
mon ey</w>
s ession</w>
R i
stan d
cur ren
mil itary</w>
n al</w>
Go vernment</w>
m en
S er
qu ality</w>
hel d</w>
N or
Ass embly</w>
&apos; ve</w>
lar ge</w>
P ol
A fric
s ure</w>
es ti
ep t</w>
ac k
regi on</w>
pl y</w>
tur al</w>
posi tion</w>
S y
meas ures</w>
sever al</w>
d n</w>
g lobal</w>
partic ular</w>
pr is
vers ity</w>
in f
deci sion</w>
cour se</w>
th ings</w>
n am
pos ed</w>
D e
sy st
M in
issu es</w>
dis c
con c
U S</w>
z e</w>
1 8
sci enti
do m</w>
cu stom
ati ves</w>
ex ist
s af
ful l</w>
sit uation</w>
are as</w>
ang u
m ot
b en
Wor ld</w>
incre ase</w>
el s</w>
n er
det er
st and</w>
pri v
ec ti
ur y</w>
acc ess</w>
m ul
r ang
organiz ations</w>
in s</w>
condi tions</w>
n ame</w>
th em
re al</w>
ic t</w>
tur n</w>
d own</w>
em p
ac y</w>
a im
it ted</w>
avail able</w>
provi ded</w>
polic y</w>
me th
olog ical</w>
gr ap
ini ti
d ge</w>
ir e</w>
li g
manag ement</w>
ag rap
educ ation</w>
sign ific
s es</w>
rel ated</w>
am oun
struc tion</w>
ri bu
le ast</w>
fe w</w>
1 0
our s</w>
resear ch</w>
un e</w>
F r
t a
par agrap
ex pl
N ew</w>
m en</w>
C o
go vern
ra m</w>
regi onal</w>
or ies</w>
reco gn
Secret ary</w>
cont ribu
ren g
pu t</w>
id enti
at ten
a k</w>
ffic i
stud y</w>
es p
du e</w>
chil d</w>
en ing</w>
buil ding</w>
experi ence</w>
we b
ep t
in stitu
lar g
par ty</w>
cri min
to ge
1 1</w>
toge ther</w>
inv ol
F or
a ut
ne t</w>
es si
b an
compan ies</w>
fore ign</w>
hap p
ag ain</w>
loc al</w>
re e
as k</w>
Americ an</w>
ic ations</w>
en ds</w>
ai l</w>
e m</w>
ous ly</w>
ens ure</w>
i ed</w>
l angu
res ources</w>
mo der
vi e
thir d</w>
pro bl
resul t</w>
ro le</w>
st reng
sign ed</w>
i ous</w>
port un
m ight</w>
op e</w>
ful ly</w>
nee ds</w>
n et
al low
m p
ter m</w>
er ing</w>
b ur
m et
beli eve</w>
iz e</w>
pur pos
w ar</w>
vari ous</w>
wor ks</w>
mini str
ul t</w>
cl os
contin ue</w>
d om
gi ven</w>
l in
lo t</w>
u ly</w>
d am
i als</w>
er n</w>
b or
is h
resul ts</w>
pro per
p tion</w>
proc ess
poin t</w>
probl ems</w>
in fl
pl ay</w>
op portun
a w</w>
M r.</w>
ti l</w>
ex pres
im p
ol e</w>
T h
gi es</w>
Is ra
p ass
go t</w>
2 5</w>
ti z
un til</w>
li ve</w>
protec tion</w>
T ur
fiel d</w>
com b
de f
wor k
inte gr
techn ology</w>
c ases</w>
tr ade</w>
cer tain</w>
ac tions</w>
per form
por ts</w>
ac e
in dic
op en</w>
w ar
d en</w>
st ed</w>
du ce</w>
re ad</w>
ag o</w>
s on</w>
or ity</w>
mon ths</w>
d ance</w>
w rit
syst ems</w>
um ents</w>
G rou
ris k</w>
eff ective</w>
hal f</w>
b ook</w>
e as
hist ory</w>
O c
f oc
le m</w>
1 .
n s</w>
f o
o thers</w>
D evelop
ar ti
g eneral</w>
effor ts</w>
t ow
entr al</w>
c ed</w>
con nec
en ces</w>
f our</w>
d ri
disc us
U .
there fore</w>
f ood</w>
B o
f y</w>
Uni on</w>
cur rent</w>
fi ve</w>
accoun t</w>
si bility</w>
ol o
pers onal</w>
1 8</w>
L e
c at
c are</w>
us es</w>
I I</w>
b el
Grou p</w>
n ers</w>
tot al</w>
esp eci
1 4</w>
on es</w>
especi ally</w>
ab ly</w>
y oun
oc r
at or</w>
p ot
tr aining</w>
uc lear</w>
in ten
n i
or t</w>
ros s</w>
on ce</w>
ul es</w>
p ay
f ace</w>
p ed</w>
star t</w>
d ro
o ve</w>
every thing</w>
ist s</w>
m or
si a</w>
b lo
d eli
prob lem</w>
bas is</w>
treat ment</w>
per cent</w>
M os
st u
pe ti
establis hed</w>
ati s
ph ys
v al</w>
S .</w>
l ater</w>
ou gh</w>
mak ing</w>
p ati
struc ture</w>
know le
consi dered</w>
t em
ter rit
ques tion</w>
addi tion</w>
an u
paragrap h</w>
si t</w>
N ational</w>
qu e</w>
m es</w>
reg ul
develop ing</w>
lit tle</w>
or ig
v ic
di ffic
us e
he ad</w>
Sec urity</w>
tak ing</w>
ac tu
c ha
rel ev
prin ci
fic ation</w>
de l</w>
Dec ember</w>
at ure</w>
En g
H e
N ov
grow th</w>
ri ed</w>
can not</w>
program me</w>
maj or</w>
commun ity</w>
whe ther</w>
t ook</w>
is l
chang es</w>
sp ace</w>
de fin
techn ical</w>
hap pen
o k
nat ural</w>
ar ch
Develop ment</w>
cre ate</w>
se qu
re duc
con duc
fe el</w>
bu d
l et
ist an</w>
of f</w>
pro mot
om s</w>
y et</w>
develop ed</w>
h y
M on
a red</w>
r an
W h
1 6</w>
pre v
soci ety</w>
ear ly</w>
pop ulation</w>
ic k</w>
sh ow
par ties</w>
1 3</w>
pre vi
l ing</w>
no v
wh ole</w>
our ce</w>
mis sion</w>
comm on</w>
te am</w>
us ti
oo ds</w>
speci fic</w>
equ ip
ec u
y s</w>
stan ding</w>
Ri ghts</w>
t ell</w>
form s</w>
indu stry</w>
ci tiz
al most</w>
S outh</w>
me d
sel ves</w>
t on</w>
amoun t</w>
cap ac
pe ace</w>
for ce</w>
inclu de</w>
h ouse</w>
U. S.</w>
d one</w>
ha ving</w>
pro jects</w>
o v</w>
in depend
s al
m it</w>
l at
tra di
des cri
s ing
ol s</w>
under stand</w>
jo in
z er
2 4</w>
l ab
s et
con sum
f ar</w>
19 8
relev ant</w>
J une</w>
Min ist
as h
n a</w>
4 0</w>
Con ference</w>
n uclear</w>
j ud
pl an</w>
char ac
con tr
an ti
pr ac
accor dance</w>
b ed</w>
web site</w>
ci es</w>
prof essi
inte rest
1 7</w>
ci r
dra ft</w>
ini an</w>
In di
il ities</w>
J o
a ir</w>
l os
li k
c al
assi stance</w>
2 .
th re
v ement</w>
ic ally</w>
ben ef
P e
con fl
grou ps</w>
H um
elec tr
ro w</w>
J ap
com es</w>
co w</w>
as soci
e f</w>
m ember</w>
ar t</w>
u si
k ind</w>
w el
d ru
sti t
p ast</w>
ex t
moder n</w>
t able</w>
B el
ic k
ec han
at ors</w>
resp ect</w>
re le
y es</w>
g ame</w>
it ing</w>
ab ove</w>
er y</w>
pers ons</w>
con clu
at s</w>
J uly</w>
rec or
pl ease</w>
ter ms</w>
g s</w>
en ded</w>
g l
emplo y
sh ow</w>
succ ess
rem ents</w>
desi gn</w>
ar s</w>
o grap
c all</w>
bil lion</w>
Americ a</w>
lis t</w>
int ro
youn g</w>
econom y</w>
requi red</w>
prog ram</w>
w in
up on</w>
Mos cow</w>
s ays</w>
o il</w>
1 00</w>
achi ev
reli gi
organiz ation</w>
typ e</w>
produc t</w>
S ept
li ving</w>
part ment</w>
h er
Sept ember</w>
tr av
bec ame</w>
se e
tr an
ke ep</w>
com peti
c ost</w>
author ities</w>
wor ds</w>
a h</w>
l evel
ut es</w>
st ing</w>
P er
pr ice</w>
ac tive</w>
si mil
st ain
r ic
Uni versity</w>
on line</w>
priv ate</w>
knowle dge</w>
atten tion</w>
am es</w>
2 1</w>
re al
t old</w>
individu al</w>
G re
s ing</w>
oun d
to ber</w>
cre ated</w>
x im
we ap
de ath</w>
g et
t or
Oc tober</w>
thou s
U S
acti vity</w>
pub lis
S u
w r
b ri
w at
mo del</w>
an ted</w>
issu e</w>
P h
reg ar
201 8</w>
no thing</w>
h ours</w>
con struction</w>
am e
oc cu
wi de</w>
c ar</w>
anu ary</w>
langu age</w>
level s</w>
ord in
man u
adop ted</w>
recei ved</w>
c y</w>
incre ased</w>
ra in</w>
l ong
w a
J anuary</w>
r or
recomm end
vi l</w>
M ay</w>
al though</w>
ad ministr
con sul
environ ment</w>
f er</w>
appro pri
sch ool</w>
Or gan
p ing</w>
t ro
g ir
addi tional</w>
proc e
m echan
t ar
c ame</w>
in c
af f</w>
en ough</w>
c lear</w>
medi a</w>
ast er</w>
at ory</w>
ob serv
w ard</w>
ex ten
l s</w>
capac ity</w>
e x</w>
a way</w>
th us</w>
P l
ag ed</w>
6 0</w>
val ue</w>
di dn</w>
Mar ch</w>
N e
mat ter</w>
Nov ember</w>
do ing</w>
leg isl
an im
ari an</w>
com ing</w>
cent ury</w>
requi rements</w>
le ft</w>
G e
signific ant</w>
agre ement</w>
not ed</w>
V i
manu fac
nat ure</w>
evel op</w>
invest ment</w>
it ation</w>
1 9</w>
inte rest</w>
de st
requ est
re ly</w>
th y</w>
G u
esti g
m itted</w>
re view</w>
E U</w>
m y
2 2</w>
st er</w>
O ff
in e
olu tions</w>
high er</w>
u es</w>
d evelop</w>
pers on
cl ose</w>
mon it
P al
rel ation
cl es</w>
Hum an</w>
u ti
st an</w>
institu tions</w>
mo ve</w>
h un
me an</w>
ve red</w>
ro om</w>
Afric a</w>
Sy ri
en ter
thou ght</w>
K az
or ing</w>
ill ed</w>
appl ication</w>
w ish</w>
Ger many</w>
every one</w>
v o
tu res</w>
it self</w>
b al
l ic
il i
p ay</w>
loc ated</w>
pa ren
pri l</w>
Ser v
A pril</w>
r ate</w>
b ir
mul ti
equip ment</w>
ke ts</w>
r an</w>
offic ial</w>
c y
ch all
am ent</w>
pot ential</w>
to p</w>
Isra el</w>
in al</w>
bi g</w>
rang e</w>
m ag
201 0</w>
deter min
ter ror
201 7</w>
wee k</w>
consi der</w>
strat e
is ed</w>
repor ts</w>
ob j
pre sid
larg est</w>
c ause</w>
Fe deration</w>
E con
Ch ris
infl u
201 2</w>
st aff</w>
201 5</w>
nor m
blo od</w>
Econ om
reg ard</w>
u r</w>
o ds</w>
J e
impro ve</w>
d ers</w>
c r
stud ents</w>
S e
P r
form ed</w>
t est</w>
on ic</w>
ent er</w>
s ent</w>
air s</w>
ne w
appropri ate</w>
v ol
gi c</w>
establis h
r ules</w>
med ical</w>
h ard</w>
Off ice</w>
for ces</w>
hum an
201 4</w>
h ic
l ack</w>
min d</w>
inv estig
in st
v ot
sing le</w>
B ri
cap ital</w>
me et</w>
201 1</w>
any thing</w>
speci al
h en
partic ul
ver age</w>
ur ch</w>
eff ect</w>
on ed</w>
lik ely</w>
ev ents</w>
diffic ult</w>
ac ts</w>
add ress</w>
se en</w>
sh are</w>
e ffici
19 7
d ou
c anc
gr ad
ob lig
s ou
intro duc
200 8</w>
M ini
I C
prog ress</w>
c ra
ell s</w>
la un
201 3</w>
a vi
stat ement</w>
h on
str ong</w>
1 5
ro ad</w>
P ri
mak es</w>
as p
en ed</w>
sub ject</w>
1 7
C an
2 3</w>
dis ease</w>
su gg
g ency</w>
Mini stry</w>
simil ar</w>
em er
t l
h and</w>
ys is</w>
olo gies</w>
us ually</w>
sec tor</w>
pro pos
er c
proper ty</w>
st ates</w>
sup por
hear t</w>
p ic
p at
he ad
g as</w>
N o
bo dies</w>
tr ue</w>
sup pl
al low</w>
stain able</w>
n ight</w>
ak h
Sp eci
se par
del eg
i ds</w>
E ast</w>
actu ally</w>
stit ute</w>
201 9</w>
indu stri
net work</w>
er al</w>
mi gr
ar ri
pr acti
reas on</w>
ne l</w>
particul arly</w>
not e</w>
i k
gu ar
stan ces</w>
de b
l y
incre as
ch em
i gh
di ed</w>
them selves</w>
beg an</w>
c are
imp act</w>
g ed</w>
ve hic
ot el</w>
R es
us ers</w>
M o
200 9</w>
bud get</w>
d ow
rec ent</w>
tal k</w>
ame work</w>
loo king</w>
off er</w>
wor d</w>
vi sit</w>
ide a</w>
curren tly</w>
tr u
end a</w>
usti ce</w>
cont ent</w>
mater ial</w>
c ou
confl ict</w>
phys ical</w>
d le</w>
A T
b ru
shi ps</w>
usi c</w>
e th
cont act</w>
off ice</w>
I tal
ar ch</w>
nee ded</w>
provi des</w>
m om
ver se</w>
C ol
rel ations</w>
purpos e</w>
h u
si x</w>
le ad</w>
eg y</w>
h or
Minist er</w>
Ch in
g es</w>
buil t</w>
cre d
mon th</w>
M an
f ree
c li
pol ice</w>
beg in
some one</w>
- -</w>
0 0
w on</w>
M a
B ank</w>
ther n</w>
fer red</w>
f av
3 .
di st
ev ent</w>
star ted</w>
typ es</w>
as h</w>
re f
ans w
R o
Nor th</w>
bru ary</w>
en se</w>
Au g
s ha
repor ted</w>
si ze</w>
F in
ei ther</w>
bor n</w>
er ous</w>
op s</w>
fri ends</w>
lear n</w>
so on</w>
appro ach</w>
Fe bruary</w>
h old</w>
pre par
br ing</w>
ass ess
st op</w>
Chin ese</w>
gr ound</w>
deci ded</w>
le ave</w>
re turn</w>
ci d
K ore
A p
hist or
al ia</w>
m ed</w>
do cu
docu ment</w>
con fi
ap er</w>
represent atives</w>
exp ected</w>
vie ws</w>
opportun ity</w>
stat us</w>
vi sion</w>
vi de
cul tural</w>
some times</w>
s ource</w>
t ation</w>
ill s</w>
b oo
ev id
ari at</w>
vi a</w>
ques tions</w>
E C
h ab
wom an</w>
anc ed</w>
C our
es n</w>
c lim
citiz ens</w>
comm it
m ine</w>
weap ons</w>
par ts</w>
p i
lis h</w>
professi onal</w>
im medi
at ures</w>
di g
do esn</w>
Aug ust</w>
en cies</w>
particip ation</w>
long er</w>
Di rec
i tion</w>
previ ous</w>
pro t
import ance</w>
De partment</w>
Organ ization</w>
stand ards</w>
Speci al</w>
ch ec
program mes</w>
det ail
scienti fic</w>
2 8</w>
requ est</w>
pur ch
C ha
id dle</w>
bec om
201 6</w>
C entral</w>
al ong</w>
ser ious</w>
Ge or
s or
oper ations</w>
re sts</w>
ph one</w>
h ope</w>
y our
ra ther</w>
territ ory</w>
2 6</w>
ot s</w>
a th
saf ety</w>
qu ar
um p</w>
Fr ance</w>
der al</w>
li ves</w>
w anted</w>
aim ed</w>
as ked</w>
ra di
Inter net</w>
is hed</w>
re v
c o</w>
t ain
3 1</w>
l u
W e
begin ning</w>
mater ials</w>
cor por
g oods</w>
e asi
200 7</w>
cor rec
str ic
in king</w>
t ory</w>
ent ed</w>
c el
inclu ded</w>
j our
rem ember</w>
entr e</w>
u ter</w>
ann oun
w ent</w>
tow ards</w>
low er</w>
doc uments</w>
es tim
2 7</w>
A sia</w>
publis hed</w>
jo b</w>
tr ad
sh ort</w>
ch ed</w>
anc ing</w>
res er
ph ot
dis co
form er</w>
exper ts</w>
ing ly</w>
ch es</w>
1 6
re fl
c op
Kaz akh
pop ular</w>
m er</w>
continu ed</w>
viol ence</w>
sy ch
i de</w>
practi ce</w>
recommend ations</w>
fr on
av o
ci vil</w>
sci ence</w>
S h
anal ysis</w>
en jo
ab or
respon sible</w>
Y ou</w>
200 6</w>
st age</w>
recei ve</w>
in nov
m ay
car ried</w>
prot ect</w>
me an
200 5</w>
c le</w>
beli ev
ad ded</w>
direc t</w>
2 9</w>
cul ture</w>
la ws</w>
ai m</w>
your self</w>
A b
st y
exist ing</w>
fr amework</w>
a verage</w>
me dic
f ail
F ren
ex erc
vi et</w>
ac qu
al th</w>
provi sions</w>
&apos; d</w>
Eng lish</w>
guar an
l ost</w>
ke ep
C ri
ver sion</w>
agre ed</w>
tw are</w>
b loc
buil d</w>
complet e</w>
Q u
oun ds</w>
environ mental</w>
d ang
an ces</w>
mo ther</w>
enc our
d en
w al
compl ex</w>
so f
sit es</w>
es tic</w>
m ach
lead ing</w>
D is
pos t</w>
se arch</w>
So viet</w>
B u
m usic</w>
dem ocr
st ay</w>
ex change</w>
ad a</w>
comp uter</w>
h os
de pen
invol ved</w>
ac hed</w>
Kazakh stan</w>
con fir
fol low</w>
co sts</w>
eff ects</w>
des p
E ar
out side</w>
ser ies</w>
Econom ic</w>
r ing</w>
qu ite</w>
in ed</w>
tu al</w>
Jap an</w>
custom ers</w>
M e
tak es</w>
Ukra inian</w>
di stri
Cour t</w>
tur ned</w>
j u
Fren ch</w>
pl ans</w>
paren ts</w>
F un
distri bu
P et
I ran</w>
comm er
4 .
go ti
eas y</w>
res sed</w>
au ti
trans port</w>
c ris
aut om
d ol
M ember</w>
perform ance</w>
uni que</w>
t led</w>
lim ited</w>
Ger man</w>
c amp
inte rests</w>
polic ies</w>
ag enda</w>
tis h</w>
it h</w>
ev i
ac ross</w>
en h
posi tive</w>
throu gh
Y or
ed ure</w>
respon sibility</w>
concer ned</w>
part ners</w>
asi c</w>
direc tly</w>
L aw</w>
desp ite</w>
adv ant
bu y</w>
t el
m em
0 s</w>
ta x</w>
under standing</w>
emplo ye
plac ed</w>
prac tic
princi ples</w>
H i
cho ose</w>
et ings</w>
o d
m ary</w>
free dom</w>
ne goti
pati ents</w>
a ren
respon se</w>
t ou
pro posed</w>
ess es</w>
Indi a</w>
de al</w>
ecu tive</w>
techn ologies</w>
success ful</w>
enti re</w>
pro mis
commun ication</w>
re duce</w>
occu p
pl at
promot e</w>
ste p</w>
19 6
fa ther</w>
m ess
dom estic</w>
legisl ation</w>
ren ces</w>
Bo ard</w>
ay ing</w>
through out</w>
pre hen
we ight</w>
W ar</w>
am s</w>
deci sions</w>
ru le</w>
d ated</w>
I S
foc us</w>
an ks</w>
s k</w>
U N</w>
chang ed</w>
Is l
200 0</w>
meth ods</w>
v il
Yor k</w>
de signed</w>
anal y
fi f
us er</w>
inclu des</w>
s ex
in come</w>
particip ants</w>
c le
b ank</w>
prev ent</w>
or i
st ory</w>
200 4</w>
independ ent</w>
cat eg
O h</w>
su stainable</w>
in ste
regi ons</w>
relation ship</w>
it arian</w>
it able</w>
Par ty</w>
pr ices</w>
sp ir
ic ro
d ings</w>
Par ties</w>
hi bi
spe ak
str u
resear ch
A zer
t our
ad em
min utes</w>
consi deration</w>
Afric an</w>
al ization</w>
p sych
Pal est
strat egy</w>
I ra
Pro gram
st re
ch e
z ed</w>
Ear th</w>
happ y</w>
govern mental</w>
a ther</w>
provi ding</w>
pur su
min im
i gn
1 3
au d
evid ence</w>
st ep
succ ess</w>
stand ard</w>
se ts</w>
ne ws</w>
sen se</w>
h ous
ograp h
me etings</w>
n ation
con sequ
ner ship</w>
scienti sts</w>
b asic</w>
Com p
ne ar</w>
comp on
ar ies</w>
oun ded</w>
tr ying</w>
sof tware</w>
clim ate</w>
b ai
rem ain</w>
ill ing</w>
b it</w>
E l
ag g
s us
li gh
sk y</w>
achi eve</w>
dra w
it em</w>
n e</w>
eff ecti
sim ple</w>
bai j
ati c
Azer baij
er ship</w>
cl ass</w>
complet ely</w>
d on
fin al</w>
R om
fi ght</w>
stu dies</w>
individu als</w>
is tic</w>
chall eng
att emp
oc cur
process es</w>
may be</w>
ab ilities</w>
rem ains</w>
fil m</w>
work ers</w>
Bri tish</w>
b an</w>
associ ated</w>
cent er</w>
per f
regar ding</w>
Go vern
ac ks</w>
s le
I N
join t</w>
el se</w>
i or</w>
C ar
So cial</w>
proc edure</w>
g le</w>
b ad</w>
p ain
be auti
ec hn
g er</w>
l dn</w>
s ev
ex pen
Ar men
canc er</w>
0 .
Bel ar
prob ably</w>
G oo
sim ply</w>
ut y</w>
saf e</w>
inf ra
confi d
fun ds</w>
19 4
vide o</w>
rou ght</w>
d ly</w>
c um
op ini
pre ci
l ate</w>
wh ose</w>
st o
b ile</w>
ric ul
1 4
go al</w>
S C
pay ment</w>
employ ment</w>
de sign
mom ent</w>
ord ers</w>
cris is</w>
connec tion</w>
lead ers</w>
p aid</w>
mo d
h im
B i
Au str
bel ow</w>
ci ties</w>
c e
s aw</w>
Chris ti
mo bile</w>
m ing</w>
t un
H ol
se a</w>
pe ace
s ources</w>
ne g
consi der
te ach
Re gi
s em
200 3</w>
sup ply</w>
prehen sive</w>
ear li
get ting</w>
auth or</w>
stitu tion</w>
Tur key</w>
I D
ast ern</w>
grow ing</w>
reas ons</w>
cour t</w>
dem and</w>
crimin ation</w>
beauti ful</w>
ge ts</w>
sec tion</w>
Ch ar
W est
re si
b it
cont ext</w>
Program me</w>
pres sure</w>
los s</w>
cre ation</w>
trav el</w>
b rain</w>
any one</w>
y a</w>
lar ation</w>
al ism</w>
am a</w>
plac es</w>
presid ent</w>
benef its</w>
su per
y ed</w>
reg ular</w>
mar kets</w>
charac ter
ru n</w>
pres s</w>
I V</w>
ther ap
m us
str ict</w>
gre ater</w>
ec h</w>
s olution</w>
la w
fac tors</w>
gen der</w>
str ation</w>
Ar ticle</w>
an tly</w>
dev ice</w>
p age</w>
b ab
wee ks</w>
ar t
thous and</w>
al og
allow s</w>
Fun d</w>
man ent</w>
cra ft</w>
for ward</w>
curren cy</w>
se as
inste ad</w>
inter nal</w>
loc ation</w>
e red</w>
pre pa
ex clu
8 0</w>
al ter
ag encies</w>
answ er</w>
C or
use um</w>
v ers</w>
pow er
arm ed</w>
fri end</w>
happen ed</w>
M ed
b and</w>
b ers</w>
op h
vie w
S ch
In stitute</w>
dru g</w>
3 5</w>
be ha
plan ning</w>
c ells</w>
concer ning</w>
im e</w>
norm al</w>
ann ed</w>
crimin al</w>
iz ing</w>
fir e</w>
ag ing</w>
me t</w>
Goo gle</w>
is ms</w>
ann ual</w>
mo tion</w>
qu ick
streng th
religi ous</w>
re ment</w>
represent ative</w>
expres sed</w>
increas ing</w>
S ci
m ass</w>
enc ed</w>
ev al
to co
poin ts</w>
st ated</w>
Wor king</w>
e v</w>
ch i
appl ic
e ts</w>
T er
con ven
he av
aim s</w>
Tur k
writ ten</w>
opportun ities</w>
D em
t op
tradi tional</w>
dev ices</w>
r un
sub mitted</w>
func tion</w>
ne y</w>
an a</w>
exp an
d ates</w>
gu id
appl y</w>
toco l</w>
rec ently</w>
h om
keep ing</w>
influ ence</w>
200 2</w>
monit oring</w>
research ers</w>
7 0</w>
No .</w>
con trac
dem on
strate gic</w>
r ac
A N
M al
f el
manufac tu
an ci
m b
let ter</w>
B ar
al one</w>
interest ing</w>
him self</w>
sy mp
step s</w>
industri al</w>
dig ital</w>
ach es</w>
ant i</w>
G en
Serv ice</w>
beha vi
infra structure</w>
w ise</w>
el ements</w>
b rought</w>
A f
mo vement</w>
purpos es</w>
sur vi
er a</w>
Kore a</w>
W est</w>
tem per
prepa red</w>
t ext</w>
l ines</w>
fe el
ven ess</w>
du res</w>
m os
en ding</w>
trans fer</w>
establish ment</w>
li st
dest ro
com prehensive</w>
ag n
in de
sty le</w>
k a</w>
on na</w>
il it
200 1</w>
att ack</w>
et c</w>
present ed</w>
ext rem
ap poin
b all</w>
offic ials</w>
si gn</w>
ra b</w>
. .</w>
cer ti
Comm un
o x
fin ally</w>
ing dom</w>
all s</w>
m un
cho ice</w>
meth od</w>
West ern</w>
st ant</w>
k illed</w>
fu ge
bl ack</w>
com for
t ations</w>
comp ared</w>
c entral</w>
ag ricul
l er</w>
quick ly</w>
Syri a</w>
w ants</w>
su ff
f requ
B e
Tr ump</w>
uti n</w>
ffe red</w>
A ff
ex ter
se x</w>
s av
g ames</w>
earli er</w>
a ur
mo ved</w>
j ustice</w>
min ist
p an
w on
est s</w>
concer n</w>
no ti
k o</w>
orig inal</w>
we b</w>
oper ating</w>
D P</w>
ec e</w>
f ast</w>
F ore
is ing</w>
P utin</w>
ag ement</w>
ec ting</w>
ser ve</w>
enti oned</w>
ou d</w>
9 0</w>
proce dures</w>
t own</w>
immedi ately</w>
administr ation</w>
wa it</w>
alog ue</w>
maj ority</w>
allow ed</w>
wor ked</w>
fam ous</w>
cir cum
deleg ation</w>
con ference</w>
C O
play ed</w>
n ative</w>
avo id</w>
5 00</w>
ep tion</w>
sc ale</w>
pres ence</w>
condi tion</w>
rele ased</w>
W om
y e</w>
ast e</w>
c lear
re ach</w>
go als</w>
st er
sur ance</w>
fun dam
requ ire</w>
P or
ar ms</w>
contr act</w>
interest ed</w>
commer cial</w>
it ors</w>
I m
ent h</w>
Jo h
princi ple</w>
S E
st atis
b ia</w>
over all</w>
Cha ir
t om
sex ual</w>
Can ada</w>
al ist</w>
5 .
is n</w>
produc ed</w>
c ru
c am
employe es</w>
ord ination</w>
ess ential</w>
hear d</w>
func tions</w>
human itarian</w>
cer tain
pr ise</w>
spe ed</w>
fe atures</w>
sal es</w>
tru th</w>
establis h</w>
ad s</w>
ail y</w>
s atis
v ill
el ess</w>
appro ved</w>
hibi tion</w>
happ en</w>
ma xim
announ ced</w>
Geor gi
a di
v ation</w>
sec re
s anc
k er</w>
inst all
organiz ed</w>
E g
Azerbaij an</w>
high est</w>
gh ter</w>
hap s</w>
camp ai
it es</w>
th anks</w>
T echn
Ira q</w>
an ia</w>
recomm ended</w>
cre ating</w>
su ffici
t ;</w>
D ay</w>
comp et
oc k</w>
challeng es</w>
fron t</w>
L on
t oms</w>
wh ite</w>
program s</w>
in side</w>
air craft</w>
show s</w>
b order</w>
per haps</w>
s cre
y er</w>
ne x</w>
sp ec
provi sion</w>
re ality</w>
k et</w>
g ave</w>
li es</w>
ex ac
enti tled</w>
g onna</w>
tr ust</w>
ver si
beg in</w>
s mar
se ems</w>
s aying</w>
1 2
M us
b ack
hos p
or g
ca used</w>
bur g</w>
int el
ent y</w>
heal thy</w>
boo ks</w>
sec on
r ates</w>
m ut
con v
equ al</w>
A rab</w>
t ren
lo g
agre ements</w>
symp toms</w>
impl ement</w>
doc tor</w>
i ri
chec k</w>
re pe
off ers</w>
si tion</w>
Ch urch</w>
ab les</w>
our th</w>
As soci
Aff airs</w>
ag ue</w>
st or
conduc ted</w>
il ies</w>
b ig
mo vi
er ia</w>
ad ver
s even</w>
p ain</w>
suppor ted</w>
re stric
pl ant</w>
anc y</w>
A gre
pre gn
wr ong</w>
contro l
m a</w>
a u</w>
sec ret
pl om
e ases</w>
B er
wor l
Direc tor</w>
I n</w>
Y e
r ati
e an</w>
b ase</w>
k y</w>
h otel</w>
20 0</w>
19 5
s olutions</w>
intel lig
N o</w>
th inking</w>
g ar
Ital y</w>
person nel</w>
f all</w>
sch o
process ing</w>
po ver
Comp any</w>
em o
d y
ta x
Eg yp
ci vil
assess ment</w>
por ary</w>
opini on</w>
U K</w>
wi fe</w>
gre at
descri bed</w>
Lon don</w>
tim s</w>
appe ar</w>
Ac t</w>
0 ,000</w>
cont ained</w>
y r
g ing</w>
c ement</w>
199 9</w>
f re
ide as</w>
sk ills</w>
ad es</w>
request ed</w>
h ind</w>
oblig ations</w>
neg ative</w>
exerc ise</w>
author ity</w>
n ation</w>
is tics</w>
Wom en</w>
ar ing</w>
anci ent</w>
fac ilit
use ful</w>
Dem ocr
thre at</w>
anim als</w>
cred it</w>
ell ing</w>
pre c
sit u
si on
educ ational</w>
car ry</w>
s end</w>
Belar us</w>
pres sion</w>
issu ed</w>
T re
sid es</w>
I S</w>
at trac
dru gs</w>
ne igh
form al</w>
o ples</w>
k in
bre ak
re r</w>
m entioned</w>
as ks</w>
Ch il
arch it
dou b
be hind</w>
practic es</w>
co de</w>
pover ty</w>
sur ve
20 20</w>
p aper</w>
d a</w>
A R
set tl
T he
ing ton</w>
eng ine
C E
h and
re ached</w>
wor th</w>
comm itted</w>
si an</w>
recogn ized</w>
fac ilities</w>
ei ght</w>
H ar
bir th</w>
dis crimination</w>
rele ase</w>
part ner</w>
mo del
C l
deter mine</w>
Isl am
pri mary</w>
h ands</w>
op tim
ad equ
ste red</w>
sub stan
pos sibility</w>
F i
gener ally</w>
li ons</w>
cel e
el im
en ni
ar k</w>
pro duce</w>
T V</w>
hu ge</w>
pati ent</w>
integr ation</w>
L u
f lo
d aily</w>
tal king</w>
str ong
con sci
s ave</w>
to ols</w>
fam ilies</w>
6 .
competi tion</w>
high ly</w>
cri me</w>
t ained</w>
conc ept</w>
he ar</w>
O b
m oun
ch ing</w>
st ly</w>
sh own</w>
dam age</w>
r a</w>
pub l
li ber
ecti ves</w>
ne arly</w>
spe ak</w>
199 8</w>
streng then</w>
Joh n</w>
ati vely</w>
lear ning</w>
gir l</w>
de ad</w>
demon str
w in</w>
ban ks</w>
Hi gh</w>
bus in
lead er</w>
ag ree</w>
in o</w>
aff ected</w>
sy n
lit er
h ood</w>
benef it</w>
l in</w>
in surance</w>
asp ects</w>
wr ite</w>
4 5</w>
consi st
ye ah</w>
in j
re ferred</w>
bal ance</w>
vic tims</w>
y ond</w>
dis eases</w>
ro te</w>
appl ications</w>
ound ation</w>
C ity</w>
ex ist</w>
coll ection</w>
it er
p ul
al ized</w>
pre dic
Af gh
an ese</w>
for ced</w>
chem ical</w>
electr onic</w>
i m</w>
col or</w>
car s</w>
conduc t</w>
power ful</w>
im ag
w rote</w>
seas on</w>
li ament</w>
ab sol
r ich</w>
Tr ans
gener ation</w>
b ac
f ile</w>
elec tions</w>
os is</w>
v a</w>
g a
t ask</w>
Pe ople</w>
e at</w>
clos ed</w>
th ank</w>
determin ed</w>
exter nal</w>
O p
vis ory</w>
ar rang
en tion</w>
pro te
t an
3 2</w>
B ra
for tun
Agre ement</w>
sk in</w>
circum stances</w>
t es</w>
de g
re ve
Fe deral</w>
mark eting</w>
gir ls</w>
k new</w>
di plom
a x
administr ative</w>
I II</w>
le y</w>
is ation</w>
val ues</w>
Pro tocol</w>
p t</w>
plan et</w>
199 5</w>
elec tion</w>
C enter</w>
deli very</w>
ex tr
K ingdom</w>
plat form</w>
go es</w>
mar k</w>
be yond</w>
ch ance</w>
l ands</w>
S tr
recor d</w>
custom er</w>
pris es</w>
is land</w>
g ra
exac tly</w>
bo ard</w>
t a</w>
particip ate</w>
aff ect</w>
re fuge
discus sion</w>
acc ur
arti cles</w>
coll abor
co m</w>
po or</w>
terror ism</w>
adop tion</w>
S te
deg ree</w>
requi res</w>
s .</w>
e yes</w>
p ack
op ened</w>
thous ands</w>
im age</w>
ok ay</w>
pri ority</w>
detail s</w>
cl ass
H er
or ial</w>
wh at
i on</w>
pres er
S up
or ities</w>
W in
sh or
appl ied</w>
sanc tions</w>
H ouse</w>
ap art
di alogue</w>
sum mer</w>
h op
at e
di agn
clear ly</w>
ar ity</w>
n ia</w>
cele br
A S
fundam ental</w>
vers al</w>
r ace</w>
main tain</w>
Isra el
acc ep
histor ical</w>
exist ence</w>
i ans</w>
play ers</w>
enjo y</w>
1 ,
as n</w>
implement ed</w>
adver tis
i ance</w>
b ar
z one</w>
au di
Austr alia</w>
B us
fic ial</w>
becom es</w>
strength ening</w>
uc k</w>
co ordin
D on
as sets</w>
op tions</w>
continu es</w>
ap preci
introduc ed</w>
M iddle</w>
appro xim
s w
dec re
A ll</w>
m ir
com par
repor ting</w>
cal cul
ic ity</w>
f ying</w>
appe ared</w>
t i</w>
the ory</w>
vol un
a i</w>
dow n
di e</w>
ou ght</w>
vehic les</w>
I O
199 4</w>
mechan isms</w>
C y
s mo
Se a</w>
S i
equ ality</w>
ca uses</w>
Ex ecutive</w>
prac tical</w>
si x
rel ating</w>
oper ate</w>
mess age</w>
fi gh
et h</w>
mo ving</w>
separ ate</w>
as tic</w>
call s</w>
ev a</w>
mor ning</w>
or d</w>
gi ves</w>
J es
a h
dang erous</w>
diffe rence</w>
. 1</w>
He alth</w>
request s</w>
st ation</w>
ac i
regi stration</w>
tri ed</w>
ris e</w>
3 3</w>
wi d
g t;</w>
& gt;</w>
F ri
scho ols</w>
199 7</w>
effici ency</w>
r s</w>
k ids</w>
ent ation</w>
sle ep</w>
enni um</w>
maxim um</w>
pl anned</w>
Co de</w>
f f</w>
ad ap
not es</w>
cri tical</w>
sc en
bro ad
p un
f em
Gre at</w>
know s</w>
Ac tion</w>
B r
in str
Associ ation</w>
exper im
g row</w>
easi ly</w>
ri age</w>
ob vi
ex ic
gen ous</w>
exc ept</w>
l ose</w>
purch ase</w>
re ference</w>
C entre</w>
co ver</w>
A gency</w>
f ru
vehic le</w>
mat ters</w>
cha in</w>
direc tion</w>
ris ks</w>
T ri
sur face</w>
C i
att acks</w>
Dec laration</w>
I T
fe ar</w>
char ge</w>
B al
i red</w>
as c
le av
mo di
ari a</w>
it ems</w>
commit ment</w>
For um</w>
R E
trad ing</w>
al co
lo ad</w>
conc entr
wh om</w>
Al ex
t aining</w>
pop ul
my self</w>
b un
discus sed</w>
S we
hi c</w>
g old</w>
b s</w>
er t</w>
M exic
199 6</w>
W ash
al ities</w>
T e
g est</w>
s ports</w>
cl assi
speci fic
m it
reduc tion</w>
Islam ic</w>
M ic
si l
n or</w>
ish ing</w>
s ale</w>
el ines</w>
or ation</w>
connec ted</w>
i e</w>
temper ature</w>
achiev ed</w>
Tre at
ak es</w>
tur ing</w>
iri t</w>
perf ect</w>
model s</w>
Jes us</w>
Par is</w>
vari ety</w>
nam ed</w>
inter pre
play ing</w>
W e</w>
ang e</w>
exper t</w>
vot e</w>
fo ot
Fore ign</w>
identi fy</w>
posi tions</w>
p ra
previ ously</w>
ro c
f ourth</w>
in cid
worl d
do or</w>
therap y</w>
sec u
A C
G r
3 6</w>
aw are</w>
pe oples</w>
un its</w>
ro r</w>
man date</w>
Wash ington</w>
langu ages</w>
R eg
v it
complet ed</w>
tim ate</w>
suffici ent</w>
x ed</w>
compl iance</w>
effor t</w>
fe rences</w>
Ar ab
g ress</w>
m icro
al leg
col le
ul ts</w>
care er</w>
be half</w>
T u
identi fied</w>
res ol
c oo
ad d</w>
wat ch</w>
cont ains</w>
Sp ain</w>
star ting</w>
negoti ations</w>
in ated</w>
R ap
ph il
k m</w>
sh ap
fi g
consum ption</w>
Wh at</w>
f ish</w>
W il
l ess
N AT
happen s</w>
fri end
al ing</w>
s cri
correc t</w>
lar s</w>
extrem ely</w>
I t</w>
prepar ation</w>
trans l
re form</w>
sp end</w>
U z
loo ks</w>
lat est</w>
commun ities</w>
add ressed</w>
stat ements</w>
por te
cor respon
ear th</w>
in formed</w>
contribu te</w>
t on
what ever</w>
o ther
Jap anese</w>
h our</w>
bab y</w>
minim um</w>
read ing</w>
pos e</w>
gi ving</w>
sub sequ
impro ving</w>
B rit
ch urch</w>
reg ime</w>
Ad ministr
is sions</w>
obj ective</w>
stru gg
ens uring</w>
3 7</w>
migr ation</w>
g en</w>
investig ation</w>
bre ak</w>
net works</w>
Pro duc
signific antly</w>
approxim ately</w>
pro motion</w>
laun ched</w>
fav or
deb t</w>
ordin ary</w>
lead ership</w>
3 4</w>
b att
en em
S um
wel come</w>
ri st
tar get</w>
an der</w>
b ly</w>
. com</w>
pre vention</w>
con struc
ou ldn</w>
6 5</w>
co ordination</w>
M il
4 8</w>
fu el</w>
at eral</w>
hol ders</w>
an ish</w>
exp ect</w>
cl in
E R
Con stitution</w>
jour n
pri or</w>
chang ing</w>
fun ding</w>
tri c</w>
appe ar
olu me</w>
o es</w>
b ul
l and
Palest inian</w>
al bu
acc ept</w>
r ub
arm ament</w>
M ission</w>
B ud
ec tions</w>
t in
s old</w>
st ability</w>
n it
emp ha
reduc ed</w>
ph ere</w>
s qu
es sions</w>
compon ents</w>
speci es</w>
e ding</w>
f low
hel ps</w>
res olutions</w>
Pol and</w>
spir it
op tion</w>
So ci
st ra
Syri an</w>
ri c</w>
de ep</w>
consequ ences</w>
religi on</w>
m ist
gre en</w>
world wide</w>
man ner</w>
mach ine</w>
defin ed</w>
o l</w>
Israel i</w>
ic y</w>
num bers</w>
pl ants</w>
US A</w>
mem ory</w>
cl aim</w>
f ounded</w>
In formation</w>
ru ption</w>
distribu tion</w>
speak ing</w>
ob s</w>
Govern ments</w>
fortun ately</w>
Chair man</w>
la di
y l
T o</w>
ob jects</w>
pre p
can di
inde ed</w>
port ation</w>
s ell</w>
ph en
M i
3 8</w>
dol lars</w>
tion ing</w>
es day</w>
per manent</w>
cli ents</w>
C a
campai gn</w>
instr uments</w>
3 9</w>
writ ing</w>
is es</w>
inten ded</w>
corpor ate</w>
adequ ate</w>
mean ing</w>
pass ed</w>
Uz be
adv anced</w>
h us
concer ns</w>
ag ency</w>
tran sp
v olume</w>
guaran te
m ur
techn i
5 5</w>
c ard</w>
li ved</w>
Secret ariat</w>
jud ic
h ur
adv ice</w>
et ers</w>
ur ies</w>
al ed</w>
invest ors</w>
li ghts</w>
obj ectives</w>
intellig ence</w>
E astern</w>
advant age</w>
bil ities</w>
Pri me</w>
op ening</w>
Mus li
ex port</w>
Georgi a</w>
al ists</w>
S am
regul ations</w>
tion ally</w>
ex plo
k ill</w>
R ec
re p
Armen ia</w>
im possible</w>
7 .
n ations</w>
tu de</w>
k ers</w>
fiel ds</w>
P an
d au
O ffic
o di
pro v
Je wish</w>
d ur
other wise</w>
v ul
independ ence</w>
fel t</w>
ot e</w>
mis sions</w>
tr aff
am m
traff ic</w>
integr ated</w>
for get</w>
mo re
um s</w>
si bilities</w>
ob ject</w>
acc ept
t asks</w>
ti s</w>
exc e
de plo
s ound</w>
se em</w>
eng ine</w>
effici ent</w>
more over</w>
eth n
cu t</w>
ly mp
estim ated</w>
L ord</w>
ain t</w>
M or
c as
hi b
secret ariat</w>
archit ec
199 3</w>
propos al</w>
H IV</w>
Serv ices</w>
m m</w>
r ound</w>
n y</w>
resid ents</w>
ext ent</w>
ad or</w>
o ffered</w>
certain ly</w>
in t</w>
st ood</w>
ten ance</w>
NAT O</w>
ar my</w>
dow s</w>
cl aims</w>
alter native</w>
in sp
y ers</w>
et ary</w>
in ter</w>
er s
st ore</w>
F ir
en able</w>
discus s</w>
lab our</w>
er gy</w>
br and</w>
buil dings</w>
sp ent</w>
fa ir</w>
fin ancing</w>
contribu tion</w>
believ ed</w>
atic ally</w>
sol id
main ly</w>
om en
C am
fig ure</w>
commun ications</w>
ac cid
G lobal</w>
su n
pl eas
pass eng
Man agement</w>
A m
busin esses</w>
in di
i er</w>
exc ell
mechan ism</w>
E duc
situ ations</w>
Tr ade</w>
p il
et er
charac ter</w>
ol der</w>
dr ink</w>
porte ur</w>
po st
ter min
res ent
rel ation</w>
cap it
V en
Pol icy</w>
in ing</w>
initi al</w>
c ore</w>
so ft</w>
ri es</w>
su s</w>
regi stered</w>
H un
secre t</w>
for cement</w>
V ladi
di a</w>
viol ations</w>
pres ents</w>
F ace
stan tly</w>
see k</w>
ex ecu
ut ri
u g
initi ative</w>
aw aren
Brit ain</w>
diffic ul
us ual</w>
co in</w>
comm ents</w>
promot ing</w>
S al
sh op</w>
St .</w>
sub mit</w>
awaren ess</w>
st able</w>
s at
En viron
P re
3 00</w>
emer gency</w>
H e</w>
depen ding</w>
big gest</w>
2 5
perform ed</w>
l eng
categ ory</w>
doc um
per c
whe re
re ven
depen ds</w>
ear ch</w>
ess or</w>
an nex</w>
c lo
pic ture</w>
num erous</w>
C ap
propos als</w>
strate gies</w>
tic ally</w>
Democr atic</w>
Face book</w>
becom ing</w>
in ate</w>
t al</w>
offic es</w>
Afgh an
au ght</w>
c ell</w>
shi p
m iddle</w>
a j
g y
n on
def ense</w>
aff ir
co vered</w>
Egyp t</w>
confir med</w>
effecti vely</w>
main tenance</w>
ur g
Afghan istan</w>
ti vity</w>
show ed</w>
Treat y</w>
ev olution</w>
T ra
7 5</w>
mar ried</w>
am end
struc tures</w>
con stitu
j obs</w>
comp ut
Rap porteur</w>
vul ner
s ent
ic ate</w>
treat y</w>
m ir</w>
rem ained</w>
streng th</w>
ing u
inter net</w>
il legal</w>
fa ith</w>
en try</w>
follow ed</w>
feel ing</w>
S T
deci de</w>
J er
expen sive</w>
movi e</w>
w asn</w>
ti tle</w>
on ia</w>
e ds</w>
professi on
per form</w>
occu r</w>
cli ent</w>
list en</w>
mil lions</w>
c old</w>
c ot
Rep resent
prep are</w>
appear ance</w>
elec tric</w>
g am
Americ ans</w>
R ob
b on</w>
foc used</w>
di et</w>
l ink</w>
part nership</w>
M E
s am
on y</w>
disco vered</w>
R O
enti ties</w>
in struc
st ar</w>
dri ve</w>
comb at</w>
M useum</w>
quar ters</w>
initi atives</w>
mon y</w>
phil os
j ur
st ress</w>
Bra z
hus band</w>
mis si
hous ing</w>
ol i
ent ary</w>
p ho
la u
dec la
dis ci
K i
ho l</w>
K ar
we ather</w>
c entre</w>
te sts</w>
Con gress</w>
sor ry</w>
Turk ish</w>
Ap ple</w>
mar riage</w>
guaran tee</w>
H otel</w>
ac ting</w>
B ul
fun d</w>
spirit ual</w>
g one</w>
Mexic o</w>
t ool</w>
proper ties</w>
Y our</w>
y outh</w>
cy cle</w>
ne ur
implement ing</w>
phen omen
un less</w>
oper ational</w>
vis itors</w>
at mos
accoun ts</w>
agg res
An g
cri mes</w>
accep ted</w>
desi re</w>
nam es</w>
V al
cou ple</w>
A ir
ra ised</w>
su me</w>
sm all
li qu
enter prises</w>
di stance</w>
tran sition</w>
f low</w>
T H
impro ved</w>
is on</w>
de dic
indi genous</w>
en ge</w>
neigh b
detail ed</w>
terror ist</w>
O lymp
ong s</w>
ex hibition</w>
sp read</w>
fac tor</w>
f light</w>
laun ch</w>
b at
impro vement</w>
Christi an</w>
sec ure</w>
dis p
in ner</w>
un it</w>
o red</w>
dy nam
an g</w>
ab road</w>
ac adem
cont ain</w>
sy m
c ash</w>
stor age</w>
s er</w>
ab ol
ri d</w>
dra w</w>
.. ..</w>
w w
rest aur
Fir st</w>
meas ure</w>
ev ent
reli able</w>
br an
pa ir</w>
te sting</w>
G ree
8 .
is sion
orig in</w>
u t</w>
tro ops</w>
fail ure</w>
all ing</w>
acti vely</w>
Uzbe k
an e</w>
e .
UN E
est ed</w>
uni versal</w>
jo in</w>
fe deral</w>
advertis ing</w>
o ke</w>
R os
democr acy</w>
ti al</w>
b on
ha ir</w>
A D</w>
9 .
fac ts</w>
ar ily</w>
reas on
play er</w>
sol di
esti val</w>
direc tor</w>
pre t
ad ults</w>
met ers</w>
k il
pris on
multi ple</w>
y al</w>
s ens
li e</w>
tw enty</w>
sol ar</w>
Ac adem
anim al</w>
statis tics</w>
meas u
ph ase</w>
ve re
p ath</w>
qu anti
albu m</w>
behavi or</w>
dec ades</w>
B l
res ource</w>
ur ban</w>
confid ence</w>
wal k</w>
w ood</w>
4 2</w>
Pro tec
ti ci
ra id</w>
Uzbek istan</w>
vis ed</w>
figh ting</w>
sign s</w>
4 4</w>
assi st</w>
S un
add res
si onal</w>
ous ness</w>
ati n</w>
lear ned</w>
contribu tions</w>
actu al</w>
enti ally</w>
S aud
f ine</w>
l a</w>
Ye ar</w>
aci fic</w>
manag ed</w>
C ul
j ected</w>
en forcement</w>
innov ative</w>
democr atic</w>
Ch rist
cap able</w>
n utri
4 9</w>
expl ain</w>
re rs</w>
ethn ic</w>
so vere
val u
A .</w>
dau ghter</w>
sh ot</w>
ach ing</w>
le gi
tr uly</w>
A g
E m
tem porary</w>
prof it</w>
r ad
w is
ic a</w>
re turned</w>
Par liament</w>
as sum
sur r
ro oms</w>
P acific</w>
alco hol</w>
in sul
control led</w>
cle an</w>
ol er
c ross</w>
ffic king</w>
y ment</w>
excell ent</w>
est er
t ains</w>
P at
invest ments</w>
Ph il
gu n</w>
D r.</w>
as hi
a p</w>
ex i
thre at
incre ases</w>
v ements</w>
D ef
great est</w>
ell ec
S wit
g ation</w>
B ur
1 st</w>
dre am</w>
conclu sion</w>
medic ine</w>
empha si
appe ars</w>
indic ated</w>
peace ful</w>
enh ance</w>
stud ent</w>
S at
aut y</w>
T im
par a</w>
ch r
sen si
Sp anish</w>
Pet ers
agricul tural</w>
refuge es</w>
suppor ting</w>
comfor table</w>
r ying</w>
A sian</w>
applic able</w>
h s</w>
hol ding</w>
di men
g ent
cr yp
sha red</w>
sec tors</w>
J ustice</w>
dou ble</w>
lim it</w>
Eng land</w>
view ed</w>
appro val</w>
trans actions</w>
K ing</w>
ut ting</w>
sp on
trans portation</w>
experi enced</w>
offic ers</w>
qu es</w>
M at
jur is
evi sion</w>
I M
in ary</w>
comp ens
ow ner</w>
tri al</w>
run ning</w>
consul tations</w>
m ol
un fortunately</w>
de pos
and a</w>
i on
Ital ian</w>
decla red</w>
tour ism</w>
6 4</w>
produc tive</w>
heav y</w>
coun t</w>
ful f
H is</w>
Peters burg</w>
fac tory</w>
settl ement</w>
Sch ool</w>
con f
form ul
pri mar
Saud i</w>
m al
hel ped</w>
Bus iness</w>
doc tors</w>
Vladi mir</w>
sus p
uni verse</w>
J u
effecti veness</w>
im ages</w>
ecti vely</w>
we ak
r ul
pret ty</w>
conclu ded</w>
follow s</w>
p ass</w>
D ep
bo y</w>
pris on</w>
ben e
sur g
c rit
Pro f
D avi
S en
S ite</w>
sc ope</w>
recogn ition</w>
introduc tion</w>
viol ation</w>
pow ers</w>
ent ered</w>
In v
air port</w>
expl ained</w>
on going</w>
elec ted</w>
Au stri
w aste</w>
it or</w>
ar m</w>
apart ment</w>
ap ter</w>
hous es</w>
govern ments</w>
Je ws</w>
hum ans</w>
en ant</w>
Sy stem</w>
Chris t</w>
primar ily</w>
chall enge</w>
t ons</w>
pay ments</w>
hun dre
O per
inv ited</w>
facilit ate</w>
fif th</w>
5 1</w>
ra ise</w>
clu b</w>
quar ter</w>
N et
st ock</w>
ograph y</w>
out come</w>
protec ted</w>
serv er</w>
Gen eva</w>
A M
li min
fem ale</w>
du le</w>
tion ary</w>
pho to</w>
con ver
En ergy</w>
For ce</w>
i ti
O R
ot els</w>
su itable</w>
recogn ize</w>
H ey</w>
ver ing</w>
m as
de struction</w>
ed ly</w>
grad u
st ages</w>
relation ships</w>
h ou
ob tain</w>
. e
leng th</w>
In du
gu y</w>
vo ice</w>
at a</w>
comb ination</w>
st ers</w>
tur ns</w>
b om
s we
larg er</w>
li fe
dic tion</w>
are n</w>
Res earch</w>
zer land</w>
eval uation</w>
5 2</w>
st ations</w>
su n</w>
sev ere</w>
v ac
adv ance</w>
am bi
appoin ted</w>
vill age</w>
4 7</w>
Educ ation</w>
af raid</w>
ab s
Swit zerland</w>
mo ti
attemp t</w>
develop ments</w>
character istics</w>
ad y</w>
innov ation</w>
S ou
b row
star s</w>
gen e
d ark</w>
hundre ds</w>
h ost</w>
M s.</w>
re new
rel atively</w>
he at</w>
ho t</w>
easi er</w>
vis a</w>
disci pl
ar gu
C ub
Per s
bit r
sol ve</w>
el er
Wh ite</w>
lab or</w>
pursu ant</w>
M ad
do g</w>
specific ally</w>
p ages</w>
equ i
con stantly</w>
sur pris
coo k
li z
fin ance</w>
an k
Protec tion</w>
em ed</w>
4 1</w>
e z
M ol
serv ed</w>
loo ked</w>
cre ative</w>
wa iting</w>
h a</w>
cap e</w>
sub si
hosp ital</w>
fl exi
event ually</w>
in stance</w>
ish ment</w>
comm ittee</w>
con sent</w>
g ain</w>
conven i
consum er</w>
I P
des er
we alth</w>
consist ent</w>
tri bu
sp irit</w>
phot os</w>
indic ators</w>
199 2</w>
medi um</w>
m aster</w>
st op
fi gu
st one</w>
ut ely</w>
am az
4 3</w>
for d</w>
recor ded</w>
comb ined</w>
Ad visory</w>
strugg le</w>
bi o
po sts</w>
doub t</w>
em ail</w>
e ye</w>
oo t</w>
ussi ons</w>
certi fic
won der
ific ation</w>
L atin</w>
eval u
P ak
us h</w>
observ ed</w>
ma p</w>
V ol
mut ual</w>
D en
continu ing</w>
A ID
Gre ece</w>
spe ech</w>
im m
guid elines</w>
4 6</w>
e en</w>
g lob
defin ition</w>
b es</w>
lo ved</w>
depend ent</w>
clos ely</w>
l ay
f le
gu ys</w>
win ter</w>
custom s</w>
ow ners</w>
collabor ation</w>
man age</w>
g .</w>
v eg
le ts</w>
eng aged</w>
ffe e</w>
sec ut
tor al</w>
M c
respon d</w>
k ept</w>
loc k</w>
consum ers</w>
i ously</w>
n ine</w>
I F
P en
philos oph
at tr
increas ingly</w>
C z
success fully</w>
ic ts</w>
ob tained</w>
fir m</w>
fur ther
o do
EC E</w>
tradi tion</w>
tr ack</w>
sp ective</w>
ent re
wid ely</w>
reco very</w>
ri sts</w>
in ks</w>
pr e</w>
bo x</w>
ne i
Ne ther
L .
f res
electr icity</w>
N G
I s</w>
C u
0 1</w>
techn ological</w>
l un
E st
olo gi
fu n</w>
recommend ation</w>
pro per</w>
dat ab
g ar</w>
vit am
atmos phere</w>
flo or</w>
n ice</w>
dist inc
y m
an i</w>
hy dro
h it</w>
entre pre
top ic</w>
A l</w>
dedic ated</w>
m ail</w>
ay a</w>
ission er</w>
Davi d</w>
Nether lands</w>
reg ulation</w>
n ar
monit or</w>
vir us</w>
ellec tual</w>
uni versity</w>
Gree k</w>
Represent ative</w>
e. g.</w>
diffe rences</w>
special ists</w>
be auty</w>
resid ence</w>
5 7</w>
bro ther</w>
identi ty</w>
Pl an</w>
C ov
cor ruption</w>
.e .</w>
judic ial</w>
di v
mo stly</w>
d less</w>
ter y</w>
fin ding</w>
vis ited</w>
G az
i .e.</w>
s essions</w>
e al
cl aimed</w>
lin ks</w>
oun ding</w>
y i
R A
a head</w>
P ublic</w>
pat ter
tr ain</w>
expres s</w>
lin ked</w>
E ur
K u
R ed</w>
d red</w>
4 00</w>
tur ning</w>
B en
d uty</w>
abs ence</w>
coun ter
AID S</w>
a str
Char ter</w>
Academ y</w>
C T
our selves</w>
hou se
rel and</w>
pre me</w>
consider ing</w>
it ely</w>
H C
M ill
exam ples</w>
i ally</w>
ac her</w>
syst em
mor t
sat ell
promis e</w>
L at
Indi an</w>
exp ec
man i
imag ine</w>
s l
si vely</w>
An d</w>
ha z
I reland</w>
manufactu rer</w>
migr ants</w>
lead s</w>
compon ent</w>
recomm end</w>
Par k</w>
lin ed</w>
iz es</w>
g ot
publ ication</w>
tra fficking</w>
i o</w>
y an</w>
ann i
set ting</w>
beg ins</w>
scre en</w>
r ural</w>
S ol
speci fied</w>
thre ats</w>
sel ected</w>
represent ed</w>
Ph one</w>
j usti
sugg ested</w>
n om
t ings</w>
P ow
z es</w>
absol utely</w>
bac ter
ac tors</w>
el d</w>
in si
C re
g ment</w>
bu s</w>
har d
categ ories</w>
acc eler
199 1</w>
engine ering</w>
encour age</w>
5 3</w>
bil ateral</w>
s ong</w>
occur red</w>
teach ing</w>
nei ther</w>
th odo
ru p
rev olution</w>
O n</w>
F l
tel evision</w>
auth ors</w>
pregn ancy</w>
P o
L eg
li am
v acc
es is</w>
i um</w>
par k</w>
competi tive</w>
suff ering</w>
consi sts</w>
por tion</w>
Ar my</w>
5 9</w>
manufac turing</w>
special ized</w>
further more</w>
tren ds</w>
pa th
Braz il</w>
B lack</w>
advant ages</w>
tri p</w>
destro yed</w>
con vers
sh ops</w>
Comm issioner</w>
I A</w>
M ac
territ ories</w>
sel ling</w>
ad ju
expres sion</w>
O F</w>
in ations</w>
chi ef</w>
disc ussions</w>
tan e
6 1</w>
plac ement</w>
5 8</w>
ex ecutive</w>
fil es</w>
I T</w>
arrang ements</w>
6 3</w>
fail ed</w>
6 2</w>
ent ing</w>
sen ior</w>
Di vision</w>
o ot
author ized</w>
sim ul
coun ter</w>
radi o</w>
9 5</w>
occup ied</w>
5 6</w>
tr ou
enter prise</w>
friend ly</w>
G ol
ing ing</w>
tre ated</w>
199 0</w>
L ab
h i</w>
stre et</w>
au l</w>
inter view</w>
w are</w>
ic ated</w>
Win dows</w>
k en</w>
minist er</w>
op position</w>
reduc ing</w>
experi ences</w>
t ary</w>
C hi
hun dred</w>
ov a</w>
con n
Chil dren</w>
con stant</w>
5 4</w>
tow ard</w>
orig in
mag ne
noti ce</w>
te ams</w>
d den</w>
tu red</w>
up dated</w>
versi ties</w>
S lo
profession als</w>
pro p
vers ary</w>
s a
inf ection</w>
w illing</w>
com mod
u k
S k
ep h
el ement</w>
leav ing</w>
is s
tou rists</w>
S ub
bloc k
et er</w>
Ob ama</w>
6 6</w>
co ffee</w>
sou l</w>
mb ass
Bul g
soldi ers</w>
establish ing</w>
to x
UN DP</w>
du m</w>
veg et
sim pl
Co operation</w>
fe ature</w>
institu tion</w>
car bon</w>
ak e
ail s</w>
s ac
real ize</w>
ch an
or row</w>
el a</w>
ei gh
re views</w>
accur ate</w>
crit eria</w>
paragrap hs</w>
min al</w>
immedi ate</w>
pl ays</w>
est ate</w>
Swe den</w>
resp ective</w>
Fri day</w>
pres cri
teach ers</w>
regar dless</w>
inter action</w>
m useum</w>
com position</w>
ow ned</w>
St at
enem y</w>
human ity</w>
Cy pr
3 0
ro p
sel ection</w>
Ci vil</w>
sp ok
c os
web sites</w>
join ed</w>
Nor thern</w>
qu i
audi ence</w>
foot ball</w>
Cypr us</w>
Cov enant</w>
il s</w>
ide al</w>
P .
under stood</w>
qu ali
z a</w>
A L
n one</w>
bun al</w>
al d</w>
shap e</w>
por ted</w>
T o
E C</w>
Hun g
T ha
tw ice</w>
w ouldn</w>
w ards</w>
ha ven</w>
divi ded</w>
Sci ence</w>
F oundation</w>
P A</w>
them e</w>
plan e</w>
w all</w>
hol ds</w>
O n
sub stances</w>
bro ad</w>
descri ption</w>
trav el
S ha
us h
car rying</w>
conc ep
dis armament</w>
re pl
S R</w>
ab use</w>
ish es</w>
in d
stru ment</w>
dri ving</w>
f ell</w>
ph ones</w>
st ressed</w>
br ary</w>
surve y</w>
te red</w>
B it
ed ings</w>
M icro
exten ded</w>
under taken</w>
z y</w>
wor se</w>
s outh</w>
regul arly</w>
Pak istan</w>
tre at</w>
O S</w>
S C</w>
achiev ing</w>
Mon day</w>
R evi
A S</w>
recor ds</w>
for um</w>
at ti
6 7</w>
er ial</w>
arti st</w>
ill u
Me eting</w>
pro ve</w>
Russi ans</w>
E F</w>
ha el</w>
see ing</w>
t ment</w>
N A</w>
re present</w>
f aster</w>
R el
new sp
nor th</w>
SC O</w>
cent uries</w>
Produc ts</w>
Or thodo
head s</w>
defin itely</w>
re move</w>
cou ldn</w>
gu ests</w>
m as</w>
in formal</w>
pa rent</w>
Soci ety</w>
pri orities</w>
al ty</w>
V er
Administr ation</w>
restric tions</w>
recei ving</w>
il itation</w>
rem aining</w>
S ud
sh aring</w>
legisl ative</w>
small er</w>
kin ds</w>
det ention</w>
min ute</w>
St re
H am
rub les</w>
ber g</w>
Le ban
figu res</w>
S ing
met al</w>
H u
ti n</w>
expan sion</w>
poli tics</w>
em issions</w>
architec ture</w>
B ro
ti l
econom ies</w>
s low
clos er</w>
it age</w>
n esses</w>
lat eral</w>
f al
as is</w>
bu t
e ased</w>
ever th
vi sible</w>
everth eless</w>
ser iously</w>
ac compl
W al
di o</w>
with draw
mor al</w>
it ch
int ellectual</w>
li sted</w>
enti ty</w>
A D
w est</w>
C ali
ap s</w>
F or</w>
8 5</w>
de partment</w>
gr anted</w>
C ro
b ing</w>
tal ks</w>
ent ally</w>
fo rest</w>
I P</w>
exp end
consci ousness</w>
form at</w>
hel ping</w>
v ital</w>
bi ological</w>
Alex ander</w>
os en</w>
n evertheless</w>
he re
cook ies</w>
smar t</w>
G i
hab it
l ar</w>
O ne</w>
thou ghts</w>
fif ty</w>
direc ted</w>
V ic
y st
tis su
z ing</w>
believ es</w>
G al
N az
tor ture</w>
proce edings</w>
cour ts</w>
tom orrow</w>
h arm
sch em
E d
p al
amoun ts</w>
9 9</w>
pl us</w>
batt le</w>
pro sp
confl icts</w>
Sum mit</w>
agricul ture</w>
bl ue</w>
favor ite</w>
R ome</w>
th u
cre te</w>
f ashi
w il
sp oke</w>
org ans</w>
we ar</w>
coll ect</w>
weap on</w>
2 ,
c ros
ro l
ol ic</w>
ar bitr
wee k
ar g
S a
pro hib
Techn ology</w>
ess ed</w>
cour ses</w>
Ex per
bri dge</w>
ph arm
Regi onal</w>
di ab
in strument</w>
Par t
un ity</w>
Pe ace</w>
ab il
appro aches</w>
stan ds</w>
l ying</w>
Ki ev</w>
resul ting</w>
Li ber
re action</w>
ell ed</w>
et ro
contrac ts</w>
gr ade</w>
B C</w>
occur s</w>
extr a</w>
gr ounds</w>
kil om
ast ers</w>
gr and
commit ments</w>
an ding</w>
re au</w>
resi stance</w>
gh t
oblig ation</w>
di strict</w>
L a
us al
ban king</w>
k ov</w>
T his</w>
sem in
O s</w>
reason able</w>
func tioning</w>
A tl
s port</w>
er r
exp and</w>
cir cul
back ground</w>
up date</w>
diffe ren
to m</w>
ic als</w>
Mic hael</w>
i day</w>
bu ying</w>
pi ece</w>
adop t</w>
s per
ac tor</w>
sp ring</w>
aff airs</w>
happen ing</w>
f arm
ch osen</w>
appe al</w>
Cri minal</w>
exist s</w>
coll ected</w>
Fin land</w>
ar a</w>
D o
C .
Sec ond</w>
af ter
techni ques</w>
ap ers</w>
cent ers</w>
c tic</w>
R ic
squ are</w>
peace keeping</w>
ic ip
Jer usal
priv acy</w>
S an</w>
fin dings</w>
th ly</w>
ot ed</w>
m id</w>
r are</w>
Environ ment</w>
T or
diplom atic</w>
form ing</w>
re forms</w>
fo rec
con solid
guid ance</w>
uni versities</w>
Jerusal em</w>
let ters</w>
me ant</w>
dis h</w>
har m</w>
obvi ous</w>
ag ues</w>
expend it
I ran
sup ports</w>
un able</w>
dang er</w>
lab or
ir d</w>
ograp hic</w>
fl u
la h</w>
particip ated</w>
lat ter</w>
st ories</w>
te acher</w>
ce re
amaz ing</w>
L E
f ts</w>
sp here</w>
ac compan
every body</w>
si bly</w>
we d
ex plan
u tr
g al
f are</w>
deleg ations</w>
re affir
Au th
de fic
sou thern</w>
rap id</w>
Cali for
ad vis
f la
vir tu
do w</w>
wor ry</w>
diagn os
olu tionary</w>
Pol i
wonder ful</w>
M r</w>
Li thu
academ ic</w>
dec ade</w>
pr oud</w>
en na</w>
b ound
Le ague</w>
st ern</w>
cryp to
m ass
accoun ting</w>
rest ed</w>
cont em
determin ation</w>
vir tual</w>
tou ch</w>
cop y</w>
Cz ech</w>
vulner able</w>
ha m</w>
7 7</w>
dri ver</w>
re moved</w>
reve aled</w>
enti rely</w>
subsequ ent</w>
e u
Geor ge</w>
coll ective</w>
li ance</w>
sugg est</w>
K yr
difficul ties</w>
ev il</w>
p ip
chil d
employ ed</w>
te a</w>
f at</w>
hom es</w>
d ary</w>
con serv
im pres
ar d
Musli m</w>
fam ili
com ed</w>
H ow</w>
is o
a ths</w>
6 8</w>
et es</w>
tre me</w>
enti onal</w>
govern ance</w>
di tion</w>
Ad d
anni versary</w>
t ab
op pos
st ake
incre di
P aul</w>
ra il
e ating</w>
mas sive</w>
br inging</w>
t ex
A ir</w>
mul ti</w>
re presents</w>
N ic
Por tu
cha ir
Pet er</w>
A P
deb ate</w>
c ast
cam era</w>
Nor way</w>
Orthodo x</w>
psych ological</w>
smar t
sch ed
entrepre neur
arri ved</w>
n in
industri es</w>
am ed</w>
der i
expl os
L en
clin ical</w>
sha res</w>
cru cial</w>
f ans</w>
dr inking</w>
vic tory</w>
C .</w>
car ds</w>
W ed
civil ian</w>
sy mb
G DP</w>
t our</w>
wel comed</w>
at er
e ded</w>
valu able</w>
Califor nia</w>
Arab ia</w>
stu died</w>
ad ing</w>
Su preme</w>
am ber</w>
indic ate</w>
e ing</w>
on a</w>
ex ports</w>
decre ase</w>
th i
nat ur
B os
Kyr gy
class es</w>
sp ending</w>
sp ac
1 50</w>
ti an</w>
accept able</w>
ti se</w>
re place</w>
equip ped</w>
ec h
cle an
is ol
per spective</w>
id ly</w>
har mon
un known</w>
f ra
v an</w>
me a</w>
os la
amend ments</w>
territ orial</w>
Commun ity</w>
instruc tions</w>
TH E</w>
juris diction</w>
Kore an</w>
We b
de pression</w>
ti m</w>
ac ted</w>
institu tional</w>
sti mul
te dly</w>
prepar ing</w>
pol y
cont aining</w>
su gar</w>
no tic
am ing</w>
offic ially</w>
radi ation</w>
s ort</w>
I A
see king</w>
7 2</w>
fi xed</w>
ri ver</w>
K en
Per manent</w>
T i
larg ely</w>
refl ect</w>
emo tional</w>
allow ing</w>
in form</w>
is c
Austri a</w>
O P
Cu stom
ay ed</w>
ov o</w>
ac king</w>
feel ings</w>
sel ect</w>
func tional</w>
Sp ace</w>
regul atory</w>
pen sion</w>
invol ving</w>
s la
e ties</w>
part ments</w>
mar ks</w>
ke y
we stern</w>
jud ge</w>
meth od
J ames</w>
typ ically</w>
Cri mea</w>
tim ately</w>
fin ished</w>
fres h</w>
no body</w>
Bel gi
er ies</w>
regi ster</w>
b ra
val ent</w>
Re port</w>
w ind</w>
ex treme</w>
j ing</w>
sh e
f oods</w>
cap abilities</w>
lim its</w>
f oundation</w>
li fer
rec ru
comm ission</w>
im posed</w>
stop ped</w>
H el
ch apter</w>
id ity</w>
d ad</w>
Offic ial</w>
r o</w>
S m
min ing</w>
present ation</w>
ac ked</w>
el ine</w>
tren d</w>
Minist ers</w>
Christ mas</w>
Hol y</w>
g or
SE O</w>
T O</w>
happ iness</w>
gu ide</w>
deli ver</w>
pic tures</w>
deli vered</w>
par am
gu ess</w>
con crete</w>
Cub a</w>
Mol do
di am
t ari
e tion</w>
show ing</w>
t oler
0 5</w>
Fr anc
er o
pub lic
mis sing</w>
dur ation</w>
2 8
d est</w>
Dep uty</w>
colle agues</w>
beli ef</w>
E N
pack age</w>
grap h
El ec
L in
An dre
P C</w>
call ing</w>
M ag
aren cy</w>
comput ers</w>
exten sive</w>
B ei
ev ol
secon dary</w>
compens ation</w>
re la
un like</w>
exam ination</w>
memb ership</w>
avail ability</w>
tr ag
mar ine</w>
hol iday</w>
di ff
f air
rap idly</w>
c row
fac tion</w>
en ko</w>
refl ected</w>
per cent
inv est</w>
invol vement</w>
un d
O N
Ne ws</w>
odi c</w>
ir ing</w>
ma them
pl astic</w>
de fe
ne utr
contr ary</w>
dec line</w>
arti ficial</w>
In te
b ought</w>
trans ferred</w>
Revi ew</w>
knowle d
ter ri
citiz en</w>
be sides</w>
sen sus</w>
as king</w>
multi lateral</w>
b orders</w>
de aling</w>
def ence</w>
frequ ently</w>
es h</w>
Armen ian</w>
H ist
compl ain
ali ve</w>
I D</w>
Rom an</w>
exc ep
lo an</w>
st ro
organ is
organ ic</w>
Ar gent
war m</w>
yp e</w>
star ts</w>
ar rested</w>
ed y</w>
dis play</w>
vic tim</w>
mat ch</w>
Sat ur
fil ms</w>
sup posed</w>
dol lar</w>
car ri
D oc
si ght</w>
sh ar
mo on</w>
imm une</w>
bloc k</w>
Micro soft</w>
D C</w>
dro p</w>
f it</w>
k es</w>
strong ly</w>
estim ates</w>
As si
Tri bunal</w>
volun tary</w>
Sud an</w>
b ar</w>
don e
s low</w>
A T</w>
u h</w>
integr ity</w>
v ast</w>
consul tation</w>
M y
K ur
mil k</w>
ul ations</w>
il and</w>
Vi enna</w>
E r
datab ase</w>
b ill</w>
G ames</w>
col on
Li fe</w>
e astern</w>
chan nel</w>
ini ans</w>
te en</w>
In done
fe ren
respon sibilities</w>
w ine</w>
recomm ends</w>
cent res</w>
St u
f ting</w>
M er
Bei jing</w>
re placed</w>
lifer ation</w>
du ties</w>
M S</w>
rou te</w>
Con tro
p as
peri ods</w>
t aught</w>
pregn ant</w>
legi timate</w>
S aint</w>
particip ating</w>
nor thern</w>
Bud d
re iter
P i
eng age</w>
succ e
tour ist</w>
tax es</w>
Sun day</w>
in ci
observ ations</w>
ad ed</w>
dis aster</w>
re vised</w>
ste el</w>
care fully</w>
dist ingu
ra ising</w>
resp ectively</w>
Ter rit
em en</w>
J os
presid ential</w>
hosp it
se l</w>
Iran ian</w>
ti le</w>
install ation</w>
n d</w>
F am
fac ed</w>
gl ass</w>
F ac
St and
comfor t</w>
C N
de ep
occup ation</w>
W ar
S il
fe et</w>
ev ening</w>
diab etes</w>
an o</w>
ex pos
fac es</w>
install ed</w>
k in</w>
consul t
poli tici
c ell
ad ult</w>
gene tic</w>
bl ing</w>
6 00</w>
ag ents</w>
achiev ement</w>
M ari
main taining</w>
n avi
en ab
h otels</w>
S cot
M y</w>
f oun
compet ent</w>
or al</w>
m ale</w>
ten d</w>
Bu reau</w>
A t
dom in
cl ari
rem ote</w>
reser ves</w>
grow n</w>
sensi tive</w>
te sted</w>
E mp
d ingly</w>
accid ent</w>
attemp ts</w>
r i</w>
passeng ers</w>
mil es</w>
Th ur
moder n
al y
port ers</w>
percent age</w>
t ress</w>
qu al
atten ded</w>
jour ney</w>
destro y</w>
associ ation</w>
as ing</w>
Su stainable</w>
c ast</w>
k i</w>
acqu i
reven ue</w>
be an</w>
et ed</w>
Pro ject</w>
u d</w>
mach ines</w>
Z eal
phenomen on</w>
S af
gre w</w>
me at</w>
um n</w>
compl y</w>
conclu sions</w>
det ail</w>
z e
re ti
eng ines</w>
at tribu
b a
ul timately</w>
proper ly</w>
d ry</w>
per mit</w>
ro b
te ach</w>
B or
wed ding</w>
em i
ot h</w>
D o</w>
I L
ati es</w>
E A</w>
leg ally</w>
ar di
K h
K r
fac ing</w>
ass ess</w>
t um
Mill ennium</w>
manufactu rers</w>
histor ic</w>
h ell</w>
Li b
prog res
nam ely</w>
f lights</w>
mag az
tar gets</w>
surg ery</w>
comp ati
Wil li
y n
journ alists</w>
co ast</w>
stre am</w>
k g</w>
tis m</w>
es c
docum entation</w>
mun icip
en e</w>
ou l
d ose</w>
ag ent</w>
7 3</w>
pro of</w>
grad ually</w>
qu ick</w>
al ize</w>
off ering</w>
rel ative</w>
se arch
sub jects</w>
sched ul
dem ands</w>
get ed</w>
b in
any where</w>
missi le</w>
urg ent</w>
ch amp
D el
Pol ish</w>
Sup port</w>
aw ar
p ool</w>
ch ann
Zeal and</w>
la m</w>
ak h</w>
prof ile</w>
Tu esday</w>
ag s</w>
candi dates</w>
arti sts</w>
emer ging</w>
mar ked</w>
2 nd</w>
los ses</w>
s an
Regi on</w>
sub stance</w>
T R
prin cip
pol lu
Poli tical</w>
ol a</w>
an tic</w>
oc ca
J ud
transp arency</w>
Ven ez
strong er</w>
j e
Isl ands</w>
mur der</w>
s day</w>
suppl ies</w>
par liam
secut or</w>
stake holders</w>
es sible</w>
conveni ent</w>
C C
accor dingly</w>
pos s
exten d</w>
gi ft</w>
m el
not ing</w>
sol id</w>
e ast</w>
ap p</w>
stit utes</w>
bi ennium</w>
sid ers</w>
C ath
over come</w>
l ots</w>
pos sibly</w>
6 9</w>
ologi sts</w>
Pri v
D ar
acc essible</w>
suff er</w>
i ded</w>
adv oc
U R
satell ite</w>
com ment</w>
resid ential</w>
ign ty</w>
infl ation</w>
ac id</w>
descri be</w>
sugg ests</w>
obvi ously</w>
S to
av es</w>
d os
Bit coin</w>
t ree</w>
simul tane
U A
achiev ements</w>
t ac
en ship</w>
V ice</w>
mani fe
ent ure</w>
wor st</w>
uni on</w>
a c</w>
dep end</w>
ad ly</w>
For ces</w>
char ged</w>
initi ally</w>
stud ying</w>
ili ans</w>
curren cies</w>
Venez u
bo ys</w>
0 6</w>
ari b
manag er</w>
concentr ation</w>
W H
ac knowled
commun icate</w>
N av
appl ies</w>
k id
addres sing</w>
origin ally</w>
statis tical</w>
do gs</w>
nit ure</w>
aut onom
r ating</w>
ester day</w>
elim inate</w>
ob st
loc ations</w>
sub scri
N ig
enti ve</w>
sto red</w>
sign al</w>
sh op
survi ve</w>
en ary</w>
de al
con ferences</w>
th es</w>
mis s</w>
th esis</w>
autom atically</w>
Y ug
al lies</w>
Thur sday</w>
Olymp ic</w>
mo de</w>
acc used</w>
protec ting</w>
conn ect</w>
interpre tation</w>
Jo int</w>
tot ally</w>
Wed n
m its</w>
ic ian</w>
requi rement</w>
down load</w>
ed oms</w>
six th</w>
j un
b arri
su red</w>
absol ute</w>
peri odic</w>
dec laration</w>
tim ely</w>
fi es</w>
end or
i ers</w>
sovere ignty</w>
rep ut
B re
he ight</w>
s ongs</w>
v ated</w>
tradi tions</w>
bri ef
fashi on</w>
sch e
coll ap
0 2</w>
jud ges</w>
por ting</w>
every where</w>
moun tain</w>
f ly</w>
exper tise</w>
S P
answ ers</w>
c k
cl oud</w>
Emp ire</w>
R u
G ar
norm ally</w>
s wit
w alls</w>
v oc
hur t</w>
exten sion</w>
A N</w>
trans action</w>
con sensus</w>
Ar t</w>
encour aged</w>
Is land</w>
con vic
nation ally</w>
Yug osla
we ak</w>
constitu tional</w>
re in
be ar</w>
vitam in</w>
lo ans</w>
lic ense</w>
men tion</w>
ic it</w>
ec es</w>
UNE SCO</w>
ci v
c ing</w>
exc eption</w>
ab sor
mess ages</w>
Ar ctic</w>
dep th</w>
Bi ble</w>
h ate</w>
sum mary</w>
fore ver</w>
y esterday</w>
secon ds</w>
con dem
sche dule</w>
re pair</w>
i tive</w>
cl ick</w>
real ized</w>
im port</w>
cho os
acqu ired</w>
re n</w>
D ata</w>
am p</w>
s ligh
mo m</w>
expl ore</w>
trans mission</w>
su st
S om
A ut
US SR</w>
Moldo va</w>
UN IC
B .</w>
g ram</w>
in corpor
bene ficial</w>
correspon ding</w>
Pro c
mo bil
famili ar</w>
certific ate</w>
po sted</w>
secu tion</w>
divi sion</w>
out put</w>
C arib
blo g</w>
consider able</w>
liter ature</w>
sou ght</w>
Wedn esday</w>
re mo
block chain</w>
0 4</w>
Carib bean</w>
N O
sti c</w>
T aj
N ik
D om
Str at
be ach</w>
pro ved</w>
c ro
es tions</w>
f estival</w>
chr onic</w>
identi fication</w>
ap art</w>
E v
O ther</w>
su b</w>
re hab
He ad</w>
E S</w>
Cro ati
offic er</w>
gr y</w>
substan tial</w>
s ounds</w>
Ser ge
Th at</w>
natur ally</w>
1 ,000</w>
r ay</w>
ad ding</w>
ref used</w>
restaur ant</w>
F il
s pl
consci ous</w>
Pan el</w>
civ ilians</w>
Vi et
H on
A li
An dro
attrac tive</w>
los ing</w>
compar ison</w>
olog ist</w>
appoin tment</w>
produc ing</w>
Fin ancial</w>
re cip
Tha iland</w>
as set</w>
re a</w>
land s
f ill</w>
or m
A le
distribu ted</w>
C al
charac ters</w>
N at
Chil d</w>
satis faction</w>
diagn osis</w>
s ick</w>
c k</w>
fic ations</w>
ra w</w>
char ges</w>
schedul ed</w>
Chi ef</w>
se emed</w>
b our
lic ens
shor t
co operate</w>
Ro yal</w>
re min
ne uro
equi valent</w>
win dow</w>
g al</w>
chann els</w>
Can adi
e uro
fr ag
Ber lin</w>
ow nership</w>
ab in
S ur
aud it</w>
ip p
Bulg aria</w>
. m
I C</w>
mo vements</w>
for th</w>
hear ing</w>
dynam ic</w>
V ir
got ten</w>
ic ide</w>
gre es</w>
7 6</w>
si ster</w>
pain ting</w>
cont acts</w>
pre fer</w>
provi sional</w>
magne tic</w>
H o
7 1</w>
3 D</w>
inter ior</w>
d ating</w>
obst ac
so il</w>
subsi di
Sing ap
depend ence</w>
heal th
gh ly</w>
quali fied</w>
poin ted</w>
manag ers</w>
awar ded</w>
gi ble</w>
pay ing</w>
su ffered</w>
un usual</w>
ten sion</w>
resol ve</w>
g er
al a</w>
de aths</w>
S hi
bel ong
enc ing</w>
D u
E R</w>
Cor por
transl ation</w>
end ar</w>
F ood</w>
0 8</w>
9 8</w>
volun te
g a</w>
continu ous</w>
ic ians</w>
I R
t y
Don ald</w>
l ad
9 6</w>
necess arily</w>
be ings</w>
0 9</w>
sav ed</w>
UNIC EF</w>
cont ain
tec h</w>
accompan ied</w>
ess els</w>
l uc
IO N</w>
Reg ulation</w>
Is lam</w>
employe e</w>
tre aties</w>
pun ishment</w>
do z
frequ ency</w>
0 3</w>
philosoph y</w>
compl ex
bo l</w>
guarante es</w>
A gr
prin t</w>
f illed</w>
prote in</w>
ag er</w>
t ability</w>
pre limin
col ors</w>
writ er</w>
T ime</w>
the tic</w>
inter governmental</w>
B as
t aste</w>
an i
W i
S ar
clo thes</w>
ro ads</w>
mak ers</w>
fru it</w>
care ful</w>
expen ses</w>
emphasi zed</w>
asp ect</w>
Stre et</w>
top ics</w>
l aid</w>
g ate</w>
es sive</w>
electr ical</w>
typ ical</w>
Inv est
z ation</w>
rac ial</w>
fal se</w>
harm ful</w>
compl icated</w>
br ings</w>
conv entional</w>
itch en</w>
F A
promis ed</w>
M an</w>
8 00</w>
dr am
t elling</w>
Su n</w>
oo d
ex tra
bro ken</w>
tar geted</w>
end ers</w>
roc k</w>
de grees</w>
cre ates</w>
8 6</w>
organis ations</w>
F re
comm and</w>
ag on</w>
M u
gu il
thir ty</w>
20 th</w>
prelimin ary</w>
atti tude</w>
represent ation</w>
main tained</w>
v als</w>
bat tery</w>
trou ble</w>
I f</w>
vis its</w>
prison ers</w>
pro mp
p on
intro duce</w>
b right</w>
li ver</w>
conv in
0 7</w>
get ary</w>
ef ul
Hung ary</w>
Ch amp
Con trac
sh el
mathem atic
tre es</w>
re fer</w>
Singap ore</w>
I r
per si
oo m</w>
cop y
pollu tion</w>
Def ense</w>
incid ent</w>
di versity</w>
bacter ia</w>
prohib ited</w>
v essels</w>
con siders</w>
M oun
dis sem
g ur
the ore
newsp aper</w>
all ed</w>
inten tion</w>
Indone sia</w>
substan tive</w>
plat forms</w>
an ded</w>
aw ard</w>
ree ts</w>
ath let
subsequ ently</w>
compl etion</w>
Strat egy</w>
war ning</w>
7 4</w>
D NA</w>
am b
convers ation</w>
p ped</w>
oppos ite</w>
bre a
h ence</w>
tion ed</w>
org an</w>
or dered</w>
her itage</w>
str ange</w>
struc tural</w>
invol ves</w>
fir ms</w>
dre ams</w>
B ak
person ally</w>
mol ec
fre edoms</w>
f ishing</w>
pat ri
acc um
resul ted</w>
contro ls</w>
inv ention</w>
k illing</w>
ol dest</w>
expos ure</w>
Lithu ania</w>
gr ant</w>
Leban on</w>
clos ure</w>
pil ot</w>
prosp ects</w>
ili ation</w>
i ons</w>
g ri
Palest ine</w>
disco ver</w>
wat ching</w>
mean while</w>
K os
ir on</w>
convin ced</w>
ex act</w>
pu ts</w>
pleas ure</w>
F ree</w>
a rent</w>
Ri ver</w>
any more</w>
m id
L o
H en
tr ained</w>
D r
R C</w>
ris ing</w>
g ained</w>
perc ei
aff ects</w>
oc ean</w>
dis abilities</w>
w arm
emo tions</w>
fer ring</w>
U ser</w>
citiz enship</w>
1. 5</w>
ti ves</w>
ess ing</w>
won der</w>
al ian</w>
for ty</w>
Lat via</w>
exclu sive</w>
scen ari
fur niture</w>
pi eces</w>
concep ts</w>
sa fe
deci des</w>
nor ms</w>
Belgi um</w>
attr act</w>
7 8</w>
row n</w>
draw n</w>
less ons</w>
contem porary</w>
ograph ical</w>
z h
el ev
ep iso
tain ment</w>
sh oot
est er</w>
E S
sub mission</w>
law yer</w>
Rob ert</w>
chem icals</w>
ann ually</w>
do ors</w>
i Phone</w>
B est</w>
ear n</w>
mon thly</w>
re aching</w>
fa ult</w>
P op
A P</w>
f ound
w ishes</w>
gr at
tran sit</w>
ex pe
dom ain</w>
demonstr ated</w>
D .</w>
head quarters</w>
pre mi
ver i
in i</w>
.m .</w>
wit ter</w>
ver sions</w>
sent ence</w>
S wis
A ud
wel comes</w>
Argent ina</w>
ar rest</w>
D ub
ran ean</w>
sym bol</w>
withdraw al</w>
execu tion</w>
deplo yment</w>
Ro ad</w>
provi ders</w>
Christi ans</w>
el low</w>
alter n
co vers</w>
Andro id</w>
pl ement
st reets</w>
guarante ed</w>
10 .
mon etary</w>
Con t
val id</w>
st oc
great ly</w>
ag u
sur prise</w>
disp ute</w>
pot entially</w>
child hood</w>
gener ated</w>
equ ally</w>
em ph
log ical</w>
flexi ble</w>
scen e</w>
foun der</w>
W at
gener ations</w>
Contro l</w>
confir m</w>
t ells</w>
indic ates</w>
su d
inter vention</w>
ref ers</w>
ef s</w>
H y
N i
f ant
flow s</w>
it ations</w>
An nex</w>
proc u
sligh tly</w>
We b</w>
s co
ner ships</w>
C lu
Fin ance</w>
ul ate</w>
1 20</w>
J ord
l ec
sec tions</w>
U r
H a
US D</w>
U R</w>
applic ant</w>
serv ing</w>
Ar ti
res ses</w>
impl ications</w>
hon our</w>
UN CT
dev oted</w>
m ac
im mun
isl ands</w>
hi dden</w>
ak ing</w>
A mbass
out standing</w>
vis iting</w>
Swis s</w>
Pow er</w>
shop ping</w>
aggres sion</w>
del ay</w>
li ability</w>
c in
g ol
d ar
in habit
Den mark</w>
9 2</w>
know ing</w>
ww w
z z
K e
hon or</w>
ff s</w>
e ous</w>
g in</w>
stri al</w>
develop ers</w>
work shop</w>
se as</w>
def ine</w>
den ly</w>
contribu ted</w>
Med iter
R ev
sign ing</w>
9 7</w>
an x
prev enting</w>
ec os
zer o</w>
princip al</w>
param eters</w>
Di strict</w>
youn ger</w>
program ming</w>
B ang
sk i</w>
Sci enti
S im
3 ,
def end</w>
Eur asi
air e</w>
passeng er</w>
a uc
organiz ational</w>
T witter</w>
Satur day</w>
rehab ilitation</w>
sud denly</w>
Hi m</w>
F o
signific ance</w>
P R</w>
produc ers</w>
conduc ting</w>
f ing
u n</w>
prec ed
H R</w>
reser ve</w>
n ap
il ed</w>
Con go</w>
trans formation</w>
reput ation</w>
e k</w>
labor atory</w>
Go als</w>
p ace</w>
C up</w>
n ings</w>
as sume</w>
Op en</w>
sav ing</w>
I L</w>
there by</w>
Min sk</w>
fe els</w>
on ym
Mediter ranean</w>
movi es</w>
de ar</w>
inde x</w>
wal king</w>
T ru
sev enth</w>
Gr and</w>
te es</w>
div or
th or
transp arent</w>
ur ches</w>
fore ign
bot tom</w>
Sec tion</w>
organiz e</w>
m outh</w>
Rep ub
Techn ical</w>
ox y
Th om
di verse</w>
A I</w>
candi date</w>
f ted</w>
tu m</w>
deli ber
Pr ince</w>
tr il
p ick</w>
UNCT AD</w>
Auth ority</w>
sit ting</w>
appreci ation</w>
st on</w>
six ty</w>
real ization</w>
Pro gram</w>
Res er
Fam ily</w>
d ress</w>
ax y</w>
sch ol
purch ased</w>
ur o</w>
8 7</w>
co al</w>
at re</w>
be l</w>
fun ded</w>
pl eased</w>
e ply</w>
reli ef</w>
organ isation</w>
mag ic</w>
k itchen</w>
ut ch</w>
experim ent</w>
Rom ania</w>
h em
emph asis</w>
ang er</w>
8 8</w>
per mission</w>
expan ded</w>
WH O</w>
leav es</w>
A k
explan ation</w>
h es</w>
Or der</w>
pos sibilities</w>
www .
stu ff</w>
N on</w>
inv a
Canadi an</w>
pro liferation</w>
ill ness</w>
hol e</w>
O s
tel eph
9 3</w>
cas ino</w>
rest ore</w>
198 9</w>
T a
M aster</w>
stu dio</w>
un employment</w>
y o</w>
pro sper
ti ll</w>
Turk men
f ate</w>
li brary</w>
C IS</w>
Hist ory</w>
le ge</w>
survi val</w>
some where</w>
en a</w>
ph y
expan ding</w>
ann a</w>
hon est</w>
I l
lo ves</w>
NG Os</w>
O f</w>
m ar</w>
person ality</w>
gu ard</w>
satis fied</w>
inj ury</w>
tic kets</w>
Est onia</w>
choos ing</w>
cre w</w>
exerc ises</w>
de eply</w>
H ong</w>
hy per
Trans port</w>
lu x
pleas ant</w>
P ress</w>
op ol
R en
high ligh
where as</w>
some body</w>
every day</w>
inter nationally</w>
ph r
contr ast</w>
associ ations</w>
Un it</w>
cal endar</w>
expec tations</w>
smo king</w>
cam p</w>
Venezu ela</w>
Prof essor</w>
J our
Cri me</w>
gener ate</w>
M et
vis ual</w>
bir th
ate ful</w>
exam ine</w>
t s
neigh bor
complain ts</w>
Th ird</w>
autom atic</w>
sto res</w>
car di
Lab our</w>
B ook</w>
ca using</w>
Cul tural</w>
T S</w>
sum mit</w>
anc ement</w>
confid ent</w>
Mal ay
7 9</w>
y l</w>
manag ing</w>
mis sed</w>
J am
is s</w>
w ake</w>
pan el</w>
pre ad</w>
appreci ate</w>
all er
par al
sen ding</w>
Pat ri
exce ed</w>
fac ility</w>
ro les</w>
inhabit ants</w>
Net work</w>
K ong</w>
N E
con stitute</w>
produc tivity</w>
initi ated</w>
af for
R ules</w>
ati vity</w>
Ser bia</w>
ement ary</w>
P S</w>
uti li
K rem
o tic</w>
shi ft</w>
enter ing</w>
surr ounding</w>
publ ications</w>
iz ations</w>
paren tly</w>
AN D</w>
G ul
C at
b ound</w>
in ating</w>
5 ,000</w>
ed ge</w>
Pol ice</w>
dis placed</w>
Cha ir</w>
ic ul
f alls</w>
s tic
mist ake</w>
ur ged</w>
g ori
Austr alian</w>
et e</w>
contin ent</w>
og en
CE O</w>
or a</w>
wor thy</w>
Ab out</w>
fe ed</w>
M ary</w>
ace u
Col om
2 50</w>
ap parently</w>
con grat
ic op
t les</w>
contr ad
W ith</w>
procu rement</w>
K o
Musli ms</w>
encour ages</w>
an ch
um a</w>
V I</w>
c ool</w>
a sts</w>
Qu een</w>
T el
wi des
Turkmen istan</w>
be gun</w>
demonstr ate</w>
re t</w>
as er</w>
on to</w>
tal ked</w>
house hold</w>
n am</w>
Im plement
pri me</w>
part nerships</w>
quanti ty</w>
any way</w>
S O
Col lege</w>
L oc
m g</w>
g ross</w>
T ok
re viewed</w>
9 4</w>
me rely</w>
se es</w>
P lat
magaz ine</w>
la sting</w>
regar ded</w>
19 th</w>
elec tro
alleg ed</w>
1 2.
p utting</w>
8 3</w>
car go</w>
c m</w>
stri ke</w>
SC E</w>
ro se</w>
popul ations</w>
8 2</w>
repe at
ali tion</w>
it i</w>
f asc
wides pread</w>
min ority</w>
Taj ik
liqu id</w>
c at</w>
der ing</w>
direc tions</w>
w er</w>
min orities</w>
9 1</w>
su icide</w>
terri ble</w>
terror ists</w>
Air port</w>
moun tains</w>
N uclear</w>
tissu e</w>
kilom eters</w>
W ater</w>
E l</w>
gl ad</w>
UN F
hand le</w>
on ing</w>
op en
be t</w>
form ity</w>
00 ,000</w>
C H
w ing</w>
d ens
emb ar
co verage</w>
spon s
Tajik istan</w>
jour nal</w>
es cape</w>
prov ince</w>
t esti
pursu e</w>
par liament</w>
4 th</w>
essi onal</w>
tic ism</w>
7 00</w>
in ev
te enth</w>
estim ate</w>
fin ds</w>
mist akes</w>
A C</w>
Med ical</w>
L ou
rail way</w>
sol e</w>
att ached</w>
de par
out comes</w>
adju st
Ca uc
nutri tion</w>
Administr ative</w>
dest ination</w>
D ru
cra zy</w>
hol der</w>
Ambass ador</w>
dri ven</w>
Ira q
explo itation</w>
appl ying</w>
th ro
mit ting</w>
atten d</w>
mot or</w>
eng agement</w>
arri val</w>
co gn
oper ative</w>
co vering</w>
preser ve</w>
re feren
ir y</w>
M ay
techni que</w>
h am
head ed</w>
gar den</w>
O R</w>
repe ated</w>
Phil ipp
G l
em be
St atis
produc er</w>
f ers</w>
life style</w>
mort ality</w>
f uc
en orm
under take</w>
rev olutionary</w>
ci de</w>
ner v
mi x
ho p</w>
1 1
wat ers</w>
bran ch</w>
fe e</w>
vide os</w>
addi tionally</w>
provi der</w>
Tim es</w>
mil e</w>
apart ments</w>
at ar</w>
sha re
sam ple</w>
be dro
dat ory</w>
gori th
er ror</w>
Web site</w>
A re</w>
en n
in qu
reser ved</w>
Clu b</w>
um es</w>
O K</w>
Krem lin</w>
Belar usi
A R</w>
E qu
disco very</w>
Mar s</w>
phys ics</w>
8 1</w>
A L</w>
f ast
ex ha
patter ns</w>
w ave</w>
dis orders</w>
ap p
law yers</w>
as signed</w>
8 4</w>
inter face</w>
invol ve</w>
Ang el
8 9</w>
pl enary</w>
v an
schem e</w>
Cath olic</w>
mat ure</w>
draw ing</w>
Coun tries</w>
colle ge</w>
de partments</w>
copy right</w>
gen u
Portu gal</w>
acqui sition</w>
teleph one</w>
hel p
p p
surpris ed</w>
restaur ants</w>
Pre vention</w>
D A</w>
exist ed</w>
p ure</w>
bal anced</w>
flow ers</w>
b le
Croati a</w>
Agr icul
mar i
rel atives</w>
comm only</w>
R evolution</w>
desi red</w>
port fol
we red</w>
UN O
di gn
simultane ously</w>
perf ec
g in
A B
up per</w>
g are
Indu stry</w>
hy po
I N</w>
t ank</w>
view ing</w>
Willi am</w>
se gment</w>
sign als</w>
m al</w>
O ld</w>
B ol
trans mitted</w>
contribu ting</w>
res ort</w>
s y</w>
Jo hn
n ic
Atl antic</w>
Viet nam</w>
campai gn
perform ing</w>
Sou thern</w>
measu red</w>
ob ile</w>
um in
civil ization</w>
ad mini
er ad
p tions</w>
ac commod
win ning</w>
coordin ated</w>
big ger</w>
ori ented</w>
co he
mus cle</w>
L ove</w>
repeat edly</w>
dri vers</w>
D utch</w>
inclu sion</w>
l ake</w>
Comm er
enh ancing</w>
soci o</w>
refuge e</w>
consequ ently</w>
gi ant</w>
ear ing</w>
new ly</w>
d il
re conc
fair ly</w>
g ence</w>
P R
my ster
prescri bed</w>
al es</w>
el abor
Implement ation</w>
gr an
emb ers</w>
tr o</w>
jo y</w>
hor m
fav our
cul tures</w>
H or
em a</w>
Leg al</w>
z ones</w>
F estival</w>
sol ved</w>
k id</w>
N AS
f alling</w>
renew able</w>
r d</w>
f at
Ad v
H it
met abol
li sts</w>
pro ven</w>
im migration</w>
work shops</w>
v ak
Ch amber</w>
cop ies</w>
gr ateful</w>
certain ty</w>
exclu sively</w>
stra ight</w>
fe es</w>
al gorith
tic ket</w>
pl as
att le</w>
S el
c utting</w>
ow ing</w>
ic ing</w>
cere mony</w>
astr onom
ra ft</w>
Cul ture</w>
A ma
Sci ences</w>
ar ts</w>
co ins</w>
ven tions</w>
L L
ear th
mus ical</w>
fr ame</w>
UN HC
K al
F ro
o id</w>
rati o</w>
sav ings</w>
c aught</w>
arch i
ret ail</w>
in y</w>
at om
r ics</w>
Pl an
dis order</w>
d ness</w>
ship ping</w>
s in
J SC</w>
I B
st abil
d inner</w>
se at</w>
UNHC R</w>
dis crimin
u ment</w>
M ik
l o</w>
remo val</w>
k ill
compati ble</w>
vot ing</w>
st a</w>
eful ly</w>
suppl iers</w>
fl ying</w>
h ing</w>
avi ation</w>
su res</w>
is ely</w>
Dis crimination</w>
I R</w>
classi c</w>
observ ers</w>
disp utes</w>
man kind</w>
ge o
C ent
mechan ical</w>
et te</w>
exc iting</w>
bel ong</w>
ol e
ou ter</w>
inter n
resol ved</w>
gu ards</w>
um ber</w>
ur ges</w>
decre ased</w>
hel icop
su stain
bin ding</w>
A s</w>
capac ities</w>
sh ouldn</w>
plac ing</w>
der ly</w>
oxy gen</w>
dic t
prop ag
the red</w>
R w
accept ance</w>
Jord an</w>
M O
rec all</w>
inf ections</w>
C as
tion ality</w>
3 rd</w>
process ed</w>
f oot</w>
g un
prof essor</w>
dam aged</w>
sh ore</w>
ra rely</w>
dis pos
euro s</w>
depos it</w>
G or
O SCE</w>
bro thers</w>
bre ast</w>
tem ple</w>
war s</w>
ex posed</w>
an ian</w>
collap se</w>
opini ons</w>
wat er
199 0s</w>
D es
oper ator</w>
p apers</w>
tour nam
og a</w>
enter tainment</w>
go v
fla g</w>
prec isely</w>
f ail</w>
i ding</w>
Bos nia</w>
viol ent</w>
Contrac ting</w>
illu str
her self</w>
che ap</w>
popul arity</w>
dec or
Ne w
suppl ier</w>
abin et</w>
hi de</w>
he ating</w>
tr a</w>
nerv ous</w>
A cc
min ent</w>
B lo
ju red</w>
F ather</w>
Gre en</w>
serv es</w>
id ays</w>
T em
Mor oc
b ath
eigh th</w>
navi gation</w>
bo at</w>
parti cles</w>
pres sed</w>
lay er</w>
B I</w>
pre mis
ton ight</w>
M ur
plan ets</w>
v ary</w>
V is
L ev
analy tical</w>
ul ated</w>
soci eties</w>
O ur</w>
extra ordinary</w>
inv ite</w>
respon ses</w>
liter ally</w>
bur den</w>
ro bo
oper ates</w>
k i
ob taining</w>
X X
cat ch</w>
ti ous</w>
d able</w>
ye v</w>
notic ed</w>
ab and
enem ies</w>
dro me</w>
b o</w>
slow ly</w>
Belarusi an</w>
n ur
phot ograp
win ner</w>
S A</w>
ess entially</w>
He ad
ass es</w>
govern ing</w>
missi les</w>
f th</w>
per mitted</w>
bir ds</w>
Scienti fic</w>
character ized</w>
e able</w>
P ost</w>
dep uty</w>
enh anced</w>
oper ators</w>
Gu ine
design ated</w>
sp ot</w>
vot es</w>
C o</w>
Char les</w>
enorm ous</w>
Kyrgy z
determin ing</w>
en sive</w>
om mun
incredi ble</w>
Wh o</w>
exam ined</w>
con fron
calcul ated</w>
in jured</w>
Bal tic</w>
help ful</w>
ge ographical</w>
settl ements</w>
M ov
Bu il
C s</w>
insp ection</w>
Pe ace
co ast
exc essive</w>
expl ains</w>
rel ess</w>
represent ing</w>
Iraq i</w>
em bo
health care</w>
behavi our</w>
br ands</w>
h in
ul ty</w>
parliam entary</w>
elim ination</w>
inv ent
Yugosla via</w>
re construction</w>
ne ar
bl es</w>
In iti
certi fication</w>
H igh
Saf ety</w>
nation ality</w>
in her
be aring</w>
stric tly</w>
t elec
su it</w>
ar ise</w>
pass port</w>
impro vements</w>
re di
ru pt</w>
w age</w>
man ip
en ess</w>
m ood</w>
s n
pass ing</w>
M ot
st up
fil ed</w>
foc using</w>
cha e
qui et</w>
politici ans</w>
bro ke</w>
su m</w>
r is</w>
pen alty</w>
2. 5</w>
T w
S .
correc tly</w>
ess ence</w>
man datory</w>
manufac ture</w>
nin th</w>
Con sul
prov in
accoun tability</w>
ing redi
migr ant</w>
se ats</w>
dimen sions</w>
inst all</w>
pro por
ill a</w>
E M</w>
p ush</w>
Mil itary</w>
expendit ure</w>
de grad
promis ing</w>
smart phone</w>
repe at</w>
S t</w>
ter ies</w>
perfec tly</w>
M ach
fe wer</w>
l or
hard ware</w>
fin ish</w>
difficul ty</w>
5 th</w>
C D</w>
re placement</w>
necess ity</w>
ban k
UNE P</w>
elec toral</w>
favor able</w>
anti bio
es tion</w>
ar ising</w>
system atic</w>
m ation</w>
S he
connec tions</w>
d ents</w>
fav or</w>
IS O</w>
b loo
class ical</w>
det ained</w>
as yl
M el
mi xed</w>
ur ities</w>
clo thing</w>
anx i
special ist</w>
t end
S qu
us age</w>
wit ness</w>
bi an</w>
1 1.
op posed</w>
Corpor ation</w>
emp ty</w>
Kyrgyz stan</w>
pl enty</w>
sam ples</w>
am ended</w>
er ti
rest oration</w>
s li
te eth</w>
pro portion</w>
oper ated</w>
f ab
acqu ire</w>
cul p
C r
compet ence</w>
portfol io</w>
wil d</w>
fi re
c tion</w>
investig ations</w>
min or</w>
construc ted</w>
medic ines</w>
C an</w>
on e
entr ance</w>
cho ices</w>
k et
ep ing</w>
st ems</w>
ch ol
W P.
th r
Pers onal</w>
Pal ace</w>
co ol
th ri
lo be</w>
in ery</w>
isc al</w>
ten s</w>
u de</w>
on ics</w>
sw im
pr o</w>
reg ards</w>
ra d</w>
ali gn
im ports</w>
mem or
pharm aceu
import antly</w>
forec ast</w>
K yi
near by</w>
integr al</w>
patter n</w>
le l</w>
w an</w>
prof its</w>
imp acts</w>
Guine a</w>
ga p</w>
fre ely</w>
Kos ovo</w>
simil arly</w>
parti al</w>
an tum</w>
E .</w>
reli ability</w>
min es</w>
com posed</w>
n es</w>
inten si
hor iz
re sum
al ties</w>
read s</w>
al located</w>
t ories</w>
ot a</w>
il ing</w>
th row</w>
Malay sia</w>
cha ir</w>
up dates</w>
gra ve</w>
Repub lic
1 000</w>
l ay</w>
sti pul
amend ment</w>
spok es
C R
un ited</w>
set tings</w>
K y
T C</w>
the ast</w>
d in
priv il
anti cip
hop es</w>
luc ky</w>
bri ef</w>
G R
sac ri
shoot ing</w>
ass embly</w>
ant a</w>
b one</w>
log istics</w>
o cide</w>
exc ess</w>
Ag enda</w>
con formity</w>
L os</w>
ran king</w>
ch ances</w>
Georgi an</w>
s now</w>
spok en</w>
198 8</w>
A .
y ellow</w>
adap tation</w>
C op
de als</w>
sovere ign</w>
r on</w>
is si
I .</w>
T ro
asyl um</w>
w aves</w>
prin ting</w>
dre w</w>
C ur
rati fication</w>
con qu
Ar med</w>
D mit
gradu ate</w>
dign ity</w>
IN G</w>
ob serve</w>
athlet es</w>
Pro secutor</w>
h at
A z
bus y</w>
re jected</w>
Ar ch
theore tical</w>
pro tocol</w>
b os
y ours</w>
pra yer</w>
Part nership</w>
comp are</w>
rec alling</w>
Tu be</w>
nov el</w>
aff ecting</w>
Ma j
regul ated</w>
crypto currency</w>
Philipp ines</w>
tran si
li ked</w>
for gotten</w>
to col
s ad</w>
evalu ate</w>
pack aging</w>
H ome</w>
T here</w>
don or</w>
mil it
Gaz a</w>
cal m</w>
virtu ally</w>
Nav y</w>
earth qu
highligh ted</w>
acti v
NAS A</w>
hibi tions</w>
su rely</w>
ion ship</w>
no on</w>
produc es</w>
experim ents</w>
T ai
Med ic
farm ers</w>
substan ti
m entally</w>
entrepreneur s</w>
all ery</w>
l ap
i ary</w>
insul a</w>
commer ce</w>
bas ically</w>
fru its</w>
tocol s</w>
construc tive</w>
Nig eria</w>
an ity</w>
a ult</w>
peti tion</w>
l ity</w>
th inks</w>
Ap pl
sh ut</w>
re vi
don ors</w>
in no
b anned</w>
serv ers</w>
defe at</w>
comb ating</w>
hol idays</w>
Ama z
S S</w>
B on
ell o</w>
tri als</w>
it ment</w>
10 ,000</w>
gam bling</w>
mir ac
T om
r at
re turning</w>
wi der</w>
Thom as</w>
invest ing</w>
O l
Sp irit</w>
frequ ent</w>
obstac les</w>
deter i
fe ed
Ch er
si zed</w>
anxi ety</w>
e ar</w>
Mo on</w>
j a</w>
tra it</w>
L and</w>
re ply</w>
mi ti
identi fying</w>
defic i
ad ol
af ford</w>
m ast
bel ongs</w>
c en
brow ser</w>
M e</w>
D on</w>
heal ing</w>
T our
gr ation</w>
sil ver</w>
M ul
war ned</w>
vak ia</w>
t t
en ever</w>
indic ator</w>
foreign ers</w>
run s</w>
4 ,
B ah
B ab
loc ked</w>
f an</w>
U se</w>
Custom s</w>
Dis armament</w>
inv itation</w>
insp ired</w>
us al</w>
Op tional</w>
6 th</w>
recogn izing</w>
sun g</w>
refl ects</w>
anal ys
ve y</w>
low est</w>
tox ic</w>
Swe dish</w>
c ue</w>
he res</w>
I G
Kyi v</w>
deri ved</w>
id ation</w>
clean ing</w>
2 ,000</w>
paral lel</w>
campaign s</w>
ch ose</w>
dro pped</w>
on ally</w>
bran ches</w>
employ er</w>
L a</w>
gen e</w>
S S
ro ll</w>
ref use</w>
E limin
addres ses</w>
b ol
W TO</w>
join tly</w>
har dly</w>
te en
12 4
aggres sive</w>
wor ried</w>
o g</w>
mean ing
ar i</w>
i res</w>
Str ate
be at</w>
bot s</w>
5 0
thi op
arri ve</w>
sal ary</w>
Territ ory</w>
v el
carri er</w>
L im
impres sive</w>
rec alled</w>
use ums</w>
occa sion</w>
il es</w>
as ser
phot ograph
Pers ons</w>
sustain ability</w>
rul ing</w>
Ku wait</w>
W E
k ov
as us</w>
e uro</w>
til ity</w>
ec tor</w>
wh enever</w>
celebr ate</w>
E thiop
temper atures</w>
Al ban
hor se</w>
Me dia</w>
T ex
Her ze
M P
gov ina</w>
re actions</w>
n an
clos ing</w>
rou tes</w>
her o</w>
fore sts</w>
design er</w>
bloc ks</w>
me ets</w>
Pr inci
strength ened</w>
A vi
Mar ket</w>
bo ost</w>
ann ex
inf ected</w>
engine ers</w>
veget ables</w>
observ ation</w>
Head quarters</w>
V .</w>
re productive</w>
el se
Herze govina</w>
accommod ation</w>
scienti st</w>
O ri
m ic
sel s</w>
ul l</w>
Ch ile</w>
M usic</w>
public ly</w>
par king</w>
fi x</w>
f iscal</w>
v ice</w>
v el</w>
it a</w>
sol ving</w>
St al
asc ular</w>
organ isms</w>
gram s</w>
pe tr
Eng ine
conven tions</w>
ad mitted</w>
assess ments</w>
Ric hard</w>
re turns</w>
ep id
subsidi ary</w>
Commun ist</w>
assum ed</w>
t ough</w>
pro m</w>
Bi g</w>
s ons</w>
di versi
198 0</w>
ri d
read ers</w>
employ ers</w>
treat ments</w>
Gul f</w>
li a</w>
Wh y</w>
f all
toler ance</w>
tril lion</w>
reg im
7 th</w>
An n
Priv acy</w>
ap ps</w>
en ables</w>
consul t</w>
dr inks</w>
vi c</w>
M un
fra ud</w>
Environ mental</w>
investig ate</w>
Invest ment</w>
se y</w>
desi r
su peri
col our</w>
Hit ler</w>
den ied</w>
rad ical</w>
in put</w>
Som alia</w>
no ise</w>
conclu de</w>
c ope</w>
speak ers</w>
sh ad
G ood</w>
v eter
ad verse</w>
acqu ain
fi l</w>
else where</w>
tre as
ch i</w>
ul timate</w>
gu est</w>
N P
qu antum</w>
St ar</w>
per petr
UN ECE</w>
T at
k o
Al lah</w>
w ill
124 ;</w>
&# 124;</w>
R esp
ch urches</w>
pe t</w>
ho sting</w>
ro of</w>
comp ounds</w>
up coming</w>
independ ently</w>
de pri
ber t</w>
b id
birth day</w>
any body</w>
d ying</w>
sol ely</w>
sal t</w>
flexi bility</w>
alleg ations</w>
St ri
week end</w>
formul a</w>
in spir
de ad
Exper ts</w>
recor ding</w>
invest or</w>
concer t</w>
rou ghly</w>
ga thered</w>
Sup pl
lux ury</w>
op pon
bound ary</w>
Con stitu
er as</w>
ro ot</w>
A G
Budd h
ti red</w>
mini stry</w>
IM F</w>
i di
Gol den</w>
c lock</w>
p etro
sh oot</w>
chr on
F er
ill ance</w>
bl ind</w>
succe ed</w>
Ch ic
situ ated</w>
id a</w>
per or</w>
T ow
St ud
I cel
ste in</w>
l ers</w>
referen dum</w>
uti liz
Colom bia</w>
Indu strial</w>
T E
law ful</w>
wis dom</w>
li v
Br us
sh oes</w>
coun ts</w>
medic ations</w>
R adi
e dition</w>
plan es</w>
inclu sive</w>
inter ference</w>
ell a</w>
M embers</w>
Y outh</w>
barri ers</w>
belong ing</w>
fav our</w>
consequ ence</w>
B ill</w>
Al liance</w>
re public</w>
friend ship</w>
on ian</w>
ill icit</w>
Offic er</w>
swim ming</w>
deplo yed</w>
descri bes</w>
m ic</w>
De sign</w>
dist ur
shor tly</w>
s ity</w>
e gr
S an
character istic</w>
restric ted</w>
si r</w>
recei ves</w>
acc o</w>
accur acy</w>
classi fied</w>
in form
medic ation</w>
d am</w>
tw el
lim itations</w>
p up
heav en</w>
Ter ms</w>
cour age</w>
vi br
glob ally</w>
Elimin ation</w>
affor dable</w>
Lib ya</w>
hi bit</w>
phenomen a</w>
s culp
Oc ean</w>
ear ned</w>
pr ay</w>
an onym
compl ications</w>
develop s</w>
super vision</w>
Cauc asus</w>
S M
FA O</w>
lands cape</w>
sing er</w>
promis es</w>
u l</w>
inva sion</w>
L an
d i</w>
circul ation</w>
R eli
ver ification</w>
re mark
ox ide</w>
st y</w>
Co ordination</w>
We ap
ail ing</w>
Par t</w>
t rem
hy dr
ak ed</w>
f arm</w>
ag en</w>
M anu
Ger man
transl ated</w>
mo ves</w>
travel ing</w>
agg reg
Mar tin</w>
M em
v ations</w>
e tr
liber ty</w>
tro p
ro v</w>
cap ture</w>
modi fied</w>
ro man
wel fare</w>
lik es</w>
architec tural</w>
tal ent</w>
N umber</w>
inj uries</w>
prepar ations</w>
fu sion</w>
sign ature</w>
os si
Mo del</w>
le g</w>
ac cred
r y
om a</w>
Si ber
ans wered</w>
u k</w>
fle et</w>
err ors</w>
ag ram</w>
mom ents</w>
k h
es cal
R am
bo x
figh ters</w>
prosper ity</w>
Su per
B M
sus pic
s en</w>
tow ns</w>
bor row
n av
stup id</w>
in ts</w>
j i
un likely</w>
o o</w>
municip al</w>
nation als</w>
qu alities</w>
simpl i
Brus sels</w>
gen es</w>
M r
B R
genu ine</w>
separ ated</w>
incid ents</w>
Fr amework</w>
enab ling</w>
ti veness</w>
pri ze</w>
feed back</w>
I V
rati fied</w>
M ong
2 4
ro ots</w>
f ought</w>
el ed</w>
is co</w>
se g
Eurasi an</w>
hospit als</w>
D A
co alition</w>
Mon ten
threat ened</w>
mo thers</w>
comm it</w>
ac ute</w>
O il</w>
premis es</w>
grap hic</w>
On line</w>
di c</w>
sh r
Azerbaij ani</w>
Palest inians</w>
cl aim
Moroc co</w>
w ages</w>
ir s</w>
prof ession</w>
as m</w>
ques tion
du al</w>
Monten egr
key words</w>
prin ted</w>
ar chae
wit nesses</w>
S ir</w>
optim al</w>
Rw anda</w>
Angel es</w>
broad er</w>
F lo
re mind</w>
practic ally</w>
gu ided</w>
re ferring</w>
H os
Wor k</w>
dispos al</w>
classi fication</w>
2 1st</w>
T an
ti a</w>
a qu
min eral</w>
di tions</w>
Egyp tian</w>
reve al</w>
V o
sup er</w>
em ic</w>
v es
ast ro
A rea</w>
mach inery</w>
cre di
M ir
bur n</w>
Y ou
break ing</w>
R oom</w>
preser ved</w>
k ings</w>
g an</w>
A M</w>
Initi ative</w>
phy si
Tr an
comm issions</w>
glob alization</w>
Te am</w>
Stand ard</w>
Inter nal</w>
y cl
t ine</w>
sc ore</w>
lo gic</w>
Sam sung</w>
Mov ement</w>
h all</w>
J ack</w>
C A</w>
bur ied</w>
it ting</w>
e e</w>
guil ty</w>
el derly</w>
gg er</w>
separ ately</w>
f ish
real istic</w>
contrad ic
gare t
cont est</w>
celebr ated</w>
hen ko</w>
al i</w>
op ens</w>
Reg ulations</w>
tradi tionally</w>
complex ity</w>
sub jected</w>
re medi
e rec
design ers</w>
ex emp
tem por
depar ture</w>
ci garet
bu yers</w>
list ening</w>
com pris
ad ays</w>
vol can
Sy stems</w>
inter medi
on t</w>
deser ve</w>
persi st
neighb our
t anks</w>
po is
camp s</w>
scenari o</w>
measu rement</w>
ligh ting</w>
under lying</w>
Elec tr
commod ity</w>
H all</w>
N ot</w>
bl ed</w>
In st
commun ic
t ative</w>
respon dents</w>
solid arity</w>
mo bility</w>
surr ounded</w>
spec tr
ang le</w>
H al
C E</w>
discipl ine</w>
in ity</w>
Oper ations</w>
I vo
sh it</w>
comp ul
beli efs</w>
Hen ry</w>
tex ts</w>
ba g</w>
con stra
doc tr
ac tress</w>
ab str
lin ing</w>
perc eption</w>
reser vation</w>
g lobe</w>
some what</w>
confi gur
cir cle</w>
now adays</w>
ati tude</w>
busin ess
argu ment</w>
C li
cr yst
smo ke</w>
conclu ding</w>
har mony</w>
co ach</w>
tor ate</w>
corpor ations</w>
a er
b al</w>
D am
C P
discipl inary</w>
mon opol
reven ues</w>
pre ferred</w>
influ enced</w>
O d
re fin
life time</w>
spl it</w>
surve illance</w>
dis asters</w>
Ivo ire</w>
Lu x
Pro vi
L ight</w>
inten sive</w>
ell er</w>
Bar cel
Amaz on</w>
func tionality</w>
de x</w>
arch y</w>
W all</w>
recogn izes</w>
cap tured</w>
pe ak</w>
el ite</w>
assess ed</w>
competi tors</w>
the ories</w>
syn drome</w>
st ret
conserv ation</w>
fuc king</w>
cul ti
im peri
Uni verse</w>
J ack
mot or
amoun ted</w>
but ton</w>
eg gs</w>
L t
econom ics</w>
a side</w>
expl oration</w>
pl ate</w>
pass word</w>
resp ected</w>
organiz ing</w>
prev entive</w>
intellig ent</w>
F ar</w>
compet e</w>
L ake</w>
psych ology</w>
inten se</w>
chair man</w>
194 5</w>
hab its</w>
ori entation</w>
myster ious</w>
compl aint</w>
reduc es</w>
con vention</w>
prec ise</w>
9 th</w>
be er</w>
differen tly</w>
Co ordin
gi ous</w>
b a</w>
im migrants</w>
A th
C ô
M other</w>
eth ical</w>
dynam ics</w>
f ai
mus cles</w>
swe et</w>
c able</w>
certi fied</w>
bi d</w>
method ology</w>
sub regional</w>
uc ks</w>
Bl ue</w>
sus pen
L O
asp ir
aut umn</w>
L it
Cô te</w>
fe eding</w>
invest ed</w>
dis ability</w>
er als</w>
ha i</w>
divor ce</w>
s a</w>
coordin ate</w>
con stitution</w>
expen se</w>
L y
S ri</w>
shar p</w>
tow er</w>
a e</w>
viol ated</w>
Fro m</w>
al liance</w>
it an</w>
trac king</w>
I X</w>
secre ts</w>
minist ers</w>
k er
pat ent</w>
episo de</w>
recru itment</w>
diff er</w>
s inc
c entr
gre en
sust ained</w>
m in</w>
susp ect</w>
Dub ai</w>
S of
Y es</w>
i at
hop ed</w>
10 0,000</w>
D E
off ences</w>
excep tional</w>
U s</w>
D ani
L ar
Christi anity</w>
C C</w>
progres sive</w>
Barcel ona</w>
c ease</w>
T om</w>
desir able</w>
adap t</w>
D ig
C ross</w>
r u</w>
manufactu red</w>
prof itable</w>
T ar
St ation</w>
search ing</w>
Jour nal</w>
analy ze</w>
parti ally</w>
com pos
198 6</w>
execu ted</w>
Mr s.</w>
aband oned</w>
am i</w>
el and</w>
sk aya</w>
vill ages</w>
go d</w>
preser vation</w>
as y</w>
hun ger</w>
det ect</w>
Wh en</w>
b all
C lim
op ho
ad visory</w>
distinc t</w>
work er</w>
The y</w>
foc uses</w>
m 2</w>
m useums</w>
vot ed</w>
res cue</w>
B A</w>
lo ading</w>
ri de</w>
Uni versal</w>
v o</w>
semin ars</w>
b ases</w>
innov ations</w>
K on
l ady</w>
coast al</w>
Ma ur
as hed</w>
dis cre
Slo ven
F i</w>
break fast</w>
trans fers</w>
an gry</w>
In dependent</w>
F ree
ly rics</w>
R us
bu yer</w>
pro minent</w>
stom ach</w>
alco hol
er ra</w>
196 7</w>
Pri ze</w>
consist ently</w>
ari ties</w>
Chic ago</w>
n u
S T</w>
m ent
ad mit</w>
introduc ing</w>
li on
P RO
set tled</w>
sec urities</w>
bound aries</w>
w earing</w>
st ones</w>
che aper</w>
Y emen</w>
UNF PA</w>
graph y</w>
con version</w>
coun cil</w>
Ch ange</w>
P a
sh oc
M .</w>
hon ey</w>
Res ources</w>
encour aging</w>
phr ase</w>
eter nal</w>
un preced
in os</w>
det ected</w>
di um</w>
in spec
li ed</w>
tournam ent</w>
. 2</w>
fun ny</w>
ther ing</w>
l uck</w>
h yp
endor sed</w>
design s</w>
R em
d ust</w>
bon ds</w>
them atic</w>
rest ored</w>
respon ded</w>
de emed</w>
ab led</w>
jud gment</w>
therap eu
infl amm
rel ate</w>
clu bs</w>
k s
pro test</w>
hol y</w>
r ational</w>
enjo yed</w>
tin y</w>
noti fication</w>
g eting</w>
predic t</w>
dissem ination</w>
198 5</w>
en de
e es</w>
inten sity</w>
en der</w>
Afgh an</w>
pas sion</w>
wi reless</w>
equ ity</w>
dec l
the ater</w>
R ac
cogn itive</w>
inv ented</w>
autonom ous</w>
to b
ur ge</w>
Q atar</w>
S c
incorpor ated</w>
pip eline</w>
acknowled ged</w>
aw a
stoc ks</w>
t ack
c a</w>
im pe
un il
ten ed</w>
V II</w>
gr ants</w>
bour geo
Tok yo</w>
see ks</w>
cont ents</w>
Plat form</w>
f uck</w>
ep h</w>
H aw
en vis
n ity</w>
P ay
aw ards</w>
a .
B ir
integr ate</w>
1. 2</w>
jud g
g ood
man dates</w>
T A</w>
Agricul ture</w>
semin ar</w>
Montenegr o</w>
on er</w>
198 7</w>
A v
fu r</w>
Don b
rec re
Gaz prom</w>
arg ue</w>
oo k
T al
ati zation</w>
e rely</w>
share holders</w>
9 00</w>
ad o</w>
Naz i</w>
isol ated</w>
gam ing</w>
fl at</w>
cat s</w>
ver ies</w>
at ories</w>
N S</w>
B et
des c
rela x</w>
o be
cy ber
Weap ons</w>
T O
inter act</w>
repor tedly</w>
T ask</w>
S pe
Hum an
Co sta</w>
recei pt</w>
vacc ine</w>
W ay</w>
y stem</w>
pl ot</w>
unpreced ented</w>
ev al</w>
pain tings</w>
K ir
sk i
di an</w>
arti stic</w>
ast ery</w>
Ab k
d or
a b</w>
or bit</w>
cont am
Re fuge
it ative</w>
us hed</w>
Jos eph</w>
justi fied</w>
En ter
ic h
l aser</w>
id en
im pression</w>
proce ed</w>
n is</w>
rac ism</w>
pen etr
writ es</w>
un a</w>
Assi stance</w>
B ay</w>
fi red</w>
telec ommun
ass ur
H ab
fe at
ke ys</w>
attrac ted</w>
we ren</w>
tob acco</w>
cam eras</w>
consi sting</w>
198 0s</w>
M as
s ake</w>
lo y
wh o
fir m
audi o</w>
pharmaceu tical</w>
ful fil</w>
publis h</w>
announ cement</w>
amp s</w>
emer ged</w>
oblig ed</w>
o ids</w>
B oli
tari ffs</w>
r yp
inter active</w>
religi ons</w>
inflamm ation</w>
CO N
B ec
expendit ures</w>
reco ver</w>
t ub
Mong ol
fo res
o st
Constitu tional</w>
s ory</w>
propag anda</w>
hear ts</w>
Strate gic</w>
O m
wh ol
t une</w>
ox id
ex ec
ag og
min ds</w>
par tly</w>
U p
met als</w>
pres ti
Clim ate</w>
with draw</w>
s wi
il li
trag edy</w>
survi ved</w>
UN M
un k</w>
Jam a
Mar k</w>
Si erra</w>
k ingdom</w>
pre ce
th in</w>
uni ons</w>
bom b</w>
ash es</w>
purch asing</w>
Princi ples</w>
cur y</w>
M A</w>
loc ate</w>
lau gh
secon dly</w>
ric h
Fi eld</w>
fel low</w>
Tex as</w>
n ish</w>
A ge</w>
analy sts</w>
C D
G ra
al izing</w>
comput ing</w>
cre ativity</w>
am id</w>
join ing</w>
Ken ya</w>
N ap
under ground</w>
ou red</w>
trans mit</w>
inten d</w>
F C</w>
bath room</w>
pe l</w>
t ap
phys ically</w>
we igh
protec tive</w>
2 6
diagnos ed</w>
O ut
sac red</w>
competi tions</w>
hand ling</w>
bur ning</w>
ev ac
prote sts</w>
s mile</w>
autom ated</w>
cu sto
win ners</w>
C old</w>
mem ories</w>
Res olution</w>
pro j
er ic</w>
commit tees</w>
Pro per
ay ev</w>
ri gh
nov ation</w>
ter ror</w>
Col l
F ourth</w>
yp es</w>
5 ,
E p
ho sted</w>
dist ant</w>
observ er</w>
preci ous</w>
Bak u</w>
G ame</w>
IA EA</w>
aff ili
pro secution</w>
prison ment</w>
explos i
For d</w>
tum or</w>
ap parent</w>
um b
or ship</w>
Olymp ics</w>
fulf ill</w>
ves sel</w>
st om</w>
ti vely</w>
arrang ement</w>
vir uses</w>
An ti
z y
journ alist</w>
depos its</w>
Def ence</w>
in ser
doz ens</w>
3 ,000</w>
after noon</w>
leg s</w>
nar row</w>
Cam bo
M ore</w>
s h</w>
ro gen</w>
tu des</w>
gradu ates</w>
men u</w>
Dmit ry</w>
Mac ed
prob ability</w>
expres ses</w>
vac ation</w>
s in</w>
recip i
consul ting</w>
cap ability</w>
ut ers</w>
1 10</w>
en th
ton nes</w>
hy bri
met e
Fl or
Mad rid</w>
Exper t</w>
S ul
O EC
ol f</w>
Fi fth</w>
rul ed</w>
German s</w>
Per u</w>
N ature</w>
whe el</w>
Icel and</w>
u x</w>
Mar k
mac ro
h asn</w>
jun ction</w>
R ight</w>
vol umes</w>
swit ch</w>
modern ization</w>
C ho
ven ue</w>
pos session</w>
M aria</w>
v ar
t ables</w>
stic k</w>
es el</w>
ari ans</w>
P O
cast ing</w>
av a</w>
Sen ate</w>
lo aded</w>
iden tical</w>
mort g
Ethiop ia</w>
fall en</w>
sugg estions</w>
E mbass
Embass y</w>
Ri o</w>
i us</w>
L angu
fant astic</w>
therapeu tic</w>
ash ing</w>
att acked</w>
acc ession</w>
sci ences</w>
reconc iliation</w>
Eur o</w>
dec lined</w>
op oli
alleg edly</w>
Statis tics</w>
hon est
T y
G ir
Resp on
w anna</w>
E UR</w>
comb ine</w>
Al g
under ing</w>
moder ate</w>
percei ved</w>
c af
cri p
sh oul
remark able</w>
man ual</w>
im prisonment</w>
Vi ol
susp ected</w>
writ ers</w>
est ing</w>
air line</w>
int on</w>
lun ch</w>
j i</w>
embo di
Slo vakia</w>
strat or</w>
an dum</w>
ing ness</w>
ret ain</w>
g ather</w>
Ex change</w>
l anding</w>
win dows</w>
emer gence</w>
con stitutes</w>
Bang lad
neutr al</w>
relev ance</w>
contin uation</w>
for ums</w>
ow s</w>
F a
c ep
ren tal</w>
li p
accid ents</w>
C abinet</w>
Tra ining</w>
u sted</w>
har der</w>
Sm ith</w>
pain ful</w>
symb ols</w>
fast est</w>
capit alism</w>
OEC D</w>
pow ered</w>
in sec
Ass ad</w>
3. 5</w>
Fr ank
e ans</w>
ni ght
dis appeared</w>
18 0</w>
not ably</w>
sty les</w>
w ast
IL O</w>
inf o</w>
follow ers</w>
ad he
sk ill</w>
separ ation</w>
dec ent</w>
w ell
em ission</w>
keep s</w>
termin al</w>
deal t</w>
ess a</w>
s man</w>
Squ are</w>
ro bots</w>
dos es</w>
D ou
pul l</w>
moti vation</w>
off ence</w>
in take</w>
Li ve</w>
dec entr
B il
Li brary</w>
domin ant</w>
sh ock</w>
oc ol
Bus h</w>
some how</w>
det ection</w>
mi x</w>
liber al</w>
neighb ors</w>
ende av
volunte ers</w>
Bu t</w>
vi an</w>
sle eping</w>
ex hibitions</w>
Ha iti</w>
al ong
radi o
pre jud
J an
D et
predic table</w>
Ad am</w>
w an
ris h</w>
there of</w>
particip ant</w>
assi stant</w>
chol ester
sp heres</w>
re aches</w>
t age</w>
ati tis</w>
st ery</w>
l ot
W ill</w>
contain er</w>
K im</w>
S la
surpris ing</w>
inv ites</w>
g ains</w>
experi encing</w>
meas uring</w>
pre fer
N .</w>
u ph
cy cles</w>
Y oun
dens ity</w>
CN .
A sh
Ch em
heav ily</w>
Liber ia</w>
F uture</w>
cont ing
dimen sion</w>
f ake</w>
in sufficient</w>
p ir
head ing</w>
P u
St ar
poss ess</w>
K er
t ar</w>
cri ticism</w>
gi fts</w>
ti eth</w>
u ality</w>
inten ds</w>
out lined</w>
where ver</w>
d enti
ch er</w>
ren der</w>
f loo
P av
m u
hy th
competi tiveness</w>
ut ing</w>
wh el
deep er</w>
vitam ins</w>
Sa har
cast le</w>
st aying</w>
olog ically</w>
bit coin</w>
L ist</w>
bo y
et tl
im ported</w>
distinc tion</w>
E L
reser vations</w>
4 0
pres sing</w>
ing rad</w>
intern ally</w>
ho v
tissu es</w>
em an</w>
par ks</w>
Econom ics</w>
N ag
un certainty</w>
Com pl
Cap ital</w>
stro ke</w>
continu ously</w>
li ft</w>
S em
mathematic al</w>
differen ti
g aining</w>
trad ers</w>
197 0</w>
Tr ust</w>
suppl ied</w>
along side</w>
brea thing</w>
recogn ised</w>
power ment</w>
Pop ulation</w>
le ase</w>
soci alist</w>
spectr um</w>
P y
confir mation</w>
V it
dec ree</w>
F ar
hun ting</w>
si zes</w>
ly wood</w>
coun ting</w>
tr ain
prote ins</w>
decl are</w>
stre aming</w>
W A</w>
pen ding</w>
wor ship</w>
Alg eria</w>
the dr
dec lar
calcul ation</w>
li ke
them es</w>
secret ary</w>
Qu ality</w>
Medic ine</w>
ch ocol
O t
sent enced</w>
im pose</w>
1 30</w>
read iness</w>
port al</w>
B at
an mar</w>
roman tic</w>
dam n</w>
c ab
TR AN
197 9</w>
k ni
l es
cholester ol</w>
ac ids</w>
exc ited</w>
B .
purch ases</w>
p ping</w>
G B</w>
Mik ha
over whel
up grad
Ukra inians</w>
P res
immun ity</w>
Le on
St aff</w>
y oga</w>
bos s</w>
pre ferences</w>
acceler ate</w>
Govern ing</w>
an th
oc c
publis hing</w>
2 7
reti rement</w>
Tai wan</w>
ic an</w>
ingredi ents</w>
requ iring</w>
certific ates</w>
l t;</w>
inter im</w>
& lt;</w>
W el
198 2</w>
ov ich</w>
mut ually</w>
Banglad esh</w>
C ast
bu l</w>
re y</w>
incredi bly</w>
ex it</w>
in stances</w>
Pl ay
spac es</w>
form ulation</w>
bedro om</w>
div ine</w>
co des</w>
attemp ted</w>
dis closure</w>
argu ed</w>
Vic tor
dar k
My anmar</w>
sh o
horm one</w>
minim al</w>
ast y</w>
smart phones</w>
e z</w>
Prof essional</w>
S pr
challeng ing</w>
antibio tics</w>
D r</w>
ed itor</w>
Sm all</w>
w oo
fulf illed</w>
N ep
8 th</w>
enjo yment</w>
Sto ck
promot ed</w>
in fin
ec ological</w>
gra vity</w>
ic ks</w>
explos ion</w>
al location</w>
A h
ass emb
bir d</w>
sp are</w>
meaning ful</w>
z en</w>
E mer
lig ence</w>
compul sory</w>
ak s</w>
Reser ve</w>
Ter ror
be aches</w>
p .m.</w>
go ds</w>
experim ental</w>
l ation</w>
S o</w>
struc turing</w>
Arab ic</w>
P ap
re verse</w>
r um
B e</w>
In ter</w>
inno cent</w>
Rel ations</w>
will ingness</w>
sup pose</w>
m atic</w>
han g</w>
bl ame</w>
her oes</w>
over view</w>
198 4</w>
Bo dy</w>
inte st
activi sts</w>
found ations</w>
al thy</w>
Ma x</w>
Nik ol
Republic an</w>
bil lions</w>
ecos ystem</w>
cor ner</w>
th ful</w>
s or</w>
w are
Har ry</w>
Stat us</w>
18 th</w>
T es
E T
mat ches</w>
celebr ation</w>
bud gets</w>
Hos p
Direc tive</w>
conc ei
la sted</w>
S U
h ang
mari time</w>
pl ed</w>
dis played</w>
molec ules</w>
N ow</w>
en sures</w>
al ysis</w>
ad er</w>
Engine ering</w>
Stu dies</w>
em ia</w>
Coun try</w>
bre ad</w>
Commer ce</w>
environ ments</w>
mon ument</w>
p oc
L D
Dec ade</w>
ten sions</w>
197 3</w>
thir ds</w>
r on
c ure</w>
Cl inton</w>
Chair person</w>
odi versity</w>
at en</w>
en tic
dis abled</w>
Mon it
a es
et sk</w>
F OR</w>
cir cu
compar able</w>
I rish</w>
adol esc
L is
er ation</w>
E mir
P M</w>
Mal ta</w>
incid ence</w>
amb ass
per mits</w>
par as</w>
An ti</w>
wat ched</w>
G ab
uni fied</w>
p ig
L uc
han ded</w>
tr act</w>
ush ing</w>
h ad
rang ing</w>
d ar</w>
Kyrgy z</w>
bud getary</w>
ambi tious</w>
dram atic</w>
F u
B ot
E s
u red</w>
uni form</w>
U gan
my stery</w>
ex changes</w>
remedi es</w>
Val ley</w>
like wise</w>
John son</w>
equ itable</w>
facilit ating</w>
ard ous</w>
pro long
control ling</w>
i stry</w>
mon uments</w>
1. 1</w>
lo ads</w>
Ph ys
applic ants</w>
su dden</w>
d ence</w>
ME N
Fr ank</w>
par ad
pol l
sy cho
St an
ali en</w>
in k
Monit oring</w>
M D
consum ed</w>
stri kes</w>
hydro gen</w>
st ayed</w>
d an</w>
ad ds</w>
chem istry</w>
S har
T ali
warm ing</w>
gi an</w>
c ann
u ties</w>
Ar ts</w>
In tel
L og
gen ocide</w>
un g</w>
o tive</w>
on au
stric ts</w>
organ ism</w>
the atre</w>
gu it
la sts</w>
V ide
Add .1</w>
5 0,000</w>
less on</w>
propos e</w>
stan bul</w>
green house</w>
You Tube</w>
st ering</w>
o to</w>
B an
termin ation</w>
ge opoli
bac ked</w>
p ill
v enture</w>
ag ers</w>
Franc isco</w>
ro t
o ch
op her</w>
A F
on ds</w>
pr on
grow s</w>
T uni
S ports</w>
car ries</w>
K or
ov ascular</w>
mass age</w>
break s</w>
ri vers</w>
connec ting</w>
sum mar
v in
N ar
rec eption</w>
broad cast</w>
duc tion</w>
direc tors</w>
z i
Lt d</w>
tre ating</w>
or ph
determin es</w>
Ph ot
di r
Dig ital</w>
pri de</w>
IS IS</w>
evid ent</w>
Le one</w>
P L
ac knowledge</w>
A ward</w>
Lan ka</w>
ad mission</w>
w ished</w>
H ello</w>
consider ably</w>
eli hood</w>
altern atives</w>
ch enko</w>
enab led</w>
S ev
b is
appreci ated</w>
hi er
bat teries</w>
anc est
ick ness</w>
K am
H T
om et
comm ander</w>
B a
I .
prepar atory</w>
in fr
6 ,
Sloven ia</w>
D re
Hol lywood</w>
trans formed</w>
Re uters</w>
at em
re ward</w>
ra il</w>
Ser ies</w>
Pet ro
g ue</w>
contribu tes</w>
M echan
int oler
twel ve</w>
ac ies</w>
e i</w>
pass es</w>
enth usi
Qu estions</w>
form ally</w>
prof ound</w>
dra fting</w>
ac he</w>
rec ep
tab lets</w>
Mo der
stor m</w>
re b
gun s</w>
Econom y</w>
air ports</w>
P ent
dis appear</w>
ash k
E D</w>
I stanbul</w>
bab ies</w>
privil eg
F al
Govern or</w>
enti eth</w>
g ay</w>
Pr ice</w>
dem anded</w>
al isation</w>
ail ed</w>
ste re
in he
pen s
capit alist</w>
ga thering</w>
Manu fac
mo dule</w>
stri ve</w>
u no
Assi stant</w>
C amp
roc ket</w>
autom ation</w>
th an
ther mal</w>
f ears</w>
Stal in</w>
Gu atem
house holds</w>
m ere</w>
ci a</w>
chocol ate</w>
har v
E cu
enc ryp
ed a</w>
G ri
sm ell</w>
process or</w>
chec ked</w>
Serge y</w>
adjust ment</w>
An na</w>
sc ared</w>
over seas</w>
197 0s</w>
suspen ded</w>
regul ate</w>
satis fy</w>
y n</w>
C el
cr ash</w>
pain t</w>
eth ics</w>
20 ,000</w>
l ingu
j ac
conven ed</w>
ti li
cy cl
Sh ang
con junction</w>
tru sted</w>
HC HR</w>
C he
lo ving</w>
mar ry</w>
t less</w>
arbitr ary</w>
cros sing</w>
Nat ural</w>
un doub
Commun ications</w>
photograph s</w>
Free dom</w>
end ants</w>
i i</w>
suffici ently</w>
predic ted</w>
distingu ished</w>
sup porters</w>
20 30</w>
re sume</w>
P ur
mass es</w>
ro yal</w>
Lux emb
Tali ban</w>
rap e</w>
tra its</w>
I g
O w
h tt
c ub
es ome</w>
b low
thedr al</w>
pro let
H om
pass age</w>
fil ter</w>
L ast</w>
198 1</w>
O HCHR</w>
effici ently</w>
sp ite</w>
cy ber</w>
tr uck</w>
LL C</w>
Le e</w>
tempor arily</w>
g rain</w>
pro tot
leg end</w>
met er</w>
ack ers</w>
configur ation</w>
for cing</w>
anc er</w>
ign ore</w>
C IA</w>
re fri
pos es</w>
hol es</w>
cardi ovascular</w>
Nor we
197 5</w>
tion ers</w>
dev ast
f lower</w>
ann y</w>
al og</w>
ref usal</w>
ch ap
Kaz akh</w>
Ad vis
S R
me al</w>
speak er</w>
com promise</w>
refri ger
earthqu ake</w>
cris es</w>
speak s</w>
gg ing</w>
cri tici
R est
Human itarian</w>
i P
C la
P ope</w>
b ones</w>
Wat ch</w>
po e
di stricts</w>
Un der</w>
den y</w>
re ferences</w>
p ack</w>
speci ally</w>
con sume</w>
r ant</w>
ic ious</w>
suppl ement</w>
Youn g</w>
fi ghter</w>
Dom in
Mi ke</w>
f ossi
threat ening</w>
re vision</w>
psych iat
bid den</w>
Ch apter</w>
bre ach</w>
p et
or ds</w>
Scot land</w>
du pl
g ers</w>
a rest</w>
robo t</w>
Doc tor</w>
Col um
f a</w>
i tions</w>
P sych
Indi genous</w>
ov ed</w>
mat ory</w>
reg ret</w>
id es</w>
C asp
W ell</w>
defic it</w>
pan els</w>
s car
consi st</w>
wid th</w>
r ank</w>
p ast
sk illed</w>
min erals</w>
got ta</w>
trad em
2 3
minist ries</w>
uni vers
modi ties</w>
W here</w>
S D
Tour ism</w>
Gre en
E ff
WE B</w>
Je an</w>
see ds</w>
Sum mer</w>
in equality</w>
cu stom</w>
h ire</w>
ran ks</w>
war ran
Inte gr
ad mis
char ity</w>
P un
P ic
ain e</w>
Se e</w>
pe as
resp ir
e ge</w>
ad vised</w>
pro hibition</w>
electr onics</w>
shad ow</w>
M IN
smo oth</w>
1 40</w>
gal axy</w>
conver ted</w>
adv ise</w>
r hyth
occ asi
embe red</w>
clu ster</w>
Cambo dia</w>
her o
r ation
h et
en coun
Sal v
reiter ated</w>
ent ures</w>
D ol
bu re
tax ation</w>
Shang hai</w>
Tw o</w>
vot ers</w>
Pr ague</w>
mon es</w>
Dani el</w>
A ri
s ers</w>
a iss
rem embered</w>
molec ular</w>
l l
a to</w>
attrac tions</w>
E F
IC T</w>
calcul ations</w>
Ye ah</w>
Rom a</w>
anal og
concentr ated</w>
surve ys</w>
Abk haz
An ton
v able</w>
A stan
trop ical</w>
Sof tware</w>
no tion</w>
adv enture</w>
UN ID
Flor ida</w>
N ext</w>
in tu
pro tocols</w>
re l</w>
vir al</w>
crimin als</w>
vulner ability</w>
quanti ties</w>
am matory</w>
dimen sional</w>
197 8</w>
fer tility</w>
ass ure</w>
ster one</w>
secu red</w>
s and</w>
re me
hop ing</w>
tal ented</w>
t an</w>
Tes la</w>
a o</w>
ens es</w>
K har
mathematic s</w>
b ic
sequ ence</w>
ann er</w>
gr atitude</w>
V eg
aiss ance</w>
develop er</w>
ame works</w>
C ru
new s
Loc al</w>
un acceptable</w>
V III</w>
clin ic</w>
H otels</w>
negoti ation</w>
renew ed</w>
form ats</w>
met res</w>
B each</w>
attr action</w>
Lou is</w>
infl ammatory</w>
ell ation</w>
coll ecting</w>
Inst agram</w>
med itation</w>
AT ION</w>
Astan a</w>
environ mentally</w>
S anta</w>
1. 3</w>
trem end
H O
ner ve</w>
substanti ally</w>
hat red</w>
19 60</w>
sil ent</w>
provin ces</w>
satell ites</w>
woo den</w>
ig no
A n</w>
worl ds</w>
Casp ian</w>
convic ted</w>
assess ing</w>
Arti cles</w>
v is</w>
Ugan da</w>
fin anced</w>
cu is
scen es</w>
cri pt</w>
appro ve</w>
oun ced</w>
hor mones</w>
atom ic</w>
Maced onia</w>
Ar chi
ast rop
off shore</w>
minim ize</w>
conver t</w>
e enth</w>
ol en</w>
she et</w>
H ave</w>
gir l
lo go</w>
ch lor
gu ese</w>
laun ching</w>
pe d
custo dy</w>
m aps</w>
pl ed
nec k</w>
d ges</w>
c eas
ow ns</w>
ow ed</w>
sil ence</w>
ti ps</w>
di esel</w>
uc le
Vi e
mix ture</w>
h ot
ide ology</w>
bre ath</w>
g as
inspir ation</w>
6 0
W ik
Refuge es</w>
associ ate</w>
diam eter</w>
evol ved</w>
so red</w>
eg o</w>
Pr inc
tend ency</w>
R U
divi sions</w>
de v</w>
w ounded</w>
val uation</w>
reme dy</w>
c ry</w>
S D</w>
mir ror</w>
impl ies</w>
cur ricul
j ump</w>
work place</w>
ear nings</w>
em powerment</w>
em ails</w>
repl ied</w>
und i</w>
sel ler</w>
D uma</w>
rela x
opho bia</w>
op tical</w>
arbitr ation</w>
Gen der</w>
so oner</w>
ex hib
vol ati
TRAN S</w>
judic iary</w>
Luxemb our
Pol y
inter actions</w>
ur s</w>
in struction</w>
helicop ter</w>
off ensive</w>
firm ly</w>
att or
emp ire</w>
gl uc
2 9
adi um</w>
po ker</w>
ti ble</w>
arrang ed</w>
la undering</w>
umin um</w>
rel ates</w>
S on</w>
Mach ine</w>
7 ,
under taking</w>
1 60</w>
197 4</w>
He av
arg uments</w>
d ys
over sight</w>
inev itable</w>
es ity</w>
Portu guese</w>
u a</w>
C erti
Buil ding</w>
re act</w>
mod ules</w>
CO P</w>
hybri d</w>
Mon ey</w>
rou tine</w>
Emir ates</w>
Em plo
undoub tedly</w>
Techn ologies</w>
speci fy</w>
coordin ating</w>
schem es</w>
saf ely</w>
198 3</w>
cas inos</w>
empha size</w>
haz ardous</w>
ear ning</w>
resum ed</w>
R ol
ing er</w>
pro secut
An tar
pol ar</w>
h ec
pu rely</w>
f ice</w>
bor ne</w>
occur ring</w>
B en</w>
veri fy</w>
os henko</w>
mortg age</w>
rac es</w>
st res
consolid ation</w>
P rem
discus sing</w>
ol ine</w>
mil l
Mongol ia</w>
ap est</w>
depri ved</w>
se ized</w>
R oc
A h</w>
del ete</w>
accompl ished</w>
fu els</w>
discrimin atory</w>
Al l
For ms</w>
ul ous</w>
comp ound</w>
superi or</w>
set tle</w>
Don etsk</w>
stand ardi
defici ency</w>
che str
S how</w>
st un
optim ization</w>
lab el</w>
Oper ation</w>
sensi tivity</w>
eli gible</w>
as sured</w>
govern ed</w>
for give</w>
deci sive</w>
cos me
E liz
Gu id
individu ally</w>
197 1</w>
Norwe gian</w>
un expected</w>
in s
UA E</w>
ch ro
p sycho
cin ema</w>
Kar ab
Com mon
dem anding</w>
Austri an</w>
gl asses</w>
E ver
c ited</w>
fr ameworks</w>
abstr act</w>
Con tin
ai red</w>
ec raft</w>
dis count</w>
hop efully</w>
br on
cu ts</w>
ti ed</w>
Luxembour g</w>
h ome
Ste ph
hi ding</w>
r ings</w>
ex ual</w>
1 4.
prov oc
engine er</w>
bus es</w>
fo ster</w>
Kr as
ex trac
bot tle</w>
le um</w>
e y
th res
Proper ty</w>
B ag
prev ented</w>
adap ted</w>
indic ation</w>
tou ched</w>
cap tain</w>
d um
rec ur
Minist erial</w>
it ch</w>
Pre par
b ye</w>
auth entic
N ame</w>
Fin nish</w>
abor tion</w>
194 1</w>
am in</w>
G old</w>
suppl ements</w>
cat astrop
weak ness</w>
st resses</w>
Pe oples</w>
K om
. ru</w>
rec ycl
C os
econom ically</w>
V in
exce eded</w>
T reas
f old</w>
O k
yst ems</w>
accoun ted</w>
respon ding</w>
as sign
gener ating</w>
di str
g aps</w>
U l
Terror ism</w>
M obile</w>
Bur undi</w>
spokes man</w>
ste ady</w>
t enth</w>
Mo z
trac ks</w>
rup ted</w>
S ho
No bel</w>
appe als</w>
NG O</w>
Common wealth</w>
. 3</w>
hor ri
to ys</w>
requ is
design ing</w>
pro jected</w>
r ice</w>
t ant</w>
conserv ative</w>
bi odiversity</w>
l on
ai res</w>
P os
O x
Jo e</w>
C B
week ly</w>
Nep al</w>
P ot
in cur
fol k</w>
hol m</w>
D av
to il
196 8</w>
ran ked</w>
exclu ded</w>
des ert</w>
lo g</w>
inc enti
ecu li
isol ation</w>
S eas
P P
M S
ta g</w>
Od essa</w>
inter ventions</w>
il ian</w>
wit n
doctr ine</w>
contrac tual</w>
li br
ic on</w>
question n
17 th</w>
up s</w>
constra ints</w>
open ly</w>
pro ph
pal ace</w>
air y</w>
dem ographic</w>
it at</w>
V e
T ype</w>
al ph
G et</w>
M ain</w>
distingu ish</w>
spons ors</w>
ag on
newsp apers</w>
Alban ia</w>
re j
wel coming</w>
fi a</w>
inste in</w>
moti vated</w>
sla very</w>
ver t</w>
ak er</w>
a us
st aff
ob esity</w>
Gal axy</w>
Europe ans</w>
acti c</w>
00 1</w>
con g
c up</w>
M P</w>
defin ing</w>
adv ances</w>
re d
tw entieth</w>
ou ts</w>
ni ghts</w>
er o</w>
ni e</w>
b low</w>
ak a</w>
j um
Wor d</w>
cool ing</w>
g ases</w>
ab eth</w>
Inter ior</w>
ir re
F ol
safe guards</w>
pre sum
Cl ass</w>
symb ol
Ecu ador</w>
nutri ents</w>
pan ic</w>
uni tion</w>
Len in</w>
Direc tors</w>
T ay
Leban ese</w>
bi ology</w>
Dru gs</w>
po p</w>
clari fy</w>
H D</w>
ous es</w>
R et
autonom y</w>
De ath</w>
197 2</w>
t ail</w>
in direct</w>
st ake</w>
Pr o</w>
z er</w>
il le</w>
197 6</w>
196 9</w>
1 3.
L av
un clear</w>
indic ating</w>
phot ography</w>
ro g
p eculi
br illi
negoti ating</w>
struc tive</w>
tr ains</w>
reaffir med</w>
Guatem ala</w>
prejud ice</w>
Ste ve</w>
conf used</w>
W i</w>
R A</w>
e fire</w>
trans form</w>
occa sions</w>
cu p
bloc ked</w>
Mon t
medi eval</w>
and ers</w>
8 0
cre atures</w>
expres sing</w>
pre dec
premi um</w>
a f</w>
erad ication</w>
Tuni sia</w>
- -
yi eld</w>
Te h
al istic</w>
A d</w>
M en</w>
Hab itat</w>
soci ally</w>
ogen ic</w>
ass ass
for bidden</w>
We ek</w>
dis hes</w>
det ain
per man
refl ection</w>
exp ects</w>
carri ers</w>
lau ghter</w>
ap h
influ ential</w>
Con stan
struc tured</w>
k ne
consolid ated</w>
hi a</w>
Ju li
in tim
trag ic</w>
it er</w>
or g</w>
y ard</w>
G O
Y O
s at</w>
F BI</w>
st olen</w>
sens ors</w>
consider ations</w>
contro versi
lo v
hor ses</w>
coo king</w>
t z</w>
high light</w>
y nam
assi sting</w>
Territ ories</w>
bon us</w>
neighbor ing</w>
com modities</w>
sus pension</w>
ti tles</w>
m l</w>
m asters</w>
eth eless</w>
pro vo
geopoli tical</w>
re structuring</w>
vo y</w>
y u
star tu
ass ment</w>
Por oshenko</w>
L ine</w>
16 th</w>
sec toral</w>
War saw</w>
M ess
f illing</w>
is i</w>
Hosp ital</w>
quot ed</w>
phys ic
2. 2</w>
C O</w>
ren dered</w>
R ail
non etheless</w>
it ness</w>
au to</w>
em ale</w>
cuis ine</w>
man n</w>
ne ys</w>
imag ination</w>
ov sky</w>
reve als</w>
p h</w>
ul a</w>
Jack son</w>
T el</w>
o dic
T B</w>
N ight</w>
dram atically</w>
poli tically</w>
am ong
p a</w>
gr ace</w>
p oo
a we
thri tis</w>
Ta x</w>
ir rit
del eted</w>
resi stant</w>
Her itage</w>
earli est</w>
n ose</w>
am ine</w>
Tow er</w>
among st</w>
des per
Peace keeping</w>
ble eding</w>
I M</w>
b are
bene fic
serv ants</w>
m on</w>
S B
Com b
conveni ence</w>
Serge i</w>
D eci
coll ections</w>
acquain ted</w>
analy zed</w>
dis closed</w>
ab b
st ops</w>
research er</w>
T own</w>
ch ester</w>
al e
s oph
fi x
adop ting</w>
Em peror</w>
U ru
i OS</w>
P D
H ear
le ep</w>
NO T</w>
tari ff</w>
ever age</w>
Karab akh</w>
un necessary</w>
Col on
oc eans</w>
T it
b y
re integration</w>
lim itation</w>
par at
un limited</w>
deli vering</w>
er ly</w>
L au
Intel ligence</w>
Win ter</w>
unil ateral</w>
b ond</w>
10 5</w>
doz en</w>
Ex cell
196 0s</w>
ti er</w>
en tions</w>
prolong ed</w>
ju ven
Y ears</w>
tremend ous</w>
lau gh</w>
p ounds</w>
et us</w>
tic ated</w>
under mine</w>
envis aged</w>
G B
inv al
san itation</w>
UNID O</w>
pain ted</w>
cro ps</w>
kill er</w>
M ost</w>
vis as</w>
ev ich</w>
mon astery</w>
clos est</w>
ne arest</w>
liber ation</w>
v end
for got</w>
res or
Con serv
nav al</w>
hi p</w>
Tor ture</w>
adv ancement</w>
2. 1</w>
b in</w>
y ro
ass y</w>
o therapy</w>
presti gious</w>
ecti ous</w>
persist ent</w>
dur able</w>
gl ory</w>
Vol un
stimul ate</w>
Ac count</w>
inter views</w>
desi res</w>
Bal k
ra ys</w>
cha ins</w>
soci alism</w>
crow d</w>
suppl ement
3 50</w>
in hab
qu it</w>
liter ary</w>
Teh ran</w>
ag an</w>
hy gi
interpre ted</w>
manife stations</w>
confid ential</w>
exc use</w>
ch at</w>
In dependence</w>
en ly</w>
char ging</w>
cal ci
Proc edure</w>
Ap p</w>
promot es</w>
ail er</w>
tax i</w>
telecommun ications</w>
re porters</w>
194 8</w>
M eth
atic s</w>
trav elling</w>
I van</w>
Andre w</w>
vil le</w>
197 7</w>
Abkhaz ia</w>
ver tical</w>
f ere</w>
P ort</w>
announ ce</w>
insul in</w>
M erc
min i</w>
194 9</w>
in tr
M en
justi fy</w>
net working</w>
ic it
organ ised</w>
it ability</w>
neighbour ing</w>
inter fere</w>
l or</w>
flu id</w>
te sto
or b
C lar
vi ties</w>
u gg
shap ed</w>
A t</w>
Radi o</w>
Lib yan</w>
r he
Cont act</w>
demon stration</w>
divi de</w>
on ate</w>
om m
cal ories</w>
O M</w>
foc al</w>
U T
sub programme</w>
Victor ia</w>
divi d
spon sored</w>
ecos ystems</w>
F ile</w>
loy alty</w>
attrac ting</w>
un anim
ho c</w>
incenti ves</w>
attribu ted</w>
accur ately</w>
Ap pe
uc tu
Organ isation</w>
ex tradition</w>
Moun t</w>
il a</w>
d ens</w>
cru el</w>
la b</w>
ad just</w>
testo sterone</w>
Lin ux</w>
ir t</w>
datab ases</w>
ax ies</w>
form ations</w>
fac tories</w>
contin ental</w>
Alex and
barri er</w>
Mexic an</w>
Uru gu
Siber ia</w>
rec alls</w>
sp ots</w>
favour able</w>
docum ented</w>
Tan z
Hung arian</w>
an ov</w>
il ation</w>
it ably</w>
cl ou
inqu iry</w>
uc k
measu rements</w>
f ounding</w>
eng aging</w>
dest inations</w>
at oms</w>
it ate</w>
ess ors</w>
The atre</w>
F .</w>
me als</w>
UNO DC</w>
em ble</w>
dis k</w>
boo k
invent ory</w>
saf er</w>
4 ,000</w>
pl ates</w>
ot echn
pro mo
educ ated</w>
Stock holm</w>
ed ural</w>
sub j
t emp
refl ecting</w>
post p
graph ics</w>
p um
ag ged</w>
f our
bel oved</w>
ext inc
F ur
oc a
adequ ately</w>
10 0
utiliz ation</w>
monopol y</w>
accoun table</w>
modi fication</w>
B attle</w>
f li
Re al</w>
S am</w>
Fil m</w>
oppon ents</w>
fl uctu
in ch</w>
ess ories</w>
e k
strong est</w>
al ised</w>
eg g</w>
x it</w>
ra v
del ayed</w>
rup t
hun gry</w>
o h</w>
P age</w>
diplom acy</w>
sacri fice</w>
Os se
H an
de but</w>
fore most</w>
fi ber</w>
ent ers</w>
hu h</w>
aw a</w>
exce eds</w>
defin itions</w>
An aly
defin es</w>
soph is
im per
ab st
ific ations</w>
ar range</w>
in dis
bl ack
enn ial</w>
int ent</w>
elim inating</w>
se iz
dark ness</w>
Ex hibition</w>
ter ing</w>
Com man
noti fy</w>
admini stered</w>
th west</w>
Ang ola</w>
under stands</w>
adolesc ents</w>
et res</w>
cigaret tes</w>
excep tions</w>
confron tation</w>
contain ers</w>
threat en</w>
gal axies</w>
ch ick
survi v
Coordin ator</w>
h amm
sh ed</w>
dist or
tri gger</w>
am i
col li
B ran
Wor d
Sel f</w>
Al i</w>
G o</w>
lay ers</w>
pro claimed</w>
m ad</w>
Langu age</w>
K ab
corpor ation</w>
ap ped</w>
K at
rel s</w>
B y
avo ided</w>
ans k</w>
C F
Stat ute</w>
pr icing</w>
infr ing
n ick
stere ot
ac com
15 th</w>
en counter</w>
ic ed</w>
ass ault</w>
Mikha il</w>
cor rid
aller gic</w>
10 1</w>
Pro v
archit ect</w>
read er</w>
8 ,
ti e</w>
am end</w>
ten nis</w>
C I</w>
scho ol
st uck</w>
small est</w>
ar tic
er b
cri tics</w>
ic ted</w>
no ver</w>
ap point</w>
gol den</w>
J ac
pursu ed</w>
leg acy</w>
S E</w>
cru de</w>
mobil ization</w>
tic a</w>
Pent agon</w>
per su
restric tion</w>
ha r</w>
n y
D ev
t one</w>
n ucle
ris on</w>
anticip ated</w>
we althy</w>
ancest ors</w>
sp ouse</w>
regim es</w>
viol ate</w>
s ement</w>
br ut
ceas efire</w>
avo iding</w>
S av
succe eded</w>
C L
S he</w>
So chi</w>
fl u</w>
ang el
Dec ree</w>
ch amber</w>
D .
Un der
Ven ice</w>
intoler ance</w>
respir atory</w>
ir o</w>
sco red</w>
b ars</w>
girl friend</w>
end ary</w>
impro ves</w>
pro secutor</w>
Aut om
An alysis</w>
crypto currencies</w>
in duc
perman ently</w>
Z im
al uminum</w>
histor ically</w>
19 50</w>
re ar</w>
G ener
E rit
M L</w>
sal aries</w>
main tains</w>
op a
h ep
K a
present ations</w>
condi tional</w>
j ury</w>
mag n
diagnos tic</w>
fro zen</w>
pe ts</w>
je wel
Ab u</w>
he v</w>
es tive</w>
re moving</w>
Pan ama</w>
de adly</w>
trans mitting</w>
P V
H ou
un ite</w>
D anish</w>
correc tions</w>
se ed</w>
oca ust</w>
CO 2</w>
surg ical</w>
Vi ew</w>
ne sty</w>
am ate
C ook
bur ned</w>
K .</w>
Ass ess
radio active</w>
up grade</w>
co ck
V ill
calci um</w>
a .m.</w>
struc k</w>
car riage</w>
ob il
Ma c</w>
R ica</w>
19 17</w>
mus icians</w>
J ones</w>
c .</w>
in adequate</w>
inf ectious</w>
ri x</w>
perpetr ators</w>
emphasi zes</w>
al ti
tar geting</w>
cou ples</w>
Bre xit</w>
dis close</w>
Inv estig
10 th</w>
inhe rent</w>
condem ned</w>
or i</w>
con science</w>
thor ou
di min
contrac tors</w>
negoti ate</w>
b ad
peri odic
Ac ti
be ars</w>
val ence</w>
valu ed</w>
Eliz abeth</w>
philosoph ical</w>
Plan ning</w>
wal ked</w>
exclu de</w>
mater i
Man ager</w>
controversi al</w>
protec ts</w>
algorith m</w>
194 4</w>
fir stly</w>
agre es</w>
seg ments</w>
com prises</w>
pas sive</w>
occur rence</w>
icit ly</w>
brilli ant</w>
Al mat
dep uties</w>
el eg
a res</w>
monit ored</w>
defin ite</w>
stipul ated</w>
C ir
V AT</w>
ar thritis</w>
Med ve
L aw
subsi dies</w>
di oxide</w>
mer cury</w>
my th</w>
D ow
ur a</w>
Stand ards</w>
organiz ers</w>
gr and</w>
Th ree</w>
ju ice</w>
adju sted</w>
re marks</w>
accompl ish</w>
expl oring</w>
f esti
as th
S P</w>
Coun ty</w>
who ever</w>
uti lity</w>
bo ats</w>
Is su
in visible</w>
val idity</w>
f ed</w>
i si
epid emic</w>
ar ises</w>
explosi ve</w>
mater nal</w>
D or
k el</w>
j ail</w>
ti ce</w>
in directly</w>
algorith ms</w>
mom ent
igno red</w>
D ays</w>
m ice</w>
mar king</w>
Bri dge</w>
preci sion</w>
col umn</w>
Proc ess</w>
si sters</w>
conv ince</w>
os ity</w>
inst ant</w>
accom mo
b ags</w>
dis charge</w>
aw ak
C ard</w>
convic tion</w>
Budd ha</w>
thor ough</w>
diam ond</w>
por ter</w>
P ho
E M
gl y
fi res</w>
bacter ial</w>
Pr in
ali ens</w>
concentr ate</w>
m ates</w>
han a</w>
horiz on
specific ations</w>
Almat y</w>
m o</w>
Medve dev</w>
scri pt</w>
ro l</w>
Y u
S mar
dis appointed</w>
Om bud
cha os</w>
en comp
C P</w>
assi sted</w>
B BC</w>
may or</w>
colon ial</w>
10 2</w>
under stand
G ro
T ER
chec ks</w>
19 39</w>
Salv ador</w>
the ft</w>
legi tim
re ign</w>
prefer ably</w>
gen cies</w>
ne gl
transi tional</w>
po et</w>
thres hold</w>
fin anci
lo vely</w>
dom inated</w>
u um</w>
anonym ous</w>
proc edural</w>
el ing</w>
ter ly</w>
st ating</w>
M ak
Soci alist</w>
presid ency</w>
reiter ates</w>
b ands</w>
p ap
Ex p
soldi er</w>
per secution</w>
bure auc
V P
rele ases</w>
comm em
rupt cy</w>
P E
196 1</w>
main stream</w>
quot e</w>
perform ances</w>
investig ating</w>
n i</w>
ong ue</w>
y cle</w>
gluc ose</w>
15 .
p ays</w>
out door</w>
s i</w>
fre ight</w>
bal ances</w>
fr anch
pa thy</w>
ec tors</w>
0. 5</w>
Er do
ab an
comp act</w>
chec k
fer ti
de structive</w>
Urugu ay</w>
sc and
rou gh</w>
rac ing</w>
ph ases</w>
ge ographic</w>
formul ated</w>
sen al</w>
dr ama</w>
ri a</w>
in ability</w>
Cri mean</w>
sp ectives</w>
champ ion</w>
amm unition</w>
v or
P .</w>
anti oxid
str ang
tab let</w>
be tr
mak er</w>
Tem ple</w>
leg endary</w>
Moder n</w>
y ach
ac es</w>
S her
Guid elines</w>
un lawful</w>
accep ting</w>
Ed ward</w>
proce eds</w>
c ular</w>
def enders</w>
4. 5</w>
Bo ston</w>
calcul ate</w>
L T
G .</w>
kilom etres</w>
p yr
D S</w>
Ch ris</w>
pro stitution</w>
k top</w>
M A
degrad ation</w>
tack le</w>
He ads</w>
R og
mirac le</w>
un changed</w>
ir a</w>
qual ification</w>
et al</w>
re ject</w>
ast ing</w>
shel ter</w>
long est</w>
in stitute</w>
view ers</w>
Re sid
r ated</w>
L ong</w>
E SC
advoc acy</w>
mur dered</w>
poe try</w>
&apos; i</w>
A y
De ad</w>
gent l
Custom er</w>
enti ality</w>
LE D</w>
influ ences</w>
deleg ates</w>
end ant</w>
Bulg arian</w>
ap ologi
1. 4</w>
vill a</w>
Tanz ania</w>
O N</w>
x y</w>
del ays</w>
E X
re viewing</w>
fem in
R a
E th
prece ding</w>
D V
ph eric</w>
v aries</w>
sh ame</w>
19 18</w>
pic ked</w>
g ro
E .
govern or</w>
D I</w>
ad ers</w>
Assess ment</w>
brief ing</w>
auc tion</w>
9 ,
consum ing</w>
R y
syn thetic</w>
Scot t</w>
plas ma</w>
G M
believ ers</w>
gran ting</w>
ex ported</w>
tax pay
im er</w>
doub ts</w>
Ho c</w>
ran dom</w>
fl ag
bi om
boo king</w>
m ad
B y</w>
vi able</w>
libr aries</w>
commer ci
Ci tiz
cy lin
G am
brea the</w>
o k</w>
Th ings</w>
pack ages</w>
Har v
tr ucks</w>
or ic</w>
lo s</w>
phys ician</w>
inst ability</w>
d ent</w>
Nic hol
ne ur</w>
N a
sem i</w>
High er</w>
Mos es</w>
cir cles</w>
inten tions</w>
assum ption</w>
all evi
Represent atives</w>
dam ages</w>
Buddh ist</w>
To day</w>
pun ished</w>
BM W</w>
lim iting</w>
N ai
K in
up set</w>
S ign
pursu ing</w>
Sou theast</w>
org asm</w>
dead line</w>
ari um</w>
Ig or</w>
con spir
re patri
atti tudes</w>
sur ge
deteri or
Ch an
ten der</w>
j et</w>
pro pri
testi mony</w>
3 5
an cies</w>
st ation
lo vers</w>
ste ad
d d
pursu it</w>
pen di
Treat ment</w>
bo ards</w>
lik elihood</w>
the at
honest ly</w>
sat ur
Hol ocaust</w>
x en
sch e</w>
por trait</w>
cat aly
entrepreneur ship</w>
pri est</w>
cryp to</w>
co operative</w>
Con ditions</w>
encoun tered</w>
consult ative</w>
t ongue</w>
t .</w>
pi one
L e</w>
mod est</w>
rest ra
ci ve</w>
Dar fur</w>
commun ist</w>
we i
1 25</w>
u ter
adjust ments</w>
Ale x</w>
mil iti
Mon tre
compris ing</w>
dest iny</w>
air lines</w>
modi fications</w>
investig ators</w>
em atic</w>
f ever</w>
sp reading</w>
request ing</w>
ret ro
syn thesis</w>
W ars</w>
M M
up dating</w>
t we
a z</w>
h an</w>
eng er</w>
capit a</w>
UN AM
Cub an</w>
Y ur
ret ained</w>
docum entary</w>
196 5</w>
forec asts</w>
hom eland</w>
d airy</w>
T am
Mon etary</w>
d ancing</w>
fa thers</w>
S or
system ic</w>
high lights</w>
S port</w>
w ash</w>
5 G</w>
re ts</w>
mat h</w>
T un
13 th</w>
an ism</w>
3 0s</w>
Cent ury</w>
g allery</w>
NP T</w>
ten ing</w>
h es
ign or
la dies</w>
M ass
T A
me tr
re vol
un to</w>
fe deration</w>
ch ess</w>
R .</w>
Par liam
feat ured</w>
tri ps</w>
char t</w>
kid ney</w>
pendi x</w>
tur nover</w>
ach ment</w>
rol ling</w>
S in
coun sel</w>
de fault</w>
exce eding</w>
emb assy</w>
imp ul
ed es</w>
mer ch
nor m</w>
autom otive</w>
spac ecraft</w>
h oods</w>
op tional</w>
utili zed</w>
li abilities</w>
seas ons</w>
Z one</w>
D al
macro economic</w>
Ever y
pe p
ambass ador</w>
uni fication</w>
in stantly</w>
confid entiality</w>
vacc ines</w>
fossi l</w>
m ented</w>
be have</w>
grad ual</w>
ther hood</w>
pen alties</w>
er to</w>
Gu ide</w>
ic ked</w>
men str
brow n</w>
ap parat
r ick</w>
c ali
g est
hamm ad</w>
bureauc r
dev i
not able</w>
pati ence</w>
voc ational</w>
co inci
correc tion</w>
f ati
acti vated</w>
cre am</w>
R ad
fulf illing</w>
c au
pen insula</w>
an ic</w>
Sol ar</w>
comb ining</w>
virtu e</w>
Seas on</w>
6 ,000</w>
Bud get</w>
dest abil
hos tile</w>
bet a</w>
Braz ilian</w>
after wards</w>
promp tly</w>
L ic
ig a</w>
Avi ation</w>
19 40</w>
S us
schol ars</w>
Pen insula</w>
st atic</w>
Ky oto</w>
consist ency</w>
har assment</w>
sc ar</w>
Wik i
i k</w>
J im</w>
s .
prosecut ors</w>
modi fy</w>
mil d</w>
C air
air space</w>
episo des</w>
th ic</w>
ad diction</w>
comm ented</w>
er cul
p ump</w>
Chem ical</w>
thorou ghly</w>
def ects</w>
ti gh
Mark eting</w>
am bers</w>
pra ise</w>
lin ear</w>
US B</w>
de pres
Mar ine</w>
row ing</w>
show er</w>
op ing</w>
F .
p ushed</w>
albu ms</w>
Tim or</w>
metabol ism</w>
Regi ster</w>
Boli via</w>
B oo
er up
pe er</w>
Mi gration</w>
ligh t
dra ws</w>
re now
ag a</w>
aw n</w>
consult ants</w>
Educ ational</w>
Leg isl
th rown</w>
remin ded</w>
fac ulty</w>
an ium</w>
F oot
t yr
sy l
s enti
tili ties</w>
are r</w>
ro v
ref rain</w>
L et</w>
Tra vel</w>
Kras no
attemp ting</w>
ti les</w>
convers ations</w>
l an
sol o</w>
whe at</w>
20 21</w>
t ling</w>
imp unity</w>
cor d</w>
Democr ats</w>
aban don</w>
bul k</w>
Princ ess</w>
b and
fif teen</w>
sophis ticated</w>
awe i</w>
In stitu
tac tics</w>
ide ological</w>
Champ ionship</w>
tr ace</w>
T IR</w>
B ou
sinc ere</w>
man dated</w>
sens or</w>
u plo
alcohol ic</w>
Fr ont</w>
Arch it
overwhel ming</w>
Cy pri
detain ees</w>
Mar x
M eas
P ub
Mil an</w>
Cli ent</w>
S nap
R on
ster dam</w>
fortun ate</w>
ti ght</w>
n a
resi li
N G</w>
7 0
G as</w>
che ese</w>
is k</w>
lun g</w>
UN IF
Franc is</w>
minist erial</w>
Hu awei</w>
practi tioners</w>
out look</w>
preser ving</w>
mo s</w>
li able</w>
rec ession</w>
acceler ated</w>
chec king</w>
photograp her</w>
B run
cl er
oun ce</w>
fai thful</w>
deb ts</w>
atten ding</w>
Rec ords</w>
sla ve</w>
ge ography</w>
trans national</w>
b ury</w>
sh ots</w>
en zy
2. 3</w>
recipi ent</w>
at om</w>
j eal
investig ated</w>
defe ated</w>
Am sterdam</w>
sh ell</w>
cub ic</w>
IO NS</w>
Mul ti
resol ving</w>
v enti
compar ative</w>
tum ors</w>
shor ter</w>
astr onau
z o</w>
po t</w>
im bur
stan ts</w>
mag ical</w>
em an
sing ing</w>
tim ing</w>
es cap
UA H</w>
196 6</w>
P s</w>
regul ating</w>
vis itor</w>
dang ers</w>
circul ated</w>
f arms</w>
s al</w>
w ashing</w>
rem un
astronom ers</w>
satis factory</w>
Ph ili
bank ruptcy</w>
M iss</w>
eg al</w>
ar agu
res sion</w>
rat ings</w>
confir ms</w>
short age</w>
pris ons</w>
D a
ec ture</w>
ac o</w>
G allery</w>
Lev el</w>
Bo b</w>
for th
Vide o</w>
concer ts</w>
author ization</w>
Pl us</w>
dri ves</w>
Im peri
l i</w>
at oes</w>
champ ionship</w>
Vi k
L et
under go</w>
re placing</w>
deteri oration</w>
Stu dio</w>
congrat ulations</w>
Nic aragu
attor ney</w>
present ing</w>
Word Press</w>
A V
p assi
Y ak
multi pl
demonstr ates</w>
lo gy</w>
cell ular</w>
N ot
jewel ry</w>
In surance</w>
g rid</w>
Af ter</w>
juris dic
constitu ted</w>
P om
hi red</w>
h at</w>
dr unk</w>
observ ance</w>
prev ents</w>
aw esome</w>
schol ar
v et
hur ry</w>
Manufac tu
Per sian</w>
assur ance</w>
found ers</w>
form erly</w>
Par ti
ercul osis</w>
he imer</w>
Gu ard</w>
Integr ated</w>
B O
occasi onally</w>
dict at
th ur</w>
conc eption</w>
In novation</w>
p acking</w>
fat ty</w>
ik a</w>
Bl ack
inv o
b ills</w>
E instein</w>
ak i</w>
fi able</w>
M etro
196 3</w>
un pleasant</w>
Oc cup
main streaming</w>
dis appearance</w>
nin et
sou ls</w>
R F</w>
vol tage</w>
vari ed</w>
E V
un t</w>
sal vation</w>
fe a
ship ment</w>
Si x
vari eties</w>
po l</w>
appro aching</w>
out break</w>
scenari os</w>
K ol
inter ven
ast ero
issu ance</w>
ho sts</w>
ta res</w>
techn ically</w>
ac t
pr ud
kid nap
re imbur
ph os
control ler</w>
reaffir ms</w>
IO S</w>
elim inated</w>
Gar den</w>
ah u</w>
war fare</w>
mo des</w>
g all
sh emale</w>
K el
in corporate</w>
pow der</w>
st airs</w>
optim ize</w>
embar go</w>
vac uum</w>
sk a</w>
real ities</w>
sy ner
conf isc
gh ters</w>
diam onds</w>
Sub committee</w>
Com prehensive</w>
renow ned</w>
s q
p av
B ac
N ev
D an
memor andum</w>
E quality</w>
10 4</w>
bourgeo is</w>
ti fication</w>
C le
ov e
helicop ters</w>
fl ed</w>
cro p</w>
I van
Montre al</w>
12 th</w>
fac to</w>
re strict</w>
F ire</w>
licens ing</w>
apparat us</w>
P residential</w>
lin k
R S</w>
1. 6</w>
omet ric</w>
az z</w>
un de
enti a</w>
en forced</w>
ce ased</w>
196 4</w>
pol itan</w>
mag nit
M it
IC S</w>
grap h</w>
Tru th</w>
3. 2</w>
O ver
usti n</w>
C S
Rec omm
dis plays</w>
3 3
H ill</w>
S ettl
H us
spe eds</w>
10 9</w>
sco res</w>
licens ed</w>
e b
for tress</w>
escal ation</w>
Mal i</w>
P ass
iP ad</w>
insec ts</w>
mete or
16 .
quanti tative</w>
per spectives</w>
nom inated</w>
Fr an
hab it</w>
B ut
uc c
th ank
ten ds</w>
exclu ding</w>
qual itative</w>
ack er</w>
polic y
asth ma</w>
farm ing</w>
Inter governmental</w>
S ession</w>
Equ ip
rob i</w>
l am
T s
gh ty</w>
Ch el
cru ise</w>
compl eting</w>
it ement</w>
A U</w>
exclu sion</w>
Nai robi</w>
Stud y</w>
pos ing</w>
claim ing</w>
ne ed
rol led</w>
recogn ise</w>
2 2
compati bility</w>
ori um</w>
rich est</w>
S emi
Cair o</w>
tu be</w>
canc el</w>
Est onian</w>
14 th</w>
sev erely</w>
J .</w>
ti tled</w>
success or</w>
fasc inating</w>
Prepar atory</w>
In dex</w>
sor ts</w>
compl ement</w>
t ancy</w>
appe aring</w>
orig ins</w>
v ag
enjo ying</w>
fati gue</w>
&apos; Ivoire</w>
AC .
sun light</w>
chestr a</w>
resi st</w>
R ub
Fin ancing</w>
mani f
inj ection</w>
Prov ince</w>
Fore x</w>
warran ty</w>
Ar thur</w>
sla ves</w>
pro xim
A wards</w>
m ate</w>
s ins</w>
k ins</w>
N ur
econom ists</w>
vari able</w>
fol ks</w>
initi ate</w>
ser ial</w>
moment um</w>
exac erb
X i
M ON
wal let</w>
Z am
Treas ury</w>
man us
C lin
ran e</w>
cas u
ex cur
195 8</w>
Po int</w>
witn essed</w>
bu b
Steph en</w>
Spr ing</w>
Bor is</w>
L A</w>
Fac ulty</w>
t ail
L abor
bi ke</w>
il legally</w>
k iss</w>
distinc tive</w>
inst inc
Con ventions</w>
fla v
fa x</w>
perform s</w>
vari ations</w>
h all
i x</w>
bi e</w>
D ad</w>
gen ital</w>
essi bility</w>
flo ors</w>
St reng
li ps</w>
ur b
cul t</w>
H im
la v</w>
Con struction</w>
mer cy</w>
T ashk
Emer gency</w>
exp ecting</w>
pri ori
stri king</w>
vis u
ish ments</w>
for tune</w>
d ged</w>
Acc ess</w>
gradu ated</w>
deser ves</w>
de pl
percei ve</w>
al arm</w>
d it</w>
H ow
travel ers</w>
Co ast</w>
guit ar</w>
dis placement</w>
B un
l ending</w>
kni fe</w>
des ktop</w>
accum ulated</w>
ar ray</w>
cor ro
A er
evalu ated</w>
G PS</w>
11 th</w>
shoul der</w>
ferti liz
17 .
sm ugg
Harv ard</w>
brief ly</w>
hec tares</w>
ph y</w>
comb ines</w>
licens es</w>
The ir</w>
k no
strugg ling</w>
th ick</w>
V ar
categ or
believ ing</w>
Tashk ent</w>
o x</w>
extr act</w>
Ath ens</w>
milit ants</w>
Zim bab
evac u
Recomm end
acc us
ful fil
arm a</w>
circu it</w>
G s</w>
18 .
C ris
mod alities</w>
EC O
ju ana</w>
liter acy</w>
P la
htt p</w>
physi ological</w>
arm ing</w>
l an</w>
ul sion</w>
Wor k
v ine</w>
Direc torate</w>
pre ference</w>
L es
loc k
196 2</w>
il st</w>
cen sus</w>
Man chester</w>
J ust</w>
pil ots</w>
S earch</w>
ak ov</w>
mark et
W ol
J on
19 20</w>
evol ving</w>
hypo thesis</w>
U p</w>
tan gible</w>
sur plus</w>
ul ative</w>
resid ency</w>
ur anium</w>
entrepre neur</w>
integr ating</w>
issu ing</w>
urg ently</w>
C ar</w>
diplom ats</w>
comp eting</w>
Lit tle</w>
cot ton</w>
di os</w>
confir ming</w>
ol ig
l akes</w>
fing ers</w>
li fting</w>
194 2</w>
jo ke</w>
promp t</w>
utili ze</w>
An im
G hana</w>
con fin
sent ences</w>
neighbor hood</w>
com prehen
Pl ay</w>
ab uses</w>
Ar bitr
p ices</w>
con fusion</w>
ur ine</w>
expe dition</w>
Al bert</w>
as sion</w>
wh ilst</w>
or ange</w>
ne um
horizon tal</w>
Cast le</w>
questionn aire</w>
A SE
magn ific
chi p</w>
spec tac
res emb
dos age</w>
Viol ence</w>
distribu te</w>
fun eral</w>
b inary</w>
B rown</w>
sugg estion</w>
al together</w>
protot ype</w>
asi a</w>
aus pices</w>
br a</w>
Ser bian</w>
pul led</w>
cou p</w>
consult ant</w>
In cre
discipl ines</w>
N ote</w>
we ird</w>
ar ose</w>
wor n</w>
Sen egal</w>
17 0</w>
reg ret
box es</w>
ci ent</w>
bl ast</w>
Air lines</w>
un fair</w>
posi tively</w>
fail ures</w>
Comm on</w>
IF A</w>
aren a</w>
Net any
amate ur</w>
than ked</w>
L ady</w>
T bil
correspon d</w>
B ru
Produc tion</w>
staff ing</w>
reti red</w>
un employed</w>
M and
dau ghters</w>
there in</w>
Ex press</w>
J i
spon tane
conc e
r ative</w>
moti v
Produc t</w>
rev an</w>
labor atories</w>
Tha i</w>
civil izations</w>
Ob server</w>
Ali yev</w>
e tic</w>
magnit ude</w>
S w
ri an</w>
ec t
an try</w>
surpris ingly</w>
b adly</w>
ang el</w>
Priv ate</w>
o a</w>
bre ed</w>
sever ity</w>
em et
inev itably</w>
ad dy</w>
T able</w>
obstac le</w>
el eph
194 7</w>
Ex pl
T est</w>
Ann ual</w>
Mechan ism</w>
d ded</w>
safe guard</w>
n es
as leep</w>
analy se</w>
ho b
T P</w>
B h
cros sed</w>
travel ed</w>
s word</w>
indis pens
accommo date</w>
had n</w>
o e</w>
s our
Erit rea</w>
k ina</w>
hos tilities</w>
dir ty</w>
harmon ization</w>
Sy m
Pro motion</w>
Ma h
insi ght</w>
expl icitly</w>
R educ
acc essories</w>
G M</w>
accred itation</w>
In c</w>
te l</w>
ad vers
Domin ican</w>
Fac tory</w>
10 6</w>
Donb ass</w>
Willi ams</w>
Tbil isi</w>
condi tioning</w>
pat ents</w>
194 6</w>
analys es</w>
L am
B ai
G S</w>
L .</w>
pro state</w>
Veg as</w>
construc t</w>
t ours</w>
3. 1</w>
gen ius</w>
festi vals</w>
To y
1 12</w>
re production</w>
fl ash</w>
veget able</w>
deliber ations</w>
Fo rest</w>
R ot
Ombud sman</w>
H D
descri bing</w>
bo w</w>
T est
hom os
gr ound
m ouse</w>
H S</w>
d ental</w>
ap or
00 0
inher ited</w>
ni k</w>
Rest aur
G ran
St one</w>
p m</w>
min d
3 60</w>
resp ects</w>
Comm it
fri gh
politici an</w>
ar y
row s</w>
esc ope</w>
tic ul
pra yers</w>
bloc king</w>
in comes</w>
co er
Cap tain</w>
stop ping</w>
Ro st
Bol sh
inf ant</w>
bare ly</w>
T op</w>
neighb or</w>
lands cap
T ob
op es</w>
Sto ck</w>
Ma x
gra vit
Wal es</w>
A str
serv icing</w>
prolet ariat</w>
3 4
20 25</w>
A A</w>
au g
ber y</w>
ain ts</w>
emplo y</w>
am ic</w>
C ra
at ol
chair s</w>
Bag h
mic ro</w>
indispens able</w>
Ob serv
mon d</w>
ag eous</w>
m entation</w>
in sky</w>
w ins</w>
ri dic
em ale
partic le</w>
establish es</w>
Ot tom
it orial</w>
Dru g</w>
on y
St ore</w>
tar ily</w>
archae ological</w>
ang els</w>
9 0
adv ancing</w>
T ot
Nap ole
medic inal</w>
model ing</w>
credi ble</w>
enh agen</w>
stre am
Jama ica</w>
pharm ac
c ils</w>
ch at
lec tures</w>
Imperi al</w>
propor tion
Com pu
install ations</w>
strat ors</w>
re fu
M id
Ju an</w>
Cap e</w>
easi est</w>
Nag or
med al</w>
hygi ene</w>
clou ds</w>
des k</w>
ar do</w>
here in</w>
dou bled</w>
Ye revan</w>
qual ifications</w>
no where</w>
H P</w>
accum ulation</w>
cop per</w>
Rac ial</w>
cohe rence</w>
Arab s</w>
o z
acc essibility</w>
mar gin
system atically</w>
H app
rej ection</w>
batt les</w>
ul tr
break through</w>
with standing</w>
there after</w>
Su b</w>
Netany ahu</w>
10 8</w>
2. 4</w>
tro op</w>
b ow
swe ar</w>
P ok
Democr acy</w>
Wor kers</w>
Lab or</w>
trans late</w>
remun eration</w>
en sured</w>
F O
hi bit
Nicaragu a</w>
a ison</w>
s log
analy tics</w>
Vis a</w>
los es</w>
A tom
th yro
pre requis
seas onal</w>
whe els</w>
per taining</w>
norm ative</w>
archi ve</w>
b ath</w>
al tar</w>
har sh</w>
sp o
d rought</w>
d ay
D ist
ris es</w>
bri dges</w>
ar b
H ague</w>
lo v</w>
ion ships</w>
arti ll
Bar ack</w>
p ers</w>
Rec on
arri ving</w>
volunte er</w>
bel t</w>
Tay lor</w>
aes thetic</w>
ket ball</w>
otechn ology</w>
Al z
gi e</w>
Char lie</w>
T ony</w>
rob ust</w>
c ook</w>
c ave</w>
cred its</w>
ir respective</w>
lo yal</w>
analy st</w>
Lu k
f ats</w>
m ask</w>
u re
e ut
disco veries</w>
Part ners</w>
G E
pe ac
emet ery</w>
D un
K as
rang es</w>
correspon ds</w>
Cop enhagen</w>
el ect</w>
clear ance</w>
ed it</w>
concentr ations</w>
Osse tia</w>
OR D</w>
Qu e
pre mature</w>
discre tion</w>
as ka</w>
v .</w>
cl arity</w>
si c</w>
no ble</w>
Y an
Comp an
H ay
emer ge</w>
ce iling</w>
H .</w>
ot ing</w>
S ony</w>
au tism</w>
contin ents</w>
ca ffe
F inal</w>
Bo eing</w>
Develop ing</w>
1 15</w>
An k
n aked</w>
al ert</w>
an al</w>
19 .
accred ited</w>
Nichol as</w>
cur ious</w>
vil i</w>
d ul
privileg es</w>
declar ations</w>
susp ects</w>
sen ds</w>
Sy n
ad dic
Pi er
compl ementary</w>
petro leum</w>
it ance</w>
port able</w>
Zimbab we</w>
favour ite</w>
Z el
se em
aspir ations</w>
vo ices</w>
eg a</w>
lion aire</w>
scri p
p es</w>
am en
wan ting</w>
scre ening</w>
rad ar</w>
assum ptions</w>
Vir gin</w>
justi fication</w>
coun ted</w>
C T</w>
sel ecting</w>
Len ingrad</w>
fac ilitation</w>
histor ians</w>
clari fication</w>
G os
ben ch
al ter</w>
f itness</w>
c us</w>
c ens
anc ell
intermedi ate</w>
Kur dish</w>
vacc ination</w>
oper a</w>
hu b</w>
where by</w>
ali ke</w>
op ol</w>
bloo dy</w>
exten ding</w>
repl ies</w>
artill ery</w>
. m</w>
teen agers</w>
ou l</w>
Equip ment</w>
mor tal</w>
i fied</w>
VP N</w>
search es</w>
CE R
Commun ication</w>
pro hibit</w>
destro ying</w>
custom ary</w>
complex es</w>
poc ket</w>
ti de</w>
p ushing</w>
analy zing</w>
t ance</w>
correspon dence</w>
neighb ours</w>
tem ples</w>
surviv ors</w>
l em
F le
fish eries</w>
fem ales</w>
car bo
195 0s</w>
aim ing</w>
Aut onom
0 1.
secu tive</w>
at ri
195 6</w>
on set</w>
ati al</w>
canc ers</w>
gh ted</w>
En d</w>
contrac ting</w>
R ed
Mat the
acti vation</w>
O pen
fundam entally</w>
o ste
Erdo gan</w>
Ca thedral</w>
en za</w>
dro ps</w>
in cl
p in
de priv
rev el
B ar</w>
V asi
Parti cip
toil et</w>
bloo d
am ino</w>
tr y
sec t</w>
l amp</w>
bar rels</w>
ant ine</w>
pl ing</w>
An cient</w>
mul tin
sub stitute</w>
ne ft</w>
ste al</w>
pen sions</w>
entr usted</w>
Hear t</w>
h ill</w>
in stitutes</w>
te ars</w>
gg ers</w>
ware house</w>
sacri fic
con secutive</w>
P il
mor ality</w>
UN D
un authorized</w>
lap top</w>
WP. 29</w>
D ri
min ors</w>
p y</w>
L E</w>
ambi gu
conting ent</w>
Kaz an</w>
not e
here in
photograp h</w>
neur ons</w>
an es
194 3</w>
fic tion</w>
Lithu anian</w>
B ay
credi bility</w>
method ological</w>
prof iles</w>
M ake</w>
trans ported</w>
whol es
peri ph
af o
comp ilation</w>
er ts</w>
absor bed</w>
cle ans
ti te</w>
reason ably</w>
F S
ex am</w>
Mi ami</w>
J as
wi ves</w>
ko k</w>
H ind
won dered</w>
con ve
tri bes</w>
infin ite</w>
20 .
Stat ement</w>
Dow n
simpli fied</w>
Cont ent</w>
3 0,000</w>
p neum
Mar x</w>
st adium</w>
k ho
cohe rent</w>
al lo
Stre am</w>
gas oline</w>
c ks</w>
ver n</w>
Foot ball</w>
reg ener
attrac ts</w>
subscri ption</w>
ra ises</w>
cros s
gg ed</w>
contrac tor</w>
tradem ark</w>
neg atively</w>
monit ors</w>
Inte l</w>
P S
pron ounced</w>
Bah rain</w>
extrem ism</w>
j an</w>
Cor ruption</w>
T og
A qu
carbo hydr
Fri ends</w>
Am end
work force</w>
bro ker</w>
Maur iti
hel or</w>
Alz heimer</w>
Yugosla v</w>
forth coming</w>
Excell ency</w>
symb olic</w>
under lined</w>
Cre ator</w>
pois oning</w>
k is
al locate</w>
end less</w>
alti tude</w>
ap ping</w>
bl essed</w>
pro ves</w>
L as</w>
res cu
Mun ich</w>
om i</w>
S ak
Parliam entary</w>
secu ted</w>
herein after</w>
por no
t all</w>
su preme</w>
sust ain</w>
continu ity</w>
ev o</w>
os i
D O
mari juana</w>
sh ut
loc als</w>
syn chron
hep atitis</w>
h il
sub paragraph</w>
Ti bet
absor ption</w>
H ai
col ony</w>
sub ordin
F P</w>
Bang kok</w>
UN R
Mic hel
Mari time</w>
he al</w>
pl e
read ily</w>
a ver
&apos; the</w>
gi a</w>
ris t</w>
embar r
abol ition</w>
m i</w>
provin cial</w>
A partments</w>
formul ate</w>
J up
fer r
IB M</w>
reduc tions</w>
fl esh</w>
roc ks</w>
ro tation</w>
ch er
proxim ity</w>
Buddh ism</w>
ei l</w>
la stly</w>
th ickness</w>
grand father</w>
agre eing</w>
Cam ero
var ying</w>
medi ation</w>
s and
see kers</w>
L and
y le</w>
di etary</w>
mean time</w>
ev olutionary</w>
C are</w>
der gar
Du ke</w>
B is
Merc edes</w>
ill ary</w>
autom obile</w>
R ou
sper m</w>
magnific ent</w>
p ink</w>
boy friend</w>
intensi fy</w>
prison er</w>
inspec tions</w>
K now
j ack
rep airs</w>
subj ective</w>
jurisdic tions</w>
s wee
al y</w>
I d
3 7
on t
4 50</w>
ab is</w>
ther ine</w>
bom bs</w>
diversi fication</w>
K O
lingu istic</w>
incur red</w>
c and
t ops</w>
l amps</w>
den ial</w>
um ental</w>
noti fied</w>
Vic tor</w>
pre valence</w>
fur n
sin ki</w>
c am</w>
Com petition</w>
chick en</w>
Colum bia</w>
decre ases</w>
el ds</w>
presid ents</w>
e h</w>
o we</w>
C IT
depriv ation</w>
pun ish</w>
di stances</w>
bra ins</w>
er son</w>
l acking</w>
Prem ier</w>
for gi
rati fy</w>
me g
o is</w>
os oph
d u</w>
W eight</w>
Compan ies</w>
Ham as</w>
S ale</w>
Jer sey</w>
Hel sinki</w>
ar ization</w>
Armen ians</w>
att ain
electro magnetic</w>
3. 3</w>
H .
V il
canc ellation</w>
ev es</w>
f ar
Vir gin
to k
nom ination</w>
obj ection</w>
continu ally</w>
Di alogue</w>
Electr onic</w>
exec ute</w>
y ana</w>
comb inations</w>
wonder ing</w>
horm onal</w>
in scri
n as
stun ning</w>
8 ,000</w>
ten tion</w>
Sen ior</w>
li sting</w>
Sh emale
e aten</w>
fail s</w>
ge ological</w>
explan ations</w>
no b
ail ers</w>
orig inated</w>
illu sion</w>
E ric</w>
tur b
perf ection</w>
gor od</w>
custom ized</w>
b acks</w>
t ext
inhab ited</w>
loc ally</w>
en shr
ti ans</w>
wil d
reb els</w>
Sp i
con vey</w>
Haw ai
ster oids</w>
s u</w>
mechan ics</w>
ill nesses</w>
occup y</w>
tub erculosis</w>
mal aria</w>
le ague</w>
ag eing</w>
ch est</w>
mist ak
Lat vian</w>
F IFA</w>
consolid ate</w>
os phere</w>
periodic ally</w>
col or
Compu ter</w>
caffe ine</w>
M .
Moun tain</w>
anth rop
judg ement</w>
tr ailer</w>
Sar ah</w>
deci ding</w>
1. 8</w>
expec tancy</w>
miti gation</w>
S ab
R I</w>
I G</w>
fulfil ment</w>
Rec o
suspic ious</w>
P P</w>
legitim acy</w>
compar ing</w>
mus ician</w>
Enter prise</w>
emb r
sur faces</w>
I o
E U
draw ings</w>
Phili p</w>
par as
Mer kel</w>
n t</w>
plan etary</w>
business man</w>
embodi ment</w>
sex ually</w>
Statis tical</w>
o ils</w>
asc us</w>
Virgin ia</w>
p el
sk ep
teach ings</w>
advis er</w>
Toy ota</w>
ur rec
Sec tor</w>
S it
L ad
Ab ra
s light</w>
my th
facilit ated</w>
exam ining</w>
swi m</w>
ass ing</w>
Dis ney</w>
Ste el</w>
t ments</w>
tun nel</w>
ful ness</w>
V ati
tri um
1 11</w>
ter nal</w>
mos que</w>
fat al</w>
Add .
10 3</w>
N ami
curricul um</w>
volun tarily</w>
guil t</w>
f its</w>
Wil son</w>
ex changed</w>
ri ding</w>
b ou
Tat ar
el ty</w>
195 9</w>
att ain</w>
hon or
a x</w>
k l
Pro liferation</w>
Cl assi
dem entia</w>
ash a</w>
casu alties</w>
si lic
coordin ates</w>
Oper a</w>
high way</w>
issi oned</w>
K now</w>
Cam bridge</w>
consi sted</w>
weak nesses</w>
p esti
instruc ted</w>
fab ric</w>
Naz is</w>
195 5</w>
mi ghty</w>
exp ulsion</w>
U. S.
ti um</w>
prin ts</w>
Emplo yment</w>
ch e</w>
P M
commem or
rest oring</w>
cre ature</w>
emo tion</w>
exerc ised</w>
E N</w>
ris en</w>
Un ity</w>
T han
occup ying</w>
ar ding</w>
belong ed</w>
m ers</w>
ish able</w>
pri ests</w>
195 1</w>
poll ut
il er</w>
fing er</w>
te ase</w>
imper ative</w>
ab sent</w>
exc av
wr ong
comm issioned</w>
free ze</w>
mast er
gr ass</w>
od d</w>
assemb led</w>
elabor ation</w>
congrat ulate</w>
ad here</w>
ship ped</w>
archi ves</w>
. org</w>
broad casting</w>
ti p</w>
k ova</w>
t ol
threat ens</w>
so v</w>
tra um
es es</w>
tiz ation</w>
Ken ne
Dam ascus</w>
Mauriti us</w>
ques tioned</w>
me tro</w>
d ney</w>
us eless</w>
bre eding</w>
stead ily</w>
s ly</w>
cryst al</w>
mo ist
G D
u als</w>
gar dens</w>
f ut
Gree ks</w>
en ligh
J ane</w>
in human</w>
l oud</w>
appe aled</w>
ill ment</w>
R iga</w>
S and
prosp ect</w>
p ills</w>
Stri p</w>
metabol ic</w>
in correct</w>
pro ving</w>
Q a
CC C</w>
exerc ising</w>
C. 3</w>
D e</w>
s lot</w>
l anded</w>
A O</w>
obil ization</w>
compl ain</w>
S hel
jac ent</w>
Vati can</w>
Commer cial</w>
lin king</w>
extrem ist</w>
s ors</w>
bedro oms</w>
Constan tin
sub marine</w>
D er
In f
Sim on</w>
mem orial</w>
Pro te
D aily</w>
2 20</w>
nu ts</w>
Pu erto</w>
com bus
w ishing</w>
Ac ting</w>
ass ed</w>
Uzbe k</w>
s adly</w>
be red</w>
under water</w>
V an</w>
man ned</w>
ancell or</w>
righ te
trac es</w>
ever ages</w>
F E
c s</w>
sec uring</w>
He bre
H z</w>
ninet eenth</w>
inher itance</w>
cr ying</w>
not withstanding</w>
est ock</w>
S H
eleg ant</w>
pe dia</w>
con du
vi sibility</w>
Ottom an</w>
c iting</w>
7. 5</w>
Organ izations</w>
Jup iter</w>
ot ted</w>
clin ics</w>
scre ens</w>
publ ics</w>
dictat orship</w>
T our</w>
Ank ara</w>
s par
tiz ed</w>
ne ural</w>
B asic</w>
nit rogen</w>
Atom ic</w>
grand mother</w>
as o</w>
St or
sub mitting</w>
Issu es</w>
G oods</w>
Sha k
Acti vities</w>
X i</w>
municip alities</w>
financi ally</w>
in n</w>
pu zz
manif est</w>
ell ers</w>
Ox ford</w>
prec au
uni qu
frag ile</w>
Camero on</w>
s now
off set</w>
publis her</w>
symp tom</w>
inf ants</w>
C. 5</w>
fulf illment</w>
h ackers</w>
c ept</w>
evalu ating</w>
el le</w>
or ious</w>
UNR WA</w>
ad jacent</w>
u g</w>
fil ing</w>
shar ply</w>
Bud getary</w>
demonstr ations</w>
m amm
di al
magaz ines</w>
Patri arch</w>
war ri
low s</w>
shel f</w>
Ber n
v ent</w>
c av
rel la</w>
d are</w>
Labor atory</w>
teach es</w>
anti bodies</w>
reco vered</w>
archit ects</w>
occup ational</w>
cred itors</w>
V or
appear ances</w>
lun ar</w>
C S</w>
C had</w>
coll ectively</w>
simultane ous</w>
wor sen
advoc ate</w>
Con sum
Cat al
viol ating</w>
E u
predec essor</w>
is ure</w>
im mer
fe der
Li ke</w>
O scar</w>
devast ating</w>
1. 7</w>
r ush</w>
Comman der</w>
in puts</w>
enti als</w>
sup pos
oo th
enti c</w>
di ver
Sh ould</w>
G reg
ag r
195 4</w>
ru ins</w>
olu tion
bis hop</w>
sc al
Autonom ous</w>
paren tal</w>
ir ts</w>
co stly</w>
P D</w>
Kenne dy</w>
un conscious</w>
success es</w>
bu ff
195 7</w>
stoc k
critici zed</w>
b ell</w>
Mon aco</w>
10 7</w>
cre ator</w>
re ci
ul ating</w>
met ro
suppl ementary</w>
5. 5</w>
N ok
manife station</w>
enh ancement</w>
su ited</w>
h its</w>
unde res
UN IT
chem otherapy</w>
lun gs</w>
cor rupt</w>
compl ement
allow ance</w>
optim istic</w>
H ere</w>
H av
phos ph
ac le</w>
C ancer</w>
A ges</w>
renew al</w>
or ally</w>
car to
Americ as</w>
fl ora</w>
conclu des</w>
proce eding</w>
sc rat
popul ated</w>
Commit tees</w>
en force</w>
p acked</w>
decentr alized</w>
W .</w>
Advis er</w>
Kh an</w>
tri g
F err
embe dded</w>
d in</w>
Gu ardi
trans boundary</w>
se af
Indi ans</w>
ess ness</w>
do v</w>
N ick</w>
stat ue</w>
open ness</w>
resor ts</w>
P it
J im
Maj or</w>
fru it
Six th</w>
tap e</w>
19 33</w>
propos es</w>
poo rest</w>
Tatar stan</w>
bra ve</w>
ob s
nob yl</w>
veri fied</w>
g ates</w>
appro ached</w>
b or</w>
est e
Matthe w</w>
liqu idity</w>
gor ous</w>
intest inal</w>
ski y</w>
expl aining</w>
w et</w>
op t</w>
ann e</w>
3 6
ther land</w>
flo ating</w>
20 s</w>
qu est</w>
inter rupted</w>
en larg
b ite</w>
activ ate</w>
complain ant</w>
spons or</w>
Th er
C oc
Deci sion</w>
U C</w>
or r
phys icians</w>
Ch ang
fil ters</w>
op e
Constantin ople</w>
Qa eda</w>
pu ted</w>
J av
tox ins</w>
sp atial</w>
prof itability</w>
def ending</w>
counter parts</w>
Po st
assign ment</w>
asi an</w>
S O</w>
chap ters</w>
men se</w>
19 30</w>
tic es</w>
O IOS</w>
li fted</w>
kin dergar
gen re</w>
din os
colon ies</w>
real izing</w>
OP S</w>
In sp
emb race</w>
at able</w>
sh ine</w>
4. 2</w>
Cre dit</w>
youn gest</w>
deplo y</w>
im mense</w>
v on</w>
exten ds</w>
def ensive</w>
w av
pl ain</w>
in compatible</w>
prescri ption</w>
s mil
sugg esting</w>
re publics</w>
ic ting</w>
rein force</w>
Cl oud</w>
gar age</w>
Qu ar
su its</w>
im a</w>
D s</w>
atmos pheric</w>
O leg</w>
multin ational</w>
char ter</w>
fea sible</w>
wor th
maxim ize</w>
w ings</w>
T ren
pass ports</w>
cont ex
M om</w>
deliber ately</w>
path ology</w>
for t</w>
A Z</w>
withdraw n</w>
elev ated</w>
it ude</w>
ind ex
L iter
treas ure</w>
Do ha</w>
ASE AN</w>
conspir acy</w>
subscri bers</w>
U F
negoti ated</w>
tac tical</w>
bun als</w>
forgi veness</w>
4. 1</w>
recip e</w>
com prise</w>
I F</w>
gravit ational</w>
under way</w>
ab sur
val ley</w>
U sers</w>
el ementary</w>
separ ati
U L
T ol
consci ously</w>
M B</w>
prote sters</w>
ai c</w>
T N
Ven us</w>
si um</w>
er ion</w>
s on
recycl ing</w>
g ated</w>
so ever</w>
ov en</w>
ten stein</w>
ber ry</w>
ver sible</w>
di at
oppon ent</w>
in sol
hor ror</w>
MEN T</w>
perc ep
xen ophobia</w>
concep tual</w>
compris ed</w>
Bro ad
P residents</w>
Z h
bre ast
Di plom
cann abis</w>
Ch ech
H il
priv atization</w>
In t
acqu iring</w>
in timate</w>
commit ting</w>
st al
B ed
suppor tive</w>
hum idity</w>
ste am</w>
c ad
N am</w>
shap es</w>
gol f</w>
v y</w>
at tered</w>
appe tite</w>
evol ve</w>
pra is
repatri ation</w>
b i</w>
Volun te
sp ouses</w>
pol is</w>
business men</w>
align ed</w>
es cor
Y a
sur render</w>
den om
Di vine</w>
Appl ication</w>
re at</w>
auth entic</w>
process ors</w>
Car ol
et on</w>
bom bing</w>
1 .</w>
Nagor no</w>
Mill er</w>
C er
assum ing</w>
ri val</w>
Wi th
RA L</w>
r ors</w>
IP O</w>
o zone</w>
C .1</w>
coun sel
athlet e</w>
Cz ec
Val ent
extr action</w>
cha ired</w>
ball istic</w>
cor n</w>
dis missed</w>
sp an</w>
Con cer
sculp ture</w>
bot tles</w>
Sec ret</w>
sti m
r am
c ous
a g</w>
B eg
Sol om
1, 500</w>
for get
Tur ks</w>
re strial</w>
6. 5</w>
O EM</w>
coun tless</w>
reaffir m</w>
observ ing</w>
ess ation</w>
Rom anian</w>
liv estock</w>
G il
oli ve</w>
out puts</w>
Fi ve</w>
predic tions</w>
M az
mon ies</w>
miti gate</w>
met aph
Mat er
P E</w>
vari ables</w>
r ally</w>
Ch ap
stat ute</w>
Rev .1</w>
Lav rov</w>
Donb as</w>
pre domin
Con fl
os pace</w>
dis man
an ten
195 3</w>
th in
St ory</w>
T ake</w>
F our</w>
impres sions</w>
chi ps</w>
pl ur
iz za</w>
fin ances</w>
LD Cs</w>
w ire</w>
canc elled</w>
cat alog</w>
id al</w>
al tered</w>
sto k</w>
par a
explo red</w>
str ing</w>
war ded</w>
ge red</w>
v in</w>
tal e</w>
lo ver</w>
Pl ant</w>
desc endants</w>
k el
Sahar a</w>
eut enant</w>
El ena</w>
Napole on</w>
T elec
seem ingly</w>
y ar
at i</w>
avo id
For mul
out lets</w>
im ent</w>
Wh it
1 14</w>
ed iting</w>
I ES</w>
comp assion</w>
mobil ize</w>
fing er
P rev
Wor ks</w>
satur ated</w>
gan g</w>
P AR
break down</w>
go s</w>
cos mic</w>
ac ity</w>
tal ents</w>
gr ay</w>
ast er
mar ri
E A
W it
arm ies</w>
co ck</w>
fluctu ations</w>
Bri an</w>
trad ed</w>
embodi ments</w>
coun try
2. 0</w>
Bagh dad</w>
s om
al li
ut most</w>
ped agog
be ds</w>
expe di
comm ended</w>
In spec
regi stry</w>
Gol d
or ly</w>
attribu tes</w>
rem entioned</w>
por tr
ro ad
broad ly</w>
Ir on</w>
afo rementioned</w>
w ounds</w>
ner ves</w>
G N
dev il</w>
7 ,000</w>
pled ged</w>
Cher nobyl</w>
sub missions</w>
e ye
bl ical</w>
tribu te</w>
Bud apest</w>
po ison</w>
comp iled</w>
Aud it</w>
F ab
S MS</w>
manip ulation</w>
thr one</w>
st ence</w>
200 ,000</w>
centr alized</w>
conven e</w>
co tic</w>
H ur
Eurasi a</w>
wholes ale</w>
interpre t</w>
F air</w>
Bolsh evi
aggreg ate</w>
ut ory</w>
Bas el</w>
l ing
K ate</w>
f i</w>
ris ky</w>
ex otic</w>
op i
mal es</w>
crit erion</w>
N u
it ory</w>
Nok ia</w>
b n</w>
am as</w>
serv ant</w>
diff ers</w>
degrad ing</w>
F A</w>
det ri
od ds</w>
e up</w>
dissem inate</w>
apologi ze</w>
dom ination</w>
St anding</w>
real ise</w>
DA W</w>
dec lining</w>
des cent</w>
19 14</w>
G a
rhyth m</w>
G C</w>
abol ished</w>
decor ated</w>
war n</w>
wal ks</w>
fail ing</w>
ell es</w>
tra uma</w>
dis par
com ings</w>
Ru le</w>
met ric</w>
lu gg
uni or</w>
Tor onto</w>
er ings</w>
pi x
t at
in appropriate</w>
w ound</w>
al um
dra fted</w>
b everages</w>
emer gencies</w>
d ressed</w>
Ad mir
sh ire</w>
Aud itors</w>
gr as
lic ence</w>
op pose</w>
l aying</w>
At tor
Israel is</w>
recre ation</w>
divid ends</w>
tr ans</w>
tri bunal</w>
trad er</w>
wh is
hu a</w>
D ur
spir its</w>
over coming</w>
Vik tor</w>
Li ech
suspic ion</w>
s ad
v amp
trans c
o b</w>
On ly</w>
noti fications</w>
Plan et</w>
C M
a ev</w>
Le w
cor on
liber alization</w>
cre ators</w>
ed itorial</w>
fi er</w>
concei ved</w>
po orly</w>
deri v
am pl
end ance</w>
sev ent
what soever</w>
rac ist</w>
oo s</w>
B lu
el e</w>
conv inc
aller gies</w>
The ater</w>
Mot or</w>
ad i</w>
C e
Ne ed</w>
Bi ological</w>
ro m
Ad mini
in land</w>
n est</w>
man ship</w>
CN. 4</w>
Mo ham
S ex</w>
Ar ms</w>
short comings</w>
hun t</w>
19 19</w>
D id</w>
Liech tenstein</w>
or ical</w>
gu t</w>
ver b
culti vation</w>
bur gh</w>
ide als</w>
A F</w>
nutri tional</w>
accor d</w>
susp end</w>
ho c
mer its</w>
deb ates</w>
ver sus</w>
Sy dney</w>
Reduc tion</w>
coordin ator</w>
R ound</w>
di ets</w>
join ts</w>
s porting</w>
rum ors</w>
mar ines</w>
Z e
A G</w>
p airs</w>
be st
fil tr
Reser ved</w>
3 8
gen s</w>
pup ils</w>
ill um
enshr ined</w>
p tease</w>
reaffir ming</w>
pip e</w>
dis gu
19 30s</w>
g ang
ax is</w>
co operating</w>
log is
B ase</w>
id ated</w>
K ev
Certi fic
super visory</w>
absor b</w>
aw i</w>
accompan ying</w>
frag ments</w>
juven ile</w>
profession alism</w>
at orium</w>
A W
igh t
num er
Belgi an</w>
T im</w>
sus cep
25 th</w>
CE DAW</w>
hang ing</w>
ultr as
c ake</w>
Ti bet</w>
ric ane</w>
L ORD</w>
ann ers</w>
ou tre
B an</w>
Heav en</w>
G E</w>
2 .</w>
on in</w>
195 2</w>
Pen sion</w>
obe y</w>
es cent</w>
execu tives</w>
main land</w>
admis sible</w>
att endance</w>
Ag ainst</w>
ec o</w>
comb at
4 5
Smar t</w>
k ater
marri ages</w>
dis rup
re actor</w>
Elec tric</w>
back up</w>
mon ster</w>
streng ths</w>
respon sive</w>
outre ach</w>
acceler ation</w>
Vie ws</w>
di ary</w>
si ghts</w>
Rom ans</w>
harv est</w>
D ark</w>
in car
P ack
tion er</w>
y ch</w>
un stable</w>
establish ments</w>
landscap es</w>
ambi que</w>
qu e
20 50</w>
W W
Cath ol
decor ative</w>
R ock</w>
Wiki pedia</w>
un ci
hoc key</w>
wast es</w>
poin ting</w>
Archi ves</w>
hand led</w>
S crip
Ren aissance</w>
IS S</w>
st ays</w>
An th
regul ators</w>
insp ire</w>
ab un
relax ation</w>
cook ie</w>
D oes</w>
subscri be</w>
re tention</w>
0. 1</w>
ist er</w>
di al</w>
pri mi
emp ir
vi ous</w>
fr ames</w>
leg es</w>
Pat rick</w>
min ed</w>
Ben j
buil ds</w>
Restaur ant</w>
int ers</w>
Moz ambique</w>
de eds</w>
ot rop
admini strator</w>
Hon dur
let ting</w>
camp us</w>
Coun ter</w>
r het
Pro tocols</w>
del icious</w>
C AR
advis ers</w>
she ep</w>
gener ous</w>
Flo rence</w>
co c
annex ed</w>
in complete</w>
z in
N T
YO U</w>
1 28</w>
det ective</w>
Y am
So fia</w>
investig ative</w>
unanim ously</w>
May or</w>
B la
reven ge</w>
Mu hammad</w>
impres sed</w>
Sahar an</w>
Formul a</w>
deli veries</w>
D im
commun ism</w>
crow n</w>
argu es</w>
pa ths</w>
ev sky</w>
e ffic
sk y
Patri arch
W ater
pill ars</w>
trans ferring</w>
Tra fficking</w>
mil est
Cypri ot</w>
ght ful</w>
reci proc
em peror</w>
mar gin</w>
p an</w>
2 40</w>
horri ble</w>
Abra ham</w>
rel uc
ri gi
thro at</w>
hal t</w>
or ia</w>
war rant</w>
lay out</w>
Cat eg
cl am
g il
dro ve</w>
trig gered</w>
pol l</w>
vern ight</w>
no des</w>
loc ks</w>
Champ ions</w>
ti ts</w>
stabil ization</w>
t ut
P G</w>
B ack</w>
insi sted</w>
super vis
L NG</w>
liqu idation</w>
Ex tension</w>
ex agg
OP EC</w>
on ization</w>
stim ulation</w>
H ub
Ab dul
ren dering</w>
veter ans</w>
Ad di
i aries</w>
rec k
J un
mar g
Cas ino</w>
le isure</w>
ef f</w>
ar ized</w>
Nami bia</w>
1 16</w>
ecu le</w>
Y el
collabor ate</w>
ing ham</w>
divor ced</w>
elabor ate</w>
ec ology</w>
sor tium</w>
blo gs</w>
DV D</w>
19 38</w>
shoc ked</w>
real m</w>
ab a</w>
M ai
i ances</w>
method ologies</w>
com edy</w>
bourgeo isi
I mp
reiter ate</w>
out line</w>
he ated</w>
philos opher</w>
abun dance</w>
Est ablis
cau tion</w>
sinc erely</w>
is phere</w>
dra u
Per i
n asty</w>
A ar
l everage</w>
scre en
Ham ster</w>
eng en</w>
bas ketball</w>
D eli
condem n</w>
y ang</w>
G ates</w>
hospit ality</w>
horiz on</w>
surge on</w>
good bye</w>
sch iz
dis comfort</w>
para dig
By z
th ood</w>
Re ad</w>
postp oned</w>
im partial</w>
b ies</w>
fle w</w>
1 22</w>
compens ate</w>
gi on</w>
ag e
Insp ection</w>
reg rets</w>
An gl
c essation</w>
accep ts</w>
view er</w>
Hel p</w>
rub ber</w>
excell ence</w>
Tibet an</w>
SR .
spec t
Ch urches</w>
brow se</w>
influ enza</w>
st at</w>
s lower</w>
pi ano</w>
2. 6</w>
D an</w>
Z ion
corrid or</w>
X X</w>
e w
Sil k</w>
bourgeoisi e</w>
peas ants</w>
R ose</w>
19 37</w>
asi bility</w>
J ava</w>
Zam bia</w>
Mar shall</w>
I E
Cor ps</w>
M es
it alization</w>
communic ating</w>
combus tion</w>
exha usted</w>
5 5
R yan</w>
v ania</w>
un cle</w>
fant asy</w>
ener gies</w>
an ning</w>
hyper tension</w>
N ation</w>
multi media</w>
yl on</w>
w ai
gentl emen</w>
accompl ishments</w>
Pen al</w>
19 29</w>
list ened</w>
w ow</w>
es el
cosme tic</w>
Sat an</w>
Andre i</w>
ignor ance</w>
brut al</w>
duc t</w>
s is</w>
nation alism</w>
ad el
Stri ptease</w>
sh irt</w>
Benj amin</w>
termin als</w>
el even</w>
Pr ac
connec tivity</w>
I K
bl essing</w>
Ret ur
Sc and
Ar m
plac e
et a</w>
tr apped</w>
condu cive</w>
er on</w>
S K
mat urity</w>
expl icit</w>
x Hamster</w>
tra p</w>
le dge</w>
k it</w>
market place</w>
inc entive</w>
ci des</w>
st rain</w>
atis m</w>
Andre y</w>
vac ancy</w>
p ine</w>
Joh ann
reas ing</w>
mass ac
Anton io</w>
figu red</w>
co at</w>
primi tive</w>
G ur
r ab
Vi et</w>
o vernight</w>
notic eable</w>
ak ers</w>
clu sters</w>
Moun tains</w>
O D
Arbitr ation</w>
Hebre w</w>
IC O</w>
C ou
flo od</w>
pol og
laun ches</w>
care ers</w>
per pet
V R</w>
ex hibit</w>
earthqu akes</w>
speci fication</w>
therap ist</w>
mol ecule</w>
behavi oral</w>
electr ons</w>
fl our
Sch engen</w>
c tica</w>
ul tra</w>
ini um</w>
13 5</w>
Con nec
5 00,000</w>
stret ch</w>
l ens</w>
O versi
Bel grade</w>
evalu ations</w>
Jud ic
qu een</w>
st ell
at s
privil ege</w>
S op
J an</w>
bor ing</w>
im aging</w>
Gir l</w>
Ch echn
Pom pe
prosper ous</w>
m ire</w>
exhib its</w>
commun icated</w>
dis counts</w>
Oversi ght</w>
Kev in</w>
porno graphy</w>
Suppl ement</w>
link ages</w>
prev ailing</w>
practic ed</w>
aggreg ated</w>
un predictable</w>
sp y</w>
stereot ypes</w>
oph ren
bon uses</w>
f ame</w>
key word</w>
Pr acti
b old</w>
Ci vil
phr ases</w>
1 23</w>
c el</w>
am ents</w>
4. 3</w>
An ne</w>
rit ual</w>
sc op
stipul ates</w>
col um
dec reasing</w>
celebr ating</w>
Lin col
Agricul tural</w>
et c.</w>
Patri otic</w>
ur gency</w>
po sting</w>
adhe rence</w>
scand al</w>
Wor l
Scot tish</w>
C ome</w>
Ch all
aff air</w>
logis tical</w>
m ys
Sk y
Ph arm
V s</w>
te m</w>
U V</w>
Io T</w>
re nov
cl ause</w>
exha us
al k
suppos edly</w>
p he
0 ,
reli eve</w>
b age</w>
accus ations</w>
Institu tions</w>
fores een</w>
un comfortable</w>
expres sions</w>
ti ze</w>
en ric
Li ving</w>
P ed
Liber ation</w>
an o
ho st
h o</w>
ec k</w>
j azz</w>
Wom an</w>
insi st</w>
Ser ver</w>
trans mit
19 36</w>
nic he</w>
Chan nel</w>
conven ing</w>
ap prais
forget table</w>
am bul
pris ing</w>
pri zes</w>
less ly</w>
col ours</w>
n ic</w>
encryp tion</w>
Antar ctica</w>
Ph D</w>
dec eased</w>
ener ge
ad ul
m are</w>
less er</w>
M E</w>
advertis ements</w>
ge ar</w>
C ab
histor ian</w>
Test ament</w>
B order</w>
om ing</w>
volati lity</w>
p en</w>
fe asibility</w>
Im migration</w>
comm entary</w>
Mari e</w>
Siber ian</w>
hier archy</w>
conn ects</w>
hear t
ound ings</w>
desper ate</w>
catastrop he</w>
Attor ney</w>
re sign
sens es</w>
col ored</w>
F DA</w>
behavi ors</w>
c abinet</w>
avi an</w>
S ource</w>
quali fy</w>
free zing</w>
Re form</w>
Chechn ya</w>
parad ise</w>
appoin tments</w>
inser t</w>
ide ally</w>
P RE
an om
repl en
recru ited</w>
1 18</w>
N S
appropri ately</w>
upgrad ing</w>
Vol k
she ets</w>
leg ends</w>
Ste ering</w>
collabor ative</w>
ambi tions</w>
sign atures</w>
20 22</w>
psych ologist</w>
attribu table</w>
l ately</w>
Fi re
erad icate</w>
benefic iaries</w>
syl vania</w>
c ute</w>
Sup er</w>
ens ky</w>
R equ
in fer
Solom on</w>
prin ter</w>
nom inal</w>
cleans ing</w>
att an</w>
quot es</w>
Comb at</w>
vend ors</w>
harmon ious</w>
ri ya</w>
fo ol
M organ</w>
ab dom
Ol ga</w>
au x</w>
pen is</w>
at t</w>
re fund</w>
gener ator</w>
Bre ak
D ancing</w>
pil gri
ST A</w>
Nor d</w>
Al ice</w>
lec ture</w>
ter race</w>
1 13</w>
stat utory</w>
AL L</w>
und ant</w>
indic ations</w>
br ac
hom eless</w>
b alls</w>
deliber ate</w>
practic ing</w>
Admini strator</w>
guid es</w>
li th
design ation</w>
ad ors</w>
h ers</w>
Vic tory</w>
to y</w>
pr ince</w>
l umin
th al</w>
dra g</w>
V illa</w>
cred ited</w>
dis agree</w>
Pa ul
ren a</w>
passi onate</w>
cab in</w>
Del hi</w>
Fo x</w>
stain less</w>
dom inate</w>
En tre
ingredi ent</w>
ó n</w>
moun ted</w>
3 9
Snap shot</w>
there um</w>
l en</w>
ic on
audi ences</w>
econom ical</w>
ik h</w>
enti onally</w>
le ather</w>
pat ch</w>
ous ing</w>
M eg
Comm and</w>
m ess</w>
M ain
eg ram</w>
ol ds</w>
1 17</w>
fin ishing</w>
Tran si
ven cy</w>
in expensive</w>
evac uation</w>
Op portun
effic acy</w>
N el
weak ened</w>
Lew is</w>
L ook</w>
Log istics</w>
special ty</w>
comm ands</w>
chro mos
ks and
M is
peace building</w>
Xi a
h eter
tim et
en qu
cigaret te</w>
s an</w>
ran kings</w>
hov ah</w>
BR ICS</w>
g ad
C in
B ob
H R
bal con
AD A</w>
c emetery</w>
Sp ir
e a</w>
K it
startu p</w>
block ade</w>
nur se</w>
as a</w>
fra ud
fi ghts</w>
smo kers</w>
compos er</w>
Je hovah</w>
li f
B og
assur ances</w>
alph ab
ac et
Pow ers</w>
surr oundings</w>
de stri
Inte gration</w>
ne o</w>
Sur vey</w>
Colon el</w>
AS S</w>
arb ayev</w>
counter ing</w>
so l</w>
manife sted</w>
antibio tic</w>
he y</w>
au gur
contam inated</w>
t ness</w>
Lincol n</w>
Pro jects</w>
E T</w>
c ut
P in
ref uses</w>
Entre pre
correc ted</w>
Ep iso
L S</w>
A venue</w>
L vi
ha ir
Bran ch</w>
resi ding</w>
D E</w>
2 10</w>
S mo
yu an</w>
on ically</w>
k ar
understand able</w>
est e</w>
El ection</w>
J ess
E ve</w>
descri ptions</w>
simpl est</w>
F ull</w>
exp elled</w>
Par agu
Sam u
du ly</w>
Re si
ick y</w>
Ho st
issi le</w>
appl iances</w>
dec oration</w>
sec ute</w>
un forgettable</w>
dam aging</w>
19 0</w>
go vern</w>
venti lation</w>
C arri
str o</w>
mut ations</w>
exam inations</w>
con gress</w>
san itary</w>
Part ner</w>
dys function</w>
dis puted</w>
J eff
a the
2. 7</w>
oblig atory</w>
dec ei
news letters</w>
my ths</w>
ecti vity</w>
gene tically</w>
survi ving</w>
Peace building</w>
termin ate</w>
plan ted</w>
exha ust</w>
3. 4</w>
S on
4 0,000</w>
thou se</w>
Gu est</w>
pro spective</w>
ex porting</w>
S M</w>
vulner abilities</w>
ar c
volcan ic</w>
Car ter</w>
dem obilization</w>
el iness</w>
AR T</w>
wat ches</w>
contam ination</w>
syn the
Al f
Yur i</w>
SE R
Blo om
y ou
H er</w>
schiz ophren
est y</w>
fr action</w>
lit ers</w>
ill er</w>
Me di
aur s</w>
E mil
EC A</w>
c ow
3 000</w>
0 2.
ir regular</w>
K ash
in ches</w>
ad mir
si veness</w>
keep ers</w>
install ing</w>
Rost ov</w>
Lu ke</w>
there to</w>
15 ,000</w>
AC E</w>
t ably</w>
h iring</w>
dil ig
te x</w>
Pro ph
v ector</w>
R isk</w>
co ding</w>
clim atic</w>
impl y</w>
Por t
iri es</w>
fore stry</w>
ash amed</w>
Ap pro
im migrant</w>
kill ings</w>
dom s</w>
ad z
Hondur as</w>
spectac ular</w>
W FP</w>
wor ding</w>
r at</w>
H em
franch ise</w>
prop he
Gu ar
s can</w>
Lim ited</w>
cou pled</w>
mat rix</w>
execu tions</w>
Corpor ate</w>
astronau ts</w>
a is</w>
C ities</w>
med als</w>
end ang
Phys ics</w>
ur ban
educ ate</w>
E li
S BI</w>
J en
tu res
pr ag
Bur kina</w>
pl un
Pier re</w>
sec ular</w>
illustr ated</w>
hon ored</w>
i ors</w>
at ro
G A</w>
D raft</w>
le uk
Pers on
F aso</w>
B lock
dr ones</w>
E D
hem orr
con sole</w>
di ves</w>
elev ator</w>
dr illing</w>
car ing</w>
S ize</w>
B iss
psych ologists</w>
promo tional</w>
bun ch</w>
Tot al</w>
tom b</w>
Occup ied</w>
The ory</w>
f le</w>
expres sly</w>
S even</w>
colle ague</w>
c it
char ts</w>
Lvi v</w>
R ud
guar ding</w>
fruit ful</w>
N .
G on
d w
dis advantages</w>
W a
c ements</w>
ag as
M O</w>
sk el
Pl ace</w>
an no
fire arms</w>
oper atives</w>
c auti
arch s</w>
D il
att ained</w>
Aud i</w>
S AS</w>
col leges</w>
qu et</w>
B ad
ur ious</w>
u sion</w>
rem ot
ai da</w>
Th ese</w>
Man h
s essional</w>
coun cils</w>
bal let</w>
probl ematic</w>
L GB
ab normal</w>
in sured</w>
econom ist</w>
si ded</w>
resign ation</w>
PD F</w>
shi eld</w>
don ations</w>
coun ty</w>
om es</w>
sel ls</w>
diplom a</w>
d res
In fra
Di am
Indu stri
Moham med</w>
Practi ce</w>
deal er</w>
reser vo
bron ze</w>
bi ennial</w>
char itable</w>
tow ers</w>
present ly</w>
st oring</w>
simpl icity</w>
ber ries</w>
Mem or
U. N.</w>
sl ots</w>
Q U
D ate</w>
Carol ina</w>
Addi tional</w>
serv ic
imp air
Ca therine</w>
Dr agon</w>
g os
Gen ocide</w>
clim b</w>
man eu
menstr ual</w>
dig estive</w>
z i</w>
in ar</w>
d ining</w>
T ags</w>
S ucc
Prin cip
deser ved</w>
An atol
Croati an</w>
l is</w>
Settl ements</w>
re bel</w>
g ade</w>
Wal ter</w>
share holder</w>
ridic ulous</w>
P O</w>
w olf</w>
s ail
annex ation</w>
exten sions</w>
com positions</w>
settl ers</w>
Naz arbayev</w>
cor relation</w>
enjo ys</w>
je op
extinc tion</w>
therap ies</w>
mar ch</w>
Meas ures</w>
Be at
sub marines</w>
2 5.
volcan o</w>
mast urb
Confl ict</w>
magne sium</w>
dec om
batt ali
Ac ts</w>
v ak</w>
recep tors</w>
progres sion</w>
i z</w>
Biss au</w>
k ills</w>
dom ains</w>
Streng th
F OR
manag erial</w>
win ds</w>
ili bri
psychiat ric</w>
vari ation</w>
ca p</w>
recip es</w>
an arch
journ als</w>
f itted</w>
Sen ator</w>
r ats</w>
An der
un certain</w>
P ra
strat eg
Bu y</w>
Episo de</w>
n els</w>
Exp o</w>
o on</w>
M s</w>
H L</w>
stres sing</w>
resili ence</w>
re side</w>
author ised</w>
identi fies</w>
ci vic</w>
Metro politan</w>
sour cing</w>
on de</w>
No tice</w>
pres sures</w>
sel lers</w>
ne ts</w>
ra p</w>
Christ opher</w>
ic king</w>
emphasi zing</w>
mid st</w>
Ch ro
in son</w>
E aster</w>
dis advant
B ow
An y</w>
succ ession</w>
M AN</w>
or dering</w>
Pen n
Lis bon</w>
Hu b</w>
aur a</w>
ome try</w>
ul ent</w>
re bel
I v
D ni
buil ders</w>
Ch ancellor</w>
en g</w>
A U
Turk men</w>
pic tures
down loaded</w>
Sal es</w>
Viet nam
res urrec
equ ation</w>
un conditional</w>
Mad agas
Legisl ative</w>
avi er</w>
oc y
li aison</w>
pir acy</w>
C. 2</w>
Ve hic
trav els</w>
G 20</w>
pe destri
gra d</w>
flow ing</w>
im posing</w>
gu iding</w>
bl u
IM O</w>
mur ders</w>
occup ies</w>
affili ated</w>
cor p
ta p</w>
Cris is</w>
Chech en</w>
rhe a</w>
la g</w>
ud a</w>
UN OPS</w>
Bo x</w>
Hol land</w>
simpli fy</w>
pollut ants</w>
J ew</w>
Al an</w>
c ology</w>
place bo</w>
are dness</w>
ro oted</w>
g em
Transi tional</w>
acc essing</w>
I I
consul ar</w>
Pun ishment</w>
admis sibility</w>
Manh attan</w>
P ay</w>
advoc ates</w>
vers a</w>
fru str
Scand in
in augur
i v
under going</w>
lon ely</w>
T ab
d war
4 9
head ache</w>
deli ghted</w>
F ed</w>
b ap
prof essions</w>
sol em
Ch ur
Kur ds</w>
un ve
Ur ban</w>
Ex peri
low ering</w>
ap ple</w>
Madagas car</w>
ash vili</w>
A sp
nation wide</w>
0 3.
Co alition</w>
re novation</w>
resp ecting</w>
restric tive</w>
fundam ent
Jud ge</w>
c attle</w>
Alex ey</w>
dr one</w>
contrac ep
hn ess</w>
K an
R ada</w>
Y ar
PV C</w>
refin ed</w>
iz er</w>
kne e</w>
vari ants</w>
C lau
Avi v</w>
T radi
diplom at</w>
Car l</w>
t ances</w>
demonstr ating</w>
wei gh</w>
U. S</w>
st en</w>
Vietnam ese</w>
proj ections</w>
RU B</w>
B S</w>
S olutions</w>
G EF</w>
on able</w>
guarante eing</w>
Z ak
Vill age</w>
R ay</w>
ore r</w>
Ros s</w>
moti ves</w>
T E</w>
With out</w>
H RC</w>
tel escope</w>
bet ting</w>
bene ath</w>
C all</w>
Bru ce</w>
premi ere</w>
dem ol
l ler</w>
R ab
Fri end
an atom
twe eted</w>
La o</w>
Cor r
fif tieth</w>
pictures que</w>
minist ering</w>
tw in</w>
R ay
and om
F ig
new est</w>
promp ted</w>
is er</w>
land mark</w>
weak er</w>
Bai k
termin ology</w>
particip ates</w>
Rail way</w>
out set</w>
tat too</w>
ke en</w>
Venezu el
remin ds</w>
jeal ous</w>
cha p</w>
4. 4</w>
obe di
cylin der</w>
Hawai i</w>
un happy</w>
Mem orial</w>
blo c</w>
H ousing</w>
Cook ie</w>
en acted</w>
di ar
insi ghts</w>
ab ud
sp in</w>
f ool</w>
pain ter</w>
explo it</w>
equ ilibri
Col or</w>
whol ly</w>
sel ective</w>
voc al</w>
vari ant</w>
adel p
path ological</w>
pill ar</w>
wild life</w>
def endant</w>
imp etus</w>
kin son</w>
dep icted</w>
For t</w>
pre h
1 24</w>
Di ffe
bar rel</w>
astero id</w>
7 50</w>
develop mental</w>
policy makers</w>
journ alism</w>
Li ver
zh ou</w>
acceler ating</w>
S ic
compl ained</w>
ang ular</w>
re public
all ergy</w>
ess ly</w>
P ir
P C
Ac cor
sev enty</w>
Vin cent</w>
p ac
mater nity</w>
mis sion
5 00
A K
spac ious</w>
reg ation</w>
op ause</w>
bro kers</w>
Volk sw
re new</w>
man ages</w>
V .
J ur
color ful</w>
Balk ans</w>
G .
ap pendix</w>
se p
mal icious</w>
fil ming</w>
ad mire</w>
stor ms</w>
P ush
c enti
pr one</w>
seiz ure</w>
L ow
F el
al be
P as
Satur n</w>
slog an</w>
E P</w>
Let ter</w>
E thereum</w>
fac ial</w>
ol onization</w>
hum or</w>
F ed
boo m</w>
enthusi asm</w>
moist ure</w>
abud getary</w>
S hu
revi val</w>
bic ycle</w>
g res
Kal in
d awn</w>
erec tion</w>
hear ings</w>
Vladi vo
Se oul</w>
Anth ony</w>
15 00</w>
shor test</w>
deb tor</w>
O li
Sk ype</w>
convinc ing</w>
ar rests</w>
r ounds</w>
in tri
escap ed</w>
remin der</w>
Guardi an</w>
S ome</w>
P ear
vic inity</w>
to oth</w>
termin ated</w>
ot es</w>
diagn ose</w>
stimul ating</w>
r ine</w>
Champ ionships</w>
Dis ease</w>
st agn
Analy tics</w>
standardi zed</w>
mar tial</w>
Agre ements</w>
with stand</w>
min ded</w>
19 00</w>
Volksw agen</w>
ir ri
veter inary</w>
A si
batt le
Tro t
Trans fer</w>
Phil adelp
4 8
L ag
olo gn
y en</w>
s ab
nation alist</w>
l enses</w>
o ch</w>
Vladivo stok</w>
P es
Czec hos
prin c
hibit ors</w>
flag ship</w>
revel ation</w>
M agn
Sil ver</w>
0 5.
bo arding</w>
ch ill</w>
mis sible</w>
19 32</w>
drau lic</w>
3 65</w>
post al</w>
induc ed</w>
ick et</w>
regi stering</w>
answ ering</w>
k hov
B ed</w>
zin c</w>
un wanted</w>
in security</w>
W all
F ing
dis c</w>
v as</w>
c on</w>
esel f</w>
H and
al t</w>
gen ic</w>
X IX</w>
Nic ol
2. 8</w>
h alls</w>
floo ds</w>
Elec toral</w>
bol lah</w>
b yp
E b
D at
inter val</w>
IO N
e o</w>
rein forced</w>
S ong</w>
sup pression</w>
nar rative</w>
Phys ical</w>
prohib its</w>
N iss
Philadelp hia</w>
spec ulation</w>
new born</w>
competi tor</w>
canc eled</w>
pre cip
im position</w>
l ord</w>
contradic tions</w>
feat uring</w>
municip ality</w>
a erial</w>
regul ator</w>
be am</w>
philosoph ers</w>
Ju lia</w>
Le o</w>
AP I</w>
et t</w>
Gal il
w ich</w>
th a</w>
r andom
pul se</w>
gl ut
fo stering</w>
PR K</w>
mor ph
S ber
volati le</w>
vi vi
arri ves</w>
ad or
K ra
d ense</w>
ag ne</w>
D ynam
A post
mirac les</w>
g rab</w>
Jim my</w>
om ega</w>
b ons</w>
proportion ate</w>
diagnos tics</w>
Re as
et ts</w>
Republic ans</w>
deser tification</w>
poss essed</w>
foreign er</w>
att acking</w>
prof essors</w>
h en</w>
smugg ling</w>
on eself</w>
M i</w>
Le ader</w>
clari fied</w>
Slo vak</w>
UN CIT
1 21</w>
sub ur
ch ers</w>
ver bal</w>
haz ards</w>
pen sion
onym ous</w>
recipi ents</w>
UNCIT RAL</w>
res a</w>
od a</w>
appoin ting</w>
equilibri um</w>
health ier</w>
interest ingly</w>
pl ug
ste ering</w>
I K</w>
penetr ation</w>
irre versible</w>
be ar
Ar k
Mot or
ch ambers</w>
Observ atory</w>
activ ist</w>
com a</w>
La b</w>
civil ized</w>
re par
15 5</w>
H as
re tri
s its</w>
9 0s</w>
pl edge</w>
T ou
advertis ement</w>
dre amed</w>
M ass</w>
on i</w>
P har
L ot
0 9.
bo dy
Paragu ay</w>
Mal dives</w>
Kar l</w>
p cs</w>
cont acted</w>
no v</w>
met al
HT ML</w>
Sber bank</w>
de pressed</w>
op er</w>
R ach
stri p</w>
St art</w>
Memor andum</w>
p izza</w>
be ans</w>
3. 6</w>
P ER
lab els</w>
La ws</w>
pra ised</w>
extr abudgetary</w>
P I</w>
I ly
simpl er</w>
att ach</w>
Antar ctic</w>
ab o
Y anu
For mer</w>
pol e</w>
at ers</w>
clam ation</w>
lot tery</w>
imm uno
Patriarch ate</w>
de duc
posi tioned</w>
in effective</w>
I U</w>
ship ments</w>
por tions</w>
SB STA</w>
B ret
celebr ations</w>
ght ness</w>
th al
expec tation</w>
rad ically</w>
e ager</w>
Proph et</w>
pris oned</w>
S U</w>
authentic ation</w>
the astern</w>
re pression</w>
conduc ts</w>
wor rying</w>
5. 1</w>
infra red</w>
est rogen</w>
gi o</w>
def ended</w>
quar terly</w>
m ang
Ac counting</w>
3 2
9 001</w>
plas tics</w>
Penn sylvania</w>
S I</w>
inv entions</w>
R ole
0 4.
pig s</w>
in consistent</w>
Di ego</w>
ho stage</w>
P aper</w>
Doc ument</w>
an thro
L un
as tically</w>
y ards</w>
T R</w>
IN TER
so dium</w>
P el
en berg</w>
O blast</w>
ME s</w>
An d
concer ted</w>
micro organisms</w>
explos ions</w>
R an
Ad ver
dd ess</w>
F DI</w>
mer ger</w>
Yanu kov
s ar
ach us
D PRK</w>
anim ation</w>
tou gh
vo id</w>
fin alized</w>
militi a</w>
ut sk</w>
advers ely</w>
catastrop hic</w>
Work shop</w>
parliam ent
rel ying</w>
bir ths</w>
AC T</w>
re vers
it ated</w>
interven e</w>
Coll ection</w>
K ho
pyr amid</w>
contradic tion</w>
Mac ron</w>
Role play</w>
1 19</w>
imperi al</w>
Rog er</w>
Mass achus
K ey</w>
Bro ok
thyro id</w>
ful l
br is</w>
hi es</w>
acknowled ges</w>
profession ally</w>
Jas on</w>
p se
im prisoned</w>
He z
is a</w>
gene tics</w>
d row
qu ad
challeng ed</w>
fe ared</w>
caf e</w>
sup press</w>
l acks</w>
C rown</w>
exp ir
suppl ying</w>
sle pt</w>
po em</w>
leg ality</w>
let te</w>
CN N</w>
sub tle</w>
Par ad
oc ation</w>
am nesty</w>
G ard
Ev ents</w>
c ture</w>
carbohydr ates</w>
Know ledge</w>
2 30</w>
az ine</w>
gl ance</w>
for ti
T RA
ic ating</w>
qui et
k ick</w>
ad ministering</w>
special ization</w>
s ful</w>
tex tile</w>
imag ined</w>
E le
y land</w>
del icate</w>
inform ational</w>
su nam
shoul ders</w>
law suit</w>
ap ar
L yn
0 6.
sur ge</w>
w ed</w>
pip es</w>
T .</w>
Jac ob</w>
Mic hi
disadvant aged</w>
re wards</w>
N iz
For m</w>
coc aine</w>
vac ancies</w>
ret ailers</w>
min ation</w>
night mare</w>
advis able</w>
ren amed</w>
frequ encies</w>
H illary</w>
advis or</w>
n ails</w>
For bes</w>
19 35</w>
intensi fied</w>
rhet oric</w>
B ish
sens ation</w>
ip el
Massachus etts</w>
se is
in forming</w>
pro secute</w>
Ben in</w>
19 34</w>
empir ical</w>
Ali gn
N et</w>
over weight</w>
bi ography</w>
Phil osoph
gh ost</w>
im balance</w>
lugg age</w>
In nov
Al aska</w>
W oods</w>
Int ellectual</w>
uni tions</w>
V an
entrepreneur ial</w>
st ore
Gi br
Ag ent</w>
res cent</w>
prud ence</w>
dic t</w>
vo y
h ills</w>
con front</w>
taxpay ers</w>
pan dem
I z
shi fts</w>
teen ager</w>
sim ulation</w>
v s</w>
este em</w>
ech es</w>
con dens
x on</w>
opa thy</w>
o grams</w>
14 5</w>
utiliz ing</w>
tr ick</w>
hol istic</w>
Ric o</w>
t all
fasc ist</w>
Al ph
ro s</w>
low ers</w>
d ging</w>
co ating</w>
au x
Consul tative</w>
e ball</w>
Dav is</w>
P on
u to</w>
Col or
O r</w>
Archit ecture</w>
UR L</w>
4 7
por k</w>
Suppl iers</w>
Associ ated</w>
ci an</w>
Gol an</w>
rul ers</w>
inter course</w>
depres s
collap sed</w>
f lies</w>
pre cur
land locked</w>
h ated</w>
ki v</w>
Niss an</w>
ussi an</w>
R .
th rowing</w>
inva sive</w>
Mater ials</w>
abol ic</w>
ar ks</w>
absur d</w>
crip ts</w>
peac efully</w>
em in
ESC AP</w>
Organ ized</w>
ph ony</w>
person alized</w>
intu itive</w>
Bloom berg</w>
er ated</w>
hi riya</w>
res on
gener ates</w>
i qu
dev ote</w>
breast feeding</w>
Regi stration</w>
Mag ic</w>
Liver pool</w>
Boo ks</w>
toler ate</w>
expir ation</w>
sm en</w>
v ap
r ut
5 000</w>
13 2</w>
fli x</w>
electr on</w>
Res ults</w>
rev olution
Z oom</w>
conqu ered</w>
re build</w>
cosme tics</w>
es pe
ath on</w>
ster oid</w>
swit ched</w>
optim ism</w>
analys ed</w>
adv entures</w>
bri ties</w>
step ped</w>
Jama hiriya</w>
C RC</w>
stri ving</w>
j ec
rad icals</w>
republic an</w>
Fle et</w>
in hal
In clu
W is
aut o
ab duc
En voy</w>
transl ations</w>
M D</w>
pat rol</w>
rub le</w>
ent ries</w>
pan cre
Atl as</w>
reve aling</w>
pe red</w>
assi mil
E very</w>
mill ennium</w>
lo ose</w>
Hou ston</w>
vibr ation</w>
Br on
w a</w>
ep il
Develop ed</w>
3 00,000</w>
av en
dis solved</w>
u able</w>
there on</w>
poss esses</w>
Certific ate</w>
assum es</w>
gre y</w>
b ay</w>
V O
fres h
compan ion</w>
Luk ash
Fac ility</w>
wor e</w>
Bu ff
deal ers</w>
S W
Pro mot
conc essions</w>
cat alogue</w>
E valuation</w>
posi tioning</w>
25 ,000</w>
in um</w>
rem ain
Strength ening</w>
en os</w>
i y</w>
resum ption</w>
paradig m</w>
nation alities</w>
bas in</w>
Net flix</w>
schizophren ia</w>
Gab ri
br ick</w>
se in</w>
t ent</w>
ov sk</w>
a sion</w>
rev olutions</w>
extr ater
sk et
thank ful</w>
r ical</w>
Pro hibition</w>
prepa res</w>
station ary</w>
Hez bollah</w>
exemp tion</w>
confi gu
ti st</w>
rest ing</w>
in er</w>
G ren
1 26</w>
Kon stan
ti que</w>
p ill</w>
f s</w>
int entionally</w>
ff ic</w>
align ment</w>
Adver tis
constitu ent</w>
but tons</w>
exter ior</w>
Ma p</w>
A Z
Entrepre neur
ob sol
S cho
Corr .1</w>
ra inf
bi as</w>
amen ities</w>
predic tion</w>
bl ad
bir sk</w>
fin es</w>
Nor dic</w>
Him self</w>
C it
val ve</w>
agg age</w>
K ub
0. 2</w>
ex porters</w>
V E
stat eless</w>
Fri ed
L G</w>
endeav our</w>
pre tend</w>
19 05</w>
w oods</w>
J eff</w>
qu eries</w>
in justice</w>
any time</w>
N avi
ret ali
T ax
Vol vo</w>
g ab
O man</w>
L om
ali enable</w>
w ashed</w>
tend encies</w>
cri tic
Kel ly</w>
co incidence</w>
sur prises</w>
restra int</w>
homos ex
19 21</w>
W he
C are
8. 5</w>
acc u
Car los</w>
g i</w>
apprais al</w>
combat ants</w>
K ris
Admir al</w>
rev ise</w>
differen tial</w>
Mun icip
incorpor ating</w>
rem n
energe tic</w>
traum atic</w>
hand ful</w>
de portation</w>
Tra ffic</w>
e ther</w>
utili ties</w>
reli es</w>
reli ance</w>
wa ited</w>
bour ne</w>
suff ers</w>
L az
Y oga</w>
L i</w>
2 4.
Dre am</w>
I ts</w>
pip elines</w>
quot a</w>
t ast
in equ
Cam eron</w>
mid night</w>
bas eline</w>
O uter</w>
se aled</w>
domin ance</w>
Fun dam
Blo od</w>
S u</w>
rul er</w>
K is
em pl
ri vals</w>
inter viewed</w>
Le ast</w>
i osity</w>
ast opol</w>
l iness</w>
A id</w>
con form</w>
O ut</w>
T ech</w>
Gr and
9 9
real ised</w>
deep ening</w>
U C
inter vals</w>
P al</w>
Liber ty</w>
posi um</w>
wit z</w>
tournam ents</w>
M rs</w>
ot ine</w>
Nel son</w>
fr ank
MD Gs</w>
weak en</w>
Semi tism</w>
P lease</w>
moun tain
M att
optim ized</w>
at orial</w>
here d
pot atoes</w>
se d
men opause</w>
b is</w>
vers y</w>
prep aredness</w>
ca sts</w>
refu ge</w>
prob able</w>
be aten</w>
a than</w>
l ub
5. 2</w>
swit ching</w>
timet able</w>
0 7.
tr ump</w>
pro mul
mamm als</w>
b its</w>
th eses</w>
Q aida</w>
Di versity</w>
Mo vi
gl aci
obj ections</w>
configu red</w>
remain der</w>
ine ffici
dri ed</w>
ob i
D urban</w>
sp am</w>
dupl ication</w>
John ny</w>
trans forming</w>
colum ns</w>
dre aming</w>
par ade</w>
1 27</w>
New ton</w>
alph a</w>
aud its</w>
vo d
provo ke</w>
mur de
2, 500</w>
Mat t</w>
I ce</w>
subsi stence</w>
Ros neft</w>
reimbur sement</w>
ar ist</w>
colli sion</w>
Shak espe
in coming</w>
in ely</w>
Can al</w>
eful ness</w>
bri gh
Ma them
tri be</w>
anti qu
Wh ats
T enn
Per son</w>
mak eup</w>
Th en</w>
emo tionally</w>
borrow ing</w>
S ter
Dis abilities</w>
ten ge</w>
b ic</w>
predomin antly</w>
commun al</w>
pe ers</w>
mic row
I de
ten ment</w>
appl es</w>
S Q
embo died</w>
feren tial</w>
he i
your selves</w>
regul ates</w>
H ell</w>
M ut
RA M</w>
Mar t
assass ination</w>
Clar k</w>
win d
ch y</w>
cens orship</w>
navi g
la p</w>
bit ch</w>
l ou
se ize</w>
leng thy</w>
kid neys</w>
uph old</w>
cru ci
resp ect
ess ay</w>
decla res</w>
deep est</w>
ellec tu
d a
vic tories</w>
physic ists</w>
fish er
acc essed</w>
thre w</w>
artic le
bo t</w>
p urity</w>
Mar ina</w>
ref using</w>
13 4</w>
Be auty</w>
pp o</w>
negl ect</w>
as por
Nov osi
head aches</w>
sp ends</w>
bud geting</w>
Ang ela</w>
sc ary</w>
Gibr altar</w>
viol ates</w>
ori e</w>
capit als</w>
be es</w>
bac king</w>
Egyp tians</w>
por traits</w>
ag ons</w>
K ap
gi ants</w>
Infra structure</w>
Hist orical</w>
ten ded</w>
ic e
allevi ate</w>
antioxid ants</w>
b iz
farm er</w>
accid entally</w>
2 6.
e de</w>
key board</w>
deli vers</w>
sp ine</w>
so cc
nom inations</w>
Align ed</w>
sc ales</w>
exemp t</w>
confin ed</w>
fle dged</w>
cor ners</w>
socc er</w>
Vi sion</w>
Fe der
B T</w>
plan tation</w>
or th
Jud a
ref res
17 5</w>
ex empl
altern atively</w>
viol et</w>
ru in</w>
re actors</w>
D N
Res ource</w>
priv ately</w>
P A
N ation
S trait</w>
ub a</w>
comm anders</w>
Vol ga</w>
sp inal</w>
su le</w>
sculp tures</w>
good ness</w>
rela xed</w>
cl ashes</w>
stre ams</w>
t es
D ra
Tr ading</w>
Ar senal</w>
prerequis ite</w>
I O</w>
mo tive</w>
suscep tible</w>
cos m
borrow ed</w>
Jour n
strang ers</w>
sti g
pesti cides</w>
Bh ut
ettl ement</w>
Bis hop</w>
ag le</w>
soci o
M W</w>
roc kets</w>
S cript</w>
habit at</w>
d oping</w>
ater ally</w>
discrimin ate</w>
gras p</w>
dec k</w>
ub le</w>
disci ples</w>
pre dat
pan or
S ome
D ak
corro sion</w>
ed itors</w>
Novosi birsk</w>
intu ition</w>
Nov gorod</w>
Al ber
Con si
dis mis
e di
S avi
c ents</w>
de m</w>
on ous</w>
S MEs</w>
spontane ous</w>
Manufactu rers</w>
po ols</w>
inter loc
sel fish</w>
hi o</w>
ang les</w>
Nig er</w>
ro of
ni kov</w>
P ris
rom ance</w>
Pav el</w>
dr agon</w>
ambi tion</w>
Ar t.</w>
pneum onia</w>
est an</w>
anes the
accu stom
decentr alization</w>
es burg</w>
Ex ternal</w>
and ro
porte urs</w>
p in</w>
hi l</w>
blad der</w>
stell ar</w>
ligh ter</w>
floo ding</w>
al yp
de bris</w>
t os
s cor
ing o</w>
An ton</w>
be ef</w>
G P
13 8</w>
physic ist</w>
B P</w>
week ends</w>
ly n</w>
30 th</w>
s son</w>
om ed</w>
De an</w>
ell i</w>
IC E</w>
Fi ji</w>
in sur
Indone sian</w>
Bil ly</w>
Goo d
startu ps</w>
Li eutenant</w>
petro l</w>
insul ation</w>
me try</w>
Ver khov
po ems</w>
Consum er</w>
man ually</w>
scholar ship</w>
cir cular</w>
br al</w>
counter fe
com r
trad es</w>
tok ens</w>
Lis a</w>
pl ug</w>
defici encies</w>
m 3</w>
happ ier</w>
Pro cu
L akes</w>
fo ren
Green land</w>
program med</w>
yl ene</w>
an as</w>
unci ation</w>
cle ared</w>
child birth</w>
te ens</w>
in door</w>
fir ing</w>
Khar kiv</w>
stit uting</w>
pedagog ical</w>
ma x</w>
dest ined</w>
mer ged</w>
wor ries</w>
contro versy</w>
at al</w>
sens ations</w>
os ion</w>
3 00
un successful</w>
superi ority</w>
emplo ys</w>
Block chain</w>
et ta</w>
G ate</w>
trans plant</w>
mus h
M C</w>
rap ed</w>
S ID
top ical</w>
be d
refriger ator</w>
He y
specific s</w>
haz ard</w>
19 22</w>
ast on
associ ates</w>
reason ing</w>
p ound</w>
D anny</w>
fl ags</w>
4 6
compet encies</w>
ec table</w>
S F
Sev astopol</w>
ev ed</w>
H ours</w>
int ellectu
sp i
ex pose</w>
Bu enos</w>
li p</w>
accustom ed</w>
stabil ize</w>
char m</w>
De b
G row
Ne ar</w>
D ance</w>
st ole</w>
lion aires</w>
annex es</w>
W on
Am nesty</w>
EN T</w>
car d
SE C</w>
righ tly</w>
Amend ment</w>
surve yed</w>
Alex ei</w>
sty lish</w>
A pol
ic ons</w>
T all
ar senal</w>
weak ening</w>
is en</w>
epil ep
Michi gan</w>
incl ined</w>
r in
pra ying</w>
infring ement</w>
K im
gener ic</w>
S ac
Rel eased</w>
Guar an
tel e
neutr ality</w>
gy m</w>
te ar</w>
human kind</w>
dis ruption</w>
ad mi
D og
G U
w oke</w>
honest y</w>
manip ulate</w>
altern ate</w>
sp in
peculi arities</w>
Tel evision</w>
out dated</w>
bo d
guar dian</w>
V el
her bs</w>
inval uable</w>
She ikh</w>
op pression</w>
seiz ures</w>
archae ologists</w>
cent ered</w>
Ale ppo</w>
un desirable</w>
T ak
dol ph
Dri ve</w>
Ab b
benef ited</w>
F ashi
P ul
Ex port</w>
Shemale Z</w>
P over
ut ter</w>
bas ics</w>
p y
any on</w>
mel an
Inter im</w>
sou ven
An dy</w>
contr ain
Dep ression</w>
acknowled ging</w>
person alities</w>
contrain dic
tot al
culti v
c ence</w>
y ch
sm oo
S A
e u</w>
Procu rement</w>
en ic</w>
0 8.
stres sful</w>
Eth ics</w>
p ist
hab i</w>
Mer cury</w>
19 25</w>
pal m</w>
ir i</w>
emb ry
A ires</w>
dedic ation</w>
ap ost
sle ep
Mar gare
fair ness</w>
dinos aurs</w>
fi b
cu ps</w>
H E
Ham burg</w>
z ona</w>
char ming</w>
cele brities</w>
jud ged</w>
Johann esburg</w>
inv iting</w>
yach t</w>
al lied</w>
oul try</w>
facilit ates</w>
fur t</w>
co st
supplement ed</w>
ro y
19 15</w>
don ation</w>
Venezuel an</w>
vi gil
administr ations</w>
ab ide</w>
EA EU</w>
bor row</w>
N O</w>
C ret
3 .</w>
str ate</w>
accid ental</w>
la va</w>
ug ly</w>
sc rut
id ate</w>
Do g</w>
Compl ex</w>
m ail
cous in</w>
tri ple</w>
a ther
unve iled</w>
che apest</w>
memor able</w>
w ines</w>
Str uc
Con federation</w>
Pover ty</w>
Re agan</w>
f an
Is a
text books</w>
re ferr
e ful</w>
Reli gious</w>
Adv anced</w>
sl o</w>
Dis aster</w>
De pos
Par ts</w>
14 4</w>
antioxid ant</w>
anc ers</w>
Ir ina</w>
W OR
R ho
pharm acy</w>
harm less</w>
te t</w>
dis position</w>
over throw</w>
j o</w>
compos ite</w>
li fel
1, 0
uplo ad</w>
hy draulic</w>
X I</w>
St even</w>
0. 3</w>
fre el
13 3</w>
periph eral</w>
Pay Pal</w>
Al lied</w>
por n</w>
Au gu
un manned</w>
recre ational</w>
i fy</w>
albe it</w>
flu or
sc attered</w>
ec lip
Secret ary
Appe als</w>
bu gs</w>
privileg ed</w>
Verkhov na</w>
laugh ing</w>
explo ded</w>
ar teries</w>
prescri be</w>
int entional</w>
19 12</w>
optim um</w>
P AD</w>
dis appointment</w>
bi blical</w>
el e
cyber security</w>
t sunam
mar ble</w>
m align
O slo</w>
19 31</w>
prev ail</w>
caf es</w>
war nings</w>
Shakespe are</w>
p .m</w>
balcon y</w>
Sing le</w>
All en</w>
intim idation</w>
c ables</w>
1. 9</w>
sym pathy</w>
mistak en</w>
merch ant</w>
19 23</w>
standardi zation</w>
evacu ated</w>
Qu estion</w>
bit ter</w>
pre ferential</w>
aes the
W rit
Shi pping</w>
Fing ering</w>
proph et</w>
psych ic</w>
im ov</w>
sun ny</w>
whe el
3. 7</w>
Al ter
off erings</w>
honor ary</w>
ost i</w>
m acy</w>
fle e</w>
In fl
cauti ous</w>
N L
tor tured</w>
addi tions</w>
Maj esty</w>
rou bles</w>
mal nutrition</w>
explo ited</w>
pro be</w>
manus cript</w>
kin dness</w>
bl onde</w>
D etro
16 5</w>
sex uality</w>
coun selling</w>
otrop ic</w>
iz able</w>
Argent ine</w>
expe d
human e</w>
exhib ited</w>
Alban ian</w>
bur ns</w>
ar o</w>
W AS</w>
grad ing</w>
ys ical</w>
met all
go d
upgrad ed</w>
sub mits</w>
elabor ated</w>
acti veness</w>
Bel t</w>
swe et
can on
dep ths</w>
N Y
How ard</w>
ti des</w>
ar ov</w>
her d</w>
R out
Chel sea</w>
S top</w>
V IP</w>
quiet ly</w>
exten sively</w>
ambul ance</w>
la v
Ok ay</w>
bub ble</w>
Ro os
sub stitution</w>
Di ana</w>
tur ally</w>
ing ent</w>
in different</w>
Samu el</w>
Mus k</w>
Trans national</w>
p it</w>
ca thedral</w>
b ial</w>
A rist
ill iter
L ost</w>
Detro it</w>
rail ways</w>
J in
A my</w>
v a
conqu est</w>
Sol id
E arly</w>
w ells</w>
or us</w>
remot ely</w>
smar ter</w>
encryp ted</w>
com pres
Ca es
J acqu
T M</w>
Sul tan</w>
str anger</w>
liber ated</w>
mon ks</w>
mal ware</w>
Pompe o</w>
bo red</w>
Ferr ari</w>
subsidi aries</w>
affili ate</w>
5 6
socio economic</w>
awa iting</w>
min ers</w>
T op
ER S</w>
dis solution</w>
Por sche</w>
&apos; We</w>
3 20</w>
sequ ences</w>
Mag azine</w>
Ari zona</w>
19 24</w>
R ole</w>
M am
e au</w>
U ber</w>
Oc e
contex ts</w>
S ky</w>
E ffici
Pro bl
ho v</w>
1 29</w>
Bro thers</w>
un fortunate</w>
inter disciplinary</w>
6. 1</w>
Bar bad
off enders</w>
gra ins</w>
bur st</w>
hob by</w>
br ake</w>
ren e</w>
du de</w>
Gir ls</w>
war ding</w>
in er
i ff</w>
after math</w>
or chestra</w>
ho o</w>
calcul ating</w>
pl ots</w>
enzy mes</w>
tou ching</w>
lith ium</w>
jud ging</w>
Bar bar
P V</w>
sw ana</w>
ex porter</w>
declar ing</w>
spe eches</w>
liv eli
pass words</w>
t agged</w>
ili ary</w>
veget ation</w>
2 9.
th um
UNIF EM</w>
Som ali</w>
stand point</w>
w rap
instr umental</w>
Grow th</w>
inter faces</w>
dy nasty</w>
Con cept</w>
2 70</w>
epid emi
us s</w>
kov sky</w>
am ple</w>
ter rain</w>
evel t</w>
ac company</w>
th western</w>
L ov
air plane</w>
th read</w>
Pak ist
A B</w>
C ook</w>
6. 2</w>
convic tions</w>
ra in
milest one</w>
Z ur
Appe al</w>
An dor
D ag
Camp ai
Pe tro</w>
ath le
appropri ation</w>
Byz antine</w>
propor tions</w>
inform ative</w>
d al</w>
ari ous</w>
S L
off line</w>
K hal
Barbad os</w>
le y
K ids</w>
oppos ing</w>
dis rupt</w>
Im port
mod elling</w>
Frank lin</w>
W oo
ho stages</w>
L este</w>
ethn icity</w>
ultras ound</w>
dom es
vie ts</w>
ste aling</w>
cardi ac</w>
Rach el</w>
per missible</w>
Rel ated</w>
Ar n
comp elled</w>
comm ission
G lob
har a</w>
au d</w>
Yan dex</w>
su ic
B 2
avi a</w>
bre aches</w>
Mil ky</w>
neuro logical</w>
3. 8</w>
nov els</w>
cri ption</w>
en rol
Probl ems</w>
O hio</w>
lux urious</w>
kindergar ten</w>
theore tically</w>
strugg les</w>
rit uals</w>
hard est</w>
trou bles</w>
n ally</w>
guar di
resear ches</w>
Whats App</w>
Tr in
tim ber</w>
imperi alism</w>
exam s</w>
author itarian</w>
du b
alli ances</w>
Nat alia</w>
Mar kets</w>
2 12</w>
adap tive</w>
bl in
can al</w>
bur ial</w>
Cam p</w>
w ol
re produced</w>
h n</w>
merch ants</w>
anc a</w>
Margare t</w>
B att
obsol ete</w>
el essness</w>
pum ps</w>
grad es</w>
to s</w>
am ids</w>
F is
mathem ati
Roos evelt</w>
Pap ua</w>
some day</w>
righte ous</w>
Nikol ai</w>
cap sule</w>
work load</w>
15 2</w>
shap ing</w>
ap ol
ch uk</w>
ep hal
mot to</w>
m apping</w>
cl a
be c</w>
M I</w>
m ud</w>
inv aded</w>
cor ti
Stan ley</w>
Jer ry</w>
Gra ham</w>
r age</w>
depos ited</w>
cataly st</w>
Color ado</w>
inser ted</w>
M essi
T H</w>
ret reat</w>
inter acting</w>
Ur al</w>
od or</w>
cop es</w>
imperi alist</w>
U P</w>
D own</w>
ent ail</w>
condem ns</w>
Mic h
19 28</w>
deep en</w>
fam ine</w>
W ays</w>
B om
Retur n</w>
rigi d</w>
IC C</w>
l ac
inj ections</w>
ten se</w>
M L
bul let</w>
l as
We ather</w>
Psych ology</w>
trav elled</w>
contem pl
2 60</w>
og ram</w>
alog ues</w>
RE S</w>
shi fting</w>
tw ins</w>
poly mer</w>
Blo g</w>
conqu er</w>
accum ulate</w>
Mat erial</w>
S cre
4 4
he im</w>
slow ing</w>
par all
sum mits</w>
ri er</w>
s .com</w>
ex us</w>
Happ y</w>
ussi a</w>
scrat ch</w>
compl im
under took</w>
Tim o
Con tract</w>
res ettlement</w>
dist ress</w>
anti depress
S ide</w>
D uring</w>
B uc
og ens</w>
motor cycle</w>
t ent
Rob in</w>
2 7.
explosi ves</w>
ur able</w>
mer cen
b aggage</w>
quot as</w>
cor ner
agg ing</w>
b other</w>
set up</w>
M om
5. 3</w>
.. ...</w>
mon archy</w>
ipel ago</w>
do g
comm enced</w>
s ickness</w>
inc eption</w>
harmon ized</w>
influ encing</w>
Govern ance</w>
se am
le thal</w>
aspor a</w>
oc ity</w>
8 0s</w>
so ap</w>
Vir tual</w>
k arma</w>
I Z
D ji
Hind u</w>
Adv ancement</w>
19 20s</w>
FS B</w>
rele asing</w>
genu inely</w>
ros is</w>
pi g</w>
h r</w>
Bot swana</w>
NE PAD</w>
some time</w>
liveli hoods</w>
imp aired</w>
author itative</w>
e ti
I Q</w>
nav y</w>
ab undant</w>
tic als</w>
Yanukov ych</w>
Fashi on</w>
class room</w>
cler osis</w>
p oultry</w>
lit er</w>
ver te
trium ph</w>
cor al</w>
D addy</w>
13 6</w>
peculi ar</w>
it z</w>
re vo
trav ellers</w>
Chur chill</w>
ay al</w>
ul ates</w>
judg ments</w>
6 50</w>
ren al</w>
Pre vious</w>
Con duct</w>
T I</w>
paras ites</w>
2 8.
bal lot</w>
incorpor ation</w>
cur iosity</w>
organiz er</w>
f ty</w>
enc ement</w>
tran qu
shi fted</w>
S et
F S</w>
Ban king</w>
elev enth</w>
g ars</w>
sub way</w>
boy cot
mod ular</w>
L um
is ot
forec asting</w>
meth ane</w>
ren ts</w>
proce eded</w>
attr activeness</w>
Secretary General</w>
en si
pun ishable</w>
ten ure</w>
ster il
es hip</w>
re signed</w>
consul ted</w>
R T</w>
highligh ting</w>
an te</w>
cl ever</w>
c aves</w>
summar ized</w>
E d</w>
stimul us</w>
out i</w>
Xia omi</w>
v ascular</w>
con ut</w>
affir med</w>
D ro
dur ability</w>
attain ment</w>
aw ful</w>
Pro ce
Em ma</w>
att achment</w>
Baik al</w>
rem emb
Recommend ations</w>
attribu te</w>
note worthy</w>
F ish
ign oring</w>
X V</w>
presum ably</w>
M ob
g ame
am ending</w>
argu ing</w>
Py th
B anks</w>
Hus sein</w>
Con ferences</w>
Par kinson</w>
relax ing</w>
R equi
hypo the
gen y</w>
St ars</w>
Gor don</w>
Au to</w>
15 3</w>
news letter</w>
y ce</w>
ex ile</w>
bas ement</w>
g us
g astro
GD PR</w>
frank ly</w>
Saf e</w>
200 0s</w>
publis hers</w>
exc itement</w>
Grou ps</w>
bas eball</w>
car cin
analys ing</w>
formul ating</w>
J obs</w>
dr ank</w>
mo red</w>
sens ory</w>
z oo</w>
teen age</w>
gy m
cri tically</w>
tur n
advertis ers</w>
J enni
fac tions</w>
bre ath
z om
Govern mental</w>
percep tions</w>
grad uation</w>
13 7</w>
end ure</w>
Dub lin</w>
vers ati
strateg ically</w>
enzy me</w>
18 2</w>
doc toral</w>
5 7
Sam ar
IT Y</w>
gen ome</w>
el ites</w>
RO M</w>
C lo
re produce</w>
fron tier</w>
l um
an ing</w>
Worl d
Cl ose</w>
bal ancing</w>
m uc
1 31</w>
sk o
9 9.
ill es</w>
admini strators</w>
Man ual</w>
C ann
D. C.</w>
erec ted</w>
urg ical</w>
Conserv ation</w>
Sp ace
ur t</w>
Z en
cu red</w>
ex trad
medi an</w>
D ang
excur sions</w>
En h
brow sers</w>
. net</w>
al arming</w>
u ted</w>
dis advantage</w>
country side</w>
g ent</w>
rich ment</w>
le tin</w>
commerci ally</w>
LGB T</w>
pol ls</w>
á n</w>
choos es</w>
16 9</w>
och on
comm anded</w>
S ax
Academ ic</w>
ro t</w>
X box</w>
t ags</w>
c ill
Wel fare</w>
C AT</w>
equ ations</w>
brief ings</w>
mut ation</w>
y o
Fre der
slow down</w>
i g</w>
Ker ry</w>
hes itate</w>
cred itor</w>
Arab ian</w>
Enter tainment</w>
under gone</w>
Mo h
pro active</w>
Tr ans</w>
m l
addi tives</w>
fil m
G un
m ig
pa thetic</w>
umb rella</w>
op sy</w>
radi us</w>
comm and
mercen aries</w>
evid enced</w>
Bal i</w>
won ders</w>
ve to</w>
tox icity</w>
part mental</w>
dis aggregated</w>
00 0,000</w>
sab ot
irri gation</w>
br ush</w>
IC RC</w>
mon t</w>
0. 7</w>
Max im</w>
Tel egram</w>
Bi o
thir teen</w>
ini on</w>
str ar</w>
R um
S et</w>
direc tory</w>
bil lionaire</w>
at ov</w>
L os
tradem arks</w>
taxpay er</w>
n ell</w>
navi gate</w>
smil ing</w>
rememb ering</w>
n ate</w>
mor atorium</w>
ver dict</w>
grand children</w>
L Y</w>
promo tions</w>
Be fore</w>
F ul
19 13</w>
s aints</w>
oot h</w>
m enti
cred entials</w>
Frank furt</w>
inequ alities</w>
clean er</w>
y early</w>
nur ses</w>
pl ain
stu me</w>
Q ur
ch a</w>
Equ al</w>
re dress</w>
pandem ic</w>
14 1</w>
j e</w>
p al</w>
out let</w>
ren ted</w>
id ad</w>
comm encement</w>
for ci
EF A</w>
Czechos lo
Cathol ics</w>
Met al</w>
Gu ang
- I</w>
ri gorous</w>
sul es</w>
astronom ical</w>
Pho en
fa una</w>
en doc
nic otine</w>
&apos; cause</w>
prohib iting</w>
b ucks</w>
tr icks</w>
fre ed</w>
comm ent
S hen
astronom y</w>
lo wered</w>
Chro me</w>
Cent ers</w>
ar ism</w>
under mining</w>
D ave</w>
univers ally</w>
tru st
sh ells</w>
n ail</w>
war t</w>
respon ds</w>
Ku z
idi ot</w>
rob bery</w>
special izing</w>
L earning</w>
M AR
T ech
un paid</w>
pay able</w>
appe aling</w>
authentic ity</w>
ep i
cos mos</w>
atic al</w>
O liver</w>
re built</w>
v om
stake holder</w>
jum ped</w>
hero in</w>
X II</w>
Mar vel</w>
tun nels</w>
ish i</w>
gall eries</w>
secre tly</w>
ION AL</w>
Reli ef</w>
bas ket</w>
Fol low</w>
esti al</w>
Ang el</w>
thir dly</w>
ong yang</w>
k en
eigh teenth</w>
pro secuted</w>
be ating</w>
princ ess</w>
inc umb
vo iced</w>
ate way</w>
hei ghts</w>
in tru
fair y</w>
SQ L</w>
Jos é</w>
B ap
under takes</w>
n ai
Vic tims</w>
CER D</w>
don ated</w>
he igh
N B
Ac counts</w>
Y ellow</w>
UNIF IL</w>
I B</w>
Con temporary</w>
en vel
author ize</w>
IO C</w>
mon sters</w>
impl ements</w>
Eff ects</w>
eleph ant</w>
Sci ent
j ets</w>
fut ures</w>
dead lines</w>
Maur it
crow ded</w>
D habi</w>
4. 6</w>
13 9</w>
inspec tors</w>
sp a</w>
propos ing</w>
[...]
