</S>
,
.
в
и
на
&quot;
с
@-@
-
для
)
(
:
не
что
по
/
к
вы
о
как
из
это
я
мы
от
или
за
а
?
если
чтобы
но
он
ный
то
;
1
также
R@@
все
у
ты
ский
S@@
ки
его
P@@
B@@
которые
L@@
ные
N@@
2
года
ная
T@@
т
так
a
ка
D@@
M@@
р
n@@
может
их
во
статьи
K@@
3
G@@
они
!
H@@
o
C@@
более
4
же
том
до
за@@
F@@
k@@
быть
ли
км
O@@
i@@
между
&gt;
можете
только
не@@
те
качества
время
когда
н
2@@
США
b@@
будет
p@@
h@@
s@@
ка@@
e
10
ли@@
4@@
3@@
d@@
5
W@@
i
t@@
V@@
вам
того
l@@
есть
&amp;
является
5@@
A@@
E@@
л
при
был
С@@
было
бы
О@@
c@@
м
дии
%
6@@
m@@
та
Википе@@
про@@
лет
ное
e@@
et@@
a@@
со
7@@
...
6
можно
она
отеля
города
году
9@@
s
m
y@@
8@@
ной
по@@
этой
информация
&#124;
очень
у@@
er
этом
До@@
на@@
ди@@
+
D
u@@
языке
7
ее
популярности
д@@
да
чем
12
других
назад
По@@
8
который
g@@
ла
J@@
могут
были
сегодня
B
г
данных
А@@
список
этот
после
ло@@
лла@@
погоды
д
а@@
П@@
без
об
этого
всех
ш@@
вас
должны
больше
er@@
В@@
U@@
r@@
йский
.@@
f@@
Вы
тный
A
v@@
имени
Подроб@@
ре@@
ру@@
ко
ко@@
качество
пожалуйста
CO@@
_
C
o@@
была
en
карте
ская
с@@
y
английском
та@@
баллов
ва@@
т@@
найти
ar@@
I@@
к@@
20
ни
о@@
U
ком
in@@
прогноз
MP@@
15
разных
ях
Ка@@
R
NE@@
где
Т@@
ра
то@@
9
наиболее
L
уже
ных
0@@
ник
ти@@
ности
вы@@
имеет
K
ного
еще
X@@
1@@
z@@
нет
Z@@
ж@@
F
at@@
ться
нас
TS
нужно
здесь
ма@@
c
вая
ны
2020
области
б@@
тем
е
У@@
другие
Объединенных
Наций
па@@
мне
ном
ем
ль
ро@@
человека
си@@
Организации
Ко@@
el@@
in
Ф@@
меня
со@@
мо@@
верси@@
11
но@@
en@@
ром
Y@@
эти
ри@@
языковых
истории
al@@
or@@
них
an
те@@
м@@
j@@
вый
онлайн
ви@@
to
х
времени
ло
И@@
которая
просто
оттен@@
кто
ным
ция
it@@
30
льник
нам
$
себя
всему
ле@@
до@@
ни@@
один
развития
T
бо@@
18@@
людей
пере@@
через
погода
il@@
an@@
ма
w@@
цве@@
всего
са
данные
as
вые
помощью
даже
E
Ба@@
*
свои
1.@@
стиль
P
женщин
расстояние
es
10@@
укра@@
Б@@
00@@
услуги
будут
01
хотите
год
да@@
популярность
ке
бе@@
однако
под
шение
К@@
Ch@@
IP
ing
графи@@
фамилии
выбрать
де@@
й
похожие
ла@@
18
ль@@
обра@@
Пере@@
ском
ской
d
t
000
тор
например
работы
день
ва
ф@@
перевод
ами
16
Д@@
вопрос
N
жизни
пе@@
ров
посмотреть
чему
M
результаты
при@@
S
под@@
ю
н@@
я@@
Ру@@
сейчас
безопасности
доллар
г@@
городами
п@@
теперь
on
ба@@
on@@
курса
са@@
am@@
в@@
з
ia
25
I
ве@@
Y
М@@
обмен@@
0.@@
хо@@
0
ческий
Ма@@
льная
системы
карта
р@@
ми@@
качестве
50
популярными
дней
таблицу
своей
валютного
ro@@
добавили
ры
либо
нагля@@
ную
ч
ol@@
купить
Ту@@
Ре@@
14
пла@@
йти
ду@@
образом
f
несколько
сделать
см
n
ра@@
связи
оценки
Центр
ство
ещё
На@@
кой
де
каждый
являются
информацию
отели
ку
человек
x@@
ку@@
значение
ское
тор@@
пу@@
этих
°
400
следует
Ш@@
детей
ме@@
л@@
страны
ские
ch@@
го@@
находится
английский
re@@
таблице
мм
х@@
тый
HO@@
Э@@
от@@
тель
нее
чная
ными
ть
17
долгосрочный
п
&apos;
тные
расстояния
группы
k
поэтому
потому
17@@
g
свою
ad@@
отношении
Де@@
се@@
льный
там
которых
люди
ча@@
знаете
раз
100
H
соответствии
ту
ту@@
номер
стран
24
13
сайте
ec@@
деятельности
течение
Н@@
таких
as@@
ние
le
of@@
20@@
чный
много
З@@
него
случае
им
городе
лка
эта
40
жа@@
ф
es@@
поиск
G
лась
16@@
13@@
мира
Бес@@
ун@@
льные
O
месяц
id@@
Про@@
›
Г@@
al
The
которое
компании
прав
кроме
информации
че@@
2019
су@@
ша@@
el
мире
цена
ши@@
21
щей
га@@
права
перевести
quot
пия
базе
йская
конвер@@
некоторые
и@@
19
осуществлять
14@@
В
X
st@@
всегда
з@@
искать
га
сказал
ra@@
2.@@
12@@
лет@@
й@@
l
ца
являетесь
должен
получить
дом
ap@@
рядом
Для
би@@
Hotel
своих
ov@@
ot@@
новый
u
22
3.@@
US
ше@@
Л@@
значения
h
электронных
15@@
ей
включая
ш
&lt;
миллиардов
цены
&#93;
тировать
Та@@
&#91;
оценка
За@@
компонентов
ic@@
вот
ю@@
сти@@
un@@
лись
видео
om@@
решения
России
ете
е@@
зи@@
ab@@
возможность
ur@@
бу@@
тели
такие
ки@@
б
is@@
раз@@
Р@@
5.@@
связыва@@
имена
внимание
ri@@
использования
пло@@
рамках
показать
бесплатное
совокуп@@
во@@
формулы
э@@
28
проси@@
Ку@@
ac@@
#
принадлежности
адрес
забронировать
ванная
храня@@
00
против
партнё@@
вопросам
почему
ь
шка
проб@@
тки
поставщиками
ля@@
тов
ний
тка
тер@@
6.@@
партнёр@@
город
похо@@
дня
ou@@
ния
другой
кру@@
лы
части
работает
пи@@
цвет
компания
ес@@
статья
комната
чные
использовать
нер
хотя
рас@@
показатели
ar
ют
вать
быстро
ди
которой
таким
4.@@
которую
and@@
стороны
ским
вой
место
тного
тех
норма@@
необходимо
ет
IN@@
чи@@
ками
час
код
сравнения
7.@@
многие
свой
ского
рассчитать
лся
числе
Ю@@
одного
ней
государства
новые
вает
типа
ти
около
другим
Республика
два
помощи
is
новых
em@@
всем
30@@
ек@@
ath@@
никогда
льский
обслуживания
управления
23
неде@@
ну
ent@@
ход
Ве@@
бре@@
можем
билеты
ницы
период
лучшие
хорошо
Ра@@
ста@@
USD
поскольку
ска@@
ственная
Sh@@
жизнь
at
менее
ле
же@@
тебя
няя
особенно
ков
т.
ному
той
St@@
ции
Х@@
скачать
Ди@@
V
Мо@@
одной
ag@@
•
лизован@@
обеспечения
гостиницы
60
x
ность
Ви@@
отзывы
ему
сы
b
дома
тер
ги@@
любой
пре@@
W
or
продажи
ik@@
вос@@
ст@@
We@@
ваш
размер
os@@
ги
цене
три@@
Al@@
Ч@@
ри
ak@@
et
сты
основе
именно
часть
возможно
игры
мой
стране
тная
Инди@@
кая
наших
шта@@
воды
лу@@
перед
AP@@
est
одним
гу@@
тен@@
наша
многих
am
нами
комиссии
ir@@
какие
меры
8.@@
выше
решение
z
27
2018
Ро@@
Ц@@
кар@@
lt
ха@@
го
сессии
целей
климате
отель
отеле
вым
увидеть
похож
целях
своего
резолюции
программы
фе@@
йте
ь@@
мер
проблемы
9.@@
говорит
се
Ду@@
26
фото
Совета
19@@
кон@@
Кон@@
нашей
вых
ы
инструкции
имеют
па
вместе
ed@@
Са@@
.com
организации
государств
автомоби@@
большой
ad
ed
2017
сто@@
аэропорт
имя
такой
лишь
пользователя
ческая
об@@
2021
С
собой
тский
три
ческие
25@@
определение
вое
эту
ж
над
этим
среди
ic
количество
ответ
аб@@
ut@@
приложение
06
Комитет
us
группа
IS
вание
Се@@
ul@@
ig@@
жная
ющий
Со@@
виа@@
фильм
работу
03
иметь
курс
Q@@
Atl@@
авиа@@
фон
цвета
всей
полностью
лучше
момент
происхождения
которого
тельных
80
машина
тами
частности
пока
емый
ip@@
экономи@@
Просмот@@
стоимость
факты
45
35
ходе
устройства
зор
право
система
стоит
черный
чать
чик
тра
согласно
Откры@@
ских
апте@@
пле@@
ня
уровне
товара
24@@
05
г.
помочь
компаний
ках
ре
расчет
наши
gt
лин@@
ется
делать
должна
различных
новая
гра@@
себе
ин@@
кан@@
От@@
od@@
стали
le@@
обо@@
вопросы
дизайн
эта@@
членов
фи@@
ниже
лиц
часто
Си@@
ep@@
31
вашего
интересные
двух
му@@
28@@
веб
Ли@@
Ме@@
А
вом
туа@@
Q
странах
ним
скую
ровать
тогда
p
средств
защиты
детали
вами
слова
ЕС
месяцев
мир
проект
вого
первый
одно
32
ница
странице
К
кро@@
дво@@
воздуха
рах
действий
какой
стол
55
пункт
ow@@
целью
жа
тельный
помогает
оно
Теле@@
другими
душ
филь@@
ion
правительство
нные
Па@@
Ван@@
ik
29
сте@@
Мар@@
ются
песен
действительно
Соб@@
следующих
доклад
работе
тельные
sp@@
нашем
кий
То@@
-@@
Ша@@
im@@
зо@@
гов
нь
ill@@
ay@@
Е@@
могли
тельная
us@@
тивный
исполнении
uc@@
разница
ден@@
страница
роль
могу
настоящее
тот
ay
ань
ющие
услуг
ang@@
обмена
жности
вер@@
голо@@
ваши
Кро@@
хочу
ы@@
большинство
тся
точки
ники
50@@
чка
бизнес
Кита@@
жи@@
av@@
участие
маршрут
должно
co@@
IP@@
версию
совместимости
de
населения
Домини@@
украшения
китайский
ore
os
Конвенции
деле
Фе@@
пользователей
Республики
знаю
шки
um@@
чки
iv@@
ing@@
зрения
льной
мере
всё
затем
ant@@
нравится
Бу@@
Ска@@
территории
поли@@
Китай
центр
гар@@
степени
нашу
ющая
международного
Су@@
th@@
многим
бумага
90
почти
часы
сколько
and
цы
Я
изменения
ок@@
ме
существует
поня@@
центра
И
Ап@@
mp@@
одна
Германия
Ma@@
возможности
аэропорта
некоторых
самых
08
Se@@
ну@@
осуществления
тра@@
ля
средства
основных
амери@@
sh@@
обно@@
платье
проекта
Боль@@
результате
ци@@
цель
мини
кры@@
70
используется
уровень
ст
канская
Россия
свое
вал
означает
тно
тебе
отелей
Соединённые
est@@
годы
Ж@@
ми
№
Южно
лов
aw@@
ob@@
тных
сотрудничества
часа
фа@@
политики
Корей@@
совместимость
ничего
наш
языках
белый
емая
Генеральной
ье
Норве@@
топлива
Ми@@
международных
лучший
исполни@@
помощь
расположения
ями
над@@
цио@@
29@@
серви@@
такое
сервисы
500
проблема
стать
Генерального
чай@@
io
уровня
деше@@
объявления
работать
Новой
температура
oun@@
ды
кого
ними
светодиод@@
кра@@
операции
нный
модель
месту
пер@@
Чи@@
Ле@@
опто@@
обычно
Ча@@
Mar@@
важно
экраном
це@@
образования
Пе@@
вашей
руководстве
секретаря
последние
..
чего
рованный
сказать
oo@@
лю@@
ал
другое
Франция
ib@@
музыку
своем
r
тора
лен@@
Бо@@
Гости@@
04
процесс
разделе
Sc@@
48
цию
ресурсов
действия
чной
Apart@@
котором
исследования
рь
36
све@@
простого
ООН
пление
op@@
узнать
При@@
свет
Но@@
all@@
ена
ан@@
спо@@
своим
предложения
продукты
ван@@
данном
тя@@
лось
тной
принять
му
знать
групп
количеством
параметра@@
ба
скорость
200
BO@@
75
обеспечить
ге@@
ким
ie
отметить
текст
рейс
составляет
мужчин
думаю
ц
гу
вки
ско@@
сайт
доставка
вин@@
её
новой
ван
нов
располо@@
поддержки
2000
вания
Брази@@
вали
ine
др
добавьте
ман@@
CA@@
2015
Британ@@
теле@@
супермарке@@
легко
обратную
часов
Не@@
тому
правительства
дорог
гно@@
33
дело
пользователь@@
благодаря
Зеландии
пор
Ла@@
2010
of
развитие
достопримечательности
жан@@
нем
тоже
ке@@
зависимости
Ваш
слишком
мен@@
пли@@
наблюда@@
шабло@@
пи
ческой
ветер
кор@@
2016
Нью
прежде
мульт@@
производства
усилия
ющих
стомато@@
решить
итальянский
самом
сло@@
продажа
производителя
2012
деньги
этому
цией
прибы@@
рез@@
AN@@
контактные
доступ
ду
войны
ен@@
ак@@
исполнителей
определять
стер
проблем
представлена
достаточно
Sp@@
40@@
из@@
og@@
одежды
2014
относительно
ника
ски
несмотря
eb@@
OR@@
Га@@
Я@@
Ха@@
водо@@
воз@@
теля
гостинице
ую
ряд
дорогу
Да@@
42
стал
декабря
PL@@
деятельность
2011
ter
2008
анализ
AR@@
AL@@
использование
материал
власти
ter@@
автомобильных
02
тах
меню
рования
дер@@
музыканты
форм
USB
посеща@@
ex
ребенка
играть
2013
Му@@
ложение
позволяет
Отели
Безопасности
женщины
зна@@
сможете
ул.
больницы
ск
самым
ER@@
ваться
заключается
определения
тые
технологии
23@@
поток
регионе
нии
Украины
сети
ран@@
ц@@
мая
кое
it
ot
34
мар@@
сом
валютный
ist@@
десяти@@
язы@@
синий
самые
предложение
AS@@
руководство
данной
плат@@
лки
льных
ум@@
второй
вается
вают
лей@@
женном
трудности
2009
лица
чных
ч@@
поддержку
создания
красный
увидите
тон@@
Ян@@
рованные
ty
гек@@
iz@@
туры
много@@
конечно
ча
3D
ell@@
си
ческого
52
Ар@@
ря
тро@@
касается
тру@@
ch
главная
друг
организаций
правам
ья
qu@@
путем
новом
представить
бесплатно
дешевые
гостей
ха
найдем
37
положения
лан@@
.1
чение
высокое
вариант
38
убедитесь
ES@@
лом
Совет
плака@@
Th@@
вниз
Комитета
09
страницу
прин@@
ай@@
клиентов
представляет
eg@@
Android
двумя
Фран@@
ктор
хотел
кре@@
60@@
An@@
He@@
Кар@@
бук@@
О
цели
Раз@@
самый
ческое
тное
телефон
ё@@
чий
сами
39
CN@@
ub@@
фотографии
фо@@
II
07
сум@@
вашу
частью
RU@@
Би@@
поло@@
далее
проведения
ведь
условия
ис@@
лл
каналы
кле@@
документы
51
хи@@
нажмите
шите
англий@@
Ин@@
рия
ро
Su@@
емые
торы
программ
рованная
число
месте
ванной
44
документ
условиях
гор@@
места
41
Бе@@
Ри@@
Пя@@
26@@
две
условии
энергии
Fl@@
рен@@
ент
органов
конце
случаях
название
площади
Ассамблеи
ment
общества
давление
ge
лог
немецкий
вашем
чного
большая
зарегистри@@
правило
опыт
происходит
Ar@@
самую
43
рует
сон
нового
Кор@@
различные
46
слова@@
будем
заявил
2007
находятся
людьми
ге
дли@@
зе@@
опи@@
здоровья
первые
июня
долларов
отношения
one
64
56
процесса
EC@@
поездки
Поль@@
Германии
2006
кт
самое
окружающей
минут
Мин@@
тельной
греческий
транс@@
Другие
нескольких
рю@@
99
ман
Комиссии
ческим
Росси@@
сам
49
2005
решений
диск
контроля
вопросов
предоставляет
торговли
ческих
RE@@
чную
льное
заря@@
тельное
ер@@
ру
приобрести
русский
устройство
дети
волос
ev@@
сть
виде
одежда
ранее
каждого
создать
процентов
международный
продуктов
65
женские
использовали
дать
ang
среды
54
оружия
ат@@
́
поделиться
art@@
развитию
az@@
ства
начала
жные
PS@@
37@@
щая
представления
номера
дов
терминал
льного
if@@
ций
Под@@
уда@@
Сан
ast@@
ву@@
английского
делает
oc@@
ря@@
которым
вид
80@@
силы
кла@@
Fi
Be@@
чи
ска
сфере
товой
ств
w
ard
жный
пар@@
касающихся
Ти@@
27@@
июля
работа
ers
Япо@@
микро@@
нская
59
Го@@
использовании
Япония
Пи@@
президент
жен@@
стра@@
недели
Китая
отправляется
Чер@@
товые
Новый
тол@@
сен@@
чер@@
телефона
обеспечение
тип
IC@@
силу
чь
цен
само@@
ленный
целом
машины
вопросу
ве
анти@@
35@@
песня
пути
36@@
нашего
счет
вка
перевод@@
способ
детально
Z
пол
моя
проблему
кожи
сентября
проектов
нибудь
категории
ra
Gu@@
систем
доступа
снова
Qu@@
Re@@
высокая
линии
47
сного
дные
300
автомобиля
ста
ски@@
ситуации
образовательных
шать
57
простой
документе
надо
ессиональ@@
--
компа@@
англо
Проф@@
мог
Лю@@
определя@@
телем
найдете
ды@@
технологий
инструк@@
самолет
применения
иногда
Пла@@
корот@@
важную
гре@@
дам
Солнца
дный
тая
Google
Те@@
такого
октября
Во@@
De@@
содержание
гру@@
2004
чу@@
учетом
sk@@
тите
бан@@
кам
государство
игра
стен@@
Т
создание
пользователи
Co@@
показывает
200@@
исследований
Ан@@
Об@@
ah@@
ение
выми
примерно
оборудование
достижения
внутри
расположен
ud@@
v
миллионов
питания
продукт
национальных
программа
можешь
Польши
семьи
лу
жи
Европы
последнюю
сме@@
файл
сотрудников
Отель
ланд@@
рейтин@@
одном
щие
рование
тура
J
кие
дел
Ph@@
Мекси@@
большие
выбирать
сти
эн@@
французский
he@@
муж@@
М
ноября
Ки@@
связанных
Ва@@
ide
чном
авто@@
сокращений
MA@@
данным
Le@@
кур@@
жить
ником
age
кроется
необходимости
оста@@
аксессуары
четыре
вляются
трех
Car@@
фу@@
долл
ев
ления
корей@@
лам@@
изображение
сы@@
ников
53
продаже
первой
января
значит
набор
борьбе
какого
de@@
стро@@
ще@@
58
кс
Австра@@
функций
AC@@
менты
большое
документов
ваются
тры
модели
Cl@@
соответствующих
любовь
вол@@
линий
22@@
пы
000@@
лей
Холо@@
шь
бар
меньше
самостоятельно
розо@@
комитета
ai
мест
изображения
Mon@@
цар@@
ation
дает
ление
кли@@
реализации
Сти@@
функции
ваших
одно@@
формы
немецком
данный
отличи@@
TH@@
Америки
ты@@
бизнеса
тельного
ST@@
высокого
паль@@
члены
чным
принятия
ор@@
Рабо@@
тин@@
получения
стиле
международной
электро@@
ا@@
роста
видов
футбо@@
Укра@@
сайта
ток
пять
новое
экран
немного
сотен
подготовки
34@@
т.д
марта
чное
хотят
спор@@
включает
тю@@
телей
Tr@@
рынке
авторов
лучших
миру
образование
ков@@
pl@@
хочет
лен
2003
СТ@@
участников
неделю
Д
CM@@
буду
переводов
экономики
мото@@
ers@@
ina
обувь
моей
управление
тельным
никто
систему
прямо
10.@@
льным
история
труда
лечения
гла@@
вновь
раль@@
форме
ответственность
тар@@
комплект
Турец@@
состоит
ющим
ate
будете
ro
Европе
косме@@
символов
зеленый
чуть
мгновенно
варианты
пода@@
au@@
ph@@
é@@
дополнение
фин@@
ностью
рост
дро@@
расход
РО@@
говорят
йской
мор@@
ach@@
продукции
план
кажется
испанский
68
Вен@@
Вт
72
кровати
общего
вар@@
социальных
сил
38@@
61
99@@
вя@@
ер
85
ющего
движения
лли@@
La
вся
ционным
ша
приложения
стала
подходит
моделях
результат
апреля
ью
щий
редких
ственные
ect@@
высокой
мо
зульта@@
Элек@@
всю
другом
95
девушка
элемент
цев
говорить
гом
рекомендации
Аль@@
CH@@
illa
тела
pr@@
вен@@
проверить
состоянии
автобу@@
лами
нной
брю@@
используют
статье
держа@@
предлагает
66
зы
тивная
номером
первых
см.
Италия
апартаменты
доро@@
зу@@
годов
иностранных
Высо@@
материалов
точный
все@@
начать
предлагаем
ценам
щение
кровать
Ло@@
ваше
2002
продолжать
HD
службы
выбор
процент
привлека@@
рский
ито@@
португа@@
здравоохранения
рованы
жая
интернет
месяца
тысяч
бес@@
йн
тен
процессе
координа@@
услугам
кухня
никаких
шаги
ó@@
end@@
нский
63
конференции
всеми
получите
ong
необходимость
пункте
600
экономического
ard@@
all
воло@@
2001
оборудования
провод@@
организация
pp@@
сов
Гонкон@@
AT@@
Зна@@
животных
становится
принимать
постоянно
Pl@@
тон
разработки
ana
ар@@
света
порядке
очередь
кожа
случаев
срок
порт
тические
добавить
емых
бар@@
сту@@
Пу@@
скорее
возможностей
девочек
нных
рестораны
доклада
понять
поставщики
представлен
=
Соединенных
атмосфер@@
вес
дюймов
сле@@
ры@@
говорится
жена
сви@@
задать
ok@@
отметил
электронной
Вас
ин
Res@@
сотрудничество
прежнему
свяжитесь
Фи@@
бро@@
камера
вала
положение
ня@@
путь
ровка
изделия
Польша
Че@@
тр
экспертов
ческими
iPhone
Азии
класса
Телефон
множество
мной
11.@@
докладе
слово
людям
спа@@
ющей
𝐄@@
𝗘@@
Ⲉ@@
хин@@
последний
легкий
рый
основные
непро@@
тесь
ica
🅴
вокруг
BP
карты
сад
районе
прода@@
49@@
двигателя
дисплей
ВА@@
условий
стало
правила
Х
каждой
собственностью
пор@@
море
иллюстра@@
су
довольно
45@@
продается
тай@@
автомобиль
пред@@
Международный
потенциала
дополнительные
ско
ell
установить
денег
тным
Швей@@
62
венгер@@
названия
ением
сильно
Samsung
рабочих
ies
системе
вую
рынка
находитесь
польский
ice
покрытие
протяжении
пределах
12.@@
заседании
высоким
чивания
re
впервые
общей
начале
ответственности
ent
рам
сные
поддержка
ении
следующие
станет
фа
большую
ней@@
получил
точно
стратегии
бри@@
Сингапу@@
á@@
достаточной
отношений
бло@@
Вы@@
основном
любого
чно
практически
каких
норвеж@@
советы
верх@@
мер@@
следующее
фран@@
ген@@
товаров
возрасте
говый
ow
количества
Por@@
выполнения
ночь
ry
П
инструмент
идентифика@@
Четвер@@
Pro@@
67
ite
века
Bl@@
рами
февраля
сделал
центре
национальной
ek@@
лучшее
ению
натураль@@
весь
дела
процедуры
Wi
il
участия
любое
вообще
ma@@
Вам
смерти
покупки
ran@@
числа
вании
У
Ор@@
улице
сор@@
гораздо
скла@@
RA@@
90@@
мое
голланд@@
марке@@
заинтересованы
жение
цифровой
SE@@
отношению
Сей@@
нержавеющей
op
сравнению
важны
своими
тек@@
борьбы
использованию
одну
77
граждан
остается
длина
Вин@@
ass@@
ID@@
блу@@
без@@
39@@
Ги@@
70@@
элементы
культуры
Суб@@
будущем
пен@@
рик
единственным
первого
IR@@
сталь
th
влияние
сили@@
комитет
связанные
самой
Великобритании
As@@
играет
пря@@
передачи
HD@@
совершенно
сразу
ey
мировой
жих
индекс
часо@@
Bluetooth
нная
тан@@
ница@@
провести
дной
Российской
полный
обратите
тро
te
нт
хранения
тонны
представителей
Супер@@
страна
словам
безопасность
контроль
точ@@
финансовых
результатов
периода
als
форма
XX@@
такая
ческую
испанском
amp@@
uk@@
тери@@
кондицио@@
Испания
производство
наконец
ess@@
остановиться
скими
закон
поводу
вшийся
id
стоимости
млн.
изменить
августа
уз@@
бесплатная
нской
автомати@@
Пор@@
вместо
цам
требует
Председателя
мом
домаш@@
Крас@@
ем@@
вдохновение
ческом
иг@@
коно@@
продукта
NO@@
считает
версия
соглашения
ion@@
Лу@@
цами
потом
промышленности
пок
исследование
Е
обучения
спе@@
насколько
бор@@
мы@@
Конференции
рии
вов
вещи
вет
ваша
Par@@
Cas@@
эффективности
идет
расходов
ech@@
видеть
ищете
Un@@
пропор@@
тексто@@
ционный
категориям
серии
пункта
son
пласти@@
посетили
разме@@
сла@@
1999
нельзя
содержит
ши
мои
штате
недавно
операций
бы@@
льно
почки
широ@@
защите
куп@@
ум
млн
рос@@
представитель
покупает
метр
игре
регистрации
раньше
ян@@
рынок
товары
шей
стан@@
социальной
вить
экономической
Хо@@
язык
крайней
посредством
дка
получится
прошлом
Австралия
нию
Ни@@
дискриминации
известно
зия
торов
ex@@
Федерации
вро@@
политических
рей@@
описание
лицо
IS@@
Индия
мский
пра@@
наше
повестки
защи@@
TR@@
In@@
нару@@
la
член
пол@@
af@@
сь
ust@@
руют
мероприятий
800
магни@@
ff@@
закры@@
аль@@
ron@@
секс
региона
отде@@
Pro
он@@
дра@@
государственных
El@@
лия
автомобилей
ПУ
методом
76
11@@
био@@
Информация
виду
Сан@@
металли@@
wor@@
состав
OS
подо@@
AU@@
88
эквивален@@
мнению
переводы
РЕ@@
ian
знает
рождения
1998
сказала
for@@
ени@@
значительно
суд
крови
нау@@
ения
ann@@
рные
насилия
мол@@
факт
основной
Ста@@
народов
оп@@
шо@@
Facebook
расчета
лон
прозра@@
зависит
джа@@
президента
странами
ху@@
сведения
Ex@@
пин@@
латин@@
стены
обязательств
сни@@
Украине
нг
материалы
советов
ковое
ям
отмечает
ce
учреждений
рованных
лампы
подробная
ственный
ind@@
Джа@@
туре
land
повышения
шая
брасле@@
ющее
DE
бра@@
офисов
любом
LED
спасибо
знаем
На
осуществление
сообщения
33@@
кри@@
объем
поиска
69
самого
длину
Азия
48@@
150
контексте
кабель
которыми
вероятно
House
ug@@
нок
1000
€
ES
щих
мя@@
местах
максимальная
ain@@
Пер@@
Con@@
бка
Porn@@
роли
ручной
сердце
ос@@
Br@@
товый
UN@@
порта@@
широко
пара@@
собственных
загрузить
поддерживает
представители
Р
первую
um
рован
йки
любые
языка
билетов
тия
камеры
противо@@
полной
ребенок
красного
фото@@
печати
областях
разделить
технический
Франции
развивающихся
сер@@
туда
раза
73
щи@@
Тран@@
55@@
нах
лазер@@
хи
слом
1995
требуется
билета
мати@@
подходящий
Ге@@
речь
комнат
Wh@@
хотели
сих
Комиссия
Стра@@
обеспечивает
игр
экономических
Гу@@
соответствующие
захочет
хлоп@@
вода
обзор
просмотреть
Гла@@
ton
следующий
готовы
получаем
ru@@
игрушки
непосредственно
стер@@
Вер@@
da
нико@@
вероятностью
Кур@@
LE@@
PR@@
рассмотрения
our@@
нения
лья
суда
тре@@
TO@@
визо@@
разработке
женщина
вших
сообщества
вина
96
жной
красо@@
ity
облегчить
стные
yp@@
дан@@
пользователями
декора@@
ox
домо@@
фер@@
III
наличие
полная
нормы
род@@
ткань
ен
турецкий
Бог
хотим
стов
РИ@@
друга
AR
стой@@
вести
лях
ся@@
костюм
лок
подобной
SA@@
город@@
це
стре@@
уч@@
ший
аккумуля@@
сторон
помимо
клавиа@@
расходы
жения
министр
льными
подарок
ight
виды
события
82
se
ниях
размеры
усилий
бесплатный
Южной
женский
фона@@
Inn
двери
финансирования
ешь
од@@
каким
характер
ess
лые
Home
ткани
92
тут
би
женская
71
ong@@
получили
ционных
жителей
эффект
принял
друзей
привести
жки
лем
ровали
ровки
мон@@
таблица
уго@@
пы@@
призывает
1994
работают
использованием
ров@@
свети@@
станция
Штатов
необходимые
гри@@
инструменты
вьетна@@
0,@@
ща
DE@@
1997
мера
ts
предложений
образуются
нным
84
эк@@
считается
изменений
Микро@@
ГИ@@
требования
ie@@
вер
грузо@@
79
ПК
товых
персонала
отдельных
коро@@
нием
емой
применение
последствия
ia@@
предоставить
мать
руйте
национального
содействия
спла@@
Ке@@
зеленого
обеспечению
партии
нар@@
установки
устойчивого
заме@@
заказ
вклад
существуют
обратно
нашим
гер@@
Min@@
интересах
режиме
теле
состояние
заброни@@
ща@@
совсем
льном
участники
86
днев@@
определить
коло@@
арабский
бер@@
зы@@
простран@@
искусства
сеть
81
видом
ue
ресурсы
мас@@
считают
количеству
ur
зи
78
ционные
меж@@
внимания
Великобритания
риск
поможет
подобным
СП@@
динами@@
весьма
шие
Интернете
ij@@
говорил
летний
яр@@
отсутствие
свободы
гости@@
56@@
Bi@@
лы@@
горо@@
подход
главным
алюминие@@
чок
дное
цен@@
нему
47@@
oy@@
юго
форму
Сен@@
Am@@
250
ure
кофе
особенности
ден
лии
председатель
назначения
Украина
46@@
ka
действие
ряда
1996
упоминалось
минимальная
анализа
me
заявление
размере
плен@@
бассейн
ИЗ@@
покры@@
98
AM@@
используя
LO@@
щим
ber@@
принимает
бле@@
жка
сотрудничестве
область
проница@@
связаться
ими
очки
миль
потребностей
мероприятия
Бер@@
ack@@
свежий
ver@@
сообщениях
ье@@
ству
климата
запа@@
bl@@
кг
По
мяг@@
Cor@@
окна
мин
положений
влажность
арен@@
скому
Бар@@
телевизор
бесплатного
ta
стом
74
осуществлении
уникальный
бума@@
проведение
Штаты
туру
иллюстрации
независимо
руки
ID
лко@@
ющими
связь
казах@@
момента
ят
Ag@@
Бель@@
украинский
дополнительных
цветы
ющихся
политической
делают
Европейского
рованной
бюджета
образ@@
книги
ваем
поду@@
понрави@@
цикл
лож@@
Мон@@
игрока
глаза
адап@@
справа
осуществлению
школы
Пре@@
рассмотрение
новую
поддержке
зона
здоровье
зм
льную
120
тивные
данного
тера
рода
Pr@@
Индии
Н
зада@@
цену
нужен
странам
термины
шка@@
поблизости
директор
кабе@@
международные
типы
письмо
om
организациями
IE@@
газа
лета
смы@@
товар
членами
правил
загру@@
Г
Японии
вопроса
q@@
гражданского
другого
ort
правда
источник
лла
трудно
союза
ясно
дальше
Это
завтрак
Африки
будущее
мед@@
размещения
ожидается
наи@@
дж
открытый
стру@@
государствами
детям
хло@@
современный
Ассамблея
файла
Хар@@
одновременно
лина
500@@
Северной
знаешь
проекты
Апарта@@
поме@@
обработки
первая
АТ@@
ЗА@@
спи@@
кер
информацией
Б
бо
так@@
ah
чески
щ@@
обязательства
диа@@
Рас@@
делам
правах
инвестиций
anc@@
народа
TE@@
руется
гой
дета@@
плана
позволит
обла@@
горы
тельными
продаж
военных
Ap@@
зоны
звонок
хороший
взрослых
месяцы
Apple
ens@@
ядерного
улучшить
шаг
свадеб@@
первым
Программы
дви@@
люблю
j
цветов
железнодоро@@
билет
97
the
ix
сохранить
доста@@
удалось
Корея
стве
вные
шт
повседнев@@
метров
Международного
ученые
любви
защита
100@@
знают
Кла@@
двойной
тический
Канада
удоб@@
Китае
телями
плане
by
ack
En@@
отзыв
взять
каза@@
обслуживание
обязательно
Ак@@
соответственно
рована
состояния
мный
пара
настоящего
куда
ace
тную
Украин@@
специалистов
укрепления
поч@@
Nor@@
памяти
смогли
шесть
дина@@
начало
йтесь
вашим
спаль@@
пто@@
ством
закона
желаете
و@@
основным
короткие
важным
ET@@
SS@@
ПВ@@
Как
квартир
валют
man
высокий
отец
пособие
ровая
93
объектов
ез@@
Дополни@@
ковой
кому
тельную
органы
ast
тело
кана@@
рассмотреть
чаще
циями
волосы
ровал
пись
проживания
тысячи
рованного
Киев
94
шем
Евро
общий
нение
вне
супер@@
Ad@@
сделали
хорошая
−
Bar@@
полиции
источников
следить
ino
91
дизайна
чения
бе
комплек@@
глава
координации
Л
таж
призна@@
насе@@
руба@@
Тер@@
мусора
рин@@
ire
дите
свет@@
Рекомен@@
раздел
un
na
жать
задач
региональных
премьер
Мак@@
поддерживать
сначала
Galaxy
предприятий
первое
беженцев
Ne@@
конца
годах
оказания
произошло
зрелые
кольцо
пяти
рекомендаций
вной
произ@@
печа@@
евро
получать
комна@@
государственной
приведен@@
большим
способность
методы
тщательно
хам
ou
83
местных
жены
хорошее
банк
оба
ый
32@@
art
устройств
int@@
мнение
соглашение
переговоров
детьми
ан
87
шу@@
лё@@
вались
делегация
мужчины
скорости
контак@@
выберите
поль@@
инструментов
тур@@
северо
ционной
пакет
пресс
кем
полу@@
потребности
вайте
сных
практики
xHamster
fl@@
политика
лат
науки
доне@@
расположены
стоя@@
смотреть
сенсор@@
новым
мода
границы
специализи@@
Ro@@
цветок
Египе@@
тепло@@
зации
IT@@
Чехо@@
сообщение
Бан@@
напрямую
бель
млрд
команды
важное
тором
э
осень
CE@@
ветерина@@
суще@@
вед@@
даты
задачи
ог@@
позже
oll@@
оборудо@@
роди@@
пут@@
распоряжении
белье
режим
em
принципов
сован@@
Африке
желтый
давления
лучшая
Col@@
ood
мые
процента
поле
поверхности
конец
ску@@
домой
честь
чу
встречи
ill
ey@@
нки
Гри@@
ч.
ish@@
завтра
ano
co
спорт
ash
дер
ГБ
1993
улучшения
зины
​
IM@@
IT
аэропорту
чей
платья
Hub
юсь
программу
супер
enn@@
стри@@
регулиру@@
EUR
лю
доступны
дни
сумки
плюс
жен
откры@@
Группы
техники
ick@@
англо@@
лай@@
кими
моего
принципы
сожалению
нашли
Кру@@
историю
островов
58@@
Сирии
последнее
ситуация
тными
туалет
моря
им@@
сектора
учреждения
собственной
общество
лечение
Европейский
креа@@
EN
скры@@
али@@
мало
созда@@
ляция
самая
про
ive
музыка
рези@@
документа
Av@@
чика
Ал@@
этими
Израиль
совместно
свето@@
сможет
городов
Англи@@
настолько
положении
бли@@
правильно
зе
ant
í@@
хол@@
итальян@@
миссии
Специальный
клю@@
Йорк
способом
проводить
планше@@
емого
футбол
пациентов
используются
районах
материала
мама
вход
сва@@
РФ
лита
own
КО@@
рекомендует
700
ر@@
веществ
техника
Mot@@
международным
студентов
начал
команда
ждать
невозможно
финансовые
статус
начиная
опыта
емся
вра@@
река
меся@@
ву
Te@@
ld@@
любых
поро@@
социального
Ed@@
причин
защиту
сайтах
деревя@@
лока@@
ley
отвер@@
бек@@
DO@@
ственной
зер@@
лена
консультации
Sk@@
продолжает
57@@
оте@@
твоя
увеличение
определений
рай@@
линия
ран
лением
бург
he
ред@@
ясь
тема
повышение
ek
стя@@
Май@@
89
достичь
семье
использует
могла
япон@@
зака@@
тельно
мато@@
видел
уни@@
Вос@@
уровнях
Ше@@
правительством
кури@@
тика
вчера
ениям
правовой
руководства
маленький
ВИЧ
вод@@
небольшой
ом
велосипе@@
че
зад@@
группе
йского
ee
эффективность
разные
такими
бесплатные
основании
включают
дами
руются
банка
yn@@
порядка
Поли@@
бки
Сло@@
бед@@
влияет
пер
финансовой
пан@@
крова@@
избежать
последних
университета
адвоката
лый
парк
лены
вида
мся
причине
фор@@
ья@@
Казахстан
вление
кнопку
электрический
Gr@@
US@@
работ
каждая
государственного
давайте
ew@@
изменение
ne
возраста
ost@@
сделка
еди@@
черные
стурбация
элементов
собственности
больших
законодательства
Ради@@
ца@@
вне@@
страну
бренд
Жен@@
которому
реа@@
вод
внутренних
пото@@
графический
ционного
щего
исключением
тых
способности
Гра@@
совещания
острова
итоге
вернуться
вполне
покаж@@
циях
логотип
сторону
исключительно
НЫЙ
сия
буты@@
З
идеи
фонд
знания
расширения
ностей
строительство
событий
Иран
крупных
най@@
секретарь
позиции
67@@
ments
L.@@
ган@@
государствам
ale
коробка
семья
хе@@
im
предоставления
ванию
среде
нка
ash@@
ТВ
строительства
110
ган
предприятия
жу@@
узлов
ок
первом
ker
долго
вна
Израиля
средняя
Кан@@
Новая
сли@@
заболеваний
относится
фотографий
тить
придется
предоставляем
тым
фона
большей
знал
ковый
Италии
Di@@
сюда
чность
La@@
чными
конкретных
AD@@
спустя
ON@@
страницы
чен
обучение
бой
причины
ветеринар@@
ресторан
активно
роскош@@
статисти@@
ковая
ara
настоящей
ence
Ta@@
дия
кость
дж@@
автор
ювели@@
текущий
посмотрите
ros@@
методов
надеюсь
выполнять
м.
важных
намного
боль
создании
CD
GE@@
ковые
доставки
ческому
предоста@@
связаны
For@@
Восточной
чо
имеется
ликвидации
принятие
какое
ha@@
Ac@@
золото
вой@@
качеством
отобра@@
структуры
хочешь
DC
are
совета
рекла@@
раса
своему
зафикси@@
сси@@
версии
лении
анал
дная
ины
настоящий
отрасли
оружие
видео@@
сах
нужна
далеко
ких
ката@@
человеком
тие
добро
распространения
рный
азиат@@
eng@@
африкан@@
доме
}
Ком@@
5000
ви
нарушения
{
Har@@
Арабские
хва@@
став@@
рака
пя@@
que
учитывая
размера
роваться
абсолютно
объе@@
программе
касающиеся
четырех
обсуждения
Интернет
сты@@
сный
дюй@@
движение
мби@@
подве@@
дель
расо@@
поста@@
аудио
вид@@
Bo@@
конвенции
Пар@@
con@@
управля@@
тан
горя@@
сан@@
заве@@
Бога
дар@@
Сер@@
двух@@
представлены
ö@@
равно
жных
und@@
→
Белый
научно
мин@@
оценке
базы
Соединенные
зма
тей
пользу
содержа@@
MS
выборов
вяза@@
действовать
генери@@
тельном
1990
руководством
Он
тое
Эмираты
Турции
текущем
международном
каждом
метод
Man@@
Тай@@
слов
гражданства
СМИ
ada
игроков
морской
мобильный
Услу@@
приняли
нефти
направлении
получа@@
Вес@@
Все@@
скидки
au
Генеральная
заболевания
Государ@@
нуть
Can@@
рам@@
характера
Or@@
компанией
очи@@
Международной
кти@@
Из@@
цу
ленд
лето
сиськи
сердца
День
Авто@@
искус@@
Гор@@
дал
пр
говоря
музей
вался
HP
вана
настоятельно
гео@@
шего
пределами
национальном
чувствовать
просит
элеган@@
сс
купа@@
увеличить
ск@@
обороны
Tra@@
Ай@@
жного
факторов
идти
читать
национальный
5,@@
Com@@
темы
идея
CR@@
последствий
международное
отпуска
RO@@
взаимо@@
загрузка
важные
технической
создавать
Объединенные
интересы
мов
мощности
Генеральный
добиться
44@@
подготовке
переключа@@
хотела
Mor@@
воро@@
песни
нного
удиви@@
книга
66@@
НИ@@
технического
нером
конечном
остан@@
важность
бюджет
названием
чены
приложений
Хи@@
Москва
способствовать
ений
ждение
пожаловать
записи
AN
1,@@
вечерин@@
Земли
пуль@@
Й@@
коренных
температуры
здания
ly
нен@@
Америке
имели
спорта
ak
созданию
глаз
представление
DA@@
ya
отношение
900
участник
гро@@
етесь
LA@@
масса@@
статистике
болезни
эффективно
социально
CA
Дне@@
мый
конфликта
примеры
DA
бои
ровано
разли@@
стон
производители
форма@@
рабочей
ционная
era
начали
одино@@
ад@@
мобильного
категория
мерах
oh@@
ock@@
земли
смогут
должность
зву@@
представителя
уведомление
Мы
ond@@
использоваться
Fre@@
PC
Кри@@
причем
механизмов
общая
моби@@
Бра@@
работников
стере@@
сок
частные
приложении
циям
точка
Кос@@
пля@@
емое
мозга
кости
we@@
изображений
открыть
вла@@
крас@@
Рабочей
Сторон
армии
давно
обеспечи@@
пе
картинки
термо@@
Ши@@
вещей
нужны
какая
4,@@
порож@@
приводит
быстрее
і@@
открыт
ев@@
смо@@
Plus
никами
джин@@
зом
тии
знаний
ото@@
Европа
обмен
общем
Дж@@
изобра@@
интересов
стой
широкий
Ман@@
Южная
ick
li@@
провер@@
88@@
Гру@@
фактически
Pi@@
загрузки
ial
режима
охраны
процедур
национальные
ier
начинается
электри@@
перейти
Турция
обще@@
сила
ющиеся
мешок
перевоз@@
таком
НАТО
ich@@
инфраструктуры
ой
различными
жу
ближе
фонда
сообщество
прогресс
звезды
вста@@
проте@@
зал
предложить
фт
бу
ü@@
VI
столь
крайне
Ab@@
друзьями
воздействия
оказывать
война
риска
пусть
интеграции
ур@@
матч
кет
практике
политику
.2
Республике
тская
мен
планеты
НО
мальчик
транспор@@
уверен
расширение
тему
милый
рок
социальные
шоу
заявления
системой
чат
вашему
миграции
ult@@
Si@@
Све@@
содействие
органами
отдыха
ä@@
вместимость
Xiaomi
Windows
IA
тобой
емым
министра
дис@@
посе@@
Центральной
Pal@@
большого
тыс.
IO@@
ума
этапе
сведению
перевозки
появится
представляют
связано
моих
доктор
металла
ресторанов
нов@@
преимущества
потенциал
гаранти@@
голов@@
сезон
технология
магазин
рованным
att@@
IV
недель
носи@@
ющийся
единственный
скидка
ёт
рейтинг
пункты
нк@@
фе
компьютер
интерес
ل@@
консультаций
Санкт
медицинские
Всемирной
технических
базу
договора
стей
сообщил
чить
экрана
сма@@
опти@@
лой
проверки
дают
искусство
нила
Бразилия
интер@@
круглый
зон
золотой
задача
ook@@
красивый
процессов
совет
Mic@@
поддержанию
тем@@
полного
вызывает
анализе
телям
ставка
вим
стить
опытом
Сто@@
эй
стекло
шим
ограничения
золота
средние
игру@@
ровала
переговоры
отношениях
прекра@@
Sm@@
гражданских
Итак
15.@@
называется
гло@@
res@@
ших
особое
MO@@
готов
ственного
офис
будущего
AC
плей
называют
мясо
обнаружили
тием
приходят
исследователи
щает
логов
научных
Его
ens
воздействие
общее
красивые
ждения
оставаться
думаете
американских
золо@@
усили@@
Тор@@
cl@@
российских
четверг
фио@@
развитии
эффективного
поддержи@@
игру
большинства
местность
приходится
балко@@
лез@@
выра@@
вшие
стый
Фо@@
адвокатов
соло
фоне
пти@@
высоко@@
рабочая
прогресса
хозяйства
содержится
частей
iss@@
Отде@@
вентиля@@
нями
Ba@@
рой
файлы
выглядит
стекля@@
лли
ственным
специальных
гидро@@
Дис@@
динамика
Pin@@
резо@@
должности
отличие
кап@@
нное
цикла
тин
случай
ol
составляют
торговле
швейцар@@
среду
Ge@@
требований
одинако@@
Val@@
дки
низкой
220
родителей
соответствует
люби@@
монта@@
похоже
ноутбу@@
политике
остальные
Джон
дных
дерево
обязанности
ME@@
тиру@@
бин@@
ссо@@
производитель
душа
фак@@
сотни
списке
ium
носить
зу
близко
tion
карт
Соло@@
преступления
сумму
причиной
цилин@@
чая
алгоритм
суб@@
ожида@@
Паки@@
квадра@@
какую
телю
радио
чай
упаковки
дни@@
внутреннего
ys@@
1992
вляем
Twitter
полное
разде@@
вающий
транспорта
транспортные
нными
Индоне@@
Д.
объема
ссылку
моло@@
беспроводной
соблюдения
лин
рот
Ис@@
партнеров
воду
рейтинга
следовательно
eh@@
несет
подчеркнул
коричне@@
mm
ock
син@@
ваемых
оптимальный
конкретные
общих
друзья
говорю
личности
тать
изда@@
Mc@@
Cal@@
насто@@
пейза@@
Й
большинстве
обладает
ком@@
рит
статистика
грузов
ген
проек@@
rip@@
оригинальный
главный
фильтр
такую
многое
минима@@
участвовать
sc@@
писа@@
свободу
порядок
ссылке
нес@@
Специального
живут
стандартов
относятся
эксплуатации
медицинских
Sch@@
Зелен@@
Bu@@
нашими
Ассамблее
зачем
вный
ставки
чиком
мент
узнайте
вало
замеча@@
заниматься
просьбу
дой
Ф
док
жением
тельность
хорошую
позволяют
City
защитить
пространство
клиента
стар@@
имеем
взаимодействия
Her@@
LA
общие
ционное
мл
провинции
Huawei
ain
показатель
официально
швед@@
ma
Спе@@
измерения
Gl@@
чен@@
зон@@
Фа@@
двой@@
щем
жел@@
маршруты
Все
содержания
лер
резолюция
Австралии
дей@@
адвокаты
роман@@
шения
жела@@
фильма
международными
миллиона
ванием
Кры@@
вающие
церковь
кси@@
лить
твой
това@@
ваете
отве@@
вперед
решили
опера@@
ске
государством
успеха
Юж@@
org@@
успешно
осуществляется
группу
жид@@
Beach
сен
ance
автоматически
вшихся
никакого
6,@@
PS
мные
батареи
....
стороне
Cent@@
ics
угле@@
per@@
лист
реме@@
серь@@
массаж
Ры@@
запре@@
amb@@
оценку
делегации
держать
весна
ведения
ero
блюда
ПРООН
тель@@
тил
нахождения
потеря@@
мебель
массовой
обзора
ради
симптомы
дже@@
матери
используйте
жное
очевидно
дах
высокие
Elect@@
ляции
панели
реб@@
зер
зии
университет
военные
запу@@
гать
семь
New
радио@@
ениях
основанного
рных
блок
покупа@@
ищут
нача@@
следо@@
ть@@
Защи@@
второго
вернуть
шок
приняла
определенных
ужа@@
включать
тация
счастли@@
кон
доба@@
сбо@@
логии
Онлайн
сама
НА@@
za
будто
Жи@@
планы
собственные
ip
предлагают
ью@@
детские
тном
необходимых
планирования
рекомендуем
голосов
ванные
комнаты
Is@@
собственная
народ
Международная
смысле
пятьдесят
ани@@
программного
ственное
щее
военной
следующим
кую
Lu@@
долгосро@@
министров
300@@
клуб
работал
тики
ляет
Испании
тест
Матери@@
фестиваль
временем
зима
докладов
взгляд
показателей
Op@@
конференция
видели
Эк@@
Посмотреть
чатки
ваю
офиса
ради@@
чек
включить
DVD
наличии
переме@@
расположенный
CS
SP@@
чности
обращения
соста@@
нони@@
mon@@
добавил
современные
облада@@
спортивные
вшись
небо
ن@@
изгото@@
интересно
клетки
рав@@
специальные
сложно
входит
молодых
район
проверьте
прошлого
двадцать
рея
клапа@@
йские
законы
восстановления
тона
экономические
пет@@
моментов
проверять
холо@@
бронирование
тили
главное
криста@@
ake
выхода
мых
равенства
разрешения
доля
группой
занимает
решении
здание
вели@@
велосипед
родители
сто
возвра@@
десять
осве@@
комплекс
Декларации
контакт
влении
ющую
знали
пользоваться
думать
союз
пребывания
власть
словами
осу@@
маленькие
рады
стол@@
учета
зация
функция
воде
ситуацию
шее
IN
24.@@
rol@@
отправить
нить
Фу@@
хорошие
поведения
популяр@@
ool
продолжа@@
СО@@
современных
доклады
инициативы
понимание
отда@@
ежегодно
масло
Мор@@
пространства
предлага@@
летом
сна
шар@@
пить
американский
микровол@@
ht@@
природы
Не
дить
политические
сказали
Гц
Йорке
шер@@
характеристики
жил
хов@@
хода
able
жим
бумаги
мобильных
ner
интервью
шко@@
дного
сить
законом
пойти
любит
тик
стекла
керами@@
сокращения
думал
население
иначе
скопи@@
эти@@
мони@@
ds
сетей
связей
чку
гостиной
настоящему
мого
CC@@
мым
.5
вающих
Le
среднем
выбран@@
эн
дь
детская
размещение
дверь
принцип
Me@@
Уни@@
получают
рова@@
вший
ниж@@
преступности
становятся
деревья
Cr@@
ваны
требованиям
молодежи
Bro@@
трен@@
фы
име@@
разрешение
свя@@
сегодняшний
горячая
государственные
карту
доб@@
Pol@@
1991
ениями
рису@@
семей
минутах
климатические
Управление
зин@@
известных
испыта@@
станции
специалисты
собственный
Союза
полном
сообщить
Ber@@
нищеты
Москве
кло@@
циали@@
конфликтов
рак
MS@@
BTC
оцени@@
Рождество
направления
сне@@
пунктом
говорили
Tube
контролировать
учи@@
секторе
транспортных
орган
ченных
универса@@
подробные
уровнем
AP
SO@@
степень
разработка
инвестиции
новости
сервис
пола
уди@@
пой@@
питание
укрепление
членам
вскоре
осуществля@@
щается
выборы
класс
щения
турой
ی@@
никакой
сво@@
беспровод@@
отчет
Путин
спутнико@@
расстоя@@
bo@@
благо@@
Лондон
Же@@
Host@@
музыки
бороться
кризиса
рд
катало@@
следующем
ul
распространение
содействовать
Гар@@
предоставление
цеп@@
уверены
ностями
щел@@
автобусы
вижу
Фор@@
сотрудники
механизм
мысли
Санта
датчик
Оде@@
завод
Pe@@
торговля
дата
йское
хом
Од@@
найдите
мою
ше
дний
третьей
ā@@
Конго
церкви
Per@@
тонн
мки
пры@@
сбора
ину
убе@@
Pan@@
ir
ключевых
секретариат
Aut@@
чита@@
насос
получение
Hu@@
твор@@
сокращение
указа@@
состава
Ты
будь
Me
вещества
шен
правосудия
совещание
показывают
профиль
завер@@
ваемые
разъ@@
текста
упако@@
рен
ните
встретить
путешествия
решил
зная
вре@@
получила
пари@@
производи@@
европейских
серьезные
наук
port
выда@@
побе@@
газо@@
125
встроен@@
вооруженных
Sony
получает
имел
местные
причина
рассматривать
ach
стаби@@
запрос
расписа@@
Sal@@
стые
Лин@@
праздни@@
проведении
упро@@
составе
позволить
успех
аренда
стабильности
строи@@
идут
iew
счета
чере@@
Румыния
клеток
свер@@
com@@
приветствует
диспле@@
покупка
повысить
Sou@@
up
ню
Что
BMW
обеден@@
app@@
Bra@@
будучи
нер@@
вариантов
Да
ляр@@
снижение
ментов
гото@@
оплаты
нарушение
джи@@
принято
существующих
TRA@@
определенные
шек
масла
упаковка
тские
сроки
проживание
автомобили
посетить
проблемой
смерть
выбора
линей@@
определяется
рил
занима@@
201@@
Золо@@
SM@@
лению
ks
правительств
GR@@
Ros@@
частных
мия
Беларусь
состоянию
IL@@
ног@@
столько
требу@@
вет@@
известный
тку
кухни
мена
начина@@
стано@@
считать
ЕЭК
шести
органа
справо@@
статьей
вяз@@
стви@@
игрой
пройти
ственных
глобальной
экспор@@
коле@@
wit@@
остаться
покупать
лах
оставить
води@@
смер@@
рекомендуется
навыки
произвести
хе
сын
23.@@
EN@@
Of
чувство
воздухе
формат
рей
чите
·
высококаче@@
превосход@@
Хан@@
востока
галь@@
Трамп
Рей@@
требуют
детский
ап@@
роли@@
случилось
понедельник
технические
дороге
дополнительную
Россией
мето@@
Маль@@
Wi@@
é
каждое
Це@@
Полу@@
современной
опасности
медицинской
умер
обе
пунктов
центров
обеспечивать
освещения
мониторинга
написал
щ
мнения
2.0
регулярно
участием
имею
казино
гиб@@
перемен@@
реформы
man@@
управлять
выполнить
ствами
Новости
заседания
изучения
ут@@
костю@@
приблизительно
Del@@
креп@@
ary
шую
лично
сложности
поколения
механизма
считаю
недвижимости
финансирование
GE
BS
типов
сей@@
диаметр
популярным
профессиональной
чики
ut
отмечается
школе
сная
Mo@@
Тем@@
предполага@@
разве
хро@@
серебра
вертика@@
чрезвычайно
хо
отца
360
ключ
адвокат
ана
законодательство
укреплению
любительское
люкс
ي@@
потери
максимально
другую
тского
Рус@@
заседаний
ac
фи
зарядки
кух@@
возможных
уголовного
неделе
независимости
поведение
желание
оказыва@@
поя@@
работа@@
хотелось
Аль
гоно@@
Нидерланды
панель
,5
администра@@
специально
сообщает
поставки
ВИ@@
GPS
норм
160
берг
оби@@
нюю
белые
пляж
гли@@
All@@
вит
законов
йо@@
Sun@@
кин@@
времена
ены
остаются
красные
девушки
тока
вкус@@
данными
диагности@@
возраст
другая
Верховного
ł@@
она@@
180
умерен@@
создает
Ser@@
сезон@@
~
выбросов
клет@@
ory
лучшим
помните
Cam@@
its@@
вите
индика@@
программное
сса@@
Fran@@
жает
смысл
шен@@
секре@@
Open@@
беременности
утверждает
хирурги@@
нять
Bre@@
дальнейшего
высота
001
od
бю@@
120@@
выход
прием@@
эксперты
ов
земле
тивной
соглашений
основная
пример
фильмы
Коро@@
тья
опять
ouse
комфор@@
третий
нил
подхода
бор
водитель
م@@
чаться
лями
минимум
право@@
делу
выражает
насо@@
por@@
моделей
дели@@
Советом
Грузии
предусматривает
машиной
площадь
мами
увеличения
шку
финансового
рамки
диалога
мах
одному
станов@@
Воз@@
чкой
свин@@
данное
ler
угрозу
корпус
ere
автобусов
лета@@
водой
чжоу
срока
2,@@
деятельностью
действует
БЕ@@
волокна
низкая
жертв
государству
дея@@
кат
кол@@
щать
предло@@
вз@@
Швейцария
последова@@
\
преступлений
подготовку
Ы@@
вная
проя@@
ster
жда@@
ус
Пра@@
вице
имеются
ана@@
модуль
прави@@
osh@@
механизмы
больницу
тина
Ver@@
предотвращения
рон@@
общественности
программам
лку
inc@@
пункту
лицам
подготовка
ленные
моды
сторонами
развитых
Произ@@
показали
дио@@
вопросах
стратегий
Пред@@
лег@@
эффекты
Mat@@
красоты
письма
ari
чена
домов
пки
моно@@
LT@@
зелен@@
даль@@
измен@@
веса
отра@@
концов
Хэ@@
геометри@@
однажды
память
мульти@@
дали
партия
школа
ea
вающей
делится
рованное
чью
Бен@@
введите
erv@@
зим@@
стью
нес
Sa@@
оригина@@
обновления
пис@@
сообщений
ассоциации
TV
немедленно
капитала
регионах
внешней
ванный
Ant@@
эй@@
рель@@
средство
запись
сохранения
мужчина
Эй@@
темно
дан
руемые
боли
рис
кто@@
скоро
няет
квар@@
расхо@@
обращается
Лос
способов
Конституции
слу@@
фотографи@@
сделано
Air@@
избира@@
ватель
трех@@
тит
поля
йских
согласия
бога@@
Cre@@
примени@@
ВО@@
тской
оранже@@
общественного
домини@@
А.
главы
Битко@@
мета@@
позднее
клад@@
апарта@@
пове@@
Им@@
плохо
крупнейших
AL
ющейся
врач
Нор@@
замечания
интерфейс
стра
логический
голь@@
TA
кнуть
понимаю
мужской
замок
считаем
живет
городах
теории
фон@@
способы
ктив@@
Австрия
выполнение
совмести@@
ошибки
делаем
зами
пост
влияния
рабочий
круг
логи@@
форд
мирового
рабочего
двига@@
ответы
бюро
переда@@
творческий
родился
вления
мощность
токси@@
наблюдения
And@@
сайтов
иск
встретиться
институт
рин
главных
членом
Востоке
ane
наряду
Министерство
внешний
постепенно
закон@@
создали
AS
влена
прямой
чувствую
судов
FA@@
еды
смотрите
образ
рная
Mag@@
президентом
любая
обе@@
поступ@@
позицию
договор
производителей
процессы
ще
защитные
вели
нан@@
сентябре
батарея
курсы
зам@@
ТО@@
фигу@@
Ху@@
лан
IF@@
издели@@
ченные
угрозы
предотвратить
App@@
звез@@
ark@@
сро@@
доверия
ступ@@
проходит
tr@@
тысячелетия
терна@@
ценности
ущерб
видите
менте
быстрый
оценить
звездо@@
les
паро@@
любую
обратиться
перечис@@
ish
реального
š@@
Air
сотрудничеству
.3
Филип@@
свете
int
Sl@@
ал@@
организацией
жей
моим
прямая
изучить
itt@@
проекту
фамили@@
rig@@
тую
активов
боль@@
топ
госте@@
rid@@
дистанционного
вблизи
длинные
.net
щими
DV@@
слабый
мана
веке
охла@@
альбом
возникает
ata
летние
занятости
мальчиков
бла@@
пита@@
участника
жно
сь@@
тив
ся
lin@@
хозяй@@
сте
заявлении
подобные
Park
способны
организма
ведет
компанию
представлять
ближай@@
ключевые
рки
Wor@@
рабочие
стадии
ПО@@
вных
вской
повре@@
пришлось
ниями
Ol@@
Бы@@
зов
заранее
Ита@@
районов
причи@@
гер
оказывает
сайты
Sol@@
Gre@@
сно@@
отличается
популярные
провел
ua
прибыли
кампании
защитный
демократии
служить
градусов
IC
Нет
контакты
ответить
среднего
завершения
eo
политического
правовых
дождь
ствующие
предоставлять
жили
кубин@@
факторы
потребоваться
июне
источники
май@@
каждому
мягкий
экономика
вия
Ци@@
up@@
Em@@
чет@@
тка@@
мили
партнерами
телефонов
дкой
информационных
Группа
пиц@@
CD@@
термин
аспекты
ical
мигрантов
ежеднев@@
пора@@
статей
кухо@@
oo
ственную
лого@@
класси@@
ver
шанс
ade
тник
ora
кино
зажи@@
фла@@
роз@@
испытания
обществе
компьютерные
соответствующим
пру@@
йском
таблицы
меньшей
блоки@@
СИ@@
доходов
Эр@@
облака
ans@@
этап
Закона
конфиденциальности
дри@@
валась
вторая
озеро
ola
МООН@@
протокола
мае
Западной
س@@
метри@@
состоя@@
интегри@@
устано@@
our
редакти@@
@
назна@@
сокра@@
потребления
предпринима@@
результатом
ef@@
администрации
духов@@
картина
оплачи@@
Организацией
позволя@@
принятых
сумма
профессиональный
Председатель
поговорить
ванных
пришел
эль
понимать
Беларуси
осадков
разоружения
ляцию
впоследствии
проводится
Тру@@
отметила
Армении
клиенты
клиентам
Pre@@
нали@@
рождествен@@
потребителей
пришли
вич
My@@
частного
pro@@
декабре
ung
рка
значительной
эффективной
зоне
сторона
7,@@
СССР
ющаяся
Son@@
серьезно
зре@@
утром
гами
дороги
ллоу@@
ску
оба@@
.6
жё@@
имен@@
важный
представля@@
импор@@
японский
метра
yl@@
имеющих
серия
человеческого
платы
наде@@
праздник
местом
ствен@@
культурных
At@@
вероятность
окру@@
изоляция
старше
тила
учреждениями
нагре@@
платформы
привы@@
российской
файлов
улучшение
руках
тий
Дже@@
расположение
мам
голос
восемь
видим
экспорта
возле
хов
цем
тексту@@
PO@@
Россию
представляется
Mi@@
тью
ём
продвижение
последнего
безусловно
мыми
уничто@@
следующего
Шар@@
человечества
структура
зло@@
оны
.4
Джо@@
высоких
CE
постоянного
сезона
поко@@
ваку@@
ночью
йт
Сент
кни@@
уби@@
140
дол@@
тических
декларации
отпу@@
рук
инди@@
учебных
Миссии
коллекция
min@@
деко@@
Ла
ИК@@
художе@@
религии
напол@@
сомнения
позво@@
надеемся
играют
перевозок
бесплатным
Bel@@
пребы@@
уста@@
следующей
необходимы
синте@@
ա@@
вано
итогам
гражданской
опасных
внутренней
бассейна
могло
TC
дат@@
130
Хе@@
хот@@
заключение
Bal@@
магазинов
ech
резюме
erg@@
мента@@
зерка@@
тей@@
знаки
банков@@
печать
ST
лекарства
направленных
регулирования
цир@@
существенно
повышению
един@@
страной
1,5
марте
ux
правительству
ребенку
Греция
среда
достижение
личный
рассказал
канал
In
учитывать
пос@@
Ben@@
газ
весной
ая
око@@
der
щую
чено
изделий
основу
новыми
вля@@
Э
кризис
объекты
стая
личных
тическая
пользователям
морских
создан
цах
вторник
лега@@
полно@@
ресурсами
т.е.
МА@@
ВВП
будущих
глу@@
остановить
эласти@@
российского
региональные
old
чеш@@
комиссия
3000
зво@@
Бело@@
ктора
бур@@
ery
рованию
набо@@
дерева
йный
образо@@
тана
выйти
заказа
рина
кольца
разработать
рев@@
исполнение
писать
влению
rag@@
Гре@@
сферы
здравоохранение
добавля@@
начинает
приняты
заявила
пищи
Кли@@
макия@@
голосования
медиа
охот@@
пу
заключения
распреде@@
Организация
отличный
ори@@
st
чист@@
расти
бывает
авто
цо
йка
присутствие
утверждения
реша@@
подтверждено
ведущих
статуса
углерода
нец
обре@@
муль@@
ценность
глобального
страниц
гром@@
дь@@
ун
Мексика
ei
иде@@
слуша@@
показыва@@
привело
регистра@@
теры
пинг
знак
руко@@
обеспечивают
Ори@@
взя@@
жесто@@
per
мей@@
рисунок
фоном
концу
хорошего
активности
правом
ti@@
отвечает
3,@@
любым
чил
акции
электронные
ид@@
примечание
комнате
тность
вь
Сред@@
лицами
лицом
предпочитает
высоко
каль@@
Ter@@
ссылки
ера
пози@@
оружием
растений
решением
праву
22.@@
дела@@
нику
решению
Сити
продолжают
вил
рублей
2.5
Mal@@
шу
применять
воспользоваться
нера
вроде
акций
Управления
еда
общественной
вшего
Если
сельского
руб@@
сделки
захваты@@
направленные
Лан@@
наверное
ike
персонал
пыток
случай@@
тт
расследования
внести
десяти
гряз@@
отчетности
водители
щением
умный
заседание
заместитель
настро@@
аку@@
недостаточно
специальной
девочка
игра@@
таки
международному
смог
авари@@
ене@@
канад@@
восто@@
личные
нен
стами
лес
кара@@
допол@@
for
двер@@
дил
рий
брони@@
производ@@
общественных
низ@@
диалог
точные
ширина
WE@@
Латинской
эфи@@
убить
машин
руя
подтвер@@
нуждаются
энерго@@
американской
массы
пожа@@
приз@@
лять
входят
ПА@@
ena
заменить
муля@@
универсальный
ipp@@
четко
американские
плату
вторых
подклю@@
Договора
вский
открытом
корпора@@
основы
ам@@
экономический
йся
Im@@
жаве@@
РА@@
пару
ноябре
общаться
человеку
стандарты
последняя
предупреждения
вечером
индустрии
нут
гарантии
Ирака
зировать
дон@@
Англии
ново@@
километров
книгу
трубы
докладчик
мост
Бри@@
возврата
совершен@@
будьте
ян
недо@@
Фонда
вах
предоставля@@
бен@@
Эн@@
поставщиков
войне
жители
стр
колеса
нефть
нике
иной
место@@
собака
заявили
лам
товая
пляжа
SD
экономике
ствах
пас@@
оказание
Швейцарии
лизации
предлагается
ниям
соответствующими
объекта
резолюцию
лидеров
важной
данная
влены
механи@@
профессиональных
запол@@
полномочий
обоих
сообщили
сформи@@
фри
Демократической
путе@@
240
забо@@
кос@@
доступна
ющегося
вное
Министерства
взносов
жным
Nov@@
ile
продолжить
КА@@
ближайшие
октябре
урегулирования
логических
вленные
инвести@@
совещании
Кен@@
ass
жопа
регионов
внутренний
отрица@@
щены
источником
летнего
лидер
торговой
жено
теме
нарушений
женные
нена@@
ank@@
годом
реши@@
внутренние
MA
ченный
жилье
каком
ram@@
нул
возможное
ибо
дно
законодательством
работой
Кре@@
случаи
идеально
принимая
сотрудничать
гарни@@
меня@@
Комитетом
регуля@@
Black
оде@@
освобо@@
Hot@@
автоно@@
эффективным
компак@@
ella
способствует
размеров
фитнес
СЕ@@
ings
гни@@
женный
неры
Святого
отходов
возможностями
днем
любят
Тен@@
представителями
ьте
י@@
встреча
ориенти@@
появляются
войти
звезд
трудо@@
нужда@@
.ru
жаться
ухода
терапии
наз@@
750
особо
One
влено
активи@@
камень
Ирана
планов
выводы
ft
продукция
льности
пережи@@
Microsoft
тации
регион
хия
служб
HT@@
щен@@
тива
серебря@@
посетителей
должностей
главной
вещь
торговых
строй@@
сной
вечер@@
войну
отдельно
нского
частично
змом
циклов
вычисли@@
голову
существования
тности
Северная
AI
включены
участниками
тур
Мэ@@
рыба
парковка
ark
средствами
MI
январе
океана
ход@@
работаете
ook
кино@@
объеме
веб@@
дюймо@@
откуда
вопросами
дор@@
поощрения
Ste@@
Serv@@
650
некоторое
ежедневно
проблемам
манов
нержаве@@
представи@@
Глобаль@@
отраслях
Электро@@
ядерной
HTML
парка
вернулся
снег
мистер
помогают
гина@@
ограничи@@
пытается
вкой
спло@@
Bur@@
штат
медицинского
чиков
фирмы
революции
больниц
разви@@
муж
Coun@@
груз@@
enc@@
ква@@
занимается
ваний
пов
улуч@@
подчеркивает
тивное
Шри
сути
животные
шля@@
PE@@
Национальный
стратегия
суммы
ственными
жилья
русском
магазина
ладно
вверх
слушать
новин@@
350
личной
применяется
Юг
обеспечении
туризма
out
привлечь
реза@@
Най@@
рекламы
проблемами
гиган@@
лая
тыми
решать
говорите
положению
мину@@
фотография
значений
каче@@
солнце
Group
построить
санкций
тического
секунд
ator
дку
остров
полученные
Club
рус@@
платформе
раси@@
блонди@@
огромное
генера@@
компьютера
изоли@@
миссия
минуты
UR@@
коль@@
оказанию
Mac@@
север@@
оказать
открытия
ЮНЕСКО
умень@@
местного
особен@@
спец@@
вывод
вно
солнце@@
365
4000
вызвать
лле@@
указано
сель@@
Штатах
оборо@@
разработку
стул
ЛО@@
практика
жест@@
создана
делаете
вен
ו@@
промышленных
агентство
оставьте
языком
принадлежит
ight@@
реки
Ind@@
многими
краси@@
рисо@@
ail
уль@@
правильный
публикации
доказательства
Мари@@
теми
обеспокоенность
студенты
щена
проекте
платить
превра@@
мозг
ric@@
ходить
основания
You
двигаться
высшем
следовать
хуже
оргазм
разру@@
освещение
EL@@
теплый
кошелек
листья
планирует
бабо@@
картины
жем
официальный
жизнью
цо@@
пользователь
соединения
увеличи@@
форума
1.5
дит
постель
служба
понимания
клиент
риа@@
чувства
слад@@
Прин@@
терроризма
положи@@
мбу@@
настоящим
эффективных
русские
ap
Sil@@
парень
химических
Швеция
МО@@
летняя
21.@@
хар@@
напомина@@
льской
апреле
хан@@
домашних
визи@@
влением
борьба
график
ъ@@
Казахстана
Джерси
рующих
военного
Чили
ve
рассказать
фикси@@
Атлан@@
сможем
2.
адеква@@
НО@@
сетях
установка
потребуется
части@@
Sw@@
©
оставшихся
книг
прия@@
радиа@@
Син@@
чест@@
гуманитарной
Национального
осен@@
Хай@@
полную
фри@@
достижению
уст@@
Канады
101
свыше
договоров
нуждается
аква@@
мость
открытие
плата
обновление
рыб@@
концепции
AB@@
стремится
напитки
вок
зина
Street
форум
кафе
проводи@@
красивая
ЮНИСЕФ
бере@@
сона
озабоченность
священ@@
сорок
этике@@
труд@@
низким
волшеб@@
Rad@@
Sn@@
вопросом
стин@@
ученых
директора
имущества
холодиль@@
сня@@
применя@@
терроризмом
июле
нашему
медицины
кноп@@
организм
дополнительной
дочь
простым
1.
растет
уж
куля@@
располагает
журнал
Ниж@@
глубоко
шестьдесят
центры
стите
главе
Аб@@
Париж
гну@@
рецеп@@
Sy@@
близких
испытаний
выражения
другому
Met@@
пала@@
Глав@@
Pet@@
соответствующей
сса
сессия
Америка
типом
солнечной
ise
ke
груди
почте
SS
школу
лице@@
глобальная
ec
продолжи@@
принимают
грузок
фей@@
Red@@
разработ@@
точная
объект
105
штата
вому
рад
повто@@
рынки
положением
визуаль@@
алма@@
сексуаль@@
Моби@@
AA
ب@@
машину
хау@@
поверхность
тали@@
мощностью
коммер@@
объяснить
сигнал
кровь
регионального
женщинами
щик
войска
вляет
aut@@
головы
желании
двигатель
заставить
физических
примеру
конкурен@@
обязательство
ядерных
падение
млрд.
прожи@@
зай@@
Вашингтон
ху
подобных
лов@@
128
В.
сверх@@
лучшего
фир@@
меньшинств
мандата
ограничений
отсутствия
9,@@
прибыль
ксо@@
аппарат
звук
Ассамблеей
возможные
удобный
энергетики
НПО
Продукты
хорошим
DS@@
ими@@
Венгрия
емом
общения
ans
Земле
предусматри@@
прямых
состоится
рить
комментарии
сколь@@
страхо@@
Кай@@
центром
отказаться
свойства
бывший
вера
живопись
каса@@
формирования
è@@
причинам
свободной
Господь
кост@@
Ок@@
ger
сда@@
учеб@@
санкции
включа@@
Нью@@
Ы
Совету
природных
ровались
жемчу@@
максима@@
свободно
положениями
демократи@@
сравни@@
LC
эр@@
1.2
Специаль@@
дохода
контент
Европейской
руйтесь
Тре@@
солнца
Fer@@
изло@@
выход@@
скон@@
агентства
ust
Дю@@
информационно
юристов
конкурентоспособ@@
рисков
Норвегия
возможностью
середине
современного
потребление
ноги
спасти
исходя
различия
Зи@@
рения
подня@@
Hig@@
шип@@
обсуждение
наказания
комиссара
пира@@
профессор
PA
члена
любить
ответил
Второй
предмет
региональном
офис@@
порно
обуча@@
заня@@
путешествие
сделала
общин
Комитету
перспективы
Иисус
номеров
ложения
природа
района
указывает
зеркало
ске@@
Бельгия
принадлеж@@
предложил
деб@@
развивать
ландия
снижения
спаса@@
Интер@@
руководящих
цено@@
уменьшить
судебных
инвесторов
фар@@
пору@@
навсегда
само
крити@@
нель
Свя@@
финансы
тье
ura
заба@@
моем
крупные
никам
Fe@@
Армения
шкой
Гол@@
маленькая
GS@@
неправи@@
Ближнем
поддержания
коробки
туристов
подгото@@
природе
дили
короткий
дву@@
привет
каждую
почты
ت@@
Закон
основан
матча
дар
тони@@
Азербайджана
попробовать
дете@@
расовой
вины
квартиры
Испа@@
исто@@
Таиланд
влен
топли@@
лых
Gra@@
Store
приходит
‹
подарки
шной
мировых
высоком
Char@@
Wal@@
ЕН@@
Mod@@
просто@@
открытым
стандарт
третьих
доход
утверждение
тической
сельских
прямые
имейте
ДИ@@
Индонезия
женных
деся@@
культура
штаб
пишет
партнерства
неприя@@
выиграть
лло@@
ail@@
запрещено
девочки
малых
руку
настоящем
вей@@
женщинам
rat@@
дав@@
дре@@
моде@@
предметов
Бру@@
преступ@@
вного
баланс
худ@@
кофе@@
улучшению
MC
Кам@@
Трампа
глобальных
ield
дайте
отлично
раке@@
Майами
нейтра@@
очевид@@
конструкции
вследствие
International
лке
Бизнес
SEO
Gam@@
аль
помогут
револю@@
проведению
российские
доступен
ii
утро
средний
проводит
1980
On@@
просьба
сообщите
щении
клас@@
фрукты
государственный
ЮНКТАД
распределения
весен@@
Rom@@
абстрак@@
ющем
каталог
наименее
пересе@@
фен
армя@@
энергию
питом@@
средней
удовлетворения
рение
мини@@
гита@@
объя@@
uss@@
воль@@
вик
естественно
профессиона@@
растения
ремонт
зачастую
тивных
свидетельствует
относи@@
подростков
Lin@@
известен
вс@@
оказаться
силами
языков
поддержать
тейн
встре@@
источника
Cont@@
собственного
ury
ущерба
тины
6000
отдельные
ство@@
производительность
обяза@@
щению
гарантировать
футболь@@
эффективное
ement
нную
хра@@
воздух
брат
Мер@@
расписание
долю
меди@@
высокую
резолюцией
принима@@
фло@@
экспорт
Евро@@
моментом
производстве
сектор
образовательные
Go@@
щают
принят
удаления
выжи@@
Эй
рыба@@
резолюций
поставить
шор@@
end
рассматри@@
тию
мети@@
многочисленные
маршрутов
валюты
Бор@@
Лей@@
национальным
емыми
стиля
МИ@@
Всемирного
определяет
поправки
осталось
Techn@@
верно
последней
организациям
реальности
достой@@
отправи@@
поса@@
снаря@@
резер@@
граждане
закреп@@
курор@@
The@@
уна
аппара@@
Ang@@
Pri@@
Er@@
пунктах
защищать
редко
изготови@@
назвать
комби@@
окно
недвижимость
праве
реальном
ase
комплекса
банков
двухгодичный
военно
целый
месяце
плю@@
подчи@@
спер@@
действительности
обы@@
тивным
Диа@@
обрабаты@@
Город
air
востоке
ищет
нос
ровании
американского
обращаться
попробуйте
охваты@@
ятся
berg
нуж@@
попытки
обязаны
голу@@
ваемый
дешь
видение
утра@@
архи@@
нений
Эль
Финляндия
Дер@@
банки
уровней
подтверждает
ассоциация
заинтересованных
вшей
цепи
Ul@@
джа
знамени@@
подвод@@
мирного
Ev@@
щаются
Доро@@
www.@@
организа@@
финансов
вили
сильный
общую
болезнь
лиза@@
холодной
дорога
существование
зая@@
Немец@@
ночи
air@@
здоровьем
обладают
емую
2,5
круг@@
Wat@@
ляется
вицы
второе
отвеча@@
согласие
физической
Лондоне
ленного
контроллер
раскры@@
отража@@
рейсы
рию
исследовании
функционирования
собаки
сохрани@@
ris@@
происшествия
кисло@@
крип@@
чество
SE
появляется
шар
осна@@
километрах
Med@@
мента
признание
Перу
образова@@
кило@@
выборах
нском
8,@@
поднима@@
хоть
вин
War@@
дорогой
предоставлении
территорию
ВЕ@@
Слу@@
ственном
учиться
уро@@
стили
кин
Comp@@
института
станут
значи@@
спросил
щенных
сбор@@
десятилетия
транспортного
начинают
чник
низкий
рной
Тол@@
наме@@
опро@@
обо
Женеве
oom
полиция
поворо@@
способен
Три@@
сиден@@
ено
регистрация
предпочт@@
индивидуаль@@
ряде
соверша@@
широкого
Hom@@
лках
LG
Ирландии
бассей@@
упомяну@@
нима@@
Бразилии
пространстве
школ
предстоит
ционную
признать
Гер@@
мебели
йс
мии
представил
просьбой
экономическим
Tor@@
снизить
феврале
Греции
разоча@@
Бел@@
жда
полезным
холодильник
бата@@
даст
алюминия
сыр
спин@@
рейсов
располагают
автора
классический
произошли
You@@
нечто
напряжение
хорошей
мет@@
соблюдение
областей
карточки
CC
Des@@
ini
шель@@
бок
указанных
езды
Love
прогу@@
сына
BC
восстановление
вшиеся
помнить
вл@@
смартфон
вклю@@
инвалидов
Пол@@
порошок
собак
вики
трени@@
думаешь
скоро@@
провели
конститу@@
ктив
вызов
cookie
пригла@@
лью
новение
чением
Бре@@
выглядеть
собственную
актов
бело@@
организацию
страда@@
перенос@@
няется
другу
соеди@@
SA
неправительственных
зить
преж@@
Гуан@@
землю
ходьбы
сэр
аспектов
Марокко
ИК
Департамент
действуют
ВОЗ
логия
чес@@
оказались
Tri@@
рамо@@
устойчивому
обеих
чёр@@
rist@@
выступает
волны
посещения
прекрасный
предполагает
местный
четвертой
мери@@
проще
цом
финансовый
втором
веры
ствам
силой
комму@@
удалить
правления
изучение
ict@@
коне@@
участником
дель@@
реальность
понял
вооружений
хочется
приведет
Грузия
воздушной
Ниге@@
основное
веты
инициатив
участнику
управлению
окончания
стати@@
валось
поддержкой
организован@@
математи@@
энергия
миссий
рассмотрению
Ад@@
выразить
Ь
грани@@
рынках
обязанностей
щен
Национальной
лкой
реалисти@@
Москвы
сек@@
находящихся
ид
Йо@@
взаимодействие
век
ep
Тан@@
аксессуа@@
дешевый
подлин@@
кладки
част@@
гель
тенденции
риал
связанной
признает
Dis@@
соблюдать
неу@@
нина
содержат
кадров
ввиду
защищены
пропу@@
находиться
тури@@
World
Александр
Узбекистан
продолжительность
1.1
Азербайджан
конкуренции
мани@@
жении
лек@@
реакции
первоначально
гн
ЕР@@
чению
основными
казалось
выпу@@
встрече
og
точку
коммерческих
зданий
готова
Колумбия
Ирландия
наслаждаться
q
значительное
огня
mer
приверженность
компоненты
OEM
группо@@
щенные
Конвенция
ave
половины
риски
повторя@@
телефоны
образец
ё
дальнейшем
ввести
иных
высшего
деталей
думают
идей
сталкиваются
Smart
использованы
сбор
заплани@@
Мета@@
покрытия
поставок
102
рон
сет@@
разби@@
креди@@
Каль@@
3.
капита@@
Rob@@
хранение
длинный
ean
фур@@
зале
гового
лек
отметили
очистки
ёр@@
книге
гордостью
стражей
границ
PE
выполня@@
гия
крат@@
рующие
ствие
наркотиков
пытаются
види@@
спонси@@
соответствие
функцию
прилага@@
нейро@@
рного
нь@@
китайские
списка
каждые
тормо@@
жер@@
ест
Воло@@
мирных
оф@@
лучшей
подозре@@
сбаланси@@
женной
Владимир
зуб@@
легче
спрос
позвольте
сдела@@
связана
обслужи@@
бить
год@@
телефону
головоло@@
Хью@@
рассмотрении
популярных
Tur@@
ЧЕ@@
давай
сии
тво@@
кового
ежедневные
принятые
острове
Арабской
немец@@
ситуациях
старый
фен@@
удовлетворением
направление
лучшую
бах
контролем
сделает
получи@@
прекратить
солдат
папа
говой
официальных
мат
Восто@@
Ассоциация
Анти@@
охлаждения
активность
перечень
ментах
выразил
уровни
рена
зимние
тел
прове@@
событие
Бельгии
ual
Тю@@
брак
лено
совещаний
писал
горизонта@@
рубежом
вступления
рые
Вол@@
стандар@@
маль@@
план@@
SC
лист@@
olog@@
прочный
бесконе@@
создал
пациента
результатах
инфекции
персональных
подробно
называ@@
проверя@@
стесняйтесь
страх
фильмов
база
современная
бол@@
вающая
удобно
напоминает
Anal@@
Швеции
.0@@
дизе@@
своё
августе
RC
контро@@
арт
морские
маш@@
Шанха@@
психо@@
традиции
учреждениях
восстановить
рано
тари@@
нож
дат
маленьких
отме@@
продвижения
перспективе
уме@@
показа@@
бит
тс
★
юридических
основой
экстрен@@
My
влять
нало@@
планируется
тельство
ведение
мс
борьбу
act@@
проходить
судебного
политическим
кстати
провозгла@@
вкла@@
мон
руководителей
голосо@@
внешних
семью
промышлен@@
ровку
тельности
основана
AM
личность
превышает
имеете
напитков
работали
Африка
домашний
помню
Кра@@
держка
функциональ@@
независимость
насилие
натуральные
гля@@
Ден@@
введение
отправля@@
повестку
целевой
инду@@
соответствующего
ею
положить
щенный
румы@@
известны
обратить
СА@@
большее
половина
Fi@@
сообщении
действующих
появились
erc@@
Департамента
вле@@
леди
миллионы
включения
установления
нормально
Валентина
сжи@@
Брю@@
пузы@@
расширить
rop@@
боло@@
невероя@@
интерактив@@
необходимым
старые
путей
Всемирный
оди@@
оказалось
мра@@
тельства
любите
промышленного
сит
уйти
HR
гам
Рио
принятии
Церкви
диапазон
сделайте
встреча@@
свободного
обнару@@
рая
ect
спроса
реформ
городской
кодекса
уг@@
номере
работ@@
моду@@
девять
лидеры
властей
чистый
полезно
Уэ@@
mb@@
нор@@
законода@@
путеше@@
фу
стола
ровой
календарь
сопровожда@@
справедливости
гендерного
авторы
числу
машине
менять
восточной
тке
CS@@
ближайшее
региональной
черная
осуществляет
территорий
инфракрас@@
возникновения
прошлой
малы@@
Кара@@
мина@@
IG@@
зиру@@
ленных
сократить
профессионалов
удобства
мил@@
продать
лежа@@
Сим@@
производительности
Jo@@
провод
понятия
ae
обращение
молодой
свобода
гг.
осозна@@
метро
марка
сделаем
Пак@@
Кореи
ous
радика@@
вленных
съем@@
вино
местности
No
ins
транспорт
колле@@
голоса
возбу@@
единственное
мораль@@
ПП
рь@@
сложных
семи
произведения
цов
een
процедура
гей@@
тради@@
ющимся
опасность
шагом
оказывается
развива@@
нашел
пересмотрен@@
зем@@
Hor@@
раздра@@
тивного
ошибок
ИН@@
необы@@
чтения
сту
Far@@
кона
клиен@@
простые
делал
контра@@
Inv@@
доказательств
теря@@
связан
вленный
назвал
IR
Кот
Зе@@
пришло
охране
обсу@@
обу@@
специфи@@
go
тесно
опас@@
нин
задачей
КС
аллер@@
шари@@
уведомления
выше@@
нации
электронная
протокол
структур
подняться
гне@@
архитектуры
way
признанных
добраться
евре@@
ЛЬ@@
ort@@
вари@@
беспоко@@
пора
производить
блестя@@
судебной
нести
обез@@
регули@@
отдых
подру@@
практику@@
институтов
жал
льность
пластиковые
российский
Коста
Бол@@
живо@@
Соглашения
спортивный
каран@@
утверждают
Щ@@
информационной
Eu@@
Бай@@
очередной
Консультативный
450
призвал
riv@@
предметы
IB@@
т.д.
слышал
дками
необходимую
нением
укрепить
безу@@
Системы
Фер@@
птица
затрат
лик
этапа
практи@@
мная
сторон@@
вилла
ходит
отпра@@
пати@@
зя@@
войск
поздно
гости
ДНК
ссуа@@
картин@@
счете
белая
CB@@
®
спектр
ирак@@
статью
впечат@@
ощу@@
мерт@@
лон@@
Sam@@
семейных
ist
предыдущих
Ву@@
созданы
пяти@@
подготовить
обстоятельствах
мандат
Сем@@
медленно
ны@@
ужин
мг
стической
Хорва@@
рованными
совместных
Босния
соединение
испан@@
разоружению
делали
энд
слы@@
министерства
ответа
воскресенье
специализированных
просмотра
масштабов
признательность
вызыва@@
ссылаясь
корректи@@
сай@@
льному
отличная
ждении
американцев
строить
трево@@
Филиппины
ожидания
знание
руководитель
имеющихся
сферах
огонь
выступа@@
Пен@@
доверие
onda
расследование
погло@@
прекрасно
нены
лежит
LS
бой@@
убедиться
прошу
единственная
одни
звезда
дала
собирается
организме
конфликт
бов
гидравли@@
Ам@@
куря@@
обсудить
африканских
левые
Cap@@
атмосфера
ios
расширен@@
s.@@
УФ
CF@@
ева
несут
присоединиться
1989
оне
избра@@
ить
вегетариан@@
мечты
Египет
огромный
произойдет
собираюсь
йдите
кла
научиться
маршруту
подписа@@
оценкам
предоставляется
экологически
лизация
минуту
тинг
зап@@
IV@@
Рос@@
женного
ДО@@
выводу
мало@@
пользования
японская
провода
бара@@
ые
шить
преимущество
несколькими
Tre@@
Win@@
великолеп@@
иска@@
простая
откло@@
семей@@
Бангладеш
ника@@
говорим
квартира
Болгария
ющему
кожей
Сомали
Mart@@
Сек@@
счита@@
убеди@@
AT
верса@@
помещений
деловых
Pat@@
передат@@
формирование
выставка
пнев@@
служит
рынков
щиков
сов@@
клиентами
стату@@
ам
Центра
применяются
принадлежа@@
FC
охватывает
мело@@
син
ждет
коди@@
информи@@
IM
рассматривается
прошли
обеща@@
клуба
Доб@@
Вселенной
системати@@
сид@@
Ада@@
давать
Blue
С.
неё
языки
тельны
воздушный
пассажиров
театр
газов
предполагается
сиг@@
раком
Бей@@
Токио
тридцать
тё@@
поставщик
определенной
экономику
ОР@@
пропа@@
стратегических
используем
ваясь
столо@@
ткой
показано
выступил
картой
домашнего
ТЕ@@
студен@@
ковский
перед@@
управлением
джи
вят
пии
дут
дра
голубой
миром
профессиональные
напря@@
врачи
Кин@@
защитой
явно
Хорватия
работающих
тских
Oc@@
Русский
передать
прице@@
Nat@@
шли
ТА@@
oon
корабль
нео@@
сохранение
линг
вор@@
нета
Kn@@
уважения
пары
службе
открыты
показаны
контролю
каз@@
Герцеговина
делаю
больнице
мень@@
тет
ствования
сказано
чами
электроэнергии
верю
дным
ПО
соли
контракт
шестой
сестра
каждым
кандидатов
водя@@
весе@@
Твор@@
нией
игровой
тацию
Джеймс
экстра@@
лесо@@
дон
боле@@
жидкости
изначально
Дар@@
ЛЕ@@
стен
Eng@@
парламента
резиден@@
культурного
Бюро
сотрудник
выполнении
Но
Зеландия
Искус@@
сигнала
чие
Университета
открытого
выгод@@
фармацев@@
органи@@
Phot@@
планете
Али@@
Reg@@
расти@@
функциональный
заявляет
привели
написать
попа@@
земля
личная
дет@@
показал
ровке
рыбы
собра@@
водных
Po@@
наоборот
последующих
компенсации
центральной
Юго
оказался
Ав@@
шири@@
снима@@
Ц
просил
Мен@@
выя@@
сел
несомненно
грузови@@
прямо@@
препаратов
лечеб@@
детской
рованную
нуться
животного
нами@@
гар
ллер
د@@
ственно
молоде@@
молоко
хий
принципа
Чан@@
ностях
ab
гон
навыков
дина
серьезных
анима@@
ood@@
русской
1500
точность
вай
Пан@@
коммуникации
УВКБ
зацию
десер@@
хру@@
дет
вар
высо@@
стрен@@
фикация
колледж
местное
заключи@@
Цен@@
продолжение
CP@@
французском
упомина@@
самих
реальные
параметры
мель@@
пока@@
спальни
началась
большего
Влади@@
удар@@
разработчик
2.1
мик@@
дух
Постоянного
Пакистан
подтвержда@@
объявил
университете
выражение
бюдже@@
ковым
спать
вспы@@
ценностей
ign
брать
разумеется
религиозных
смешан@@
сей
теория
Рабочая
носит
разруши@@
человеческой
семьей
захва@@
ожидать
вец
откройте
свадьба
антен@@
специальный
ниц
Tou@@
ковых
собираетесь
китайских
страхования
происходят
угрозой
стических
моему
роя@@
располага@@
судей
замена
Востока
моз@@
предусмотренных
Португа@@
Ст@@
tim@@
действи@@
эро@@
ond
небольшие
оре@@
104
онов
Ke@@
предусмотрено
составил
экономикой
ситуаций
пило@@
пользуются
наследия
частной
ционными
Europ@@
заканчивается
личного
темати@@
уче@@
точной
животное
фактором
уважение
Президента
вну@@
Новые
уре@@
частях
сохраня@@
лове@@
адре@@
развитием
направля@@
останется
кам@@
консульта@@
жите
утвержден@@
группами
чении
выходит
квалифици@@
Джордж
Норвегии
уничтожения
проблеме
бая
формате
интеллектуальной
блока
CT@@
традиционных
мыш@@
чили
ER
приятно
различным
потряса@@
Секретариата
правами
решила
DH@@
ошибка
рованием
Ала@@
израиль@@
индустри@@
Королевства
хватает
эко@@
ству@@
инструмента
потребность
кова
СС@@
отказ
тта
вовсе
Ираке
оптима@@
аре@@
Grand
угодно
СУ@@
отсюда
Ren@@
сно
морского
административных
физи@@
будешь
грави@@
изготовления
внимательно
существующие
соответствовать
европейской
социальным
удовольствие
подачи
точным
заверши@@
лле
настройки
бренда
эффективные
вмешательства
структуру
вила
музея
круглым
торами
á
чками
Пау@@
случая
СМ@@
рем@@
секретариата
географи@@
заставляет
1.3
Ган@@
прибытия
древесины
приорите@@
применении
появилась
Стороны
верить
1970
долж@@
обеспе@@
ors
мя
контролиру@@
космической
вку@@
тти
контента
сообщила
ющееся
просила
Париже
Большой
реальной
домашнее
совместной
приема
Джей@@
Островов
продукцию
профессионального
сала@@
льда
особого
цин@@
Аэро@@
наука
ек
самыми
русского
тивную
меняется
издание
Ну@@
пят@@
небольших
труд
металл
татуи@@
выставки
персона@@
подходят
уте@@
шины
просьбе
прекращения
кен@@
органом
военный
картофе@@
ноутбук
количестве
долго@@
пыли
провела
подробную
высказа@@
рекор@@
должностных
красная
кну@@
быстрого
третьего
выполнению
ленное
ношение
сер
Star
оконча@@
ons
запад@@
Дания
страш@@
китайском
альный
пояс
преимущественно
свободный
техническое
oom@@
объемом
вшим
надеж@@
отражает
vi@@
сильнее
переход
Вашего
ляют
предприятие
устойчи@@
диод@@
рийская
торные
флаг
стандартам
колони@@
армия
времен
фантасти@@
левой
тран@@
дело@@
шими
лян@@
дважды
щё@@
Рожде@@
Cat@@
собира@@
остальных
королев@@
лест@@
­
соответствуют
ультразву@@
Сьерра
региональными
направлены
2.2
забы@@
углуб@@
друже@@
und
увидел
препараты
администрация
напряжения
Tw@@
Администра@@
3,5
генети@@
нападения
логические
бедствий
Хол@@
рыболов@@
услугами
Фин@@
печата@@
хранить
Саудовской
ждением
руководящие
шан@@
AD
мяч
неоднократно
плот@@
статистики
похи@@
чит
лым
переди
лаборатории
поддерживают
миллиарда
приемле@@
запросу
кки
стей@@
pos@@
коммуника@@
сравнить
больных
зоной
жо@@
требование
появился
десятки
выходные
цей
108
уважа@@
сочетании
нова
кторы
соедини@@
брен@@
окра@@
жизненно
ax@@
активное
началось
свобод
строительных
бол
общим
официального
мобильные
рис@@
геры
выпуск@@
башня
распространяется
Бели@@
пиро@@
old@@
прохла@@
еду
платформа
благотвори@@
com
понятие
адреса
возвраща@@
восстано@@
Рай@@
Португалия
точную
Ham@@
бутылки
Bay
пытался
Dre@@
изме@@
уход
экологи@@
закончи@@
потенциальных
магазине
IX
признаки
произво@@
погру@@
ведут
Китайской
хрони@@
налогов
получаете
окружа@@
обычных
активного
соответствующий
ubl@@
март
сада
вопросе
едино@@
Joh@@
SW@@
пом
ах
вдоль
свежие
фом
попасть
1200
керы
дей
избегать
лич@@
170
ith
PG
оболо@@
DS
лас
после@@
значительные
поступа@@
стера
убийства
Амстер@@
ld
емо@@
Star@@
лени@@
серебро
графия
Fin@@
2500
исключи@@
понадобится
мости
изо@@
Toyota
Дру@@
исполнения
Боснии
горячие
поставка
Экономического
яркий
экологических
стратегию
Джи@@
ame
ключевым
броса@@
лэ@@
родного
пятницу
нном
продолжается
вающего
рука
английски
прийти
орга@@
падения
форми@@
коррупции
цкий
СНГ
следующая
взаим@@
Af@@
дольше
графии
специального
осуществляться
иностран@@
потока
SP
имея
моменты
полномочия
росту
евреев
нш@@
дистан@@
терапия
Studio
ild@@
души
национальная
значительный
цифро@@
межправитель@@
Устава
предложено
кер@@
Услуги
прошло
ո@@
Пана@@
тельному
ина
вающим
эт
непреры@@
мастер
известные
живете
свободные
массового
длительного
административного
некоторым
визит
надцать
ар
горячей
ленной
ральной
идею
ct@@
Австрии
останавли@@
отделения
массо@@
oth@@
органам
АО
Афганистане
официальные
твер@@
изба@@
открытой
сахара
запас@@
надзора
проверка
взгля@@
убийство
Бон@@
академи@@
матери@@
возможным
половине
строго
ull
Inf@@
дополнительно
чувстви@@
завершить
порта
ions
разо@@
ато@@
ценой
выступили
женное
тя
поки@@
шриф@@
чувствуете
долгосрочной
космического
боро@@
акты
тяги@@
гуманитарного
дем
мное
проводятся
возвращения
запуска
сознания
предпринять
заклю@@
лекарств
посы@@
временно
чистой
коллек@@
тч
контей@@
зало@@
Граждан@@
лом@@
Демократическая
рес
ремонта
els
муд@@
Святой
создают
ear@@
ционном
осуществить
правду
вли@@
споров
вкус
кан
напа@@
115
доступ@@
красота
информа@@
лицензи@@
справиться
ходов
компрессо@@
психи@@
концепция
зор@@
Христа
дай
срочно
пони@@
метрах
American
низм
городских
указыва@@
данному
кнопки
консультация
направлений
Рим
нях
плани@@
очеред@@
A.
Финляндии
встречу
перехода
лога
экологической
доступных
построен
Союз
лестнице
использо@@
Уи@@
привлечения
ост@@
реги@@
возникают
зависят
организовать
жд@@
вдохно@@
Пуэрто
искали
ограниченными
угол
Золотой
кации
сра@@
заключенных
Фонд
электронный
Пакта
директоров
компози@@
научные
210
бами
ьян
временных
тивными
результатам
SD@@
ир@@
Лас
стки
канала
фов
ленты
завода
ува@@
задолженности
жают
Суще@@
волну@@
106
вибра@@
прием
понимают
куль@@
душ@@
д.
полученных
скажи
Российская
нит
кода
публи@@
мед
дс
спросить
рудо@@
мониторинг
гам@@
обнаружения
работаем
специализиру@@
побережье
драй@@
приез@@
вовле@@
турец@@
пятой
ченной
ау@@
наличия
стери@@
самостоя@@
стры
сков
ктива
сопротивление
интеллектуаль@@
Dav@@
нили
удар
смогу
жало@@
символ
Корейской
физические
отправления
взносы
изыска@@
корпуса
измери@@
Ана@@
седьмой
возра@@
боевых
гей
король
ning
поз@@
шены
глубо@@
ن
условиями
дие@@
нализации
шке
лос
лесби@@
южной
местной
обществом
ISO
получается
любов@@
регистри@@
внедрения
Комиссией
обозна@@
юстиции
лс
обуви
стабильность
расши@@
цифры
рекомендо@@
ert
подвер@@
бактери@@
сэкономить
Sim@@
чке
компетен@@
видят
ДЕ@@
трубо@@
иран@@
торговый
Sur@@
выбором
Az@@
Форт
национальными
услышать
наблюдать
крупным
ax
вск
предо@@
подтвердить
дим
филд
некоторыми
нении
содержать
компаниями
чьи
пар
йной
повлиять
системах
гипер@@
необходима
арабских
тив@@
МЕ@@
шается
шах@@
рассматриваются
чём
бен
Тринида@@
низких
стров
указать
изуча@@
Церковь
спас@@
мощный
живых
американская
вряд
объектив@@
дене@@
счастье
профи@@
расширению
введения
пост@@
юр@@
ron
точек
стской
свадьбы
парти@@
подразделения
признания
ñ@@
поле@@
эксперт
десятилетий
Пекин
CO
маркетинга
загрязнения
машин@@
эм@@
ООО
комитетом
возобно@@
симптомов
фре@@
чув@@
няют
видно
вечер
облег@@
охва@@
замены
гах
экономическое
согласо@@
Сен
используете
Сингапур
единиц
ьи
европейские
фильме
дале@@
бир@@
сток
BA
широкой
конференций
наб@@
фактов
мар
наблюдается
112
вызо@@
Иисуса
народ@@
впрочем
Play@@
Леоне
улицы
гоне
храни@@
камен@@
вляется
трансы
зеленые
Red
Руковод@@
яние
iPad
продажу
алкого@@
сделаны
кислоты
навига@@
постоянной
процессу
исход@@
чному
перви@@
больница
соба@@
передача
нови@@
деревянные
пау@@
миро@@
имеющие
йного
испол@@
предназна@@
жали
видит
облож@@
карьера
соблюда@@
задержа@@
живые
затраги@@
спраши@@
Виль@@
Ирак
нижней
ехать
участникам
заводе
основного
мской
шением
розни@@
используемых
коллекции
торже@@
помогите
Кни@@
ресторане
свободное
App
Калифорния
стари@@
янки
лес@@
энергетические
текущего
докладу
Бангко@@
образованию
line
заполните
распределение
массой
шенные
нин@@
врача
Дей@@
восьми
получит
проводят
преимуществ
Рек@@
оформ@@
гарантирует
разнообразие
Майкл
мероприятие
содержатся
традиционные
сложные
проходят
превы@@
матчей
Петербург
драго@@
č@@
дополнительный
курсов
рассматриваться
съемки
ė
графика
призыв
затраты
влаж@@
молодые
подрост@@
палестин@@
документации
over
Мэри
железы
экспер@@
Чикаго
развивается
взры@@
местном
планирование
абсолю@@
отдел
Нау@@
сутки
поезд
шься
политическая
пистолет
реальный
буквально
сзади
пластик
частиц
ницу
западе
Чешской
дискуссии
наследо@@
верхней
отмечено
неуда@@
блю@@
вырос
135
несчаст@@
готовности
империи
ющимися
легких
доступные
идеальный
шести@@
соответствующую
продовольственной
этаже
свидетельствуют
конкретной
существовать
вязыва@@
республики
автобус
влияют
ужи@@
юге
собрать
процессо@@
экране
резать
сумасшед@@
Express
твоей
ა@@
постановил
научной
Аргентина
значительная
двое
мите
воздушных
эффектов
бесплат@@
Ново@@
конструкция
обнаружи@@
везде
подключения
понимает
австрали@@
социали@@
щика
жений
недостаточ@@
сотрудника
скоростью
консерва@@
отделение
Дан@@
постановляет
доходы
марки
убий@@
независимых
смарт
принципе
игроки
хаус
управлении
наслаждайтесь
примером
установлен
душе@@
CP
постоянный
белого
Вашей
ота
мую
небольшая
Американ@@
общи@@
резко
Королевство
секретарем
карьеру
Бур@@
определё@@
пом@@
наверняка
участии
внутри@@
скажу
Федерация
озаглавленный
Валь@@
дорожно
суды
коммерческой
медицинская
остались
зра@@
используемые
воли
Gro@@
Эстония
почто@@
пой
находи@@
комментарий
ВТО
ницей
пределы
ОБСЕ
клиники
4.
зова
гии
чества
Гаити
противополож@@
Звез@@
избран@@
попрежнему
недалеко
применяться
РУ@@
ошибку
Экономи@@
：
иммиграции
влия@@
преде@@
Cit@@
проектом
отслеживания
летней
зави@@
подобное
адаптации
жению
граф@@
эпи@@
ИИ
теров
многочисленных
быстрая
предыдущие
гон@@
численности
уделять
сельскохозяйственной
чне@@
iel@@
спек@@
понятно
чны
упу@@
пон@@
пройдет
уто@@
Aud@@
подчеркнуть
103
потерял
уб@@
Аравии
ровкой
1960
XXI
установлено
подви@@
жие
интерьера
спокой@@
аналоги@@
позиция
оцен@@
делается
кирпи@@
продавать
Дании
тками
избавиться
вышел
net
мыс@@
дальнейшее
yt@@
физическими
пласт@@
операция
исте@@
Fac@@
денежных
сжа@@
написа@@
Тро@@
беремен@@
современном
Тон@@
ряд@@
ric
рим@@
Dev@@
цзя@@
японские
Hel@@
ребята
экс@@
сочета@@
правительствами
реали@@
одежду
ходом
лениях
Музы@@
предупреждению
320
рассматривает
докладчика
необходимой
пришла
мастер@@
знала
член@@
ул
проволо@@
разработан
развиваться
ž@@
доказать
Сам@@
Мария
←
Румы@@
страдают
гая
вилл
устра@@
местоположение
женным
отвечать
Суда
лице
одноразо@@
концер@@
препарат
новогод@@
ОС
враща@@
болезней
временные
многом
вождения
цы@@
109
успе@@
взял
запасов
расположена
плохой
команду
тако@@
сухой
Арген@@
ребенком
Социального
спу@@
Мала@@
практику
йским
производится
реак@@
гает
финанси@@
глобальном
политический
мировом
солнечных
наблюдателей
крово@@
слой
слышали
общины
Косово
right
ЮНЕП
торговые
иные
снять
оты
1988
цифровых
оказывают
производству
пси@@
паралле@@
230
тепловой
ощущение
команде
садо@@
ног
Goo@@
присутствия
рией
гем@@
бывшей
программи@@
добро@@
выз@@
такси
установлены
леты
вызывают
щено
Молдова
Богу
МГ@@
близки
думали
ank
птицы
реагирования
вел
Ль@@
доступность
содействии
заим@@
развлека@@
обстоятельств
рат
выигры@@
поколение
WEB
народу
храм
Программа
социальная
выде@@
испыты@@
ights
зда@@
ляются
правовые
онный
позвонить
изъя@@
вашими
реклама
государственными
ФА
достовер@@
альные
столом
изучать
нагрузки
четвер@@
выстре@@
наце@@
робот
дек@@
заболе@@
инструментом
тового
обвинения
ЛА@@
леса
шпи@@
сное
принести
повседневной
активы
обед
совместного
Мис@@
физического
домом
пользовательский
коммуни@@
дыха@@
указанные
хозяйство
Европейская
сочетание
показало
пера@@
Super@@
ответ@@
коллектив@@
алкоголя
шел
ი@@
увели@@
лений
психологи@@
манда@@
стратегического
организованной
обработка
неправильно
достигли
фактор
открыто
партнеры
потенциально
соответствия
удовлетворение
лидером
Генеральным
дин
Протокола
шту@@
α@@
говя@@
экстреми@@
стресс
технологи@@
ального
раство@@
обши@@
ресторана
говорила
Mus@@
стого
ls
убор@@
сет
апо@@
самолета
шенный
Цена
новей@@
разрешением
отсутствует
жену
ets
пожилых
случайно
пери@@
Стре@@
финансовым
DP
требованиями
пробу@@
ратификации
бывшего
AF@@
зависи@@
жалу@@
принципами
выбро@@
парламент
напротив
обсужда@@
насы@@
тропи@@
интересу@@
Гали@@
надежду
vel
игрок
полосы
Note
доли
рит@@
продуктив@@
удивительно
пато@@
новостей
настоящая
думала
конструктив@@
ченного
западной
интернете
валю@@
устойчивости
gle
будди@@
Ах@@
подумать
емость
известна
налог
Сай@@
долг
выяснить
пытались
инноваций
широкое
вленной
смеш@@
Дон@@
гибри@@
возвращение
Послед@@
ливи@@
тору
государственным
выплаты
опы@@
восьмой
христиан@@
вло@@
шенных
подробнее
зен@@
применением
оратор
Совете
пище@@
марки@@
жах
малого
окружающую
выполняет
суде
Gen@@
индивидуальные
Русской
эмоции
дорогие
СС
лизма
искусств
зри@@
заседаниях
самолетов
считаете
Европу
предста@@
быстрой
кад@@
образцы
категорий
смеша@@
Пользова@@
инстру@@
атри@@
магазины
Ford
равни@@
сокращению
вская
службу
наркотиками
Свобо@@
медлен@@
доноров
впечатление
чет
человеческих
челове@@
стие
ветра
опла@@
описа@@
отличаются
трансформа@@
экономическая
составит
фер
помогать
равно@@
прочие
ллы
сообщается
динг
речи
способ@@
эксклюзи@@
озера
временной
след@@
EX@@
шагов
государстве
погибли
наци@@
состоялась
Ско@@
льти@@
сексуальной
поиске
исправить
мусульман@@
точности
тельностью
трехмер@@
культур
счастью
рак@@
ТИ@@
вость
отправиться
уверенность
представила
границу
шла
торгового
фра@@
лено@@
электрические
американцы
коммерции
няться
Стамбу@@
упа@@
умереть
расположенных
известным
обраща@@
ешься
вленная
насчет
мысль
промышленность
Inst@@
бое@@
лифт
воздушного
Египта
объеди@@
льд
Дэвид
ауди@@
вынуждены
яйца
вручную
выступая
Christ@@
конкретного
способа
ht
постоянное
рассе@@
TP
смертности
Нико@@
египе@@
делиться
щики
сервер
приготовления
Сербия
печенье
районы
вающее
раду@@
смен@@
оперативной
считаются
простых
нём
Inc
учитель
дизайнер@@
покинуть
химического
изменя@@
настроить
Ob@@
реально
ждены
сертификат
временный
видами
близкие
писи
Генеральному
нат
Канаде
низкие
раб@@
номина@@
Trans@@
налоги
журнала
постоянных
земель
ел
позволило
Dec@@
кса@@
ington
перевода
Center
медицинское
eth@@
голова
компьютер@@
мужа
эм
штра@@
уси@@
предварительного
журналистов
международная
GO
гарантий
море@@
комп@@
весело
санитар@@
фондов
треуго@@
ost
ris
ms
расстоянии
промежуточ@@
контейнер
берегу
играл
сложной
связанным
ath
Эм@@
устройстве
блокировки
гтон
повреждения
стил
шает
познакомиться
готовность
низкое
ute
Джу@@
препят@@
надцатой
направлена
длиной
биологи@@
твои
противном
кали@@
111
град
упражнения
ждению
скре@@
метода
просить
3.2
душу
имела
капитал
NS
корпорации
иное
территориях
еры
тером
годи@@
герой
последующие
кото@@
Уль@@
типи@@
Ат@@
интерес@@
карди@@
Индиа@@
йд@@
Обама
направлению
ف@@
тяже@@
Анджелес
метеоро@@
8000
VR
квартире
запраши@@
ябло@@
карбо@@
аэро@@
Путина
Порт
тормоз@@
замени@@
вным
реализовать
ара@@
реагировать
шед@@
премии
выключа@@
190
трена@@
видения
фабри@@
оригинальное
ченным
встреч
уменьшения
сценарий
йде@@
стоят
разбира@@
мероприятиях
иннова@@
вред
нынешней
мужчинами
ничто
Иг@@
реализация
главного
Французской
TRANS
занятия
официальной
баланса
107
рили
шему
рта
патен@@
сипе@@
масса
допу@@
сохранять
камеру
министром
Intern@@
2.3
Coll@@
Pow@@
зен
здании
дамы
бер
бом
опа@@
бюджетных
Серб@@
использовал
кторов
совершенствования
ber
дру@@
властями
мир@@
рукой
поверить
конкурс
практикой
175
благоприя@@
календар@@
нега@@
водить
гонки
мечта@@
достоинство
солнечные
Гарри
эндо@@
баль@@
интерфейса
чья
ряду
осуществлением
скажите
настрой@@
емости
фестиваля
восток
ноч@@
моро@@
кандида@@
тепло
определенного
узнали
мут
врачей
характер@@
Официальный
птиц
честно
хай@@
никого
ЮНФПА
чает
вского
компьютеров
простое
команди@@
программой
потерять
профессиональная
потеря
прос@@
няются
фильтрации
газеты
давлением
китайская
приносит
играх
читайте
Inter@@
проник@@
андро@@
Комплек@@
приспособ@@
Апре@@
появления
ç@@
остро@@
китайской
чувствуют
жаются
ночной
находились
анти
внеш@@
удержи@@
Югославии
депрессии
убежища
годами
допусти@@
подтверждения
руг@@
учебные
собственность
планом
контактов
проверен@@
позиций
Hy@@
цифровые
зага@@
произойти
промышленной
Литва
импорт
бывают
поощрять
Венгрии
есте@@
финансовую
арбитра@@
словом
полным
зме@@
представительства
созна@@
суть
небольшое
жам
воздушные
Tel@@
тексти@@
медицинский
дату
ядерным
укреп@@
ставит
Основ@@
деловой
Go
терми@@
железа
черте@@
последним
потеряли
секретарю
B.
уничтожить
депози@@
подразделений
ology
предназначен
Уголов@@
телях
долгое
принцес@@
умолчанию
курения
торговлей
выпуска@@
количе@@
ø@@
транзи@@
зимний
проходя@@
проведены
втори@@
выявления
иностранные
жден
обычные
геро@@
диф@@
шам@@
определенный
тному
содержащиеся
концентра@@
невероятно
целе@@
жными
соч@@
неве@@
евой
трудящихся
жаль
квалификации
заслужи@@
соз@@
напи@@
пароль
ули@@
кошка
добы@@
занимаются
определены
дию
толщина
позна@@
Исполнительного
просматри@@
копи@@
функцией
гуманитарных
рем
традиционный
материаль@@
агрессив@@
мамы
Do@@
внедрение
пищевой
монеты
гарантия
анони@@
юрисдикции
ненные
понимаете
точного
милли@@
примет
жном
исполнительный
платежей
один@@
атаки
ר@@
чё@@
борту
напомним
мерами
альбома
представленные
иного
мексикан@@
юридической
📹
округ
убил
All
запрет
рако@@
обратитесь
Mark@@
фруктов
эли@@
добычи
ждает
Том@@
жесткий
уточ@@
мощ@@
литератур@@
жертвы
лекар@@
бей@@
согласны
Свет@@
препарата
Ast@@
призываем
исключить
мала@@
Института
видела
точное
лое
вече@@
логи
ваемой
Народно
изоляции
Конференция
Сар@@
уде@@
мыши
надеется
появиться
никах
подготови@@
ats@@
Rev@@
средством
плане@@
йе@@
испра@@
Бро@@
моли@@
Южный
путешествий
политическую
учиты@@
существа
отмечая
шансы
пальцев
XX
отчеты
ель
делегаций
субъектов
дево@@
глазах
внед@@
4.2
столи@@
Эстонии
путешествовать
употреб@@
бага@@
реше@@
предметом
собирать
стремление
француз@@
звучит
Промышлен@@
производит
шений
сильные
принята
счетов
огромные
дому
Индонезии
национальное
реакция
мок
присутствует
музыкальный
узнаете
Сара@@
всякий
подобного
подходящее
смеши@@
ο@@
Вирги@@
ФАО
сове@@
вей
культуре
поиско@@
выдвину@@
двойное
рующий
шком
факти@@
точных
смогла
выставо@@
Gir@@
коман@@
роско@@
усилиях
зме
предупре@@
ухуд@@
государствах
физики
каковы
вани@@
любому
именем
представителем
выразили
маги@@
sw@@
Da@@
черного
Лор@@
ЛИ@@
школах
сознание
Part@@
продвину@@
евро@@
фундамента@@
стади@@
Социаль@@
стерлингов
организу@@
вплоть
вило
введ@@
общение
ллин@@
камни
энергети@@
желания
временного
альной
заработной
Don@@
касающимся
дин@@
элемента
истори@@
вирус
инженер@@
самим
Tal@@
пациенты
HS
ОД@@
активных
явление
Торонто
литься
ays
вирус@@
Vis@@
скло@@
ИТ
преступление
какими
цепоч@@
девушек
тремя
рации
Марка
капитали@@
зывать
достижении
визы
вшейся
пользу@@
Вами
новому
партнером
Латвии
тивно
необходимое
рово@@
выпуска
ратифици@@
текущая
помещения
оси
набора
проходи@@
рек@@
нынешнего
континента@@
прочего
шли@@
устанавли@@
Дом
тестирования
ора@@
авиации
фици@@
водителя
филиа@@
вини@@
завое@@
архитектур@@
заболевание
республикан@@
разнообраз@@
отслеживать
тепла
учреждение
пробе@@
заработать
рекоменду@@
земле@@
карьеры
известной
классическая
полис
клуб@@
шин
эффективный
поисках
any
Верховный
правительствам
дополнительная
зовут
применению
посте@@
курсе
PR
совету@@
каналов
оригинальные
проведено
покупку
чрезвычайной
Конвенцию
чиками
рую
Gal@@
партий
выгля@@
Президент
сексуального
зимой
использу@@
представленных
уве@@
шампан@@
разными
сче@@
Кей@@
иным
военнослужащих
прису@@
отражение
виде@@
Афганистана
удобным
должным
овощи
теплые
воспита@@
доступно
боже@@
ровало
доказа@@
ожи@@
Франциско
Power
чувствует
исключения
ПР@@
угроз
внешнего
шет
раннего
костей
Ген@@
Ваши
комбини@@
щиеся
кислорода
дила
пон
летнее
местными
отдела
ault
остано@@
AG
встречаются
нда@@
Мадри@@
постановила
пищевых
зором
подписан@@
гармони@@
живой
использован
вопло@@
щаться
предусматривается
мнений
фрукто@@
типо@@
видишь
открывается
рий@@
Эли@@
иллю@@
награ@@
ленном
волок@@
поправок
Сте@@
избы@@
тическими
Дра@@
Дэ@@
чрезвычайных
квартале
ослаб@@
необходим
терапев@@
реда@@
попросить
якобы
Сергей
численность
накопи@@
соль
появление
активизировать
левая
стического
жер
находился
вали@@
гли
рек
природного
запла@@
ино@@
городом
ознакомиться
музыка@@
жается
йдя
вступи@@
методи@@
стандарта
записей
сообществом
спра@@
старых
Driv@@
полицейских
Live
покупателей
генерал
подде@@
португаль@@
сказа@@
совет@@
луч@@
енных
мышцы
республика
благодар@@
VII
подтвердили
мел@@
симпати@@
желез@@
глад@@
Шко@@
табе@@
Int@@
решительно
ML
гал@@
пад@@
нано@@
преодолеть
Много@@
бизнесе
Земля
шению
теп@@
участвует
заказать
вдруг
поступления
реализацию
труб@@
Comm@@
МАГАТЭ
чком
улица
думает
ссылка
модернизации
народы
вшая
конкретно
присут@@
попытаться
любимый
видимому
вышла
пятница
приводится
ствует
содержащихся
друзьям
пусты@@
бросить
альбо@@
сосе@@
вив
переход@@
подобно
победы
эсте@@
стоять
выгоды
самолете
умные
стам
зован@@
Моло@@
похоро@@
Макс
глазами
raft
щенной
культурной
ی
ange
Лен@@
привле@@
группи@@
очков
Вега@@
обязан
путешеству@@
цени@@
кредит
безопасно
единственной
узна@@
увеличению
желает
цивилизации
RS
мобилизации
Life
вайтесь
кван@@
курение
фраг@@
утвер@@
оказалась
единства
выпуск
процессом
ition
макро@@
лицензии
Intel
сан
атомной
студии
поощрение
важнейших
обстоятельства
юри@@
среднее
обнаружить
отправ@@
консенсуса
перемещенных
отмечают
клини@@
рыча@@
твердо@@
шеи
получат
Карибского
политикой
устранения
жизне@@
ути@@
заявки
найден@@
письме
делая
проведенных
построен@@
суши
вход@@
органах
средствах
фунтов
установленных
совершить
удо@@
тья@@
системами
рациональ@@
улучши@@
Соединенного
вленного
нажа@@
единого
Ир@@
стремиться
ограничение
попыта@@
Восток
характеристи@@
грузовик
туризм
Вьетна@@
уника@@
войной
Fil@@
СТВ@@
предназначены
объясняет
темпы
высоте
Art
сило@@
Gold@@
зону
принимается
Консультативного
солне@@
владельцев
переклю@@
дальнейшей
работала
содержащий
наилучшим
пригото@@
ланд
оказании
Дели
компаниям
Узбекистана
внутренняя
решает
подать
поблагодарить
атмосферу
Ию@@
азербайджа@@
Leg@@
скать
ую@@
имущество
лую
демо@@
условиям
оз@@
ГА@@
кожу
предоставляют
серьез@@
сосредоточиться
Румынии
склад@@
образа
пыта@@
дания
участвуют
бурге
прошел
оснащены
авиакомпании
шин@@
учителя
Стандар@@
актуаль@@
зде@@
холодный
разведки
местным
предъя@@
партнера
Интернета
привет@@
правилами
председателя
поцелу@@
осуществ@@
Кристи@@
происхождение
рейтинги
итоги
бал@@
Тех@@
Рез@@
знаниями
фю@@
составила
пищу
меняет
нередко
край@@
главные
судом
синхрони@@
лечении
oft
разно@@
ящик
стратеги@@
дополнительного
таль@@
согласен
укреплять
пожела@@
пожи@@
внутрь
достигнут
смена
вошли
производственных
напиток
адвока@@
бана@@
интересам
МВФ
S.@@
ряды
НИЯ
Ли
заинтересованными
русских
тим
живем
рассчитывать
визита
оказа@@
Пала@@
Африканского
последующей
явля@@
хими@@
Вар@@
оле@@
отсутствии
игнори@@
кора@@
участию
Эль@@
голове
ates
задачу
смартфонов
общими
мных
молодежь
Всемирная
явления
Судана
принимаются
остался
дефек@@
раздела
спортивных
собственным
собрания
трю@@
близ@@
тенни@@
рабочем
реальных
гур@@
письмен@@
подростки
семейный
аналити@@
лицу
жалобы
союз@@
116
сформули@@
лизм
запис@@
знако@@
ę@@
наслед@@
правилам
рабочее
мерам
порой
глобальный
частным
запро@@
201
приглашение
почувствовать
налога
рели@@
собственное
назначение
сомнений
тивном
миротвор@@
пиксе@@
ale@@
способами
социальное
Эд@@
правительственных
Мэри@@
отслежи@@
наруши@@
возникнуть
3.1
Add.1
закупок
ходя@@
китайского
Китаем
принуди@@
сфера
продоволь@@
удовлетворить
техническую
удара
охран@@
программах
целостности
семинар
личную
подъем@@
Парк
Ваше
безопасной
правозащи@@
гражданство
защищает
изменениями
традиционно
кина
выступления
грузин@@
4.1
домашние
столицы
полезных
земе@@
являться
занятий
снижению
компонент
Amer@@
обосно@@
емкость
рекомендовать
рассмотрел
лекарство
СКИ@@
баскет@@
10000
распространен@@
Игры
разработаны
старший
выступать
экра@@
иниции@@
уса@@
мигра@@
формах
Гай@@
метаболи@@
тратить
осведомленности
тверды@@
развед@@
нулся
выживания
Тур@@
справедли@@
украинская
Сак@@
рассказывает
Азербайджанской
ён
олимпи@@
мальчика
выбрали
развивающимся
сцены
исторических
Кипр
посмотрим
сотрудниками
тости
говое
спортом
тром
окончание
Паль@@
Болгарии
заместителя
предстоя@@
фразы
фирмен@@
никак
ответов
ответствен@@
боли@@
ростом
ветро@@
дальнейших
попытка
шина
PV@@
ракеты
открыл
милая
Абу
молока
крупнейшим
требовать
ОБ@@
дипломати@@
треть
потра@@
ваемого
эффекта
Каза@@
отправьте
освобождения
сделок
веру
запросы
процессор
вспомога@@
зубов
Кэ@@
поче@@
действиях
ş@@
настраи@@
девятой
аудитории
определи@@
Папуа
журнале
бедности
демонстра@@
научи@@
частная
никому
Азиат@@
климат
вига@@
зарубежных
закону
испытание
удастся
Гвинея
ة
зависимость
ИС
ллю@@
сопоста@@
New@@
приоритетов
успеш@@
берет
свободных
препятствий
началом
параметров
замечаний
искрен@@
бин
промышленный
РК
стимули@@
1950
шена
гражданским
объединения
звука
Стокголь@@
термина@@
Point
вклады@@
тыся@@
выво@@
возврат
куби@@
предусмотрен@@
зарегистрировать
сборки
успешного
сборник
концентрации
защит@@
сильным
опубликовано
Саудовская
середины
обога@@
ностям
продуктах
полага@@
цин
переез@@
камер
гуманитар@@
зах
определении
печени
une
122
кса
Роберт
акт
рекомендовал
подар@@
рази@@
подразде@@
костью
множе@@
сидеть
формой
преследования
статистических
частный
легкая
роу@@
ых
дор
ждут
Vo@@
раско@@
вносить
карто@@
особые
описы@@
сертифици@@
жертвами
пригод@@
интерпре@@
агент
рым
зако@@
структуре
края
нач@@
штам@@
серде@@
стена
зависеть
диагностики
Нигерии
младен@@
ологи@@
величине
демографи@@
мечта
123
генератор
сцена
жэ@@
подчерки@@
преимуществами
стин
мени
Еди@@
парке
прибе@@
ր@@
активизации
1986
практических
акти@@
C.@@
осо@@
трети
веков
посвя@@
СК@@
правы
подверга@@
Северный
кресло
лизацию
гена
гласит
инспек@@
стремятся
Красно@@
оценок
гана
третья
выста@@
Луч@@
щи
тенденция
нрав@@
Пот@@
эпоху
круга
вшегося
маркетин@@
дий
посетите
кварти@@
ведущий
посещать
камня
fer@@
оставил
стоимостью
технологию
стороной
принципах
Пло@@
пиво
редактор
подписали
сыграть
полез@@
включен
границей
тюрьме
Ассоциации
детского
позволят
приобретения
Vir@@
кредитной
199@@
краски
эпохи
тках
ас
суль@@
танец
Рен@@
Запад
раствори@@
персонаж
эр
воздуш@@
стандартный
родной
ремон@@
обеспокоен
ı@@
кать
114
дино@@
C.
интерьер
признавая
неофициаль@@
увеличивает
побу@@
тическое
важности
5G
следова@@
е.
поляр@@
близости
кухне
пропаганди@@
иммигра@@
реальное
таможен@@
угроза
заказа@@
схемы
Тар@@
менеджер
мяса
Нидер@@
транспортное
любил
хла@@
людских
ень
гибкий
квадратных
сопротивления
ору@@
ГО@@
способствуют
особых
указания
оставля@@
генеральный
стое
развивающиеся
Green
пев@@
препода@@
Co
древних
цес@@
проро@@
сфер
наве@@
равных
гс
Sub@@
погод@@
всеобъемлю@@
подтвердил
Украину
исследовать
максимальной
тории
возник@@
административным
идеаль@@
генов
нарушением
эмоциональ@@
пута@@
алюминий
рас
яче@@
читься
Нигерия
инновации
телефоне
увеличивается
Royal
доми@@
5.
Acc@@
открытых
импуль@@
смысла
преследо@@
нравятся
щений
счастья
EC
сердечно
проигры@@
Аф@@
225
науке
потребностям
партнер
Барбадо@@
юридические
заявля@@
насиль@@
охвата
просьбы
персональные
ос
фанта@@
искусственного
рассказыва@@
заявлениями
предотвращению
YouTube
поставщика
управляющих
1985
выпла@@
спросите
усилиям
сферу
сексуа@@
выполни@@
нс
уникальные
открывает
горе@@
грамо@@
выйдет
гос@@
лучшими
расслаб@@
гражданам
применительно
семена
инспе@@
исследователей
мет
истины
улыб@@
передаче
Фар@@
тренировки
Ван
ультра@@
лева
Ней@@
средних
влиять
перечисленных
руководители
Volvo
МИД
א@@
согласованных
растя@@
Солне@@
ственности
рассчита@@
сал@@
изи@@
пожалуй
надежды
Дай@@
промышленные
предоставляются
представили
хорва@@
станови@@
Аравия
ents
вест@@
пострада@@
1967
узнал
техническая
падает
принятию
вие
Мозамби@@
шлю@@
Бир@@
понимаем
Сове@@
программирования
1987
направлен@@
ե@@
встречается
Вес
пытаюсь
BM@@
Каи@@
законопроект
рассмотрим
прочитать
качественные
прошлое
восстановлению
кодекс
дефицит
состоялось
недостатки
направить
солнечный
Голу@@
незаконного
классические
потреб@@
МС@@
Ltd
Шу@@
лыми
содержанием
нно
государственном
Нан@@
соответствующее
подроб@@
скро@@
журнали@@
отлича@@
казни
ьер@@
официальное
Богом
FO@@
Медици@@
Кем@@
сторонам
тает
отличные
e.com
температуре
разбирательства
плате@@
Марк
линзы
Шер@@
уполномо@@
оккупи@@
материально
быстрое
Израилем
импорта
традиционной
Хер@@
конвенций
подлежа@@
выну@@
договоренности
Ш
партнерство
подходов
специалист
относиться
владелец
МОТ
Жене@@
жную
симметри@@
ложить
художник
заслу@@
способна
принятой
уроки
1,2
ждений
масси@@
закуп@@
площадка
155
инвестировать
тиями
обязанность
парко@@
выжить
проектам
адресу
равенство
приоритетных
короля
женой
бан
особый
инициативе
диви@@
Off@@
сервера
цело@@
президен@@
ниться
Суд
расы
сделан
Play
приняло
наказание
скульп@@
зму
представительство
артери@@
тви@@
обви@@
разговор
Казахстане
Воль@@
держит
судеб@@
Киеве
этнических
делах
oci@@
третьим
смяг@@
a.@@
ations
судьи
примеров
исследованиях
ово@@
хат
вспомогательных
рении
влю
Англия
ps
Time
взима@@
Словения
118
Ката@@
Instagram
небес@@
говая
идентификации
инициатива
Lab@@
колон@@
человечество
довольны
отпуск
вооруженные
вшими
космических
л.
документа@@
прошла
кризис@@
реабилитации
криптовалю@@
важная
следующую
частицы
оке@@
выборе
рэн@@
оккупации
надлежащего
территория
проводиться
конкурентов
наркоти@@
идеа@@
произведен@@
известного
огра@@
картину
позициони@@
Тимо@@
маршрутиза@@
Йе@@
гна@@
ида
серьезную
зин
неприемле@@
чах
страдает
повышает
ценные
состоялся
настоящие
Шан@@
возду@@
нта
заметил
прекрас@@
ванного
лям
независимого
Art@@
кции
заявлений
стских
126
зан@@
пересмотреть
лого
фос@@
ходят
ляя
профилактики
устанавливает
подбор@@
ныне
линию
ранних
сало@@
Никола@@
автоматизи@@
лидера
мара
занять
чистки
гнуть
культурные
интерфей@@
юг
проли@@
веща@@
эксперимента@@
Уил@@
доверять
йные
платформу
Фри@@
являющихся
кибер@@
рэ@@
размером
будущей
философии
чистого
лера
существу
новость
устойчивое
точке
ე@@
четырех@@
вленную
изменении
индивидуальный
Уор@@
УВКПЧ
iOS
моне@@
Adv@@
ices
министерство
туман@@
Республикой
сам@@
550
говые
перво@@
дера
ram
гендерной
преобразования
внешние
кари@@
венти@@
чений
Volkswagen
Варша@@
глав
Ass@@
шении
вреда
вляют
джер@@
результатами
заявлением
привер@@
большими
отклю@@
хороших
посети@@
судна
ک@@
Макси@@
любовью
являемся
йста
испытывают
пластика
миллион
трас@@
D.
удаление
тельстве
скажем
Хорватии
граф
вправе
предпринимательства
устранить
121
заняться
возьмите
автор@@
корен@@
рите
эт@@
Black@@
ЩЕ@@
основа
мина
прочих
прибор
сталкивается
критерии
двусторонних
связ@@
таблетки
Вну@@
энергией
тестирование
GM@@
впредь
текущей
футов
отказа
жар@@
возвращается
нинг
эффек@@
гара@@
историей
университетов
дочери
возможного
схо@@
мышления
подели@@
талан@@
участок
Свяжитесь
бюджетные
средневе@@
правоохранительных
радость
ценных
семейные
континген@@
Персид@@
зара@@
ожидает
Маврики@@
Кубы
ближайший
280
увлека@@
Председателем
вторым
гор
уделяется
рос
изменится
вселенной
неш@@
единой
эволюции
ЭК@@
вязать
изменению
агрессии
проблемах
односторон@@
мозаи@@
заморо@@
культуру
стабилизации
запросов
вся@@
отка@@
P.@@
победи@@
лага@@
113
сессий
действу@@
выступление
сексуальные
нализация
страдания
кера
подчеркнули
Куба
безопасный
потерпе@@
полноцен@@
логической
севере
информационные
136
пользуется
женщиной
аспектах
розы
химической
запросить
Баку
проектах
жертвам
суд@@
представьте
сильной
возможной
укреплении
окон@@
исчез@@
положениям
ключе@@
Mach@@
руками
Нидерландов
любителей
чтение
Соединенное
беспокойство
закончить
ОП@@
бай@@
инвестиционных
половину
Ара@@
XIX
сигна@@
уменьши@@
согласился
кси
трансграни@@
достиг
беспокоиться
Израиле
важна
признаку
1945
коктей@@
помо@@
глобальные
тяжелых
Бурунди
революция
рассчиты@@
желающих
Советского
предупреждение
руем
преда@@
отказался
девя@@
совершенствование
лль
Берлин
характеризу@@
публику@@
вынесен@@
родилась
сре@@
маршру@@
мени@@
Библии
рованном
Music
лее
циф@@
считали
регулировать
баш@@
интегра@@
победа
границе
дешевле
конденса@@
указывают
бесе@@
выращи@@
периоды
формированию
полю@@
145
врачу
10,@@
специалистами
обнаружите
жий
тира@@
живущих
ЛУ@@
сельскохозяйственных
работники
щему
ствующих
достижений
Lib@@
Реги@@
подходы
Пакистана
афган@@
четвертый
усиления
интеграция
масштаб@@
хлеб
включи@@
данную
любимые
издания
банком
117
ставок
делаешь
зарегистрированных
произведение
завтра@@
Центральных
завод@@
опу@@
Out@@
положительный
рамок
бат
университе@@
тяжело
мисс
196@@
бедных
вку
протя@@
носят
площадки
матри@@
разрабаты@@
учет
группам
вери@@
жалоб
играли
пунктам
распа@@
западных
диаграм@@
оса@@
124
За
Мексики
тени
Афганистан
несовершеннолетних
формули@@
слоев
купил
альтерна@@
продолжал
ated
загряз@@
Amazon
покупке
Александ@@
АС
теоре@@
комнату
Програм@@
касаются
оптими@@
осмо@@
гражданами
гоня@@
Ари@@
Словакия
лите
безработицы
аппарата
Жо@@
неограничен@@
ракет
упаковке
колесо
сексуальное
связа@@
столице
строительстве
тания
отличаться
ota
Латвия
amp
товари@@
непосред@@
фрон@@
БО@@
Азиатско
театра
поддержание
океан
маркетинг
осво@@
техническим
признаков
выглядят
экономическую
одоб@@
занимающихся
победить
подписания
тех@@
Объ@@
фабрики
определенно
таба@@
цифровая
подумал
пин
крепление
эфир@@
сбе@@
Джек
брата
движу@@
коллеги
питьевой
локо@@
впечатля@@
сным
экзо@@
территориаль@@
звуки
кошки
представленный
долга
планиру@@
цкой
дро
сформулированных
198@@
секрет
Гон@@
топливо
полезные
посла@@
полагают
табли@@
студи@@
странно
употребление
популярный
обычного
приложением
Колумбии
предпринимателей
ã@@
активные
приветствуем
лесов
предварительной
немедлен@@
Господа
осно@@
свободе
партнер@@
сосед@@
ое
следуют
болезнен@@
лову@@
собрание
отцом
бран@@
пак@@
Маха@@
шума
овощей
стои@@
нских
палестинского
окрестностях
Отдела
включение
врагов
продовольствия
прост@@
имеющиеся
осенью
внима@@
ежемеся@@
Француз@@
снабжения
ёл
Виктория
подвергаются
Эл@@
участвовали
რ@@
Томас
встрети@@
секретариатом
дорожного
поверхност@@
слож@@
воспользова@@
1800
арти@@
полагаю
..@@
Дубай
легкие
GN@@
ушел
чин
продуктами
тило
саду
пошел
тят
альная
зию
целевых
излучения
привяза@@
араб@@
крем@@
иными
регулярные
Желез@@
эксплуатацию
жден@@
дальнейшие
Генри
Смит
Флорида
лодки
ряет
обита@@
фут@@
Либе@@
сердцем
передачу
множества
Stre@@
Брен@@
уменьшение
Ур@@
силь@@
СПИДа
академии
Стро@@
гольф
замед@@
Уол@@
искусственный
католи@@
особенностей
образовании
океа@@
прока@@
пакета
Blu@@
контакта
165
принципам
основополага@@
инвали@@
процент@@
технологических
искренне
преду@@
варианта
конкретным
дке
законодательных
запуск
репутацию
взяли
144
регла@@
доктора
больни@@
ი
Институт
собираются
документах
Кле@@
частоты
тар
бывших
вета
пь@@
подробности
РА
маркетинговых
предлагать
тельством
церемонии
тельству
отсутствием
ի@@
диапазоне
дю@@
нака@@
деревьев
иностранцев
молекуляр@@
свидетель@@
получении
разговари@@
длины
элементом
стическая
международную
доступной
успешной
Польше
настоящих
налогообложения
набира@@
почта
полице@@
стену
промы@@
годовой
выделить
активный
ПРО@@
поездку
сим@@
Йорка
изоля@@
клей@@
напомнить
красиво
объявила
пытаться
Чу@@
дворец
химические
говых
настроение
скани@@
изви@@
контрактов
снаружи
косвен@@
счастливым
ДА@@
частота
двусторон@@
дских
судья
успехов
риса
открытыми
сси
1920
зь
ОЭСР
рисовать
Кол@@
получены
различие
витамина
призыва@@
принимал
зией
Гам@@
конкурса
песню
указывается
ляться
рассмотрены
постепен@@
превыша@@
восстанавли@@
бек
выставке
сдержи@@
хан
доступности
расширя@@
рным
гают
стану
валь@@
женщину
í
предме@@
ρ@@
покупок
разработана
водопа@@
ленным
согласились
Питер
слушай
пошли
командой
заметили
летних
поездок
соотношение
оча@@
оставляет
забудьте
ι@@
циаль@@
объяс@@
быстро@@
лайн
уходу
морю
энергетической
извле@@
поколений
рада
дизайнер
сельскохозяй@@
разработа@@
орто@@
фирм
лиш@@
невиди@@
объектом
санк@@
нова@@
ТА
накло@@
комфорт
â@@
масштабе
получен@@
обсуждений
ност@@
эгидой
фикации
кадро@@
аквари@@
обычной
важными
τ@@
средствам
классифици@@
уязви@@
ктором
многосторон@@
ИКТ
ô@@
тща@@
уважать
сообщалось
перемещения
рьер@@
террористов
жет
относя@@
процедуру
ube
подры@@
импера@@
европейского
стан
Оли@@
ливан@@
зрение
учебной
коп@@
York
преобразо@@
виногра@@
полета
предыдущий
религиозной
лень@@
Экс@@
инфляции
исторический
оче@@
1982
победу
ЮН@@
правой
МП@@
Исто@@
согласован@@
лениями
персонажей
ьем
законодательстве
взрослые
Ев@@
широкие
происше@@
тера@@
субботу
варьироваться
фаль@@
доно@@
комитету
профилакти@@
неизбе@@
оптимизации
религия
СПИДом
силе
сертификации
сигналы
Международным
Центра@@
сестры
организациях
гло
ченная
рай
значительную
Монте@@
ресурсам
вру@@
мысли@@
Форума
остальное
лил
John
возь@@
развлечений
блокчейн
использовались
шками
террористических
совершать
белка
компьютеры
Nissan
индивидуальных
бург@@
беспрецеден@@
купи@@
движении
незаконной
Watch
ald
торговлю
Боже
блог
дискримина@@
большом
характеристик
красивых
It
региональный
устойчивость
критериев
Сербии
влений
press
Syst@@
конфликты
травмы
изменением
результата
ускорить
детских
мусульман
запустить
блоки
справедливого
сете@@
серьезной
седа@@
ментом
трав@@
Замби@@
делом
isco
Калифорнии
жив
поп
моче@@
объясняется
зубы
федерального
ука@@
жира
ė@@
влюб@@
затра@@
ворота
CI
Пис@@
дт
ево
наказа@@
м2
религиозные
благо
АК@@
капсу@@
ставку
страни@@
брака
Северо
различий
гово@@
создано
ственному
Ливана
ню@@
винов@@
NF@@
124@@
проживает
Ива@@
жду
Bank
установлению
глобализации
подключение
фоны
Лито@@
золотые
жила
йд
Малайзия
темой
уво@@
практические
дерев@@
измерение
доверя@@
участву@@
ехали
жит
приобретен@@
своевремен@@
оценивать
природные
преры@@
недав@@
расче@@
убежден
проекти@@
приостано@@
растут
периоди@@
операционной
коммерческие
I.
буль@@
iP@@
вернулись
работаю
сыгра@@
блокировать
поль
приходилось
ях@@
Times
Нового
обру@@
серий@@
кей@@
разум@@
краса@@
заплатить
описания
последствиях
побережья
ходу
метро@@
увеличением
летать
указал
классов
придерживаться
1984
распоряжение
воин@@
входа
сокрови@@
значительных
ards
обследования
покупатель
применить
ходите
убедить
Техас
версий
гало@@
снаб@@
тельские
Кер@@
учащихся
совершил
признал
женную
установление
шают
учителей
закрыть
диеты
верну@@
зерна
первонача@@
алкоголь
внесения
гори@@
женными
подготовлен
телевизион@@
позволили
редак@@
ночного
фильтры
интенси@@
Stud@@
Сы@@
Исламской
конструи@@
лав@@
сохран@@
ЭС
обычный
принцесса
Mac
финансовыми
ленная
экономии
дается
растение
воору@@
фика@@
следствие
132
международно
совместное
Sec@@
юристы
ври@@
Shemale@@
профессиональную
Пара@@
сотрудникам
достигает
проведена
чистая
Сочи
Когда
Мол@@
уверена
прово@@
телевизор@@
Ю
короб@@
прямого
Ё@@
инвесторы
порази@@
страха
ваниям
замуж
частот@@
отменить
активной
экспери@@
торговая
красное
Post
претен@@
контр@@
начался
Женщины
составля@@
носа
своём
Алжир
скор@@
инновационных
ведении
ченными
лев
направлять
оло@@
годо@@
ближайших
важней@@
багажа
аналогичные
принадлежат
пат@@
женная
неформа@@
грамм
официальным
телеско@@
разрешить
сли
герман@@
Эсто@@
стресса
двум
чников
словно
ссе@@
Мьян@@
пригово@@
Лис@@
Ау@@
Bitcoin
выросли
отверстия
ванными
ー@@
европейский
наименование
самому
последу@@
врачом
тес@@
рыночной
статусе
физическое
заботиться
сохраняет
институты
заказ@@
союзом
адапти@@
комиссией
достопримеча@@
индонези@@
низма
сирий@@
фонды
Региональ@@
лекарственных
сотруднича@@
гора
финансовая
разреш@@
Man
объявление
кол
договорились
Виде@@
эква@@
законных
обеспечит
проектами
сигареты
Джен@@
белых
передавать
коллекцию
совершения
защища@@
служи@@
повы@@
появилось
вторую
реконструкции
М.
Book
Дома
архив
неотъемле@@
салон
льника
библиотеки
социо@@
исключа@@
возглавля@@
анта@@
предложила
отраслей
логисти@@
гель@@
придет
административные
йога
третьем
личество
индек@@
навигации
достопримечательностей
правового
городского
тканей
команд
обнаружил
etooth
реш@@
копии
рила
Web@@
исследовательских
хватит
целями
мным
стандартами
ненный
богатых
запрещении
разработчиков
вспышки
жидкость
объясни@@
будущие
ense
многосторонних
собствен@@
суверенитета
Гро@@
строен@@
художников
классификации
интернета
бь@@
Фла@@
дят
монет
предлож@@
Европейским
сильное
Мне
НДС
Теге@@
одобрен@@
роды
тр@@
Business
жени@@
конферен@@
ведется
секторах
ведом@@
тна
неблагоприя@@
e.@@
1979
газета
домен@@
планета
выбра@@
ограничен@@
едва
совместные
черно
нетерпением
вмешательство
заявку
цепь
действуя
Linux
сложи@@
вке
SMS
добиваться
×
потоков
владе@@
автомобильные
кот
Португалии
посол
ECE
фай@@
важен
студент
дание
продемонстри@@
служат
боюсь
195@@
поэ@@
ն@@
итальянских
внезапно
Фол@@
Западная
живопис@@
населением
туристи@@
накоплен@@
дово@@
119
Штатами
нению
независимой
А.@@
процвета@@
фина@@
научного
волна
сложный
взор@@
дай@@
нё@@
установлена
коррек@@
листь@@
невест@@
флота
планах
удовлетворены
новост@@
жениями
облегчения
препятствия
офисе
Пол
Хабитат
когни@@
coin
Вене@@
контракта
уча@@
Петербурге
изучи@@
смарт@@
яй@@
приобретение
рекомендацию
мега@@
рное
электромагни@@
временное
станций
выросла
ченное
короткое
содействию
приводят
экономическому
Ару@@
Not@@
мнениями
рабо@@
всеобъемлющего
заслуживает
схема
террористи@@
неужели
кредитов
суток
гвар@@
современным
привел
кал
заключа@@
чисто
аварии
гибкость
удобные
ландшаф@@
отзы@@
рация
Вене
тельств
Джо
напад@@
британ@@
разрабатывать
металлов
Законом
фотографию
мино@@
интеллекта
заповед@@
утвержда@@
траги@@
определенную
доступный
﻿
вспомнить
пациент
обвиня@@
ú@@
голов
актуально
расизма
программами
оборота
соб@@
пап@@
низкого
приверженности
улыба@@
нена
диска
шенной
берите
152
пострадавших
ранже@@
легкой
КА
понравилось
страхование
провинция
вмеша@@
серьезным
компетенции
предпочитают
эксплуата@@
платежи
необходимого
распоря@@
ا
пель@@
--@@
Запада
обоб@@
духе
проведен
КП@@
расследований
устанавливать
ограниченное
тров
смот@@
переходной
Париж@@
ислам@@
северной
ДН@@
чины
кварта@@
целых
иза
магистра@@
попу@@
старения
трафика
остановки
очарова@@
форму@@
ЦИ@@
имуще@@
Nokia
подтверждение
брази@@
плаз@@
конвен@@
осуществи@@
несправедли@@
свойств
Конвенцией
нажи@@
трудностей
вее
зомби
серб@@
всесторон@@
ype
Барселона
электронного
Израи@@
прото@@
Ближнего
ситуацией
предыдущего
сопроти@@
зывает
десятилетие
гибкие
202
дете
бом@@
мотиви@@
Клу@@
НЕ@@
предшествен@@
морская
угля
исторические
цита@@
пересмотра
национа@@
споры
текущих
Либерии
рением
неожи@@
ипоте@@
парламен@@
экономическом
тика@@
столетия
Север
брошю@@
господин
собственно
специальная
вленное
стихийных
ВК@@
лито@@
ative
лили
благосостояния
слава
коэффициент
превратить
пакеты
дена
2,4
Гей@@
надлежащим
127
рома
3.3
проектирования
левого
кошель@@
тны
смартфона
двадца@@
сопрово@@
142
принимаем
ётся
участвовал
чков
показания
дун
ресурсах
представлено
сделаю
Координа@@
примен@@
Вашингтоне
щаяся
акция
корабля
известная
забыть
рующей
задней
тское
значительного
координи@@
насилием
ционно
дикта@@
верят
долгосрочных
держи@@
бесплатной
запад
эмо@@
вось@@
обработке
сером
социальную
Бал@@
равной
чуде@@
классе
ствовать
непо@@
проез@@
этапах
инициативу
нефте@@
имело
уязвимых
этни@@
естественный
живописи
влениях
лодка
повестка
потребитель@@
Корее
подпис@@
сервиса
ency
Воро@@
отказыва@@
Эле@@
Христос
необходимыми
услугах
награды
иса
интересных
большинством
автори@@
считал
подряд
распространению
нежели
вируса
пош@@
автором
бюджете
утра
ООН@@
отдельный
обеспечивая
обсудили
сот@@
оснований
послан@@
открыли
клады@@
208
Вален@@
ате@@
капитан
динозав@@
област@@
учреждениям
192
третье
лениям
политическое
присоединились
yth@@
спокойно
сделанные
древние
оккупированных
посыла@@
ребёнка
заста@@
требо@@
цензу@@
нев@@
достигнутый
лед
базо@@
измени@@
начинать
гнез@@
повезло
260
округа
максимум
ого
опубликованной
украинских
подряд@@
смесь
элементами
любопы@@
безопас@@
Ну
алфави@@
1600
госпита@@
Хей@@
пользы
палец
шоколад
Университет
намерены
помощник
поляри@@
влен@@
Ямай@@
å@@
признается
специалиста
заканчи@@
кня@@
открыта
гран@@
МК@@
учени@@
постара@@
влиянием
1973
голосование
вича
тай
введен@@
оплата
Manag@@
ствии
ограничить
бази@@
размыш@@
элек@@
директором
совер@@
горизон@@
библиотека
мамо@@
фоль@@
поняли
ключа@@
трое
ild
уголовным
менеджмента
церков@@
беспристраст@@
138
выполнен@@
разработали
мал
суверен@@
тике
изучению
компьютере
либераль@@
контрак@@
йных
естественным
рисками
стремимся
чувствовал
продолжения
состоявшейся
веще@@
оккупа@@
союзников
правитель@@
прогнози@@
удли@@
Кана@@
WP.@@
сками
премиум
слышать
пива
тирует
специализированные
ченко
автоматизации
рес@@
таин@@
незамедлительно
крупный
ware
разместить
крест
Хен@@
Жа@@
рекламу
полити@@
Office
объединить
.org
секторов
правовым
тенденций
ś
Литвы
С.@@
судно
современное
суме@@
высокими
авторите@@
Африкан@@
ą@@
экологического
Джеф@@
Бот@@
отвечают
ёте
страницах
ст.
Банка
называть
стики
ключи
дорогая
ням
соблюдением
листо@@
Система
старшего
научный
черт
страи@@
персонализи@@
структу@@
значительным
отсутствуют
аресто@@
участвующих
мягкой
крупной
моги@@
min
здоровью
святого
Специальным
убеждений
инфраструктуру
гания
Найроби
Phone
изобретения
сег@@
интеллект
лечить
китай@@
поощрению
Гонконг
WhatsApp
Правительства
ллера
тести@@
тюрьмы
представлен@@
положительные
нелега@@
вводи@@
ассоции@@
бета
работая
сохраняется
мэ@@
назвали
банк@@
апелля@@
נ@@
альных
астро@@
Мартин
граждан@@
посещение
островах
Секретариат
ющуюся
портрет
аван@@
чрезмер@@
вызывать
коррупцией
спря@@
постано@@
таре@@
высоты
великий
ć
палестинских
квартиру
показателя
баз
молит@@
идентифици@@
C.3
дере@@
мор
против@@
казахстан@@
истреби@@
кошек
дозы
фия
стоить
созданием
обратной
щенного
Кения
попросил
тство
вещество
считы@@
сию
мило@@
иди
враждеб@@
сторо@@
Audi
седь@@
форуме
доставку
настойчи@@
разнообразия
ллек@@
опаса@@
1981
Тбилиси
желе@@
актив@@
сообществу
аналогичным
пленарном
бора
168
Красного
воспринима@@
принимали
основанный
проверку
живущие
интенсив@@
предписа@@
согласи@@
ставить
неотъемлемой
сувени@@
идеальным
белое
регуляр@@
считаться
чис@@
прести@@
сырья
миссис
поиски
Aw@@
пени@@
теста
Герцеговины
сроков
GC
войн
переговорах
гале@@
состоявшемся
дес
Малайзии
Совмест@@
туаль@@
Аллах
стерео@@
Пенсиль@@
учрежден@@
рами@@
производителем
сложнее
пограни@@
оформления
продемонстрировать
участ@@
лона
наращивания
Гви@@
областям
Фестива@@
дской
секунду
назем@@
ственность
людях
Зо@@
судо@@
вляться
Big
отста@@
предположить
мари@@
облако
занимают
событиях
свой@@
Net@@
мно
пляже
тесты
уса
лиф@@
рее
ключевой
Шо@@
отбора
планировать
регионы
ходил
литературы
тском
приходи@@
теряют
ядерный
вклада
Hyundai
вернулась
выклю@@
нормальной
Смо@@
монд
разрыв
Женева
прекращении
сезоне
улы@@
перспектив@@
отъез@@
теннис
141
стины
написан@@
кты
особую
Нидерлан@@
Тра@@
Туркменистана
правосудию
поднять
судьба
намерен
предположительно
обеспечением
Кал@@
востребо@@
продлить
верто@@
наблюдение
аллерги@@
Рад@@
льского
случится
заказы
пано@@
тревоги
отлич@@
военным
ждем
Ч
нула
военная
широком
экологические
правильное
ящих
назначен
оппози@@
комплексного
гражда@@
вную
предусмотренные
инфек@@
электрических
опубликовал
дели
высокоскорост@@
мпи@@
контроли@@
Джона
твоего
подросток
вшаяся
телевидение
вле
взгляды
заключении
Associ@@
героев
ider
Банк
полезны
арабском
немало
меняться
Иерусалим
прили@@
От
достоинства
лис
девяти
взрыв
удовлетвори@@
анге@@
жек
енные
Сла@@
графики
вере@@
Род@@
приблизи@@
смертной
скоордини@@
упорядо@@
поддержа@@
блоков
пот
Отдел
основаны
вечера
1,3
Бени@@
выполнены
плы@@
противостоять
Ол@@
нность
Lim@@
скри@@
пах
определенным
Видео
вышли
185
ленно
В.@@
вечно
муниципа@@
оплату
ЮНИДО
человеческие
обща@@
Соединенными
Риме
трой@@
дную
VPN
повторно
6.
Ж
самолеты
правильного
стажи@@
невро@@
призвала
первыми
окажется
дис
слоя
транспорти@@
тто
камерой
предлагаемых
обстоя@@
выбросы
конфигу@@
162
цифрового
галакти@@
Хосе
соединений
вышеупомяну@@
выполняется
грузки
голубы@@
Управлением
взглянуть
пятый
стика
начнет
добавляет
компонента
головой
приоритеты
2030
листа
личное
очист@@
ر
обмениваться
0,5
археологи@@
установленные
здо@@
покажет
гендер@@
яи@@
непосредственной
מ@@
лошадь
возникли
продав@@
услугу
центральный
ссе
лип@@
сверху
кар
отчасти
маски
кипр@@
ited
предназначена
ассигнования
умерла
пенсию
ОАЭ
ровался
предварительно
увидели
происходить
пожелает
догово@@
передач
операцию
1975
пожертво@@
солидарности
трёх
налоговых
Грен@@
роде
полезный
персоналом
запах
Мюн@@
счастлив
ящие
сессию
Авгу@@
здорово
подверг@@
тиг@@
Будапеш@@
величай@@
проявля@@
ошиба@@
ином
133
непри@@
уез@@
поми@@
Cy@@
Вели@@
точкой
осуществляются
оппозиции
ини@@
сельское
независимый
фф@@
справедливой
зам
отча@@
постоянным
массовых
интуи@@
просмотр
закрытия
стандартные
Vol@@
рекламные
консуль@@
рана
малые
потерь
подруга
соверши@@
измер@@
привела
случиться
задержки
семинаров
ад
подзем@@
заболеваниями
маленькой
особой
тексты
ВА
впереди
процессах
свидетельства
длинная
зоо@@
приборы
кругло@@
деталь
обратился
тельна
край
риску
разрушить
верит
прида@@
отличное
ВВС
бактерии
внес
какова
отправлять
выбирают
сили
минераль@@
зацией
ждают
отдельным
идёт
воспоминания
исключение
родителями
ьч@@
Она
Фло@@
National
развертывания
записы@@
обслуживанию
происходило
ване
КНР
технологиям
Политика
Флорен@@
Руководство
голода
лосо@@
воздействию
примеча@@
стихи@@
ежегодный
движением
кля@@
действиям
арома@@
определенное
Великой
объединен@@
энергетических
Ливии
мелких
колен@@
целям
здра@@
школь@@
любимых
джун@@
джер
идеологи@@
●
Кто
обращении
удовольствием
останови@@
тунне@@
бронирования
сетевой
Мичи@@
твое
бактерий
природу
стрель@@
виртуаль@@
недостаток
Серви@@
придает
открытые
транспарентности
оправда@@
рестора@@
модифици@@
вок@@
усилить
усыно@@
134
Эритре@@
помога@@
вступил
обер@@
мию
Балти@@
руководителя
привилеги@@
Ким
надлежащих
снижает
законодательные
спор
комфортно
весны
взрыва
понравится
дальнейшему
вском
рожден@@
ванным
Chrome
верил
последнем
поступлений
рова
спорт@@
опыте
замен@@
вскую
роман
Острова
ств@@
противоречи@@
доби@@
энерги@@
поддерживаем
информировать
стандартных
писание
транспортной
стические
отставку
Вла@@
законами
жде@@
уско@@
бери
изобре@@
деревне
вир@@
любим
156
взаимодействовать
иммигрантов
надея@@
случаю
исследованию
головного
окси@@
погиб@@
заказов
кафед@@
151
маты
забывать
Западный
обоснован@@
назначить
мировые
русская
различной
Мали
специальное
кислота
Любовь
гражданин
пеще@@
говом
понимаешь
Почему
солнечного
131
способностью
лдо
коммерческого
нераспространения
Сво@@
комитетов
мест@@
йная
выдели@@
мож@@
убиты
мона@@
пиг@@
Mem@@
твою
выбо@@
нашла
серьёз@@
дизайном
информационного
легендар@@
лик@@
удается
Казах@@
состоят
миссию
поздра@@
съе@@
повышен@@
глубокий
неправительственные
One@@
рассказала
реинтеграции
обусло@@
национальную
сегодняш@@
человеческий
сравнивать
заметно
ьтесь
1978
переработки
кала
регулирование
счет@@
военную
отчете
американским
коллег
публично
оригинал
аф@@
серию
создавая
централизован@@
Дани@@
вса@@
жами
Анге@@
обзору
архитектура
поисковой
плохие
заявитель
секса
фирма
сны
Диего
преем@@
Кир@@
прогресси@@
аспект
подоб@@
говорилось
Mobile
диета
ат
дверей
Благо@@
связанными
чал
колла@@
учре@@
целенапра@@
загруз@@
круп@@
присутствуют
весом
доллара
Таможен@@
инструкций
направлениям
ет@@
повестке
п.
обработа@@
касающейся
докладах
незаконным
изна@@
уме
ввода
стараемся
массу
минимальный
записа@@
называемый
ала
тори@@
окон
откли@@
щенная
статистические
сроком
аренду
министры
Коло@@
спасения
аналитики
ν@@
привлекает
покло@@
эффектом
старой
избирателей
чику
бытовой
шокола@@
Музей
мекси@@
роб@@
Бен
мерно
успехи
тьте
противоречит
ub
надежность
Алек@@
финансировании
News
климати@@
образцов
музе@@
кота
юще
ج@@
рены
посетил
аргу@@
Анна
вежли@@
мат@@
комфорта
находимся
определяют
шей@@
пользование
олив@@
ъе@@
трек
box
смотрит
Компании
Ричард
ز@@
Верх@@
прогулки
предложили
осени
домашней
Целевой
сухо@@
Брай@@
транспарен@@
телен
отличным
здорового
совершении
официальном
либера@@
Tim@@
мона
комплексной
компьютерных
конституции
неправительственными
заботи@@
Гос@@
ГО
телевид@@
звонки
Прави@@
вуа@@
иностранного
нападение
поможем
иностранной
Новосибир@@
детства
мобильное
региональным
департамента
предше@@
шло
определению
запроса
очистить
Тихого
Ins@@
пытаясь
предпочти@@
щихся
запасы
масштабах
составили
кас@@
рекомендация
полу
показаться
ther@@
народонаселения
разду@@
возме@@
договоры
называемые
счастливый
профессии
безопасным
парня
дыхание
втор@@
вовремя
выступают
высшей
отмеча@@
центрального
ощущения
братья
двигателей
VIII
сеан@@
фии
сильная
желательно
иденти@@
Лай@@
Али
вынужден
выработки
уникальным
вызовы
счастливы
сосредото@@
свидетелей
продавец
культу@@
террористической
ל@@
тюре@@
гг
ваемым
миль@@
Анд@@
молочной
беспило@@
нынешний
шансов
тяну@@
незакон@@
рец
стене
демонстрирует
1,6
Агентства
украин@@
будущий
внесен@@
цветами
фле@@
Александра
объединяет
объемы
властью
Airlines
миниатю@@
широко@@
масштабы
Лиссабо@@
дского
лагерь
экономически
зывания
чее
штор@@
центри@@
Фон@@
знаком
обладать
недоста@@
собор
яза@@
теряет
Дмитрий
нормами
ваниях
обработку
виллы
182
жилищ@@
евреи
основную
перево@@
380
ă@@
прекрасная
налоговые
стациона@@
подписал
башни
нские
Геор@@
стно
мнением
сбро@@
школьного
остров@@
Маври@@
Джор@@
услуга
иностранным
годам
балан@@
силах
акцент
произошел
Образо@@
мальчики
обязан@@
направлен
строки
последствиями
Харь@@
фини@@
дополнительное
судя
129
риском
Produc@@
займет
звен@@
торе
владельцем
регулярного
корректировки
склады@@
вленным
гры@@
твердо
Воен@@
пога@@
демократических
270
опубликован@@
супру@@
студентам
подумайте
связанная
Гран@@
родных
ссы
тивному
жденных
родов
безопасностью
возмещения
буквы
доров@@
органических
Зим@@
помещении
атмосферы
EF@@
специ@@
люб@@
убийств
кает
нарушениях
преподавателей
ральный
операциях
ранней
карьере
передвижения
окончательно
ливания
юридического
продолжит
МС
изнасило@@
стиму@@
одинаково
времен@@
усиление
доказательство
альтернативы
допустить
моделирования
Газа
невер@@
сахар@@
мостью
доклад@@
Том
корпу@@
учения
координацию
Systems
трак@@
реальная
глубокое
производственной
прика@@
рона
договорных
присво@@
выявить
широким
полости
передает
бру@@
бюджетным
ney
преподава@@
начались
Дональд
грузовиков
рекламных
проверке
вывать
пассив@@
местоположения
продвига@@
НК@@
Венесуэла
сопостави@@
философ@@
сексуальных
кристалли@@
отделений
Сторонами
возникла
регистрацию
африканского
Таджикистан
успешным
1,8
насладиться
упражнений
завершение
заинтересован@@
наслажда@@
разговоры
тт@@
гражданское
пакистан@@
торной
ненависти
1983
масс
увле@@
недавнее
пись@@
лло
стых
яркие
Миха@@
написано
титься
птиз
прекращение
вывода
НП@@
десятой
внешне@@
бурга
вращения
5,5
194@@
особенность
каби@@
карна@@
наследие
дез@@
Лиги
тория
кредиты
рецепты
предотвращение
знаком@@
планируют
претензии
Š@@
зя
тенден@@
психического
обма@@
благодарность
тским
1974
общественные
сред@@
род
чувству@@
зала
трибунала
средне@@
космос
головной
женских
устойчивой
владельцы
ирланд@@
уку@@
высы@@
партнерских
испытывает
сар@@
релеван@@
ДА
Египте
испытать
получилось
корро@@
почек
штатов
подотчетности
опе@@
эфире
указанной
Day
склонны
удивительные
парниковых
экземпля@@
возьми
фондо@@
дьяво@@
сообщают
генерального
ец
безопасного
кукуру@@
погибших
нанести
систе@@
История
мному
Тали@@
наркотики
негативные
реаги@@
Список
Ама@@
населенных
выдачи
деревни
постановление
йоги
Андрей
потребностями
различ@@
ствием
бриллиан@@
возобновляемых
ICO
Хуан
доступом
зо
ОЗ@@
чел
фора
заявить
советом
констру@@
коробке
спектра
видимо
освобождение
ночное
предлагаемые
ВС
ссылкой
банковских
отмечалось
оформление
ноя@@
Оль@@
исторического
рят
составлять
помог
существу@@
действием
сервисов
химии
Правил
театра@@
235
Tran@@
нице
тельский
украинском
телекоммуника@@
Пин@@
диле@@
циан@@
нется
Выс@@
допускается
миллиар@@
лаборатор@@
с.
близким
веден@@
вица
153
Дал@@
ital
полезной
смотрел
заполнить
продолжительности
четыр@@
кофей@@
стимулировать
lines
длится
Мухам@@
отчетов
трей@@
физиологи@@
Пон@@
продолжали
гравита@@
творчества
замка
постоянные
британский
говоришь
лоша@@
что@@
ждено
Анго@@
испытывать
существенной
малыша
яния
пригласить
Иль@@
педиа@@
новорожденных
кораблей
Министерством
Saf@@
отпеча@@
зарегистрированы
отражают
губ@@
метром
заметить
поставщиком
добавление
Меди@@
физически
госпо@@
владельца
щийся
143
прямом
Зимбабве
привлечение
ش@@
новатор@@
монополи@@
кули@@
условием
долгове@@
вырази@@
Консульта@@
Вай@@
чеб@@
секретариату
боя
распространя@@
Сту@@
ნ@@
шествия
поощря@@
приводятся
нынешних
137
мец
территориальной
направлениях
иско@@
одиночку
труб
уровню
ксон
психологии
намерение
сигаре@@
образца
цепочки
достаточ@@
музыкой
торам
сельской
EA
составления
петь
прессы
ИД@@
хирургии
автомобиле
ЦРУ
активную
Колорадо
подчеркнула
ФБР
надеяться
Меха@@
инфраструктура
Лон@@
фана@@
автомобильной
посредни@@
витамин
Тайвань
139
Уо@@
ринг
высших
предыдущая
К.
Абду@@
интересный
проявления
видеонаблюдения
прогрессив@@
диагноз
НА
щины
понимании
ближайшем
157
рекомендовала
убили
ū@@
призвали
Восточный
офи@@
украинского
кусок
ляли
разрешено
Гибралта@@
сном
достигнуто
напом@@
рома@@
дози@@
Уильям
1930
числен@@
сахар
тани@@
Каро@@
прило@@
моё
действиями
нарушает
родо@@
внутреннее
режимов
крупнейший
Франк@@
беременных
паспорт
мышц
перь
1971
тал
Америку
212
выиграл
н.
координация
выступить
нон
прочного
Аргентины
тенденцию
жертвой
гени@@
Ираном
начните
отдохнуть
востью
агентов
сложным
полезную
духа
конфигурации
Хор@@
употребления
военное
диало@@
ищите
государственная
мун@@
Иллино@@
влениями
09.@@
добровольных
помогли
отчета
DF
циа@@
тяж@@
166
основанная
RT
Трибунала
получали
неофициальных
лев@@
служил
подлежит
глобальное
лидерами
задни@@
проф@@
яс@@
Ере@@
прие@@
Оре@@
НИЕ
часто@@
освободить
сообщениям
формировании
справедливость
pri@@
затруд@@
транспортировки
фин
главную
судебный
полному
прива@@
зарабатывать
лика
подписы@@
нежела@@
эксперимент
корпорация
отло@@
российским
могуще@@
долгосрочные
дорогостоя@@
разведыва@@
виртуальной
браке
станом
изменилось
Cons@@
присоедини@@
скрип@@
орке@@
сю@@
тяжелой
респондентов
путешествен@@
специальным
подразумевает
дя@@
финансированию
http
Мей@@
рабочую
дило
отдельными
ссылок
проживающих
приводи@@
атрибу@@
гостини@@
животными
Землю
удовлетво@@
боеприпасов
Судан
согласования
вероя@@
присутствовать
мали@@
персо@@
идеальное
внутренним
бели
выполняют
колледжа
дых
надлежащей
1968
народом
федерации
разверну@@
ступи@@
стро
конкретный
указанного
Копенга@@
благополучия
превен@@
глубокую
Жан
мимо
фокуси@@
коммуникационных
особ@@
последовательно
вырабаты@@
первоначальные
обновить
гала
солда@@
думаем
кампания
установили
разнообразные
вдо@@
праздника
использована
кош@@
персид@@
нуля
арме@@
Луна
удержа@@
сите
мгновен@@
Соглашение
кабинет
функциони@@
видах
собираемся
Люксембург
146
требуются
начнем
раст@@
Анка@@
выходить
1976
беременность
нено
следуйте
1900
Огайо
причину
разум
богатства
надца@@
имо@@
147
качественный
максимальный
используемый
ав@@
волон@@
осла@@
ненных
читал
жин
украинской
доступным
департа@@
анализи@@
проведенного
Add.@@
рыб
факта
Вьетнам
специали@@
аспектам
отмен@@
комбинации
бумаг
неизбежно
гибели
ци
дерьмо
электрической
цикли@@
выплачи@@
гипоте@@
денежные
сера
женского
демонстри@@
рассу@@
хри@@
плотность
близок
почвы
посвящен@@
методами
Cloud
полицейские
коэффициен@@
пенсион@@
максимальное
определяются
мит
Луны
напомнил
проявляется
предоставили
разному
оздорови@@
похожи
Company
сертифика@@
художника
вакци@@
лагеря
ваемая
устройством
ввод@@
добавки
основатель
бизнесом
единицы
Ле
политическими
Конгресс
пробле@@
министер@@
увеличилось
концепцию
исполнительной
подключа@@
вости
154
чна
важнее
поправ@@
дном
последовательности
журна@@
безо@@
основанные
налого@@
окончательного
зой
ьер
явлений
опубликованном
запомина@@
обсуждать
тюрьму
периоде
груза
забрать
зла
ремес@@
аренды
повсюду
предоставил
Крыма
195
достигла
молитвы
удовольствия
пойдет
спонсо@@
EM
сессиях
служащих
саммита
разор@@
торские
подкреп@@
ходили
коды
действующим
сообща@@
естественной
mail
обрати@@
лоб@@
держите
героя
потенциальным
составить
сигналов
югу
разработкой
эффективными
і
воздержа@@
дефицита
ядерное
такому
Минск
слабо@@
стратегические
участков
нося@@
неделя
проститу@@
проинформи@@
разобраться
проводились
высокотехнологи@@
тли@@
Петро@@
шум
крос@@
выбира@@
пленар@@
скорост@@
действующие
конгре@@
профессиональным
настоя@@
оперативных
основы@@
штук
снизи@@
Design
самоле@@
в.
подобный
урок
основание
мировая
объединение
ИГИЛ
начнется
Bit@@
нному
существующей
изменениям
СА
писатель
палестинцев
неотлож@@
надлежащие
довать
кроше@@
являлся
следствием
заво@@
педагоги@@
сне
газе@@
вывести
активным
жительство
чам
небе
просим
фабрика
тства
столе@@
временная
Баш@@
солнечная
проводимых
начальник
рого
вав
потол@@
документация
структури@@
консульти@@
совершенствованию
профиля
исторической
характеристиками
доброво@@
Rec@@
нности
дожд@@
позади
мах@@
1969
электроники
небольшого
Global
1972
Год
вере
стах
Альбер@@
приступить
встретились
они@@
диабета
полагает
существо
жность
сектораль@@
164
срав@@
льна
дизай@@
ходы
достаточное
выводов
сохранению
оплатить
МО
ленную
должное
симво@@
эл
пам
оригинальных
сой
дая
148
истин@@
проводов
дана
прочита@@
кредитных
Инте@@
сталки@@
Руанды
компроми@@
Финансо@@
родственников
городу
Киев@@
символи@@
жизнен@@
образу@@
заяви@@
разреша@@
онных
контролирует
маны
повышении
молодым
дисциплинар@@
провайде@@
емому
москов@@
приве@@
судебные
вообра@@
семинара
дорого
черной
‐
вай@@
примирения
емкости
утверждать
161
забыл
разделения
ложь
напра@@
предсказу@@
заведений
ым
ориентации
забыли
руке
красивой
комиссий
правилом
христиа@@
дире@@
Евросоюза
Дубли@@
1940
Мур@@
разным
учесть
факторами
др.
СР@@
Лондона
тивы
учебный
стический
Indust@@
Архи@@
Лондо@@
заявителя
популярной
природный
готовить
Гонду@@
ассигнований
случа@@
кампанию
руководству
ура@@
измеря@@
Hum@@
транс
конф@@
аутен@@
Человек
гал
автоматического
ведущие
Mercedes
лизова@@
владеет
сопут@@
измерений
дик@@
размер@@
чники
ускорения
критери@@
сена@@
расска@@
сведений
Грин@@
флот
листов
ься
ано@@
МП
дикой
урегулированию
вино@@
царь
положительно
ценный
чтоб
семейного
Шта@@
ваниями
столица
серьезный
температуру
Java
разделу
вторжения
изменять
хозя@@
отдельной
эксплуа@@
построена
Merc@@
площадью
побочных
тельских
медицине
превышать
заблоки@@
передовой
Веб
объедин@@
Саха@@
родителям
собеседо@@
графа
поезда
чают
американ@@
реакцию
рее@@
Факультативного
практической
отправки
успехом
заключению
соревнования
исклю@@
тихоокеан@@
стара@@
Голо@@
ссом
целого
хожу
учетной
учебного
Антонио
A.@@
относящихся
прися@@
привед@@
вампи@@
установок
устройствах
надлежа@@
ك@@
лишения
выез@@
советник
совещаниях
предотвра@@
Мат@@
СН@@
бюллетен@@
батарей
ВЫ@@
клу@@
православ@@
опухоли
ровок
перено@@
демократия
терроризм
редактирования
169
щенным
били
институ@@
мышление
ствовал
Digital
доступе
портфеля
интересует
Бю@@
стерлин@@
отрасль
общественный
палаты
половиной
огромную
менстру@@
зарабаты@@
า@@
исследователь@@
маши@@
публикаций
Обамы
логического
Так
попол@@
довери@@
направленной
пособия
центра@@
م
потенциальные
микроско@@
внешним
первоначального
позд@@
зарубе@@
ять
меняются
Никарагуа
попытке
избе@@
Кувейт
тяжелые
лками
сборе
убивать
сную
Национальная
ო@@
клави@@
сотрудничает
компьютерной
памятник
развлечения
Дор@@
калорий
индивиду@@
юридическое
игнорировать
кате@@
есси@@
убит
анали@@
Королев@@
своевременно
ил
прочность
санти@@
финансовом
моделью
интереса
центрах
поражения
произведений
темноте
кредита
удобное
сделку
всеобщего
Тунис
прозрачности
Алматы
побочные
двойного
австри@@
безопасных
следовало
Исла@@
передовых
необходимостью
гражданские
поговорим
основываясь
кен
фили@@
XI
оборот
хирур@@
возможны
смотри
негативно
строительные
кус@@
брон@@
авиакомпаний
течением
Африканский
Порт@@
переписи
железнодорожного
бежать
коммуникаций
соответствующая
конкурентоспособности
массив@@
просмотров
сайтом
™
социальный
старая
рё@@
Крым
комментариев
старого
признают
хран@@
вии
Жанейро
презен@@
опубликованы
находящиеся
спрашивает
Квин@@
1941
сериал
ологии
акцио@@
330
теку@@
обществен@@
Объединенной
компенсацию
здоровой
реализу@@
предусмотрены
1,4
просыпа@@
концентри@@
Олимпийских
CO2
печатных
оти@@
трудовых
лит
учреди@@
столицей
Мю@@
дие
вшееся
рующим
Колумби@@
объявили
рых
категорию
настаи@@
компи@@
поясни@@
праздники
прибре@@
ежегод@@
сис
12,@@
диско@@
Уэль@@
упал
Рим@@
залива
выгоду
ошибо@@
вдвое
отсут@@
тизма
обусловлено
попал
планет
водные
1977
придержи@@
тесном
низко@@
камней
медицина
протоколов
обстановку
основывается
приветствовать
надежда
хой
Академии
хая
онного
началь@@
тренер
172
онные
симпто@@
возможна
обязательным
коммуна@@
свидетельство
участка
корпоративного
утверждал
повер@@
май
покупателя
Азербайджане
Кипра
бразиль@@
означать
вспомина@@
называемых
ступен@@
атак
холоди@@
изменениях
сем@@
затрону@@
мобильной
охрана
забира@@
оговорки
построения
руан@@
еженеде@@
вибрации
сентябрь
йскую
осталась
оптимальное
технологиями
изо
сформировать
сделают
секунды
создается
подда@@
расширять
матерью
звер@@
сон@@
охоты
планируете
обнаружены
оки@@
совме@@
взаимной
решающее
продолжаться
англ
благода@@
чемпионат
Роу@@
надежности
матчи
нанес@@
несо@@
сквозь
рно
ures
ционному
Они
эры
Джон@@
игро@@
Сви@@
описывает
дными
исследованиям
окончательный
специальными
158
претензий
МДП
ваешь
народами
Техни@@
анома@@
заинтересованные
сосредоточи@@
достиг@@
избран
интересо@@
осе@@
властям
пропуск@@
демонстрации
лесу
достигнуть
рном
пера
чника
уверенности
естественных
служеб@@
высококачественные
оспари@@
поддерживается
163
надежный
оттуда
фамилия
накануне
квот
женщине
управляет
рога@@
приглашения
Конгресса
скрыть
благосло@@
космосе
усовершенство@@
просвети@@
Масса@@
возло@@
скажет
уходит
высотой
шенная
ющемся
кво@@
шено
страхов@@
саудо@@
начинающих
нападений
десятков
судебное
заявок
йдут
калиб@@
лама
доброволь@@
еписко@@
утвердил
вероятности
гены
беспокоит
монар@@
выпи@@
Лени@@
1949
верховенства
небольшим
проконсульти@@
смены
направи@@
нтов
файле
расста@@
нологи@@
вводить
И.
малыш
приборов
сильных
прав@@
выходят
ресур@@
эпо@@
неизвестно
Европей@@
раздели@@
оро@@
мном
сход@@
трансфер
внешняя
159
имен
возника@@
гуа
обнародо@@
граница
ждал
производят
отображения
французского
судах
негативных
биологического
звание
программ@@
чудо
успешных
Station
рю
вступ@@
гражданина
СР
актер
находят
Ваших
любишь
найдено
обстановки
ровалась
189
соседних
мая@@
приня@@
ove
летним
согласиться
полных
ходим
соблюдении
AC.@@
резервуа@@
пик
поез@@
нужды
студия
ано
собственном
взно@@
исследовательский
чиновники
живу
часовой
условие
реформа
экспертами
отмены
Джейн
гут
товое
смотрю
4,5
Совеща@@
Корейская
сомне@@
электричество
законодательству
предпочита@@
полет
дым
атмосфере
видам
нологии
судить
лий
входя@@
моста
оценивает
электрического
Гло@@
имму@@
просве@@
минимуму
функционирование
ствуют
высшее
прогно@@
портре@@
наблюдению
гриппа
шоки@@
тоне
поистине
реку
непре@@
периодически
самоуправления
найдены
регулярных
позволил
рет
лова
передо@@
Сю@@
верим
умирают
шкале
космический
злоупотреб@@
деловые
доволен
движений
конференцию
Спи@@
входящих
оперативно
вон
Хам@@
днях
ами@@
тесто@@
заслуша@@
террори@@
Манчестер
самоопределение
взло@@
конфлик@@
доли@@
группах
ходи@@
Дамас@@
B.@@
вооружения
сом@@
рядов
принесет
рующая
принципу
вских
опасения
совершают
ока@@
возгла@@
столе
включена
Сиэт@@
приме@@
богатство
насекомых
семьям
Сол@@
морскому
верх
просматривать
добавления
называет
диском@@
числом
плохого
нену@@
Доба@@
постро@@
трудовой
Ланки
као
персонажа
уникальных
умира@@
горных
слева
энтузиа@@
нация
концерт
Контро@@
житься
Об
чикам
средой
главой
Pay@@
циони@@
Македония
западные
радо@@
предложением
расстройства
маг@@
прошед@@
корпоративных
кормить
альтернативных
сцене
вавших
Вселенная
биться
технологического
объемов
опровер@@
баро@@
добросовест@@
выразила
форт
наем@@
нрави@@
взве@@
149
черно@@
нервной
говоря@@
расширении
пами
дипло@@
Мексике
полуша@@
распространи@@
насла@@
разработчики
независимым
прибли@@
храма
Колле@@
сделай
соглашаетесь
ресурс
больший
Южного
Исламская
устанавливается
IBM
продолжала
дума@@
смотрят
принц
единство
суверенитет
умирает
онах
танцы
драмати@@
связывает
готов@@
COM
сочи@@
крыши
сму@@
расшири@@
конфиденциаль@@
горь@@
Мельбур@@
сконцентри@@
целостность
плаги@@
вернется
конструк@@
гено@@
Албания
аудио@@
акта
угро@@
сна@@
электронную
связанный
кругов
Абе@@
формами
старших
ife
отдать
депутатов
всём
съез@@
функциональные
Осло
разгово@@
пользователем
пче@@
здоровых
ン@@
Data
ссен@@
1948
иллюстри@@
июнь
аг@@
мией
детстве
множеством
религиоз@@
родный
Онтарио
σ@@
приоритет
вара
ه@@
Филадель@@
российско
суста@@
произошла
легити@@
делайте
привлекать
крес@@
добра
внезап@@
эсто@@
ревизии
бил
бам
произошед@@
чается
Arch@@
угрожает
регулярной
улучшает
стрелять
символом
ядра
ожидают
полевой
классической
станцию
Альян@@
формировать
конвенция
корм@@
отдыха@@
Гвинеи
признали
проведением
падают
проведет
клинических
прогрессе
указаны
записка
ратифика@@
Лар@@
законо@@
É@@
развивающимися
христиан
зонах
малый
уделя@@
убийца
точными
здоровый
извлечь
ПС
ı
Бран@@
Фото@@
Кло@@
технике
позвоните
заставля@@
волю
Москву
посред@@
банковской
справедливо
просили
Кала@@
мане
долгосрочного
никакие
коалиции
инвалидности
британской
приста@@
небо@@
классы
пояснил
изм
материальных
напряженности
ново
Конституция
исследовательской
арабского
хэ@@
хозяйстве
дискриминацией
круглосу@@
параллельно
Робер@@
ярко
ревизоров
прессо@@
ОАО
подписать
клин
хорошими
China
тат
Чешская
незаконных
сообщениями
напишите
желаю
СЕ
чиновников
базовых
ната
индей@@
рными
9001
Антаркти@@
корреспонден@@
хак@@
Ран@@
Кали@@
сигарет
леген@@
183
председателем
коля@@
прочитал
упо@@
копию
позитивные
ави@@
принадлежащих
Вашингтона
гостям
черты
подлежат
стреми@@
обычным
ант
репродуктив@@
кус
эффективную
зато
Доклад
проявлять
живу@@
национали@@
сопер@@
Сальва@@
Кении
рок@@
честве
ответственных
Обще@@
пс
необходимый
жок
15,@@
прогнозы
допуска@@
участки
проанализировать
спине
Add@@
ученый
опасные
тексте
озагла@@
Хельсинки
Владимира
разъяс@@
жительства
вшимся
учеников
Багда@@
зова@@
богатые
сожаление
опере@@
меда
владения
присоединения
направлено
четверти
Окс@@
диться
побо@@
кампу@@
биологии
Туркменистан
захотите
ассоциаций
плотности
оли@@
соответ@@
совершенные
сопря@@
визуали@@
Палестины
внесении
инфици@@
уникальной
лихора@@
декабрь
плодо@@
иноплане@@
Эфиопии
больно
коммерческий
оформл@@
рецепт
твори@@
инвестиционного
остаётся
Совещания
недопусти@@
заполнения
попыток
,@@
конфликте
среднесро@@
личе@@
боевой
наблюдателя
важного
Джонсон
портов
специаль@@
выдаче
банке
бронзо@@
любимой
University
7.
прокат
ւ@@
зарегистрироваться
обеда
чеством
факс
контроле
риско@@
тизм
подразделение
привод@@
валюта
детях
влажности
сюже@@
шара
разное
проанализи@@
осторо@@
публиковать
наполни@@
Bus@@
показывать
знаков
рять
Интернету
каро@@
обнаружено
улицу
благодарю
боятся
финансиру@@
менту
шир
вшее
функциями
МУ@@
отдельного
торных
портал
бесплатных
Клинтон
паке@@
операциям
оборудованием
упомянутых
уязвимости
представит
иди@@
инженеров
изгна@@
щу
поездка
надцати
устойчивый
разрушения
ждали
примере
выплат
архите@@
трибуна@@
спецификации
исполнителя
комеди@@
коллегами
171
конкуренция
изготовление
лопа@@
частном
уверен@@
жестокого
пей@@
игровые
несанкциони@@
экстрема@@
зло
брендов
мерки
медицинскую
строительной
телевидения
Мос@@
вшуюся
возму@@
джей
Директора
предварительную
исполня@@
разделение
палестинской
чувствовали
занимался
выделя@@
нормативных
культурным
реализова@@
пойду
главу
фор
воздушное
осуществляют
первоначальный
толщи@@
Ио@@
конкур@@
РС
Северного
добавлять
подразуме@@
трафик
Роди@@
вокзала
развитые
Ethereum
оператора
Блу@@
поставляется
отпечат@@
родные
ценным
кори@@
водный
жан
разрабатывает
ённых
ع@@
крупного
отры@@
моделирование
куски
серьезное
инти@@
Ливи@@
нис
Народ@@
цкого
незаконно
контракты
листы
потом@@
дождя
опубликован
удовлетворя@@
соглашению
богатый
производством
желудо@@
цер@@
вока@@
предлагаемого
основанием
разработок
меша@@
любо@@
потребует
предварительная
посетители
плану
Положения
Акаде@@
агента
прежде@@
президенту
исполнитель
высказыва@@
текущие
реди@@
лечению
пада@@
немногих
свободная
дется
посвященных
управлен@@
инциден@@
проду@@
движется
прикры@@
поте@@
этнической
Республику
т.@@
намер@@
огромным
ослож@@
поклон@@
приехал
концептуаль@@
актриса
выигра@@
Сирийской
болгар@@
аккура@@
фазы
налоговой
употреблять
спиной
оскорб@@
созданный
дже
называли
водоснабжения
вооружениями
ограничены
плохое
нахо@@
огромной
предыдущем
API
суро@@
мигранты
обрабатывать
Челове@@
кодек@@
Еванге@@
связанного
исследова@@
загово@@
утрен@@
консультантов
собственными
Контакты
Мир
предыдущей
Секре@@
примут
сесси@@
знакомы
ворот
меха@@
мандатов
отли@@
оснащен
Мес@@
инновационные
приведены
усугуб@@
167
концентрация
Enter@@
неравенства
технологические
зимы
тче@@
страновых
Н.
Галакти@@
дорогих
Буш
остальной
одобрения
Марии
представлении
регулируется
щегося
вело@@
поправками
дочер@@
крупно@@
стимулирования
свободным
стую
Майк
сердечного
реж@@
единый
чистые
док@@
декларация
уга@@
Пос@@
корабли
партнерстве
телескоп
подчеркивается
нарушении
вооруженного
дебю@@
Офи@@
нормам
ДНЯО
Украиной
попытку
курить
печатать
населению
презентации
прой@@
6,5
проконсультироваться
катастрофы
галерея
ation@@
делами
убеждены
предлагая
гендерных
готови@@
ударов
существенное
ī@@
преодоления
мировым
выполнением
сетью
прокля@@
оставили
нетерпимости
гормона@@
призывом
коже
править
ошиб@@
приказ
шами
Договарива@@
1961
мелкие
убежище
распредели@@
ассортимент
инвестиционной
ксе@@
подпись
передней
стит
PDF
пациентам
рейтинге
потен@@
премию
логическая
традиций
островных
ведь@@
юга
вится
ε@@
создала
ссу
https
1944
Билл
услыша@@
семьдесят
качеству
приви@@
песок
фера
тематических
травы
хен@@
Роб@@
бабу@@
меч
ТС
израильских
дискуссий
тейна
Тони
бюрокра@@
галактики
описать
переданы
правильном
публичных
Дре@@
Федерального
спроекти@@
сол@@
Божи@@
договору
рею
включенных
дисципли@@
боевые
объем@@
Стати@@
неофициальные
ллен
небольшую
пое@@
ლ@@
жилых
природой
спортсменов
ПР
плоско@@
сравнении
сосла@@
продуктом
мора@@
ежегодной
находит
вающими
железной
цу@@
ездить
посвящена
присутствии
ó
универсального
профессионально
Dig@@
обследование
построены
хищ@@
Games
рыми
прослуши@@
душе
Рика
планированию
необ@@
самолё@@
древ@@
ледо@@
товарами
земного
канце@@
возраста@@
химика@@

Палестин@@
футбола
функционировать
виру@@
Commun@@
разделя@@
наций
Запад@@
представляющих
скончался
тельского
операторов
межправительственных
PM
истина
корпоративной
прекрасным
масштаби@@
выпить
продвигать
рачи@@
доставить
составляющих
окрест@@
почту
существенные
королева
таможенных
озер
дора
Библия
забывайте
ствия
Алексей
бону@@
примера
отрасле@@
солдаты
рени@@
коопера@@
Аллаха
зрителей
распространяются
друж@@
превращается
упоминается
противника
Европейском
деньгами
отказались
прости
убы@@
доступными
Февра@@
чим
фондом
прямым
семинары
какому
нули
спортивной
габари@@
ледни@@
зеленой
Кувейта
уголовное
дискусси@@
сек
приш@@
содержащие
котте@@
опасно
способных
Дека@@
242
мыше@@
указанием
возраст@@
эффективному
инициа@@
поняла
Государственного
Чарльз
таций
пропаганды
яд
ледя@@
взаимосвязи
предполагают
технику
Государственной
размини@@
выпускников
требованию
военными
ОТ@@
тарь
воспитания
неба
соблаз@@
1,7
фигури@@
мощь
тельница
лта@@
релье@@
загадо@@
разницу
нга
Марс
недостатков
уничтожение
стка
создайте
общему
антиоксидан@@
расследованию
выдвига@@
установке
оптимизи@@
Ланка
лиди@@
укло@@
имеющим
некоторую
Этот
лоте@@
предпринимать
тизации
обсуждении
Компания
свойствами
Черногория
космо@@
СД@@
Германию
смеси
ТП
пассажи@@
перемен
этапов
насеко@@
великих
обеспечивается
методологии
вредных
уменьшает
сохранении
критики
полезными
реальностью
ב@@
забра@@
рыно@@
Павел
перенес@@
шаются
кана
пресе@@
краткое
перемены
берут
навод@@
преступностью
экспорти@@
выбрал
несовмести@@
процессуаль@@
ане@@
ранние
Куве@@
смертью
объяснил
ьон
россиян
воздействием
быстрым
ожидаем
погиб
внутренне
мыть
находясь
нынешнем
лики
йско
пассажир@@
серд@@
теорию
фокус
обмену
готовится
свидания
китайское
арсена@@
хле@@
ускорен@@
восьми@@
ступит
мад
океане
затрагивает
шёл
платформ
Один
уникальная
чистых
уволь@@
следите
случается
перифе@@
Уа@@
вспом@@
альпи@@
холестерина
тику
Стар@@
армию
вариантом
вознаграждения
Мир@@
II@@
пояса
подозри@@
пане@@
оператор
подтверждают
иммунной
баре
производственные
робо@@
пользователю
патро@@
Иерусалиме
роботов
насчитывается
агресси@@
эксперта
ключевую
являлись
народам
задержи@@
выбору
Кеннеди
Брэ@@
отметив
пострадал
пониманию
содержимое
зача@@
сири@@
радости
противодействия
подтверждая
брасы@@
потребо@@
утверждается
СК
согласилась
гна
пытки
разрешается
веду@@
Голландии
реестр
изобрета@@
КР@@
GM
периодов
выделения
дружбы
меньшинства
автоматической
антисеми@@
добровольцев
телом
окружающих
тения
датчики
ς
зан
Wind@@
судьбы
смотрели
великолепный
державы
чувствительность
λ@@
уменьшению
прикос@@
оном
Всемир@@
заинтересо@@
молча@@
ведо@@
Бла@@
древний
неудивительно
средним
нераспространении
турни@@
Кипре
действующего
чрезвычай@@
братьев
акционеров
поражение
попали
грубы@@
швей@@
насилию
твердых
дове@@
прекрасные
уголов@@
надзор
деры
завершена
системам
Словакии
выживание
экипажа
излу@@
тень
отклады@@
относящиеся
одобрил
хождение
ПОГ
вела
Дире@@
следы
менеджеры
целесообразно
сфе@@
глубокой
столкнуться
Привет
следуя
проживают
мали
описан@@
пособий
намерения
покинул
крыль@@
вспле@@
графические
научить
ร@@
платформой
онной
посмотри
перерабаты@@
1917
изменилась
Креста
искоренения
минера@@
высвобо@@
модуля
ас@@
доходит
млад@@
исчезновения
диабет
суду
ингредиенты
рассматривают
намерена
объявить
состоянием
одних
библиоте@@
синдром
племен@@
рассказали
Фиджи
неров
транзакции
внесенными
потребители
Буэнос
белой
спора
Шотландии
политическом
широких
решимости
оккупированной
центральных
потребовать
распространять
семи@@
сиро@@
1,1
Стефа@@
биологических
памя@@
группировки
расходо@@
Сью@@
Порошенко
шест@@
ведомства
родом
дискре@@
секрета@@
вооруженными
огромная
вину
торской
аннули@@
усло@@
рун@@
Иордании
прямое
послание
разнообразных
мара@@
мужем
Западном
разделяет
мбле@@
периодом
репродуктивного
трудом
Эдин@@
WP.29
стские
вьте
изобретение
вопреки
правительственные
сущности
реформе
сектором
долла@@
критически
интересны
объясня@@
анализировать
13,@@
пья@@
старей@@
нетто
объединя@@
бояться
объяснение
останов@@
клиентом
замы@@
человеке
Цюри@@
маму
кинг
заключить
мило
гармонии
этики
Олимпи@@
приоритетом
разницы
политиков
бассейне
постели
жир
кардина@@
197@@
вуд
муниципали@@
экспеди@@
вулка@@
советской
МВт
паспорта
Руанде
болезнью
льны
водит
продю@@
допро@@
бою
рекомендую
парази@@
ows
сегодняшнего
двигатели
существ
организованы
добавок
качественных
технологией
ядерные
октябрь
гипо@@
дипломатических
длительный
Си
размно@@
мышлен@@
рекорд
Tun@@
наимень@@
упаков@@
элемен@@
особым
ждая
рабочим
империали@@
возлага@@
WG@@
землетрясения
МА
танк
спир@@
нанима@@
вытека@@
земной
возвы@@
Ь@@
отношениям
фрак@@
Ос@@
едят
мощным
Националь@@
песча@@
звуча@@
инте@@
слушайте
маркировки
обществ
Королевский
идеальная
Так@@
Яро@@
признан
пострадали
рекомендациями
прибыл
основано
Inc@@
пересмотр
профилактике
обществу
тена
служ@@
сооб@@
жом
альтернативные
полицию
волн
стрит
собы@@
Аш@@
экзамен@@
водоро@@
использовался
амбициоз@@
приглашаем
Государства
скепти@@
агенты
взаимодействии
стия
Мил@@
подума@@
увеличился
всеобъемлющий
схва@@
1939
оценивается
тацией
говари@@
суббота
Фре@@
съ@@
НРС
Солнечной
насчиты@@
КН@@
музее
реи
формата
ут
юридически
ора
Университете
составляла
юно@@
Кодекса
гип@@
фактора
снятия
господ@@
тамож@@
лиши@@
закончился
устройствами
нис@@
соглашением
термина
анализу
лией
нота
импульс
менти@@
шага
Север@@
председа@@
ведущим
еров
Меж@@
аген@@
выпущен
хорошем
Миро@@
указан
туристических
Михаил
французской
заведения
бухгалтер@@
SR.@@
деяния
перечня
механические
недавние
Гранд
винто@@
грамотности
Иране
закрыты
метра@@
катастро@@
сбы@@
Виктор
Уголовного
даёт
слегка
бля@@
поймать
гона
натрия
достига@@
использовано
ари@@
дубли@@
када@@
Петербурга
обост@@
баланси@@
взрослого
актри@@
покро@@
советских
потенциаль@@
административной
европейском
работающие
мас
Исполнительный
рождение
показала
изложенных
Пат@@
кров@@
называемой
оставался
подъема
Голливу@@
Джексон
светом
гостиница
кальция
установил
запуска@@
творческие
обжало@@
.00
федеральных
Судане
немногие
буду@@
вступить
дев@@
Западе
созданных
музыке
подарков
Танзания
немецкие
умение
магазинах
девушку
железнодорожных
информированности
шн
Гостевые
СТ
стает
критериям
красоту
копия
нете
Цар@@
корпораций
извлека@@
Опера@@
тренирово@@
уведом@@
угне@@
нечего
Черногории
утвердить
жденные
горе
изве@@
шё@@
возвращаться
1965
чила
исти@@
проника@@
столов
служа@@
медиа@@
инспекции
медицинским
конфиденциальность
комиссию
личным
мому
финансовое
арестован
EU@@
приобрета@@
приба@@
Стату@@
естественного
аргументы
чувств
зарегистрировано
глубокие
сравнительно
своеобраз@@
начинаете
Рам@@
приехали
рынком
стек@@
Ł@@
учё@@
плавания
финансово
периодического
вмести@@
течении
Детро@@
материи
фит@@
Card
шоссе
сест@@
альное
хлори@@
розничной
предоставляемых
коммента@@
тян
саль@@
серьезными
танцева@@
убийстве
пробо@@
тяжести
пенсии
задержания
люд@@
отмени@@
космоса
эмбарго
верху
стеро@@
заново
посвященный
apos
риску@@
последо@@
мили@@
прими@@
набра@@
социальными
кв.
комиссар
дский
безопасные
торгово
полные
великой
заболеванием
терак@@
игрушек
лаборато@@
Первой
крипто@@
учить
специальную
музыкальные
сидит
переч@@
ленными
указанный
глобальным
рению
Кири@@
динамики
Чарли
постановления
Саль@@
транзакций
опрос
дорожной
Луис
Mr
представителям
успоко@@
Кубок
договоренностей
κ@@
диски
чье
ак
человеческое
Восточном
правильным
галереи
косми@@
школьные
директив@@
Йоханнес@@
содержащих
жениях
водство
писей
криптовалюты
видимости
CN.@@
коти@@
талантли@@
ј@@
серве@@
вначале
лауреа@@
ультрафиоле@@
обстановке
помощ@@
берег
смотри@@
праздну@@
экскурсии
экологии
касающийся
несен@@
эри@@
соображения
ванное
индивидуально
событием
целиком
Берлине
богатым
лучшем
обвини@@
дистрибью@@
крупными
гий
Договор
импорти@@
реклами@@
использую
ourn@@
♪
установ@@
воспиты@@
начальной
сят
сборы
издержки
законности
клубов
привыкли
парни
характеризуется
сож@@
Боже@@
хозяйств
повреждений
duc@@
высоту
покер
неожиданно
массовые
поступать
Венесуэлы
виновных
выявление
05.@@
валюте
рождении
устро@@
Советский
злоупотребления
жина
длительное
годовщи@@
Информа@@
дифферен@@
шеф
подписание
страдать
здоро@@
аукци@@
летие
правоохрани@@
греш@@
снижается
предоставляя
следующими
поставленных
эффективная
экономическими
потратить
забасто@@
Rev.1
Жу@@
кните
перемещение
являющиеся
алмазов
поклонников
субъек@@
задерж@@
1918
обеспокоен@@
Служ@@
располагается
посла
одними
Правила
документами
сообществ
серы
функциональных
масштаба
образованием
эмоций
ФИ@@
общественное
демократического
2025
двадцати
столкновения
внутреннем
вступление
бет
Проду@@
агро@@
раскрыть
этаж
британское
потеряла
ś@@
игровых
щимся
включено
меру
Британии
горнолы@@
домах
фф
Heal@@
искусству
ярлы@@
терпи@@
ресторанах
Fire@@
лился
начнут
проле@@
подтвердила
артилле@@
Гватемала
собрались
поехать
консенсу@@
диапазона
равные
Параг@@
стская
ПЧ
жизней
Словении
широкую
откро@@
Премьер
Контак@@
вспомогательного
неизмен@@
иду@@
дискриминация
отправился
клубе
уголовной
Рок@@
выяснилось
почве
General
дружелюб@@
загрязнение
отчетного
страсть
потенциалом
моди@@
вакцины
XV
символы
столк@@
детка
ound@@
партнерам
черных
санкциони@@
называются
списки
обязательствами
сми@@
распространены
Сторона
опо@@
младенцев
лз
материнской
воспомина@@
пациен@@
осложнений
подчеркну@@
препятствовать
извините
агрега@@
улицах
автобусе
ограничивается
Soft@@
аналогичных
переходного
V.
контакте
Univers@@
Постоян@@
вакан@@
препроводить
URL
Шей@@
приближа@@
нят
ации
скорректи@@
транснациональной
запреща@@
голосовать
МР@@
подготовили
жала
браузер
реальным
восхи@@
поисковых
транзита
оценкой
привычки
значимых
ребёнок
взяла
тифика@@
вало@@
муже@@
посадо@@
Russ@@
повреждение
соедин@@
тащи@@
усилиями
безотлага@@
туристический
настроения
ском@@
неплохо
Пал@@
кандидата
могу@@
разговаривать
АР@@
придётся
повторить
жили@@
водителей
такова
иску@@
БА@@
совокупности
вступает
представлению
пустой
перегово@@
сексом
сомнение
осторожны
брь
экскур@@
C.5
мультимеди@@
распространенных
Таиланда
VIP
приветствовал
раунда
проектирование
отопления
возможен
знака
едини@@
темные
короче
снай@@
направил
инструмента@@
сложная
авторских
проводимой
вербо@@
кодом
подавляющее
покупатели
бит@@
уверенностью
Мэт@@
боевиков
методологи@@
негативное
потоки
хранилище
влечет
распростра@@
кровя@@
правительстве
циона@@
йскими
аппаратов
имену@@
продолжил
НАСА
референдума
сража@@
творения
нарушениями
результа@@
прочитайте
разработал
хико
платежа
позволила
Кинг
йо
сделана
предсказа@@
президентских
велосипеде
останутся
нужд
вошел
увидим
Катар
Эквадор
Положение
российская
оперативного
Б.
рацию
препровожда@@
печен@@
обстре@@
урегулирование
уголовный
Сторо@@
цветом
Екатерин@@
чках
рда
противостоя@@
Согла@@
меро@@
инструментами
гали
болель@@
лечи@@
ером
астроно@@
ствовали
Дня
корни
деревня
Tesla
благоприятных
поставил
мусульмане
1966
плохая
открывать
тством
Вале@@
точнее
Вена
Мадага@@
бок@@
геноцида
джу
личност@@
преступников
высокопоста@@
землей
добровольно
инициати@@
насилии
сожале@@
УСВН
взаимного
эволю@@
удачи
предоставлены
хорош
июль
простите
государственное
индустрия
заслуживают
Mast@@
2,2
достоин@@
стратегической
Департаментом
Ливан
Чехии
считалось
бог
азота
безопасное
обес@@
докла@@
ноты
ровав
отчетный
Флори@@
битва
Аг@@
повышать
мошенни@@
испор@@
страшно
Стивен
предупрежда@@
убеждения
кос
мозге
значимость
изложены
квартал
положительное
грамма
подавля@@
เ@@
дна
квалифицированных
лизу@@
принятым
депрессия
объяснения
сосредоточены
находилась
решено
гимна@@
вающую
умно@@
лошади
балло@@
стабилизи@@
Кембри@@
гигиены
рецен@@
церемония
исторически
сюрприз
исполняющий
долгого
исчерпа@@
ночные
ДС
смех
тарифы
встретился
панелей
физическая
телеф@@
Рождества
бира@@
исце@@
заняты
двенадца@@
СВ@@
погре@@
Восточного
удобство
глядя
ангел
Гиб@@
хранятся
продолжаем
ужасно
получено
руководя@@
Джонс
СО
надежной
щимися
верите
температур@@
ненавижу
Восточная
воспользу@@
нарко@@
упла@@
предмета
удивительный
гостеприим@@
мембра@@
возна@@
актами
январь
счёт
Проект
компонен@@
Хил@@
тете
отметим
читы@@
поступить
tain@@
актуальные
выпустила
добавив
грузовых
вещах
1958
виться
задания
двигателем
Араб@@
плодотвор@@
заключалась
оку@@
службой
идентифицировать
Fort@@
предназначенных
оказываются
реке
вредоно@@
совершенных
насчитывает
дует
цистер@@
футболу
‑
являясь
своя
соседей
спя@@
преследование
чностью
SQL
судьбу
Рико
предоставлению
полицейский
Оу@@
позволяя
сильного
четкое
приветствуя
тестов
всестороннюю
тельской
конгресс
уголовных
ТРА@@
веществами
кандидат
журналисты
заключительных
Группой
абонен@@
шаться
плоды
I.@@
шире
Фрэн@@
Мальта
битвы
экономия
нское
топо@@
летия
добавила
уделить
вернусь
теги
ה
персоналу
двенадцать
преуспе@@
хами
прош@@
семейной
гражданином
взгляда
астерои@@
подли@@
кель
трудоустройства
пошлины
кви@@
мю@@
моти@@
снимать
развиваются
предварительный
теть
питы@@
несовершенно@@
изготавли@@
количествах
терять
страя
мела@@
началу
онко@@
1964
узбек@@
ничем
христиане
указанным
Ливане
экспресс
подписан
ритуа@@
философия
круто
наступа@@
стилей
Персо@@
вариан@@
молодого
внедрению
заголов@@
конечной
трудностями
1963
индивидуального
цент@@
некоторой
Карл
закончится
комисси@@
яви@@
научным
Джибути
созданные
α
кален@@
отече@@
выходе
став
британских
Трибуна@@
декларацию
планету
завершении
أ@@
Марша@@
внизу
Project
потерю
древне@@
бара
уникальную
цифра
коридо@@
медаль
разногласия
континента
подходя@@
аце@@
спутников
стабильной
вершине
обычная
памят@@
Мани@@
азиатских
Кариб@@
официальная
Буха@@
попробу@@
Петра
Даби
культурой
терма@@
сье
поручено
пишут
возрастом
Нидерландах
процветания
протеста
брифин@@
захватить
Сил
применений
бога
амор@@
Мисси@@
степенью
Монако
неважно
Куль@@
юрисдик@@
аккреди@@
парков@@
уважением
лучшему
провока@@
судь@@
сделало
обращает
уголь
мира@@
рующего
программных
помнишь
север
сова
доктри@@
действии
Эри@@
вынес@@
смертей
кислот
товым
тош@@
вленными
накапли@@
заблуждение
вленном
ק@@
ق@@
принимаю
Федераль@@
обитания
любыми
средиземно@@
строительству
КП
лизи@@
рассмотрен@@
учёные
подготовкой
фаши@@
пыталась
публикация
установленного
объедини@@
куляции
диплома@@
гда
быстрые
ставке
работодателей
ареста
платят
узел
арест
раннем
иностранными
мобильности
ритори@@
Адам
вносит
говори
намерении
конкретном
вятся
Спа@@
урав@@
нефтяной
региональное
послушай
яро@@
заместителем
анно@@
Международ@@
Мой
стоящих
проблематики
нестаби@@
фигуры
услы@@
Ян
сельском
пят
приобретает
занимались
способностей
чую
темпов
округе
стандартной
бина
максимального
вдохновля@@
обещание
инвен@@
ископаемых
режиссер
КЛ@@
тяжелый
пес@@
составляли
кажутся
АН@@
КТ@@
рассмотрела
енный
Повестки
твоих
сексуальная
vo
НП
сторонние
Содружества
динга
Ирку@@
механиз@@
специальности
йор@@
лету@@
дека@@
очереди
музыкальных
рующее
существующего
правильные
источ@@
думы@@
устранение
работник
боится
волно@@
стоял
кредитования
существенный
B2@@
проходили
союзе
Иса@@
C.1
применяют
столкну@@
подчеркивая
кампаний
варианте
поддержали
отоз@@
приключения
беспокои@@
8.
оставались
принципом
мошенничества
портфель
оправ@@
трансли@@
бабушка
подготовленный
Тво@@
Стив@@
рус
японской
Уай@@
конкури@@
отказывается
кл
сдви@@
льго@@
темпами
двухгодичного
ощуща@@
сун@@
Древ@@
святой
МИ
Монреа@@
жоу
событиями
уровне@@
немецких
повышенной
длин@@
бремя
энергетического
помощника
прохождения
физическим
Солнце
наблюдатели
субъектив@@
Только
дисциплины
Network
косвенно
комбина@@
парламенте
задумы@@
орби@@
последствиям
Бат@@
навы@@
Каспи@@
рную
блюд
побы@@
предложит
глобальную
сохраняются
Буркина
вытащи@@
находить
трансформации
пользова@@
законе
Ата@@
карти@@
фермер@@
материалами
провед@@
грам@@
дискриминацию
простота
базиру@@
ограниченной
моложе
принимаемых
разы@@
беспоряд@@
сыном
закончили
зато@@
аналитических
указывать
религий
тение
НИИ
наибольшее
стандартная
План
вские
КИ
ն
герои
кратко
матерей
рентгено@@
порты
Исландия
инновационной
вными
лаз@@
непрерывно
дядя
возобновля@@
салоне
подключить
выяс@@
лёг@@
соединен@@
дией
ленда
написала
кише@@
бедствия
Комиссию
существованию
стского
Глобального
оригинальной
мероприятии
бессмыс@@
суди@@
гани@@
отложить
Pok@@
мода@@
устарев@@
метрии
приехать
опроса
российском
ванную
достигнет
Господи
выража@@
творчество
признании
мирное
Арабская
р.
Сирия
μ@@
ПА
новорожден@@
снимки
кВт
граммов
гуманитарным
фан
расслабиться
умных
йна
возможностях
вис
inf@@
поэтап@@
рекомендацией
последовательность
нениях
двор@@
тайны
совершили
чувствовала
восем@@
крыше
правди@@
банковского
левых
умер@@
присоединился
ногу
ритм
враг
премия
двухгоди@@
законам
больной
излиш@@
пожелания
попадает
низком
полей
запрещает
взаимосвязь
ровно
лекции
толко@@
Web
Андре@@
подъ@@
поступил
югосла@@
Еже@@
играми
констати@@
Район
составлял
водом
компаниях
удобной
больного
демократической
аромат
Проек@@
уникальное
פ@@
моря@@
существенных
кончи@@
женской
обезья@@
мисси@@
прошедший
сель
презерва@@
ГУ@@
полицией
ник@@
одежде
Конференцией
опасным
патриар@@
профессиональное
налоговый
ознакоми@@
возобновить
ل
пуга@@
потребля@@
ключом
умерли
вызвало
сообщило
Бож@@
инвестирования
Само@@
хоро@@
тком
переста@@
клянусь
ваемое
изменили
всякого
утечки
годовщины
индиви@@
опрошенных
титул
Парла@@
дороже
разверты@@
Су
титу@@
вое@@
ЮНОДК
ت
изучен@@
ПРЕ@@
Писа@@
организационной
Хоро@@
водства
соли@@
кусо@@
отвечая
Лоу@@
гун
целевые
опираясь
начинаем
наступает
Силь@@
бл
окружающая
позволяющие
снега
переноси@@
генерации
School
эра
переимено@@
возмож@@
валюту
ищу
падать
ежегодного
приключение
Ленингра@@
ноябрь
Ferr@@
бензи@@
ИГ
Белого
мигран@@
предоставит
посвящен
учреждении
предусматривают
четверть
выгодно
Хал@@
журналистам
сторонних
водах
древней
каб@@
восприятие
короткого
пакта
сооружений
рабаты@@
......
Дон
сообщать
тельствах
разрешений
репутация
инстин@@
воскре@@
н.э.
мощные
семян
базовой
Але@@
дне@@
сражаться
внесены
новейшие
тическим
участке
отрицательный
²
подвержены
апрель
максимальную
славы
конкурировать
тибе@@
оставшиеся
проща@@
возникающих
сирийских
попытался
старт
металлических
Аля@@
Андер@@
ор
Дени@@
арене
.com@@
отступ@@
Специальному
основ
Центральный
курсо@@
ي
пости@@
гастро@@
фактом
Сахары
жестоких
антропо@@
крупнейшей
пользо@@
Фасо
родствен@@
яиц
бухгал@@
ознакомьтесь
соблюдению
услышал
помогаем
нищетой
подвергну@@
обращаются
точностью
базовые
изложенные
хруп@@
счету
отходы
ссы@@
мешает
договориться
красной
объектами
Бахрей@@
твердой
перепол@@
Space
диабетом
катастрофи@@
вертолет
читателей
призем@@
сознательно
незабы@@
Исландии
колосса@@
достигнуты
собрали
ждается
бани
заявив
ализации
Кве@@
อ@@
мены
терпели@@
конструкций
инфекций
потреби@@
лье
Кейт
ранения
техническому
жизненного
яна
мпе@@
правовую
появятся
ненной
тенге
нанесения
уголовному
Стэн@@
конкре@@
независимые
лическая
прогре@@
телефон@@
открытии
занял
библе@@
разъяснения
постав@@
всеобъемлющей
сериала
запас
Sky@@
сложность
серверов
ствий
МФ@@
Браун
гжа
тета
мудрость
туристы
тесные
эксперименты
мандатом
гора@@
МСП
Вест@@
республи@@
дара
сады
мастера
пать
владение
отражены
недавнего
посмотрел
яд@@
способствовали
здоровые
обеспокоены
воспали@@
приятный
показателем
предприятиях
основанной
процедуре
сде@@
разры@@
питательных
ищем
Время
предъявля@@
жат
фермеров
передовые
Народной
Пекине
чих
тическую
призываю
тизи@@
знаменитый
лана
иду
сущность
мужчиной
четвертого
родились
исправления
поселений
Еврази@@
нан
приносят
грн
публике
готово
буд@@
известными
кадры
лучи
Элизабет
Dire@@
врага
GD@@
очевидным
столкнулись
Бло@@
сках
широкому
бана
керов
укажите
потребителя
варь
мамой
писем
ключевыми
дитесь
немецкого
осмотри@@
лдо@@
исчис@@
ьями
полезен
государственную
компенси@@
кун@@
извер@@
КНДР
сертификаты
Непал
индивидуальной
механизмом
режи@@
предположение
Аген@@
БАПОР
немецкой
признаны
доза
британского
шер
закрытие
ЦИИ
1962
Лихтенш@@
Сторонам
пакетов
Бак@@
духовной
лингви@@
БР
стадиях
шиф@@
оправды@@
стандартизации
закончил
полученной
спасение
приложить
охрану
увеличилась
учит
йное
лище
онная
великого
достаточного
избежание
строго@@
Узбекистане
материн@@
Центрального
ногами
персонажи
нескольким
существовании
пересматри@@
запрета
мную
меняют
призвать
резолюциях
каз
Боб
рыбу
просвещения
ס@@
зарплаты
УР
обучению
каж@@
стратегический
популяции
ответили
смен
стратегическое
Сэм
Эр
разговора
краткий
дополнения
соединя@@
избирательной
мба@@
инъек@@
Фай@@
органические
кой@@
клиенту
взро@@
потер@@
изу@@
Массачусет@@
покупают
чьей
четкие
неопределен@@
сырье@@
посольство
готовит
жив@@
распространяться
посмотре@@
организационных
въез@@
нология
нетом
риф@@
бесплатную
СПИД
веро@@
патру@@
тельствами
скором
Брюсселе
E.
Скотт
уши
ə@@
делега@@
тяне
Иван
сло
тис
планировании
Нель@@
подвергается
мировую
настало
метры
герцо@@
многочислен@@
получило
старта@@
экспериментов
денежной
обширный
истину
Социальный
повстан@@
прогнозиру@@
долей
пыль
основанных
рацией
Газпром
уделено
казнь
надежные
дины
конфликтах
НУ@@
тере
решениях
лари
мане@@
верили
математики
ОО@@
достигать
ментами
гера
Плана
протести@@
встретил
тео@@
спросила
возникающие
виза
идентичности
радостью
выступал
работника
Брюссель
окончательное
юби@@
рационального
комплексных
коренные
захоро@@
поступает
идеей
・
предоставлена
появляться
случи@@
прост
железо
Встре@@
разработала
путём
рекомендуют
нейших
берете
влениям
предпринимательской
взаимоотношений
захвата
приговор
ехал
действующей
прикреп@@
источниками
Камерун
чаю
сможешь
полетов
решениями
полевых
инжене@@
Бин@@
стоян@@
формула
лай
развитым
Мальди@@
призы@@
поверх@@
Крыму
назо@@
Кари@@
WordPress
зис@@
белым
щееся
кишечника
компьютером
подождать
гава@@
NASA
браузера
водными
ристи@@
ислам
бизнесу
кут
возмещение
Оке@@
российскими
нормальный
Уруг@@
намеренно
специализируется
накопления
начальника
нерами
амино@@
1946
тру
убь@@
Елена
банкро@@
Южном
настоящую
прозрачность
житель
взо@@
1947
задейство@@
ит
мония
методо@@
поде@@
кура@@
владеть
протоко@@
препятствует
сельскохозяйственного
Media
извест@@
зали@@
наземных
синг@@
собраний
пого@@
глубина
фантазии
расширением
разбирательство
Вирджи@@
масштабных
больницах
обзоре
вещание
институциональных
небе@@
преоблада@@
работода@@
стре
бюджетов
внутреннюю
целое
подальше
Здравствуйте
серьезная
ждена
собран@@
перо@@
ТЫ
конкурсе
2,3
Президен@@
академия
процен@@
цели@@
Крис
резервного
базой
Шарло@@
назван
்
охват
робота
горах
кнул
Ether@@
воспаление
стрелко@@
Стив
ways
устраи@@
британские
состоявшихся
Инициа@@
холодная
14,@@
помещение
белью
Азербайджа@@
Где
выходом
сыграл
акцен@@
риться
российское
вски
прину@@
1942
Николай
ёшь
Де
бездо@@
сравнение
миростроительства
Йорк@@
ответила
возвращаются
еврейского
носили
воспитание
разумной
монасты@@
و
реальную
попро@@
газете
обзор@@
закро@@
пища
министерств
страст@@
берега
первоочеред@@
экс
базовый
указали
установленный
посольства
бомбы
Эфиопия
выросло
современ@@
репута@@
действовали
глубокого
элементар@@
представителю
стр.
образуют
обратились
инцидент
контентом
аудита
поворачи@@
секции
юрист
собирает
хии
обслуживанием
достигнута
показаний
свободными
Пале@@
чивать
израильские
коем
циональ@@
платеж
полномочиями
ссылается
древеси@@
установлен@@
нулась
цити@@
подпрограммы
зю@@
танцевать
Организацию
дизайне
отрази@@
граду@@
украинские
саммите
Камбо@@
мие
капе@@
Кот@@
тиях
принятое
мыслей
подойдет
секреты
фено@@
правовая
здравоохран@@
минимального
апельси@@
аркти@@
кредито@@
получив
Бела@@
электричества
непредсказу@@
наруша@@
моменту
половых
делала
докладчиком
красивым
предприятиями
пройдут
автомобильного
замечательный
C.2
тестостерона
лд
инкуба@@
бенефициа@@
похва@@
течения
американском
закрыт
довой
отныне
лаборатория
нормативно
двусторонние
отчетность
надцатого
посещают
Таджикистана
ходатай@@
молекулы
лились
подни@@
частную
меморанду@@
шит
французские
легким
преимуществом
витамины
избегайте
утверждении
последующего
ава@@
зные
циклы
впу@@
Марти@@
правилах
поведен@@
Форум
кораб@@
взле@@
принципиально
закупки
преимуще@@
раны
реже
убивает
низкими
благословение
тностью
функционирует
плакать
дано
совести
бого@@
равного
явлением
пониманием
берга
Уганда
зелё@@
транспортом
лость
монастырь
Уин@@
благодарны
Джонни
Патри@@
жденный
близне@@
соблю@@
подобная
ане
Криш@@
нефтегазо@@
дневный
пребывание
маркси@@
старин@@
рги@@
Нов@@
приобре@@
водорода
диапа@@
ману@@
ваемся
Линколь@@
разумно
Хан
бун@@
нигде
шотланд@@
Монго@@
великие
Теха@@
вез@@
искоренению
польза
традиционная
прод@@
уло@@
предложению
кредитные
сё@@
Мали@@
слышала
дыхания
кругу
фан@@
правильной
принятием
гендерным
нынешние
разу
руемых
молодая
Западного
à
определено
01.@@
возрастает
ону
рика
ночных
модулей
предварительные
наступления
Сообщества
углу
скорей@@
прошлым
пузыря
принятого
уверенно
непрерывного
жителям
документу
ЛА
состояла
йдёт
вычис@@
мемо@@
СП
მ@@
Республи@@
Секретариа@@
Ми
цкая
устройству
заморажи@@
ретро@@
перекрест@@
графических
всемир@@
общественность
остатки
Таиланде
рациона@@
процедурами
процентных
тивность
партию
размеру
Мировой
СТА@@
каково
разря@@
учредить
севера
активными
налогового
онам
огово@@
приходите
Бого@@
конференциях
федеральный
становиться
манев@@
слышу
земельных
освободи@@
фальши@@
НЫЕ
Молдовы
станьте
ходила
Лау@@
слухи
Протокол
надежных
work
перечисленные
фали@@
открытое
Mob@@
Канцелярии
снабжение
аккаунт
ада
губернатор
нениями
посту@@
установленным
перспекти@@
ящий
увеличении
разда@@
пал
ограничено
марок
институциональ@@
поставку
наркотикам
прокуро@@
ксенофобии
FDA
кают
квалифика@@
окончании
практического
естественные
периодический
проведенное
существующий
аук@@
жду@@
изменил
высе@@
создаются
имплан@@
мертвых
интеграцию
CN.4
пиани@@
всяком
высочай@@
ведущей
приклю@@
объявлено
инвестиционный
тюр@@
рожда@@
трем
пропорциональ@@
площадке
должностные
Донец@@
большинству
европей@@
эксперимента
клетка
маски@@
надлежащее
инженеры
ратифицировать
мужчину
морским
соображений
заявляют
пластин@@
د
зок
ссия
разреши@@
чести
терии
анато@@
Гавай@@
пропустить
сдержа@@
активами
надзор@@
Государство
роботы
НЫХ
устойчивых
фортепи@@
огромного
жерт@@
анар@@
формам
неудачу
премьера
закре@@
размы@@
сооружения
Безопас@@
уплаты
исследовательского
неко@@
красотой
означают
бабушки
культурное
леги@@
стремительно
резолюциями
урегули@@
информационный
РК@@
взглядов
Условия
тре
разве@@
вщи@@
выполнена
сомни@@
расскажите
разу@@
гомо@@
логом
беженцам
пропуска@@
усмотрению
ВТ@@
обязательного
жиров
стыми
производственного
вооружение
лоя@@
рассказ
согласованные
следу@@
формируется
П.
лиц@@
подозреваемых
восприятия
воля
инженер
красивое
облигаций
существо@@
февраль
Recor@@
возрастов
застря@@
образи@@
Тихоокеанском
воле
сокращении
2,8
Превосходи@@
сади@@
утвержденных
сфокуси@@
уступ@@
бола
талант
ë@@
Викто@@
пренебре@@
Люксем@@
запасных
соро@@
кно@@
опытных
тря@@
застре@@
Анджелесе
достигнутого
инов
религи@@
гги
осуществляемых
повод
кай@@
инвестиционные
канц@@
досу@@
Лабора@@
доброе
узнает
одобрение
спутник
личном
ט@@
Кыргызстана
главными
села
помогло
касающегося
найден
жесткие
конференц
Монголии
Дол@@
казывать
совеща@@
Тель
перехва@@
состоять
комик@@
распространить
субсидии
ს@@
интересное
таможенного
Президи@@
хие
церквей
Corporation
выделение
ждениях
проводили
субсиди@@
ваетесь
сюрпри@@
Международном
называем
творческой
XVIII
притя@@
Кабу@@
подробной
кот@@
преступлениях
гарантией
банковские
африканские
куляр@@
мотива@@
ссан@@
принимающих
исполнилось
произвед@@
возникновение
памятников
сбли@@
статьях
прер@@
РП@@
сестер
ВП@@
имеющий
разрыва
юридический
Бисау
бросил
четырьмя
литров
1956
измерить
пластиковых
режис@@
псевдо@@
барьер
Roy@@
укрепи@@
элл
пищевые
выве@@
паспор@@
саммит
предпочтительно
Eur@@
предпочтение
губерна@@
маном
Open
ценами
потере
джем
положениях
творческих
флу@@
дне
сказ@@
пятна
страдающих
народного
установленной
функ@@
музеев
историй
литературе
картин
рим
агра@@
континенте
распада
изучении
дышать
ежегодных
массе
девят@@
логически
осознать
Всеобщей
продли@@
стараюсь
демонстрируют
фронта
Эмира@@
остаток
развод
сказки
плавать
растущей
презентация
леган@@
внесли
сторонников
Общества
почита@@
собираем
собраны
кладбище
кассе@@
проблемати@@
лию
отсе@@
гнев
полагать
предназначенные
увеличивать
оформить
представленной
отнюдь
Асада
2050
консультативного
НК
офицеров
композиции
лицензию
миф
разума
бюджету
нот
тятся
красных
Индию
периодические
сепарати@@
прокуратуры
контек@@
экосистем
наличными
магия
цикло@@
менеджеров
выр@@
7,5
боги@@
издержек
современными
пишу
убытки
Стратегии
верен@@
модули
Cook@@
установлении
популярны
Туни@@
WW@@
автома@@
берем
озабо@@
бывшая
уй@@
ране
журналист
филосо@@
յ@@
оговор@@
биткоин
Лига
приветствовали
Джим
типу
Кис@@
документи@@
Рама@@
жку
Ближний
Ваша
судами
кондициони@@
обозначения
зеленых
подготовлены
س
снить
целевого
разъя@@
продаются
сайту
руб.
прецеден@@
жиль@@
Сайта
попадают
финансированием
НЕ
однозначно
блоге
медико
активизи@@
свести
Олимпиа@@
инфекция
идем
измениться
целлю@@
выбирайте
Конституцией
цитата
контрабан@@
духовного
боя@@
надежным
установку
построено
провоци@@
размерах
выгод
объё@@
прилагать
добились
Глобальной
культурный
выражении
ivers@@
партнерские
ЗА
летнюю
запуги@@
сосудистых
сканирования
встречаться
привлекательным
КБ@@
Тихоокеанского
праздников
вариантах
емо
президенты
строя
зной
законодательной
интересным
промышленная
ה@@
табле@@
шах
арте@@
законные
плу@@
признано
ощути@@
Времен@@
КИ@@
развода
законным
профессора
здоровым
различного
0,1
весо@@
Кристо@@
запретить
выс@@
вознаграждение
штатах
ограничивает
упор@@
задание
виз
лиги
мирный
вирусов
1951
миротворческих
Францию
дипломатии
безнаказа@@
оплате
мишен@@
медитации
страданий
вниманию
кли
озву@@
наня@@
предложении
принес
хобби
считая
положительных
юридическую
продавца
связанную
лежат
умом
обновлять
ану
длинной
женность
статьями
Сальвадор
парков
фея
мала
указаний
технически
альным
приз
скандина@@
способствовало
гормонов
кокосо@@
Á@@
неравенство
ствовала
Ави@@
мба
комитете
традиция
распла@@
ЮАР
озо@@
письменной
энергетика
делового
продолжая
любили
неисправ@@
минимальной
перена@@
нормального
Капита@@
Иерусалима
После
счастливой
краткосро@@
открытая
успеху
кризисов
ищу@@
даем
фестива@@
межучрежден@@
выздоро@@
дены
компенса@@
Кыргызской
употребля@@
Патриар@@
2,7
Уругвай
астронав@@
сюжет
симпози@@
1959
всестороннего
خ@@
говори@@
совершенство@@
называемого
пошла
разумные
двор
интересами
корре@@
ассамбле@@
потенциа@@
возрос@@
лтон
Бли@@
Хали@@
советского
англича@@
дрен@@
летов
наладить
структурой
бренды
ограниченный
логическое
Петр
мными
коллективной
стане
фильмах
миллиарды
иммуно@@
стира@@
Г.
объявля@@
недавних
организовал
комите@@
производятся
ём@@
балли@@
дворца
текстов
Лит@@
Черно@@
чаются
Бек@@
жене
Шелко@@
1943
нков
пришёл
созданная
фол@@
Wik@@
подготовиться
менить
рассмотрит
темам
муниципалите@@
создаст
устрои@@
Турцию
прокурор
мины
комплексный
ковыми
пожилые
отера@@
Даль@@
долгий
делегацией
Коман@@
звездой
введены
R.@@
меров
чемпионата
американское
прова@@
роз
определенными
обнаружение
занимать
хлеба
ответственностью
тренировок
крепость
Сала@@
добыча
баталь@@
идеями
электронное
тябрь
незамени@@
нефтя@@
йцев
Специальной
водной
рассы@@
контролле@@
Ната@@
подтверждается
ртути
ковую
оценили
основал
перспектив
даю
уроков
хво@@
желают
разворачи@@
эволюция
улучшении
нехватки
эпизод
преодол@@
ý
знаменито@@
коренного
дополнительным
прошлых
хон@@
Анто@@
отказа@@
Эква@@
театре
вызовов
нагруз@@
ископа@@
успешное
телефонный
Xbox
Красной
решимость
ученым
штур@@
поселен@@
терапию
занимал
исследователь
странные
занят
серьезного
свадьбу
травм
чко
найдут
центрами
субсидий
помогая
пунктами
налажи@@
Ливерпу@@
неизменно
постоянная
слабость
дати@@
специалистом
ЗО@@
берт
открыла
этапы
дифференци@@
химический
жды
ограни@@
эксперти@@
равноправ@@
резидентов
будущим
должностях
чудови@@
заявлению
сбору
начинаются
Стратеги@@
мяте@@
ссов
иммунитет
выпустил
ьо
нехва@@
отсро@@
İ@@
интри@@
встать
чувак
покупкой
занятость
Председателю
дефици@@
надлежит
разработанный
собранные
морском
дало
инцидентов
проводил
юридическим
парки
бизне@@
экосистемы
Доктор
проти@@
демократию
держ@@
Агентство
форматы
базового
альянс
политик
август
существовало
Эндрю
заставляют
стный
гроб@@
замену
Албании
продолжаются
комплексе
Винсен@@
рата
миграция
весель@@
работка
принятый
рво@@
Узбе@@
прощения
настав@@
расту@@
описано
Движения
нала@@
попросили
интенсивности
бомбарди@@
Луи
удовлетворять
пишите
фронт
гене@@
МЕН@@
Ноя@@
пресси@@
перечислены
амни@@
эффективны
инвестициям
диалогу
федера@@
ル@@
запрещается
серо@@
заем@@
большому
признала
касательно
непременно
предпринимаемые
романти@@
ВС@@
предпоч@@
следующему
привлек@@
лесного
учился
ί@@
ушли
Международному
нью
телу
тальной
оту
Exp@@
Аркти@@
цере@@
ужесто@@
связать
жее
договорам
Wall
Большого
продвижению
расходах
молиться
транспорте
наблюдений
спира@@
Сон@@
посовето@@
камере
твоим
смежных
ревизи@@
аромати@@
Сенегал
мужчинам
Германией
съесть
половой
развить
бремени
комбинация
супруга
Джули@@
ингиби@@
справи@@
эстро@@
силам
писы@@
городские
изменился
размещены
ститься
таможенной
передается
Дарфуре
прогнозам
замести@@
приветствовала
Кото@@
взаимоотношения
пытаемся
признаком
понима@@
гда@@
фарма@@
вещания
крими@@
чениями
беспрепят@@
охраня@@
рыночных
полуострова
увидела
мита
продают
эмбри@@
методах
еса
собаку
گ@@
Обно@@
чуж@@
roid
сий
живым
комба@@
сообществе
Гва@@
Филиппин
проры@@
пригласил
страновом
Иису@@
турнир
Венской
принципиаль@@
рито@@
отзывов
Арави@@
делай
возвращении
регулированию
шенным
двоих
преобразование
ЖЕ@@
купили
поста
1957
бои@@
богов
желанию
кэ@@
сия@@
Бос@@
обладающих
учатся
процессами
Превосходительство
чь@@
лие
чинов@@
проверок
празднования
пети@@
прекрасное
стский
Секретариатом
перестать
продела@@
полуострове
релиз
автобуса
АСЕАН
Киева
конструкцию
французская
Палестине
деров
восстановлении
наход@@
див
хую
онами
присутствовали
великая
бессмер@@
аннекси@@
след
бель@@
визуализации
происходя@@
разделяют
хранится
центральным
смягчения
общенациональ@@
лошадей
разрушение
коридор
копирования
заражения
подобрать
полно
заинтересованным
выступ@@
уточнить
велик
звезда@@
режимом
сосудов
консенсус
Первого
пирами@@
тники
Солн@@
ДВ@@
министерством
прокурора
консультирование
существенного
таджи@@
стоп
дама
укры@@
2,6
отчу@@
тни
чистым
ссии
продолж@@
абсор@@
бухгалтерского
ح@@
IQ
предел
концеп@@
сознании
наш@@
перенести
Наполе@@
рефлек@@
истечения
поля@@
няк
ведущими
одинаковые
отражать
гание
посещений
стур@@
отечественных
ПРА@@
документом
алгорит@@
матки
христианство
заказчика
؏
ڪ
механизмами
довести
затро@@
физический
сделаете
европейским
договором
1955
агентств
гарантируем
метал@@
организован
Иордания
Саудо@@
медвед@@
охра@@
прилега@@
Сибири
радиостан@@
обыкновен@@
помогла
Герцеговине
христианской
магистра
департамент
блока@@
тяжё@@
королевы
неопределенности
лучей
заблу@@
разре@@
спокойной
фотогра@@
клубы
демобилизации
ционы
мотор@@
участво@@
Porsche
нагрузка
ьян@@
меч@@
узнаем
расскажем
банки@@
лесных
ד@@
протоколу
финан@@
гла
витаминов
стремл@@
матче
химиотера@@
Яку@@
биоразнообразия
сделанных
чар@@
асси@@
благоприятные
дисков
поступают
Daily
начального
проявить
глупы@@
Мана@@
полового
Сара
опубликовать
спро@@
уехать
выбираете
уменьшается
колонии
членство
снимок
оставалась
гите
сторонники
намере@@
социальному
org
Бэт@@
гие
S.
генных
частными
мировое
скучно
желудка
политически
работах
призван
горнодобы@@
гуманитарные
омбуд@@
упомянуть
субъектами
функциональность
ядро
Алекс
уделяет
Москов@@
кримина@@
Л.
строения
климатических
помешать
танцу@@
глюкозы
поощрении
евые
бесчислен@@
Официаль@@
Правительство
обратил
рассмотрен
целост@@
реакций
избирательных
признана
электростанции
НБ@@
Оксфор@@
выработке
развертывание
ه
награду
Может
передового
применимо
председательством
Нар@@
ваго@@
держав
процеду@@
Р.
обманы@@
9.
стила
созданной
каникулы
регулярный
маршрута
терпимости
контейнер@@
Манхэт@@
содержащейся
примите
важ@@
ушла
регулирующих
Бит@@
переводе
монтаж
Независи@@
акту@@
внедорож@@
потенциальными
Средиземно@@
сумме
таны
2,1
религиозным
девушкой
продемонстрировали
эконом@@
пресса
достаточным
преодоле@@
организует
японских
агентством
сохра@@
бесчелове@@
выступила
целевая
узнают
популярная
СБ
проинформировал
способно
западном
бонус
расе
расследо@@
технологический
трагедии
всемирно
периодических
препятствием
завершен
мышей
Research
ż@@
признателен
статьям
повыси@@
масштаб
инфляция
въезда
офисы
изма
перевозка
предсказать
заказу
шенного
риев
интеллек@@
кабинета
палу@@
обзоры
сесть
любимым
пытаетесь
искусственных
многочисленными
постарайтесь
оптимизировать
Гитлер
инклюзи@@
колеба@@
визу
защищен@@
озаглавленного
тихо@@
ьера
небольшими
разработанные
астрономи@@
задолженность
ЦА
танк@@
факульта@@
предлагаемый
ствовало
показателями
Жиз@@
корруп@@
молодо@@
темно@@
изменились
источникам
членах
держаться
щиком
Библиоте@@
Парижа
организована
добрый
вернемся
собирался
риях
г.@@
охватывают
выле@@
распространенным
грани
нке
ru
ДЛЯ
медо@@
дневной
каков
обыча@@
свойство
глубине
взрослый
составило
Дау@@
полагаться
Международное
день@@
Меня
офицер
докладом
1954
диверсификации
региональ@@
неспособность
администрацией
журналы
КР
наимено@@
большеви@@
образовательной
природ@@
хах
ЛЬ
кома@@
Есть
построенный
предотвращении
проходил
просту@@
федерация
сман
рений
достигнутых
педаго@@
винова@@
замечательно
справедливое
ранжи@@
разгла@@
осторожно
тихо
Федеральной
мбо@@
обещания
представлений
невозможным
потребительских
лодок
познакоми@@
жизненный
сборов
постановляющей
Reuters
идите
живёт
дием
депозит
понравился
благополучие
просла@@
призваны
перерыв
труднее
پ@@
проигра@@
качественного
потоко@@
проста
наблюдатель
имуществом
Струк@@
колледже
Константино@@
прошлый
мл@@
объявлений
методам
предыдущим
импери@@
Катало@@
банковский
младший
вербаль@@
согласованности
расстре@@
тится
предлагаются
Турцией
нынешняя
еха@@
обсерва@@
Вооруженных
запрещены
ленде
потребовалось
кого@@
вылечить
существовали
рут
долгие
При
укомплек@@
компонентом
праздновать
больные
центральное
Поставщи@@
обходи@@
бло
убира@@
подписано
гемо@@
Вот
Вашим
МООНС@@
незамедли@@
путешественников
толкования
Эко@@
известное
нефтяных
принимающей
достигается
семейства
нехватка
победитель
кровяное
конкретными
приеме
децентрализован@@
кровью
смени@@
1,9
сложными
приобретать
ShemaleZ
режимы
предприятиям
откровен@@
диких
системной
собеседни@@
барьеров
хим
фикацию
Экономический
Сингапура
процедурой
команду@@
горжусь
соревно@@
подоз@@
кровенос@@
еже@@
аттеста@@
мудрости
пожарной
Сою@@
социальном
фей
знакомства
отвлека@@
кало@@
руп@@
японского
действующий
заинтересован
типами
породы
ликвидацию
Журна@@
экспертизы
жется
лизовать
Программе
анесте@@
похожа
упор
золотом
ненависть
преподавания
поставили
бывшие
сп@@
дизайнеров
соглашении
несу@@
кинемато@@
Тере@@
призра@@
противоправ@@
ОК
оставлять
схем
засу@@
материального
Соединенным
улучшать
Ивуаре
Перечень
ожидании
Вьетнама
депута@@
загля@@
консалтин@@
союзники
ведущую
Зем@@
переехал
инстанции
умеет
Вто@@
ассоциа@@
дская
аспи@@
общественностью
рс
Джек@@
выноси@@
получим
жюри
цивилизован@@
страховой
смешно
осмотр
фильтра@@
лагере
ложений
распространением
велика
записку
усво@@
покупаете
шю@@
пятого
взаимопонимании
жесткой
факультет
сточных
административный
стым
израильской
координировать
позволи@@
университеты
03.@@
технологиях
ежегодные
опубликована
руете
заседа@@
Организа@@
ликов
языку
удовлетворен@@
ядер@@
энергосбере@@
жур@@
СКО@@
болез@@
Кыргызстан
учение
eum
малым
прид@@
ьев
ограничен
Разде@@
информационная
отказалась
учеными
психиатри@@
быв@@
основа@@
навыками
структурных
барьеры
платформах
отремон@@
советника
дыры
гене
парламента@@
изоби@@
трейде@@
флага
родственники
спросили
исходит
интенсивность
Internet
Федера@@
маме
Белору@@
стихи
уходят
заботится
розы@@
полов
расстройство
обязательной
аккредитации
наркома@@
постоян@@
Великого
заинтересованность
присоединяйтесь
глуби@@
Эрик
ЮНИ@@
заявило
София
захват
транзак@@
Secur@@
16,@@
спокойствие
устойчивым
чень
доход@@
экзамен
бре
мета
надё@@
национальному
груз
голод
легкого
закончилась
посоль@@
пожара
усилению
женности
школьных
волнует
технологической
радиации
завершено
копирование
звоните
народной
ваемость
приготовить
пустыне
принимаете
босс
машиностро@@
жечь
перевозке
преобразований
изби@@
торгу@@
оговорок
Типо@@
теат@@
Вашем
прибрежных
поведении
тскую
уны
аналогичный
добрые
XVI
религиозного
приступа@@
лэр
председателей
мите@@
процентные
ислама
Стри@@
предназначено
человечности
гибкости
Сингапуре
историческое
форумах
отре@@
проведенные
позитивных
Вьетнаме
рал
смея@@
истекает
Шот@@
Рима
обзоров
сферой
искусстве
гигиени@@
Транс@@
задачами
поставля@@
Увеличение
тематические
изменит
глубже
реаль@@
выходных
Первый
зного
агент@@
культур@@
дках
древе@@
тысячу
ствиями
репли@@
древнего
подъем
обещал
секун@@
мации
Мишель
скар
оставив
маленьким
раст
идеальной
междисциплинар@@
Вильню@@
Сал@@
беседы
ФК
документам
женностью
ярких
сильную
фермы
превзо@@
мужского
рье@@
темной
тюрьмах
узлы
ставят
ГУ
хороши
физическую
выступлений
Боли@@
Констан@@
нагрузку
актуальность
факультета
включении
Договору
близкими
хокке@@
длительность
Next
0,2
изнутри
суаль@@
металло@@
расскажу
благодарим
статуя
щейся
озаглавленному
рассказывать
забе@@
использовала
простира@@
Джеймса
состоялись
штаба
забро@@
Альцгеймера
думая
впечатления
жалобу
высококачественных
заголовок
находя@@
являлась
ыми
стрелкового
совместная
саха@@
терминала
мности
обещает
Созда@@
Директор
Хри@@
помещениях
лагерях
ула@@
0,3
стадион
проведенной
ковом
приклад@@
давая
французских
отбор
присоединение
являющийся
постанов@@
обязательствам
Фрей@@
спросом
Боливия
любила
некоторая
классификация
ствию
Бэ@@
Рафа@@
атака
Японию
Фондом
различи@@
тарифов
Финан@@
регионам
ican
Ага@@
встречались
ренс
обвинение
ис
ведомств
суммар@@
чениях
ключевое
утвержден
немно@@
люсь
предпосы@@
послед@@
содействует
причинами
животным
популяри@@
agen
Эф@@
Элли@@
ิ@@
углом
катализа@@
вном
м3
напряженность
масштабные
возобновления
Джорджа
аспиран@@
географического
Гонконге
пальцы
предлагаю
техно@@
убрать
заключил
банками
низкую
получен
ИСО
йцы
предусмотреть
Ие@@
Сле@@
объектах
льготы
определенном
Худо@@
приглаша@@
урожай
необрати@@
протесту@@
распозна@@
лидерство
судебном
моими
Государственный
ваемыми
фру@@
заводов
Национальным
маля@@
предполагалось
3,2
выдержи@@
глубины
обсуждению
высший
качественной
инфекционных
свобо@@
зад
богатой
լ@@
чре@@
ускорение
поиграть
сопровождается
приводить
компьютерная
руководителем
доверен@@
потряс@@
1953
альфа
белков
молодё@@
хих
изучает
мность
синер@@
французски
полтора
химическая
обстановка
чрезвычайные
совершение
заказыва@@
ковать
перекры@@
осуществляемой
жениям
Пас@@
слои
PN
опер@@
облага@@
предприняты
поздравляем
молодыми
энергетике
ответом
деятелей
Абхазии
выступлении
датчиков
Давид
Хад@@
Ага
ДУ@@
сорта
Персона@@
мога@@
сцену
облегчение
деду@@
смеяться
счастливыми
итогов
жими
продление
3,7
подвергаться
мощностей
рской
мечеть
грандиоз@@
исключает
приобрел
текстом
детектив
успокаи@@
немцы
Босто@@
сказывается
биткой@@
идов
читает
игроками
особенностью
безупре@@
обслуживании
психотера@@
росте
традиционным
скрытые
выпа@@
канской
таблеток
изящ@@
скота
лки@@
борется
выучить
ЛИ
четвертая
беспокойства
Washington
раскрытия
Energy
присоединилась
Мохам@@
узнала
протоколы
1933
праздно@@
сильными
террористические
подписи
рован@@
бод@@
дипломатические
торий
жего
Котд
сочетания
достигнутом
гую
Тес@@
сканда@@
канале
профессионалы
царя
продолжительностью
тков
блок@@
одобрила
отреаги@@
баррелей
чер
енс
взрывча@@
магази@@
Дональда
ПИ@@
исчерпы@@
камнем
бывшим
зий
вирусы
Пятого
материалом
признавать
глубоким
системных
смену
написания
ВМС
виртуальный
портфе@@
четвёр@@
инцидента
автомобилем
швили
ń@@
малой
опасной
МТ
раун@@
информирования
АЭС
надцатый
Гаа@@
репутации
востоку
витами@@
организовано
стандартом
плода
ЮНСИТРАЛ
албан@@
свидетелями
это@@
клинике
дополни@@
выбирает
ъез@@
изготовлены
кул
действующими
таковой
обвинений
равен@@
табака
иды
водного
судоходства
Караба@@
таможенные
Оцен@@
Сотрудни@@
занятых
Гарвар@@
поворот
интерпретации
огне@@
маке@@
прекрасной
стань
пересмотренный
препрово@@
кция
науч@@
1914
медици@@
предшеству@@
установленном
фонов
женился
ченности
пообещал
мин.
существенным
Средиземноморь@@
еврейской
ттон
Руан@@
волокон
маленького
изобрет@@
Программой
Эдуар@@
расположенные
Гю@@
1952
включали
Службы
капитализма
принятая
алюмини@@
ввели
リ@@
предполагаемых
беспло@@
подавать
емы
ступить
публичного
НС
ООО@@
приобрет@@
вызвано
Намиби@@
дога@@
насущ@@
сур@@
комплекту@@
կ@@
легенда
совместный
КБ
курорт
игроком
жениться
файлах
зыва@@
центральная
опыту
Гр@@
рассуд@@
տ@@
координаторов
следствия
услож@@
ложением
координатора
высшим
тников
окружении
величины
традиционного
шке@@
Юрий
наследни@@
слав
дисло@@
принесли
центру
поправка
голосами
Ž@@
приносить
границах
стрельбы
усталость
1919
живая
санитарии
попросите
первичной
пшеницы
коммерческая
отслеживание
звонков
Тома@@
BBC
въезд
пожар
разруша@@
муниципальных
соответству@@
заполни@@
ВОО
устранению
наращивание
стана
Калинин@@
отмечаем
мно@@
письменного
Нагор@@
пь
терминов
Европой
приложениях
Северном
важнейшим
2022
подстрека@@
открываются
отправились
шат
совместном
европейскими
повлияет
предварительных
огромных
континен@@
тельнее
посту
заботы
определили
коралло@@
Министров
3,6
прочные
достигло
рынку
способные
подумала
журналов
дикто@@
торговать
обнаружила
сердечных
ненного
необходимая
хранилища
канцеля@@
пен
Гран
развле@@
Иоси@@
подписала
пес
авторитет
тическом
распределении
М.@@
поддержал
погоду
эле@@
защитных
четвертом
струю
✔
принимаемые
успешный
Джимми
послал
опублико@@
ходи
разного
голосу@@
мского
мертв
превос@@
рыбо@@
наступление
спины
удержать
абор@@
дворе
техническими
Представи@@
региональная
фек@@
удобрений
Миссия
контейнеров
надежно
погибло
эвакуи@@
токо@@
старо@@
рассказывают
Духа
оставила
временным
материалах
Сирию
мирному
умы
читали
страновой
Мори@@
природоохран@@
воспринимать
зированные
имеющего
обращению
рабства
действию
брига@@
почтовый
ченную
удосто@@
Ог@@
исследо@@
описаны
диагностика
Кларк
американскими
Меркель
модификации
направлением
терпение
активации
куки
КОН@@
туристические
вулкани@@
образы
лэк@@
славя@@
нынешнее
истечении
призывают
Пакистане
интересная
успешные
насле@@
благодарен
Арм@@
деви@@
позаботиться
лков
вация
художественных
спит
намерен@@
чемпи@@
научная
отрицательно
операциями
тнее
морем
консорци@@
удары
фундаментальных
Барба@@
ссыла@@
влюсь
реабили@@
искал
ЭСКАТО
основываться
заливе
религию
ожидали
организмы
естественное
Энер@@
доказыва@@
результативности
посвященной
приобрели
безоговоро@@
построили
задержанных
น@@
Мира
надежного
отвле@@
вита@@
водится
сотво@@
библиотеке
практиковать
толи@@
павиль@@
солидарность
носителей
ответственным
адвокатом
оптимизация
плавание
деколонизации
фору@@
тариф@@
защищают
демон@@
организационные
добавлены
урбани@@
ученики
тальный
покинули
приветству@@
высказы@@
эмпири@@
физика
торах
Федерацией
ухажи@@
продукте
девяност@@
Правилам
ФУ
буржуаз@@
ê@@
введении
возникать
придать
проч@@
возросло
означало
этно@@
посадки
стимулирует
придерживается
францу@@
поступи@@
лиз@@
сосуди@@
ЩИ@@
пшени@@
подно@@
жилищного
тяжелым
просят
Ф.
значимости
мэр
участвовала
ждите
раунд
щенное
опубликовала
доброй
сби@@
консультант
задуматься
Артур
Македо@@
бесчеловечных
миссио@@
статистической
выставок
респира@@
форта
воздерживаться
Игорь
пример@@
имеющей
киды@@
поместить
температур
ухудшение
исследовательские
торговым
репатри@@
позвонил
благополу@@
энергоэффективности
ВОКНТА
Фрэнк
покрови@@
сократи@@
столы
инженерных
задавать
инсу@@
схеме
кратчайшие
поверхностью
играя
отражения
школьников
комисса@@
юрисдикцией
расчетов
пале@@
ტ@@
независи@@
юрисдикцию
Online
чивает
программным
Доклад@@
тиков
Правительством
долине
коллективных
препара@@
бирая
упомянутые
вариа@@
конди@@
უ@@
Тео@@
програм@@
конгресса
Группе
Июль
аллергии
выпустить
Мэй
версией
сыла@@
доказано
Nex@@
подал
обна@@
Алла@@
Вашу
Кавказа
Факульта@@
работникам
Коб@@
обстоятельство
пенитенциар@@
послужи@@
организму
извлечения
составной
общественным
освя@@
генерировать
Африку
донорами
зис
северу
третью
писали
04.@@
феро@@
требованием
слабые
объединений
сными
Фей@@
химия
правосудие
героем
записке
сценарии
нем@@
продает
Собра@@
комментировать
миростроительству
смотрим
проституции
семина@@
публичной
психиат@@
Би
размеща@@
Дэни@@
конкретную
кризисом
ace@@
управляющий
ознамено@@
жемся
жилой
Музе@@
соревнований
собираешься
чистое
достаточных
ЛЮ@@
Протоко@@
ограниченным
секция
полицейского
поку@@
лятся
анализиру@@
середи@@
конвенцию
постройки
сея
.....
Обзор
коми@@
представлял
Канцелярия
остальным
мигри@@
сосредоточить
армией
ведутся
созы@@
F.
соображениям
возлюб@@
обновленную
Спасибо
любимая
космические
оборотом
предпринятые
незначительные
щами
эскалации
народных
Оскар
евич
професси@@
зером
словах
завершил
лесной
Copyright
стройка
украинцев
минимальное
лизацией
Обла@@
Ивуар
случаются
ждениям
гадже@@
человеческая
загружать
уведомлений
йдем
позволяющих
радост@@
оперативные
като@@
машинного
ссон
структурами
Амери@@
выполнен
территорией
отмене
постоянную
урожая
меморандум
Джамахи@@
Апелля@@
стремления
ценим
Справо@@
доле@@
незнако@@
избрания
признак
ХХ
методики
Союзе
построил
лжи
старайтесь
назначении
псон
милитари@@
часами
получал
фармако@@
адаптироваться
Пуш@@
отправляйте
соответствующем
сот
обрести
манской
соглаша@@
местами
расчеты
Алжира
ВР
цик@@
стратегическим
реформирования
задума@@
реализованы
патологии
XVII
производителями
Малави
Донбассе
ШЕ@@
играете
3,3
излага@@
инфраструкту@@
китайцы
подпункт
оказали
воображение
дорогах
Гвинее
удерживать
Роса@@
соц@@
Энн
ά@@
офф@@
Уэй@@
согласна
безработ@@
СБ@@
выработать
вооружен@@
сохраняя
кома
устанавливаются
воздушным
правопорядка
аст@@
XII
областью
организаторы
желаем
материальные
HRC
опасными
ß@@
таковые
еврейских
перспективных
ата@@
идее
состояний
смартфоны
§
нетесь
вступила
Клиен@@
шоколада
модерни@@
ствование
сегменте
стараются
большему
диссер@@
переходит
сетевых
космонав@@
значительными
Ватика@@
сложившейся
Ś@@
Кремля
спортивного
совету
воздействии
рту@@
раста@@
завы@@
даны
разнообразии
появлению
това
аудиторию
республике
соглашается
держал
эксплуатация
слепы@@
клетках
председатель@@
регулирует
прирост
миссиях
азартных
перепис@@
развитыми
Президентом
законопроекта
сква@@
дабы
первоначальной
поселения
вреди@@
замер@@
взятых
ожидалось
наград
дура@@
пострадавшим
Десятилетия
отстаи@@
квартала
оповещения
кафедры
определен
мощных
жертва
артри@@
исходя@@
Белоруссии
Росто@@
джентль@@
Limited
набором
Колу@@
подготавли@@
статья@@
дате
химическое
Христо@@
Уильямс
унижающих
наращиванию
опира@@
слушания
подходе
накоп@@
бельги@@
зат@@
жителями
проби@@
пуска@@
процентной
участках
Барселоне
географических
коали@@
менеджмент
активная
бак@@
ориентированных
мероприя@@
службами
Мно@@
заключительные
близлежа@@
выска@@
модернизи@@
реть
операционных
минимальные
ГС
отразить
счетам
Дух
основополагающих
поведением
отработа@@
исламского
полномо@@
сказыва@@
Link@@
никуда
вто@@
Disney
излучение
Лешти
вызваны
CER@@
непосредственное
пятер@@
норма
работодателя
трансграничных
пепти@@
всеобъемлющем
правед@@
Чарль@@
консолиди@@
гонка
пешком
обещаю
работо@@
входить
широкая
сыворо@@
гипно@@
обучении
использовалась
Яко@@
Capital
лько
Форд
дозу
марги@@
допин@@
льностью
руб
улиц
рекомендовано
слову
беженцы
сынов@@
влю@@
утверждений
сыновей
обмени@@
равны
худож@@
созре@@
начи@@
осуждает
институтом
фактического
собора
небольшом
урегулировании
риф
Света
интерва@@
копий
ступило
бензин
экспона@@
провали@@
Ник
геноцид
обоснование
финансировать
разделы
надежде
ровалось
браузер@@
обреза@@
свобод@@
педа@@
транспорту
17,@@
расстройств
аппараты
соном
единица
фикаций
правды
восточных
стремлении
Хау@@
вызвал
приниматься
теоретически
стрессо@@
перспективу
показателям
Ох
индекса
дится
всплы@@
признаем
цивилиза@@
Corr.1
подождите
солен@@
Чемпиона@@
предпочтения
реставра@@
рубе@@
комитеты
Объединенная
консультан@@
инвесторам
страховых
доволь@@
мифо@@
отзыва@@
внесение
домога@@
кажут
непредвиден@@
мбер@@
приближается
совместную
счастлива
ЮНОПС
юа@@
фармацевтической
ведомо@@
чувством
решит
Дмитри@@
несли
Альберт
Верхов@@
пления
диабе@@
интеллектуальные
комплексов
воздухом
сократилось
анна
Армии
ბ@@
Сети
вскры@@
вспомогательные
Победы
Путь
Европейское
Авра@@
прикла@@
Кэр@@
составляющей
дона
капсулы
заменя@@
Ş@@
тарной
найдет
величайших
зум@@
æ@@
обратилась
министру
развитой
1938
виски
смертность
Джерри
самобы@@
ГК
торгов@@
замкну@@
упрощения
значении
снизился
одержи@@
равноправия
Всемирным
частями
решите
родным
третьими
реорганизации
вынесения
посты
высказано
пагуб@@
Мила@@
эпидемии
соору@@
координатор
легко@@
эпиде@@
аз@@
родину
приведут
собрал
достигнутые
Ａ@@
возглавляет
консультативных
предположения
переработа@@
революцию
1936
ОН@@
вызвали
правдой
консультативный
посвященные
литература
классо@@
наличные
эго
стоя
сирийского
хронических
наличием
ПЕ@@
Ас@@
Небес@@
остео@@
PayPal
повтор@@
западу
Московского
схему
присла@@
десятиле@@
схе@@
таться
пойдем
Плат@@
давали
зодиа@@
вноси@@
ваюсь
музеи
материалам
стыдно
тены
мечети
введен
дизайнеры
талки@@
мотивам
Учи@@
доставке
манипуля@@
Слово
тюремного
приключений
нодоро@@
лидер@@
Цу@@
мотивации
уходить
понадобиться
выполняются
отврати@@
едой
повлия@@
представляем
исследовательская
тует
единогласно
саму
сожа@@
�
насильственных
поверьте
уи
систематически
валютных
согласованию
ограниченного
представляя
Journal
удалять
пенсионного
техническом
менедже@@
руководителями
граммати@@
оружию
безвозмез@@
организмов
парламентских
долины
истинный
заставит
совершает
дские
освоения
замечание
преддверии
кта
подготовил
Билли
битве
ア@@
отдал
Петербург@@
осмотра
должностными
подлежащих
вошла
сепара@@
распространении
достижением
разоружение
победителей
динамику
попечи@@
общинах
мотивы
созвез@@
музыкальной
трлн
ת
гордимся
электронном
нынеш@@
временном
авиакомпания
темпера@@
нестабильности
отдельная
мирные
ограниченные
экспан@@
рождается
некоторого
ака
действовал
Севасто@@
историческом
прошедшие
переработ@@
повторного
опор@@
танков
материальной
тяжелого
акционер@@
иони@@
колебаний
фоку@@
лка@@
чувствительности
Boeing
согласование
чувствуешь
конфиска@@
зиа@@
договоре
отправлены
разной
остановка
предосторожности
вшую
вознагра@@
Великий
утвердила
отличной
Йемен
Миллер
контекст
надеются
генные
эля
рентабе@@
институте
облигации
величи@@
утверждению
счё@@
изменяется
игрокам
Цель@@
Комитете
Guard@@
трам@@
стремясь
ХА@@
предотвращает
блага
рынкам
аргумент
тревогу
неофициальный
ก@@
запланировано
реагирует
1929
изде@@
Францией
заку@@
Иор@@
оставалось
ярким
деревен@@
расщепля@@
войсками
Лучший
лял
потребностях
отрицать
ветера@@
учебы
преступлением
стимуля@@
Мек@@
Двор@@
Тейлор
независимыми
контролируют
операционная
ошибкой
враже@@
собственному
потребуются
Шве@@
прений
спрашивают
пика
брифинг
дорожных
абсур@@
уступа@@
возвращению
задолго
сирийской
Будды
клинической
родном
выяснили
добычу
добровольной
материали@@
опухоль
коррекции
упра@@
вести@@
несен
серверы
разору@@
познания
парней
дорож@@
лицензия
статусом
ходятся
федераль@@
завися@@
альянса
никакая
указ
выплату
логистики
ционе
убивают
отклонения
экспозиции
йскому
предварительное
вызовет
π@@
запущен
кине@@
Рамочной
проведен@@
интервен@@
Глава
потенциального
продле@@
глобаль@@
Тихоокеан@@
Латви@@
шкалы
допускать
сборной
шо
лец
уделением
синтеза
повтори@@
Келли
световых
разжи@@
клеро@@
Майкла
совершенствовать
дневного
покончить
активистов
гуман@@
губернатора
КО
коротких
ожидал
правонаруши@@
текущее
упала
фина
Медведев
западного
высока
обеспечивающих
Гэ@@
дох@@
Фили@@
газовой
кока@@
поиску
несем
стной
порту
разрешении
фам
мий
Пхен@@
1937
Ему
иммуните@@
психологической
стных
Джей
нуждающихся
занимающиеся
призвана
цивилизаций
конечного
мною
понимал
пропаганда
компетентным
неадеква@@
выиграли
ака@@
облачных
ответственного
Марса
раствор
чениям
Грей@@
этнические
интересом
соперни@@
опеку@@
референдум
антибиотиков
приговора
венесуэ@@
двинуть
проходила
Екатери@@
ухудши@@
элиты
рабов
Сене@@
модели@@
Льво@@
Дополнение
предстоящие
ассамблеи
Коммер@@
пятая
бумага@@
бумаге
малей@@
арестованы
отцу
рыночная
принца
природными
вписы@@
Великобританию
вирусом
внес@@
палата
кислород
контрольных
пережить
Ход@@
трейлер
лабораторий
специалистам
людскими
связям
ори
сырье
демократические
учитывает
потребителям
чкам
сотрудни@@
виновным
приступил
устал
коллекти@@
общественном
холодно
качественное
положил
ОЭ@@
храниться
британская
деву@@
теорети@@
гин
пилот
бежен@@
субъекта
вером
турнире
круги
враги
спас
формации
культурно
карьер@@
концепций
содержащийся
шагах
перене@@
черноко@@
донор@@
разработанных
состоявшегося
хронической
делятся
расто@@
Ура@@
Ролевая
работало
породи@@
существовала
предвыбо@@
подходящие
МК
должност@@
используемого
всерьез
устаре@@
выходя@@
влад@@
стратегией
расширяет
образуется
учетную
Джес@@
умо@@
меты
иммунитета
наблюдаем
вступа@@
прогнозирования
ислами@@
прекращению
обнаружен
трудя@@
глобализация
đ@@
пред
влюби@@
Иоанна
изучают
застрахо@@
четырёх
доказывает
южно@@
Мари
стенки
взрослым
Хра@@
провинциаль@@
отключить
идеологии
лодке
предвари@@
вавшие
скажут
столетий
Бха@@
Американской
органу
младше
мону@@
продовольствие
рекомендациям
ა
Дэй@@
подходящей
сервере
ассорти@@
прямую
делеги@@
ожо@@
нормальных
Литве
туберкуле@@
старым
йл
обычное
ограничивать
спутника
экипаж
Московский
Статьи
коренным
Московской
наступит
оборону
надруга@@
скажешь
мотив
тельствам
осложнения
графического
пляжи
Наде@@
Мьянмы
достопримечатель@@
полезна
ebook
образует
указала
думайте
взятые
нище@@
причём
глав@@
белки
ждениями
содержанию
процедурах
йорк@@
одиночестве
магнитного
кандидаты
боре
аккредито@@
предыду@@
ликвиди@@
лицензий
упразд@@
регулирующие
ЕАЭС
тяжелая
настроены
маленькое
культиви@@
обязу@@
Рэй@@
переноса
граде
неподалеку
протестан@@
Упра@@
бомбардиров@@
Монреаль@@
отдельности
младшего
шихся
ス@@
записывать
абсолютной
енной
предоставлено
качеств
вени@@
Чеч@@
СТО@@
империя
т.к.
конкретное
грун@@
бух@@
щенными
предупредить
ролей
жья
итальянской
федеральным
легкостью
поздравить
отправлен
Дэвис
профессиональ@@
тетра@@
советские
Афи@@
нешь
зав@@
пио@@
центральную
ДП
Nintendo
совершено
Заме@@
мес
авторами
сыграли
местная
рожде@@
вшем
актё@@
характере
искоренение
внутреннему
повед@@
профсоюзов
необязательно
роси@@
находящимся
привлекают
фраза
хотеть
претерпе@@
вающихся
отдаленных
отнести
Социали@@
возможностям
связанное
Ира@@
протесты
трудового
турецкой
целесообразным
обработ@@
анонси@@
щед@@
продления
парадиг@@
упали
масштабной
Мето@@
Foundation
ресурса
Глобальный
состоящий
выстраи@@
обязана
налогоплатель@@
чт@@
судоход@@
недействи@@
йдет
используемой
гляды@@
приобрела
кишеч@@
ингредиентов
списку
краткосрочной
пах@@
почувствовал
аути@@
Нетаньяху
целые
декре@@
Форму@@
исполнительного
голосовании
присоединении
Роттер@@
позитивный
вдох@@
физике
сокращением
приписы@@
ико@@
Конгре@@
озабочен@@
преследовать
нереш@@
клиника
Николая
Православной
вещами
медали
плохим
нормальным
братом
Хорошо
нейтро@@
переми@@
дублирования
тость
возрастной
фотограф
одобряет
зарегистрирован
ограничена
взаимовыгод@@
жденной
Кремль
составление
союзниками
идеального
содержащуюся
молитва
оппонен@@
генетических
залож@@
колебания
населенным
рассмотрели
обсуждали
литера@@
хаос
крупнейшие
восстанови@@
доброде@@
существующим
депутаты
либерализации
тились
верхов@@
осле@@
стоило
засе@@
верши@@
месячный
дорого@@
исла@@
ракета
ведены
северных
нинга
чудеса
практический
турецких
Сэ@@
вакансий
несколь@@
жертву
леча@@
великим
королевской
тропических
Ташкен@@
Крем@@
ландию
тизация
скульптуры
экспедиции
мониторингу
железнодорожной
глупо@@
постоянном
телефонные
сохраняют
причинах
переходный
спад
дополнительными
крупнейшего
мгновение
торо@@
Господ@@
КУ@@
печень
представляли
ребят
лишены
повторять
ДК
ющемуся
рассчитывает
рави@@
сбыта
XIII
приходить
синтез
депор@@
Побе@@
называемая
уместно
знайте
ФРС
Адриа@@
переведен@@
определен@@
скорой
рассмотрением
резервов
фестивале
чиновник
бис
галактик
месторождений
Исполнительным
обладающие
хозяйственной
плохих
онлай@@
фальси@@
свободны
латино@@
переса@@
налогом
ходь@@
повышается
призывы
пошлин
цветных
отрицательные
определена
реализуется
торговую
единую
отмы@@
исследованиями
мио@@
взыска@@
Отец
соседями
кир@@
ковского
ограниченных
ЭСК@@
вступили
Карибском
покон@@
базируется
вью
ходатайство
бюджетной
понимали
форумов
повышением
директивных
затя@@
штраф
à@@
Того
Кэтрин
свидетельств
Там
стическое
гражданский
муся
сертификация
палом@@
ן
Продоволь@@
БИ@@
возник
аэрод@@
напоминая
нор
Skype
Абба@@
специальном
приватизации
приказа@@
ս@@
ा@@
продуман@@
ориен@@
клинические
соседи
династии
верующих
снизилась
проголосо@@
Компа@@
сской
иро@@
консолидации
шко
отстра@@
варьируется
минимальных
ие@@
корти@@
наращи@@
институтами
дны
почи@@
Васили@@
наполовину
предостере@@
подробный
танца
выращивания
передаются
приемлемости
организационного
наро@@
Кад@@
видеороли@@
Департа@@
нелегко
Профиль
появи@@
чисел
свидетелем
просьб
подразделениями
проспек@@
пей
приглашению
членства
т.п.
Договаривающихся
крестьян@@
вступать
виртуальных
найма
Пользователя
щиками
уровнями
достигают
инф@@
Арабских
армян
святых
расположено
противоречат
генерала
восприимчи@@
сырьевых
меньшее
прагмати@@
проводим
популярен
откров@@
тивов
пропорционально
Ö@@
зных
ногах
пови@@
нормальное
До
меньшинствам
ила
аэропортов
поручил
принудительного
национальности
пожелать
аспек@@
продукто@@
историческим
угрожа@@
террористы
02.@@
неиз@@
СПГ
вычисления
свед@@
правление
гарантию
Елиза@@
награда
прекраща@@
смотря
струк@@
гост@@
приток
принимала
южных
предупреждении
ТО
жающих
Союзом
альтернатива
наблюдали
передал
абза@@
Импера@@
добровольные
Астана
надо@@
уметь
уведомл@@
железных
избирательного
ликвидация
посредников
этнического
генераль@@
умов
качественно
окис@@
обвиняемых
ό@@
Каби@@
записать
энергетический
минус
Лаос@@
предстоящих
оценивают
кет@@
путях
итальянского
клина@@
стипен@@
голосом
разочарование
биологические
Трои@@
военном
3,4
строй
задержка
вающиеся
металлы
сх@@
сыграла
взрыво@@
ящего
Джозеф
пил
трибунал
порт@@
длиться
безусло@@
джиха@@
патент
феномен@@
демен@@
олигар@@
договоренность
вторжение
Луну
территори@@
предприятии
удалены
садов
темп
недостаточности
отказе
несены
Сайте
проявление
согла@@
Гонконга
сбере@@
Рамо@@
дация
ускори@@
рассказывал
реестра
ткам
стараться
известность
Южную
стремя@@
стандартного
имеющими
вене@@
приняв
мирной
действо@@
вредные
группировок
музыкан@@
учтены
песня@@
способного
Австри@@
ř@@
Стамбуле
тиза@@
возможными
теорий
ликвидировать
жале@@
вырастет
подвергались
банку
йя
Н.@@
ШОС
вычислений
контролируемых
бонусы
Sci@@
операторы
организованных
гражданская
парнем
разрез
шизоф@@
документацию
Секции
достижи@@
жило
[...]
