#version: 0.2
с т
е н
р а
р о
н о
к о
п о
р е
т о
н а
н и
л ь
в а
н ы
в о
т е
ен и
р и
д е
к а
с о
г о</w>
ц и
т ь</w>
л и
м о
д о
з а
л е
в е
т а
т о</w>
п ро
н е
ч е
т и
ст в
н а</w>
г о
л а
с я</w>
д а
м е
л о
б о
н о</w>
л и</w>
t ;</w>
q u
qu o
о б
в и
quo t;</w>
& quot;</w>
д и
р у
с е
м а
н е</w>
в ы
с и
ст а
п е
к и
п ри
п ре
м и</w>
ны х</w>
е т</w>
м и
ч а
ени я</w>
ч то</w>
т ся</w>
о т
с ко
но ст
ч и
@ -
@- @</w>
но й</w>
м ен
д а</w>
х о
б ы
п а
в л
ра з
ст о
л я</w>
те ль
с у
д у
щ и
р ы
г и
но го</w>
г а
и н
ко то
ны е</w>
и с
к и</w>
ени е</w>
л ю
щ е
п ра
ци и</w>
с ки
и з
п о</w>
л у
д ля</w>
с а
ж е</w>
т а</w>
о р
л а</w>
т е</w>
ва ни
к а</w>
е с
о н
мо ж
м у</w>
ж и
е тся</w>
н у
м ы</w>
э то</w>
ны й</w>
т ы</w>
з о
ка к</w>
ш и
н ы</w>
е м</w>
б у
с ь</w>
кото ры
ст ра
к у
ве р
ност и</w>
ко н
пре д
е й</w>
б е
с во
т ь
э то
з на
ст и
ю т</w>
г ра
б ы</w>
по д
л о</w>
вл я
п у
к о</w>
ж а
с ле
ны м</w>
и ли</w>
и з</w>
ств а</w>
ра с
2 0
л я
ра бо
до л
е р
т у
з а</w>
ств ен
а ль
е го</w>
о с
ф и
б и
ж д
ва ть</w>
во з
в ы</w>
ю щи
м ы
ц е
н я
но е</w>
р а</w>
в ре
в се
ть ся</w>
ст и</w>
о н</w>
б а
о т</w>
з и
ств и
то в</w>
че ски
на я</w>
ств о</w>
пе р
с ка
л е</w>
то м</w>
т и</w>
д ру
п и
ф ор
в с
ст ь</w>
л ен
ж е
л ь</w>
ско й</w>
де р
г да</w>
пе ре
та к
ко м
с лу
о д
ност ь</w>
и х</w>
д ен
к ти
по ль
бо ль
ени и</w>
го д
по л
но м</w>
которы е</w>
ра н
т ре
ч то
к е</w>
вани я</w>
так же</w>
да р
м а</w>
ни я</w>
хо ди
г у
бо ле
р я
ц ен
г ла
ре д
з ы
м у
го да</w>
ско го</w>
что бы</w>
ч ен
т ы
ро д
ль ко</w>
га ни
р и</w>
ст у
сто я
ст е
ж ен
в а</w>
к у</w>
я вля
р ы</w>
п ла
в я
к лю
ни е</w>
го во
вс е</w>
с по
от ве
со б
ю тся</w>
ни ма
к ра
ны ми</w>
р е</w>
боль ш
о на
ени ю</w>
мож ет</w>
ци я</w>
е ди
он и</w>
с ло
ну ю</w>
в о</w>
ро в</w>
де й
ча ст
де ла
ств у
ес ли</w>
1 9
д о</w>
щ а
да н
де т</w>
ш а
те р
ци й</w>
боле е</w>
с си
з у
ени й</w>
ь ю</w>
ро ва
ис поль
но в
м я</w>
по с
20 1
а р
ро в
ни и</w>
е к
н и</w>
ш е
ко в</w>
н ен
ко гда</w>
ка за
д е</w>
пра ви
ло ве
су ще
ст во
гани за
че лове
а н
и ме
та к</w>
те ле
с пе
су дар
дол ж
с а</w>
ме ст
я х</w>
ци аль
бы ть</w>
к ре
ст ро
пред ста
то го</w>
она ль
во й</w>
б ли
во д
в то
к ла
го судар
т у</w>
раз ви
т ру
дру ги
отве т
т ра
вре мя</w>
по лу
ру п
& a
во про
ко й</w>
е е</w>
ко но
с вя
о на</w>
р ен
бу дет</w>
от но
с ред
ти я</w>
вани е</w>
дей стви
воз мож
с мо
20 0
фор ма
об раз
ве д
ло ж
на род
К о
год у</w>
ло ги
вы х</w>
п ис
м е</w>
бы л</w>
С о
с я
а к
бы ло</w>
т ро
ж ду
. .
по мо
тель но</w>
m p
р я</w>
явля ется</w>
з да
ч ение</w>
па с
то лько</w>
кото ро
сле до
в у
б ле
п ри</w>
по ли
жду народ
н я</w>
х а
че м</w>
mp ;</w>
&a mp;</w>
об ще
м но
л ения</w>
ю ще
зы ва
ч ения</w>
ци ю</w>
кти в
е те</w>
ф е
ски х</w>
д ни
н к
до ста
ри и</w>
я ми</w>
е сть</w>
вл ен
ци он
ст в</w>
об ес
об ла
исполь зо
.. .</w>
та ки
про из
вре мен
до в</w>
гра м
те м</w>
бы ли</w>
ш е</w>
ин форма
т ри
со ответ
д ы</w>
ч но</w>
ва м</w>
об ъ
чески х</w>
вы е</w>
си сте
Н а
со зда
0 0</w>
гу т</w>
ени ем</w>
ж да
ре ш
щ е</w>
ли сь</w>
обес пе
ж из
п ы
не об
на ча
к ры
л ся</w>
па р
ле к
со в</w>
сле ду
о ста
ме р
не т</w>
пре де
ком па
во ди
ти в
коно ми
ль та
ко м</w>
бу ду
ле т</w>
образ о
ска за
лу ч
я м</w>
ос нов
которы й</w>
е м
вл ения</w>
ств е</w>
про грам
пос ле</w>
не й</w>
мо гут</w>
на ш
те х
отно ш
необ ходи
рабо та
ци ональ
при ня
са мо
ли ч
еди нен
лю д
э кономи
ски й</w>
ганиза ции</w>
теле й</w>
сто ро
ме ждународ
э к
под дер
ин те
че ской</w>
в ра
ст ре
т ен
со гла
ло сь</w>
поли ти
ска я</w>
сту п
чи с
ва ж
т я
это го</w>
ющи х</w>
клю ча
г а</w>
это м</w>
хо д
ре ги
ш ь</w>
ен е
чи та
ни х</w>
ши х</w>
Р ос
слу ча
се б
ме р</w>
а ли
э ти
зо пас
г руп
и сто
в ро
с дела
у ров
гово ри
р ь
чен ь</w>
про ек
ста но
с о</w>
пу бли
ка н
Рос си
ни й</w>
г и</w>
л ы
ра ль
о к
е мы
о преде
ва н
с ы</w>
го то
ц а</w>
а вто
во го</w>
бы ла</w>
мо й</w>
ни ка
по з
о чень</w>
К а
ф ер
по сле
тру дни
про бле
м о</w>
жд у</w>
т вер
со трудни
О б
че ского</w>
С Ш
к ро
СШ А</w>
о суще
прави тель
ст ру
мож но</w>
ва ет</w>
ис следо
все х</w>
те ль</w>
к то</w>
ми ни
ка че
О р
де я
во с
чи ть</w>
помо щ
единен ных</w>
об ра
но в</w>
ка х</w>
вы й</w>
у же</w>
о ди
жен щи
это й</w>
на м</w>
е ще</w>
на н
у ч
н у</w>
рова н
ме жду</w>
осуще ств
смо т
ла га
не е</w>
& #
за щи
долж ны</w>
в ле
ц а
то р
19 9
л ы</w>
но му</w>
о ру
х и
ми те
ви де
ра я</w>
не р
ла сь</w>
ро вать</w>
бе зопас
те ли</w>
рабо т
&# 9
г е
вы со
больш е</w>
де й</w>
чески е</w>
зу льта
ва я</w>
о б</w>
в ен
ре зульта
это т</w>
л ение</w>
про ц
челове ка</w>
до б
ство м</w>
фи нан
К он
э ф
Об ъ
ро м</w>
обла сти</w>
дея тель
у ча
к то
ме ри
ски е</w>
и м</w>
на стоя
предста ви
п ы</w>
которы х</w>
ст а</w>
э ти</w>
те ри
че с
спо р
по тре
за я
о бо
про ти
д ви
в ключа
ж ения</w>
у пра
ско лько</w>
м ного</w>
вл ение</w>
д у</w>
и г
й те</w>
до м</w>
проц ес
б о</w>
п ло
бо й</w>
со ста
то ч
инте ре
при я
ко го</w>
м не</w>
ющи е</w>
На ций</w>
Объ единенных</w>
са мы
ш ен
мно ги
ност ью</w>
та м</w>
кото рая</w>
хо ро
Ор ганизации</w>
свя з
не го</w>
про ду
на ли
ско м</w>
ц ы</w>
к ри
пе ра
это му</w>
ф у
други х</w>
г де</w>
на циональ
разви тия</w>
Е вро
ку ю</w>
в мест
ч у
к ли
ки х</w>
пе ри
дер жа
мен я</w>
пис а
сто и
гра ни
у част
то му</w>
после д
у сло
да же</w>
сси и</w>
все го</w>
при нима
лю дей</w>
себ я</w>
пре доста
ну ж
ве ли
за ви
п я
по ло
с чита
ве ст
до сти
ва ш
в з
е з
1 0</w>
поз во
до кла
ско е</w>
од на
ф а
по лож
ма н
пол ни
в е</w>
ль но</w>
г ен
р о</w>
с т</w>
буду т</w>
б ря</w>
л ли
ч лен
об я
от ме
ци ей</w>
п а</w>
со об
и мен
свя за
пу нк
ч и</w>
В а
т во
го ло
ка ж
ни м</w>
б ла
спо соб
про ст
жиз ни</w>
из мен
К и
се р
б ра
М а
проду к
ни ков</w>
исполь зу
же н</w>
со стоя
ор ганиза
ду ма
х от
Со ве
ро вания</w>
ра в
на с</w>
т ных</w>
обя за
ла н
про дол
в ла
ене раль
н ения</w>
я т</w>
i n
на ру
ству ет</w>
2 0</w>
зо ва
сво бо
т ран
ло м</w>
во й
одна ко</w>
те й</w>
те ля</w>
в не
ка р
щ ен
по д</w>
х ра
ва с</w>
ос но
са м</w>
зави си
ви ть</w>
то й</w>
ра м
си ли
оди н</w>
ско ль
ти ть</w>
мо сти</w>
не й
зна чи
усло ви
ма р
ста ть
а д
от кры
ч ь</w>
эф фе
с ы
дру го
стви и</w>
ти е</w>
на ми</w>
щ ения</w>
че ре
ц е</w>
у ю</w>
но логи
эффе ктив
ф о
со циаль
сво ей</w>
бла го
бе з</w>
и м
в ли
се да
ста н
ш ения</w>
про стра
стра ны</w>
жд ения</w>
e r
р у</w>
quo t</w>
до ро
Г енераль
г у</w>
д ву
мож ете</w>
челове к</w>
це в</w>
о соб
поддер ж
ко е</w>
зи ден
со ве
м ени
рабо ты</w>
Б о
ци а
тех нологи
р ения</w>
се год
при зна
чере з</w>
се й
с ни
с е</w>
го ро
ль ных</w>
ку мен
ма с
х ся</w>
П о
за ции</w>
г ро
у слу
прост о</w>
до кумен
ни к</w>
стру к
п ен
го д</w>
на пра
б е</w>
ри я</w>
пра во
связ и</w>
при мен
со вер
ва ми</w>
ор га
э нер
по р
че го</w>
т но</w>
ре ко
эти х</w>
по каза
ки е</w>
кон тро
г ре
э лек
ли бо</w>
образо м</w>
ку ль
сказа л</w>
б ес
безопас ности</w>
вля ет</w>
с ен
пра кти
ле й</w>
стра н</w>
ча с</w>
ли че
ден ь</w>
к е
че р
М е
ка зыва
сво ю</w>
систе мы</w>
се м
ни з
раз лич
н ь</w>
люд и</w>
при мер</w>
по ч
И н
ми на
о пера
чески й</w>
пери о
м я
с ро
вы м</w>
щи х</w>
соб ствен
настоя ще
та ми</w>
ко не
деятель ности</w>
име ет</w>
особ ен
се кре
з де
Б е
ни ю</w>
с но</w>
на д
по этому</w>
други е</w>
та х</w>
те чение</w>
у ни
ва ри
произ вод
л у</w>
чес ки</w>
вер си
в ну
са й
ко личе
соответ ству
отнош ении</w>
ва л</w>
й ти</w>
юще й</w>
у р
потре б
ши е</w>
Ко мите
ва ться</w>
е му</w>
зде сь</w>
реко мен
тех ни
соответ ствии</w>
у до
сотрудни че
ко р
нуж но</w>
пе й
ходи т</w>
a n
государ ствен
ми ра</w>
ши м</w>
гла в
тель ства</w>
эк с
не м</w>
у да
Росси и</w>
по ста
ва ется</w>
ма ти
ф ак
мо би
ност ей</w>
не сколько</w>
на х</w>
a r
пи та
при ве
про ве
мен ь
ме ся
финан со
уча сти
би ра
д ы
больш о
явля ются</w>
вы пол
ва ли</w>
все гда</w>
те сь</w>
тор го
ви л</w>
сво и</w>
ч ной</w>
у че
в нима
o r
че му</w>
ма тери
компа нии</w>
з е
ру ко
кро ме</w>
на пример</w>
времен и</w>
ра з</w>
из вест
под гото
ы й</w>
при чи
ка са
в ки</w>
за ме
по тому</w>
ми ро
3 0</w>
сей час</w>
ба н
я зы
ги и</w>
ми лли
действи я</w>
мери кан
мен т</w>
З а
н ение</w>
сдела ть</w>
ль ной</w>
во ен
ро й</w>
ка жд
пра в</w>
поль зова
случа е</w>
дан ных</w>
ре зо
ти й</w>
ми ре</w>
ж ение</w>
у чи
ва ют</w>
Р ес
тель ных</w>
сво их</w>
Рес публи
ча ет</w>
с ма
сти ту
с са
ме ди
женщи н</w>
к ва
по вы
жи ть</w>
ь я</w>
сегод ня</w>
де тей</w>
каче стве</w>
и ю
ком п
о каза
с ла
все м</w>
ств у</w>
ин ве
У кра
ло в</w>
фер ен
ри то
не которые</w>
при н
ра к
на се
вну т
куль ту
полу чи
вани и</w>
мо сть</w>
продол жа
пра ва</w>
лю бо
резо лю
ту а
фу нк
дол жен</w>
и гра
которо е</w>
ре гу
от де
пре ду
информа ции</w>
из не
пре зиден
проти в</w>
в стре
м л
П а
цен т
е в</w>
во е</w>
ле т
ль ные</w>
ля х</w>
5 0</w>
о в</w>
пы та
секре та
су р
чу в
об ы
вед ения</w>
включа я</w>
н ных</w>
рам ках</w>
на ходи
за да
О О
б ри
вани й</w>
на з
тер рито
ка ми</w>
хот я</w>
стро й
б изне
а мерикан
о фи
С а
стро и
ши й</w>
ство вать</w>
г ру
су т
мы ш
ры н
ки й</w>
элек тро
М и
сма три
ди а
ре б
с ве
че т</w>
со держа
про ис
ход я
у спе
вы бо
ре сур
ш та
ин ы</w>
1 5</w>
таки х</w>
ти и</w>
х ран
гра фи
о цен
ющи й</w>
па ра
про ш
ни ки</w>
g t;</w>
& gt;</w>
те к
струк ту
ор гани
с па
п ря
о ри
вли я
по зи
возмож но</w>
про да
уч ре
л ле
у сили
ш ение</w>
o n
ра й
хоро ш
г е</w>
по нима
и де
больш ин
л ю</w>
Ки та
по чему</w>
про ф
стра те
рас простра
ди с
де ся
о грани
3 ;</w>
&#9 3;</w>
тель ные</w>
на и
1 ;</w>
&#9 1;</w>
щ ение</w>
которо й</w>
ща я</w>
раз работ
а нали
1 2</w>
те х</w>
сторо ны</w>
з ы</w>
за коно
В о
ски м</w>
емы х</w>
т ные</w>
таки е</w>
мо ло
э та</w>
я н
ро сси
г ло
си туа
кажд ый</w>
до ступ
следу ет</w>
0 00</w>
реш ения</w>
ч у</w>
ка я</w>
вопро сам</w>
по се
у стано
на б
в но</w>
ме ры</w>
де мо
многи е</w>
ж и</w>
о ко
те ля
х ва
за ко
стои т</w>
государ ства</w>
ин тер
к руп
таки м</w>
у вели
с у</w>
сколь ку</w>
з ер
мен ее</w>
му ж
прин ци
мно го
e n
по скольку</w>
объ я
опреде лен
е мо
необходи мо</w>
у твер
ст ри
ме ре</w>
ма я</w>
а ктив
ля р
ме то
пер ь</w>
e r</w>
по ря
пар т
то чно</w>
не де
ч ных</w>
l t</w>
да ть</w>
o o
ле г
е ся</w>
тель ной</w>
д ра
возмож ность</w>
д ва</w>
чис ле</w>
те перь</w>
пра в
перио д</w>
но р
раз де
на де
жиз нь</w>
проф ес
ро ди
д и</w>
пред лага
a t
по лага
б а</w>
п е</w>
ня ть</w>
С е
ци али
o s
ми р
каж до
ре али
ст ер
ени ями</w>
во м</w>
па д
бу д
че ская</w>
еди н
имен но</w>
стоя н
в за
ль ный</w>
за нима
г .</w>
ли к
реш ение</w>
росси й
ку р
отно си
спо со
особен но</w>
о че
з ем
мо де
б ю
позво ля
к си
вопро с</w>
о жи
сто й
й н</w>
о пы
g t</w>
за кон
ш ко
вани ю</w>
слу жи
ж дан
ти н
ки м</w>
то ва
д но</w>
ми сси
а т
ль ного</w>
вани ем</w>
сто в</w>
до полни
помощ и</w>
кли ен
ча сть</w>
Р а
к ру
с фер
произ води
на зыва
ха рак
на ро
П ро
да ль
ени ях</w>
А н
чески м</w>
ф ри
во т</w>
ли шь</w>
ор ганизации</w>
пере д</w>
со времен
инве сти
щи е</w>
е шь</w>
обеспе чения</w>
со бой</w>
од ной</w>
бо рь
ющи хся</w>
кре п
совер шен
со м</w>
офи циаль
по тен
жд ен
пла ни
про води
же ла
использо вать</w>
С и
ок ру
око ло</w>
тель ного</w>
ответ ствен
дер жи
l t;</w>
& lt;</w>
рас ши
х а</w>
ль ю</w>
че ское</w>
д же
ра ми</w>
В е
з до
ни ка</w>
на чи
Д ж
про си
у каза
из и
зи и</w>
д ня</w>
ре ши
б ро
мо г
дан ные</w>
тре бо
гра ждан
програм мы</w>
т ной</w>
м бле
ф он
ющи м</w>
матери а
тре бу
д ли
ни когда</w>
и мо
мы с
ши ро
про цен
со бы
сво й</w>
с мер
ствен но</w>
та кой</w>
Ме ждународ
н ные</w>
стви е</w>
ру ет</w>
б аль
г ля
об ре
о м</w>
ь е</w>
1 1</w>
основ е</w>
по ко
сса мбле
ди и</w>
у би
це лях</w>
полу ча
ф изи
у луч
внима ние</w>
говори т</w>
на д</w>
информа цию</w>
щи й</w>
фи ка
й ся</w>
на зна
сво его</w>
к ни
ре аль
1 8
ко ман
исто ч
н ению</w>
ри с
вмест е</w>
ди на
тя бря</w>
име ют</w>
i t
груп пы</w>
меди ци
реги ональ
спе циаль
да ет</w>
сте пен
мо в</w>
л ению</w>
по стоян
мест о</w>
ш ей</w>
ми ссии</w>
по я
м ся</w>
сло ж
тран спор
бе ре
воз ра
ко мите
то к</w>
не зависи
о зна
ре й
верси те
ст е</w>
ш его</w>
об су
до гово
част ности</w>
ь ю
внут рен
хорош о</w>
но вых</w>
А ссамбле
част о</w>
до ба
государ ств</w>
2 5</w>
на у
согла сно</w>
о нов</w>
ве ро
ви тся</w>
тель ный</w>
ты ся
буду ще
сту па
ра х</w>
жд ение</w>
фи ль
себ е</w>
хо те
тель ство</w>
фор ми
ни ть</w>
работа ть</w>
осуществ ля
ви ди
б ло
стви я</w>
хо д</w>
со ю
т ри</w>
пер со
обеспе чи
ру ю</w>
эти м</w>
ро ль</w>
сред и</w>
фи ци
та н
пробле мы</w>
стан дар
упра вления</w>
кон су
профес си
и ност
пред лож
ствен ных</w>
Кон вен
наш ей</w>
ро вание</w>
реб ен
1 8</w>
п ти
ву ю</w>
долж на</w>
пре ступ
иност ран
вза имо
та й
ва х</w>
ч ные</w>
слу ж
спе циали
луч ше</w>
исто ри
ли ц</w>
юще го</w>
да х</w>
количе ство</w>
пра во</w>
ен ь</w>
компа ния</w>
мыш лен
пере да
пос ред
уров не</w>
за клю
ча сти</w>
здо ров
руко вод
вы ра
o n</w>
ле з
у строй
р ение</w>
1 4</w>
l e</w>
ц у</w>
муж чи
законо да
по ка</w>
ре з
по да
Б а
бу де
Сове та</w>
ми р</w>
ству ют</w>
ис клю
та р
се рь
хо де</w>
то гда</w>
г ли
ме ха
ци о
б я</w>
поддер жи
мен та</w>
стра нах</w>
з я
ра и
од ним</w>
ты х</w>
рабо ту</w>
ОО Н</w>
А р
дву х</w>
це лью</w>
вл ении</w>
ка м</w>
ра ции</w>
ме ро
насе ления</w>
В ы</w>
наи более</w>
друго й</w>
кон кре
ти л</w>
персо на
обще ства</w>
ору жи
лю би
год ы</w>
ко в
страте ги
с с</w>
экс пер
ин ф
вс ё</w>
Л и
с лы
сред ств</w>
ле жа
хо ти
тре ть</w>
ч ный</w>
ну ть</w>
г лу
ствен ной</w>
те бя</w>
з ма</w>
дела ть</w>
многи х</w>
и му
са ми</w>
проек т</w>
т ки</w>
предста вля
э ту</w>
мини стра
зна ть</w>
стой чи
мож ем</w>
ри ть</w>
на ло
у бе
меро прия
ж а</w>
полу чить</w>
се ссии</w>
ва ются</w>
спе к
под твер
действи тельно</w>
В се
у ста
ди ви
раз и
ру с
ли ть</w>
ст вами</w>
1 3</w>
резолю ции</w>
i c
о но</w>
го род
но вые</w>
ч ного</w>
по м
т ного</w>
рас смот
ди ть</w>
при лож
1 6</w>
Д о
д ней</w>
то т</w>
М о
ж ении</w>
це ду
мо р
использо вания</w>
за д</w>
по ку
сказа ть</w>
те р</w>
со кра
e s
поч ти</w>
Г ер
про цеду
ре ли
гра жда
регу ли
хо зя
емы е</w>
иму ще
благо дар
Ф е
де ка
ко ро
проти во
ри а
a l
с ме
гло баль
на зад</w>
ри сти
авто моби
различ ных</w>
1 0
действи й</w>
цион ных</w>
I I</w>
до во
настояще е</w>
се к
по те
мо м</w>
ви д
де ле</w>
пер вый</w>
веро я
про мышлен
по доб
ти ю</w>
кон ф
с ь
рас хо
долж но</w>
че ты
у стойчи
ре в
ка кой</w>
Республи ки</w>
с ли
возмож ности</w>
Комите т</w>
a c
дол ла
кото рую</w>
4 0</w>
ч а</w>
з у</w>
за седа
име ть</w>
мини ст
Евро пей
че й</w>
т ный</w>
кон ферен
действи е</w>
кто р</w>
щ ую</w>
си м
э та
теле м</w>
от ли
доста точно</w>
услу г</w>
Г о
участи е</w>
1 7</w>
рекомен да
чи е</w>
самы х</w>
ст ы</w>
та ции</w>
у гро
наш и</w>
П е
вопро сы</w>
нача ла</w>
результа те</w>
ц ве
рас сматри
пол ностью</w>
ще й</w>
суще ствует</w>
помощ ью</w>
п си
начи на
но си
Т а
Н и
с рав
со вмест
од ного</w>
с но
ста ть</w>
которо го</w>
хо да</w>
большин ство</w>
Г а
медици н
та кое</w>
ско му</w>
И ра
сту пи
находи тся</w>
но вый</w>
А мери
об но
о не</w>
помо га
цен тра
е же
серь ез
не му</w>
кре ди
за боле
стра не</w>
у креп
ме т
о пас
н ной</w>
финан си
ль ное</w>
я дер
Ф ран
ст ин
ку с
с пи
пре жд
на ших</w>
то р</w>
по жа
ле га
правитель ство</w>
Н о
защи ты</w>
у ве
го р
со хра
од на</w>
би о
Д е
вы ше</w>
вы ми</w>
полити ки</w>
член ов</w>
ч е</w>
й ской</w>
пред прия
исследо вания</w>
с со
сторо н
уров ень</w>
2 4</w>
ва ла</w>
ад министра
чес кую</w>
объ ек
Ш та
террито рии</w>
те м
6 0</w>
уни версите
хозя й
са х</w>
мы х</w>
1 00</w>
други ми</w>
тра ди
пер вые</w>
которо м</w>
ше е</w>
А фри
а в
r o
с пра
об нару
большо й</w>
консу льта
о щ
ди я</w>
ю сь</w>
е ё</w>
да ле
жи во
Во сто
е вро
проек та</w>
о те
окру жа
Ю Н
за вер
поря д
сотрудниче ства</w>
мо мент</w>
сво е</w>
меха низ
19 8
при вле
од но
вы пу
к рас
стать и</w>
обы чно</w>
жа ть</w>
га ран
ди ре
оче ред
раз ме
И з
Ц ен
ста л</w>
конф лик
на ходя
об е
се ль
голо в
комп лек
образо вания</w>
ни чего</w>
со еди
в клю
1 9</w>
осуществ ления</w>
го в</w>
ин стру
на р
под чер
важ но</w>
2 1</w>
смот ря</w>
тре ть
ени ям</w>
лю бой</w>
а кти
ожи да
ка кие</w>
и ми</w>
Конвен ции</w>
от сут
ци ями</w>
тер ро
бы ст
ну т</w>
де т
вне ш
за тем</w>
приня ть</w>
на йти</w>
л ении</w>
измен ения</w>
напра влен
хран ения</w>
вод ы</w>
ни ем</w>
произ о
вед ение</w>
у м
ря д</w>
груп па</w>
э ле
ша ть</w>
уров ня</w>
юще е</w>
к ло
за ня
вла сти</w>
ж ер
по р</w>
обо ро
об у
до й</w>
не смотря</w>
при род
ствен ного</w>
международ ных</w>
по пу
пред ло
само м</w>
Ве ли
рабо те</w>
парт не
бю дже
из мени
те бе</w>
мен та
э ко
п ли
до сту
разви тие</w>
примен я
систе ма</w>
не которых</w>
пе ча
в и</w>
вой ны</w>
не ф
вер ен
чис лен
ли и</w>
у з
во ору
ден е
де б
воз вра
ц ер
су б
по ня
виде ть</w>
докла д</w>
исследо ва
му зы
правитель ства</w>
фо то
пис ь
воз ду
ден ь
бе р
хо чу</w>
s t
ис кус
з м</w>
теля ми</w>
с са</w>
процес с</w>
я сь</w>
предста влен
тель ное</w>
201 8</w>
на уч
че т
Гер ма
в ши
ль ным</w>
ше л</w>
даль ней
e s</w>
мо гу</w>
международ ного</w>
сем ь
професси ональ
то же</w>
при мер
a l</w>
ресур сов</w>
учре жд
2 2</w>
предоста вля
тель ным</w>
об служи
дру г</w>
ра б
за пре
комп ью
це п
но я
о со
лю да
сво ем</w>
под ро
Фе де
помощ ь</w>
дости г
p os
ту аль
лю б
р ь</w>
ю ри
ин ститу
Укра ины</w>
от ра
вари ан
ча й
помо чь</w>
по до
мы е</w>
буд ь</w>
ш ин
ы е</w>
обеспе чить</w>
ян ва
e l
ва ш</w>
вер х
ле н</w>
и ни
со л
су м
евро пей
прежд е</w>
рован ных</w>
ста би
по бе
ж ной</w>
пол но
Р е
горо да</w>
нор ма
не сколь
с част
послед ние</w>
исто рии</w>
следо ва
потен циа
се кто
мог ли</w>
а у
с кую</w>
пробле м</w>
благодар я</w>
ан ти
деятель ность</w>
зна чение</w>
вер ну
полож ения</w>
хо в
ц ени
до ма</w>
сред ства</w>
ход ят</w>
зыва ет</w>
Из раи
ш ком</w>
кра й
у чен
ко лле
па ци
ра нее</w>
а ви
относи тельно</w>
ни ми</w>
Генераль ной</w>
ж у</w>
ру до
вод у</w>
мен ты</w>
сооб щи
Генераль ного</w>
лю бы
дви га
паци ен
которы м</w>
все й</w>
ко с
ю щая</w>
&a pos
дол го
коне чно</w>
&apos ;</w>
ня я</w>
М ар
зая вил</w>
секрета ря</w>
ь е
ж ур
производ ства</w>
пре до
ка пита
Е С</w>
це лей</w>
ква р
ста в
ми и</w>
долла ров</w>
ст ью</w>
ре жи
стра ни
бизне с</w>
щи м</w>
сай т</w>
и то
озна чает</w>
зна ю</w>
ве ду
гро м
ви ли</w>
цион ной</w>
фор мы</w>
после дни
да ми</w>
Укра и
ко ор
ль ная</w>
вле тво
ва н</w>
дума ю</w>
к ну
h e</w>
мен я
удо влетво
то ров</w>
публи ко
й д
а л
ра м</w>
ве б</w>
сфер е</w>
со бира
ми гра
результа ты</w>
отнош ения</w>
обо рудо
энер гии</w>
ци ях</w>
информа ция</w>
2 3</w>
усили я</w>
ба ты
201 7</w>
дека бря</w>
чен ы</w>
боле з
фа й
использо вание</w>
успе ш
поддерж ки</w>
201 0</w>
де ли
чески ми</w>
з е</w>
во лю
сли шком</w>
д не
у кра
а ген
ма ни
но во
демо кра
пре ж
вто рой</w>
Се вер
сове ща
но к</w>
ша я</w>
ка те
к ров
o u
ски ми</w>
201 2</w>
ру ется</w>
созда ния</w>
че ском</w>
а пре
пу тем</w>
ты е</w>
культу р
при обре
но ва
организа ций</w>
ющи еся</w>
201 5</w>
хоти те</w>
пя ть</w>
с виде
ри н
ч ению</w>
вз я
проис ходит</w>
во в</w>
ствен ный</w>
б ре</w>
с бо
по в</w>
президен т</w>
д ь
услу ги</w>
201 4</w>
л ений</w>
ра ви
o l
де ло</w>
поддерж ку</w>
201 1</w>
те ра
л лек
клю че
ли ца</w>
каса ется</w>
ме ж
день ги</w>
вос стано
свобо д
ты й</w>
це ли</w>
сту ден
ем ся</w>
ствен ные</w>
га н
ком му
над лежа
ё м</w>
и но
т ным</w>
r e
во д</w>
вед ь</w>
разви ва
кон ку
ци ф
тру д
г но
200 8</w>
пунк т</w>
201 3</w>
П ред
пере гово
сво им</w>
ющи ми</w>
иг ро
Т е
тель ств</w>
по ра
за ключа
г ене
щ ё</w>
меся цев</w>
ве з
бе з
случа ях</w>
19 7
чис ло</w>
позволя ет</w>
с чет</w>
е щё</w>
пя т
про ведения</w>
з рения</w>
женщи ны</w>
о казыва
пре кра
щ и</w>
рас поло
ч ении</w>
кате го
у ме
ини циа
при ме
согла си
ан гли
П у
ни ком</w>
а б
Т ур
о публико
Р о
ста н</w>
ф ек
процен тов</w>
на й
В и
наб люда
услови ях</w>
про вер
ши ть</w>
ста р
мас шта
опреде ля
Р у
201 9</w>
ча ть</w>
торго в
о хра
смо треть</w>
вы я
ди за
ку пи
досту п</w>
бу р
рели ги
говори ть</w>
Н е
Росси я</w>
на сили
из бе
ру ют</w>
де лега
програм м</w>
со ван
ни к
вл ению</w>
200 9</w>
ще го</w>
б у</w>
стра да
орга нов</w>
да вно</w>
ё т</w>
реш ений</w>
де н</w>
де л</w>
ве ще
о гром
простра н
учи ты
ст ы
М ос
Бе зопас
мен тов</w>
ст ей</w>
ста ти
ви ла</w>
пре имуще
про гре
э н
по лез
зо в</w>
кон це</w>
ви н
си ст
ста ли</w>
i l
м .</w>
подгото в
К у
объ е
горо д</w>
милли онов</w>
ь ми</w>
ря т</w>
увели чи
коне ц</w>
су деб
у по
пра вам</w>
смот рен
1 7
2 8</w>
од но</w>
с пу
ве сти</w>
з дра
ге ти
технологи и</w>
попу ляр
с и</w>
м пи
це ль</w>
ла йн</w>
2 6</w>
устано влен
Р и
эко логи
щ ении</w>
позво ли
коор дина
Безопас ности</w>
ща ет</w>
мо щ
с сы
самы м</w>
о к</w>
ва ны</w>
е мой</w>
точ ки</w>
д ро
ч ном</w>
це лом</w>
П ре
до каза
че твер
д ве</w>
ста ту
1 5
основ ных</w>
хи ми
ст вам</w>
ша ет</w>
работа ет</w>
про во
он ы</w>
теля м</w>
ию ня</w>
у мень
ж ных</w>
пла т
фе вра
Мос к
компа ний</w>
во к</w>
си лы</w>
2 7</w>
го м</w>
3 1</w>
сло ва</w>
о з
при ш
r i
тель ность</w>
быст ро</w>
хоте л</w>
разви тию</w>
террито ри
тив ных</w>
Д а
му ю</w>
утвер жда
несколь ких</w>
во л
ме д
о кон
в ших</w>
Все мир
з ор
мисси я</w>
вопро сов</w>
но вой</w>
цион ные</w>
рабо чи
ка м
во сто
си лу</w>
т вра
I n
услови я</w>
о ши
се ти</w>
a m
во о
то ра</w>
с ре
торгов ли</w>
С то
ваш его</w>
до би
ребен ка</w>
сист ем</w>
по ис
р д</w>
с мыс
ки тай
и мя</w>
пло ща
тель ности</w>
за бо
проек тов</w>
раз но
технологи й</w>
Вели ко
о ст
поддер жа
ло й</w>
ст вах</w>
предо твра
си л</w>
само е</w>
та кого</w>
жен ы</w>
ма х</w>
то ко
мо з
юри ди
на до</w>
ма ш
бри та
ра ди
a s
Ин тер
о цени
А в
за пис
при сут
ли зации</w>
предста вляет</w>
c o
2 9</w>
соста вляет</w>
но вого</w>
на писа
дру з
т ра</w>
201 6</w>
созда ть</w>
С у
ма кси
конку рен
С пе
ту р
с к</w>
Велико брита
цио ни
Ка за
соста вля
энер гети
процес са</w>
рабо та</w>
те о
ы ду
пример но</w>
бо га
пред полага
раз работа
упра вля
ме н</w>
a n</w>
ию ля</w>
ч рез
за пу
е ха
зы вать</w>
здоров ья</w>
англи й
мно же
ав гу
ар хи
иг ры</w>
ь те</w>
дан ный</w>
ни будь</w>
вы з
Комите та</w>
бе д
кри мина
в ме
ти фика
поло жи
сен тября</w>
вед ли
на ш</w>
со держи
каждо го</w>
200 7</w>
жа ет</w>
пред принима
пред седа
эк спор
му ли
пу те
полож ение</w>
вла де
оружи я</w>
ме та
а спек
пу ти</w>
други м</w>
200 0</w>
ре а
Л а
ли н
пер во
суще ство
самы й</w>
пред ыду
1 ,
пос мо
в кла
ино гда</w>
государ ство</w>
Д же
Б и
х у
ч ением</w>
ш ем</w>
ком мер
л ки</w>
опы т</w>
руко води
сотрудни ков</w>
за ция</w>
со н</w>
се ме
ис пол
экономи ки</w>
де к
п то
цион ного</w>
жер т
ен ы</w>
исследо ваний</w>
со к</w>
вл ением</w>
лы х</w>
вы с
ш и</w>
ло го</w>
созда ние</w>
здра воо
пла не
ста на</w>
спра ведли
жд ы</w>
ки ми</w>
200 6</w>
он лайн</w>
сер д
по хо
ситуа ции</w>
э ро
ца ми</w>
тель ная</w>
окружа ющей</w>
уче том</w>
с ка</w>
200 5</w>
Ми ни
ро ст</w>
степен и</w>
кон тра
тво р
прави ло</w>
пар та
мест а</w>
сто м</w>
e t
за интере
ле в
Спе циаль
ни же</w>
контро ля</w>
реали зации</w>
у верен
З ем
ва лю
отме ча
по казыва
ро ста</w>
ли де
ко му</w>
буде м</w>
А Т
дела ет</w>
за кры
Евро пы</w>
Сове т</w>
при з
сред ы</w>
ф ран
ок тября</w>
i s
да м</w>
ч ная</w>
е сте
Х а
суще ству
- -</w>
уче б
ваш ей</w>
рекомен ду
па мя
демо н
ч ным</w>
уби й
Евро пе</w>
то ры</w>
ре е</w>
вы ступа
каж ется</w>
ли ц
отве т</w>
игра ть</w>
дости жения</w>
тре х</w>
дви жения</w>
бизне са</w>
пожа лу
су аль
Я по
эф фек
янва ря</w>
че н</w>
Пред седа
связа нных</w>
оцен ки</w>
дис кримина
ста ла</w>
ш ению</w>
ши ми</w>
до м
ре н</w>
по ме
про тя
Д и
ис пыта
дей ству
е в
стре ми
мас со
ту ри
бли жа
пер вой</w>
де ти</w>
про жи
гаран ти
под писа
Б у
тыся ч</w>
семь и</w>
част ью</w>
обще го</w>
Т о
продук тов</w>
ци ям</w>
соб ра
ве ри
лы й</w>
o t
о пла
а на
Ко миссии</w>
програм ма</w>
м ной</w>
ста ло</w>
хо чет</w>
емо го</w>
в щи
все му</w>
прове ден
1 .
ва на</w>
ли я</w>
ноя бря</w>
емы й</w>
доб ро
ваш и</w>
тран с
вопро су</w>
воз ник
поку па
мен а</w>
де ля
путе ше
ю щую</w>
Л е
Каза х
рова ны</w>
каче ства</w>
ге о
подро б
На циональ
а я</w>
мень ше</w>
ве й
чен ных</w>
1 3
с че
ма м</w>
националь ных</w>
мо г</w>
член а
ствен ным</w>
с ю
гово рят</w>
наш а</w>
кон так
д ж
до пу
со м
по вест
т р
п у</w>
не ш
ту ры</w>
Н ью</w>
под вер
о пти
. .</w>
ис полни
преж нему</w>
лен ь
борь бе</w>
пер спе
1 6
ско ро
Со единен
наш его</w>
те ра</w>
необходи мости</w>
вле н</w>
различ ные</w>
о писа
круп ней
ви зи
сто й</w>
ок е
ла ми</w>
ми ру</w>
у ника
терро ри
Ассамбле и</w>
мо е</w>
тель ную</w>
говори тся</w>
примен ения</w>
ра ст
ча сов</w>
ре кла
дан ным</w>
фото графи
окон ча
с ня
вы бра
о хва
контро ли
большо е</w>
принима ть</w>
г ер
стати сти
мест е</w>
ги б
ла х</w>
н .</w>
по стро
дол л</w>
регу ляр
дей ствовать</w>
ко ми
нача ле</w>
8 0</w>
рын ке</w>
систе му</w>
си н
2 .
ни кто</w>
т .
отнош ений</w>
обеспе чение</w>
еже год
ма ми</w>
мы м</w>
ин диви
ле чения</w>
участ ников</w>
глу бо
соответству ющих</w>
у зна
ро да</w>
ответствен ность</w>
к ле
очеред ь</w>
международ ной</w>
во да</w>
продол жи
сле д
С С
по ез
ж ений</w>
она х</w>
мар та</w>
поло ви
ж ению</w>
т ное</w>
200 4</w>
T he</w>
ку да</w>
гу мани
1 4
иностран ных</w>
ма лень
ти ли</w>
ходи ть</w>
S t
сай та</w>
про сь
поя ви
по вто
сти ть</w>
ин нова
e c
дне в
рас ска
член ы</w>
сно ва</w>
r a
нов ь</w>
ад ре
компа ни
кру г</w>
в новь</w>
е вре
со стоит</w>
бли з
значи т</w>
Цен тра
ш а</w>
лег ко</w>
а ссо
заме ча
Кита й</w>
ща ть</w>
имен и</w>
ро к</w>
е н</w>
7 0</w>
те ку
стано вится</w>
соб люд
де ла</w>
доста точ
ори те
отме тил</w>
ави а
ника ми</w>
ба йд
кли ма
вероя тно</w>
да ют</w>
О т
байд жа
зер байджа
вы гля
потре би
пос вя
ма га
тру да</w>
ко ло
укра ин
ца м</w>
при орите
за ка
то н
пер вых</w>
обще ство</w>
л ением</w>
структу ры</w>
н ю
раз ных</w>
мо я</w>
стви й</w>
из обра
ви дов</w>
тя же
в первые</w>
логи и</w>
полу чения</w>
Л у
ма те
жен ных</w>
зо ван
це ле
апре ля</w>
извест но</w>
приве т
у г
зависи мости</w>
спосо б</w>
больш ая</w>
времен но</w>
обще й</w>
полно мо
н ный</w>
В ер
то л
п раз
преду смотрен
приня тия</w>
за тра
преду сматри
подгото вки</w>
экономи ческого</w>
из да
пред ме
четы ре</w>
ш о
го дов</w>
город е</w>
пре пара
чен о</w>
бы в
ше му</w>
ны неш
Ф и
груп п</w>
ва лись</w>
ща ется</w>
мо н
т ю
гумани тар
которы ми</w>
представи ть</w>
поте ря
по н
Кита я</w>
на ме
реги оне</w>
ве ка</w>
сло вам</w>
по нять</w>
пар ла
й ста</w>
Й ор
стать е</w>
протя жении</w>
фе де
случа ев</w>
постоян но</w>
тив ного</w>
бо в</w>
на вли
объ еди
in g</w>
клиен тов</w>
пре дела
возмож ностей</w>
ле кар
9 0</w>
моде ль</w>
рова ли</w>
не с
инф ра
фор ме</w>
3 5</w>
сто лько</w>
до к</w>
по нен
сек суаль
ри й</w>
тив ные</w>
х и</w>
ле м</w>
i n</w>
рын ка</w>
следу ющие</w>
ви де</w>
то н</w>
нар ко
макси ма
доступ а</w>
бо р
са нк
обяза н
мл н</w>
ствен ное</w>
практи чески</w>
люд ьми</w>
у потреб
Г руп
наз вание</w>
рас следо
комите та</w>
ль ную</w>
уни что
националь ной</w>
п ле
высо ко
по ощ
са йте</w>
ма н</w>
организа ция</w>
при соеди
19 6
цент р</w>
ста нет</w>
не посред
ра баты
х е
раз у</w>
Кон ферен
ф ору
из у
индиви ду
щи хся</w>
раз ру
г ри
социаль ных</w>
А зии</w>
заключа ется</w>
реги стри
оста но
вы чай
от пра
ш ки</w>
пожалу йста</w>
здравоо хранения</w>
цен ы</w>
19 4
Мини стер
поряд ке</w>
вз гля
пси хо
миро вой</w>
ви д</w>
G oo
инициа ти
200 3</w>
о стро
гражда н</w>
обра ти
конферен ции</w>
услови й</w>
об ще</w>
А л
воз ника
мо ни
ду т</w>
влия ние</w>
н ю</w>
срав нению</w>
Сто ро
Герма нии</w>
реги стра
стои мость</w>
в у</w>
Со ю
ре волю
сер ви
об щи
п лу
кос ми
об ви
жи ли</w>
по стано
исто рия</w>
смер ти</w>
ближа й
находя тся</w>
С та
во обще</w>
Т и
кри ти
ты м</w>
й дет</w>
о свобо
u n
не много</w>
й ского</w>
необходи мость</w>
квар ти
чрез вычай
g le</w>
разработ ки</w>
Амери ки</w>
за ста
дене г</w>
бо е
состоя нии</w>
произо ш
х удо
П ер
фран ц
u r
ва йте</w>
по ми
и ско
у доб
у голов
тем пера
сро к</w>
на ко
включа ет</w>
слу ша
а эро
бо м</w>
Росси йской</w>
инте гра
Ч е
ле тия</w>
С ер
стра хо
систе ме</w>
зна ния</w>
пре крас
ж ей</w>
рас преде
об работ
ч ки</w>
ка на
л ё
э т
парт нер
г на
i on</w>
потен циаль
исклю чи
милли ар
ре сто
про вод
основ ном</w>
оста ется</w>
возра сте</w>
кон тек
д ки</w>
любо в
зна ете</w>
рова л</w>
до сто
т ная</w>
0 0
си ть</w>
ком понен
мо ей</w>
пред назна
харак тери
аген т
эк спе
е тесь</w>
процес се</w>
исследо вание</w>
по па
внут ри</w>
основ ные</w>
ско рее</w>
хо дов</w>
не закон
ти па</w>
Со единенных</w>
з я</w>
ча сти
пробле ма</w>
ье р</w>
пу ть</w>
будуще м</w>
на сколько</w>
т ности</w>
пре вра
са н
чи к</w>
ч ное</w>
служ бы</w>
ми кро
голо со
продук ты</w>
фор м</w>
сове т
Goo gle</w>
ма ши
ори ен
о то
по пы
ре ак
экономи ческой</w>
обла ст
а п
прош лом</w>
дале е</w>
культу ры</w>
страте гии</w>
плу а
пла н</w>
с ко</w>
ми н</w>
ка та
дово ль
за па
мо го</w>
я тся</w>
сотрудниче ство</w>
д ва
авто мати
ве ден
прави ла</w>
хот ят</w>
Т рам
, 5</w>
экс плуа
ника ких</w>
участ во
участи я</w>
щен ы</w>
жи л</w>
o m
рован ные</w>
религи оз
200 2</w>
ну жда
об и
те ла</w>
февра ля</w>
чис ла</w>
з доро
дан ной</w>
пред вари
само й</w>
продук ции</w>
ни ца</w>
ти н</w>
кон вен
мл н.</w>
в ше
кон цеп
фа кти
потенциа ла</w>
Г ос
го раз
ры нок</w>
ль ном</w>
л л</w>
у видеть</w>
e l</w>
жен а</w>
По ль
разно образ
ь ше</w>
ш ений</w>
вы да
стра на</w>
з ву
рабочи х</w>
мар ке
мед лен
вмест о</w>
выпол нения</w>
торго вл
люд ям</w>
от рас
бе жен
ку п
ме ста
че ства</w>
гру з
борь бы</w>
ди т</w>
жи т</w>
чи я</w>
сказа ла</w>
Феде рации</w>
рекоменда ции</w>
раз ли
д ца
ви т</w>
президен та</w>
и дет</w>
докла де</w>
интер нет</w>
се вер
зако н</w>
та кая</w>
П Р
при води
счита ет</w>
представи телей</w>
гораз до</w>
во ло
за пад
перио да</w>
про вед
ве сь</w>
га м</w>
с ки</w>
вз ро
д во
самы е</w>
по воду</w>
комму ника
ме ст</w>
стать я</w>
сво ими</w>
подчер кну
дово льно</w>
образо вание</w>
ров ки</w>
финансо вых</w>
т ка</w>
за про
200 1</w>
г ря
наде ж
кла сси
н тов</w>
эффектив ности</w>
экспер тов</w>
со жа
зо ло
щ ению</w>
ран ьше</w>
вс ю</w>
продолжа ть</w>
н ра
Великобрита нии</w>
мет ров</w>
функ ции</w>
ком на
Ка на
использу ется</w>
не ль
И та
тро м</w>
значи тельно</w>
посред ством</w>
че к</w>
сим пто
ль ности</w>
инте ллек
край ней</w>
лы е</w>
Д у
долго сро
во сти</w>
пользова телей</w>
о ф
К ар
ис ка
й ских</w>
р ению</w>
совершен но</w>
моде ли</w>
ре чь</w>
контра к
цион ный</w>
виде о</w>
согла шения</w>
индивиду аль
нель зя</w>
М ак
ба лан
во ль
ча я</w>
мужчи н</w>
ми нут</w>
энер ги
интере с
чи ты
вл ений</w>
авгу ста</w>
ви ду</w>
при ходи
аб со
20 0</w>
боль шие</w>
А лек
ша н
до пол
ш ка</w>
про токо
про гно
х ристи
a g
расхо дов</w>
бес пла
встре ча
бере мен
циф ро
у казыва
тен ден
ро н
социаль ной</w>
тив ной</w>
ра вен
ро с
об стоя
полити ческих</w>
ц ов</w>
А зербайджа
с разу</w>
й тесь</w>
Ко ро
вне д
пре вы
диза й
упра вление</w>
от каза
спи сок</w>
у знать</w>
кра си
связа нные</w>
во круг</w>
ди пло
бу ду</w>
ня ш
предлага ет</w>
получи л</w>
диа ло
фак т</w>
выбо р</w>
ен а</w>
това ров</w>
пре м
па ле
р ю</w>
вы пла
и ден
с м.</w>
нача ть</w>
ни те</w>
С П
рова ться</w>
си ль
сегод няш
привле ка
П ри
отно ся
при бы
больш ую</w>
на пря
ва ли
н ении</w>
За ко
моло ды
5 00</w>
множе ство</w>
к лу
зо р</w>
ш у
прове сти</w>
Украи не</w>
каждо й</w>
га ми</w>
пунк те</w>
защи те</w>
предлож ения</w>
од ну</w>
па н
отли ча
ствен ная</w>
зна ет</w>
минист р</w>
само го</w>
поста вщи
безопас ность</w>
су ль
докла да</w>
ня ет</w>
деся ти
пер вую</w>
ми ну
1 2
пе с
франц уз
су д</w>
влен ы</w>
каче ство</w>
и д
сдела л</w>
стра нами</w>
требу ет</w>
рова н</w>
тель ными</w>
нарко ти
сте р</w>
преду пре
ту ра</w>
ню ю</w>
кра т
ос ве
ру бе
м нению</w>
ответствен ности</w>
ве щи</w>
. 1</w>
с де
у па
ко рен
н ного</w>
о доб
материа лов</w>
при гла
се зо
кон фи
о п
ня х</w>
ля ции</w>
процеду ры</w>
государствен ных</w>
со з
Ва м</w>
С М
ж у
контро ль</w>
кор пора
i r
де ву
по ле
го ся</w>
счита ется</w>
мага зи
И с
ч ную</w>
от че
ограни чен
абсо лю
элек три
с про
тель ством</w>
опера ций</w>
а н</w>
пози ции</w>
ман да
ви да
по том</w>
буде те</w>
следу ющих</w>
мероприя тий</w>
М у
опера ции</w>
обу чения</w>
си и</w>
Бо г</w>
хо че
результа тов</w>
рис к</w>
повы шения</w>
не давно</w>
т ность</w>
та ри
че скому</w>
I II</w>
ко ле
В И
пер вого</w>
де тся</w>
перво нача
ти ческой</w>
ау ди
e n</w>
од ном</w>
ин форми
зависи т</w>
на конец</w>
пунк та</w>
по мина
сою за</w>
анали з</w>
та я</w>
ка ким</w>
ин ду
пре пят
за регистри
демон стри
способ ность</w>
язы к</w>
тер на
ро ли</w>
аэро пор
ка де
про те
ре й</w>
С ан
от лич
хо ло
прави л</w>
ф он</w>
у ще
н ений</w>
ла кти
раз а</w>
ва ло</w>
подтвер жда
экономи ческих</w>
вя тся</w>
ы х</w>
тив ный</w>
докумен тов</w>
про фи
p p
бри тан
наро дов</w>
насили я</w>
4 5</w>
реги она</w>
фи р
да в
достиг ну
ощ у
Х о
л ки
жур на
нало го
но вая</w>
поми мо</w>
ана логи
м би
де та
секрета риа
ла м</w>
заинтере сован
счаст ли
поку п
друго м</w>
щ ений</w>
ген дер
ма ло</w>
на ше</w>
аль терна
зна ем</w>
у стра
вто ро
20 20</w>
e b
представи тели</w>
Ма й
функ циони
з ис
места х</w>
з вез
пере ме
се ть</w>
o w
гото вы</w>
счита ют</w>
ря дом</w>
учен ые</w>
ре с
ки сло
199 9</w>
кам па
ф а</w>
i g
3 2</w>
ве че
с читы
пита ния</w>
ме ц
приве сти</w>
слы ша
тру до
состоя ние</w>
у н
ё р
ва но</w>
зи я</w>
Ва с</w>
гря з
се н</w>
предлож ение</w>
юще м</w>
по верх
ре ша
к лет
рован ной</w>
инве сто
ф е</w>
то ром</w>
семе й
экспе ри
Фран ции</w>
пря мо</w>
измен ений</w>
отме чает</w>
зо м</w>
кров и</w>
учрежд ений</w>
уста нов
си х</w>
ня ется</w>
прави льно</w>
ква ли
со всем</w>
устрой ства</w>
по кры
посе ти
рь ер
представи тель</w>
комите т</w>
кто ра</w>
по следова
i a</w>
л ка</w>
о й</w>
основ ной</w>
любо го</w>
ни цы</w>
ка ких</w>
э мо
пла те
Б ер
по то
т ными</w>
де во
ва лся</w>
дискримина ции</w>
сю да</w>
ш ли</w>
ти ем</w>
на ч
жи ву
оши б
У пра
ры х</w>
осно ван
т р</w>
u t
о де
т ную</w>
д .</w>
ва ем</w>
суще ствуют</w>
упо мя
площа д
ност ями</w>
ем ле
разработ ке</w>
со се
дан ного</w>
из бира
де вя
промышлен ности</w>
дру га</w>
пере воз
распростра нен
контек сте</w>
дире ктор</w>
мл рд</w>
ди да
производ ство</w>
ги на
199 8</w>
сре до
послед ствия</w>
все ми</w>
катего рии</w>
до маш
связ ь</w>
объ ем</w>
дву х
пале стин
сем ь</w>
Ав стра
ти п</w>
свобо ды</w>
боль ших</w>
пис ы
ар ен
чен ные</w>
расхо ды</w>
чи ст
заседа нии</w>
виде л</w>
марке тин
наб люд
при мени
ща ться</w>
от прави
иде аль
следу ющий</w>
измени ть</w>
живо тных</w>
харак тер</w>
но вое</w>
про па
ассо циа
необходи мые</w>
под разде
влен о</w>
Бе ла
Про грам
ь я
полити ческой</w>
нра вится</w>
П и
те й
ш ении</w>
ля ть</w>
под ход</w>
ру ются</w>
финанси рования</w>
развива ющихся</w>
опреде лить</w>
ту т</w>
вкла д</w>
четы ре
сторо н</w>
по й</w>
ве сь
то пли
работа ют</w>
ка зывать</w>
ци к
кан дида
e m
у диви
C h
жа ло
на вы
бе зу
участ ники</w>
но мер</w>
не мец
не те</w>
весь ма</w>
га р
област ях</w>
ч ений</w>
со средо
Конферен ции</w>
жда ть</w>
в ной</w>
Кон ститу
говори л</w>
Север ной</w>
П ра
тя бре</w>
слу чи
пол ной</w>
a d
ре ди
моло де
к м</w>
ста не</w>
жен о</w>
ле жит</w>
ни ях</w>
клима та</w>
хо ждения</w>
3 3</w>
соответству ющие</w>
ти на</w>
инвести ций</w>
ъ я
по со
осуществ ление</w>
0 ,
над ца
рес публи
чен а</w>
ва ших</w>
ль ными</w>
Л он
обеспе чению</w>
Ор ганиза
199 5</w>
использо ванием</w>
ми я</w>
ко миссии</w>
мо мента</w>
за в
независи мо</w>
вы ступ
будуще е</w>
смо три
жур нали
н ным</w>
требу ется</w>
e t</w>
смо тре
возду ш
ориен ти
ли нии</w>
сим во
интере сах</w>
ж ного</w>
внима ния</w>
сооб щения</w>
5 5</w>
по ве
пер вым</w>
способ ности</w>
Си рии</w>
у ли
устойчи вого</w>
требо вания</w>
про я
обще ствен
со че
глав ным</w>
В ен
по ро
купи ть</w>
ти ла</w>
те лю</w>
лан дии</w>
п ля
не га
свиде тель
прав да</w>
дви жи
ш у</w>
соста в</w>
филь м</w>
i v
из о
ро ванию</w>
наро да</w>
вы рази
Европей ского</w>
предоста вить</w>
ди те</w>
отсут ствие</w>
при зывает</w>
Ра бо
усили й</w>
последни й</w>
мини стер
д рев
За пад
уще р
к ви</w>
з он
я р
инф ек
В ла
лен ы</w>
дела ют</w>
ше д
зи ровать</w>
ме ра</w>
го с
сло во</w>
про ведение</w>
феде раль
пользова ться</w>
И спа
докумен т</w>
проводи ть</w>
пу та
наш у</w>
ми нима
R e
реа ги
воз гла
со общества</w>
воен ных</w>
кри зис
сто л
убе ди
c h
Вер хов
меся ца</w>
Н И
та ль
мероприя тия</w>
воз обно
обе ща
ис пы
одно временно</w>
ис че
мы й</w>
уда лось</w>
со действия</w>
ресур сы</w>
с .</w>
обслужи вания</w>
ющи мся</w>
Коро лев
чи ков</w>
дума ть</w>
пи и</w>
использу ют</w>
со ба
з ви
3 6</w>
прем ьер</w>
любо е</w>
об зор
у регули
199 4</w>
персона ла</w>
националь ного</w>
обла да
Б ан
го дах</w>
боль шим</w>
с проси
г ли</w>
фор ма</w>
С ек
пар тии</w>
i m
ца х</w>
цен а</w>
не сти</w>
Го судар
с к
дополни тельные</w>
се сси
количе ства</w>
друго го</w>
ча ще</w>
на каза
вы бро
приня л</w>
В О
С вя
п лен
слу жа
оборудо вания</w>
А ль
С Р</w>
сотрудниче стве</w>
само стоя
кон струк
проек ты</w>
позволи т</w>
тру дно</w>
же лез
из уча
рассмот рения</w>
зако на</w>
бес поко
пер вая</w>
С К
подчер ки
ко го
прилож ение</w>
соче та
пен си
состоя ния</w>
мо и</w>
строи ть</w>
вани ям</w>
ви ды</w>
анали за</w>
поддерж ке</w>
й ский</w>
и л
обяза тельств</w>
. co
мен е
Ю жной</w>
любов ь</w>
за хва
ори гина
фу т
дале ко</w>
199 7</w>
печа т
любы е</w>
владе ль
рекомен до
произош ло</w>
Председа теля</w>
дви жение</w>
гово й</w>
цент ра</w>
само ле
отде льных</w>
фор мули
г ни
Л ю
си бо</w>
государствен ной</w>
осо бо
су да</w>
по вре
им пор
зая вление</w>
кор ре
жда я</w>
руковод я
орга ны</w>
ба с
б и</w>
бюдже та</w>
дол го</w>
а фри
сол не
га х</w>
потреб ностей</w>
ден циаль
ев ро</w>
совершен ство
С Т
много числен
луч ших</w>
исследова тель
взро слы
согла шение</w>
гла ва</w>
у ро
пе тен
ж ные</w>
ли цен
ся т</w>
ст я</w>
меся ц</w>
от да
ника м</w>
га я</w>
сво й
Япо нии</w>
A n
си льно</w>
Лон до
Ф он
упомя ну
полити ка</w>
ме ч
х ро
ры й</w>
заме сти
Л о
обяза тельства</w>
специали зи
АТ О</w>
с ной</w>
повест ки</w>
со зна
Р Ф</w>
н ная</w>
га ть</w>
3 4</w>
полож ений</w>
не движи
со хран
по зна
лиц о</w>
фор миро
ра сту
ри ца
пя ти</w>
больш ей</w>
испы ты
Шта тов</w>
зада ч</w>
ком петен
настояще го</w>
ви дно</w>
жиз нен
ис ь</w>
лан д
3 7</w>
Республи ка</w>
лик вида
ху д
мен том</w>
ст ен
афри кан
Ко миссия</w>
получи ли</w>
дву мя</w>
ва ше</w>
организа циями</w>
важ ным</w>
хо тели</w>
сосредо то
даль ше</w>
вля ть</w>
пла не</w>
поз же</w>
нов ую</w>
деся т</w>
отме тить</w>
199 6</w>
ро ждения</w>
члена ми</w>
А ф
обес поко
су дь
и стин
у деля
а да
6 5</w>
содержи т</w>
4 8</w>
посвя щен
отнош ение</w>
стра нам</w>
ъ ек
Ин дии</w>
ли за
мони то
чув ству
с кры
источ ников</w>
ма ть</w>
докумен ты</w>
со р
помога ет</w>
кон тен
уста навли
примен ение</w>
ми ра
ло со
электро нной</w>
у важ
до бы
любо м</w>
глав ная</w>
пер ен
ди к
демокра ти
коро т
по ки
кни ги</w>
жден ы</w>
информа цией</w>
региональ ных</w>
б ре
3 8</w>
мест ных</w>
при бли
ди л</w>
дина ми
вс я
ти т</w>
ап пара
ри ю</w>
ва ющих</w>
им му
цент ре</w>
е мая</w>
пер вое</w>
от рица
вопро са</w>
па ми</w>
государ ствами</w>
обяза тельно</w>
публи ка
го вари
истори ю</w>
ограни чи
ще е</w>
3 .
х о</w>
3 9</w>
де рев
о пу
матери аль
реши ть</w>
с может</w>
Г ру
здоров ье</w>
процен та</w>
ка рьер
вз но
нача л</w>
международ ные</w>
строи тельства</w>
на шим</w>
сни ть</w>
ал кого
пациен тов</w>
ря ть</w>
цен а
во до
шко лы</w>
емы м</w>
обеспечи вает</w>
u s
мето ды</w>
зна ют</w>
t er
Г е
же сто
образо ва
ти фици
фика ции</w>
чи й</w>
встре чи</w>
ба зо
язы ке</w>
ц ар
ви та
жи телей</w>
ви ру
19 5
причи н</w>
рей тин
жи ве
де кла
с пис
де ло
Ф а
специали стов</w>
по й
материа лы</w>
неде ли</w>
монито рин
ситуа ция</w>
Б ар
го до
мен ы</w>
ОО Н
Афри ки</w>
ста лки
получа ть</w>
з мом</w>
лен ной</w>
зада чи</w>
ваш а</w>
бан к</w>
собы тия</w>
ре зер
во ка
фор му</w>
юще йся</w>
ро вании</w>
ви и</w>
раз мере</w>
нов ения</w>
ст у</w>
Ко ре
ито ге</w>
нау ки</w>
Ко м
непосред ственно</w>
пла на</w>
перегово ров</w>
ядер ного</w>
си гна
по может</w>
ль ти
Международ ного</w>
су д
жд ений</w>
кла с
са жи
соответ ственно</w>
не возможно</w>
х у</w>
осуществ лении</w>
цион но</w>
ду хов
Пре зиден
кур с</w>
ин жен
на вер
с ва
оказа ния</w>
жен ные</w>
а гре
ребен ок</w>
спу стя</w>
о г
ер а</w>
м нение</w>
u s</w>
програм му</w>
поддержи вать</w>
осуществ лению</w>
поряд ка</w>
х е</w>
о логи
Ч ер
высо кого</w>
предприя тий</w>
пи ть</w>
послед нее</w>
вы де
в не</w>
т рен
луч ший</w>
докла д
Ар м
бежен цев</w>
з ло
пси хи
н да
о собы
пол не</w>
государствен ного</w>
че ство</w>
опреде ления</w>
зая ви
спа сибо</w>
анали ти
на бо
совмест но</w>
у ско
д ной</w>
в полне</w>
рай оне</w>
архи тек
бу ма
л ла</w>
неде лю</w>
чита ть</w>
зна ешь</w>
об а</w>
П ар
сни зи
ж ением</w>
ч ка</w>
председа тель</w>
i d
раз мер</w>
повы шение</w>
конфи денциаль
ци она
охва ты
поль зу
ло к</w>
университе та</w>
на столько</w>
ко й
раи ль
мо ре</w>
ви ться</w>
раз ору
oo k</w>
рова на</w>
по тер
прода жи</w>
сдела ли</w>
т ения</w>
друго е</w>
вши хся</w>
хоти м</w>
рас кры
рован ный</w>
рабо т</w>
принима ет</w>
во му</w>
бан ков
п ро</w>
мо ти
из обре
ком мента
укреп ления</w>
пра вах</w>
мини му
ше сть</w>
.co m</w>
круп ных</w>
пис ан
ш ением</w>
продолжа ет</w>
К е
про доволь
Г ре
благо прия
Шта ты</w>
из раиль
ь ся</w>
ста вки</w>
СМ И</w>
ле чение</w>
зе лен
вы бира
праз дни
ат мо
чи ка</w>
ди ли</w>
поли ции</w>
иг ра</w>
стра ну</w>
осно вании</w>
за гряз
в ской</w>
му суль
таки ми</w>
доби ться</w>
относи тся</w>
заболе ваний</w>
та ция</w>
Де парта
рован ного</w>
С Е
от ды
женщи на</w>
сси в
фи лосо
сожа лению</w>
использу ются</w>
присоеди ни
пре пода
секто ра</w>
Д э
Вла ди
граждан ского</w>
р ных</w>
вто р
ин вали
са мая</w>
те ло</w>
предприя тия</w>
не тся</w>
худо ж
финансо вой</w>
на пад
не доста
по про
бо ра
би т
от ка
собствен ности</w>
исключи тельно</w>
бо ро
Па ри
принци пов</w>
д вер
7 5</w>
щ а</w>
ра ка</w>
ни цу</w>
био логи
с ъ
принци пы</w>
пере во
нару шения</w>
де ре
та ко
ль ник</w>
e d
учиты вая</w>
авто р</w>
из гото
б рен
en t
ма ль
3 00</w>
ша г</w>
б ран
Бо га</w>
в до
ш ла</w>
коман да</w>
рас смотреть</w>
мог ла</w>
я пон
го ди
компью те
жд ении</w>
учре ждения</w>
Ю ж
социаль ного</w>
програм м
га за</w>
язы ка</w>
увели чение</w>
приня ли</w>
кон ца</w>
ще м</w>
ч ными</w>
бан ка</w>
результа т</w>
рассмот рение</w>
а каде
e d</w>
не правитель
i on
оте ц</w>
актив но</w>
потреб ности</w>
ты с.</w>
з ре
че сть</w>
ще н</w>
отрас ли</w>
Н АТО</w>
ка кое</w>
се й</w>
ра ке
ВИ Ч</w>
переда чи</w>
у я
ми ся</w>
не пре
2 ,
координа ции</w>
д ни</w>
н ской</w>
се мина
выбра ть</w>
В ы
Афри ке</w>
исклю чением</w>
пи ра
рай онах</w>
ри й
на много</w>
шин г
связа ны</w>
поддерж ка</w>
международ ным</w>
с начала</w>
ка ждая</w>
закон чи
Ва шинг
Н ор
к т</w>
пас сажи
ре да
ис ход
предоста вления</w>
веще ств</w>
вы полни
которо му</w>
оборо ны</w>
ж де
интегра ции</w>
при вы
наш ем</w>
ря да</w>
спо н
рова но</w>
199 3</w>
источ ник</w>
законода тельства</w>
два дца
ни л</w>
объ ем
и су
рав но
при над
защи ту</w>
в шие</w>
н г</w>
пре сс</w>
поддержи вает</w>
начи ная</w>
Б ли
сво ему</w>
собы тий</w>
пом нить</w>
И ису
предста вления</w>
при надлежа
секрета рь</w>
заболе вания</w>
o f</w>
А О</w>
мы ми</w>
высо кой</w>
Израи ля</w>
Кита е</w>
последни х</w>
р ении</w>
У ни
стои мости</w>
неф ти</w>
практи ки</w>
се т</w>
щи ми</w>
стви ем</w>
ч ности</w>
причи ны</w>
правитель ством</w>
то е</w>
ско в</w>
дела м</w>
4 .
в печат
из ло
характери сти
го ри
но вым</w>
у м</w>
прилож ения</w>
нача ло</w>
опти ми
П рави
улуч шения</w>
рекоменда ций</w>
при чем</w>
ност и
гово ря</w>
щ у
строи тельство</w>
a p
наз ванием</w>
у ва
за бы
д ре
перспе ктив
Е ги
исследова тели</w>
уг ле
при дется</w>
а раб
коне чном</w>
любы х</w>
з во
с вед
ща ют</w>
ба р
кла сса</w>
пись мо</w>
право су
o c
противо ре
сказа ли</w>
нача ли</w>
р ги
ни ще
уя зви
Алек сан
использу ет</w>
россий ских</w>
по гиб
цер ков
созда нии</w>
Ассамбле я</w>
с можете</w>
ку па
об лег
М он
дан ном</w>
Аф гани
о су
настояще й</w>
дости чь</w>
нали чие</w>
ле й
Тур ции</w>
тель ном</w>
финансо вые</w>
i e</w>
предела ми</w>
объек тов</w>
ря ду</w>
И Д
мето дов</w>
т .</w>
ли мпи
ско хозяй
све т</w>
199 0</w>
приводи т</w>
оке а
A pp
ре ц
зо вать</w>
раз уме
смо гут</w>
ва лось</w>
сове та</w>
П од
лы м</w>
хо ды</w>
обо сно
верну ться</w>
луч шие</w>
важ ное</w>
мужчи ны</w>
Ан гли
тыся чи</w>
пи ще
Израи ль</w>
З е
четыре х</w>
выпол нять</w>
жа ют</w>
использо вании</w>
важ ных</w>
студен тов</w>
в ся</w>
ла бора
выпол ня
я сно</w>
интере сов</w>
использу я</w>
болез ни</w>
со прово
факти чески</w>
на пи
ресто ра
ку ро
Восто чной</w>
стату с</w>
ство вали</w>
за явля
нау чно</w>
возра ста</w>
Бли ж
ступи л</w>
опы та</w>
на учи
уров нях</w>
у го
р ю
го й</w>
к с</w>
У з
носи ть</w>
програм ме</w>
теле фон
адре с</w>
да вайте</w>
выбо ров</w>
сель скохозяй
автомоби лей</w>
4 2</w>
кон ститу
ы м</w>
ва р
рав но</w>
кор руп
приме ча
эффектив ность</w>
Соединен ные</w>
Казах стан</w>
a y</w>
Амери ке</w>
г ности
ва емых</w>
иде и</w>
фак торов</w>
це ло
е .</w>
сохра нить</w>
каса ющихся</w>
терро ристи
a r</w>
н ное</w>
груп пе</w>
ен о</w>
зи ат
за держа
вой на</w>
В В
F ac
хо м</w>
прибли зи
включа ют</w>
подвер га
мя г
опреде ление</w>
4 4</w>
называ ют</w>
о про
ад вока
ни ко
органи з
распростра нения</w>
ку н
перспе кти
Украи на</w>
ла в
р ением</w>
работ ников</w>
вме ша
му з
ко сти</w>
носи т</w>
объем лю
це н</w>
до мой</w>
раз рабаты
та ки</w>
та риа
конкре тных</w>
ль ность</w>
напра влении</w>
Д ек
ть ю</w>
особен ности</w>
поль зу</w>
ры м</w>
моз га</w>
сти ва
сою з
рас стоя
рис ка</w>
харак тера</w>
иде я</w>
показыва ет</w>
за во
Со гла
коман ды</w>
виде ли</w>
то рии</w>
гене ра
социаль но</w>
т ном</w>
ста ра
посмо треть</w>
не р</w>
поли це
за р
ни ку</w>
регистра ции</w>
зна чения</w>
ла й
ко дек
цион ная</w>
из мер
избе жать</w>
полити ку</w>
мож ешь</w>
по степен
5 1</w>
па х</w>
Х ри
у жа
ло в
ка з
д ж</w>
4 9</w>
кло н
созда нию</w>
акти ви
Уз бе
связа но</w>
широ ко</w>
долж ност
техни ки</w>
сред е</w>
ве щей</w>
про вин
Ш вей
сер тифика
раз ные</w>
вз ры
люб лю</w>
Груп пы</w>
по ступ
S h
сообщи л</w>
способ ствовать</w>
бы стро
конфлик та</w>
функ циональ
обу чение</w>
ки ло
внутрен них</w>
ре мон
высо кий</w>
а то
американ ских</w>
в ступ
лен ных</w>
Гос под
приходи тся</w>
a y
М ис
интеллек туаль
называ ется</w>
ва й</w>
фон д</w>
М ек
Уни версите
ве с</w>
Сек ре
Алексан д
.. ..</w>
o r</w>
И р
u b
з оны</w>
приня тие</w>
суб ъек
край не</w>
я ся</w>
ц ем</w>
эт ни
ко ллек
Международ ный</w>
бли оте
на стро
га зо
разнообраз и
ту да</w>
докумен та</w>
S E
щи еся</w>
медлен но</w>
тив но</w>
неде ль</w>
мож ен
до но
компани ей</w>
вы став
5 2</w>
тю рь
международ ном</w>
До гово
хоче шь</w>
искус ства</w>
име ли</w>
дума л</w>
A d
право вой</w>
мо его</w>
расши рения</w>
челове ком</w>
мо ли
обработ ки</w>
бле й</w>
ва лась</w>
ост ров
сем ье</w>
вы зыва
К О
де пре
государ ствам</w>
с ных</w>
серд це</w>
со обще
послед ствий</w>
продук т</w>
измен ение</w>
компью тер
ст рии</w>
оружи е</w>
ть ми</w>
Узбе ки
ак туаль
ство вал</w>
отли чие</w>
инфра структуры</w>
фотографи и</w>
кра со
ц ей</w>
све та</w>
ты ми</w>
ка кая</w>
отнош ениях</w>
представля ют</w>
де тьми</w>
эти ми</w>
горо дов</w>
N e
пре о
равен ства</w>
пред поч
ля ет</w>
в ший</w>
мень шин
Б ри
раз о
ча са</w>
в ш
пери оди
интере с</w>
in d
потенциа л</w>
про д
ни ями</w>
емо е</w>
сло вно</w>
Г и
в ка</w>
причи ной</w>
диза йн</w>
догово ра</w>
ствен ными</w>
т ского</w>
че ст
следова тельно</w>
ма ги
милли она</w>
i c</w>
функ ций</w>
ш ру
все объемлю
гру зо
полож ении</w>
согла сован
дей ствует</w>
взя ть</w>
по страда
жен ности</w>
Международ ной</w>
делега ция</w>
перегово ры</w>
в ью</w>
6 4</w>
отве ча
на сле
кри зи
при вер
подчеркну л</w>
o f
влен а</w>
лет ний</w>
Центра льной</w>
наде юсь</w>
че мпи
созда вать</w>
сти мули
си я</w>
иг р</w>
минист ра</w>
дис ку
сем ья</w>
на помина
A l
д ных</w>
ликвида ции</w>
обсу жда
сто ль</w>
диа гности
об мена</w>
сло в</w>
н ью</w>
зна л</w>
христи ан
сер де
науч ных</w>
гео графи
ван ных</w>
О н</w>
зна ний</w>
мо ря</w>
oo k
тр ени
остро ва</w>
сум му</w>
об зор</w>
мар шру
ваш ем</w>
зем ли</w>
P h
сред у</w>
лен а</w>
ге ро
устрой ство</w>
настоя щий</w>
ру ки</w>
Ц ер
фон да</w>
eb ook</w>
App le</w>
обще е</w>
жи ль
Дек ла
це ля
по м</w>
процес сов</w>
на гра
похо же</w>
Пу тин</w>
обсу ждения</w>
П ла
разви тии</w>
чув ствовать</w>
зада ча</w>
c e</w>
се кун
пол ный</w>
Дже й
рова ла</w>
вани ями</w>
рен ы</w>
сле жи
по ступа
поз д
то сти</w>
4 7</w>
абсолю тно</w>
м м</w>
ис ла
ти ровать</w>
Д Н
полити ке</w>
у точ
ти ться</w>
обла дает</w>
органи зова
эффектив но</w>
За па
на имен
ком фор
будуще го</w>
практи ке</w>
хоро ший</w>
но ч
ограни чения</w>
4 1</w>
влен ных</w>
психо логи
подготов ке</w>
Мек си
ста ми</w>
са ми
ющи йся</w>
за мени
к ем</w>
не у
те т</w>
верси и</w>
б рь</w>
профес со
бы стре
Н А
люб ви</w>
е р</w>
сы гра
Т А
ба к
тив ным</w>
кри п
квар та
официаль но</w>
Швей ца
та ть</w>
за чем</w>
прош лого</w>
ст ра</w>
руковод ство</w>
техни ческого</w>
й ская</w>
вне с
орга нами</w>
воз действия</w>
Со л
друз ей</w>
ли н</w>
стан ции</w>
техни ческой</w>
важ ность</w>
упо мина
4 3</w>
устано вить</w>
еха ть</w>
хоте ла</w>
взаимо действия</w>
игра ет</w>
да л</w>
техни ческих</w>
интере сы</w>
сво е
каса ющиеся</w>
социаль ные</w>
п ру
л ко
докумен те</w>
з ен
вы ше
к ци
си ла</w>
грани цы</w>
Республи ке</w>
го сти
органи зован
потре бу
националь ном</w>
масшта б
осуществля ть</w>
цве т</w>
рас поря
смыс ле</w>
5 7</w>
эта пе</w>
П ор
Э кономи
б или</w>
зая вления</w>
вы зывает</w>
ти ях</w>
заклю чи
охра ны</w>
предста вление</w>
исче з
большо го</w>
ар мии</w>
дипло мати
со т
оборудо вание</w>
Fac ebook</w>
ве р</w>
спе ци
сто ли
Г у
4 6</w>
o b
ба я</w>
спу т
ред ко</w>
пре бы
вла сть</w>
т ков</w>
фе стива
согла со
до ме</w>
Р А
вер са
фут бо
инфра структу
ти нен
быстре е</w>
an d</w>
ф ло
са м
бас сей
5 6</w>
Сою за</w>
дополни тельных</w>
конвен ции</w>
у си
проис хождения</w>
воз действие</w>
эле ментов</w>
М э
хозяй ства</w>
основ ным</w>
международ ное</w>
пер вом</w>
бло ки
Д жа
о казывать</w>
оче видно</w>
наро д</w>
об щий</w>
при емле
отнош ению</w>
реш ении</w>
тра в
роди телей</w>
ко раб
автомоби ль</w>
рас полага
Е го</w>
влен ный</w>
ч .</w>
B l
К ри
долж ности</w>
ци ви
большин ства</w>
би блиоте
щен ных</w>
большин стве</w>
вариан т</w>
5 3</w>
Трам п</w>
зе ме
э кра
хра ни
партне ров</w>
интер вью</w>
за цию</w>
т ение</w>
важ ней
гото в
процеду р</w>
ЮН Е
ли тера
объя сня
националь ные</w>
И так</w>
Росси ей</w>
устрой ств</w>
ра ди</w>
участво вать</w>
5 .
работа л</w>
кар ти
вле ка
относя тся</w>
про долж
лю дать</w>
корен ных</w>
та бли
консульта ции</w>
м ла
ры е</w>
преимуще ства</w>
ми те</w>
чи т</w>
те ат
Пе тер
до ктор</w>
оста ваться</w>
глу б
ожида ется</w>
П О</w>
кни га</w>
торговл е</w>
со действие</w>
нуж ны</w>
ба зы</w>
оди нако
совеща ния</w>
улуч шить</w>
спор та</w>
от пу
на сла
ко сть</w>
с фе
и на
участ ник</w>
э по
продук та</w>
пре следо
срав ни
пере до
воен ной</w>
име ется</w>
сегодняш ний</w>
ё л</w>
свобо ду</w>
кли ни
това ры</w>
ли дер
м с</w>
М А
Э то</w>
Генераль ный</w>
требо ваний</w>
глав ное</w>
сфер ы</w>
са ма</w>
А б
види те</w>
сту ю</w>
по следу
расши рение</w>
начина ется</w>
Ита лии</w>
му зе
w w
Ш а
ж но</w>
a b
времен ем</w>
Ира н</w>
уве рен</w>
преступ ления</w>
важ ную</w>
М ин
сою з</w>
a v
не дав
бу ю</w>
го тов</w>
тек ст</w>
же ст
5 4</w>
позволя ют</w>
в ско
5 8</w>
причи не</w>
раз гово
Зем ли</w>
Интер нет</w>
н ную</w>
ко д</w>
та ет</w>
се т
т ка
ко пи
Д емо
зна мени
предоста вляет</w>
ко смо
on e</w>
добро во
зако ны</w>
Х ар
ци пли
определен ных</w>
успе ха</w>
но чь</w>
т ща
э р</w>
раз вед
механиз мов</w>
Всемир ной</w>
Ж ене
до ве
осуществля ется</w>
мигра нтов</w>
не та</w>
использо ваться</w>
зи ру
обслужи вание</w>
особо е</w>
глав ный</w>
уни верса
не сет</w>
ситуа цию</w>
един ственный</w>
стано вятся</w>
5 9</w>
объе ма</w>
занима ться</w>
ступи ть</w>
ф ы</w>
показа тель</w>
содержа ние</w>
ви да</w>
3 ,
раз ум
при зыва
успеш но</w>
дер ж
клет ки</w>
государ ством</w>
не н</w>
потре бо
i s</w>
у ма</w>
дис ципли
ско н
спо кой
види м</w>
ежегод но</w>
об мен</w>
се реди
маш ины</w>
жен ность</w>
со общество</w>
кон тинен
ди е
да вление</w>
S p
ра до
з ри
экономи ческие</w>
ч ность</w>
цве та</w>
та цию</w>
от зы
необходи мых</w>
тель стве</w>
от чет
полити ческие</w>
вско ре</w>
воен ные</w>
мо л
о прав
проси т</w>
современ ных</w>
инвести ции</w>
ну жен</w>
д ка</w>
ша ют</w>
симпто мы</w>
цион ным</w>
представлен ы</w>
ника кого</w>
дет ям</w>
д жи
со ли
199 2</w>
сло вами</w>
И е
н ными</w>
по ведения</w>
эффектив ного</w>
ща ются</w>
сте н</w>
да ли</w>
жи те</w>
ваш у</w>
роди тели</w>
след ствие</w>
мето д</w>
счита ть</w>
с форми
та кую</w>
каж дом</w>
ря ет</w>
пись мен
рабо чей</w>
про тив
кар ты</w>
молоды х</w>
ш ься</w>
стаби льности</w>
о забо
Ч а
профи лакти
и таль
л ку</w>
пен са
соблюд ения</w>
систе мой</w>
ина че</w>
пла ны</w>
возду ха</w>
по влия
4 00</w>
по ру
из дели
ин тен
ин ди
об щих</w>
сооб щение</w>
назна чения</w>
ло ка
говори ли</w>
вани ях</w>
Э н
сред не
включа ть</w>
де ше
пропа ган
увели чить</w>
а но
о за
пере жи
мо стью</w>
транспор та</w>
вер я
фо то</w>
бо ль</w>
э волю
Моск ве</w>
показа тели</w>
показыва ют</w>
Герма ния</w>
получа ют</w>
обязан ности</w>
Петер бур
ж ный</w>
кле ток</w>
пла тить</w>
М О
пла ты</w>
сол да
ло г</w>
мо дер
ка кого</w>
Б рази
груп пу</w>
C o
е кти
по ле</w>
сооб щает</w>
ди ю</w>
живу т</w>
су дов</w>
до ля</w>
l e
Специаль ный</w>
оцен ка</w>
доба вил</w>
представи теля</w>
предела х</w>
M a
0 1</w>
Демо кра
И сла
ви ч</w>
при зы
нуж на</w>
кризис а</w>
гла за</w>
высо ким</w>
благо да
фу нда
ка ко
музы ка
й ские</w>
фи кси
ше к</w>
поль зо
оф ис
выбо ры</w>
дву сторон
би р
интен си
ради о
вш ись</w>
вы ну
десяти ле
интере сно</w>
мо на
от слежи
зако ном</w>
италь ян
пробле му</w>
н ением</w>
кур са</w>
прогре сса</w>
лич ности</w>
по все
та можен
ност ях</w>
де ть</w>
П О
хо в</w>
европей ских</w>
пу сть</w>
ра со
посмо три
подро ст
пол ного</w>
измен я
Ф ин
зо не</w>
л ли</w>
гу ю</w>
ва ющие</w>
транспор тных</w>
сове т</w>
6 2</w>
поддержа нию</w>
эле менты</w>
6 1</w>
по проси
пло хо</w>
написа л</w>
прогре сс</w>
ч лен</w>
се рии</w>
на пом
u l
тон н</w>
кто ров</w>
ни ц</w>
со вме
ком пенса
понима ние</w>
запис и</w>
ш ую</w>
собствен ные</w>
ры но
э пи
сни жение</w>
оцен ке</w>
й т</w>
степен ь</w>
6 3</w>
в ку</w>
р ной</w>
во ро
эффек т</w>
Секре тариа
на мер
смо гли</w>
с мар
ид ти</w>
ре м</w>
ви р
пи ло
по пыта
отмеча ется</w>
стандар тов</w>
гене ти
простран ство</w>
Австра лии</w>
ма т
настоя тельно</w>
получи ла</w>
обра щения</w>
университе т</w>
сол н
at ion</w>
мате мати
действи и</w>
уче та</w>
выгля дит</w>
К рас
скоро сть</w>
под ходя
Н О
ни ей</w>
Кон су
с наб
з ра
эксплуа тации</w>
международ ными</w>
полу чение</w>
В то
Ни дер
ма гни
рас т</w>
режи м</w>
мо но
ма то
показа ли</w>
деся ть</w>
тыся че
6 6</w>
а стро
неде ле</w>
М И
энер го
содержа ния</w>
ша ется</w>
массо вой</w>
Ц е
с ведения</w>
К али
рабо то
то бой</w>
настояще му</w>
Консу льта
й де
А д
то кси
про пу
зда ния</w>
слож но</w>
щен о</w>
опублико ван
из ба
сотрудни ки</w>
п ин
кон стру
ключе вых</w>
юще гося</w>
показа ть</w>
по чита
плане ты</w>
ля н
спра ши
бо к</w>
необ ы
показа телей</w>
9 5</w>
определен ные</w>
с ные</w>
приня то</w>
насе ление</w>
фе й
ба ми</w>
es s</w>
с ного</w>
С ин
ри л</w>
предоста вление</w>
t er</w>
ра ция</w>
А рави
зи но</w>
рас че
консульта ций</w>
специаль ных</w>
Г ар
режи ма</w>
пере се
веще ства</w>
держа ть</w>
ж ден</w>
По ли
оза гла
т ской</w>
м ных</w>
при е
сред нем</w>
миниму м</w>
г енераль
смер ть</w>
причи на</w>
груп пой</w>
о тель</w>
199 1</w>
Ни ко
пра ве</w>
конкре тные</w>
содержи тся</w>
дан ная</w>
взгля д</w>
инициати вы</w>
ше н</w>
вдо х
под клю
экспер ты</w>
вы рос
ю рис
ё тся</w>
ис пан
ра к</w>
ко мисси
сте ро
обнару жили</w>
нали чи
ве н</w>
уве лич
во сть</w>
внутрен него</w>
опы том</w>
об усло
се тей</w>
занима ет</w>
тер ми
В К
гово рю</w>
а м
минист ров</w>
сторо не</w>
д ные</w>
реши ли</w>
мыс ли</w>
Йор ке</w>
д вой
ско р
граждан ских</w>
медицин ских</w>
реши л</w>
Генераль ная</w>
M ar
рекоменду ет</w>
секто ре</w>
р ные</w>
н ки</w>
об щая</w>
же ле
вели чи
и н</w>
сторо ну</w>
с пас
соста ве</w>
муз ей</w>
раз решения</w>
нов ен
Сторо н</w>
Дж он</w>
цер кви</w>
буду чи</w>
ве дом
с мен
на ра
самостоя тельно</w>
требо ваниям</w>
тео рии</w>
у ди
I V</w>
чи ки</w>
К ре
разработ ка</w>
не от
природ ы</w>
пре тен
Е в
уров нем</w>
те п
у т
у мер</w>
мо к</w>
соответ ствует</w>
откры ть</w>
t h
различ ными</w>
коми сса
кла ды
бе н</w>
оста льные</w>
Ч то</w>
пере ход
бу на
вы жи
род е</w>
простран ства</w>
Нидер лан
с ке</w>
ше сти</w>
с цена
семе й</w>
про смот
6 7</w>
принци п</w>
памя ти</w>
жен ный</w>
к ты</w>
пробле мой</w>
распростра нение</w>
т вой</w>
президен том</w>
повы сить</w>
У и
кон центра
по жи
из бра
та ком</w>
ти в</w>
за рубе
регуляр но</w>
поря док</w>
ве ща
6 .
буд то</w>
вы год
те н</w>
капита ла</w>
с на</w>
собствен ной</w>
рассматри вать</w>
C .
па м</w>
ру ющих</w>
ф ар
Ш ве
и сти
много е</w>
ф ла
ника кой</w>
Рабо чей</w>
оста ются</w>
зая влении</w>
участи ем</w>
модер ни
случи лось</w>
осно вы
восстано вления</w>
приблизи тельно</w>
в перед</w>
лож ения</w>
по ведение</w>
ту ю</w>
следу ющем</w>
побе ди
про демонстри
жела ние</w>
провед ении</w>
националь ный</w>
лицен зи
пла сти
ги я</w>
фай лы</w>
й о
счита ю</w>
пользова теля</w>
сохра ня
вы ход
по иско
ствен ную</w>
миро вого</w>
Ш е
да та</w>
ПР ООН</w>
об щие</w>
кон цер
жи д
по к</w>
влен ные</w>
ком би
име л</w>
на ции</w>
вы хода</w>
ва шим</w>
у де
утвержда ет</w>
квали фици
мест ные</w>
обла сть</w>
Европей ский</w>
случа й
рован ным</w>
уве дом
т ских</w>
из ве
серд ца</w>
W or
хро ни
К ан
удо воль
О ба
действи ю</w>
ow s</w>
ро бо
приня ла</w>
извест ных</w>
ста нов
россий ской</w>
шо у</w>
т ку</w>
оче вид
Декла рации</w>
повы шен
en t</w>
ри те</w>
авто бу
следу ющим</w>
не ров</w>
те сти
ли цам</w>
I S
Испа нии</w>
полу чает</w>
СС СР</w>
современ ной</w>
времен а</w>
ту ристи
чрезвычай но</w>
роди лся</w>
Са удо
нару шение</w>
влия ния</w>
раз бира
материа л</w>
защи тить</w>
8 5</w>
поис ка</w>
то на</w>
крупней ших</w>
вос кре
W ind
o v
ти ки</w>
сокра щения</w>
проду ктив
u m
го ря
т ря
законо в</w>
ч ь
Дж ор
бо м
с формули
раз ве</w>
пла н
ката стро
би ле
конферен ция</w>
Росси ю</w>
га зе
шко ле</w>
экономи ка</w>
за служи
ве ке</w>
сро ки</w>
одна жды</w>
сай тов</w>
угро зу</w>
дви ну
пес ни</w>
составля ют</w>
праз д
ка д
юрис дик
по вед
Специаль ного</w>
прода ж</w>
про зра
предло жить</w>
провер ки</w>
па к
чи нов
у про
существу ющих</w>
защи та</w>
колле ктив
досто ин
ссы ла
способ ны</w>
слож ности</w>
россий ского</w>
К ор
L .
поко ления</w>
хоте лось</w>
второ го</w>
уверен ы</w>
контроли ровать</w>
Т ы</w>
за ча
орга н</w>
в ку
те мати
при были</w>
дж ет</w>
а де
ци и
воору женных</w>
в ходит</w>
ту ре</w>
мо ду
извест ный</w>
об е</w>
отпра вля
кри тери
догово р</w>
спосо бов</w>
со циали
о па
те та</w>
ла я</w>
М ООН
луч шее</w>
от вер
много сторон
доступ ны</w>
состоя нию</w>
не сен
описа ние</w>
ка зино</w>
со действовать</w>
теле фон</w>
A m
конфлик тов</w>
подоб ные</w>
P l
успе х</w>
про ходи
не большой</w>
ва ете</w>
Са н</w>
зда ние</w>
члена м</w>
и сте
сро ка</w>
инстру ментов</w>
деятель ностью</w>
затра ги
глобаль ной</w>
х ар
дру же
програм много</w>
ви я</w>
Э К</w>
мень шей</w>
осо зна
беремен ности</w>
ли п
тив ное</w>
про стой</w>
ющи мися</w>
пози цию</w>
молоде жи</w>
пло хо
миллиар дов</w>
реги онах</w>
опас ности</w>
обеспечи вать</w>
Ин ститу
вер нуть</w>
не до
инстру менты</w>
ту рец
С О
кон цов</w>
ле р</w>
плани рования</w>
член ом</w>
прави ть</w>
т ства</w>
Т у
эмо циональ
ил лю
Р об
укреп ление</w>
U S
изу чения</w>
смар т
соста ва</w>
наш ли</w>
ю ся</w>
ност ям</w>
на ряду</w>
Ка к</w>
В ене
му ни
свед ению</w>
с верх
1 50</w>
ре формы</w>
л ло
смыс л</w>
тер мин</w>
постепен но</w>
независи мости</w>
3 0
Wind ows</w>
ру сь</w>
вир туаль
т ский</w>
бере ж
возника ет</w>
докла дов</w>
понима ть</w>
ству ющих</w>
ЮН И
взрослы х</w>
хи ру
за плани
тель ству</w>
воз раст</w>
ва ю</w>
пунк том</w>
Програм мы</w>
иска ть</w>
ка кую</w>
треть ей</w>
луч шим</w>
ч ё
нище ты</w>
финансо вого</w>
ос ла
ен т</w>
за ми</w>
in e</w>
9 9</w>
правитель ств</w>
Ассамбле е</w>
дру гая</w>
i d</w>
ку х
воз ме
вс помога
слу жить</w>
финанси рование</w>
топли ва</w>
цен е</w>
обще стве</w>
позд нее</w>
позво лить</w>
созда ет</w>
глав ных</w>
объя с
приня ты</w>
э м
тре тий</w>
ру блей</w>
чув ство</w>
кампа нии</w>
д ри
двух годи
но вом</w>
угро зы</w>
o d
ада п
сы н</w>
основ ная</w>
под ня
Нор ве
делега ции</w>
нор м</w>
ста дии</w>
ки н
о писы
авто ри
до ходов</w>
поверх ности</w>
гла вы</w>
за й
законода тельство</w>
приш лось</w>
требу ют</w>
Х е
пунк ты</w>
специали сты</w>
обществен ности</w>
зна ко
щен а</w>
преступ ности</w>
е ва</w>
зем ле</w>
под хода</w>
согласи я</w>
фак торы</w>
оцен ку</w>
спосо бом</w>
in g
заинтере со
территори аль
би ли
ве дет</w>
дальней шего</w>
связ ей</w>
пол ное</w>
жерт в</w>
Бо л
а сси
под ходит</w>
де лу</w>
сен тябре</w>
Восто ке</w>
па ла
э й
цен ности</w>
долж ность</w>
ло е</w>
ущер б</w>
нау к</w>
буд ьте</w>
r os
M ic
органи зма</w>
Д а</w>
на шими</w>
бе се
правосу дия</w>
дости га
реш ением</w>
процес сы</w>
дан ное</w>
рас считы
с ку
те му</w>
стать ей</w>
потреби телей</w>
мор ской</w>
i t</w>
согла шений</w>
авто но
завер ши
подготов ку</w>
4 ,
озабо чен
парла мен
церков ь</w>
верси я</w>
акти вов</w>
орга на</w>
понима ния</w>
увели чения</w>
непре ры
доба вить</w>
рас смотре
предусматри вает</w>
оборо т</w>
организа цией</w>
та лан
Министер ство</w>
6 8</w>
ва кци
it y</w>
обще ственного</w>
под пис
ща яся</w>
ВВ П</w>
an d
полити ческого</w>
М ан
И К
оди но
С тра
де фици
преступ лений</w>
н ка</w>
важ ные</w>
ген о
er s</w>
ско ро</w>
американ ский</w>
хоро шие</w>
вши еся</w>
7 7</w>
виде о
про ходит</w>
друз ья</w>
т. е.</w>
рас сказал</w>
Феде раль
вы деля
ре зиден
тре во
выпол нение</w>
у худ
ли зован
пу т
безу словно</w>
Ки п
мигра ции</w>
конфиденциаль ности</w>
Гру зии</w>
форми рования</w>
A r
м нения</w>
проводи тся</w>
поис к</w>
люби т</w>
ф ин
допу ска
режи ме</w>
обзор а</w>
друз ь
Па ки
вше йся</w>
сче та</w>
му ж</w>
руковод ством</w>
источ ники</w>
напра вления</w>
ша ги</w>
вза им
послед ствии</w>
образ у
това лю
демокра тии</w>
щ ением</w>
a d</w>
мате ри</w>
дру гую</w>
ок купи
совер ши
челове чества</w>
М ы</w>
сопрово жда
говори м</w>
P r
цент ров</w>
упра ж
X X
писа ть</w>
укреп лению</w>
па три
пунк тов</w>
ли зация</w>
c ook
профессиональ ной</w>
ст ь
ш ет</w>
вя т</w>
гово го</w>
свя щен
ти ру
больш ее</w>
тре х
ан та
7 2</w>
c h</w>
лен о</w>
най ден
реш ению</w>
част ных</w>
бю джет</w>
ли чно</w>
высо кие</w>
бра ть</w>
по жела
выбро сов</w>
разви тых</w>
ли бе
значи тельной</w>
ни ке</w>
зая вила</w>
Международ ная</w>
професси она
u m</w>
ла гер
ме сто
дека бре</w>
На род
са ха
Верхов ного</w>
ма е</w>
американ ской</w>
Со циаль
ко жи</w>
обеспоко ен
ме три
диало га</w>
обще м</w>
иг ры
приня тых</w>
ин дек
вопро сах</w>
at ion
а ре
мо ле
о фор
ц ом</w>
ж ет</w>
филь ма</w>
ж ности</w>
Ира на</w>
неф ть</w>
д жа
предотвра тить</w>
медицин ской</w>
пар к</w>
стра ной</w>
нару шений</w>
потреб ления</w>
резолю ция</w>
Бела русь</w>
результа том</w>
ж ё
Фин лян
мо их</w>
ию не</w>
кризи с</w>
жд ению</w>
дума ете</w>
пом ните</w>
случа й</w>
Т ри
ер ы</w>
американ ские</w>
л до
внеш ней</w>
ба зе</w>
па ль
вой не</w>
F or
су пру
Та й
заседа ния</w>
гражда ни
каждо е</w>
серьез ные</w>
партне рами</w>
механиз м</w>
a t</w>
экономи ке</w>
де парта
при держи
оказыва ет</w>
о пять</w>
работо да
дове рия</w>
сезо н</w>
ва ясь</w>
груз ки</w>
суще ственно</w>
ги е</w>
принима ют</w>
д ят</w>
О Б
механиз мы</w>
рас строй
челове ку</w>
Конститу ции</w>
o g
про цент
учиты вать</w>
нен ы</w>
Фран ция</w>
крип товалю
по неде
сторо нами</w>
мог ло</w>
ри на</w>
до ле
с ра
горо дах</w>
револю ции</w>
технологи я</w>
со в
ви ло</w>
пя ть
администра ции</w>
те мы</w>
нен а
il l
бы вает</w>
по дели
рели гии</w>
o s</w>
государ ству</w>
в шего</w>
управля ть</w>
вер а</w>
Министер ства</w>
в ных</w>
в последствии</w>
пре вос
ко ра
хо дом</w>
заня тости</w>
препода ва
си т</w>
со проти
уч ени
и бо</w>
R A
вита ми
цион ное</w>
не уда
отлича ется</w>
вклю чить</w>
ту р</w>
зая вили</w>
за х</w>
страни цы</w>
Арм ении</w>
са ли
ъ ез
сот ни</w>
представля ть</w>
име ю</w>
Зако на</w>
i f
современ ные</w>
за работ
Сан кт</w>
сотрудниче ству</w>
ви зу
допол нение</w>
зо й</w>
возмож ных</w>
пу ль
част ей</w>
пос ла
пос т</w>
выбо ра</w>
комплек с</w>
спосо бы</w>
име ющих</w>
кон цу</w>
ми ю</w>
но доро
аспек ты</w>
2 8
с да
начина ет</w>
диа па
докла ды</w>
совме сти
Дж о
ц о
сокра щение</w>
осуще стви
дан ными</w>
мар те</w>
специ фи
предотвра щения</w>
изобра жения</w>
недвижи мости</w>
рай онов</w>
энерги ю</w>
зна я</w>
ле ги
зна ли</w>
тифика ции</w>
вой ну</w>
веду щих</w>
ров ка</w>
подготов ка</w>
Г ло
посе тить</w>
про явля
поте ри</w>
га н</w>
Еги п
ти ческих</w>
догово рен
подо зре
рь е
1 000</w>
актив ности</w>
ито гам</w>
i l</w>
ту га
емо м</w>
широ кий</w>
ван ные</w>
Англи и</w>
со хранения</w>
обра баты
5 ,
с ны</w>
руковод ства</w>
пись ма</w>
существо вания</w>
боро ться</w>
навер ное</w>
приш ли</w>
моле ку
от ца</w>
вла ст
при ну
U n
ли на</w>
законода тельством</w>
ко фе</w>
серьез но</w>
ме рах</w>
вто рая</w>
информа ционных</w>
оке ан
сообщи ли</w>
заклю чения</w>
ля ми</w>
следу ющее</w>
фи гу
д жа</w>
не официаль
u p</w>
пред ше
емы ми</w>
пять десят</w>
про сто
А .</w>
полу чен
осно ва
сум ма</w>
у мер
чув стви
су ти</w>
E n
a k
по бо
и ной</w>
не достаточ
производи телей</w>
влен ной</w>
деся ти</w>
то рами</w>
не достаточно</w>
шен ы</w>
ин струк
ма й
обра з</w>
чу ть</w>
продолжа ют</w>
аде ква
дей ствуют</w>
про йти</w>
вероя тность</w>
ли цами</w>
О лимпи
собствен ных</w>
экономи ческий</w>
ды ха
бо ли</w>
все сторон
желез нодоро
си ло
Шта тах</w>
с хе
А ль</w>
при вод
важ ный</w>
беспла тно</w>
Исла м
повы шению</w>
лиде ров</w>
ко вых</w>
ста м</w>
воен но
ля ция</w>
государствен ные</w>
ье т
остано вить</w>
ново сти</w>
ф ру
ос мо
ви нов
выполни ть</w>
основ у</w>
нор мы</w>
послед стви
Кон гре
живе т</w>
двадца ть</w>
во де</w>
of t</w>
граждан ской</w>
У ВК
жа ется</w>
клиен та</w>
прилож ений</w>
к ля
ин у</w>
ти ка</w>
тво ри
име ются</w>
пита ние</w>
Моск ва</w>
вос ь
заседа ний</w>
А раб
ин ци
повсе днев
я н</w>
a z
реги онов</w>
вто рых</w>
со на</w>
до вери
ме л
Трам па</w>
уголов ного</w>
тео ре
в ного</w>
учеб ных</w>
х ло
выра жает</w>
рован ная</w>
в че
Бо ль
улуч шение</w>
сохра ни
0 5</w>
Ис полни
рова я</w>
ма шин
Г он
жи ла</w>
ма ма</w>
х ла
кла д
не одно
аль бом</w>
Сове том</w>
необходи мы</w>
капита ли
тысяче летия</w>
н ё
e g
культур ных</w>
воору жен
к г</w>
пред почита
автомоби ля</w>
све те</w>
влия ет</w>
созда н</w>
каждо му</w>
Запад ной</w>
н ского</w>
учен ых</w>
направлен ных</w>
услови и</w>
обра ща
ста тей</w>
до не
худо же
специаль ные</w>
по береж
отве ты</w>
те рии</w>
те пло
стратеги й</w>
лич ные</w>
проц ве
наме рен
от казыва
прове л</w>
с се</w>
за мен
максима льно</w>
га л
о ло
ноя бре</w>
ж ом</w>
мужчи на</w>
учре жден
участ ника</w>
дости жение</w>
вы зо
плани рует</w>
над зор
вы йти</w>
ти пов</w>
C O
вы игра
ро с</w>
ассоциа ции</w>
у мира
но сят</w>
прибы ль</w>
u d
аль бо
от чет</w>
Бела рус
жи тели</w>
рабо чая</w>
наличи и</w>
ти ями</w>
програм мам</w>
SE O</w>
а ресто
цело ст
тель ствах</w>
о сторо
ле том</w>
эффектив ной</w>
части чно</w>
опти ма
In ter
сбо ра</w>
собствен ный</w>
ба х</w>
янва ре</w>
ка мен
обрати ться</w>
ок тябре</w>
ф она</w>
тек ста</w>
ко ль
де те</w>
ля ют</w>
понима ю</w>
навы ки</w>
не ц</w>
и ран
соответству ющим</w>
бо ли
филосо фи
Па ле
Зем ле</w>
ней ро
до стой
об мен
ба та
ско в
материа ла</w>
огром ное</w>
е мую</w>
сер ва
ар мя
Г ен
з и</w>
р г
механиз ма</w>
ру сали
челове ческого</w>
приве ло</w>
Е ЭК</w>
пор та
щ у</w>
шан с</w>
инвесто ров</w>
ви це</w>
привет ствует</w>
ж ем</w>
атмо сфер
зо н</w>
М С
инци ден
предлож ений</w>
част от
об следо
ди ни
вер но</w>
сай ты</w>
с ли</w>
Ко лу
совеща ние</w>
санк ций</w>
расследо вания</w>
п лю
от куда</w>
россий ские</w>
помога ют</w>
пере вод</w>
ост ров</w>
зо к</w>
лич ных</w>
ключе вые</w>
ре шать</w>
Ти хо
ни це</w>
С уда
опреде ли
по на
Д жи
ро з
счита ем</w>
ве л</w>
пользова тели</w>
во вле
иг ру</w>
источ ником</w>
с выше</w>
глобаль ного</w>
регули рования</w>
мониторин га</w>
оцени ть</w>
заклю чение</w>
пе в
вы ста
ви на</w>
про све
смо г</w>
занима ется</w>
рабо чие</w>
ос на
Кали фор
фунда мента
7 .
отве чает</w>
Ч и
инте гри
способ ствует</w>
а лле
про екти
С Н
пример у</w>
моде лей</w>
агент ство</w>
допу сти
спор т</w>
ци па
экспор та</w>
рекоменду ется</w>
служ б</w>
санк ции</w>
кни гу</w>
глав ной</w>
те ря
а ми</w>
Про токо
о зер
ближай шие</w>
да ты</w>
пыта ется</w>
ак ции</w>
ня ми</w>
ко миссия</w>
да вления</w>
следу ющего</w>
сооб щений</w>
мл р
опла ты</w>
7 3</w>
де пута
Р О
Ие русали
применя ть</w>
пи я</w>
до веря
д ный</w>
es t
акаде ми
об станов
м ные</w>
в ьте</w>
инстру мент</w>
цион ную</w>
высо ких</w>
сум мы</w>
И И</w>
при шел</w>
сред него</w>
до мо
У ста
но ри
E x
представля ется</w>
мер т
ё з
ни ям</w>
ти ческие</w>
правитель ству</w>
ла дно</w>
разде л</w>
T h
Йор к</w>
ма на</w>
К Н
приве ден
ке р</w>
сель ского</w>
секретариа т</w>
у тра
конкурен то
ре цеп
A S
пре зен
предста влен</w>
ради ка
проек ту</w>
пред стоя
ку ра
жиз нью</w>
ту ру</w>
публика ции</w>
важ ной</w>
a s</w>
е мости</w>
млр д.</w>
быв ший</w>
сред ствами</w>
д вое</w>
со во
торго вых</w>
ть я</w>
груп пи
воен ного</w>
у полномо
6 9</w>
не медленно</w>
6 00</w>
пери од
поло жить</w>
на ла
СП ИД
сооб ща
вы чис
рабо той</w>
вне сти</w>
буду щих</w>
Ба л
Фи лип
при гово
рын ки</w>
из ви
бак тери
кан чи
юще му</w>
право вых</w>
В А
сдела но</w>
вы вод</w>
ресур сами</w>
хоро шая</w>
покуп ки</w>
лет него</w>
право м</w>
поста вки</w>
тури стов</w>
у ж</w>
стреми тся</w>
жда ет</w>
сти ческой</w>
неф тя
прове рить</w>
фар ма
С ло
учрежд ениями</w>
подоб ных</w>
стол кну
с вер
серви с</w>
раз работать</w>
игра ют</w>
обще ственной</w>
те ми</w>
ни ж
вой ска</w>
до хода</w>
чет ко</w>
отме тила</w>
миро вых</w>
по тря
ис пра
кто ром</w>
ре ж
утвер жден
пи шет</w>
фо не</w>
ядер ной</w>
завер шения</w>
корре кти
апре ле</w>
бе ль</w>
Ди ре
пос ы
направлен ные</w>
се риа
контроли ру
ра сти</w>
ва емые</w>
физи ческих</w>
ко вой</w>
Фон да</w>
друго му</w>
представи телями</w>
Господ ь</w>
го дом</w>
Казах стана</w>
ак ций</w>
испол нение</w>
право защи
ки но
энергети ки</w>
един ственным</w>
по ла</w>
Афри кан
Про ду
доро ги</w>
нара щи
г ла</w>
мор ских</w>
М В
пунк ту</w>
ста и
отказа ться</w>
площад ь</w>
декла рации</w>
ко ст
оказа ние</w>
конструк ции</w>
стре м
у тром</w>
наблюд ения</w>
стратеги я</w>
сред ство</w>
ис к
сказа но</w>
муни ципа
Ира ка</w>
мир ного</w>
памя т
ле ген
в ные</w>
за пол
харак тер
Г ра
иг нори
П ен
до ход</w>
распростра ня
студен ты</w>
спор т
профессо р</w>
Ка ри
из нача
Ф ор
С Е</w>
D e
особ о</w>
Интер нете</w>
сово куп
выз вать</w>
доказа тельства</w>
объек ты</w>
институ т</w>
агент ства</w>
раз решение</w>
за дол
ви жу</w>
ию ле</w>
Вто рой</w>
поез дки</w>
к ции</w>
о хот
использо вали</w>
нов ение</w>
пере числен
ст р</w>
разработ ку</w>
перспекти вы</w>
мо ю</w>
круп ные</w>
мест ного</w>
хо ждение</w>
дире ктора</w>
лю бая</w>
род ствен
инду стрии</w>
оте че
Беларус и</w>
ство вала</w>
стандар ты</w>
лиц ом</w>
тера пии</w>
зав тра</w>
раз ры
фай лов</w>
цен тром</w>
специаль но</w>
ar t
ча т</w>
объе ме</w>
бан ков</w>
указа нных</w>
бло к
пла нов</w>
замести тель</w>
во семь</w>
К ры
шта т</w>
осно вания</w>
ста я</w>
остров е</w>
Дж он
6 ,
вра ч</w>
по тра
в ходят</w>
раз ъя
лич ной</w>
цен три
стату са</w>
сен а
СК О</w>
А й
исследо вании</w>
дево чек</w>
объя снить</w>
ё н</w>
с се
балан си
еди но
Догово ра</w>
вля ют</w>
участ никами</w>
Е Н
то ли
созда на</w>
гла ве</w>
оружи ем</w>
вариан тов</w>
Э р
компа нию</w>
хран ение</w>
ка ком</w>
за канчи
исход я</w>
техни ческие</w>
убе жи
т ке</w>
обо их</w>
располо жен</w>
полномо чий</w>
органи зм</w>
ст ины</w>
игро ков</w>
с ный</w>
мо раль
o p
причи нам</w>
коло ни
cook ie</w>
встре ти
по говорить</w>
предоставля ть</w>
принима я</w>
в шим</w>
за п
служа щих</w>
изве стен</w>
Организа цией</w>
тури зма</w>
a m</w>
ну л</w>
дол ю</w>
осно вы</w>
вариан ты</w>
Бе ль
охра ни
Азербайджа на</w>
Х ор
демон стра
следу ющей</w>
посети телей</w>
пере смот
при лага
строй ки</w>
пробле мам</w>
Роб ер
ото бра
вос пользоваться</w>
обеспе чении</w>
По стоян
C on
прав у</w>
инициа тив
па то
лен ные</w>
консу льти
со стои
не которое</w>
вя за
гражда не</w>
тель ному</w>
контен т</w>
сти му
ди н</w>
кни г</w>
0 6</w>
на считы
ги ган
сни жения</w>
опу хо
тра фи
ча сы</w>
музы ка</w>
региональ ные</w>
под чи
урегули рования</w>
не су
современ ного</w>
т т</w>
г не
к нуть</w>
об ши
ви в</w>
пол ном</w>
удиви тельно</w>
о чи
понеде льник</w>
ри сков</w>
су э
ак цио
до мини
обще ственных</w>
треть их</w>
бу х
о хран
сле дить</w>
провер я
сти ль</w>
вос па
заседа ние</w>
лан дия</w>
американ ского</w>
региональ ном</w>
н ский</w>
ве са</w>
объе ктив
пози ция</w>
возмож ным</w>
стре мя
систе мати
Л ат
фору ма</w>
рас сказать</w>
Националь ного</w>
по ля</w>
чув ства</w>
раст ет</w>
жи ли
ра циональ
тя т</w>
испыта ния</w>
ar d</w>
от кло
же ли</w>
мето ди
ра ство
с можем</w>
Ре й
сотрудни чать</w>
Май к
со образ
М ер
Но вости</w>
сбо р
П ак
па тен
на циона
198 0</w>
н но</w>
выпу сти
случа и</w>
ле вой</w>
пи щи</w>
о ра
состои тся</w>
под лежа
вопро сами</w>
до к
за гру
Mic ros
отчет ности</w>
сен су
C l
ти пы</w>
на ту
настоя щим</w>
территори ю</w>
принад лежит</w>
с не
болез нь</w>
международ ному</w>
ограни чений</w>
пы ток</w>
ш ку</w>
возмож ное</w>
оказа ть</w>
середи не</w>
утвер ждения</w>
Мис сии</w>
попы тки</w>
о гово
существо вание</w>
моз г</w>
соответству ющими</w>
б ен
иг ре</w>
го спо
право охрани
част ного</w>
коро лев
7 6</w>
ло жить</w>
на це
ве т
тран зи
рен ь</w>
s e</w>
0 .
се дь
практи ка</w>
х уже</w>
ы рг
еха л</w>
од ному</w>
ырг ы
Моск вы</w>
отра сле
7 1</w>
выбо рах</w>
не что</w>
са ни
пя ти
в роде</w>
использо ванию</w>
вопро сом</w>
де р</w>
П К</w>
по йти</w>
кон сенсу
воен но</w>
Япо ния</w>
дизай на</w>
р ного</w>
интере су
искус ство</w>
бо р</w>
чи л</w>
офор м
продол жить</w>
набо р</w>
Х у
получи те</w>
на ка
памя ть</w>
запис ь</w>
види т</w>
0 2</w>
отсут ствия</w>
ста нут</w>
фак ты</w>
ч ём</w>
проек те</w>
ве ло
вы воды</w>
Б ра
имуще ства</w>
да ния</w>
соответству ющей</w>
си д
государствен ный</w>
зло употреб
шко лу</w>
чемпи она
су пер
зача стую</w>
бю ро</w>
ди ться</w>
концеп ции</w>
в шей</w>
замеча ния</w>
разви вать</w>
Европей ской</w>
дела ем</w>
борь ба</w>
А т
информа ционно</w>
защи щены</w>
снизи ть</w>
крат ко
обла дают</w>
фо ку
выпу ска
насла жда
собствен ного</w>
G ro
т ство</w>
Демокра тической</w>
начина ют</w>
в следствие</w>
син те
специаль ной</w>
компью тер</w>
Micros oft</w>
бо й
An d
де м</w>
I P</w>
си лами</w>
га з</w>
мас сы</w>
верну лся</w>
сло жи
моби льных</w>
нен ави
те с
англий ский</w>
оказа нию</w>
P .
су щ
в веден
проводи т</w>
ыргы з
применя ется</w>
Колу мби
по строить</w>
те ори
протоко ла</w>
персона льных</w>
а зиат
меня ть</w>
тив ная</w>
обра тно</w>
ве щ
отды ха</w>
те ма</w>
а ф
Но вой</w>
те ле</w>
структу ра</w>
долж ностей</w>
эта п</w>
оказа лись</w>
разли чия</w>
Ph one</w>
разору жения</w>
бе рите</w>
по ш
са мо</w>
г г.</w>
Упра вления</w>
диало г</w>
го сла
десяти летия</w>
спосо бен</w>
вер ени
не с</w>
В се</w>
с прави
хо ть</w>
ди ла</w>
P ro
ва ющей</w>
Э С</w>
ко вые</w>
при гото
язы ках</w>
вос ста
обяза ны</w>
па не
Гло баль
предупре ждения</w>
уч ё
Влади мир</w>
есте ственно</w>
0 4</w>
ошиб ки</w>
пробле мами</w>
подчерки вает</w>
ар ти
Н е</w>
под нима
мо нии</w>
за вод</w>
официаль ный</w>
посо би
взно сов</w>
Бол га
це ре
рис ки</w>
ми не
Организа ция</w>
те ме</w>
Та и
предлага ется</w>
дости жению</w>
ЮНЕ СКО</w>
ссы лки</w>
ю щаяся</w>
програм ми
раз би
откры тие</w>
фору м</w>
рын ках</w>
наро до
ва шему</w>
ме стом</w>
д ного</w>
двига ться</w>
мета л
пол ную</w>
вши йся</w>
ро ванием</w>
се г
б лю
диску сси
об уча
послед него</w>
та ния</w>
институ та</w>
гуманитар ной</w>
шко ла</w>
формиро вание</w>
иск рен
су верени
финан сов</w>
догово ров</w>
член а</w>
Иису с</w>
цион ными</w>
л ке</w>
кни ге</w>
2 9
труд ности</w>
ядер ных</w>
вече ром</w>
со рев
ж ным</w>
приня тые</w>
лю бую</w>
люб ят</w>
сторо на</w>
до ль
при ви
согласи е</w>
террори зма</w>
разде ле</w>
писа л</w>
предполага ет</w>
ка з</w>
I C
t he</w>
установ ки</w>
предлага ют</w>
обви ня
регули ру
внутрен ней</w>
прео доле
д нем</w>
откры тия</w>
возмож ные</w>
определя ет</w>
голосо вания</w>
удо сто
тор говой</w>
ле та</w>
па ке
неф те
указыва ет</w>
многочислен ные</w>
и ть</w>
плат формы</w>
g e</w>
физи ческой</w>
международ ный</w>
оста ться</w>
свидетель ствует</w>
ки н</w>
7 4</w>
потребу ется</w>
0 9</w>
и ных</w>
O S</w>
кре ст
ф анта
ди н
ноч ью</w>
встре ча</w>
сооб щении</w>
чен ный</w>
h t
ч ку</w>
институ циональ
бе ско
электро нных</w>
Кана ды</w>
се ктор</w>
О фи
ж ени
жен ной</w>
кра тно</w>
напра вл
л ла
чи ться</w>
Александ р</w>
0 8</w>
со един
женщи нам</w>
сво ё</w>
ф рон
ок купа
спро с</w>
Коре я</w>
меж правитель
бро ни
тин ской</w>
наказа ния</w>
не ры</w>
су ди
жа я</w>
исла м
отде льные</w>
англий ском</w>
О П
три дца
заме дли
музы ки</w>
ка ра
еже днев
интер фей
спон ден
Ближ нем</w>
ма стер
хоро шее</w>
i k
реж ис
коми ться</w>
за креп
служ ба</w>
разме ра</w>
стоя ть</w>
заво е
дне вно</w>
Тур ция</w>
россий ский</w>
высо ко</w>
рабо чего</w>
стра ш
сде лки</w>
у кре
высо кая</w>
американ цев</w>
тер пи
шта б</w>
8 6</w>
работ ки</w>
осве дом
партнер ства</w>
су до
слыша л</w>
полови ны</w>
оказа ться</w>
до мов</w>
Всемир ного</w>
моли т
зав тра
цен ность</w>
кла сс</w>
по прав
Э сто
ру ках</w>
ма ло
расска зыва
слы шать</w>
цен у</w>
испыта ний</w>
ста ди
со ору
у ль
шта та</w>
име ем</w>
свобод ной</w>
ле та
пар у</w>
Н ет</w>
Ин дия</w>
ки но</w>
лет них</w>
рам ки</w>
полож ениями</w>
Э й
el l
нен но</w>
то вой</w>
пред положи
террори змом</w>
ж о
ва ющий</w>
Сол н
каза лось</w>
действи тельности</w>
r an
выс шем</w>
ля ется</w>
защи щать</w>
по ст
u c
программ ное</w>
Чер но
предло жил</w>
це лый</w>
бан ки</w>
поддержа ния</w>
теле вид
общи н</w>
совер ша
февра ле</w>
ри ей</w>
Комите том</w>
ущер ба</w>
ме тра
В Т
мла д
клиен ты</w>
ван ной</w>
вче ра</w>
служи т</w>
ж ная</w>
пред стоит</w>
ча ют</w>
мо шен
организа цию</w>
I N
ь ем</w>
вля ется</w>
плани ру
ствен ном</w>
рован ными</w>
сдела ла</w>
об щую</w>
перспектив е</w>
хоче тся</w>
Ар ген
Председа тель</w>
об ли
дальней шем</w>
чита йте</w>
прове ли</w>
Ин доне
маши на</w>
стар ше</w>
второ е</w>
присут ствие</w>
0 3</w>
медицин ского</w>
глобаль ных</w>
не избе
л .</w>
ф ра
меха ни
потреб ление</w>
тради ции</w>
диа бе
эффектив ных</w>
при ез
нужда ется</w>
пер ви
наз вал</w>
глубо ко</w>
призна ть</w>
пыта ются</w>
скоро сти</w>
шен ных</w>
за ря
оста лось</w>
ад жи
дру гу</w>
зо на</w>
мо му</w>
не совершен
Цер кви</w>
в ступа
обеспокоен ность</w>
Р И
Объ единен
го ль
со обра
бе ли</w>
приве дет</w>
звез ды</w>
7 8</w>
националь ным</w>
тор у</w>
нало гов</w>
Ком па
резолю цию</w>
региональ ного</w>
не прия
еже дневно</w>
реаль ности</w>
Таи лан
Ли т
обсу ждение</w>
извест ны</w>
пра вки</w>
се те
реаль ность</w>
ВО З</w>
отве тить</w>
досто примеча
er s
Би бли
реб ё
ней тра
блок че
во дой</w>
выступа ет</w>
ми т</w>
ко ри
с ви
Ир ландии</w>
раз говари
хо л
по са
Пе ре
бли же</w>
женщи нами</w>
первонача льно</w>
взаимо действие</w>
рай он</w>
щу юся</w>
убий ство</w>
реги он</w>
1 20</w>
пред ска
эле мен
авто ры</w>
компонен тов</w>
эффектив ным</w>
Х и
бо вать</w>
г ну
деву шка</w>
находи ться</w>
обо зна
0 7</w>
простран стве</w>
оконча ния</w>
вы ска
преду прежд
фо в</w>
мене дже
значи тельное</w>
по дума
актив ность</w>
авто ра</w>
утвержда ют</w>
си лой</w>
хими ческих</w>
В ьет
Ко мисси
7 ,
ЮНИ СЕ
поста вок</w>
про куро
жи е</w>
мен ти
про меж
наде емся</w>
Гре ции</w>
ЮНИСЕ Ф</w>
реак ции</w>
площа ди</w>
Швейца рии</w>
вой ск</w>
автомати чески</w>
связа на</w>
но выми</w>
улуч шению</w>
оказа лось</w>
сто к</w>
эк спо
рован ное</w>
К ыргыз
практи ку
наз вать</w>
оказыва ется</w>
определя ется</w>
па рень</w>
до чь</w>
э р
за тро
чрез мер
экспор т</w>
милли оны</w>
обла стей</w>
Лондо не</w>
океа на</w>
клиен там</w>
плани руется</w>
Ка м
в ступи
от ходов</w>
учи ться</w>
инвали дов</w>
пользова тель</w>
организа циям</w>
д ь</w>
обеспечи вают</w>
грани ц</w>
w it
пара лле
то вых</w>
и на</w>
работа ли</w>
доста вки</w>
спис ке</w>
валю ты</w>
низ ким</w>
судеб ных</w>
прекра тить</w>
разо ча
убий ства</w>
Мо лдо
созда л</w>
комму ни
напря мую</w>
умень шить</w>
следо вать</w>
вто ром</w>
раз вер
предоста влении</w>
внутрен ние</w>
количе ством</w>
сорев но
тель ны</w>
провед ению</w>
бу к
совеща нии</w>
ре ки</w>
I X</w>
ст ской</w>
чувству ю</w>
ма лы
озабочен ность</w>
да вай</w>
i b
авгу сте</w>
не сом
ти те</w>
ба ш
находя щихся</w>
меньшин ств</w>
привет ству
вне сен
призна ние</w>
пар ти
щи ков</w>
производ стве</w>
вла стей</w>
под разуме
Тур к
значи тельные</w>
Н ПО</w>
опла чи
о ли
си ри
функциони рования</w>
принад ле
про шед
об ез
9 6</w>
настояще м</w>
ста ти</w>
реали зу
вдох но
им пера
Зако н</w>
А ссо
8 00</w>
ро к
поз дра
пе рии</w>
й ском</w>
ак тов</w>
фа бри
но мера</w>
ва лен
соблюд ение</w>
Проду кты</w>
приобре сти</w>
9 8</w>
га пу
ви зо
созда ли</w>
обязан ностей</w>
W E
появи лись</w>
i Phone</w>
беспоко й
продолжи тельность</w>
коммер ческих</w>
экономи ку</w>
природ ных</w>
2 50</w>
д ку</w>
вер ы</w>
производи тель</w>
ш ка
ти ческого</w>
свое времен
вод ных</w>
основ ными</w>
М аль
удовлетво рения</w>
независи мость</w>
поощ рения</w>
ли зи
обе их</w>
доклад чик</w>
Националь ной</w>
предлага ем</w>
ве рить</w>
ти пи
дета ли</w>
кров ь</w>
изу чение</w>
К ла
ми стер</w>
про возгла
помо гут</w>
юриди ческих</w>
цифро вой</w>
ди е</w>
экономи ческим</w>
кон гре
язы ков</w>
территори й</w>
анали зи
го стей</w>
В .</w>
природ е</w>
зна ком
мо били</w>
шко л</w>
изнача льно</w>
ли ш
Ра й
раст ений</w>
осно вана</w>
т ё
и дей</w>
возник новения</w>
фай л</w>
га лакти
содержа т</w>
путеше ствие</w>
лидер ы</w>
ви га
пациен та</w>
Б рю
заинтересован ных</w>
ву а
спро са</w>
страни це</w>
спа са
ма ли</w>
из ме
подтвержда ет</w>
пар тия</w>
ос лож
клу б</w>
превы шает</w>
ь ер
ф ен
уби ть</w>
Ф ло
пере смотрен
Б ен
вещ ь</w>
за ли
иден ти
лиде р</w>
целе сообраз
пребы вания</w>
Gro up</w>
борь бу</w>
гла з</w>
темпера тура</w>
произо йдет</w>
жду ю</w>
провин ции</w>
со поста
из вле
прилож ении</w>
привле чь</w>
широ кого</w>
соб людать</w>
Уи ль
Офи циаль
за рабаты
поддер жать</w>
университе те</w>
оцен кам</w>
ги дро
вели коле
констру ктив
Евро па</w>
ре форм</w>
упра влению</w>
утвер ждение</w>
объек т</w>
Ad d
ation al</w>
ДН К</w>
бу ква
доказа тельств</w>
с нима
дополни тельной</w>
за л</w>
Все ленной</w>
тран за
поли ция</w>
ва ку
К А
сред ний</w>
обнару жи
не в
конфлик т</w>
ря де</w>
чен ного</w>
Ру мы
неот ъ
не ожи
ни ли</w>
V I</w>
конкурен ции</w>
к стати</w>
3 D</w>
раз ница</w>
ка ждую</w>
неотъ емле
Э й</w>
ра д</w>
руководи телей</w>
наимен ее</w>
сы на</w>
комисса ра</w>
вы во
приня т</w>
оста вить</w>
спа сти</w>
сче те</w>
препара тов</w>
рубе жом</w>
энерги я</w>
кажд ые</w>
собы тие</w>
воскре сен
зем лю</w>
пе л
же л
рай она</w>
вра чи</w>
аспек тов</w>
заста вить</w>
сфе рах</w>
ра ды</w>
манда та</w>
Inter n
возобно вля
вла д
отме тили</w>
при ро
раз реш
асси гно
Г ор
го вых</w>
отве тил</w>
Президен та</w>
авто р
противо полож
торговл я</w>
голо с</w>
за м
плане те</w>
о пира
ро жда
при ходит</w>
Са й
8 .
собствен ную</w>
комплек са</w>
бо я
би ть</w>
тур ни
контро лем</w>
ру я</w>
гото ва</w>
ка лен
ак цен
Р Е
из уч
во зна
вы воду</w>
Университе та</w>
у лы
вид ят</w>
опас ность</w>
К ли
Г И
высо кую</w>
в ходя
фо нов</w>
мо ди
э п
прось бой</w>
встре че</w>
от мен
Вене суэ
кар та</w>
цик ла</w>
поня л</w>
друзь ями</w>
оказа лся</w>
послед ней</w>
тер мина
обно вления</w>
па ри
остро вов</w>
ува жа
А ген
сем ью</w>
э ль</w>
поня тия</w>
сель ских</w>
сты х</w>
связа н</w>
сооб щ
вступ ления</w>
ка би
ска чать</w>
многи м</w>
доб ро</w>
Ассо циа
М ор
руководи тель</w>
на оборот</w>
руководя щих</w>
свобо да</w>
рас смотри
вы ход</w>
И о
зна ние</w>
мо им</w>
ра ться</w>
посмотри те</w>
осно вой</w>
миллиар да</w>
тща тельно</w>
пон рави
лож ение</w>
пунк тах</w>
лекар ства</w>
инициати в</w>
нача лась</w>
изу чить</w>
необходи мым</w>
ра тифици
темпера туры</w>
тео рия</w>
я д
по хи
8 7</w>
гаран тии</w>
Ассамбле ей</w>
слу шать</w>
зе р</w>
C or
суб бо
указа но</w>
говари ва
соста вил</w>
призна ет</w>
беспоко и
ру б
Б ос
7 9</w>
пассажи ров</w>
о во
ситуа циях</w>
евре ев</w>
справедли вости</w>
проис ходят</w>
устано вления</w>
восстано вление</w>
полу ченные</w>
8 8</w>
це в
мо не
Т ор
осуществля ет</w>
бух гал
граждан ства</w>
реа били
рейтин г</w>
расо вой</w>
ма лых</w>
чен ным</w>
распреде ления</w>
рабо ти
сокра тить</w>
ми н
магази н</w>
расследо вание</w>
стра х</w>
ши те</w>
р .</w>
у год
тенден ции</w>
замени ть</w>
се ми</w>
объя вил</w>
воору жений</w>
челове ческой</w>
постоян ного</w>
ве т</w>
тво я</w>
Т ре
Д ень</w>
Д он
интенси в
h t</w>
тер п
беско не
гаранти ровать</w>
в ве
чи х</w>
соответству ющего</w>
л ениях</w>
мето до
ар би
Кон го</w>
насили е</w>
без работи
гра мо
парла мента</w>
рын ков</w>
прожи вания</w>
сте ре
структу р</w>
сталки ваются</w>
С во
стро м</w>
ч ом</w>
ro id</w>
воз ь
полити ческим</w>
официаль ных</w>
стол к
де ль
опас ных</w>
прош лой</w>
судеб ного</w>
чи ком</w>
вырази л</w>
ра н</w>
ко рей
те ров</w>
ожи дать</w>
Ч ар
бо ра</w>
зда ний</w>
тя брь</w>
показа л</w>
сосе д
в води
воз бу
се р</w>
став ку</w>
ми ли
Т аджи
появи лась</w>
един ственная</w>
кон тей
ван ный</w>
во пло
основ ное</w>
соеди нения</w>
не ё</w>
д ве
говори те</w>
перевоз ки</w>
Ф ору
е ю</w>
измер ения</w>
ми ром</w>
приня тии</w>
объек та</w>
им пери
Ита лия</w>
двер и</w>
С И
про ще</w>
ри су
гло ба
угро зой</w>
из лу
Кари б
созда ны</w>
приз вал</w>
ЮН К
слыша ли</w>
инфек ции</w>
поня тно</w>
в виду</w>
пре образо
Вен г
ве й</w>
посо ль
гу бер
те сно</w>
суб си
сни л</w>
i es</w>
обяза тельство</w>
кур се</w>
повто ря
обстоя тельствах</w>
C N
очеред ной</w>
ар хе
од ни</w>
H ot
ст о</w>
ло ша
фи ли
ко вод
затра т</w>
наркоти ков</w>
работа ющих</w>
упа ко
т ские</w>
Великобрита ния</w>
резолю цией</w>
хоро шим</w>
меди а</w>
Сер би
стра жей</w>
ска ми</w>
связа нной</w>
си пе
пе н</w>
по правки</w>
бра к</w>
участ ником</w>
аэропор т</w>
мир ных</w>
развер ты
институ тов</w>
жд ением</w>
маши н</w>
да ст</w>
О к
Цен тра</w>
расши рить</w>
разуме ется</w>
свой ства</w>
Восто ка</w>
ec t
характеристи ки</w>
Син гапу
кор пу
пе р</w>
к но
дела л</w>
дума ешь</w>
попро бу
an t
фи на
филь мы</w>
б ин
шен а</w>
культу ра</w>
г ей</w>
стать ю</w>
ближай шее</w>
юще еся</w>
ра си
до говори
устойчи вому</w>
ти ческая</w>
по гло
к рова
бес плат
напомина ет</w>
Ми ха
за ку
не измен
Сове ту</w>
оста нется</w>
лег че</w>
B e
об о</w>
организ ме</w>
пере чень</w>
един ственное</w>
напра вление</w>
втор ник</w>
у ст
Ла тинской</w>
ou n
авто ров</w>
слож ных</w>
кро во
у бы
ц ес
балан с</w>
ме ров</w>
разру ши
с баланси
сти хи
ис ключа
й ных</w>
Т ан
пис и</w>
сезо на</w>
про информи
и р
Таджи ки
Согла шения</w>
сло м</w>
вед ений</w>
8 2</w>
Ка та
197 0</w>
в ни
9 .
предполага ется</w>
запро с</w>
не прави
отзы вы</w>
фор му
несом ненно</w>
н ном</w>
нару ш
а на</w>
Б ю
вре мен</w>
я вно</w>
д ю
вело сипе
ра но</w>
Брази лии</w>
And roid</w>
8 3</w>
каж у
9 7</w>
определен ной</w>
во все</w>
1, 5</w>
i o</w>
а х</w>
тель ностью</w>
Л ан
иско рен
за ранее</w>
пор т</w>
дела ли</w>
ар гу
A R
сек с</w>
логи я</w>
ста ро
от кро
сла бо
да вать</w>
религиоз ных</w>
ор би
дру ж
графи и</w>
кур сы</w>
медици ны</w>
со знания</w>
экспери мента
К С</w>
пе чен
внеш них</w>
S c
страни ца</w>
бра у
эк ви
ги пер
охра не</w>
по является</w>
офи с</w>
198 9</w>
пра вос
Д ар
персона л</w>
ч ёр
само лет</w>
пу сты
поня тие</w>
9 2</w>
Упра вление</w>
ТА Д</w>
ри м
сва дь
посе ща
се рия</w>
сами х</w>
сре да</w>
Во з
нача лось</w>
стратеги ческих</w>
пользо вания</w>
ку льта
Хор ва
Поль зова
ЮНК ТАД</w>
ада пти
и щу
ж ениями</w>
Комите ту</w>
12 4
неправитель ственных</w>
в ъез
Й е
ти м</w>
рассматри вается</w>
Э ри
кодек са</w>
мигра н
ль ному</w>
Саудо вской</w>
Ира ке</w>
учрежд ениях</w>
Турк мени
фак тором</w>
сто л</w>
кратко сро
появи лся</w>
та н</w>
визу аль
профессиональ ных</w>
А к
под лин
зи м
дела ете</w>
за пас
ква дра
благо получи
министер ства</w>
экви вален
Л ин
кален дар
секун д</w>
ри с</w>
из бран
S u
дума ют</w>
му льти
фарма цев
на дея
альтерна ти
мисси й</w>
н ём</w>
у йти</w>
про чем</w>
Груп па</w>
сто го</w>
выпол нен
Жене ве</w>
фир мы</w>
гендер ного</w>
свобо дно</w>
Ре ги
ше ль
несу т</w>
цен ностей</w>
культур ного</w>
e y</w>
неодно кратно</w>
контен та</w>
соответ ствие</w>
ре ферен
А на
больш его</w>
жа ться</w>
призна ки</w>
9 3</w>
постро ен
кварти ры</w>
выпу ск
эффек ты</w>
сообщи ла</w>
с ке
э ли
мер у</w>
Кана да</w>
ц о</w>
об щения</w>
администра ция</w>
проис ходи
пра вления</w>
празд но
б лу
производи ть</w>
источ ника</w>
плен ар
ри т</w>
вклю чены</w>
выстав ка</w>
це ден
зада чей</w>
прош ли</w>
Т О
сбо р</w>
гор мо
де пози
р ный</w>
поставщи ков</w>
четвер г</w>
предыду щих</w>
солда т</w>
вмеша тельства</w>
авто мобили</w>
заявля ет</w>
три буна
рассмот рении</w>
Пор туга
ба нк
уваж ения</w>
8 1</w>
л кой</w>
Ф о
восстано вить</w>
ть е</w>
жиль я</w>
произ веден
иден тифици
покупа ть</w>
я й
чис лу</w>
тка ни</w>
ш тра
за ра
резолю ций</w>
Р С</w>
ро сту</w>
е шься</w>
предусмотрен ных</w>
вне зап
кли мати
мусуль ман
мен те</w>
возна гра
рез ю
имму ни
вы берите</w>
т. д.</w>
убеди ться</w>
страхо вания</w>
препара ты</w>
разви тием</w>
А зиат
рабочи й</w>
а ль</w>
зи ю</w>
на всегда</w>
гене ри
прекрас но</w>
серьез ных</w>
по ток</w>
кажд ым</w>
собира ется</w>
лен ная</w>
Вашинг тон</w>
понима ют</w>
Д ональ
ar d
совмест ных</w>
контрак т</w>
го н
обсу дить</w>
со рок</w>
меня ется</w>
гру зов</w>
в прочем</w>
Р К</w>
Департа мента</w>
бра т</w>
пря мой</w>
рус ский</w>
рассмот рению</w>
прось ба</w>
тол ко
благо твори
осно ван</w>
ти ка
труд я
контро лю</w>
сти ческих</w>
характери зу
х ан
за ба
з ин
реко р
превос ход
компани ями</w>
моло дой</w>
да т
веду т</w>
креди то
насле дия</w>
привер женность</w>
оста льных</w>
прош у</w>
124 ;</w>
&# 124;</w>
проси ть</w>
л ениями</w>
п ления</w>
региональ ной</w>
в ь</w>
использу йте</w>
8 4</w>
т ли
представи л</w>
опреде лё
служ бе</w>
го ры</w>
поч ты</w>
вер ю</w>
великоле п
пор т
ме т</w>
симпто мов</w>
бит ко
огром ный</w>
дире кторов</w>
про дли
предприя тие</w>
вы игры
применя ются</w>
финансо вый</w>
инду стри
това ра</w>
электро энергии</w>
ви н</w>
я с
куро р
пере ход</w>
ог ня</w>
с м</w>
Е сли</w>
У э
несовершен но
двухгоди чный</w>
ро жден
iv e</w>
миро твор
возмож ностью</w>
га ре
Конвен ция</w>
филь ме</w>
судеб ной</w>
республи ки</w>
нау ка</w>
м г</w>
отли чно</w>
использо ваны</w>
ри н</w>
эффектив ное</w>
Ру с
уме рен
тру д</w>
чу де
участ нику</w>
же лу
вырази ть</w>
вл ениями</w>
сотрудни к</w>
виде ла</w>
зака з</w>
за куп
ря с
та бле
сет ях</w>
г н</w>
отка з</w>
8 9</w>
ро ман
7 00</w>
9 ,
поста вить</w>
результа там</w>
коммента рии</w>
прие ма</w>
подроб но</w>
выс шего</w>
рекла мы</w>
ше сть
продолжа ется</w>
повлия ть</w>
гори зон
сохран ение</w>
от сюда</w>
ре и</w>
Об ще
пу тей</w>
м г
полно цен
десятиле тий</w>
не при
ок си
навы ков</w>
ки бер
зака з
направлен ы</w>
прекра щения</w>
коммуника ции</w>
ви дом</w>
зна к</w>
о ни
O n
кило метров</w>
реб я
ре гла
не ра</w>
сообщи ть</w>
ду мы
страни ц</w>
стра и
силь нее</w>
преимуще ство</w>
t h</w>
Л Ь
количе стве</w>
сокра ти
иде ю</w>
люби ть</w>
действу ющих</w>
пом ню</w>
раз вле
СН Г</w>
мошен ни
э м</w>
не которым</w>
акти визи
А ли
полови на</w>
L e
в ряд</w>
пожа ло
совмест ной</w>
ка ль
w .
разви вается</w>
жен ного</w>
ри ев</w>
отве та</w>
напра влений</w>
интеллектуаль ной</w>
услу гам</w>
про движения</w>
до р</w>
л ка
фор мой</w>
ст ены</w>
испол нения</w>
9 4</w>
стаби льность</w>
О Д
кад ров</w>
гори т
живо тные</w>
шесть десят</w>
влен ного</w>
долгосро чной</w>
жа л</w>
не счаст
север о</w>
по что
предусмотрен о</w>
пре цеден
э ки
су хо
потреб ность</w>
жер тво
спек тр</w>
голо са</w>
губер на
под ъ
вы ставки</w>
б ка</w>
i z
масшта бов</w>
научи ться</w>
уваж ение</w>
пят ницу</w>
Юж ная</w>
им перии</w>
при меры</w>
до ходы</w>
распростра няется</w>
С .</w>
в ская</w>
тради ционных</w>
следу ющая</w>
клю зи
T im
обра щение</w>
ло м
за ло
с эр</w>
принци па</w>
экономи кой</w>
фика ция</w>
9 1</w>
пенси он
отде льно</w>
интер пре
i p
ди й</w>
Ка ра
нару ши
рас па
полови не</w>
ка меры</w>
В ин
европей ской</w>
щен ные</w>
свя зыва
кандида тов</w>
ров ку</w>
П П</w>
ал горит
структу ру</w>
про пор
сдела ет</w>
ри со
мо ему</w>
четвер той</w>
пра вами</w>
прош ло</w>
снаб жения</w>
от мени
най дете</w>
сти ции</w>
ро ско
ру к</w>
к ен
англий ски</w>
христи а
кно п
инжен е
Ни ге
ко али
груп пами</w>
равен ство</w>
вше гося</w>
электро нные</w>
хорош ей</w>
Шве ции</w>
потенциаль ных</w>
функ ция</w>
боль ных</w>
аэропор та</w>
промышлен ных</w>
низ кой</w>
ка ли
О с
име ющихся</w>
С ен
клиен т</w>
показа ло</w>
науч ные</w>
ны не</w>
вы рос</w>
Узбеки стан</w>
жизнен но</w>
ника х</w>
ста ет</w>
сла бы
al l
актив ных</w>
приве ли</w>
В ар
смотри те</w>
ww w.
н т</w>
воскресен ье</w>
пра ши
созда ют</w>
треть его</w>
ди ф
E C
Сою з</w>
вы те
извест ные</w>
арби тра
расши ря
п ры
орга ном</w>
привле чения</w>
WE B</w>
возника ют</w>
п ь
суще ствовать</w>
П А</w>
существу ющие</w>
напад ения</w>
приш ло</w>
сесси я</w>
Г ви
ос ен
Амери ка</w>
сом нения</w>
провод ятся</w>
девя ть</w>
те л</w>
органи зу
провод ят</w>
с пер
довери е</w>
в ру
по следующих</w>
M S</w>
Ад министра
примен ении</w>
ге й
пла ту</w>
А мерикан
согла ша
использу ем</w>
об щаться</w>
Е Р
ка над
физи ческие</w>
у с</w>
выпол нении</w>
перево зок</w>
дополни тельную</w>
э й</w>
у глуб
совершенство вания</w>
пере дать</w>
цент ры</w>
попро бовать</w>
филь мов</w>
наблюда ется</w>
изда ние</w>
корруп ции</w>
избе гать</w>
пло ть</w>
d e</w>
про йдет</w>
действи ем</w>
с клон
Пари же</w>
у держи
музы ку</w>
в ный</w>
отра жает</w>
проис ходя
Афгани стане</w>
за держ
Т ер
С А
косми ческой</w>
су дей</w>
я вление</w>
за м</w>
8 ,
es t</w>
вы ходит</w>
за ле</w>
мор ского</w>
астро но
компенса ции</w>
реши ла</w>
стратеги ю</w>
ти зации</w>
по благода
совеща ний</w>
обра тить</w>
во р
напра вля
тив ную</w>
затра ты</w>
уров ней</w>
У о
посе щения</w>
кон серва
луч шего</w>
про ходят</w>
буде шь</w>
эк стра
се л</w>
теле фона</w>
Ан дже
в ведение</w>
сти те</w>
д жи</w>
значи тельный</w>
эффектив ные</w>
влия ют</w>
уров ни</w>
ки ше
ми три
науч ной</w>
им пуль
Департа мент</w>
разви ваться</w>
угод но</w>
еха ли</w>
на ци
администра тивных</w>
полити ческая</w>
на вига
образ и
социаль ным</w>
несколь кими</w>
оста нов
сред ней</w>
сдела ем</w>
любы м</w>
поддержи вают</w>
представлен а</w>
Пу тина</w>
жи тесь</w>
в ведения</w>
i st
подгото вить</w>
К ен
Бо ж
я ко
ст рия</w>
ф и</w>
вос прия
1 .</w>
с мяг
работа ем</w>
американ цы</w>
продолж ение</w>
ру ющие</w>
прину ди
предме т</w>
пере мен
лет ряс
осведом лен
лич ного</w>
потреби тель
внед рения</w>
име я</w>
ц у
превра ти
и ные</w>
са д</w>
различ ным</w>
Ру ковод
стандар там</w>
фай ла</w>
на силь
ству ющие</w>
О А
из бы
на шему</w>
моби лизации</w>
Хри ста</w>
га ле
фак тов</w>
кру г
полномо чия</w>
выгля деть</w>
процеду ра</w>
африкан ских</w>
те ст</w>
ч ному</w>
диа гно
ве се
пак ет</w>
удовлетво рением</w>
дол ь</w>
преимуще ств</w>
фа куль
о сво
ш вей
сти ли</w>
кре а
при ем</w>
реали зова
справи ться</w>
голов у</w>
изобра жение</w>
at e</w>
Ю госла
ре за
Королев ства</w>
o y
осла б
Нико ла
бе ло
высо кое</w>
результа тах</w>
преде лы</w>
контак ты</w>
обно вление</w>
ду ши</w>
подразде ления</w>
пользова телям</w>
лиде ром</w>
за фикси
П Ч</w>
и дут</w>
услу гами</w>
ю го</w>
слуша й</w>
уничто жения</w>
ль го
досту пен</w>
свобо д</w>
не определен
стеро и
необходи ма</w>
не вероя
бли зо
референ ду
содержа ть</w>
ту и
откры т</w>
Оба ма</w>
ти ческий</w>
P S</w>
буква льно</w>
i an</w>
ОБ СЕ</w>
актив ное</w>
мене дж
ка ет</w>
д ная</w>
О С</w>
име ющие</w>
вс пы
пробле ме</w>
не хва
зем летряс
информа ционной</w>
процен т</w>
осно во
экс кур
современ ный</w>
вер х</w>
цион ном</w>
ic e</w>
м ный</w>
в доль</w>
восто ке</w>
голо сов</w>
ня ка</w>
кур сов</w>
жиз не
машин у</w>
производи тельности</w>
Ва шей</w>
l d</w>
выпол нению</w>
ло ги</w>
официаль ного</w>
о писан
вы сказа
o k
приме ром</w>
про гу
орга нам</w>
щи к</w>
мощ ности</w>
спа рен
за га
ж ными</w>
транспор ти
и ми
Арави и</w>
рован ную</w>
налого об
недвижи мость</w>
под ви
Бо гу</w>
нужда ются</w>
С С</w>
го лу
кана л</w>
ша гом</w>
жден а</w>
полити ческий</w>
бе лый</w>
пла та</w>
мероприя тие</w>
Евро пу</w>
свидетель ствуют</w>
доль ше</w>
в ке</w>
услови ями</w>
на па
ар мия</w>
ре е
рез ко</w>
ход у</w>
нату раль
с жи
потенциаль но</w>
у те
деся тки</w>
тив ными</w>
сы рь
доб раться</w>
мона сты
су ды</w>
ре ц</w>
процес со
популяр ных</w>
вы ступил</w>
осуществи ть</w>
Ро жде
полез но</w>
продук цию</w>
охваты вает</w>
кров ен
Э к
цик л</w>
призна ния</w>
мо ра
ча ми</w>
домаш них</w>
Ва ш</w>
э н</w>
сочета нии</w>
ж ность</w>
полу ченных</w>
самы ми</w>
погиб ли</w>
эле мент</w>
жа ли</w>
пона доби
целе вой</w>
эпи де
ча й</w>
ub e</w>
лич ность</w>
заклю ченных</w>
К ур
ссыла ясь</w>
кор по
19 60</w>
эф фици
пи сей</w>
но мина
подели ться</w>
по ни
мет р</w>
эк стреми
повест ку</w>
малень кий</w>
нали чия</w>
игро ки</w>
вос ьми</w>
напом ним</w>
поз дно</w>
по хоро
К уве
осуществля ться</w>
располо жены</w>
a w
по дар
подоб ное</w>
катего ри
ак ты</w>
фестива ль</w>
соответ ствовать</w>
Ю го</w>
Цен тр</w>
ю стиции</w>
точ ку</w>
ф аль
ь ера</w>
ё х</w>
ра цию</w>
вы бран
бед ствий</w>
должност ных</w>
реаль ной</w>
з му</w>
но чи</w>
прео дол
ба зу</w>
сут ки</w>
па ро
на ступ
ня ют</w>
дене жных</w>
ни н</w>
з ве
Л ени
Hot el</w>
не больших</w>
экономи ческое</w>
спо ров</w>
выра жения</w>
С ко
ци р
т с</w>
УВК Б</w>
Коре и</w>
отправи ть</w>
роз ни
ли зм</w>
двер ь</w>
желе зы</w>
написа ть</w>
o w</w>
вл ю
е мость</w>
рас сла
по л</w>
сооб щается</w>
логи ческих</w>
получи т</w>
A s
ша х
фоку си
саха ра</w>
ситуа ций</w>
возвра ща
соли дар
реаль ного</w>
мо гу
присоедини ться</w>
ду х</w>
гра ду
инжен ер
а м</w>
по грани
ни т</w>
Ма лай
вы шел</w>
оста лись</w>
T wit
транспор тного</w>
вер то
ро вок</w>
по бу
Всемир ный</w>
ко эффици
ха м
ве к</w>
Ва шего</w>
стро ен
внима тельно</w>
захва ты
Ме ж
пло хи
ак ка
откры того</w>
досто вер
прав ду</w>
про двига
многочислен ных</w>
рас счита
наз ем
а пра
оста навли
тран спарен
манда т</w>
оде жды</w>
бое вых</w>
спе ц
че е</w>
мо ро
расши рению</w>
депре сси
транс грани
му ля
быв шего</w>
по ра</w>
широ кой</w>
ност о
систе мах</w>
ба л
постоян ной</w>
й ским</w>
ф т</w>
се ми
выну ждены</w>
вклю чения</w>
понима ет</w>
Азербайджа н</w>
A p
пе да
все мир
кос вен
ро ма
Ю г</w>
П А
воло с</w>
Ко рей
рок ко</w>
ла н</w>
конкре тной</w>
возвра щения</w>
музы кан
му т</w>
низ кий</w>
ст я
пред принять</w>
Еги пе
ак три
Сторо ны</w>
вну три
лы ми</w>
доро г</w>
форма х</w>
пользова тель
а мби
болез ней</w>
коман де</w>
ка толи
прове ла</w>
ули це</w>
сани тар
Ло с</w>
эки па
проси л</w>
золо то</w>
проек том</w>
прода жу</w>
эта па</w>
W h
не которыми</w>
обстоя тельств</w>
парла мент</w>
вед ении</w>
обви нения</w>
да н</w>
раз меры</w>
пользу ются</w>
участ никам</w>
счита ются</w>
лет ней</w>
голов ного</w>
с держи
дела ется</w>
ки на</w>
Официаль ный</w>
экологи ческих</w>
за каза
дан ному</w>
протоко л</w>
раз реша
Финлян дии</w>
ч ны</w>
на шел</w>
оши бок</w>
ради о</w>
иннова ций</w>
акти вы</w>
меся це</w>
зем ля</w>
хва тает</w>
расши рен
ру ку</w>
ва емого</w>
американ ская</w>
ре ть</w>
Д митри
лабора то
Гон кон
задол женности</w>
числен ности</w>
тер пе
е ги
Мо сков
стро го</w>
ре пута
прогно зи
требо вание</w>
высо ком</w>
б ет</w>
у ра
en d
сти ле</w>
об щим</w>
вызыва ют</w>
про даже</w>
много м</w>
откры то</w>
иг ру
S e
рассматри ваются</w>
государствен ным</w>
теку щего</w>
использу емых</w>
визи он
выя сни
C A
Джей мс</w>
i r</w>
ва емый</w>
серь ёз
молоды е</w>
многи ми</w>
ва ющего</w>
бу ты
Ан д
разме щения</w>
и ное</w>
пыта лся</w>
уверен ность</w>
пере хода</w>
па па</w>
анти био
И Н
органи зовать</w>
ou r
физи ческого</w>
алкого ля</w>
в .</w>
специаль ного</w>
носто рон
зи ть</w>
разору жению</w>
V II</w>
ко ва</w>
счаст ью</w>
но вей
статисти ки</w>
произ во
o x</w>
времен ных</w>
участи и</w>
оказыва ют</w>
па ра</w>
послед няя</w>
Росси йская</w>
ме мо
дли тельного</w>
ше б
раст ения</w>
официаль ные</w>
предпоч ти
депре ссии</w>
рассматри ваться</w>
ди зе
сы но
журнали стов</w>
XX I</w>
Й о
тро пи
необходи мой</w>
экологи ческой</w>
ожида ния</w>
шен ко</w>
надзор а</w>
то не</w>
выбира ть</w>
наб людать</w>
L in
во ли</w>
дальней шее</w>
кар ту</w>
хо вен
пропаган ди
о хла
карти ны</w>
ОО О</w>
моло до
ле ц</w>
националь ными</w>
O p
Тихо океан
пре мии</w>
имен а</w>
й дут</w>
ли зма</w>
установлен о</w>
Майк л</w>
добро воль
у видел</w>
мыш ления</w>
свобод ного</w>
ю ж
ВТ О</w>
до ли
слож ные</w>
норма льно</w>
рассматри вает</w>
изба виться</w>
под ру
па дает</w>
S k
еди ниц</w>
A ir
у н</w>
про ва
Хри сто
концеп ция</w>
E R
спроси л</w>
ч ёт</w>
связа ться</w>
по клон
пробле мати
вы ез
Иису са</w>
республи кан
ан г
ни ла</w>
косми ческого</w>
журна л</w>
позволи ло</w>
предме ты</w>
выпла ты</w>
Twit ter</w>
а вари
воз рос
ва ки
капита л</w>
ля ются</w>
состоя лась</w>
ро д</w>
националь ная</w>
ви ны</w>
бое ви
праздни к</w>
До говарива
европей ские</w>
повто р
возду х</w>
вели чай
народ у</w>
че б
сотрудни ка</w>
е вой</w>
ку ри
ин спек
диску ссии</w>
фе р</w>
пожало вать</w>
чен ной</w>
осново полага
при йти</w>
экспер т</w>
верси ю</w>
поя вления</w>
мани пу
точ ка</w>
опера ция</w>
призы в</w>
отлича ются</w>
выра щи
ра чи
ше стой</w>
подрост ков</w>
ра сти
ба за</w>
Ц Р
пере йти</w>
проси ла</w>
не большие</w>
образо ванию</w>
восто чной</w>
обы чных</w>
попа сть</w>
социаль ная</w>
прода ть</w>
фак тор</w>
цен ных</w>
упра влен
ва рь
поко ление</w>
приве т</w>
вы вать</w>
С лу
компонен ты</w>
а ку
полови ну</w>
Ка и
го дами</w>
Ат лан
Па три
общи ны</w>
F l
до ли</w>
клиен тами</w>
выя снить</w>
И м
центра лизован
ва ющим</w>
лен ный</w>
доро гой</w>
же к</w>
на против</w>
она ми</w>
достиг ли</w>
стра ст
мест ной</w>
до ми
р ки</w>
транс форма
к ван
Л А
ди стан
ar e</w>
потря са
руководя щие</w>
М ен
произ ведения</w>
al l</w>
ли ней
готов ности</w>
све т
применя ться</w>
из ъя
основ ного</w>
партне ры</w>
ло н</w>
И ор
фен о
комна те</w>
возра ст
Ф ер
прось бе</w>
региональ ными</w>
Дэ вид</w>
Боль шо
сом не
б ки</w>
ка п
про кура
по думать</w>
торго вые</w>
важ ны</w>
буд ди
лле р</w>
анали зировать</w>
варь и
p or
су де</w>
стано ви
Кре м
помога ть</w>
маркетин га</w>
счаст ье</w>
Норве гии</w>
быст рый</w>
Р им
стандар т</w>
до жд
т. д</w>
современ ном</w>
медицин ские</w>
массо вого</w>
дополни тельно</w>
Ка в
наз вания</w>
укре пить</w>
N S</w>
ш пи
га ет</w>
Су да</w>
экономи ческая</w>
публи ку
и рак
р эн
х ле
мыс ль</w>
возгла вля
резю ме</w>
во спо
глобаль ном</w>
ти но
затро ну
ба зи
се ст
высоко каче
жи вых</w>
Кана де</w>
Уста ва</w>
Н а</w>
мол ча
благо сло
предыду щие</w>
Бю ро</w>
ры бо
функ цию</w>
собствен ность</w>
стратеги ческого</w>
созна ние</w>
англий ского</w>
A c
о са
направлен а</w>
упра влении</w>
вре д</w>
необходи мую</w>
име ла</w>
примен ением</w>
реаль но</w>
заста вляет</w>
е ц</w>
к ер
по являются</w>
ре я</w>
кар т</w>
мини стром</w>
Ри ча
Гер це
со суди
воен ный</w>
вы зов</w>
препара та</w>
с кла
Х ан
иностран ные</w>
производи тся</w>
мет ры</w>
предме тов</w>
ав стра
препара т</w>
Ра з
полож ению</w>
А м
та ли
un g</w>
ге н</w>
постро ен</w>
приш ла</w>
хиру рги
вя з
воспо мина
Секретариа та</w>
Со мали</w>
соб люда
сове ты</w>
гуманитар ного</w>
мас ло</w>
г еди
призна тельность</w>
Президен т</w>
актив ного</w>
циф ры</w>
производ ству</w>
запа сов</w>
мест ном</w>
198 8</w>
C om
ле са</w>
в плоть</w>
по стоя
А вто
и л</w>
вол ну
ря д
фи о
о чист
пози ций</w>
при ми
от прав
S am
луч шей</w>
еже меся
клю ч</w>
ло го
си рий
педа го
процес су</w>
иде а
предоставля ется</w>
Гос по
араб ских</w>
ре продуктив
издели й</w>
коор дини
E l
доказа ть</w>
Y ou
город ской</w>
финансо вым</w>
во доро
бер г</w>
реали зация</w>
грани цу</w>
архитек тур
возмож ностями</w>
те ром</w>
предска зу
С А</w>
н ениями</w>
кро ви
два жды</w>
раз дра
о го</w>
расстоя ние</w>
отве чать</w>
у жи
отде ления</w>
печа ти</w>
окружа ющую</w>
карьер у</w>
ма кро
ста рые</w>
теле ви
смо гу</w>
запре т</w>
прода вать</w>
на стаи
извест на</w>
заболе вание</w>
распреде ление</w>
m a
хорош его</w>
щи мся</w>
не замедли
К э
Арм ения</w>
указа нные</w>
сто ле
хи и</w>
в вести</w>
нача ль
лу ю</w>
Ев рази
тра геди
пар ка</w>
разнообрази я</w>
ви но
Intern ational</w>
ня ются</w>
Ар кти
с сы</w>
яко бы</w>
о го
по прежнему</w>
W e
бо л
Австра лия</w>
f f
подоб ного</w>
сексуаль ной</w>
под ры
ня ться</w>
те ры</w>
бро са
су ть</w>
встре чу</w>
ка ло
рова лись</w>
изуча ть</w>
жен ным</w>
государ стве</w>
совмест ного</w>
Сер гей</w>
деву шки</w>
соответству ют</w>
Герце го
подтвер дить</w>
заме д
от а</w>
про бе
культу р</w>
Ру ан
тридца ть</w>
фа на
ка кими</w>
ребя та</w>
отме чено</w>
занима ются</w>
самоле тов</w>
практи ку</w>
мет ра</w>
отмеча ют</w>
ад ца
форма те</w>
вен адца
стрем ление</w>
Т Е
2 5
стоя т</w>
ле с</w>
сами м</w>
ска ть</w>
з ме</w>
уведом ления</w>
гаранти рует</w>
W P.
Консульта тивный</w>
ступи ла</w>
подроб нее</w>
Б Р</w>
спа ть</w>
вра ча</w>
А каде
либе ра
влен ную</w>
Пак та</w>
вы ш
пло до
Поль ши</w>
бо ну
загряз нения</w>
военно служащих</w>
определен ного</w>
процве та
с ное</w>
распоря жении</w>
равно ве
в шая</w>
за полни
част ях</w>
австра ли
лабора тории</w>
ров ую</w>
дол г</w>
контак т</w>
право вые</w>
поя вится</w>
о теля</w>
кварта ле</w>
теат р</w>
Ва ми</w>
ву лка
рай оны</w>
а зербайджа
структу ри
бе зна
навер няка</w>
ре чи</w>
макси му
боль шими</w>
звез д</w>
тре й
с куль
реаги ровать</w>
ло н
G l
гос под
чь и</w>
холо дной</w>
хо да
гра н
предло жено</w>
показа но</w>
вид ение</w>
служ бу</w>
лен ного</w>
конферен ций</w>
экологи чески</w>
вра чей</w>
а з
чест но</w>
ребен ком</w>
плате жей</w>
впечат ление</w>
надца ть</w>
сокра щению</w>
ш ке</w>
ан ге
Д О
2 ,5</w>
правитель ствами</w>
се реб
земе ль</w>
по э
ди м</w>
выра жение</w>
пад ение</w>
агре ссив
об уч
смер тности</w>
принци пами</w>
а ции</w>
H u
компани ям</w>
аль ян
произо йти</w>
в ное</w>
циви лизации</w>
заработ ной</w>
конкре тного</w>
полити ческую</w>
добы чи</w>
плю с</w>
а й
до вать</w>
t o</w>
с право
П я
M on
ро ли
объ един
Ч или</w>
Л Е
ни что</w>
игра л</w>
реак ция</w>
Испа ния</w>
прия тно</w>
промышлен ность</w>
секретариа та</w>
не м
оригина льное</w>
прода в
адап тации</w>
регу ля
принци пе</w>
производи тельность</w>
вос пита
ду шу</w>
находи лись</w>
устойчи вости</w>
сти л</w>
реали зовать</w>
ново му</w>
вос принима
отлич ный</w>
г да
ле ра</w>
како вы</w>
ощу щение</w>
транспор т</w>
Постоян ного</w>
вез де</w>
при су
чер ный</w>
не благоприя
това р</w>
га зов</w>
солн це</w>
архи те
ль ской</w>
пациен ты</w>
связа нным</w>
и ным</w>
путеше ствия</w>
Кита ем</w>
ве ц</w>
те сто
Бе ло
про ходить</w>
оказа лась</w>
финансо вую</w>
но ва</w>
Комисси ей</w>
Экономи ческого</w>
спис ка</w>
су ме
дела х</w>
д ным</w>
готов ность</w>
Институ та</w>
моде ли
вопро се</w>
хода тай
ст ров</w>
ми та</w>
ге р</w>
и ного</w>
ни н
та ба
докумен тации</w>
све то
фон дов</w>
а таки</w>
ключе вым</w>
при рода</w>
подо т
меч та
де лом</w>
гено ци
част ной</w>
пода вля
Н Ы
ауди то
сти ческого</w>
дви жении</w>
территори ях</w>
культу ре</w>
вни з</w>
постоян ное</w>
бы вают</w>
интер нете</w>
времен ной</w>
поч те</w>
стан ций</w>
комите том</w>
Националь ный</w>
про бу
доступ на</w>
про ле
величи не</w>
т ному</w>
име ете</w>
хиру р
наде жду</w>
Фон д</w>
корпо рации</w>
квали фикации</w>
изо ли
мен ту</w>
выпол няет</w>
ва емой</w>
Ав стрии</w>
обра щаться</w>
ти ям</w>
иден тифика
пыта лись</w>
R es
комна ты</w>
близ и</w>
власт ями</w>
ра диа
определен ный</w>
пол ная</w>
компью тера</w>
объясня ет</w>
Па ла
2 .</w>
взно сы</w>
ле чить</w>
выше упомяну
вол шеб
откры тым</w>
част ные</w>
види мому</w>
Ма ри
субъек тов</w>
язы ком</w>
коле ба
ве ж
el l</w>
т кой</w>
музе я</w>
дума ли</w>
партне ром</w>
уделя ть</w>
у пу
ль те</w>
ac k</w>
u st
ic s</w>
ю щуюся</w>
Д Е
мен и</w>
выступа я</w>
за праши
С реди
отсут ствует</w>
возвра щение</w>
Д С</w>
нало ги</w>
дей ство
e x</w>
понима нии</w>
ви зы</w>
попу ля
широ кое</w>
бассей на</w>
шан сы</w>
ска жи</w>
выступ или</w>
програм мой</w>
е ды</w>
большо м</w>
Египе т</w>
м бу
б ь
С ти
Егип та</w>
перен о
внед рение</w>
по в
сигна л</w>
р э
архитек туры</w>
гри п
расска зывает</w>
страда ют</w>
ш кой</w>
секрета рем</w>
подразде лений</w>
ме сторо
ж дет</w>
выя вления</w>
му дро
ы ми</w>
швей цар
ст ся</w>
у видите</w>
поки нуть</w>
моти ва
вы шла</w>
ро т</w>
биле ты</w>
при клю
дипло ма
ли ю</w>
эмо ции</w>
журна ле</w>
о ча
поя вление</w>
те лях</w>
запад ной</w>
лекар ств</w>
гаран тий</w>
разнообрази е</w>
язы ки</w>
настоя щая</w>
рен а</w>
предме том</w>
r y</w>
мест ности</w>
подоб но</w>
официаль ной</w>
ка фе
увелич ению</w>
од носторон
на ступа
тор же
ва кан
дела ю</w>
наблюда телей</w>
коман ду</w>
организован ной</w>
кварти ра</w>
меся цы</w>
ra m</w>
числен ность</w>
завер шить</w>
годо вщи
с ная</w>
да й</w>
на счет</w>
угро з</w>
ска жу</w>
журна ла</w>
исполни тельный</w>
коман ди
Фа культа
обли га
p h
быв шей</w>
e v
производи тели</w>
си й</w>
мониторин г</w>
соответ ствия</w>
инте ра
вля ться</w>
Г АТ
побе ды</w>
ли ния</w>
бизне се</w>
содержа тся</w>
ста рый</w>
Укра ину</w>
международ ная</w>
жи й</w>
жерт вы</w>
мен ю</w>
са мую</w>
ви рус
пел ля
ано ни
столи цы</w>
зая вки</w>
er v
ру н
соответству ющий</w>
по следующие</w>
E S
точ ную</w>
I T</w>
мета лли
P ar
хра нить</w>
издели я</w>
реаль ные</w>
покры тия</w>
на пол
пад ения</w>
еди ного</w>
доро ге</w>
Н о</w>
прово ци
генера л</w>
МВ Ф</w>
жела ния</w>
соба ки</w>
крупней шим</w>
м ки</w>
со действии</w>
последни м</w>
требо ваниями</w>
хо ле
реаги рования</w>
обосно ван
Ко дек
у спо
нало г</w>
Ко со
лен ным</w>
теле н</w>
кораб ль</w>
и стре
рас писа
жили щ
зна ла</w>
способ а</w>
про чего</w>
вос хи
физи ки</w>
Са ха
ле чении</w>
p l
бо же
д ное</w>
Те ле
ми ло
ни кого</w>
Q u
мероприя тиях</w>
получа ется</w>
из на
работа ла</w>
офи це
су верен
продоволь ственной</w>
ac e</w>
близ ко</w>
позво льте</w>
лег ких</w>
Поль ша</w>
ж ки</w>
ве ков</w>
реали зацию</w>
Ма рокко</w>
постоя нных</w>
ого нь</w>
Королев ство</w>
долго е</w>
един ственной</w>
суще ства</w>
доро го
а три
находи лся</w>
зву чит</w>
пожи лых</w>
обяза н</w>
генераль ный</w>
цифро вых</w>
д венадца
центра льной</w>
обстоя тельства</w>
соб ран
сред ством</w>
бро сить</w>
мо менты</w>
интере сам</w>
карьер ы</w>
си гаре
извест ной</w>
полити кой</w>
сред няя</w>
точ ной</w>
на груз
глав ного</w>
ми ль</w>
явля ться</w>
ми ей</w>
про то
времен ного</w>
бло к</w>
О Э
исследова телей</w>
V III</w>
персона льные</w>
чу ю</w>
согла сны</w>
клу ба</w>
га з
ь ян
жден о</w>
Вьет на
самоле та</w>
предупрежд ению</w>
клима т</w>
иде ологи
си льные</w>
встре ч</w>
золо та</w>
меч ты</w>
особо го</w>
наркоти ками</w>
подвер г
ка ть</w>
тера пев
седь мой</w>
пода чи</w>
пар тий</w>
сни жению</w>
креди т</w>
чувству ете</w>
об ма
зарубе жных</w>
взя л</w>
ассоциа ция</w>
у хода</w>
вол ны</w>
ни цей</w>
шко лах</w>
тю ре
та на</w>
вле й</w>
тради ционно</w>
говори ла</w>
повседнев ной</w>
T ube</w>
ву т</w>
культур ной</w>
алле рги
удоволь ствие</w>
живе м</w>
гу б
внеш ний</w>
вы двину
дни х</w>
То ма
эпо ху</w>
чен ными</w>
ша гов</w>
мо ем</w>
обяза тель
ров ке</w>
Т ро
государ ствах</w>
объя вления</w>
бур г</w>
смо гла</w>
глу би
не вероятно</w>
н рав
истори ческих</w>
Ц И
Г ри
у ка
дво р
тво ей</w>
вы йдет</w>
ра ун
по га
ж ное</w>
е пи
интера ктив
не правильно</w>
жиль е</w>
по жертво
упа ков
юрисдик ции</w>
Я н
ми но
прост ых</w>
аль ной</w>
не ве
визи та</w>
тем пы</w>
ран ду
Афри ка</w>
e x
необходи м</w>
пред ъя
мас ла</w>
лицен зии</w>
Ки е
чи стой</w>
мест ными</w>
фра г
бор ту</w>
И Т</w>
Ира к</w>
отде л</w>
ти ту
семь ей</w>
приме т</w>
доступ ных</w>
кар то
рус ского</w>
раз или</w>
с нять</w>
уника льный</w>
точ ные</w>
закон у</w>
по гру
виру с</w>
ди верси
на но
объ единен
не редко</w>
ищу т</w>
забо ти
телефон у</w>
T r
инвести ровать</w>
тель ской</w>
убеди тесь</w>
по дать</w>
представи ла</w>
а та
д же</w>
ur e</w>
преступ ление</w>
стремя тся</w>
модерни зации</w>
ва не</w>
представи тельства</w>
извест ным</w>
при нес
o t</w>
постано вил</w>
раке ты</w>
ви те</w>
Сове те</w>
Ш и
определен ы</w>
указа ть</w>
убежи ща</w>
тради ционные</w>
в ста
хра ня
T RA
скуль п
под писан
Джор дж</w>
ш из
вы играть</w>
в ри
b er
тре ти</w>
сексуаль ного</w>
о логии</w>
Арген ти
сдела ны</w>
ру ем</w>
пор тре
важней ших</w>
у ти
Га з
рус ские</w>
ауди тории</w>
катего рий</w>
огром ные</w>
жа ются</w>
здоров ьем</w>
низ ма</w>
воло сы</w>
по года</w>
а ва
колле кти
потеря л</w>
бюдже тных</w>
Т ран
ко роль</w>
удовлетво рение</w>
ген ов</w>
порт фе
производи т</w>
предоставля ют</w>
рус ских</w>
Г ла
встреча ется</w>
s h
попы тка</w>
пи щу</w>
малень кие</w>
преодоле ть</w>
ассо ции
сы па
народ ы</w>
ве ли</w>
прави льный</w>
я вления</w>
нынеш него</w>
ре шает</w>
подчер кнуть</w>
пя той</w>
горо дом</w>
владель цев</w>
плани рование</w>
д ке</w>
сохра нять</w>
лич ную</w>
инвали д
u e</w>
объеди нения</w>
Ги т
профессиональ ного</w>
т ках</w>
гуманитар ных</w>
плохо й</w>
са да</w>
ри ла</w>
З оло
отде ла</w>
стре сс</w>
по сте
МИ Д</w>
промышлен ной</w>
трудя щихся</w>
партне ра</w>
Ли бе
ё нных</w>
бое при
теле визион
вой ти</w>
ро н</w>
коммер ческой</w>
уча ствуют</w>
дости жении</w>
действи ях</w>
кисло ты</w>
спа ль
ни ться</w>
нынеш ней</w>
образова тельных</w>
Цер ков
M A
y p
спосо бами</w>
рова ло</w>
председа теля</w>
рассмотри м</w>
сте к
М Е
ac k
ре спонден
имуще ство</w>
Узбеки стана</w>
ост рова
ЮНЕ П</w>
конку ри
альбо ма</w>
хозяй ство</w>
вто ри
достоин ство</w>
техни ческое</w>
кварти ре</w>
ини ции
и е
плат форма</w>
С ред
зер ка
о ном</w>
индек с</w>
нача лом</w>
по рой</w>
зада чу</w>
In st
вы годы</w>
про чие</w>
не большое</w>
те ре</w>
исклю чения</w>
возник нуть</w>
установлен ных</w>
запу ска</w>
акка ун
H e
п ление</w>
скон ча
улуч ши
уда стся</w>
чув ствовал</w>
упра влением</w>
лич ный</w>
выступа ть</w>
пере ч
ри ли</w>
забо титься</w>
С т
ба бу
пере вод
эпо хи</w>
испол ня
маги стра
ль я</w>
юриди ческой</w>
в ского</w>
Сове тского</w>
Генераль ным</w>
торго влей</w>
граждан ство</w>
Народ но</w>
И вуа
мину ты</w>
челове ческих</w>
ни как</w>
Т А</w>
де те
гражда нам</w>
2 4
пись ме</w>
ро стом</w>
о лимпи
пре ем
про шел</w>
ра ско
ще йся</w>
оста лся</w>
мета боли
ребен ку</w>
пожалу й</w>
угро за</w>
стреми ться</w>
челове чество</w>
отсут ствии</w>
балан са</w>
проведен ы</w>
докла ду</w>
философи и</w>
про чита
Л О
Т имо
лиде ра</w>
систе мами</w>
т ская</w>
Кон стан
при ва
ви м</w>
поддерж кой</w>
игро к</w>
о скор
нало га</w>
мест ным</w>
гос пита
при нести</w>
наде ется</w>
дефици т</w>
присут ствия</w>
влия ть</w>
грани цей</w>
исследо ваниях</w>
фо м</w>
гар мони
стои мостью</w>
ра тификации</w>
потеря ть</w>
до ви
Бо гом</w>
скоро стью</w>
Ж и
Че ш
М С</w>
доно ров</w>
ново ст
комби на
за мены</w>
цен о
уда р</w>
ко вого</w>
опублико вано</w>
ме д</w>
Верхов ный</w>
лет няя</w>
бума ги</w>
мето да</w>
орга нах</w>
Три буна
услови ям</w>
санк циони
собствен ное</w>
необходи мое</w>
то ни
в ная</w>
обще ством</w>
использо вал</w>
долж ным</w>
раз ными</w>
поме щений</w>
освобо ждения</w>
да йте</w>
государствен ными</w>
страни цу</w>
19 50</w>
ран них</w>
бухгал тер
бед ности</w>
уча ствует</w>
щен ный</w>
д жер
г лю
Бри тан
потер я</w>
жа ль</w>
дви жу
использу емые</w>
треть им</w>
про ми
эп изо
прогно з</w>
зака за</w>
сотрудни ками</w>
приня та</w>
ново стей</w>
бес провод
зна ниями</w>
I P
Север ная</w>
10 .
про ник
в праве</w>
дума ла</w>
ь ев</w>
н ш
пере вода</w>
части ц</w>
B C</w>
ж ь</w>
за блу
ну тся</w>
голо вы</w>
собира юсь</w>
но ги</w>
промышлен ного</w>
побереж ье</w>
находи тесь</w>
ка фе</w>
прави лам</w>
зи й</w>
Wor ld</w>
двига теля</w>
о пе
es s
D A</w>
согла сен</w>
зем ле
Рабо чая</w>
производ ственных</w>
разме ров</w>
то сть</w>
на след
Sam s
идеаль но</w>
ак т</w>
соеди нение</w>
r u</w>
ато мной</w>
заня тия</w>
Феде рация</w>
выступ ления</w>
националь ное</w>
лиза цию</w>
зависи мость</w>
да ту</w>
нала жи
жи ра</w>
законо проект</w>
су а
разработа н</w>
це ли
демо графи
запад ных</w>
Ал ла
пес ня</w>
мужчи нами</w>
Ф АО</w>
хра м</w>
при бре
конкре тно</w>
Фран ци
ма не</w>
преимуще ственно</w>
подписа ли</w>
получа ете</w>
полага ют</w>
ни кому</w>
кафе д
дисципли нар
хими ческого</w>
случай но</w>
у то
жи м</w>
независи мых</w>
Зем ля</w>
ак ку
един ства</w>
ст ских</w>
со пер
шен о</w>
пове рить</w>
образ а</w>
установлен ы</w>
увеличи вается</w>
принци пи
ходи ли</w>
способ на</w>
Генераль ному</w>
состоя лся</w>
расстоя нии</w>
выпу ск</w>
в ский</w>
епи ско
доклад чика</w>
Протоко ла</w>
кри ста
учеб ные</w>
Но вый</w>
регистра ция</w>
си ли</w>
о ти
разно гла
муж а</w>
использу ете</w>
учре ждение</w>
слож ной</w>
понима ете</w>
се ло
Афгани стана</w>
смыс ла</w>
из мери
иско па
встреча ются</w>
си льный</w>
против ном</w>
жен ная</w>
позволя т</w>
отмеча я</w>
ol l
постано вляет</w>
Б ур
осуществ лением</w>
попробу йте</w>
у дар
сред ствах</w>
про ро
крас ный</w>
относи ться</w>
ча со
вши ми</w>
за цией</w>
заинтересо ваны</w>
мощ ность</w>
гра ф</w>
ж ется</w>
до ра</w>
спорт смен
определя ть</w>
Сове ща
Sams ung</w>
че стве</w>
посмотри м</w>
быстро го</w>
поощ рять</w>
Газ про
M ot
й ское</w>
Га и
город ских</w>
испыты вают</w>
мас са</w>
под вод
разъя с
дет ской</w>
дальней шей</w>
по ги
це поч
обнару жить</w>
прави лами</w>
Ми ро
авиа ции</w>
ла м
экономи ть</w>
при д
Ш ан
л ланд
француз ский</w>
поис ках</w>
способ ствуют</w>
Швейца рия</w>
Югосла вии</w>
аль ного</w>
возду хе</w>
путеше ствен
Ра с
Косо во</w>
en ce</w>
ги х</w>
полице йских</w>
на нес
ш око
гла сит</w>
чув ствуют</w>
ги поте
цве тов</w>
ма лого</w>
умень шения</w>
постоян ный</w>
обрати те</w>
же б
револю ция</w>
транза к
тво и</w>
истори ей</w>
Зе ландии</w>
с бе
продук ция</w>
поверх ность</w>
фили а
но ви
эволю ции</w>
да ла</w>
P or
дости г</w>
откры вает</w>
серде чно</w>
реда кти
поме щения</w>
ра ком</w>
точ ных</w>
собра ть</w>
а лю
университе тов</w>
про верен
ра мо
счита ли</w>
измен ениями</w>
Ки ев</w>
ма ри
тера пия</w>
су дом</w>
изна сило
рус ской</w>
С те
примен ению</w>
an g
компьюте ров</w>
сфер у</w>
культу ру</w>
проведен о</w>
четы р
тив ном</w>
за слу
а зар
Те х
1 10</w>
со ч
процес сом</w>
предвари тельного</w>
реаль ных</w>
194 5</w>
вер у</w>
дума ет</w>
уничто жить</w>
a u
ф у</w>
и стины</w>
про двину
дело вых</w>
ш вед
во обра
ступи т</w>
Г О</w>
контак тов</w>
сер ве
государствен ном</w>
глав ные</w>
по ка
природ ного</w>
Ин форма
сто н</w>
промеж уточ
вку с</w>
Д ру
ор дина
внутрен ний</w>
под ряд
мо ст</w>
ствен ности</w>
я ви
спроси ть</w>
жела ет</w>
уда лить</w>
инвести ционных</w>
дере вя
ново сть</w>
ли цу</w>
столи це</w>
зе н</w>
из учи
прод ю
у слышать</w>
Стра те
соста вила</w>
свобод ное</w>
употреб ление</w>
3 .</w>
сче тов</w>
ван ная</w>
фу нтов</w>
иннова ции</w>
F i</w>
докумен та
прош лое</w>
Эсто нии</w>
прош ла</w>
програм мах</w>
Робер т</w>
Ф у
на ж
бере гу</w>
слу жеб
нау ке</w>
правитель ственных</w>
участи ю</w>
озагла вленный</w>
р ений</w>
предусматри вается</w>
дополни тельный</w>
гер ман
вече р</w>
ком пози
пис ь</w>
ста вит</w>
выпу ска</w>
М еди
зави сеть</w>
вто рым</w>
собра ния</w>
л лы</w>
полез ным</w>
не справедли
древ них</w>
R E
грани це</w>
гре ди
принци пах</w>
О Р
отказа лся</w>
рестора н</w>
с ход
за пла
or e</w>
потеря ли</w>
ито ги</w>
защи т
ко ди
китай ской</w>
ги ги
правитель ствам</w>
os t
игра х</w>
социаль ное</w>
спут нико
Э К
секрета рю</w>
сообще ством</w>
инициатив е</w>
при им
та т</w>
щи йся</w>
бе ру
объя вила</w>
Лондо н</w>
исклю чить</w>
вы разили</w>
шта те</w>
и ными</w>
блокче йн</w>
G u
Израи ле</w>
призна ков</w>
Ге й
Социаль ного</w>
поставщи к</w>
логи сти
В Е
в друг</w>
Лат вии</w>
правос лав
н ности</w>
A C
зон у</w>
пода рок</w>
сде лок</w>
мас са
техни ческий</w>
возвра щается</w>
при ходят</w>
В ре
э ваку
представи телем</w>
точ ный</w>
ограни чение</w>
структу ре</w>
еди ной</w>
198 6</w>
колле ги</w>
полез ных</w>
при ближа
успеш ного</w>
приобре тения</w>
эффек тов</w>
ин греди
отли чи
обо га
э ска
важ ности</w>
про ститу
ч ок</w>
в ло
жало бы</w>
Свя того</w>
рак ет</w>
устра нения</w>
ры ба
маль чик</w>
не далеко</w>
коман до
представлен ных</w>
сочета ние</w>
види шь</w>
каза х
Болга рии</w>
ж да</w>
Су д</w>
инвесто ры</w>
кон ди
на гре
Интер нета</w>
дол га</w>
роди лась</w>
мла ден
опреде лении</w>
переда ча</w>
ле с
стар ший</w>
X IX</w>
ну ться</w>
ри т
дра го
пу га
прода жа</w>
каса ющимся</w>
при ка
с мена</w>
I D</w>
террито рия</w>
вось мой</w>
Ne w</w>
принима ются</w>
C ar
инстру ментом</w>
196 7</w>
отды х</w>
соста вит</w>
жерт вами</w>
ag e</w>
н ь
нару шением</w>
ви дами</w>
преследо вания</w>
ти рует</w>
работ ники</w>
чув ствует</w>
техни ка</w>
да р</w>
Бос нии</w>
получа т</w>
луч шая</w>
изда ния</w>
с мены</w>
проведен ных</w>
жи в
в ным</w>
ста вок</w>
кон курса</w>
уби л</w>
М ю
упраж нения</w>
оказа нии</w>
тре мя</w>
от ча
со бесе
веду щий</w>
отче ты</w>
рас положение</w>
дальней ших</w>
важ ная</w>
пре сти
r a</w>
до чер
уме реть</w>
глобаль ный</w>
ши ф
щи ки</w>
гражда нами</w>
экономи ческую</w>
за труд
Соединен ного</w>
э фи
бур жу
ок на</w>
рав ных</w>
вычис ли
развед ки</w>
встре титься</w>
Д об
вероя т
за вода</w>
предназна чены</w>
пря мых</w>
любо му</w>
Д аль
ду ш
част ным</w>
по че
в верх</w>
практи ческих</w>
К ин
соба к</w>
указыва ют</w>
ш ок</w>
усили ях</w>
реши тельно</w>
экспе ди
емо в</w>
зави сят</w>
культур ные</w>
исти не</w>
Ва ши</w>
умень ши
со вест
извест ного</w>
двига тель</w>
но с</w>
па ры</w>
ЮН Ф
оби та
наказа ние</w>
пе ти
ора тор</w>
вер ховен
Бар село
целост ности</w>
при носит</w>
за работать</w>
Ма рия</w>
д я
М К
присут ствует</w>
выстав ке</w>
Н ью
ри ско
до че
выпла чи
подгото ви
198 5</w>
став ка</w>
партне р</w>
то п</w>
агре ссии</w>
фон до
под ходов</w>
Израи лем</w>
ста рых</w>
an k</w>
заседа ниях</w>
мину ту</w>
го вые</w>
жа н
меня ет</w>
Э фио
период ы</w>
пре сси
Н К
приме ров</w>
дополни тельного</w>
ЮНФ ПА</w>
дан ную</w>
мыс ли
вл е</w>
ча м</w>
пере ры
w or
A T
эксплуа тацию</w>
треть я</w>
атмосфер у</w>
про ка
понадоби тся</w>
женщи ной</w>
предпринима телей</w>
l a</w>
пище вых</w>
ро во
им мигра
от мы
владе лец</w>
превы ша
T ra
отде ление</w>
китай ский</w>
следу ют</w>
приорите тов</w>
Л и</w>
важ на</w>
дю й
строи тельстве</w>
т ками</w>
пара метры</w>
право к</w>
в носить</w>
откры л</w>
оста вля
198 7</w>
парт нё
содержа нием</w>
метра х</w>
1 30</w>
принадле жности</w>
предпринима тельства</w>
пре да
i x</w>
сторо ной</w>
она м</w>
Гаи ти</w>
ма стер</w>
бра ть
тенден ция</w>
ин фици
ди тся</w>
Нидерлан ды</w>
руководи тели</w>
подтвер дил</w>
Поль ше</w>
наде жды</w>
мар ки
остано ви
Ш ри</w>
состоя лось</w>
печен и</w>
акаде мии</w>
эн до
чи ли</w>
заинтересован ными</w>
худож ник</w>
й ного</w>
активизи ровать</w>
вы работ
про ли
продук тах</w>
воору женные</w>
технологи ческих</w>
ден а</w>
коро ле
Ба й
an c
энергети ческой</w>
побе ду</w>
пе ще
18 0</w>
м э
кон соли
сыгра ть</w>
ка мера</w>
осведомлен ности</w>
с х
си льным</w>
влен ная</w>
съ ем
налогооб ложения</w>
род ы</w>
инф ляции</w>
то вари
недоста тки</w>
К ро
ремон т</w>
суще ству</w>
К лин
a f
Э ква
мо то
теле коммуника
ве сной</w>
все ленной</w>
откры ты</w>
И г
проек тах</w>
а бор
потер пе
импор т</w>
Ne w
при бо
Сло ваки
фотографи й</w>
особы х</w>
тюрь ме</w>
экспер ти
бан ком</w>
уча сток</w>
подот чет
на в
по год
ис чер
раз обра
Черно го
род ной</w>
ры бы</w>
технологи ю</w>
з ины</w>
Запа да</w>
н ских</w>
профессиональ ные</w>
косми ческих</w>
средне сро
стер а</w>
содержа щиеся</w>
сообща лось</w>
сво ём</w>
за нять</w>
собира ть</w>
правоохрани тельных</w>
бере т</w>
призыва ем</w>
реали сти
мо н</w>
ен ных</w>
Индоне зии</w>
партнер ство</w>
. 2</w>
формиро ванию</w>
кост ю
со цио
опера тивной</w>
вырос ли</w>
храни ли
за су
пе сен</w>
a st
заку пок</w>
успеш ной</w>
я и
учре ди
газе ты</w>
ожи дает</w>
вре да</w>
мг новен
е ду</w>
му д
ги бри
ис а
щен ной</w>
содержа щихся</w>
украин ских</w>
изобра жений</w>
м нений</w>
укреп лять</w>
прост ые</w>
ту рой</w>
отка за</w>
вс ю
измен ению</w>
н ская</w>
ну ли</w>
договорен ности</w>
популяр ность</w>
от клю
ше сти
попыта ться</w>
специаль ный</w>
ко стью</w>
го лланд
не ту</w>
се стра</w>
просмот ра</w>
федераль ного</w>
Пер у</w>
доро га</w>
H T
в зо
A N
китай ских</w>
пи ты
множе ства</w>
с кро
транспор тные</w>
Бе л
тяже ло</w>
запре щено</w>
дево чки</w>
разгово р</w>
вер е</w>
ри к</w>
МА ГАТ
предста вьте</w>
мусуль ман</w>
Ассоциа ции</w>
шоко ла
понима ем</w>
последу ющей</w>
всю ду</w>
мест ный</w>
МАГАТ Э</w>
образо вании</w>
терпи мости</w>
кар те</w>
пол ным</w>
с кло
современ ная</w>
вс помина
я ния</w>
люби те</w>
ста рей
Н Е
выбо ре</w>
дости жений</w>
до мом</w>
проводи ться</w>
разбира тельства</w>
покупа телей</w>
случа я</w>
Б А
переме щенных</w>
ла зер
Конвен цию</w>
популяр ным</w>
ю ге</w>
восстано влению</w>
техни ческую</w>
ска жите</w>
сосредото читься</w>
уче т</w>
ля м</w>
ес т</w>
тин ген
повре ждения</w>
конфи гу
зи ей</w>
бед ных</w>
профилакти ки</w>
C R
примени тельно</w>
кана ла</w>
ду ше
отве тов</w>
милли он</w>
оцен ок</w>
разработа ны</w>
повы шает</w>
чрезвычай ных</w>
жден ных</w>
вырос ла</w>
s c
средне ве
X X</w>
судь и</w>
свобо де</w>
д рав
развива ющимся</w>
каче ством</w>
боль ший</w>
ья н</w>
игра ли</w>
безработи цы</w>
а не
х ен
Кие ве</w>
оккупа ции</w>
приходи лось</w>
ло гов</w>
интерес ные</w>
ку ля
го сти</w>
поко лений</w>
as s
сред них</w>
красо ты</w>
лекар ственных</w>
принципи аль
приорите тных</w>
особы й</w>
а по
возмож ного</w>
практи кой</w>
дре вне
Co mp
удовлетво рить</w>
призна вая</w>
переда че</w>
значи тельную</w>
позна коми
З А
рас се
Ви ль
консенсу са</w>
на сы
бы вших</w>
зо вут</w>
по правок</w>
9 00</w>
it e</w>
скоро ст
с ку</w>
Венг рии</w>
то чек</w>
стан ция</w>
ак креди
торговл ю</w>
се м</w>
не жела
бес прецеден
С В
суд на</w>
дик та
ме че
ч ья</w>
катего рия</w>
H om
Кариб ского</w>
религи я</w>
наимен о
кон вер
П рин
зая влений</w>
под ходы</w>
концентра ции</w>
насе лению</w>
приня тию</w>
финанси ру
графи я</w>
Ха й
про голосо
Ш ар
логи ческие</w>
не приемле
при бе
запис ы
сто летия</w>
с хо
религиоз ной</w>
Брю ссе
ван ного</w>
Д .</w>
ги й</w>
па ти
подверга ются</w>
ч ке</w>
занима ющихся</w>
предотвра щению</w>
визи т</w>
усили ям</w>
активи зации</w>
B it
заня ться</w>
низ м</w>
до ктора</w>
ство вало</w>
зелен ый</w>
инстру мента</w>
s on</w>
контрак тов</w>
полож ением</w>
каж ет</w>
жу сь</w>
достиг нут</w>
п лы
Йор ка</w>
до р
с сом</w>
увеличи вает</w>
ку ли
витами на</w>
иннова ционных</w>
фут боль
пото ка</w>
кажу тся</w>
го мо
бла го</w>
уделя ется</w>
ес си
этни ческих</w>
аппара т</w>
G R
ком проми
наж мите</w>
M ed
с кри
к ли</w>
На й
каз ни</w>
де ш</w>
указа ния</w>
мет ро</w>
ма ты</w>
Ин ди
Госпо да</w>
подтвер дили</w>
про чих</w>
про анализи
вше мся</w>
замести теля</w>
н рави
В у
би ться</w>
r on
использо вались</w>
возмож ной</w>
особы е</w>
сталки вается</w>
делега ций</w>
в близи</w>
у су
на править</w>
У слу
определен но</w>
либе раль
двусторон них</w>
а т</w>
магази нов</w>
нача лся</w>
статисти ческих</w>
сторо нам</w>
под зем
изобре тения</w>
S y
союз ников</w>
ж ном</w>
Республи кой</w>
террори стов</w>
oc k
явля ющихся</w>
са л
надлежа щего</w>
Б ру
перен ос
Ж а
приобре тен
люби л</w>
ал ма
министер ство</w>
близо сти</w>
Прави тельства</w>
прекрас ный</w>
кон курс</w>
дре ве
ж ную</w>
Н у
брен д</w>
кон тинген
те а
ча ется</w>
доста вка</w>
защи той</w>
ю жной</w>
То ки
э .</w>
кодек с</w>
in a</w>
от цом</w>
совершенство вание</w>
во ин
IS O</w>
1 2.
особен ностей</w>
Re v
ло ко
r u
консульта н
фанта сти
малень ких</w>
ут ро</w>
живу щих</w>
согласован ных</w>
сло вом</w>
кор ми
приня той</w>
e p
результа та</w>
вер тика
моби льные</w>
организа циях</w>
а парта
си льной</w>
И С</w>
А х
со тен</w>
ig ht</w>
собира ются</w>
не ром</w>
Б ы
воз ло
впечат ля
суббо ту</w>
импор та</w>
оде жду</w>
боль ницы</w>
измен ении</w>
искус ств</w>
исче за
исследо вать</w>
Калифор нии</w>
масшта бе</w>
гла в</w>
маши не</w>
жд е</w>
Мак е
Го л
ствен ному</w>
представлен ные</w>
Бо же</w>
N et
приобре та
ба р</w>
i a
реаль ном</w>
иностран цев</w>
имен ем</w>
Молдо ва</w>
Солн ца</w>
точ ного</w>
Да нии</w>
мар ки</w>
на вод
эффектив ный</w>
пере смотреть</w>
ще му</w>
креди тов</w>
диф ферен
пользу ется</w>
и поте
го та
участво вали</w>
развива ющиеся</w>
бар ди
юриди ческие</w>
б рас
бло г</w>
пробле мах</w>
с чёт</w>
вы нес
А ЭС</w>
ка дро
неу жели</w>
разли чие</w>
инструк ции</w>
хва тит</w>
договори лись</w>
оста льное</w>
экс клюзи
Слу ж
ядер ным</w>
свобод ных</w>
озна комиться</w>
объек том</w>
ко гни
инициати ва</w>
рыно чной</w>
узна л</w>
обязан ность</w>
религиоз ные</w>
при ем
М О</w>
кро вя
ран него</w>
аф ган
секре т</w>
К ер
кар тина</w>
5 0
соответству ющее</w>
Европей ская</w>
ска жем</w>
Б он
так си</w>
т ров</w>
гото ви
трав мы</w>
си ле</w>
беспокой ство</w>
мен тами</w>
ль но
с су</w>
науч ного</w>
незакон ного</w>
проис хождение</w>
важ ными</w>
поря до
широ ко
совер шить</w>
предпочита ют</w>
отра жа
в ёр
i e
Кан целя
ошиб ка</w>
ро ждение</w>
форма т</w>
Ф рэн
из ы
Г лав
алкого ль</w>
бога тых</w>
Бо ли
бо и
ду ша</w>
материаль но</w>
с бы
не жели</w>
ле ст
покуп ке</w>
семина р</w>
привод ят</w>
д р</w>
вмеша тельство</w>
сти пен
поощ рение</w>
да ции</w>
t on</w>
призна л</w>
Исполни тельного</w>
B o
дета лей</w>
само му</w>
откры тых</w>
международ ную</w>
ули цы</w>
Чар ль
внеш него</w>
у во
твер ды
позволи ли</w>
во шли</w>
Ал лах</w>
от ы</w>
безопас ной</w>
жду т</w>
t s</w>
вра чом</w>
значи тельных</w>
С ент</w>
террористи ческих</w>
проек там</w>
щи ка</w>
оцени вать</w>
надца той</w>
отрасле й</w>
исследователь ских</w>
и ще
физи ческое</w>
. 0
бе ль
ска ни
Ш от
Казах стане</w>
рас позна
сотрудни кам</w>
кон тр
поддержа ние</w>
граду сов</w>
Реги ональ
серьез ную</w>
специализи рованных</w>
ти ло</w>
Восто к</w>
ш ту
угле рода</w>
ти к</w>
Ф ри
Вы со
вра ж
дие ты</w>
гота вли
объясня ется</w>
ба м</w>
Свя той</w>
пере ди</w>
рекомендо вал</w>
Ч Е
приня ло</w>
кри терии</w>
зи а
груп пам</w>
за грузки</w>
строи тельству</w>
ic a</w>
высоко поста
ме й
Р од
ис править</w>
счита ете</w>
груп по
ком пенси
соверши л</w>
креди тной</w>
симво л</w>
О де
страда ния</w>
маркетин г</w>
воздуш ных</w>
рабо чем</w>
оши бо
С ьер
жи вой</w>
наз вали</w>
Дж ер
по ляр
об щение</w>
ля ться</w>
будуще й</w>
фло та</w>
чи ками</w>
распростра нении</w>
постано вила</w>
обы чные</w>
N E
щ ет</w>
разде ла</w>
вер ят</w>
гла зах</w>
стра дает</w>
дальней шие</w>
. ru</w>
не медлен
верну лись</w>
выбра ли</w>
слу ши
аспек тах</w>
холе сте
вся кий</w>
жи х</w>
собствен но</w>
проек тами</w>
ва ющая</w>
оптими зации</w>
п и</w>
счаст ья</w>
влия нием</w>
миро вом</w>
принци пам</w>
мор ские</w>
институ ты</w>
стре мл
са хар
охва та</w>
ми ни</w>
Всемир ная</w>
при остано
тести рования</w>
гендер ной</w>
С па
до зы</w>
те йн</w>
кре по
бра ка</w>
1 1.
деся той</w>
зая вку</w>
счита л</w>
класси фици
информа ционные</w>
Б ла
жен ой</w>
сер вер</w>
Пар ла
Б рай
глобаль ные</w>
стаби лизации</w>
Am az
ог не
агре сси
му же
люд ских</w>
ген а</w>
убе дить</w>
Чи ка
каса ются</w>
за муж</w>
Африкан ского</w>
эффек та</w>
Пе ки
Т уни
ч ков</w>
спор тивных</w>
выде лить</w>
води ть</w>
учи теля</w>
г нуть</w>
созда но</w>
су ток</w>
согласи лись</w>
устра нить</w>
управля ющих</w>
коман дой</w>
согла ш
инди ка
болез нен
оста вил</w>
вече рин
произ вести</w>
низ кие</w>
несовершенно летних</w>
да ется</w>
де в
Че лове
от рази
х ак
времен ные</w>
сом нений</w>
точ ке</w>
спроси те</w>
стра нно</w>
расту т</w>
I D
совер шения</w>
тради ционной</w>
обсу дили</w>
актив ные</w>
п .</w>
доче ри</w>
Ва ше</w>
измен ением</w>
пла нах</w>
мы ше
Мар к</w>
акку муля
процес суаль
топли во</w>
ме рами</w>
ингреди ен
беспла тный</w>
разработ чиков</w>
ин спе
ша яся</w>
поблагода рить</w>
ха я</w>
МО Т</w>
карти ну</w>
конфлик ты</w>
Э м
И сто
заме тил</w>
да я</w>
Во л
вы несен
серьез ной</w>
подписа ния</w>
2 6
предше ствен
бли ж
располо женный</w>
жало б</w>
зву ча
ти по
проф сою
ланд ша
Вашинг тоне</w>
конкуренто способ
полити ческое</w>
грузо ви
закон ных</w>
ва ло
китай ские</w>
до мен
Суда на</w>
е к</w>
Де й
НИ Я</w>
звез да</w>
уро ки</w>
сдела н</w>
призна ку</w>
европей ского</w>
бе зо
Бан гла
Уиль я
устано вление</w>
произош ли</w>
ще гося</w>
пациен т</w>
жерт вам</w>
количе ству</w>
ко сме
О те
объя сни
за н
Бель гии</w>
Tim es</w>
брен да</w>
m e</w>
га на</w>
Петербур ге</w>
производи теля</w>
взя ли</w>
ве дется</w>
полу чении</w>
собствен ным</w>
ar t</w>
Сьер ра</w>
ува жать</w>
достига ет</w>
целе вых</w>
согласи лся</w>
выход ные</w>
ri g
терп ением</w>
ль да</w>
ь тесь</w>
сельскохозяй ственных</w>
финансо выми</w>
по шли</w>
I T
на со
ар тери
добро совест
устанавли вает</w>
за дума
еги пе
ме рам</w>
по рази
дополни тельная</w>
прось бы</w>
цере монии</w>
бес при
Брази лия</w>
пред положить</w>
наме рены</w>
не мало</w>
Поли тика</w>
при ступ
опа са
да влением</w>
автори те
по бы
Ко ста</w>
к ня
1 60</w>
женщи ну</w>
по воро
Шта тами</w>
ст .</w>
роско ш
спо ры</w>
процеду ру</w>
з вен
197 9</w>
тра ги
продолжа л</w>
вкла ды
худож ников</w>
опублико вал</w>
за ди</w>
т та</w>
С аль
Европей ским</w>
переда вать</w>
c o</w>
в строен
реабили тации</w>
то вые</w>
o p</w>
экономи ческом</w>
описа ния</w>
мине раль
вы ру
по вез
М ьян
С ы
озер а</w>
определен ную</w>
подтвер ждения</w>
пти ц</w>
ван ге
указыва ется</w>
футбо л</w>
Сол не
пу зы
не большая</w>
Паки стан</w>
на грузки</w>
Гви не
индивидуаль ных</w>
Л И
бе р</w>
в зи
ОЭ СР</w>
внеш не
успе хов</w>
еха ла</w>
Д жен
жа х</w>
дела ешь</w>
ид ёт</w>
A M
коро ля</w>
американ ским</w>
дере во</w>
под ряд</w>
корот кий</w>
предыду щий</w>
полож ениям</w>
восста навли
пропор циональ
r o</w>
круп ным</w>
A P
то вого</w>
узна ли</w>
за блоки
обы чного</w>
1 40</w>
мине ра
талан тли
зи н</w>
дву м</w>
оп пози
Ко рее</w>
Г ва
переда чу</w>
извест ная</w>
198 2</w>
г ло</w>
Румы нии</w>
Но вая</w>
Церков ь</w>
го сте
побереж ья</w>
инфраструкту ру</w>
Б Р
дело вой</w>
I F
ко н</w>
тра тить</w>
теку щей</w>
ча х</w>
Конферен ция</w>
an ce</w>
шен ные</w>
b er</w>
камен ь</w>
выступ ление</w>
дире ктором</w>
про движение</w>
Нидерлан дов</w>
настоя щих</w>
назна чение</w>
рис ку</w>
целя ми</w>
Азиат ско</w>
участво вал</w>
коллек ции</w>
сформули рованных</w>
устойчи вое</w>
дели ться</w>
и щет</w>
В С
экспо зи
й ной</w>
серви са</w>
евре и</w>
нача лу</w>
сред ствам</w>
Запа д</w>
ec h
ди о
с бере
техни ческим</w>
соответству ющую</w>
ти хо
контрак та</w>
докумен тах</w>
удоб но</w>
ступ ен
CN .
бро н
рас ы</w>
во стре
води тель</w>
д ской</w>
законода тельных</w>
си деть</w>
Д ля</w>
т ны</w>
тр ёх</w>
сырь я</w>
Гар ри</w>
север е</w>
настоя щие</w>
служа т</w>
иден тификации</w>
облег чить</w>
име ло</w>
A .</w>
пре се
враж деб
насе лением</w>
бом барди
моти ви
Маке до
обы чной</w>
люд ях</w>
ре конструкции</w>
муж ем</w>
ли ст</w>
побе да</w>
интегра ция</w>
происходи ло</w>
отсут ствием</w>
замеча ний</w>
право вого</w>
А .
гла зами</w>
сельскохозяй ственной</w>
хорош ую</w>
жен ными</w>
оп позиции</w>
четвер тый</w>
п ени
й ки</w>
вен ти
па дают</w>
вра чу</w>
рова лся</w>
кише ч
v er
уча ству
приводи тся</w>
д кой</w>
откры тый</w>
пере чис
реда к
серьез ным</w>
жи р</w>
Мекси ки</w>
С лов
умень шение</w>
потреб ностям</w>
аналити ки</w>
I B
схе мы</w>
представи ли</w>
обеспоко ен</w>
Д ан
продоволь ствия</w>
Христо с</w>
о гра
Р У
компетен ции</w>
полу чены</w>
мо ния</w>
банк ро
пар ке</w>
литера туры</w>
Дж у
десятиле тие</w>
суд ья</w>
защи ща
есте ственным</w>
про читать</w>
пере ез
полага ю</w>
сотрудни ча
У сло
госпо дин</w>
проис ходить</w>
ограни чить</w>
обеща л</w>
рай тесь</w>
сезо не</w>
част ный</w>
осно ваний</w>
ста ну</w>
об мени
п ины</w>
з рение</w>
авто ром</w>
за платить</w>
пи ть
Бож ь
сою зом</w>
дире ктив
Международ ным</w>
о кажется</w>
Пари ж</w>
ва жен</w>
нако плен
рабо ток</w>
безопас но</w>
Д П</w>
сю р
си льное</w>
треть ем</w>
опера ционной</w>
фору ме</w>
в ход</w>
кана лов</w>
завтра к</w>
деше вле</w>
Вели кой</w>
осторо ж
м ным</w>
за повед
запро сы</w>
приобре тение</w>
принима ли</w>
времен ное</w>
е два</w>
доро гие</w>
годо вой</w>
испол нении</w>
198 4</w>
Ку бы</w>
укреп лении</w>
молеку ляр
ры б
комна та</w>
в кой</w>
мор ю</w>
начина ть</w>
уча щихся</w>
официаль ным</w>
виру са</w>
вс кую</w>
незакон ной</w>
актив ной</w>
фон ды</w>
независи мой</w>
го н</w>
рыбо лов
значи тельным</w>
ресур сам</w>
рекла ма</w>
лиц ей</w>
не о
Бан ка</w>
экономи ческому</w>
интеллек та</w>
чрезвычай ной</w>
боль нице</w>
Сер ви
современ ным</w>
любов ью</w>
Г А
отче те</w>
солне чной</w>
пострада вших</w>
Бангла деш</w>
установ ка</w>
обнару жил</w>
ко пии</w>
а ра
за думы
ле сов</w>
предположи тельно</w>
не бес
востре бо
увелич ением</w>
ру г
стре сса</w>
мемо ранду
пе хот
га ют</w>
со ли</w>
тури зм</w>
обеспечи т</w>
м ная</w>
от части</w>
официаль ное</w>
ра р
воз ле</w>
D i
здоров ью</w>
принима ется</w>
при вяза
конкре тным</w>
тро е</w>
рекомендо вать</w>
суверени тета</w>
де фек
прост ым</w>
C E
197 3</w>
ло сти</w>
в шаяся</w>
хозяй ств</w>
пред ь</w>
Ближ него</w>
Дмитри й</w>
f or
рован ном</w>
a i</w>
доверя ть</w>
стар та
законода тельстве</w>
Ри о</w>
в предь</w>
Д Р</w>
глоба лизации</w>
П В
поступ ления</w>
секто рах</w>
необходи мого</w>
гор до
древ ние</w>
называ емый</w>
обнару жения</w>
вы жить</w>
d s</w>
поня ли</w>
os t</w>
ра цией</w>
лен д</w>
исследо ванию</w>
Бе й
э ги
социаль ную</w>
провер ка</w>
рабо чее</w>
адре са</w>
внезап но</w>
приро до
u x</w>
Соединен ное</w>
посо л</w>
кар тин
док три
выгля дят</w>
жид кости</w>
боепри па
эксплуа та
я за
у тра</w>
называ емые</w>
Зако ном</w>
треть е</w>
хими ческие</w>
про сматри
истори ческие</w>
истин у</w>
ви ча</w>
предназна чен</w>
критери ев</w>
солн ца</w>
пла тель
на писан
рассмот рены</w>
зи мой</w>
узна йте</w>
воздуш ного</w>
внеш ние</w>
побе дить</w>
Консульта тивного</w>
комисси ей</w>
придержи ваться</w>
обработ ка</w>
хоро ших</w>
конвен ций</w>
наслажда ться</w>
теоре ти
показа теля</w>
вой н</w>
И ГИ
отслежи вать</w>
стра ха</w>
администра тивным</w>
р ти
доби ваться</w>
TRA NS</w>
подчеркну ли</w>
ВВ С</w>
ки не
Ле оне</w>
В .
дер жек</w>
р ным</w>
кварти ру</w>
лабора тор
са ло
определен ным</w>
адвока т</w>
оборо та</w>
консу ль
груз ин
противоре чи
сцена рий</w>
прогре сси
де ль</w>
воен ную</w>
ме тро
сфер а</w>
север ной</w>
природ у</w>
СПИД а</w>
m an</w>
компонен т</w>
ди стри
магази не</w>
публи чно</w>
граждан ским</w>
вы шли</w>
Но во
принадлежа т</w>
указа л</w>
на хо
у влека
ка бе
нен а</w>
ч тения</w>
изуч ению</w>
вспомога тельных</w>
уско рить</w>
украин ского</w>
табли це</w>
er c
приве л</w>
брас ы
эги дой</w>
С пи
рекоменду ем</w>
э сте
ри ском</w>
разрабаты вать</w>
эта пах</w>
менедж мента</w>
насе ко
А да
направл ениям</w>
вер ши
би т</w>
W i</w>
ри сками</w>
взгля ды</w>
до казыва
голо ве</w>
максима льной</w>
компьюте ры</w>
требо вать</w>
уси ления</w>
А ри
Pr ess</w>
пенси ю</w>
учи телей</w>
дли на</w>
у чения</w>
противо стоять</w>
Си сте
фа ми
П ос
вла стью</w>
аналоги чные</w>
нуж ден</w>
отвеча ют</w>
воен ным</w>
проведен а</w>
необходи мыми</w>
соблюд ением</w>
эк зем
ва емся</w>
Библи и</w>
доступ ности</w>
Мекси ка</w>
М .</w>
Са м
совмест ное</w>
до х
объе мы</w>
Ген ри</w>
вели кий</w>
обо б
co in</w>
строи тельных</w>
зве здо
озна ком
не форма
науч ный</w>
ш ины</w>
зако нами</w>
при ста
Кам бо
у чить</w>
от ставку</w>
како ва</w>
цен ные</w>
экзем пля
про ез
россий ским</w>
ви а
вс помнить</w>
откры том</w>
круп ный</w>
Те ха
Дж она</w>
му со
Пари ж
ле со
бе лка</w>
не вро
узна ете</w>
Б ре
й на</w>
значи тельного</w>
выте ка
свиде тельства</w>
S S
образ цы</w>
ко да</w>
сигна лы</w>
филосо ф
л ениям</w>
вы стре
поез док</w>
присоеди нения</w>
занима ют</w>
заболе ваниями</w>
специали ст</w>
Г ан
располо жена</w>
независи мого</w>
р ная</w>
на зывать</w>
н .
газе та</w>
сто лом</w>
конструк ция</w>
ИК Т</w>
рован ности</w>
ру ющей</w>
вы сы
тя ги
ком менти
эле ментом</w>
мя са</w>
действу я</w>
раз влека
теку щих</w>
сай тах</w>
посе щение</w>
мест у</w>
Компа нии</w>
девя той</w>
при год
вы зывать</w>
голосо вание</w>
ча ются</w>
а ссамбле
Туркмени стана</w>
Кип р</w>
In d
пря мые</w>
мя со</w>
запу ск</w>
у видели</w>
то ка</w>
у ход</w>
он у</w>
кто ры</w>
Ира ном</w>
л ков</w>
рав ной</w>
произо шел</w>
пи н</w>
у сыно
при дет</w>
ня м</w>
Фору ма</w>
подтвер ждение</w>
счита ться</w>
го но
рус ском</w>
созда нием</w>
устрой стве</w>
коман д</w>
иностран ным</w>
меня ться</w>
справедли вого</w>
ме бель</w>
жда ют</w>
налого вых</w>
интер нета</w>
истори ческий</w>
заклю чении</w>
изгото вления</w>
погиб ших</w>
лли ву
наме рен</w>
тор гового</w>
говори лось</w>
бра та</w>
Add .1</w>
выступа ют</w>
пригла ша
ли ний</w>
предыду щая</w>
практи ческие</w>
Кры ма</w>
откры той</w>
объеди няет</w>
дево чка</w>
20 30</w>
уверен а</w>
бо го
заслужи вает</w>
коло н
ситуа цией</w>
у шел</w>
заня тий</w>
клас сов</w>
продемонстри ровать</w>
успо ко
чер т</w>
энергети ческих</w>
от ста
га л</w>
пер выми</w>
Б ор
слож нее</w>
Р А</w>
разме щение</w>
автомати зи
ремон та</w>
фир ма</w>
Серби и</w>
международ но</w>
эк стре
О стро
сооб щают</w>
и ди</w>
Колумби и</w>
террористи ческой</w>
се рий
та нии</w>
об вин
ле чеб
избира телей</w>
удоб ства</w>
дви жению</w>
Е ди
явля етесь</w>
You Tube</w>
эк зо
и ном</w>
сто мато
радо сть</w>
совмест ные</w>
ли л</w>
высо кими</w>
приве ла</w>
Се й
моно поли
украин ской</w>
жи в</w>
Евро союза</w>
на стройки</w>
али зации</w>
L E
статисти ка</w>
китай ского</w>
СПИД ом</w>
показа ться</w>
С ар
студен там</w>
нача лись</w>
опубликован ном</w>
In t
диагности ки</w>
инициатив у</w>
внес ения</w>
a h
забы вать</w>
ря ды</w>
графи к</w>
Пра вос
разработа ли</w>
Ж е
уби ты</w>
появи лось</w>
st er</w>
ве до
устано влению</w>
не ц
перегово рах</w>
а ри
програм мами</w>
опера цию</w>
не по
аналоги чным</w>
ходи л</w>
страхо вание</w>
осно ваны</w>
цве ты</w>
Ли вии</w>
ме тео
ва ющее</w>
ИГИ Л</w>
ры ми</w>
оправ да
Шве ция</w>
демонстри рует</w>
продук тами</w>
не терпением</w>
большин ством</w>
Па ра
вля ются</w>
прось бу</w>
обра щении</w>
склон ны</w>
прожи вает</w>
долла р</w>
долла ра</w>
соба ка</w>
удовлетво ри
су ста
2 3
м 2</w>
владель цы</w>
самоле ты</w>
действи ям</w>
установ лен</w>
Соединен ными</w>
здравоо хранение</w>
ти ке</w>
тенден ций</w>
департа мента</w>
проис ше
рас сказала</w>
Т И
стандар та</w>
ме га
B r
искрен не</w>
Amaz on</w>
профессиональ ный</w>
сме ш
руководи теля</w>
Пи тер</w>
Но вого</w>
ЦР У</w>
способ ностью</w>
жен ное</w>
ассо рти
озна ча
немец кий</w>
последстви ях</w>
продолж ения</w>
иностран ного</w>
вы нужден</w>
4 .</w>
до н</w>
воз держа
разработа на</w>
ж ениям</w>
распростра нению</w>
работа ю</w>
пар нико
пов стан
198 1</w>
сы рье
ви но</w>
S on
ле вая</w>
обла дать</w>
тяже лых</w>
вклю чение</w>
серви сов</w>
привлека ет</w>
корруп цией</w>
стре лко
фестива ля</w>
веще ство</w>
совер шать</w>
определя ют</w>
ссы лка</w>
секто ров</w>
f l
финансо вая</w>
плани руют</w>
ня т</w>
бур ге</w>
палестин ского</w>
город ского</w>
Гре ция</w>
фру к
подписа л</w>
неотъемле мой</w>
кру га</w>
логи ческой</w>
тель на</w>
обследо вания</w>
Центра льных</w>
Бу д
респонден тов</w>
Ли вана</w>
ё те</w>
т ры</w>
полез ные</w>
отмени ть</w>
острова х</w>
U R
собы тиях</w>
назна чен</w>
колле г</w>
раз решить</w>
Сво бо
креди ты</w>
тан це
Э ль</w>
сто е</w>
крупней ший</w>
роди телями</w>
пря мого</w>
197 5</w>
плате жи</w>
сти ля</w>
разно вид
сдела йте</w>
к сем
части цы</w>
пей за
ма р</w>
ту бер
УВК ПЧ</w>
нач нет</w>
мо ря
граждани н</w>
2 7
молоде жь</w>
суд я</w>
заме тно</w>
Ста мбу
менедже р</w>
по вер
аль ных</w>
администра тивные</w>
коммента рий</w>
С О</w>
уда ления</w>
вери т</w>
ht t
ы ва
ro p
программи рования</w>
Ма дри
недоста ток</w>
широ ком</w>
ка ции</w>
выбро сы</w>
иллю стра
М не</w>
стату се</w>
попроси л</w>
Ка й
технологи ям</w>
B .</w>
цен ой</w>
шко ль
ч кой</w>
буду щие</w>
У ган
r e</w>
Хорва тии</w>
Фло ри
име ющиеся</w>
стандар тами</w>
o u</w>
насили ем</w>
раз мыш
бе лые</w>
противо стоя
професси и</w>
Араб ской</w>
пред писа
осен ью</w>
моби льного</w>
ли нию</w>
К ра
дли тся</w>
a x
сни жает</w>
о с</w>
пыта ться</w>
противоре чит</w>
расследо ваний</w>
моло ко</w>
доступ но</w>
ля цию</w>
основа тель</w>
надлежа щим</w>
Кав ка
Министер ством</w>
напи тки</w>
Со един
тубер ку
гу а</w>
Мон го
Ж ен
ло я
за мок</w>
рен е
покуп ку</w>
То м
Зе лен
любо пы
пунк там</w>
ок но</w>
вариан та</w>
убе ждений</w>
сохра няется</w>
ни на</w>
брау зер
благо состояния</w>
по кон
располо женных</w>
дела я</w>
Норве гия</w>
рассмотре л</w>
юриди ческого</w>
пре прово
ПР О
девя ти</w>
официаль ном</w>
ран ней</w>
корре к
К им</w>
продолжи т</w>
употреб ления</w>
ги м</w>
с ми
у рав
Т В</w>
Ха би
та бе
успеш ным</w>
обсу ждений</w>
К от</w>
ду хе</w>
о ре
бата реи</w>
Ан ти
холо ди
т ским</w>
аэропор ту</w>
бло ка</w>
иностран ной</w>
находи мся</w>
Оба мы</w>
медицин ское</w>
мини ми
соста вили</w>
a in
ин дей
е да</w>
незамедли тельно</w>
д ского</w>
циви лиза
Зем лю</w>
as t</w>
Г О
экономи чески</w>
ут бу
прекра щении</w>
заканчи вается</w>
интерфей с</w>
ска зыва
дет ского</w>
предусмотрен ные</w>
обрати лся</w>
тру бо
н ность</w>
C ol
бри фин
в ступил</w>
су дно</w>
жа р
пере дает</w>
оконча тельно</w>
но во</w>
тюрь мы</w>
приви леги
моло чной</w>
целя м</w>
V ol
выра баты
P R</w>
защи щает</w>
На у
бюдже те</w>
отправи ться</w>
спокой но</w>
ту н
выс ших</w>
види мо</w>
тенден цию</w>
к се
Анд рей</w>
объ явля
ба га
Би т
тен ни
би лет</w>
а ван
це лен
От дела</w>
Дональ д</w>
ище те</w>
ш ер
во рачи
сертифика т</w>
зая влением</w>
сто ла</w>
отпу ск</w>
близ ких</w>
мага зины</w>
созда вая</w>
путеше ствовать</w>
предло жила</w>
истре би
S T
ава рии</w>
G am
ли це</w>
ли ться</w>
экстре ма
анг л</w>
призна ется</w>
о по
запас ы</w>
ра да</w>
доступ ность</w>
целен апра
ли ли</w>
озер о</w>
ль ский</w>
ОА Э</w>
посы ла
значи тельная</w>
кру гло
уча ствующих</w>
Фи нан
Паки стана</w>
Д ес
вл ениях</w>
бизне сом</w>
стихи йных</w>
пане ли</w>
К то</w>
ш ло</w>
ка н</w>
а спи
учрежд ениям</w>
послед нюю</w>
ac h
o h
ребё нка</w>
корректи ровки</w>
ду бли
прави льное</w>
ствен ность</w>
основан ный</w>
поста нов
генераль ного</w>
осо бую</w>
про ры
достоин ства</w>
голо да</w>
удосто вер
бактери й</w>
взро сло
трафи ка</w>
па роль</w>
литера тур
долгосро чных</w>
при в
сло ва
к са</w>
точ ности</w>
тер мо
физи чески</w>
прове ден</w>
усили ть</w>
тре йде
ко стей</w>
верну лась</w>
но утбу
положи тельные</w>
реаль ный</w>
окру га</w>
мас су</w>
сесси й</w>
осуществля ются</w>
насле дие</w>
допу стить</w>
воло н
государствен ная</w>
бак терии</w>
интерес ных</w>
характеристи к</w>
устойчи вость</w>
убий ств</w>
Амери ку</w>
стара емся</w>
не лега
19 20</w>
e i</w>
19 30</w>
ск воз
ля ли</w>
Ал ба
т то</w>
облег чения</w>
ъ е
постано вление</w>
судь ба</w>
беспри страст
уязви мых</w>
здоро во</w>
одинако во</w>
влен ное</w>
тя тся</w>
уров ню</w>
ст ые</w>
хо стин
М Г
выра жа
перечислен ных</w>
оста вляет</w>
Ав стрия</w>
пара метров</w>
т рас
сай том</w>
л ени
изме ря
воспа ли
те ма
потребо ваться</w>
стреми мся</w>
психо логии</w>
Па на
5 000</w>
197 8</w>
опы те</w>
i P
ви з</w>
теле ско
ти ков</w>
квали фика
Лю ксем
теа тра
ссы лкой</w>
умер ла</w>
воз действию</w>
Саудо вская</w>
привер женности</w>
не про
аспек т</w>
г г</w>
наблюд ение</w>
теле фонов</w>
пассажи р
подума йте</w>
препят ствий</w>
ста вить</w>
взаимо действовать</w>
в переди</w>
осно ва</w>
Конвен цией</w>
обра щается</w>
при сво
Аль бер
доступ ные</w>
шта тов</w>
Ле й
напра влен</w>
обеспечи вая</w>
га м
По вест
дальней шему</w>
архе ологи
про является</w>
Ислам ской</w>
та ин
се рию</w>
за жи
четыре х
S A
миро вые</w>
подроб ности</w>
развед ыва
с клады
служи л</w>
максиму м</w>
свобод ный</w>
неожи дан
обеспе чением</w>
ЮН ИД
сту дии</w>
дие та</w>
бес челове
националь ную</w>
кух ня</w>
G r
континен та
представлен ный</w>
заме тить</w>
солидар ности</w>
отрас ль</w>
ло сть</w>
освобо ждение</w>
выя вить</w>
плане та</w>
З а</w>
предыду щего</w>
обще ственные</w>
йд ёт</w>
за писа
ве чно</w>
Ба ку</w>
по шел</w>
теп ло</w>
предупре ждение</w>
оте ле</w>
квалифици рованных</w>
тка ней</w>
масшта бах</w>
я щих</w>
ле тов</w>
i i</w>
M an
о телей</w>
на помнить</w>
й та</w>
плат форму</w>
сель ское</w>
процес сах</w>
син дро
не бо</w>
раз у
пос лан
приорите ты</w>
многосторон них</w>
сро ком</w>
собра ние</w>
воен ное</w>
бес пило
а пелля
опреде лению</w>
у дво
сопроти вление</w>
Арави я</w>
связа нными</w>
превра тить</w>
Токи о</w>
демократи ческих</w>
дви жением</w>
диапа зон</w>
с ным</w>
челове ческий</w>
действи ями</w>
теат ра</w>
отра жение</w>
is s
чен ко</w>
p er
сро ков</w>
информа ционного</w>
i al</w>
Ио ан
оте ра
тин г</w>
ла вной</w>
объеди нить</w>
сто лица</w>
за действо
неизбе жно</w>
банков ских</w>
сожа ле
полез ны</w>
Л уч
испыты вает</w>
сло ев</w>
т ников</w>
э ми
вы дели
коман ду
точ ное</w>
ин туи
предло жили</w>
написа но</w>
чинов ники</w>
кла д</w>
аб стра
Про ек
физи ологи
под де
интеллек т</w>
Гва тема
Бал ти
со действию</w>
совер шении</w>
успе хи</w>
сто лицей</w>
высо те</w>
экономи и</w>
просмот ров</w>
набо ра</w>
обя зу
мо че
чер но
кора блей</w>
дорого стоя
выс шей</w>
ст рен
Гру зия</w>
комите ту</w>
си лах</w>
достиг ла</w>
пре ми
ме ти
зая влениями</w>
я ние</w>
одно зна
ро ман</w>
рассла б
феде рации</w>
осве щения</w>
3 50</w>
подразуме вает</w>
мо ги
й с</w>
мно му</w>
измени лось</w>
Егип те</w>
кана лы</w>
ша бло
ли м
мен тах</w>
муниципа ли
эле мента</w>
вери л</w>
из держ
тести рование</w>
минист ры</w>
сле д</w>
ги бели</w>
сексуаль ных</w>
к ера</w>
о тели</w>
a in</w>
россий ско</w>
щи мися</w>
транспор тной</w>
m ent</w>
ж ениях</w>
регули рование</w>
Бан к</w>
т ском</w>
ор дини
могу ще
T e
по хва
ско м
гор но
ско рей
про с
важ нее</w>
Конгре сс</w>
заяви тель</w>
выбо ром</w>
эска ла
постоян ным</w>
о собой</w>
срав нения</w>
C ent
ec t</w>
па да
ста ном</w>
Д А
доступ ной</w>
Н у</w>
До мини
проя вления</w>
возобновля емых</w>
установлен ные</w>
достопримеча тель
к ет</w>
свой ств</w>
и с</w>
уника льные</w>
3 000</w>
обработ ку</w>
реги оны</w>
ле ты</w>
дво рец</w>
бе та</w>
устанавли вать</w>
инфраструкту ра</w>
Португа лии</w>
жен е
щен ного</w>
р ка</w>
оккупи рованных</w>
а бо
чист о</w>
197 4</w>
Олимпи йских</w>
бе к
т я</w>
отсут ствуют</w>
последстви ями</w>
от кровен
торго вый</w>
ли не</w>
тар кти
сти я</w>
под ходят</w>
образ ец</w>
вы работки</w>
приз вала</w>
ско ордини
испыты вать</w>
ресур сах</w>
ва в</w>
малень кая</w>
формиро вании</w>
составля ть</w>
I n</w>
показа ния</w>
конститу ции</w>
un d
B re
ав то</w>
судо ход
Ви кто
E u
солне чных</w>
явля лся</w>
использо ван</w>
экологи ческого</w>
альтернати вы</w>
аген т</w>
ро го</w>
B M
Вы с
Вен е</w>
увеличи лось</w>
до н
случи тся</w>
наро дом</w>
вкла да</w>
хо дами</w>
Ма ври
расстоя ния</w>
й ный</w>
до ход
бе лых</w>
пер ене
случа ю</w>
плохи е</w>
К .</w>
Дже к
кампа ния</w>
подроб ную</w>
имен о
гра вита
влен ным</w>
рас су
долгосро чные</w>
ста рения</w>
теку щий</w>
о пи
объя вили</w>
По ро
получа ли</w>
на нести</w>
по думал</w>
выполня ют</w>
сты м</w>
похо жи</w>
акцен т</w>
опухо ли</w>
подоб ный</w>
статисти ке</w>
198 3</w>
цифро вые</w>
аль ный</w>
па у
отслежи вания</w>
не ограничен
стимули ровать</w>
искус ственного</w>
педаго ги
су мас
кампа нию</w>
пра вы</w>
компьюте ре</w>
измен ениям</w>
маршру т</w>
ходи те</w>
ре кти
пор но</w>
электро нного</w>
пересмот ра</w>
произ ведений</w>
US D</w>
диабе та</w>
Д ави
соедин ений</w>
ва емым</w>
ц кий</w>
дет ства</w>
помо гли</w>
дер ы</w>
мене джер
ну не</w>
От де
197 1</w>
наркоти ки</w>
право вым</w>
спон со
сме ша
пыта ясь</w>
откры та</w>
фак та</w>
представи тельство</w>
принима л</w>
послед нем</w>
действу ющим</w>
ло га</w>
19 40</w>
раси зма</w>
регуляр ные</w>
нынеш ний</w>
Ф БР</w>
называ емых</w>
T V</w>
адре су</w>
as h
арен ды</w>
сохра няет</w>
при да
владе ет</w>
выигра л</w>
ван ным</w>
щи ны</w>
it al</w>
мощ ный</w>
лен но</w>
магази на</w>
нега тивные</w>
ol og
запре щении</w>
I A</w>
аппара та</w>
Аб ха
лик види
4 0
З им
смер тной</w>
экологи ческие</w>
Во ору
ассигно вания</w>
мест но</w>
за писей</w>
ве б
посмо тре
прова йде
объеди нение</w>
разли чий</w>
Иор да
пи шу
соста вить</w>
актив ный</w>
утвержда л</w>
прекра щение</w>
ненави сти</w>
всеобъемлю щего</w>
пира ми
жде м</w>
ис це
беспла тные</w>
К П
уда ется</w>
Гра ждан
Дж о</w>
исклю чение</w>
S m
ле е</w>
те сты</w>
комби ни
ле ди</w>
явля емся</w>
го ра
квадра тных</w>
учи тель</w>
S erv
сам мита</w>
поис ке</w>
норма ми</w>
D is
Рича рд</w>
живо тного</w>
зна ком</w>
здоро вого</w>
ре к
результа тами</w>
побо чных</w>
то рам</w>
семина ров</w>
мат ч</w>
рассчиты вать</w>
рекла му</w>
Уиль ям</w>
напи тков</w>
ou se</w>
подгото влен</w>
пре образования</w>
ф ре
помо г</w>
ин суль
вы вести</w>
че ству</w>
с мени
класси фикации</w>
ти ра
потер ь</w>
при вед
настро ение</w>
природ ные</w>
поступ лений</w>
дет ских</w>
Бу рун
тесто стеро
отрас лях</w>
надлежа щих</w>
истори ческой</w>
уси ление</w>
сопоста ви
в двое</w>
с экономить</w>
разобра ться</w>
та кому</w>
представлен о</w>
Крас ного</w>
ро дов</w>
ба з</w>
след ствием</w>
л та
Си би
разреш ено</w>
цио з
сериа л</w>
определен ное</w>
догово ры</w>
в ную</w>
ан тро
дефици та</w>
G al
го дам</w>
Иерусали м</w>
надея ться</w>
к сен
законода тельные</w>
коллек ция</w>
площад ью</w>
на бира
194 1</w>
ме ло
10 5</w>
м нениями</w>
демокра тия</w>
ра мок</w>
поощ ря
Александ ра</w>
Тома с</w>
переход ной</w>
выда чи</w>
запро сов</w>
насе ленных</w>
комплек сного</w>
Не па
Н К</w>
па спорт</w>
не известно</w>
Упра влением</w>
ти зма</w>
А К
бар ре
информи ровать</w>
уче сть</w>
по кло
луч шую</w>
дере ва</w>
зада ть</w>
мо сков
ближай шем</w>
Хо л
состоя вшейся</w>
ба ка
молоды м</w>
Председа телем</w>
д р.</w>
секун ду</w>
взрослы е</w>
уведом ление</w>
запро су</w>
э ры</w>
счастли в</w>
сла ва</w>
купи л</w>
деся тков</w>
дума ем</w>
нака нуне</w>
196 8</w>
Бурун ди</w>
напад ение</w>
лиде рами</w>
вс ём</w>
ба н</w>
исполни тельной</w>
ви нова
основан ная</w>
ис пове
ин ъек
дерев ьев</w>
благополучи я</w>
продолжи тельности</w>
т ти</w>
ми ровая</w>
за ла</w>
бур г
разры в</w>
вы ходить</w>
эффектив ными</w>
коммер ческие</w>
индивидуаль ные</w>
проекти рования</w>
успе хом</w>
сообще ству</w>
опера циях</w>
ис к</w>
ши т</w>
низ кая</w>
одоб рен
препят ствия</w>
Пале сти
l in
с вин
креди та</w>
разме ром</w>
Чика го</w>
реак цию</w>
Те ге
д ную</w>
С .
описы вает</w>
бума г</w>
чинов ников</w>
iv ers
ре к</w>
соглаша етесь</w>
ди ле
глю ко
бра тья</w>
ген ы</w>
му ся</w>
фло т</w>
наш ла</w>
излу чения</w>
не вер
а так</w>
неот лож
пище вой</w>
нынеш них</w>
Ва лен
вы году</w>
ли зова
До нец
об народо
пя тый</w>
направл ениях</w>
дене жные</w>
истори ческого</w>
жела тельно</w>
присоедини лись</w>
живо пис
ю гу</w>
рова лось</w>
ар т</w>
национа ли
влю б
полити ческими</w>
ма тер
ге рой</w>
кти вы</w>
администра тивного</w>
род ных</w>
сертифика ции</w>
от стаи
смарт фонов</w>
точ ность</w>
стра хов
слож ный</w>
н ков</w>
установлен а</w>
обнару жены</w>
секретариа том</w>
территориаль ной</w>
ла у
психи ческого</w>
бра ке</w>
запа де</w>
обсу ждать</w>
се зон
по чувствовать</w>
оста ётся</w>
ссы лок</w>
м ное</w>
справедли вость</w>
палестин ских</w>
определя ются</w>
выска зы
эк стрен
озна чать</w>
христи ан</w>
прожи вающих</w>
Азербайджа не</w>
продолжа ли</w>
У ил
О б</w>
доба вляет</w>
фак торами</w>
сер вера</w>
за быть</w>
депута тов</w>
Пу ти
перво очеред
пото ков</w>
ме бели</w>
практи ческой</w>
ключе вой</w>
центра льного</w>
электро нная</w>
до му</w>
бло ка
мыш цы</w>
те мой</w>
сде лку</w>
действу ющие</w>
раз ному</w>
переме щения</w>
ди ло</w>
Х ью
но ся
мо нар
рас сы
т ви
оди н
б рази
с вида
I S</w>
лег кий</w>
сест ры</w>
00 1</w>
рова лась</w>
on d
Колумби я</w>
т ре</w>
л с</w>
ско пи
глобаль ное</w>
работа я</w>
кисло рода</w>
сме н</w>
G e
от бора</w>
Аген тства</w>
ста ри
О АО</w>
называ ет</w>
прогре ссив
награ ды</w>
упако вки</w>
клас се</w>
сопроти вления</w>
проведен ного</w>
заяви теля</w>
услови ем</w>
франц у
слож ным</w>
претен зии</w>
вто рую</w>
сер тифици
посе щать</w>
н ному</w>
понима ешь</w>
доволь ны</w>
пора жения</w>
в ёз
участ ков</w>
разработ кой</w>
масшта бы</w>
G re
привле чение</w>
Дже ф
постоян ные</w>
предлага ть</w>
мо да
челове ческие</w>
по говорим</w>
кораб ля</w>
интере са</w>
196 9</w>
деву шек</w>
197 6</w>
ежегод ный</w>
доро жного</w>
компьютер ных</w>
емо му</w>
ве та</w>
ти зи
Хаби тат</w>
по строи
безопас ным</w>
глав ную</w>
воору жения</w>
вклю чи
сро чно</w>
преподава телей</w>
библиоте ки</w>
худож ника</w>
позна комиться</w>
диагно з</w>
жа ющих</w>
O r
сла д
грип па</w>
чемпиона т</w>
па тру
обы чный</w>
попы тке</w>
по йдет</w>
at h
ин су
комна ту</w>
197 2</w>
возник ли</w>
цер к
сове тов</w>
интере со
провер ку</w>
це лого</w>
i le</w>
с на
пла нет</w>
мето дом</w>
внут рь</w>
меня ются</w>
экра н</w>
свиде телей</w>
побо чные</w>
мину тах</w>
трудо вых</w>
выпол нены</w>
Ки ев
офис а</w>
постро ена</w>
центра льный</w>
основы ваясь</w>
Ко ордина
дополни тельное</w>
наруш ениях</w>
отра жают</w>
та щи
последова тельно</w>
ю р
ль ского</w>
бо юсь</w>
ошиб ку</w>
м ра
люби м</w>
ну лся</w>
рекоменда цию</w>
об ща
вл ю</w>
комите тов</w>
моди фици
партнер ских</w>
прин цес
призна ют</w>
избра н</w>
Ф И
Лондо на</w>
основ ную</w>
оде жда</w>
мисси ю</w>
КН Р</w>
яй ца</w>
приобре т
P A</w>
за долго</w>
мето дами</w>
г ени
жерт вой</w>
удоволь ствием</w>
наме ре
ва й
пере движения</w>
пти цы</w>
ко жу</w>
ска з
Франци ско</w>
запад ные</w>
сове том</w>
ми сс</w>
гово е</w>
ие рар
устойчи вой</w>
нач нется</w>
контроли рует</w>
региональ ным</w>
в вод
уче тной</w>
арен ду</w>
финансо вом</w>
Л ь
технологи ями</w>
распростра ни
благодар ность</w>
Украи ной</w>
втор жения</w>
упра вляет</w>
не види
съ е
при з</w>
три лли
печа та
лекар ство</w>
поя снил</w>
доро гу</w>
веду щие</w>
о провер
владель ца</w>
потенциаль ные</w>
закры ть</w>
проводи лись</w>
концеп цию</w>
разработ чики</w>
свя житесь</w>
возме щения</w>
со н
зву к</w>
г р
ди нг</w>
Конгре сса</w>
табле тки</w>
оста лась</w>
ги та
Да ни
по всюду</w>
го р</w>
Петербур г</w>
техни ческая</w>
ядер ное</w>
вз ор
актив ную</w>
Com m
пес ню</w>
раз ным</w>
про игры
мо ё</w>
ag ram</w>
вид ения</w>
съ ез
при ся
I .</w>
опублико ваны</w>
И ю
древе си
незакон ным</w>
Дже к</w>
Моск ву</w>
лен ную</w>
Теле фон</w>
обслужи ванию</w>
конкурен тов</w>
успеш ных</w>
под нять</w>
уг ля</w>
утвержда ть</w>
мер но</w>
росси ян</w>
исследо ваниям</w>
сде лка</w>
зда нии</w>
че л</w>
глубо кое</w>
к новен
зарабаты вать</w>
устра и
родствен ников</w>
Вашинг тона</w>
or g</w>
тюрь му</w>
ва йтесь</w>
период е</w>
щ ё
указа нной</w>
предвари тельной</w>
запу ска
ж ка</w>
похо ж</w>
пала ты</w>
Финлян дия</w>
Пре вос
К ристи
расстрой ства</w>
при кос
сосредото чи
со чи
ор ке
британ ский</w>
си ю</w>
о ки
T el
ак тер</w>
ва вших</w>
писа тель</w>
достаточ ное</w>
анти семи
тво его</w>
проводи мых</w>
мел ких</w>
лли н
серьез ный</w>
Ва ших</w>
атмо сферы</w>
игро ка</w>
раз верну
раз ум</w>
намер ение</w>
т кам</w>
По чему</w>
по истине</w>
огром ную</w>
объ емов</w>
низ ких</w>
повы шении</w>
по соб
от кли
заклю чению</w>
Си ти</w>
широ кие</w>
л ле</w>
C .</w>
Э д
свиде тельство</w>
тяже лой</w>
Акаде мии</w>
я х
симво ли
нен о</w>
за им
изо ляции</w>
Поро шенко</w>
слуша йте</w>
не пред
труд ностей</w>
с пло
моде лью</w>
стратеги ческие</w>
необходи мостью</w>
основан ные</w>
положи тельно</w>
находя щиеся</w>
про мы
игро вой</w>
неправитель ственные</w>
ли шения</w>
опас ения</w>
произо шед
10 1</w>
граждан ское</w>
Ме две
ано ма
ру ющий</w>
актив ным</w>
ли ны</w>
с ё
страни цах</w>
Ва н</w>
С им
со крови
им мигрантов</w>
указа нного</w>
Х А
Вар ша
F in
сохран ению</w>
предлага емых</w>
пор та</w>
Си ри
гиб кость</w>
ро зо
встре тить</w>
Ке й
посе тил</w>
м но</w>
о кра
се веро
финанси ровании</w>
изобре т
Му хам
казах стан
повез ло</w>
доро го</w>
просве ти
ру ками</w>
о крест
соста вления</w>
конкуренто способности</w>
ве сом</w>
оди ноч
C D</w>
жен ную</w>
расче та</w>
Gl ob
жи тельство</w>
само лё
ир ланд
г ви
свед ений</w>
тив ному</w>
жа лу
д с</w>
ство вания</w>
вы ступить</w>
банков ской</w>
ме да
пре мию</w>
поощ рению</w>
нега тивно</w>
ф ос
К ру
Програм ма</w>
диви ден
примеча ние</w>
юж но
граждани на</w>
статисти ческие</w>
as h</w>
зая вок</w>
о пере
ги те</w>
p r
отде льным</w>
обусло влено</w>
валю т</w>
лле тен
коммуника ционных</w>
полага ет</w>
называ ли</w>
направлен ной</w>
по годы</w>
Азербайджа нской</w>
й скую</w>
маркетин говых</w>
моло ка</w>
ци та
инвести ционного</w>
безна каза
ход ь
ко л
заме н</w>
W at
само управления</w>
ба ра
ч ениями</w>
р ту
де ли</w>
тек сто
краси вые</w>
следова ло</w>
К рым</w>
судеб ные</w>
ре ме
располага ет</w>
С ле
обнару жено</w>
напом нил</w>
каса ющейся</w>
зарегистри рованных</w>
Ли ги</w>
ке ль</w>
Согла шение</w>
требу ются</w>
Либе рии</w>
правосу дию</w>
ро до
до га
норма льной</w>
м са</w>
Ду ба
сте ри
вызо вы</w>
что б</w>
чен ное</w>
Специаль ным</w>
лагер я</w>
о гро
нача льник</w>
спас ения</w>
найден о</w>
по ступи
вше еся</w>
лет ние</w>
миро вым</w>
3 ,5</w>
со отношение</w>
ЮНИД О</w>
К Р</w>
Ф А</w>
S ch
ви бра
Со друже
пользо вание</w>
центра х</w>
EC E</w>
жа ми</w>
точ кой</w>
го нки</w>
участ ка</w>
серви сы</w>
1 25</w>
под креп
пом ни
I M
ста х</w>
нач нем</w>
приз вали</w>
Мэ ри</w>
диапа зоне</w>
произош ла</w>
Бо жи
массо вых</w>
доступ ным</w>
медици не</w>
сти ческая</w>
от ло
воен ная</w>
роди телям</w>
разде лить</w>
Ниге рии</w>
ль д</w>
а ни
ш ор
жи тельства</w>
существу ющей</w>
теп ла</w>
обработ ке</w>
гла вой</w>
воз ьми</w>
моби льный</w>
социаль ный</w>
И .</w>
относя щихся</w>
ста рой</w>
де ба
получи тся</w>
ви дах</w>
быстро е</w>
уби т</w>
со пут
устано вили</w>
P C</w>
ожида ют</w>
созда ется</w>
трудо вой</w>
Inst agram</w>
ма три
упраж нений</w>
леген дар
корре спонден
сле й</w>
завер шение</w>
граждан ские</w>
президен ту</w>
су дить</w>
Ри ме</w>
M in
у ходит</w>
отмеча лось</w>
T C</w>
197 7</w>
вклю чен</w>
возник нов
ре ви
следу ющую</w>
продолжа ться</w>
покры тие</w>
л ках</w>
един ство</w>
Тихо го</w>
за лож
ть я
во к
но ни
компонен та</w>
U N
причи ну</w>
офис е</w>
сель ской</w>
обы ча
де ра</w>
фла г</w>
кра я</w>
совершенство ванию</w>
библиоте ка</w>
здоро вых</w>
ну жды</w>
мыш ление</w>
леги ти
заказа ть</w>
ва шими</w>
P R
космо се</w>
ви не</w>
законода тельству</w>
клини ческих</w>
де бю
догово рных</w>
учеб ного</w>
матер ью</w>
чита л</w>
популяр ные</w>
занима лся</w>
сконча лся</w>
современ ное</w>
примени ть</w>
импери али
у ме</w>
ме ль
E d
вши мся</w>
194 9</w>
Укра ин
спек тра</w>
беремен ность</w>
С три
ло б
коммуника ций</w>
сти ческие</w>
пу ска
отче тов</w>
пред посы
идеаль ный</w>
достигну то</w>
Кип ра</w>
Ан го
технологи ческого</w>
точ ными</w>
потреб ностями</w>
ве тера
вра гов</w>
нен ных</w>
не многих</w>
ва емости</w>
чист ый</w>
угро жает</w>
Афгани стан</w>
скон центри
П о</w>
медицин ский</w>
ol d
профессиона лов</w>
ф рак
производ ят</w>
Государ ственной</w>
координа цию</w>
ощу щения</w>
состоя т</w>
беспокои ться</w>
Малай зии</w>
власт ям</w>
сю же
k s</w>
194 8</w>
пациен там</w>
тво е</w>
коммента риев</w>
исследователь ской</w>
доро гая</w>
высо та</w>
Федераль ного</w>
предотвра щение</w>
уверен ности</w>
плат форме</w>
чен ная</w>
мас с</w>
вита мин</w>
у мышлен
се пара
круп ной</w>
ч на</w>
Большо й</w>
пере работ
ре интеграции</w>
Дес я
организ мов</w>
ста ре
алле р
пред ъ
кро вать</w>
от туда</w>
рас ста
подчеркну ла</w>
в шее</w>
опла ту</w>
аген тов</w>
налого вые</w>
бога тства</w>
надлежа щей</w>
наро дами</w>
не мся</w>
ко жа</w>
го ст
ска нда
под писы
Ан дре
публика ций</w>
er g
не восто
за помина
ру йте</w>
верх ней</w>
крити ки</w>
предполага ют</w>
вы ходят</w>
бассей н</w>
исти на</w>
ре патри
оши ба
ля я</w>
хими ческой</w>
сообщ ениям</w>
ка л</w>
неправитель ственными</w>
Сто к
живо тное</w>
возник ла</w>
ро ма</w>
сдела нные</w>
цион ному</w>
твер до</w>
сва деб
энерги ей</w>
учен ый</w>
си льных</w>
нало говой</w>
Превос ходи
Пен та
удовлетво рен
лич ная</w>
середи ны</w>
чи ку</w>
Влади мира</w>
B i
достигну тый</w>
Калифор ния</w>
Пра вил</w>
реша ющее</w>
поверх ност
влад ения</w>
ле то</w>
из гна
низ ко
коэффици ент</w>
контрак ты</w>
допуска ется</w>
сме я
луч шими</w>
бри га
ло ву
рен т
Ба х
чи м</w>
за то</w>
комму на
Саль ва
К А</w>
стро й</w>
оке ан</w>
ва ешь</w>
теори ю</w>
ве тери
ро я
пор туга
дь я
телефон ы</w>
i um</w>
регуляр ного</w>
кон центри
по ля
город у</w>
основы вается</w>
поле та</w>
ap os</w>
лич ное</w>
or y</w>
сформи ровать</w>
обяза тельным</w>
совет ской</w>
Ку ба</w>
n et</w>
ведом ства</w>
Уо л
e m</w>
стои ть</w>
сдела ю</w>
Ге ор
сти ра
у били</w>
чер ты</w>
й ло
Алла ха</w>
ри м</w>
откры вается</w>
вме ши
ма сси
рей с</w>
росси я
10 2</w>
охра ня
с ном</w>
повест ке</w>
рабо чую</w>
атмо сфере</w>
собира етесь</w>
запу стить</w>
продли ть</w>
участ ки</w>
зри телей</w>
привлека ть</w>
те рак
колле гами</w>
Ц и
N AS
при способ
не удивительно</w>
попроси ть</w>
постро ения</w>
с дви
дерев ни</w>
грам м</w>
бо ятся</w>
шан сов</w>
на хождения</w>
секто раль
Э мира
при ступить</w>
Н обе
Л ор
элемен тами</w>
кан ской</w>
ак та</w>
Б О
Lin ux</w>
на ция</w>
при каза
груп пах</w>
гра ф
предназна чена</w>
вза и
на строй
экспери мент</w>
с жа
че ством</w>
принци пу</w>
з ла</w>
акцио неров</w>
стар шего</w>
С ка
моне ты</w>
зая вить</w>
мен о
ак се
попа л</w>
посред ни
народо населения</w>
услови е</w>
попы ток</w>
свое временно</w>
ц ы
t e</w>
п ш
аспек там</w>
достопримеча тельности</w>
опера тивно</w>
л э
катастро фы</w>
вер нется</w>
плохо го</w>
криптовалю ты</w>
поста ра
откры ли</w>
ен ные</w>
i OS</w>
фи и</w>
полити ков</w>
Север ного</w>
ландша ф
но г</w>
ле чению</w>
посети тели</w>
употреб лять</w>
ска жет</w>
урегули рованию</w>
за гово
ска же
ново рожден
корпора тивных</w>
J av
А бу</w>
ли ст
превы шать</w>
высоко технологи
А ла
прозра чности</w>
про дела
Д ок
отказа лись</w>
води тся</w>
дра мати
в ских</w>
В ан
г мати
актри са</w>
Секретариа т</w>
A ut
ра ду
ко к
дет стве</w>
услу гах</w>
Бело ру
ти зм</w>
репута цию</w>
расши рять</w>
позволи л</w>
нега тивных</w>
у ез
уда ление</w>
комплек сной</w>
все общего</w>
ци кло
сту р
фотографи я</w>
ва юсь</w>
рав ни
доба вки</w>
женщи не</w>
полице йские</w>
спортсмен ов</w>
П ан
срав нении</w>
логи ческого</w>
валю та</w>
темпера туре</w>
се ан
ри ях</w>
а рома
чи слом</w>
гра фа</w>
вы пи
креди тных</w>
транспарен тности</w>
ви дам</w>
есте ственных</w>
прово да</w>
сосе дних</w>
измен ениях</w>
здоро вой</w>
горизон та
О пера
симво лом</w>
британ ской</w>
освобо дить</w>
согласо вания</w>
5 .</w>
шу юся</w>
о пер
ко ш
воспомина ния</w>
Э ли
соблюд ении</w>
с ную</w>
говори шь</w>
s p
Государ ственного</w>
Клин тон</w>
пре вен
инвести ционной</w>
Un ivers
ми на</w>
д ром</w>
Ко гда</w>
услу гу</w>
Па у
Запа де</w>
разверты вания</w>
л д</w>
э го
финанси рованию</w>
докла дах</w>
тради ций</w>
Д ен
полез ной</w>
справедли во</w>
парнико вых</w>
го на</w>
ли ди
пособи я</w>
сотрудни чает</w>
вери м</w>
Таилан д</w>
G en
ска х</w>
он ных</w>
вне с</w>
совет ских</w>
преж де
ран ние</w>
клад би
D A
Н П
способ ных</w>
пере работки</w>
ко вая</w>
Лу ны</w>
P re
безопас ностью</w>
те чением</w>
реаль ная</w>
пля ж</w>
О ли
при каз</w>
Алек сей</w>
выпла т</w>
колле дж</w>
во время</w>
ро ва</w>
o m</w>
мо ды</w>
суверени тет</w>
тель ских</w>
огром ным</w>
фир м</w>
передо вых</w>
чи кам</w>
Н А</w>
палестин цев</w>
м л</w>
золо той</w>
популяр ной</w>
ре зи
пре ки</w>
Р им</w>
полови ной</w>
ра т</w>
незакон но</w>
кух ни</w>
дви жений</w>
присут ствовать</w>
С Б</w>
су дах</w>
кноп ку</w>
кап су
С мит</w>
сумас шед
юще мся</w>
под да
избе жа
V is
Таджики стан</w>
отде лений</w>
Ди а
болез нью</w>
входя щих</w>
карьер е</w>
председа телем</w>
us s
па ссив
коали ции</w>
лож ь</w>
очист ки</w>
бака лав
региональ ный</w>
африкан ского</w>
учени ков</w>
пере мены</w>
дет ский</w>
найден ы</w>
альтерна тивных</w>
Ира не</w>
Со вмест
Pr o</w>
во е
налого платель
ске пти
при дает</w>
прожи вание</w>
рас сказали</w>
мигран ты</w>
гости ницы</w>
у бор
мен тировать</w>
Университе те</w>
Сток голь
надлежа щие</w>
террори зм</w>
на значи
пи ю</w>
го вая</w>
ру ка</w>
New s</w>
согла шению</w>
мисси с</w>
из лага
тво ю</w>
возра ста
чув ствовали</w>
игнори ровать</w>
смот ри</w>
холесте рина</w>
г ры
за ведений</w>
В т</w>
D .</w>
иллю стри
производи телем</w>
Р ы
а д</w>
лож ений</w>
желе за</w>
цена м</w>
просто е</w>
доступ е</w>
Ш о
природо охран
ну сь</w>
те мно
капита н</w>
c on
на ций</w>
подо р
огром ной</w>
ч т
бога тство</w>
ма ля
имму нной</w>
им план
ви ца</w>
безопас ных</w>
Н ДС</w>
низ кого</w>
се ра</w>
Wor d
на прави
взи ма
двига телей</w>
де гра
В С</w>
от мены</w>
периоди чески</w>
Бель гия</w>
сек са</w>
оконча тельного</w>
стре ль
из м</w>
ксен оф
напад ений</w>
находя сь</w>
мон та
от дать</w>
опера тивных</w>
нра вятся</w>
вели ких</w>
ис а</w>
рассматри вают</w>
выска зыва
пере мен</w>
мате рии</w>
назна чить</w>
подотчет ности</w>
метал лов</w>
выжи вания</w>
руковод ству
бю ллетен
зали ва</w>
челове ке</w>
компа к
заинтересован ные</w>
Ан таркти
19 17</w>
хи мии</w>
амби циоз
хозяй стве</w>
судеб ное</w>
воз му
щен ным</w>
демонстра ции</w>
пра вя
окси дан
направлен о</w>
пла ну</w>
призна ли</w>
род ного</w>
рабо в</w>
обстанов ки</w>
комфор тно</w>
F re
специали стами</w>
гор мона
экспер тами</w>
Д ви
во лю</w>
C C
безопас ного</w>
осуществля ют</w>
независи мым</w>
не распространения</w>
ша ются</w>
пар ня</w>
потреби тели</w>
материаль ных</w>
взры ва</w>
Мекси ке</w>
м буд
глобаль ная</w>
р та</w>
д ными</w>
совет ник</w>
Am er
рекомендо вала</w>
с цене</w>
нер вной</w>
Бри тании</w>
фу тов</w>
возмож на</w>
фор д</w>
отпра вления</w>
Х ил
ска р</w>
en c
при ло
Рожде ство</w>
спек так
дни й</w>
технологи ческие</w>
ли зовать</w>
постро ены</w>
У руг
А Н</w>
адвока тов</w>
форми ровать</w>
функциони рование</w>
отлич ная</w>
веден ы</w>
неде ля</w>
у рок</w>
повест ка</w>
до мл
Медве де
подлежа т</w>
As s
пото м
й ные</w>
жда ли</w>
лет ним</w>
Г ран
ir e</w>
при кла
194 4</w>
перио дом</w>
шен ный</w>
ограни чены</w>
Все ленная</w>
Ан на</w>
в шуюся</w>
A g
8 0
с ло</w>
Петербур га</w>
м ской</w>
Ш ко
за моро
воздуш ное</w>
группи ровки</w>
1 1
сме ши
ра ци
an n
визо ров</w>
оскор б
жен ских</w>
ан ну
при мут</w>
Ю жного</w>
закры тия</w>
малень кой</w>
проявля ть</w>
авиа компании</w>
A t
Мар тин</w>
ар три
пла тье</w>
маль чиков</w>
боль ницу</w>
привод ятся</w>
называ емой</w>
1, 2</w>
ассигно ваний</w>
приро дой</w>
воен ными</w>
надеж да</w>
лау реа
поки нул</w>
объеди ня
Це левой</w>
тя ж
во преки</w>
ь и</w>
А ле
краси вый</w>
меч та</w>
Hom e</w>
разрабаты вает</w>
нова тор
вече ра</w>
надца ти</w>
пора жение</w>
ме кси
предусмотрен ы</w>
отде льного</w>
поги б</w>
серьез ное</w>
произ ведение</w>
дви жется</w>
ужи н</w>
понима нию</w>
до зи
у держа
торго вая</w>
миниму му</w>
непри кос
цеп и</w>
St re
конферен цию</w>
Пер вой</w>
спор тивные</w>
w e
об би</w>
Тан за
развле чений</w>
посвящен а</w>
ресур с</w>
реаль ностью</w>
норма тивных</w>
си льная</w>
суще ственное</w>
координа ция</w>
созда ла</w>
Европей ском</w>
провер ьте</w>
поез д</w>
Э СК
украин ский</w>
гово ря
неприкос новен
сущ ности</w>
15 00</w>
внес ении</w>
лич ными</w>
води теля</w>
призна н</w>
измени лась</w>
R .
ш ёл</w>
точ ная</w>
х их</w>
ориен тации</w>
экра на</w>
на ем
О ль
тра к
С У
конкре тный</w>
зем ного</w>
федераль ных</w>
я влений</w>
корпора ция</w>
компенса цию</w>
анти оксидан
оцени вается</w>
минима льный</w>
муз ее</w>
помощ ник</w>
вы вода</w>
сен тябрь</w>
адвока та</w>
Сторо нами</w>
напря женности</w>
Д ю
внутрен ним</w>
пригото вления</w>
Герма нию</w>
кало рий</w>
де кора
щ ениях</w>
доказа тельство</w>
T E
пригла шение</w>
бан ке</w>
ко меди
фру кты</w>
провер ке</w>
беру т</w>
под лежит</w>
с провоци
взаим ной</w>
внутрен нее</w>
претен зий</w>
получи лось</w>
раз работок</w>
обще ству</w>
Га за</w>
ар мию</w>
туберку ле
отнош ениям</w>
достаточ ной</w>
А ли</w>
P N</w>
подтвержда ют</w>
прогно зы</w>
молит вы</w>
ссы лку</w>
план ше
вос питания</w>
выс шее</w>
специаль ным</w>
дис к</w>
Pl ay
остано виться</w>
специаль ная</w>
нор веж
ки р
ре цен
расши рении</w>
З на
изменя ть</w>
обзор у</w>
ri v
пре ссы</w>
производ ством</w>
е жене
тяже лые</w>
тес ном</w>
покуп ка</w>
абстра к
действу ющего</w>
описа ть</w>
смер тью</w>
повтор но</w>
гото вится</w>
ше ль</w>
от тен
француз ского</w>
полномо чи
оста льной</w>
а ст
круп ного</w>
О на</w>
объя снил</w>
Ла й
перен ес
до ходит</w>
комисси й</w>
ва р</w>
заста вля
торго во</w>
a il
Ма ла
Ста ть
19 39</w>
биле тов</w>
l ine</w>
рис ку
д ё
Ос нов
предлож ением</w>
Болга рия</w>
партнер стве</w>
допол ня
Шан ха
заклю чить</w>
гор ди
сегодняш него</w>
исполни тель</w>
ги п
o o</w>
поддержи ваем</w>
196 1</w>
се тью</w>
ли ши
на сто
e ar
рын ком</w>
противо действия</w>
нару жи</w>
диа бет</w>
фон дом</w>
семь ям</w>
вы двига
отме тим</w>
базо вых</w>
нару шении</w>
россий ская</w>
норма м</w>
переда ны</w>
п рене
насчиты вается</w>
да ёт</w>
раз ор
долгосро чного</w>
еди ный</w>
состоя нием</w>
опро с</w>
автомати зации</w>
явля лись</w>
му ль
публи чных</w>
уничто жение</w>
эта п
жу т</w>
обще му</w>
изгото ви
возмож ны</w>
. org</w>
тен ы</w>
разру шения</w>
семина ра</w>
отме тив</w>
состоя вшемся</w>
ги м
центра льных</w>
ли хо
суще ственные</w>
сравни тельно</w>
присут ствуют</w>
те ряет</w>
держа вы</w>
функциони ровать</w>
з ло</w>
ав стри
семей ных</w>
6 0
пропу ск
од них</w>
за мена</w>
б рю
с пря
ма сте
провед ением</w>
кар дина
выво дов</w>
Н .</w>
нали зации</w>
ту зиа
убе жден</w>
специаль ное</w>
у воль
реко рд</w>
целост ность</w>
необходи мый</w>
еди ницы</w>
выда че</w>
приорите т</w>
есте ственной</w>
боя ться</w>
распространя ются</w>
за т
форма ми</w>
а г
сти и</w>
обо ло
называ ются</w>
изобре тение</w>
од ними</w>
в кус
потребу ет</w>
B ank</w>
M et
ра сто
выясни лось</w>
изобре та
распоря жение</w>
Г рен
рекла мных</w>
вели кой</w>
день гами</w>
коммер ческого</w>
собствен ном</w>
пожела ет</w>
доступ ными</w>
отлич ным</w>
в хода</w>
Кип ре</w>
сдела ют</w>
Институ т</w>
спро екти
про анализировать</w>
увеличи лся</w>
мен стру
il l</w>
нен ный</w>
зе мно
вероя тности</w>
связа нного</w>
Республи ку</w>
ко вый</w>
де пор
проси ли</w>
аль ные</w>
Р ен
уби вать</w>
ди на</w>
биологи ческого</w>
знако мы</w>
вы свобо
рекоменда ция</w>
Та к</w>
посла ние</w>
у слыша
свой ствами</w>
ю ще</w>
ци ан
убежи ще</w>
с наружи</w>
концер т</w>
в ча
долж ное</w>
боеприпа сов</w>
Север ный</w>
Л ар
гости ни
A L
экра не</w>
регуляр ной</w>
об а
ге ль
кри пто
телеви зор</w>
при ехал</w>
космо с</w>
бога тые</w>
Бо же
Ве б</w>
пленар ном</w>
воз действием</w>
u g
оцени вает</w>
теку щем</w>
ию нь</w>
Ч ем
не большого</w>
положи тельный</w>
манипу ли
M us
во дов</w>
сти ла</w>
боеви ков</w>
прожи вают</w>
вос питы
г ек
стимули рования</w>
передо вой</w>
счита лось</w>
не многие</w>
на нима
незакон ных</w>
доброво льных</w>
пере вести</w>
трибуна ла</w>
первонача льного</w>
оста вался</w>
им миграции</w>
корот кие</w>
собствен ными</w>
Л а</w>
принадлежа щих</w>
внеш ним</w>
не равенства</w>
П от
is h</w>
пла ном</w>
ответствен ных</w>
па рази
но меров</w>
китай ская</w>
оформ ления</w>
твор чества</w>
коэффици ен
эн тузиа
нару шает</w>
одоб рения</w>
на следо
ро кра
предоставля ются</w>
нач нут</w>
конфлик те</w>
St ud
уника льным</w>
Пар т
всесторон нюю</w>
потребо вать</w>
опла та</w>
Пре м
US B</w>
ра й</w>
Э нер
подразде ление</w>
по пол
образ цов</w>
насчиты вает</w>
ре ль
обо ст
улы ба
за ведения</w>
подклю чения</w>
чи стого</w>
ха м</w>
энер гос
христиа не</w>
упомина ется</w>
про сыпа
а те
дела ми</w>
м ю
тру дом</w>
составля ла</w>
ч тение</w>
за груз
19 18</w>
уг не
вариан том</w>
соз данный</w>
об ру
истори чески</w>
мусуль мане</w>
коро б
раство ри
S A</w>
счастли вым</w>
избе га
ве тра</w>
та лки
плани ровать</w>
получа ем</w>
последова тельности</w>
сохран ении</w>
упа л</w>
надеж ность</w>
испыта ние</w>
опас но</w>
уголов ное</w>
приме ра</w>
ду ха</w>
военно служа
су ро
совершен ствовать</w>
при мере</w>
Вре мен
использо вался</w>
ум ение</w>
лич ност
усу губ
сме сь</w>
иннова ционные</w>
Сове тский</w>
ос пари
an a</w>
эффектив ную</w>
име ющим</w>
паралле льно</w>
намерен а</w>
ке т
Ра мо
И ва
максима льная</w>
зу бов</w>
с цены</w>
подо зри
стандар тных</w>
B A</w>
то ле
M L</w>
10 ,
ве тер</w>
правитель ственные</w>
ну ла</w>
ri p
це лу
присут ствии</w>
за был</w>
следу я</w>
приветству ем</w>
зо вывать</w>
ка тери
выпол нением</w>
израиль ских</w>
Па вел</w>
On e</w>
намер ения</w>
широ ким</w>
выпу щен</w>
сигна лов</w>
инвалид ности</w>
з ме
транзак ций</w>
прими рения</w>
те чении</w>
гаран тия</w>
ст ские</w>
оби и</w>
культур ным</w>
ра ми
чу до</w>
имен у
пить евой</w>
зна ки</w>
схе ма</w>
Д А</w>
Университе т</w>
Мак си
изы ска
поез дку</w>
ру ющим</w>
посвящен ных</w>
при кры
по чек</w>
опублико ван</w>
пере рабаты
би н</w>
согласи ться</w>
подоб ной</w>
2 2
концеп туаль
Сан та</w>
N or
преодол ения</w>
бю рокра
нако пи
ра на</w>
де ду
Миха ил</w>
стра я</w>
ва ль
хло п
блю да</w>
учё ные</w>
сред ние</w>
связа нный</w>
ре форма</w>
смотре л</w>
журнали сты</w>
круп но
фак тора</w>
моз ге</w>
удовлетво ря
Кодек са</w>
равно прави
кон кур
фа ши
Бе н</w>
зага до
Ц ар
табли ца</w>
сни жается</w>
вознагра ждения</w>
нынеш нем</w>
регуляр ных</w>
корпора тивного</w>
фи я</w>
Ир ландия</w>
сред ним</w>
та ций</w>
счастли вы</w>
лен ное</w>
ма л</w>
этни ческой</w>
презен тации</w>
дерев ья</w>
финансо во</w>
разви ваются</w>
выпусти ла</w>
шен ной</w>
не допусти
работа ющие</w>
оф ф
Кон так
рей сы</w>
раз мно
т ком</w>
полити ческом</w>
а мери
африкан ской</w>
гру ди</w>
al e
режис сер</w>
депресси я</w>
коллек цию</w>
важ ного</w>
способ ству
затраги вает</w>
догово ру</w>
представля ющих</w>
ожида ем</w>
об зо
кандида та</w>
па р</w>
Р оди
предпринима ть</w>
ро жде
подчерки вается</w>
он ного</w>
тель ского</w>
пен сии</w>
от ры
при несет</w>
c l
ру кой</w>
по е
У ор
Хе й
по лю
контро ле</w>
К ни
гово м</w>
корпора ций</w>
E U
эта же</w>
an y</w>
судь бы</w>
опас ные</w>
ино плане
содержа щие</w>
жда л</w>
туристи ческих</w>
ма й</w>
дипломати ческих</w>
лик вид
н. э.</w>
ко вать</w>
поступа ть</w>
A v
кон сал
восто к</w>
журнали стам</w>
жесто кого</w>
от дох
упомяну тых</w>
каче ственные</w>
россий ском</w>
Венг рия</w>
про ходя
к в.</w>
боль ни
И К</w>
паке та</w>
би л</w>
Сер ге
суще ств</w>
в вед
биологи ческих</w>
бло ков</w>
д ра</w>
вре доно
верховен ства</w>
Кли ен
мощ ь</w>
Г С</w>
опро шенных</w>
ап те
вз ло
бо я</w>
в ступить</w>
стар ших</w>
пи сто
подоб ным</w>
на ходит</w>
арти лле
собы тием</w>
люби мый</w>
К от
мыш ц</w>
ю вели
утвержда ется</w>
био логии</w>
Иерусали ме</w>
обы чным</w>
ч о</w>
ба рьер
автобу с</w>
спраши вает</w>
рас а</w>
насла диться</w>
эта пов</w>
НА СА</w>
а нима
де шь</w>
площа дки</w>
корми ть</w>
у совершенство
пре ры
повто ри
анали зе</w>
извле чь</w>
in t
у кло
задерж ки</w>
Г али
Не зависи
откры тые</w>
коль цо</w>
поиско вых</w>
много образи
жиз ней</w>
дека брь</w>
C re
насили ю</w>
Пале стины</w>
голо вно</w>
дыха ние</w>
использо вана</w>
ве ла</w>
ар сена
р ё
критери ям</w>
х ин
Лу ка
196 5</w>
отче та</w>
разде лу</w>
запро са</w>
показа ла</w>
th er
предыду щей</w>
независи мый</w>
Лит вы</w>
океа не</w>
ко фе
друзь ям</w>
М П
валю те</w>
воло к
тор мо
исчез новения</w>
р ными</w>
со зы
у смот
проте ста</w>
опера торов</w>
дет ях</w>
ви ден
ежене де
непре мен
бо ю</w>
отлича ться</w>
плат форм</w>
огром ная</w>
подавля ющее</w>
челове ческое</w>
Трибуна ла</w>
одиноч ку</w>
декла рация</w>
прин ц</w>
тя н</w>
на ходят</w>
убе ждены</w>
ядер ные</w>
огне стре
Конститу ция</w>
совокуп ности</w>
цен ным</w>
случа ется</w>
ль ны</w>
D C</w>
Е К</w>
P ol
M A</w>
ключе вую</w>
вой ной</w>
разде ля
ш ю
уязви мости</w>
Во ен
планиру ете</w>
доба вок</w>
I R
отды ха
правитель стве</w>
двадца ти</w>
чув ств</w>
l y</w>
взаимо действии</w>
убе ждения</w>
распространен ных</w>
у стро
случи ться</w>
по зади</w>
сообще ств</w>
дискусси й</w>
согла шением</w>
а тако
y s
профилакти ке</w>
сред нее</w>
копи ю</w>
ли т</w>
И ль
ходи м</w>
оста нутся</w>
жи лых</w>
Е катери
Ко ло
от вра
обще ственный</w>
обу вь</w>
обо й
ль ника</w>
заполни ть</w>
го вый</w>
находи лась</w>
D V
10 4</w>
суще ство</w>
Солне чной</w>
уско рения</w>
призы вом</w>
фу р
Ш у
обще ств</w>
у ходу</w>
опера циям</w>
профессиональ но</w>
нен у
зу бы</w>
дис пле
ма лые</w>
т на</w>
10 9</w>
Демокра тическая</w>
вакци ны</w>
М она
разде ления</w>
Шот ландии</w>
гендер ных</w>
особы м</w>
вс пом
чер ные</w>
кро ше
бюдже тным</w>
француз ской</w>
мета лла</w>
круп ными</w>
объяс нение</w>
пе ш
государствен ное</w>
ва ции</w>
предлага емые</w>
О д
президен тских</w>
Ви р
благосло в
обеспечи вается</w>
пишу т</w>
контак та</w>
ассоциа ций</w>
тек сте</w>
то вый</w>
кораб ли</w>
про сти</w>
транза кции</w>
оби тания</w>
Среди земно
относя щиеся</w>
об работа
устанавли вается</w>
целесообраз но</w>
серд цем</w>
обще ственное</w>
ле тать</w>
жен у</w>
смер тей</w>
сесси ю</w>
не допу
осно вано</w>
ро ждении</w>
потра тить</w>
меньшин ства</w>
Прем ьер</w>
ва ющими</w>
выбира ют</w>
бо ре
против ника</w>
oo d</w>
5 G</w>
ма т</w>
17 0</w>
н с</w>
моби льной</w>
по следо
надеж ности</w>
прове дет</w>
ю но
протоко лов</w>
персона жей</w>
не чего</w>
Со чи</w>
Аргенти ны</w>
Бар ба
образо ванием</w>
характеризу ется</w>
британ ских</w>
выбра л</w>
F i
воз держи
издерж ки</w>
Б ес
пле мен
б ью
ослож нений</w>
разви тые</w>
зем ной</w>
прави лом</w>
б ене
част ном</w>
у видим</w>
систе мам</w>
С ене
кти в</w>
кандида т</w>
лагер ь</w>
пор но
сен сор
оказыва ются</w>
Пе кин</w>
философи я</w>
посе тили</w>
патри ар
зарегистри ровано</w>
анну ли
за были</w>
глав у</w>
распростра нять</w>
постано вления</w>
у пла
Мо и
сек сом</w>
устано вок</w>
предоставля емых</w>
обследо вание</w>
прово ка
высо ты</w>
прид ётся</w>
ба рье
e w
уро жа
тив ности</w>
брать ев</w>
не большим</w>
20 21</w>
тако ва</w>
Венесуэ лы</w>
лич ным</w>
с суа
пре мия</w>
медицин ским</w>
воз лага
разнообраз ных</w>
тари фы</w>
пользова телями</w>
пози тивные</w>
не большую</w>
он ный</w>
цифро вого</w>
потенциа лом</w>
отде льный</w>
ти ку</w>
жа м</w>
ъе ктив
немец ких</w>
И Д</w>
культу рой</w>
га р</w>
ве ге
C. 3</w>
профессиональ ная</w>
Ф ар
понрави лось</w>
п р
выпуск ников</w>
гор ных</w>
Пер сид
отправи лся</w>
Север о</w>
экологи и</w>
М уз
Газпро м</w>
жела я</w>
широ ких</w>
ребё нок</w>
е ви
Мо ло
наблюд ению</w>
свобод ные</w>
рестора нов</w>
предоставля я</w>
совершен ные</w>
корпу са</w>
доброво льно</w>
т кан
продолжа ла</w>
ме рой</w>
t ion</w>
анали зу</w>
комисси ю</w>
множе ством</w>
ти вы</w>
с пин
компани ях</w>
уве домл
не совмести
землетряс ения</w>
договорен ностей</w>
ри са</w>
об стре
Индоне зия</w>
красо та</w>
ви с</w>
особен ность</w>
юри стов</w>
ч ками</w>
трафи к</w>
О н
веду щим</w>
плохо е</w>
В ос
зо нах</w>
времен ный</w>
пособи й</w>
обмен у</w>
закон чить</w>
ли ей</w>
пон ра
бе лого</w>
Э два
T es
взгля нуть</w>
поя сни
граждани ном</w>
охра на</w>
б рь
вступа ет</w>
A ir</w>
ре т</w>
возвра щаться</w>
умень шению</w>
присоеди ня
собира емся</w>
производ ственные</w>
ё нные</w>
выста во
восто р
Бе лого</w>
указа ны</w>
за будьте</w>
в начале</w>
теку щие</w>
иностран ными</w>
оборудо ванием</w>
я че
крова ти</w>
полез ными</w>
голосо вать</w>
улы б
гото вить</w>
С К</w>
S ec
Ч у
партне рам</w>
солда ты</w>
конкурен ция</w>
семина ры</w>
Корей ской</w>
ак ва
старо го</w>
U S</w>
появи ться</w>
точ нее</w>
привы кли</w>
ам бу
совеща ниях</w>
интерес ный</w>
суб ъектив
а стерои
неожидан но</w>
опро са</w>
аналити ческих</w>
M E
ка ни
точ ным</w>
убий стве</w>
краси вых</w>
Компа ния</w>
3 5
гля ды
объяс нения</w>
уника льной</w>
рас чет</w>
Да ния</w>
я щие</w>
пла тят</w>
объ емом</w>
Дар фу
апарта менты</w>
домаш него</w>
крупней шей</w>
сквоз ь</w>
вино гра
регистра цию</w>
сти ки</w>
заме тили</w>
трени ровки</w>
россий скими</w>
нефте газо
Ка спи
идентифици ровать</w>
то ри
T ech
транспорти ровки</w>
тек сты</w>
значи мость</w>
концентра ция</w>
предыду щем</w>
вре дных</w>
зо о
вос пользова
Государ ства</w>
en s
заня л</w>
ОО О
за ново</w>
об жало
ли лся</w>
обе д</w>
занима лись</w>
ва емая</w>
Э лек
сом нение</w>
поста вленных</w>
аресто ван</w>
зака зов</w>
пери фе
секретариа ту</w>
пыта юсь</w>
глобаль ным</w>
а гро
с не</w>
о чки</w>
вле чет</w>
валю ту</w>
идеаль ным</w>
вооружен ного</w>
ко опера
тор ской</w>
доброволь цев</w>
устрой ствах</w>
I E
юриди чески</w>
альтерна тивные</w>
н ском</w>
прави льного</w>
у на</w>
взры в</w>
д я</w>
Ma c</w>
гар монии</w>
С и</w>
заба сто
КН ДР</w>
S O
серьез ными</w>
А ма
сло й</w>
у л</w>
рейтин га</w>
пут ём</w>
эмо ций</w>
путеше ствий</w>
до мах</w>
над зор</w>
разде ление</w>
развива ющимися</w>
недав ние</w>
ез ды</w>
трен ер</w>
з вёз
до про
препят ствовать</w>
россий ское</w>
явля ясь</w>
круг лый</w>
физи ческим</w>
спор том</w>
и ла</w>
э коно
предвари тельно</w>
эти ки</w>
дерев не</w>
Аб ду
мар кси
компьютер ной</w>
С Р
экономи ческими</w>
встрети лись</w>
диабе том</w>
наи большее</w>
ле дни
ос мыс
кон стати
поставщи ка</w>
196 6</w>
социаль ными</w>
колле джа</w>
таможен ных</w>
пла ка
ок тябрь</w>
поня ла</w>
умира ют</w>
бле стя
явля ющиеся</w>
интересу ет</w>
з ной</w>
Би лл</w>
плане ту</w>
Т али
зна ков</w>
aw ei</w>
гр н</w>
хо р
тво рения</w>
конвен ция</w>
А Р</w>
нали зи
пре успе
нуж д</w>
мор скому</w>
энергети ческого</w>
поставщи ки</w>
нов ений</w>
столкну ться</w>
ли це
возра стом</w>
смотри т</w>
кварта л</w>
ра с</w>
возмож ен</w>
обви ни
популяр ности</w>
эффектив ному</w>
ба на
цели ком</w>
Hu awei</w>
сти ческий</w>
н ские</w>
со сла
M c
поли цию</w>
подписа ть</w>
зай мет</w>
привы чки</w>
написа ла</w>
Вьет нам</w>
сосе дей</w>
сре дой</w>
нега тивное</w>
зи т</w>
выя вление</w>
ро дом</w>
фрук тов</w>
клас сы</w>
выз вало</w>
с мы
ст ского</w>
най дите</w>
заблу ждение</w>
щен ная</w>
син дром</w>
ка меру</w>
объеди ни
З и
Ви ктор</w>
есте ственный</w>
сосредото чены</w>
Кры му</w>
спо ра</w>
при был</w>
уника льных</w>
Пла т
T A</w>
тей на</w>
позво нить</w>
S ol
твер до
а э
сле ды</w>
доба вление</w>
стур ба
Эри тре
достиг нет</w>
Пале стин
Т ру
продолжи л</w>
геро ев</w>
желез ной</w>
Э ль
отпра влять</w>
W ar
персона лом</w>
Word Press</w>
ма ссив
B us
ни чем</w>
расписа ние</w>
Центра льно
наро дам</w>
па спорта</w>
глубо кую</w>
комби нации</w>
опу сты
потеря ла</w>
огово рки</w>
работода телей</w>
Т во
докумен тация</w>
те лом</w>
Май к</w>
у порядо
лихо ра
стра дать</w>
ба зиру
Bit coin</w>
ве е</w>
ю ри</w>
кур ение</w>
я бло
техни ке</w>
профессиональ ную</w>
ника кие</w>
опусты ни
желу до
учеб ной</w>
Ма ли</w>
кварти р</w>
ба б
O ff
краси вая</w>
разногла сия</w>
T ran
зако нам</w>
Б .</w>
Ан ге
Объединен ной</w>
вырази ла</w>
позволи ла</w>
мероприя тии</w>
вся кого</w>
тр л
референду ма</w>
стере о
то вая</w>
регули ровать</w>
попа ли</w>
ча сто
ниж ней</w>
на гля
украин ские</w>
темати ческих</w>
измени тся</w>
неофициаль ных</w>
тури сты</w>
ограничи вается</w>
собра лись</w>
зар платы</w>
са ду</w>
консульта нтов</w>
каче ству</w>
представи телям</w>
доба вив</w>
луч шему</w>
рито ри
обра щаются</w>
демократи ческого</w>
взаимо связи</w>
атмосфер а</w>
владель цем</w>
дискримина цией</w>
S S</w>
сдела ло</w>
про ника
доро же</w>
пропаган ды</w>
государствен ную</w>
циф ра</w>
Юж ный</w>
an t</w>
oo m
об щен
усили ями</w>
раз ре
само определение</w>
молодо го</w>
работа ете</w>
Бер лине</w>
искус ственный</w>
за вед
катастро фи
ка мер</w>
д рай
чи стых</w>
де з
по сти
духов ной</w>
ово щи</w>
ша ться</w>
недоста тков</w>
Сингапу р</w>
196 3</w>
бур га</w>
НИ Е</w>
частот ы</w>
инвести рования</w>
повы шать</w>
проси м</w>
озна коми
расследо ванию</w>
О тели</w>
закон ности</w>
ig ht
тихо океан
дли тельное</w>
в ене
парламен те</w>
BM W</w>
вырос ло</w>
быстро й</w>
нау чить</w>
ре ка</w>
А ра
не важно</w>
ша ра</w>
администра тивной</w>
обстанов ке</w>
импуль с</w>
Чарль з</w>
соз данных</w>
религи й</w>
мари ху
дисципли ны</w>
популяр ный</w>
проходи ли</w>
p y
каче ственных</w>
L t
води т</w>
в во
континен та</w>
ежегод ной</w>
электри ческих</w>
мо рь
подписа н</w>
демокра тической</w>
поч ве</w>
веща х</w>
Г Б</w>
су ду</w>
методо логии</w>
лега н
задержа ния</w>
жен ского</w>
ic k
сове ту
игру шки</w>
iP ad</w>
созна тельно</w>
196 4</w>
10 6</w>
запре ща
пред сказа
З вез
внед рению</w>
Эй нш
услу га</w>
ф раз
широ кую</w>
ши н</w>
тем пами</w>
подвер жены</w>
бизне су</w>
печа ть</w>
коло сса
ди но
М но
вооружен ными</w>
четвер ти</w>
го ре
способ ностей</w>
то ном</w>
Эн д
Арген тина</w>
ран нем</w>
телеви зор
e y
разработа л</w>
финансо вое</w>
преступ ностью</w>
спут ников</w>
с му
электро нную</w>
Нидерлан дах</w>
Е ванге
O R
евре йского</w>
заня ты</w>
реши мости</w>
поле вой</w>
зи на</w>
жи ву</w>
V PN</w>
кампа ний</w>
порта л</w>
разговари вать</w>
репродуктив ного</w>
напря жение</w>
британ ского</w>
судь бу</w>
воору жениями</w>
Факульта тивного</w>
воз вы
приорите том</w>
О ни</w>
ощу ща
напра влять</w>
медицин ская</w>
Куве йта</w>
вол н</w>
про стая</w>
сою зе</w>
измер ение</w>
банков ского</w>
A S</w>
срав нить</w>
От дел</w>
органи ческих</w>
отде льной</w>
вы явля
Зе ландия</w>
1, 3</w>
си ний</w>
раскры ть</w>
оста вались</w>
ви за</w>
пере ста
з вер
О се
трудо устройства</w>
науч ным</w>
есте ственного</w>
ров кой</w>
и ду
ent s</w>
кру гов</w>
ци лин
уваж ением</w>
смотре ли</w>
коммер ции</w>
экипа жа</w>
умира ет</w>
3 4
заяви в</w>
ва к</w>
достопримечатель ностей</w>
предназна ченных</w>
Серби я</w>
из учен
титу л</w>
сериа ла</w>
Л ен
сесси ях</w>
памят ник</w>
продук том</w>
у ха
Би р
en s</w>
e k
безопас ный</w>
ве ден</w>
че ш
стади ях</w>
прогре ссе</w>
составля л</w>
без работ
манда тов</w>
про хождения</w>
А сада</w>
сожа ление</w>
ста ль</w>
ри туа
к во
секто ром</w>
ан ке
о пто
Хе ль
цар ь</w>
ле тие</w>
стратеги ческой</w>
кредито вания</w>
уверен ностью</w>
докумен тами</w>
наступа ет</w>
си г
if e</w>
oc k</w>
физи ческая</w>
М Р
те ро
ст ес
ic al</w>
наруш ениями</w>
Glob al</w>
поез дка</w>
6 .</w>
n er</w>
содержа щих</w>
NAS A</w>
b l
ли ф
косвен но</w>
выступа л</w>
у са</w>
раз мини
ion s</w>
сти ци
сы ном</w>
ч ью</w>
1. 1</w>
бес смыс
Э л
указа нием</w>
распространен ы</w>
По ложение</w>
производ ственной</w>
тя ну
про йдут</w>
восприя тие</w>
плани рованию</w>
ис чис
дея ния</w>
ми ровую</w>
обра тной</w>
ma il</w>
наз ван</w>
кор ни</w>
А зия</w>
Ne x
га ра
ре же</w>
показа телем</w>
Gal ax
сторон ние</w>
приобре тает</w>
жела ющих</w>
ди кой</w>
ч ник</w>
син г
Библи я</w>
рейтин ге</w>
нака пли
пла ги
наблюда теля</w>
разнообраз ные</w>
пар ко
электри чество</w>
количе ствах</w>
кам ни</w>
он ко
моло же</w>
От кры
пря мым</w>
Запад ном</w>
публика ция</w>
обязатель ствами</w>
янва рь</w>
id e</w>
предъ явля
Румы ния</w>
в ени
по ступил</w>
констру и
тун не
прави льном</w>
руб .</w>
1 12</w>
ба й
приведен ы</w>
вступ ление</w>
внутрен нем</w>
Т РА
рав ные</w>
представи т</w>
дово лен</w>
поль зы</w>
ле вого</w>
крити чески</w>
позволя я</w>
С тан
Add .
предста влении</w>
ку бин
аналоги чных</w>
хо к
коро че</w>
клиен том</w>
т ством</w>
Най ро
бес поряд
I C</w>
офи цер
инфек ций</w>
иденти чности</w>
сти н</w>
внутрен не</w>
мар т</w>
храня тся</w>
информи рованности</w>
бога тым</w>
отлич ные</w>
ме ла
водо снабжения</w>
проводи мой</w>
Хо локо
возвра та</w>
at a</w>
непосред ственной</w>
пользова телю</w>
у вле
тем пов</w>
из ну
специализи ру
Хо ро
экспери менты</w>
винов ных</w>
увеличи лась</w>
перио дов</w>
ка ри
сыгра л</w>
трансформа ции</w>
при ехали</w>
Ap p</w>
ро га
Д И
э леган
во шел</w>
слож ная</w>
обсу ждении</w>
студен т</w>
степен ью</w>
встрети лся</w>
забы вайте</w>
раз ницу</w>
ближай ших</w>
rig ht</w>
профи ль</w>
выгод но</w>
недав него</w>
сообщи ло</w>
мошенни чества</w>
й скими</w>
ово щей</w>
заключа лась</w>
шко льного</w>
По л</w>
частот а</w>
став ке</w>
пра вой</w>
s k
уско рен
ста циона
прем ьера</w>
п нев
на ве
эк с</w>
люби телей</w>
палестин ской</w>
орга зм</w>
иг рой</w>
at t
выде ления</w>
те те</w>
ат лан
справедли вой</w>
телевид ение</w>
195 8</w>
ю мо
ме да</w>
Чеш ской</w>
положи тельное</w>
архитек тура</w>
отде льными</w>
использу емый</w>
немец кой</w>
плодо твор
уголов ной</w>
Эфио пии</w>
та цией</w>
пш ени
строи тельной</w>
от ы
оконча тельный</w>
проле тариа
умер ли</w>
Y or
отказыва ется</w>
види мости</w>
не терпимости</w>
ката лог</w>
иннова ционной</w>
1 15</w>
графи ка</w>
друж бы</w>
весе ло</w>
хо жу</w>
смарт фон</w>
С Д
вз ве
Кар л</w>
хи я</w>
L a
y t
соверши ли</w>
четвер ть</w>
ры ба</w>
музы ке</w>
D E
из а</w>
смот рят</w>
согла су
предприя тиях</w>
мощ ностью</w>
Восто чного</w>
процен тных</w>
те рять</w>
кон курсе</w>
вели кого</w>
О ле
содержа щий</w>
двой ной</w>
поставщи ком</w>
да на</w>
секун ды</w>
поя вятся</w>
ш о</w>
дела йте</w>
3 60</w>
or s</w>
Сай та</w>
медици на</w>
инжене ров</w>
виртуаль ной</w>
Т С</w>
ско вской</w>
са р
прибы тия</w>
согласи лась</w>
электро магни
фо ли
К ении</w>
пря мое</w>
Tes la</w>
ста рая</w>
очевид ным</w>
сче ту</w>
ле чи
И Г</w>
алю ми
саха р</w>
д ном</w>
предлага емого</w>
грамо тности</w>
устано вил</w>
Та ш
сущ ность</w>
O N
влен ными</w>
н гра
люби мых</w>
ти ческое</w>
извест ными</w>
г ений</w>
соз данные</w>
от клады
Патри ар
ин ги
Деся ти
собы тиями</w>
ме ром</w>
привет ствовать</w>
ию ль</w>
чита телей</w>
уста рев
пой ду</w>
профессиональ ным</w>
стра новых</w>
е ров</w>
вклю ченных</w>
из вер
фак том</w>
существо вании</w>
потер ю</w>
взаи много</w>
госте приим
Р от
ло те
и ди
по пе
оккупи рованной</w>
пя т</w>
Эр до
сти т</w>
искорен ения</w>
10 8</w>
ру дни
предоста влению</w>
пол ков
род ные</w>
лин гви
ко шки</w>
зем лей</w>
магази нах</w>
тель ница</w>
превра щается</w>
пла з
позволя ющие</w>
со ро
Господ и</w>
приня тым</w>
ва ющую</w>
соору жений</w>
конфиденциаль ность</w>
си с</w>
ум ные</w>
наращи вания</w>
присоедини лся</w>
здоро вый</w>
Ма т
Иорда нии</w>
диа грам
остров ных</w>
ли й</w>
га стро
ст ская</w>
В А</w>
газ ете</w>
0 ,5</w>
ста в</w>
а мино
тай ны</w>
f or</w>
суще ственных</w>
Е ре
предоставля ем</w>
благоприя тных</w>
B u
b y</w>
от лага
H am
ви ну</w>
специализи рованные</w>
не бе</w>
стоя щих</w>
посоль ство</w>
процве тания</w>
возмож ностях</w>
уголов ных</w>
D F</w>
Galax y</w>
п лей</w>
аксе ссуа
существо ванию</w>
Ни кара
последстви ям</w>
фи ни
зако не</w>
ти ви
ней ших</w>
со ль</w>
намер ении</w>
опас ным</w>
C ap
пред положение</w>
то ре</w>
космо са</w>
дет ские</w>
свое образ
программ ных</w>
призна нии</w>
ограничен ными</w>
196 2</w>
моду ль</w>
подтвер дила</w>
благодар ю</w>
сни м
ос по
не которой</w>
ра тифика
глобаль ную</w>
свадь бы</w>
изло женных</w>
злоупотреб ления</w>
вля ем</w>
бое вые</w>
тя не</w>
3 7
ци кли
or t</w>
ц уз
мест ное</w>
принима ем</w>
ди ей</w>
влад ение</w>
применя ют</w>
Солн це</w>
прода ется</w>
ис лам</w>
глубо кие</w>
стратеги ческое</w>
Черного рии</w>
настро ения</w>
веще ствами</w>
то м
телевид ения</w>
гру за</w>
Националь ная</w>
предоста влены</w>
проверя ть</w>
P ay
обеспоко ены</w>
хо дах</w>
ван ное</w>
ау тен
рестора ны</w>
Я май
поддержа ли</w>
М ДП</w>
лег кой</w>
а нар
ши ри
мел кие</w>
подвер гну
в носит</w>
терми на</w>
на бра
htt p</w>
ха н</w>
запа х</w>
нефтя ной</w>
та ни
лек ции</w>
по ехать</w>
одоб рил</w>
про ни
пита тельных</w>
Л ав
конди цио
Э КО
оста н
A w
194 2</w>
Ка би
ме шает</w>
i p</w>
Информа ция</w>
исполни лось</w>
под ра
син хрони
ин стин
бар го</w>
про кля
стандар тные</w>
сель ском</w>
жда ется</w>
роди лись</w>
исполни теля</w>
бе жать</w>
медицин скую</w>
дья во
антро по
посоль ства</w>
прош лым</w>
си льного</w>
дожд ь</w>
тель ствами</w>
осно ванием</w>
заявля ют</w>
Чем пи
спи ра
участ ке</w>
поез да</w>
разреша ется</w>
табли цы</w>
подписа ние</w>
мощ ным</w>
арен е</w>
сам мите</w>
пересмот р</w>
основан ной</w>
пло хая</w>
масшта ба</w>
Ф О</w>
объя вление</w>
призна нных</w>
симво лов</w>
предприя тиями</w>
люби мой</w>
Ам стер
геноци да</w>
установлен ного</w>
маль чика</w>
ма мы</w>
аль ная</w>
наи лучшим</w>
потреб ля
У головного</w>
оправ ды
це лых</w>
баш ня</w>
опла тить</w>
брен дов</w>
обрабаты вать</w>
выя с
электро моби
похо жие</w>
ду ше</w>
сторон них</w>
с ье</w>
Фран цуз
er a</w>
эм барго</w>
мини стри
за брать</w>
у ку
воору жение</w>
экспери ментов</w>
комисса р</w>
проведен ное</w>
би бле
исчер па
P ow
до лей</w>
E v
масса ж</w>
получи в</w>
стреми тельно</w>
подоб ная</w>
верси й</w>
закончи тся</w>
D es
поступа ет</w>
жден ные</w>
Га й
раз ы
молеку лы</w>
нологи и</w>
е ма</w>
Народ ной</w>
Ж ан</w>
заслужи вают</w>
аре ст</w>
ак тами</w>
ку рить</w>
посвя щен</w>
опера тивного</w>
взаимо отношений</w>
пло ды</w>
распространя ться</w>
по веден
за бра
намерен но</w>
межправитель ственных</w>
тари ан
инциден т</w>
P e
промеж у
загряз нение</w>
предпринима тельской</w>
вери ли</w>
Никара гуа</w>
опира ясь</w>
достаточ ного</w>
Сти вен</w>
к са
дене жной</w>
с бли
за слуша
поста вил</w>
co m
мо менту</w>
ископа емых</w>
совет ского</w>
совершен ных</w>
рожде ствен
не стаби
улуч шает</w>
инду стрия</w>
эпиде ми
подверга ется</w>
внутрен няя</w>
Т они</w>
дли тельный</w>
во н</w>
сигна ла</w>
Х э
призна ны</w>
президен ты</w>
корпу с</w>
преследо вание</w>
Х ер
оста вшиеся</w>
аре ста</w>
у казывать</w>
метео ро
G E
ло с</w>
завер шена</w>
празд ну
бои тся</w>
фа зы</w>
A C.
шу ма</w>
подготов кой</w>
те стов</w>
ес пособ
немец кого</w>
футбо лу</w>
жизнен ного</w>
наступ ления</w>
Б ени
ч но
утвер дил</w>
по этап
попа дает</w>
ль на</w>
Центра льного</w>
образ ца</w>
4 50</w>
194 7</w>
поч вы</w>
жи вые</w>
ар кти
су пер</w>
пол у</w>
зна чений</w>
рей сов</w>
р ную</w>
пре облада
цик лов</w>
возвра щаются</w>
с пла
ot a</w>
тво ря
прави льным</w>
место положение</w>
Д ра
пен га
l and</w>
электри ческие</w>
со ж
Си л</w>
экспер та</w>
сво я</w>
реш ено</w>
специаль ную</w>
расхо до
общен а
л ками</w>
бре мя</w>
Олимпи а
посмо три</w>
ру ющего</w>
измер ений</w>
за хоро
сай ту</w>
ци ти
достиг нуть</w>
ст ро</w>
способ ствовали</w>
ры б</w>
образу ют</w>
ан не
рабочи м</w>
Ма рии</w>
Тре ть
194 6</w>
ги по
ре форме</w>
обуч ению</w>
C H
шо ки
C r
осно вание</w>
преимуще ством</w>
го ра</w>
доба вила</w>
М У
Прави ла</w>
та туи
сепара ти
ut ers</w>
са бо
попы тку</w>
та р</w>
несколь ким</w>
те ть</w>
столкну лись</w>
[...]
