</S>
the
,
.
of
and
to
in
a
for
&quot;
is
you
)
(
@-@
on
that
:
with
-
it
/
are
as
from
I
this
be
by
or
we
&apos;s
can
not
at
was
have
an
your
will
all
?
if
one
has
other
;
but
more
which
he
about
1
our
they
quality
its
km
P@@
article
also
S@@
their
do
B@@
there
2
&apos;t
what
!
o
time
information
most
D@@
L@@
only
so
popularity
new
3
between
English
T@@
people
find
who
C@@
were
&amp;
when
his
no
Dollar
M@@
been
any
4
R@@
should
like
had
K@@
know
how
weather
such
table
my
W@@
into
10
over
F@@
would
United
similar
i
out
US
&gt;
than
them
H@@
Wikipedia
use
up
different
first
free
us
s
many
now
3@@
may
years
want
these
5
%
me
list
G@@
A@@
work
...
number
+
5@@
very
4@@
some
N@@
&#124;
see
best
well
need
map
please
said
ago
V@@
rate
long
view
world
here
international
just
name
er
O@@
make
E@@
6
in@@
get
Z@@
2@@
12
&apos;
Russian
6@@
year
languages
where
today
en
used
high
two
after
contact
her
color
New
services
$
distance
_
k@@
she
don
7
right
exchange
day
States
countries
development
without
8@@
J@@
way
cities
et
C
buy
7@@
The
EN@@
A
ON@@
could
s@@
9@@
m
country
x
8
system
D
report
made
results
e
TS
names
history
popular
important
good
X@@
Nations
take
2020
hotel
Y@@
Committee
then
net@@
IP
l@@
15
y
U@@
because
K
through
even
1@@
y@@
life
those
show
COMP@@
same
under
women
d@@
City
20
online
help
place
including
&apos;re
already
language
k
General
part
a@@
p@@
city
style
price
EN
F
go
children
added
11
own
scores
room
during
Republic
able
area
Russia
page
company
support
10@@
air
per
Chinese
user
search
al
n@@
t
book
am
L
il@@
points
him
product
home
every
much
located
Ch@@
*
before
process
service
each
ing
data
human
rights
e@@
9
Center
following
download
next
30
meaning
&apos;m
hotels
light
h
For
South
moreover
decoration
ac@@
un@@
i@@
must
le
01
request
B
order
choose
translation
Council
possible
To@@
member
I@@
mm
h@@
database
18
Hotel
look
diagram
till
did
water
set
de
website
national
business
man
0@@
against
R
j@@
b@@
both
billion
z@@
al@@
re@@
d
think
three
products
China
c
1.@@
visualization
Y
conversions
Det@@
16
m@@
case
why
being
however
since
let
at@@
back
within
en@@
N
does
TV
25
while
manual
off
forecast
ch@@
provide
°
t@@
suppliers
days
International
German
last
12@@
Go
question
V
400
14
ailed
State
type
an@@
verse
law
T
level
electronic
cm
compatibility
great
based
end
Women
range
u
assessment
red
Le@@
love
E
still
according
c@@
Ru@@
public
security
power
less
b
50
17
design
state
come
Free
S
social
months
European
ator
0.@@
economic
sale
W
components
simple
another
rooms
problem
g@@
health
2019
small
ts
24
body
&#93;
ating
&#91;
Sh@@
›
down
Pes@@
quot
resolution
#
o@@
term
u@@
available
age
g
live
provided
Details
using
etc
13
P
&apos;ll
non
In@@
trial
full
Ex@@
road
ent
ar
say
n
18@@
always
100
000
als
hours
paper
phone
location
21
version
family
shall
special
activities
climate
membership
ers
size
users
He@@
16@@
working
game
es@@
bathroom
companies
note
f@@
0
v@@
w@@
Germany
going
et@@
p
million
es
IN@@
sion
group
Korean
surname
pee
Hotels
code
artists
Al@@
19
found
offer
means
market
meeting
views
Assembly
person
never
several
22
20@@
2.@@
around
X
implementation
el@@
Private
15@@
control
formulas
prices
change
You
old
add
top
too
lot
financial
better
cumulative
core
music
Monday
give
apos
Italian
called
Ukraine
Indian
second
further
current
40
convert
large
28
00@@
x@@
Car@@
Convention
Europe
cannot
main
AP@@
access
session
cost
real
private
cheap
ar@@
President
play
piece
&apos;ve
Black
de@@
USD
interesting
on@@
r@@
screen
parts
members
future
el
government
z
men
3.@@
Commission
17@@
form
hour
political
party
ling
.@@
address
period
High
specific
alized
become
cooperation
accommodation
ound
M
open
Government
return
energy
point
hand
Re@@
something
among
machine
provides
sure
14@@
er@@
black
ron@@
held
compar@@
13@@
above
H
air@@
Tuesday
car
Sof@@
close
January
money
example
necessary
region
Price
text
WH@@
Polish
definition
little
ri@@
food
2018
really
global
stay
der
device
video
Show@@
big
•
World
monthly
line
France
details
ro@@
els
document
Dec@@
production
ap@@
property
norm@@
addition
Norwegian
Secretary
project
st@@
ic@@
GB
ather
metrics
ed
put
local
legal
\
measures
decision
French
23
child
technical
fact
Weather
low
issues
God
share
Fl@@
Mr.
thing
experience
24@@
ations
2017
situation
l
art
organizations
particular
outlook
often
flight
background
Spanish
00
protection
areas
IS
ics
field
Con@@
2021
Kr@@
Q@@
increase
Group
military
meanings
American
related
O
again
it@@
present
times
British
technology
facts
management
Security
am@@
quickly
material
education
building
looking
March
things
Mar@@
27
course
various
difference
ad
blue
floors
temperature
conditions
50@@
groups
Se@@
feel
got
Trans@@
origin
Poland
Air
route
25@@
ask
easy
known
Ar@@
markets
equipment
Q
06
ensure
resources
head
ch
performed
G
land
problems
few
LED
needs
or@@
white
ton
policy
26
is@@
continue
regional
Asia
guide
а@@
calculation
fee
ol@@
sur@@
Co@@
action
ep@@
model
result
ad@@
03
check
house
led
Atlas
start
solve
taken
role
draft
natural
Ukrainian
due
believe
Turkish
least
total
terms
operation
app
05
distances
An@@
together
ab@@
60
ia
living
efforts
yr@@
might
short
National
tell
as@@
until
documents
third
general
sa
ation
four
research
cases
4.@@
study
AL@@
educational
White
everything
review
green
given
Japanese
office
filter
Development
30@@
below
paragraph
beautiful
rates
ate
answer
Download
ath
war
35
Japan
Light
determine
ag@@
systems
making
especially
Conference
side
helps
May
foreign
call
others
Union
care
Public
trade
lo@@
treatment
dryer
training
effective
45
section
five
key
Save
therefore
once
near
keep
os
latest
Zealand
category
di@@
Rub@@
month
December
bed
fuel
31
Road
pal@@
create
major
offers
oil
materials
id
pressure
meet
photo
account
ka
th@@
5.@@
Yu@@
programme
application
maps
Rights
stream
file
modern
manufacturer
personal
night
away
6.@@
developing
he@@
left
tin@@
friends
include
community
having
girl
St@@
ine
8.@@
im@@
ries
relevant
considered
.com
basis
Danish
Dominican
established
analysis
ina
receive
image
о@@
co@@
visit
risk
Case
certain
Dutch
29
peace
to@@
June
parameters
parties
try
De@@
whether
proof
week
space
Pharm@@
average
ant
Ster@@
team
purposes
features
society
medical
airport
later
professional
ym
yet
assistance
ik@@
consumption
population
Real
whole
site
Di@@
ti@@
ter
America
plan
adopted
developed
sh@@
Greek
li@@
board
knowledge
attention
additional
80
Tr@@
accordance
shades
7.@@
Hospit@@
quite
industry
took
ettes
understand
acies
ated
Party
read
op@@
North
ik
Office
08
designed
toil@@
growth
common
interested
os@@
32
clear
reviews
capacity
ever
likely
nuclear
tickets
done
July
pharmacies
school
Home
r
almost
respect
Moscow
cent
е@@
Human
someone
click
taking
55
value
son
minutes
early
trip
conditioning
statistics
hot
Quality
40@@
9.@@
projects
Special
le@@
India
ann@@
restaurants
position
Pl@@
Africa
f
Lawyers
models
EU
required
September
ft
amount
mobile
Fran@@
percent
far
changes
PL@@
persons
Br@@
young
environment
quantity
levels
Bo@@
ul
ak@@
be@@
Brazilian
issue
past
single
&apos;@@
heart
October
received
Red
nothing
intuitive
Ad@@
center
interest
unique
currency
ot@@
Fashion
Be@@
fully
lines
Super@@
ry
effect
concerning
Color
60@@
tended
University
transport
types
created
04
Friday
budget
bands
Blue
Clo@@
н@@
2015
shower
tle
bar
improve
basic
told
Italy
Phone
Other
ha@@
With
East
um
original
pl@@
item
2010
force
series
April
2016
follow
USB
Car
ker
November
watch
pm
didn
window
us@@
requirements
leave
oc@@
moment
presents
station
upon
organization
Outdoor
musicians
matter
ang@@
media
speed
U
23@@
simply
om@@
ing@@
authorities
referred
2012
enough
individual
suitable
Sle@@
Men
AN@@
wood
oration
noted
Canadian
observed
death
weight
thought
2014
II
80@@
Mo@@
um@@
cartoon
test
bottom
doesn
hospitals
90
CD
Bi@@
nature
ens
costs
computer
р@@
Pro@@
face
words
3D
thus
summer
pcs
2011
2008
date
song
program
-@@
largest
reports
pay
activity
Che@@
visiting
Cas@@
Map
gas
ap
sights
although
2013
engine
War@@
Electric
70
staff
economy
U.S.
spin
steps
says
36
Of
increased
OM
ting
02
directly
hundreds
ual
came
progress
regard
48
Back@@
ash
wear
travel
corresponds
doing
weeks
Information
construction
Professional
Board
28@@
eve
ger@@
500
recommended
2000
Qu@@
African
ur@@
blood
em@@
network
tips
Portuguese
strong
functions
institutions
USA
became
Israel
ble
hex@@
significant
Bar@@
2009
Machine
describe
Box
ke
makes
ed@@
..
RF@@
events
half
House
word
develop
AS@@
mind
42
official
и@@
genres
updated
dis@@
agreement
ticket
potential
steel
ding
ST@@
works
26@@
ou@@
everyone
Des@@
And
true
200
rules
Char@@
ul@@
investment
shows
decim@@
Li@@
amenities
kind
self
consider
won
facilities
Federation
higher
statement
box
amp@@
county
questions
te@@
Je@@
09
ates
reason
dro@@
ms
difficulty
Swiss
learn
cause
woman
seen
customers
Su@@
ps
detailed
fashion
stop
included
ne@@
century
recent
ira
ability
OP@@
precisely
si@@
La
itself
07
York
status
200@@
Sk@@
ter@@
é@@
IS@@
talk
lawyers
soon
mean
anything
difficult
35@@
appropriate
mentioned
job
happy
terminal
33
bus
round
En@@
wife
Spain
flat
Australia
ai
&apos;d
ir@@
menu
built
illustration
34
card
Central
students
hard
recommendations
CN@@
Water@@
Bank
bag
opportunity
ob@@
000@@
ster
king
sea
normal
maximum
Col@@
particularly
sector
ec@@
link
rare
complete
Hungarian
yourself
impact
wholesale
police
ana
Thursday
decided
safety
source
75
con@@
All
Organization
Singapore
Arab
AC@@
Th@@
2007
allow
fresh
subject
Com@@
divided
agenda
te
fl@@
usually
goods
Korea
content
ay
ice
bre@@
Location
ge
Internet
hope
th
needed
ov@@
February
2006
poster
la
amp
enter
TR@@
San
Ministry
six
rent
ways
actions
27@@
conflict
Lov@@
standard
direct
Z
re
programmes
2005
remember
representatives
apartment
ace
da
forces
longer
Bag
36@@
digital
function
definitions
letters
52
Long
Por@@
send
comes
Cable
elements
states
wish
lead
importance
excellent
bring
capital
bodies
thousand
IPv@@
Chilean
civil
Steel
pictures
Canada
yes
active
purpose
ining
weapons
Address
RE@@
idea
tons
LE@@
currently
games
US@@
previous
Day
wall
disease
August
Open@@
instructions
sunset
PU
ready
w
though
hair
film
effects
performance
sometimes
protect
connection
Android
Department
inch
turn
Kong
devices
37
picture
baby
participation
serious
Gu@@
front
ra
Hong
ber
standards
Thai
Minister
approach
In
event
22@@
Social
length
System
asked
physical
39
Beach
practice
ones
actually
ent@@
arrives
--
hospital
Australian
born
ake
supply
ra@@
themselves
match
ale
44
double
El@@
Parties
iPhone
responsibility
ff@@
Size
either
19@@
provisions
ai@@
via
Children
began
includes
ic
minimum
Mon@@
Latin
Hol@@
operations
51
41
ak
ly
enjoy
Dis@@
reported
Mexican
environmental
Economic
cover
violence
bit
element
Google
post
Ref@@
mother
46
Or@@
authors
started
tr@@
policies
IC@@
ans
mo@@
along
gold
Working
43
Coffee
flights
photos
girls
Dress
lost
Bl@@
daily
ground
37@@
existing
les
ten
38
framework
relations
floor
2004
ted
stage
kitchen
continued
safe
lower
29@@
dy
sunrise
step
Member
rest
throughout
lives
agreed
11@@
Court
Sale
proposed
appear
49
West
experts
cultural
expected
lot@@
PC
Ne@@
ya
ev@@
Mini
door
wanted
towards
uses
consideration
59
ES
do@@
no@@
beginning
domestic
ket
Law
Saturday
former
Bah@@
visited
relationship
culture
manuals
goal
SH@@
promote
Cor@@
glass
tools
move
co
Water
Ri@@
Pat@@
eze
creative
met
Par@@
ki
54
solution
manufacturers
positive
ces
deal
went
Turkey
shipping
meetings
Service
Iran
Luxury
Kazakhstan
rather
thes
gi@@
concerned
class
payment
ite
CH@@
Body
citizens
carried
bi@@
Arabic
sk@@
responsible
rating
scientific
ang
takes
forms
л@@
Lin@@
industrial
ues
ware
ano
Summer
outside
territory
56
pool
communication
places
maybe
т@@
57
ino
assist
metal
Power
inter@@
ings
structure
dress
wide
38@@
UN
tones
Kingdom
sex
gradi@@
rule
fight
interests
build
Czech
ong
se@@
act
65
percentage
ornam@@
qu@@
ket@@
friend
summary
father
Finnish
independent
focus
10.@@
response
news
Earth
symbols
RUB
record
47
laws
itch@@
TH@@
hold
electric
CM@@
64
London
lawyer
principles
Man@@
published
HD
plans
ass
Set
software
listing
2003
regarding
Green
letter
Po@@
Christmas
ie
Plus
ا@@
rack
Tem@@
prevent
bank
Saint
complex
reduce
Sli@@
Programme
winter
limited
Gold
Hand@@
J
methods
decisions
kids
procedure
est@@
Sp@@
freedom
copyright
instant
legislation
v
Apartments
Cot@@
Oh
images
av@@
skin
est
Area
na
bad
partners
establishment
useful
Tow@@
shapes
fast
300
ds
translations
se
View
cycle
34@@
ah
traditional
br@@
parents
Lo@@
deals
trying
season
across
Screen
court
ut@@
AR@@
involved
Wal@@
45@@
To
anti
Design
ay@@
tax
Association
Un@@
Fi@@
promotion
sustainable
Cl@@
res
labels
99@@
leading
pe@@
loss
mission
choice
town
collection
run
brand
strategy
success
despite
Watch
achieve
ys
representative
boy
33@@
ta
understanding
distinctive
UK
chat
scroll
vi@@
Camera
thanks
Airport
shop
Style
CL@@
specialized
Bal@@
submitted
Western
ette
70@@
ist
joint
plastic
represent
allows
web
providing
ng
entire
War
final
58
patients
irt
save
plane
press
Sol@@
context
Samsung
battery
science
99
story
AT@@
ant@@
participants
2002
ade
ER
sp@@
=
regions
53
criminal
touch
Winter
monitoring
completely
lack
border
regular
spring
up@@
messages
drawn
welcome
ors
ada
centre
Institute
technologies
net
proportion
90@@
alone
ector
Fund
Centre
Mic@@
mature
tool
internal
delegation
BR@@
planning
eyes
Soviet
income
ica
2001
coming
purchase
No
fish
ren@@
car@@
hol@@
Pi@@
TE@@
processes
AR
vector
items
commercial
Park
ons
football
over@@
ous
ler
12.@@
inside
á@@
LO@@
remain
prepared
apply
Silver
leather
remains
Gr@@
delivery
saw
successful
SD
49@@
garden
Can@@
identification
print
sky
LCD
Mag@@
display
furniture
funds
Ro@@
ER@@
One
tra
cable
sub@@
ads
id@@
On
evidence
transfer
к@@
ley
expressed
For@@
Tri@@
Ⲉ@@
𝗘@@
𝐄@@
11.@@
method
me@@
ure
Netherlands
sense
iz@@
shirt
workers
No.
surface
annual
🅴
gender
studies
aw@@
po@@
af@@
dentist
platform
goals
index
associated
agencies
attractive
gu@@
else
Sil@@
gh@@
concern
68
sources
Ac@@
anyone
benefits
fire
Hind@@
100@@
HD@@
ve
Pro
61
reasons
probably
drug
description
par@@
reach
comprehensive
Fr@@
cl@@
ham
individuals
Non
Church
options
Sea
ma
SU@@
closet
stars
author
Bluetooth
brain
Type
ard
late
Islands
Safety
Me@@
per@@
Wireless
с@@
ks
ue
ty
il
Cro@@
base
Tel@@
Apartment
Kitchen
Shipping
Business
recently
plate
wedding
crisis
getting
Article
written
avoid
39@@
paid
beach
az@@
sent
hands
IP@@
scale
signed
sales
whose
au@@
ur
HS@@
submit
heat
600
finally
66
die
select
central
sound
immediately
scientists
demand
Mexico
instead
AP
Sha@@
creation
Rec@@
apartments
ni@@
bro@@
camera
ring
der@@
forward
greater
factors
plant
Dr@@
and@@
happened
died
mass
wallpaper
coffee
easily
unit
star
kilometers
ver@@
ave
72
stand
leaders
presented
opinion
Digital
growing
hi@@
Am@@
outdoor
Action
button
Te@@
applications
extra
63
earlier
cancer
ot
Ma@@
oo
wrong
governmental
update
ded
soap
perfect
cute
IR@@
ru@@
require
stated
Mal@@
equivalent
AM@@
procedures
ig@@
ville
customer
Glass
humanitarian
armed
increasing
contains
pain
beauty
organized
Health
95
contained
Wednesday
ny
cut
movement
sports
sign
This
tic@@
presence
SP@@
essential
Paris
48@@
We@@
bo@@
John
Har@@
que
UN@@
wel@@
Vietnamese
changed
accessories
stable
wants
NO@@
strategic
ber@@
str@@
supported
principle
supermarkets
Head@@
Control
storage
Global
Belarus
Facebook
heard
contents
solid
mat@@
Protocol
55@@
requested
doctor
ow@@
thank
south
Sex@@
religious
suit
SE@@
fall
uc@@
write
85
su@@
Room
Mobile
oral
opportunities
overall
ants
tor
ho@@
DE@@
tea
Wall
morning
Egyptian
ches
Mi@@
Accessories
1999
approved
external
ash@@
au
hear
store
la@@
GBP
justice
possibility
EC@@
CO@@
package
played
q@@
career
Affairs
win
entitled
ill
Per@@
cells
Iraq
lamp
trust
killed
Products
pro
conference
famous
inspir@@
ger
gr@@
mom
reality
challenges
op
ile
infrastructure
ne
establish
band
condition
implement
incorporated
internet
brought
hand@@
seems
Switzerland
AC
processing
rated
ID@@
Kazakh
32@@
clients
attack
62
ao
president
sle@@
Ir@@
ear@@
depending
og@@
bl@@
player
Ear@@
discrimination
highlights
restaurant
Director
introduced
Year
Str@@
message
skills
administrative
mini
Brand
Executive
Sal@@
ach@@
himself
yeah
ute
500@@
Radio
happen
1998
influence
discount
ins
TO@@
Today
It
Bath@@
Act
knots
ste@@
acts
equipped
Iron
gonna
Villa
carry
commitment
miles
cold
Azerbaijan
а
provision
contract
competition
Company
blowing
installation
tical
RO@@
negative
tive
calculate
converted
thinking
confirmed
fun
den
are@@
stainless
ip@@
officials
Lu@@
Brazil
port
Fe@@
charge
registration
oul@@
majority
drive
13.@@
poverty
ju@@
Art
€
ancient
begin
practices
buying
administration
flower
operating
shown
We
allowed
67
transportation
compared
personnel
expect
highest
ong@@
seven
universal
RED
adoption
Ul@@
People
IT
ats
DE
nia
theme
dead
worth
sexual
Pe@@
truth
animals
By
CAD
ese
worked
exercise
ideas
cars
14.@@
obligations
registered
gave
flowers
Cal@@
race
Shoes
grow
Pr@@
Cli@@
gift
strengthen
Metal
RA@@
School
Ver@@
ph@@
dil@@
walk
template
depends
Code
powerful
Ti@@
eter
Inter@@
verify
Museum
announced
ship
Cu@@
learning
77
couple
creating
researchers
sleep
changing
1995
But@@
luc@@
wait
stone
800
the@@
healthy
knew
solutions
option
Em@@
Vi@@
favourite
inter
reference
memory
coordinates
released
ky@@
japanese
Stand
Al
matches
har@@
ub@@
clothes
animal
eph@@
perhaps
aimed
chemical
requires
equal
tern
register
Wall@@
ara
56@@
requests
emergency
yp@@
arms
ful
ech@@
glasses
female
we@@
j
ci@@
ian
é
west
dialogue
Pan@@
Georgia
conducted
dies
damage
caused
books
Ab@@
thousands
agreements
Apple
Syria
Kar@@
release
symptoms
yellow
Open
IT@@
behind
primary
solar
88
vehicle
lose
recommend
AU@@
Stain@@
committed
eat
Card
clothing
ow
Protec@@
za
va
Bel@@
translate
She@@
task
recognized
dark
employees
properties
discussion
III
families
OS
ou
Player
uk@@
crime
Swedish
purchased
46@@
saying
club
IM@@
Pal@@
aircraft
reporting
Battery
15.@@
issued
smoking
concept
AD@@
CS
factory
described
1994
victims
correct
Ste@@
colors
ore
Services
Management
bu@@
DC
ving
notes
sun
go@@
ex@@
1997
tic
isn
dog
holiday
resolutions
tion
Pur@@
traffic
ko
ha
Agreement
reached
47@@
Touch
island
man@@
Galaxy
selected
playing
Middle
speak
Sunday
soft
wing
humidity
aspects
aid
programs
defined
ID
terrorism
degree
connected
ties
authority
zone
Bot@@
fly
mon@@
chance
highly
Trump
efficiency
ies
marketing
relating
ame
huge
strengthening
priority
expert
ver
Sun@@
latitude
Display
м@@
fe@@
secretariat
rich
ell@@
produced
gives
ó@@
nice
warm
Declaration
affected
wind
diseases
Family
talking
balance
carefully
una
Video
Hot
Bur@@
ush
character
Putin
articles
threat
Protection
mechanisms
NG
applied
Gi@@
drugs
row@@
credit
employment
mandate
deep
partner
kers
Spring
Smart
earth
ater
Ber@@
DI@@
Mission
drink
patient
exist
variety
1996
matters
units
generally
papers
values
practical
Facilities
Chi@@
rise
separate
arm
76
ppers
participate
anal
behalf
pro@@
longitude
copy
Seoul
ov
vehicles
aj@@
96
exactly
tried
ose
opened
Washington
Secretariat
Panel
install
sk
client
starting
ESS
spaces
ona
un
rac@@
La@@
players
í@@
produce
fabric
supports
du@@
shoes
69
calls
ja
71
pink
82
Street
historical
Federal
count
implemented
addressed
Forum
smart
92
benefit
insurance
worldwide
Euro
pre@@
looks
fit
painting
elections
sites
Great
Support
accept
aya
poor
ill@@
maintain
ba
ö@@
73
98
for@@
objects
advice
lights
widely
84
circumstances
direction
autumn
amazing
Democratic
Swe@@
leader
fourth
format
Motor@@
guests
dining
Garden
knows
nearby
hu@@
district
ala
painted
ning
Israeli
Min@@
ro
Mor@@
Flower
kill
minute
IL@@
fundamental
Autumn
clearly
pattern
WiFi
Sch@@
meat
IN
planet
ink
ac
Chairman
ess
Islamic
81
tomorrow
era
oning
El
Bri@@
vote
plays
16.@@
statements
Gar@@
pack
ten@@
affect
okay
Inn
ide@@
ā@@
Armenia
mainly
ye@@
goes
closed
Palestinian
Gen@@
ve@@
Governments
numbers
ge@@
conduct
Ter@@
annex
Go@@
ex
efficient
REG@@
comments
86
Sto@@
dates
banks
instruments
coordination
Kids
kg
church
continues
beyond
79
integrated
ist@@
Law@@
ball
res@@
clean
nearly
examples
OR@@
hot@@
generation
whom
preparation
King
homepage
informed
rings
reduction
st
dangerous
volume
aker
ma@@
HO@@
journey
Rapporteur
Cos@@
150
ological
Agency
Syrian
shared
printing
listen
wi@@
all@@
graphic
ml
reform
ple
enti@@
intage
CE@@
97
wrote
No@@
Head
sell
critical
serve
Tatar
ok@@
peoples
Baby
Hi@@
forget
chain
advertising
stability
proposal
prevention
GP
Jesus
causes
aware
ony
sc@@
compliance
opening
determined
plus
election
del
Greece
Education
advanced
St.
effort
58@@
ery
و@@
improving
discussed
ester
Si@@
ini
turned
conversion
initial
Cam@@
Top
assets
в@@
fear
Bu@@
ick
comfortable
except
agree
myself
end@@
north
becomes
Sports
93
д@@
eight
street
reading
ys@@
Show
sanctions
91
ud@@
od@@
Bitcoin
Foreign
super
Your
ized
schools
completed
ary
achieved
ME@@
SG@@
ick@@
phones
formed
email
pol@@
professionals
object
cell
automatic
housing
opinions
negotiations
finance
em
Wi@@
ey
eted
houses
birth
her@@
Constitution
ah@@
Food
height
Pol@@
Technology
94
dictionary
east
objective
SC@@
dynamic
mar@@
Ap@@
planned
grounds
plants
husband
Tur@@
figure
stock
Hair
Ireland
ish@@
ity
ü@@
ali@@
identify
square
oz@@
nation
target
combined
Austria
Emirates
ops
MO@@
integration
lip
Her@@
Hy@@
Plastic
express
firm
Series
78
xHamster
export
ance
foot
di
writing
18.@@
prior
guarantee
cool
Kyiv
Pink
pet
offered
availability
contribute
ail
businesses
Trade
.1
ags
Mc@@
theory
characteristics
So@@
aluminum
As@@
networks
skiy
250
Music
warehouse
funding
Wedding
Ros@@
dream
happens
whatever
sts
bar@@
fields
attacks
satellite
Gift
accessible
army
generate
eye
monitor
Offer
buildings
tist
Holiday
59@@
fi@@
pe
57@@
custom
ax@@
1993
mechanism
Sweden
ensuring
Afghanistan
ert@@
voice
communities
Asian
driver
PVC
extremely
trading
Cle@@
directory
Full
cards
Hu@@
Bre@@
lar@@
flow
maintenance
Poly@@
ish
spend
permanent
cross
EUR
Camp@@
Club
risks
Prime
trees
ots
row
pharmacy
fare
beds
existence
files
felt
nor
locality
Bas@@
para
Egypt
ati@@
ari@@
bags
waste
frame
objectives
multiple
luxury
rain
starts
What
situations
proposals
SS@@
74
ir
Beijing
remote
L.@@
Lord
Romania
track
offices
running
Ge@@
aster
strength
Night
yesterday
tu@@
toys
Civil
anti@@
shape
CA
Eastern
bedroom
medicine
ane
giving
mer@@
ر@@
Research
sold
strategies
concerns
radio
Tor@@
abbrevi@@
older
Section
title
diet
eck
skaya
identified
83
Best
Soft
approximately
Santa
laser
financing
iron
Gal@@
consultations
cli@@
twenty
bo
cotton
De
distribution
ari
Dir@@
regime
channels
waiting
Windows
ret@@
movie
mer
PornHub
middle
ves
prepare
Aluminum
previously
closest
leg@@
corporate
ye
master
inar
otherwise
ff
entrance
fine
ism
investigation
20.@@
violations
fruit
consequences
logo
Cap@@
DO@@
equality
ial
ama
regulations
reduced
moving
kets
manner
Indonesian
ky
HIV
tri@@
Mu@@
Love
vet@@
First
Female
claim
feeling
park
significantly
pass
1000
debt
A.
den@@
eng@@
Material
sport
carbon
communications
entry
England
panel
speaking
mo
impossible
cans
SM@@
hn@@
contribution
spread
67@@
effectively
leadership
aim
youth
Sho@@
eli@@
120
cor@@
Gl@@
Key@@
estimated
tasks
launched
pages
ze
Belgium
forest
intended
ita
Romanian
Saudi
advance
album
ce
independence
Du@@
heavy
treaty
si
Geneva
ended
religion
break
favorite
Dictionary
Computer
300@@
ment
masturbation
Advisory
train
feature
ani
sing
atmosphere
industries
ath@@
Val@@
ek
categories
promoting
competitive
discuss
44@@
IC
indigenous
ators
75@@
chair
19.@@
Treaty
species
pen@@
mode
cat
was@@
Ms.
solo
alternative
700
normally
Sa@@
named
MB
indeed
lu@@
im
wine
Photo
kin
dated
Energy
urban
Pen@@
toilet
onyms
stic@@
sets
87
proud
Fre@@
friendly
Bra@@
sorry
silver
Policy
Tools
tree
secret
initiatives
Satellite
Up
parking
Games
combat
therapy
adults
racial
Norway
cur@@
agency
intelligence
join
bath
head@@
ables
Time
17.@@
66@@
Back
convenient
Ba@@
cu@@
labour
measure
lived
Tube
ner
io
ages
campaign
Jo@@
error
village
claims
accepted
testing
Xiaomi
implementing
mouth
endant
cash
Cur@@
seem
у@@
enterprises
Force
Model
mental
ast@@
exhibition
Ta@@
holding
reliable
placed
meters
contributions
positions
extent
wireless
ess@@
ideal
out@@
Me
Petersburg
Tab@@
sal@@
passed
river
cre@@
г@@
initiative
advantage
hi
Christian
Hoo@@
Fun@@
massage
operational
waterproof
}
89
dollars
vision
{
Bro@@
Pacific
Rem@@
ise
actual
spent
awareness
signs
Short
mark
phase
Universal
ata
Huawei
Search
chicken
covered
breakfast
ke@@
hairy
agricultural
ging
ills
so@@
links
Tu@@
AB@@
aci@@
Girls
certainly
illegal
raised
transition
forced
nearest
dry
daughter
Plan
stress
He
enhance
ans@@
banking
seek
student
PE@@
enable
Uzbekistan
believed
88@@
scope
applicable
ology
improved
brief
crimes
finding
missions
trans@@
Data
perform
Dra@@
Golden
remained
Lap@@
veterinary
contain
des
nations
decide
lin@@
Rome
Im@@
por@@
cutting
Dni@@
Porn
Mer@@
snow
part@@
composition
combination
adequate
River
Travel
driving
replace
facilitate
founded
Jewish
64@@
Hand
Clos@@
can@@
1.5
ass@@
Big
Army
fair
path
festival
secure
biggest
ion
entities
900
experienced
numerous
Ko@@
marriage
resource
faith
Ni@@
hair@@
ven
Representative
kn@@
Mat@@
pres@@
jobs
amateur
teen
accounts
Game
pa@@
inform
Ah
Pu@@
ally
ence
kin@@
From
Brown
Lake
evaluation
Creative
com@@
Nor@@
ED@@
Er@@
improvement
Le
served
Armenian
Indonesia
invited
draw
married
recommendation
illa
represents
resses
Fol@@
partnership
ped
Sport
My
fighting
ti
interface
clouds
gn@@
fa@@
Bor@@
investors
min@@
algorithm
followed
Vol@@
DA
leaves
Man
labor
ECT@@
ethnic
TH
remove
2.5
showed
du
bs
ack
fifth
VI
IA
challenge
wasn
ents
drop
gone
AN
limit
Twitter
ters
notice
Auto
focused
ille
ING
ric@@
formation
ool
returned
ol
neck
gets
contemporary
cher
eg@@
XL
tent
unless
info
David
worry
indicated
Network
approval
Pakistan
Los
shot
defense
switch
watches
ous@@
brush
rec@@
→
Hungary
pursuant
~
ford
medium
Mos@@
portable
ł@@
actively
peaceful
estate
lie
Report
respond
Hard@@
handle
bur@@
pretty
Sens@@
factor
situated
introduction
innovative
becoming
nec@@
Division
Congress
tests
Line
Yellow
discover
ust
0000@@
occur
shopping
relation
Nov@@
Island
Ser@@
recommends
appeared
pi@@
placement
railroad
confidence
terrorist
ank@@
refugees
millions
NATO
ock
bridge
feet
owner
abroad
Thailand
ei@@
Ben@@
heating
entered
Cuban
Simple
ars
HK@@
izer
tro
comfort
desire
terrace
Industrial
lock
outcome
Del@@
Anti
follows
Sc@@
ns
0.0@@
easier
Mil@@
unfortunately
brother
multi
Print
obtained
structures
Justice
Deposit
connect
Zapor@@
MS
male
Leng@@
AW@@
boys
supporting
Pakistani
failure
Star
Currency
AND
launch
guidelines
output
looked
ight
resistance
Finland
Bar
ls
explain
ly@@
quet
mail
discovered
learned
HE@@
....
Sam@@
vo@@
inner
alia
effectiveness
Royal
andro@@
ine@@
MP
customs
motor
Bosnia
Society
expensive
democracy
Britain
Crystal
commerce
appears
offering
Door
hit
Is
liv@@
kinds
dr@@
disposal
decorative
Small
dinner
expression
block
besides
guy
rylic
conclusion
Tool
enforcement
nit@@
ل@@
milk
ture
indicators
ain@@
sufficient
officers
Meeting
doubt
afraid
rose
Sub@@
AI
mountain
elected
lighting
Bul@@
Wine
ness
PP@@
obtain
Parliament
selection
ets
violation
thouse
​
sw@@
alcohol
consult
bright
increases
democratic
visitors
spiritual
Life
moved
chin@@
syn@@
65@@
constantly
His
ound@@
Ag@@
posts
klace
tits
prison
settlement
records
developments
Kit
Original
lake
sectors
atin
bottle
tics
Equipment
ongoing
Dr.
Phili@@
loved
Oil
setting
oo@@
tourism
concluded
Ak@@
California
Sex
IV
mi
Ju@@
News
raise
1992
ement
Belarusian
hal@@
ef@@
behavior
destruction
ova
protected
disarmament
sl@@
68@@
manage
recognition
Modern
quick
Cup
ens@@
Low
Remote
automatically
elling
Hey
mine
our@@
dance
dy@@
Sim@@
appearance
Charter
XX@@
nine
specifically
spirit
ski
fi
analyses
duty
mostly
Americans
fifty
specialists
informal
cookies
troops
Christ
component
fan
compatible
eng
managed
54@@
Grand
atic
rist@@
Cre@@
server
86@@
recognize
Double
Science
Kal@@
Commissioner
PR@@
Countries
fishing
Jack@@
architecture
gl@@
ical
cr@@
Multi@@
Standard
radi@@
leaving
Resort
orders
mis@@
supermarket
ming
Deal
schedule
120@@
ain
AS
pre
CF@@
truly
Sun
ryv@@
federal
metres
instrument
Mount
fr@@
fetish
accurate
Reviews
host
PK@@
universe
trafficking
colour
Super
larger
greatest
pan@@
ä@@
apter
sha@@
Square
transactions
mid
torque
Wa@@
BL@@
packaging
rural
Max
ell
Hun@@
CR@@
ven@@
director
AL
straight
DVD
Girl
400@@
77@@
Medical
decades
controlled
sides
residents
profile
guys
transparent
machines
43@@
Restaurant
rubber
manufacturing
accident
yl@@
listed
sessions
hourly
collaboration
ach
Herzegovina
mountains
ES@@
ines
George
Permanent
Spe@@
recovery
electricity
Covenant
Cha@@
scene
Storage
helped
AA
classic
channel
My@@
declared
differences
topic
rou@@
Nec@@
Round
UNDP
instance
Printing
Ring
flexible
recorded
Solomon
Table
Cop@@
selling
Regional
Port
shirts
colorful
investments
votes
Tea
Op@@
increasingly
Mac@@
Front
elet
IR
Rose
serves
Ke@@
Station
temporary
delegations
concrete
gar@@
Denmark
adult
innovation
notified
keeping
bought
wheel
nationality
powers
con
gs
Foundation
desk
teacher
doctors
payments
IF@@
continuing
imagine
vary
cap
AM
successfully
arm@@
2.0
paragraphs
width
pump
ن@@
closely
ece
Casa
SC
ga
fiber
ora
All@@
centers
discussions
quarter
suggested
fund
feedback
Paul
emb@@
69@@
interior
wonderful
Environment
od
wh@@
Dol@@
populated
moon
MP@@
arrangements
collect
hin@@
Michael
ire
audio
signal
sensor
specified
Log@@
jewelry
sol@@
COP
Georgian
furthermore
sive
Sw@@
Fabric
Bulgaria
James
fat
Community
Signs
soul
primarily
Festival
explore
Space
developer
geable
enterprise
ca
faster
Rom@@
judicial
mutual
relationships
ola
BTC
wooden
arrival
cock
Out@@
Congo
pillow
poly@@
proper
consists
ington
eves
Red@@
Site
Child
Academy
CNC
severe
ung
under@@
attempt
evening
printer
Vladimir
burg
dedicated
back@@
explained
governments
ipper
kov@@
capable
relatively
Get
absence
Cooperation
int@@
che@@
mi@@
rental
alist
tions
homes
tank
engaged
consent
ump
consumer
don@@
Tom
1991
AIDS
battle
tur@@
welcomed
acceleration
UAH
bilateral
25.@@
cheapest
diameter
speech
pregnancy
encourage
sort
engineering
Cyprus
ut
functional
FREE
Chair
hundred
lies
seconds
regulation
Kh@@
tor@@
icon
clock
Vienna
residence
&lt;
kept
78@@
Northern
linked
Mel@@
ado
110
keyboard
humans
3.5
inhabitants
EL@@
profit
logistics
ی@@
Bay
AG@@
closer
websites
wire
balcony
Summit
š@@
visa
realize
BMW
gain
Transport
aff@@
advantages
ative
Sony
Bed
ji
undertaken
Sand@@
ser@@
trends
dishes
truck
GPS
failed
CM
e.g.
ran@@
і@@
bike
Upper
Ur@@
vo
couldn
represented
Audio
ole
angle
Automatic
If
lat@@
yn@@
absolutely
swe@@
Ph@@
pr@@
onic
ET@@
GE
dimensions
NG@@
Fishing
Den@@
Project
technological
Lithuania
1990
Pre@@
consultation
yan
fans
stressed
Properties
struggle
Kiev
Croatia
ahead
Parts
Criminal
considering
Peace
calendar
television
corruption
ourselves
asian
Natural
At@@
Micro@@
infection
PT
OF
songs
Kor@@
cloud
wholes@@
б@@
League
constant
zy@@
gun
fixed
esh
DV@@
virtual
Caribbean
ab
identity
microwave
multi@@
EC
haven
Military
repair
Sur@@
criteria
reducing
world@@
eventually
retro
Heart
Solar
110@@
loves
Jews
tube
operate
Ki@@
TA
UV
ast
Pri@@
none
twice
peacekeeping
dec@@
Argentina
CC@@
suffering
publication
denti@@
artificial
sharing
torture
senior
LA
guidance
aning
enemy
banner
occupied
Unit
AD
university
extended
province
CE
Peter
Lights
begins
trap
Hot@@
Review
Second
Es@@
weapon
soldiers
adopt
Category
Mas@@
Note
MA@@
rock
leads
chief
departure
att@@
substances
territories
genuine
ze@@
hole
remaining
receiving
illing
Administration
Cou@@
cut@@
stages
24.@@
Taiwan
hidden
spoke
romantic
establishing
experiences
achieving
sel@@
holder
SS
teaching
360
micro@@
threats
meter
priorities
liquid
з@@
bear
Sudan
videos
Wil@@
neither
landscape
IG@@
char@@
AT
akers
89@@
Laser
VC
legislative
Factory
standing
detention
veterinarian
consistent
Date
5000
Wash@@
coat
heads
hy@@
The@@
destroyed
owners
drawing
sofa
carrying
aren
lov@@
consumers
pieces
cast
Berlin
apps
1000@@
Ham@@
Illu@@
ي@@
om
free@@
sch@@
vet
mu@@
oth
teams
formal
Cuba
joined
pants
department
Toys
broad
ate@@
Alexander
ists
Ethereum
teachers
lim@@
occurred
mel@@
PL
oun
Cat@@
Estonia
001
installed
ez@@
magic
southern
immediate
val@@
ase
tioner
HC@@
ella
odon@@
module
79@@
vintage
tour
Mir@@
gg@@
1.2
ba@@
executive
sugar
Bun@@
UR@@
TXXX
i.e.
lift
Good
Living
worse
Live
figures
Old
Region
intermit@@
comment
mini@@
treat
til@@
Pul@@
commitments
ABS
courts
auto
seat
Tribunal
finished
ban
conflicts
expansion
Bureau
flag
abuse
Alternative
Portugal
smaller
berg
.net
م@@
85@@
regularly
water@@
revised
kit
fell
itted
ships
Ther@@
gentle
zer
equ@@
wouldn
arians
Mini@@
forum
purple
supplies
museum
150@@
lots
sum
crystal
ris@@
Right
anniversary
guess
din
reasonable
amendments
ordinary
MA
ovo
Shi@@
Veterinary
charging
thoughts
SO@@
Specialized
Mountain
emissions
detail
magnetic
lam@@
BO@@
Tar@@
acid
MS@@
actors
ae
Large
Coin
drinking
organs
treated
itness
obligation
Fin@@
stick
layer
sit
revolution
ending
usage
institution
Paper
TC
netic
arent
regardless
ero
thin
survey
miss
Switch
telephone
alization
Cer@@
economies
Malaysia
art@@
600@@
LD
Store
Joint
Bedroom
Land@@
201@@
humanity
Philippines
Film
interview
ST
evel@@
Hel@@
NE@@
27.@@
Fo@@
interaction
washing
exists
collected
proceedings
Band
Ha@@
translated
ere
missing
RC
PA
communicate
harm
wa@@
sweet
sounds
TR
anywhere
Rio
Mary
calling
determination
artist
84@@
Fer@@
preferences
restrictions
ders
participated
Two
ely
slow
agriculture
Wat@@
urgent
manufacture
FR
irts
How
debate
76@@
Off@@
governance
ón
Arabia
CD@@
studio
ping
ases
stories
acting
zhou
ev
Jerusalem
characters
Ji@@
asi@@
vital
institutional
opposition
bri@@
yl
OEM
deliver
continuous
toward
cleaning
frequency
Transportation
functioning
Hostel
ching
App
ered
ey@@
biological
District
tile
BU@@
GE@@
sole
Guest
Croatian
mas
ena
prove
B.
multilateral
San@@
posted
tiz@@
containing
load
believes
Dark
п@@
removed
eating
lowest
extensive
ri
Cat
appeal
extreme
ED
owned
electrical
ori@@
expand
unable
pregnant
rapid
：
seriously
walls
tourists
@
Lighting
pure
Cross
courses
Bol@@
helping
mirror
Internal
crew
stations
committee
chapter
cheese
intellectual
87@@
biennium
approaches
gen@@
appointed
ular
vulnerable
counter
Transp@@
audience
Diamond
nevertheless
greatly
booking
TO
stom
rel@@
trend
Sar@@
Key
pur
privacy
computing
Ball
import
Plat@@
resulting
virus
compare
CP@@
Shanghai
elegant
Win@@
ide
PO@@
bow
replacement
findings
minim@@
guest
difficulties
understood
possibilities
Microsoft
outer
reflect
ta@@
Tra@@
vas
provisional
Under@@
Moldova
suggest
Ol@@
reflected
Queen
indicate
hang
gay
plates
coast
techniques
Fu@@
ty@@
Stri@@
danger
transmission
civilian
erie
ene
del@@
Serbia
classes
Mont@@
occurs
ink@@
orange
Filter
Holy
chosen
granted
Grap@@
ordered
Philippine
Wood
anda
willing
aka
super@@
1.6
valuable
SD@@
entering
radiation
depend
everybody
non@@
Mark
tech
Ku@@
س@@
talks
jurisdiction
funny
subsequent
á
Ed@@
reaction
covers
Lady
GB@@
q
organic
·
paste
documentation
plo@@
sample
Muslim
ake@@
pick
reputation
zz@@
packing
satisfied
ends
meant
agent
lets
grade
rid
ome
Obama
observations
eastern
depth
ա@@
arrived
Male
Mr
Latvia
stration
affairs
fts
compensation
oven
amounts
periodic
MY
Millennium
Official
Program
anger
happiness
cup
belt
Gues@@
voltage
Do@@
Wire
presentation
requirement
bab@@
voluntary
retail
Do
Work
26.@@
diplomatic
А@@
decrease
crucial
vor@@
Buy
fill
pc
Tim@@
collective
shemale
lands
Air@@
trucks
edge
Comp@@
Use
Ca@@
centuries
seating
Shell
College
preparing
war@@
Palace
reforms
clinic
nobody
Shap@@
migration
Systems
bec@@
alive
printed
lin
ycle
input
swimming
180
98@@
definitely
ura
overview
CT@@
SA
fitness
contacts
Master
centres
toy
ET
Tam@@
ying
ening
contracts
amb@@
accounting
politics
Colombian
adding
delivered
feelings
sixth
125
hel@@
Ban@@
stan@@
happening
Supreme
hat
Poc@@
ban@@
.2
cake
conclusions
shoulder
sted
Hor@@
Rot@@
SE
Sustainable
160
marine
GO@@
Iranian
Labor
crazy
Sel@@
Vice
examination
ering
bet@@
sti@@
strongly
Studio
entity
inger
perspective
filling
C.
extension
Res@@
sphere
charged
sm@@
Colombia
Roman
taste
timet@@
awa
cart
tim@@
CC
verter
obvious
sensitive
secondary
responsibilities
lips
cal@@
latter
Navy
entirely
boat
rubles
Cycl@@
Ministers
1.1
integrity
dge
Political
Gor@@
ack@@
stri@@
Bon@@
aged
ran
flying
lens
Dom@@
Nigeria
Az@@
division
alloy
consciousness
Russians
ratings
EM@@
measurement
н
diamond
allowing
showing
Financial
Deputy
Ram@@
Can
seeing
gen
Mak@@
Color@@
pin
judge
PS
of@@
territorial
Pun@@
ho
bal@@
Dog
rap@@
AV@@
sister
Don@@
broken
Hon@@
EL
Mari@@
pur@@
dogs
ce@@
SL@@
involvement
raw
SR
transparency
ы@@
moral
finish
PE
ON
FA
extend
surgery
computers
tablet
dynamics
MI
stopped
ETH
victim
powder
supplier
evil
rem@@
ational
zi@@
participating
corresponding
ck
Emergency
sen
authorized
minister
certificate
suffered
decade
Book
Bible
capabilities
Run@@
Star@@
Sri
any@@
Ob@@
birthday
respectively
User
asking
turns
duration
2,@@
Jac@@
Que@@
unknown
Ci@@
95@@
Ger@@
Vill@@
yer
academic
forever
psychological
Word
low@@
victory
destroy
Ho@@
motorcycle
hor@@
involving
More
ocean
FC
universities
dealing
Technical
dreams
HR
walking
relative
THE
stakeholders
adi@@
Angeles
dad
foundation
respective
Vac@@
imposed
Gri@@
hell
Chief
1.3
sed
Gro@@
engage
Animal
photography
1.4
decides
customized
agents
dollar
forty
Sy@@
facing
achievement
bill
Vel@@
promise
wealth
è@@
loop
mal@@
studied
limits
clinical
Fi
anner
convinced
col@@
Orange
pizza
MT@@
proof@@
Han@@
totally
duties
aw
mechanical
ush@@
wall@@
directed
regulatory
anymore
pleased
aux
motion
consensus
aims
speaker
periods
Training
faced
replaced
я
sponsored
kings
ela
dear
vis@@
NO
History
Las
emotional
ling@@
Reg@@
permit
ales
eliminate
cs
Sty@@
gan@@
supposed
IB@@
attended
exports
PER@@
Electronic
estimates
hate
ouse
firms
wal@@
Point
Police
mph
ep
chi@@
accordingly
interpretation
seeking
frequently
foods
sixty
spending
arrested
jet
Kat@@
engines
ges
teach
statistical
HTML
dig@@
mit@@
י@@
Theme
enc@@
tourist
ECE
Pa@@
han@@
Gra@@
Vide@@
OF@@
Miami
welcomes
visible
proved
precipitation
encouraged
downloads
Tokyo
suffer
competent
ich
revealed
occupation
Apps
ency
belief
contrary
rapidly
tage
Mul@@
Software
Tom@@
shares
disaster
Far@@
dos
attend
74@@
ca@@
Dar@@
Wind@@
Lebanon
borders
sey
wave
GR@@
defence
officially
Book@@
brown
pockets
personality
Cr@@
sil@@
ali
fog
downloading
Read
GDP
colleagues
Tower
ug@@
conferences
villa
ore@@
largely
substantive
hurt
arian
college
HP
Shar@@
uh
BC
63@@
ok
pati@@
tested
smartphone
UNESCO
degrees
van
rice
dust
Now
365
optimal
transferred
taxes
sitting
bor@@
й
je
raising
beer
stored
sick
berry
representation
ization
han
delay
western
thirty
FA@@
timely
unlike
des@@
controller
lucky
650
Product
tw@@
blonde
installing
ard@@
invitation
nail
column
noting
Minsk
ów
comply
manager
tradition
chronic
Mov@@
Costa
zero
und@@
sy@@
depression
ws
orgasm
typically
concentration
properly
1st
prefers
assess
cooperate
workshop
actor
aki
Carbon
declaration
maintaining
Jersey
command
21@@
iss@@
St
eta
survive
household
ments
massive
intergovernmental
Bic@@
addressing
3.0
doors
ו@@
wanna
Princess
roll
ji@@
ind@@
yo
citizen
97@@
UNICEF
Name
Orthodox
answers
invite
96@@
refer
ts@@
lover
eb@@
managers
ked
sheet
dorf
ord@@
bird
films
dal
ils
5.5
fuck
iah
May@@
claimed
ki@@
moderate
association
Chile
ses
pot
Mass@@
That
28.@@
ili@@
Speaker
Part
warning
750
ading
OK
Cra@@
Post
murder
ram
stronger
hearing
Hal@@
Mediterranean
vast
IA@@
ory
protecting
joy
tional
taught
namely
bon
bedrooms
Woman
Is@@
Rel@@
judges
decline
deposit
northern
commission
pointed
filled
bearing
Tex@@
confirm
Number
Mus@@
53@@
civilians
cap@@
phenomenon
ically
targets
lady
Lan@@
reserves
Euro@@
Speed
oh
a.com
itable
wishes
Clock
Grey
assembly
treaties
Cast@@
dispute
sy
Province
About
protective
alarm
achievements
ears
evolution
surprise
conditioned
demands
29.@@
presidential
substance
apart
140
saved
fier
ail@@
invest
Kon@@
everywhere
Bat@@
ب@@
audit
Play
grown
gradually
loan
overcome
UT@@
č@@
Chicago
©
flash
Crimea
ug
satisfaction
101
horse
Spa
eva
alty
exact
250@@
topics
slightly
Robert
transaction
library
ports
FE@@
itance
watching
Monitor
mask
Annex
indoor
As
charges
utch
Belt
teeth
Customs
www.@@
union
Roland
inc@@
mining
fer@@
dle
tors
exclusive
UL@@
passengers
Jack
IV@@
weak
fe
gre@@
Fres@@
pen
entertainment
ned
Weight
Regulation
Anti@@
zh@@
Cy@@
absolute
jacket
acking
Tal@@
ards
Painting
int
New@@
AF@@
dual
ek@@
immigration
seventh
kid
és
OR
Empire
Care
Shen@@
pu@@
Tree
copper
Av@@
appointment
Rad@@
pipe
Lat@@
Kam@@
2nd
Hom@@
durable
rank
sun@@
vitamin
Pet@@
Prince
ier
Strategy
bing
sovereignty
Olympic
shooting
ISO
emerging
attempts
diabetes
grass
UNCTAD
lineup
candidates
appreciation
medicines
submission
AK@@
mp@@
careful
ples
Cab@@
applies
brings
ini@@
ت@@
pop
Authority
complicated
resolve
Kom@@
strange
plug
LE
ich@@
bringing
Forces
RU
Ali@@
Wh@@
historic
Defin@@
emphasized
introduce
ize
County
ality
genetic
realized
Web
Azerbaijani
DS
ladies
Industry
sentence
Page
spot
whenever
saving
na@@
Woo@@
controls
subjects
accused
newspaper
esti@@
grew
hum@@
wake
exception
featured
RO
Dubai
itation
dental
Nik@@
Controller
MIN@@
1.8
expertise
Ken@@
Vin@@
webcam
Martin
fin@@
survival
paint
och@@
kitch@@
cul@@
23.@@
Moon
SEO
shell
130
FI
suits
movies
Ocean
sty@@
ster@@
wild
File
Classic
aries
1,@@
revenue
Skin
Halloween
usual
escape
Crime
lunch
prefer
ader
tible
Mad@@
2.2
producing
ula
ck@@
symbol
diagnosis
Turkmenistan
fied
guaranteed
visual
losses
ultimately
possibly
Additional
tin
lar
pollution
relief
jer@@
Serbian
honor
Spl@@
lasting
Ford
exciting
Barcelona
mention
considerable
Kol@@
chemicals
Ka@@
worst
laboratory
guarantees
intention
Defense
license
distributed
rival
affects
journalists
strip
Ly@@
false
scheduled
platforms
FM
attract
luck
Motor
ades
350
machinery
BB@@
DP
BE@@
abstract
programming
lay
Texas
trouble
comparison
gifts
obviously
pered
li
WE@@
legitimate
laid
upper
Beautiful
ko@@
pilot
Version
studying
Team
seemed
Land
punishment
designer
2.1
officer
versions
vacation
ee
sia
charger
2.4
Silk
Met@@
noise
roads
Media
my@@
facility
stands
hoo@@
honour
105
circle
Organ@@
LG
implications
settings
hen@@
agu@@
SR@@
Charles
chart
sa@@
sub
Administrative
Finance
Bab@@
Palestine
telling
dia
booked
Istanbul
Fort
je@@
fy
Fast
preliminary
protein
let@@
sleeping
Persian
sel
soup
ila
255
ga@@
Suites
sul@@
SP
Order
Power@@
valve
plenary
harmful
Breakfast
specialist
ylon
feed
substantial
creates
Dor@@
Co
anc@@
knife
literature
qualified
stoc@@
sought
unusual
subsequently
coal
branch
ION
clinics
AZ@@
aces
Youth
jo@@
lessons
chocolate
hero
losing
ny@@
freedoms
bars
Not@@
removal
uck
cum
che
Chain
dition
writer
ites
metic
Online
4G
pleasure
Market
push
ech
Peru
Furniture
initially
inflation
gle
Len@@
earn
Cold
.3
‹
pray
iPad
missile
Express
smooth
buyer
movements
asset
birds
Building
Stone
completion
rying
camp
liver
Guinea
ric
oxygen
originally
structural
73@@
MM
muscle
ska
Arctic
urged
Tul@@
Beauty
outstanding
liability
Country
passenger
cheaper
Platform
streets
consulting
suggests
vegetables
naturally
Kn@@
considers
asonic
Nu@@
refrigerator
GA
indicator
TER
gate
Jordan
Mur@@
06@@
Boo@@
stores
К@@
ands
rist
patterns
accommodations
ston
pair
и
locations
aria
casual
emp@@
bra
ote
Temperature
Venezuela
cargo
resort
4.5
ing.com
constitutional
pri@@
visits
Cros@@
killing
turning
22.@@
expenses
productive
trac@@
wonder
refused
Hall
CH
immune
alism
pos@@
Flash
honest
transit
Optional
reply
vertical
CT
los
tab@@
traditions
lis@@
Southern
conventional
ction
Acc@@
Flo@@
hide
acquired
tonight
Manufacturers
sections
mb@@
emotions
Sound
Au@@
Iraqi
smoke
pension
PHP
Face
Rac@@
drinks
beneficial
stairs
Drop
pocket
dery
Islam
Dem@@
navigation
inspection
ota
SB@@
corner
Aqu@@
classical
PRO@@
samples
Sierra
Sen@@
mil@@
proliferation
typical
Fil@@
cooling
hall
Nar@@
Nuclear
necessarily
diversity
lia
blog
Madrid
Tre@@
catch
ceiling
forth
Nature
norms
ownership
bacteria
Morocco
rehabilitation
kl@@
golden
rear
soil
Smart@@
bach
Tac@@
contrast
Cultural
maintained
Single
suddenly
Don
NGOs
Town
aspect
sizes
Goals
bra@@
DNA
laptop
Bei@@
Slovak
kingdom
adjustable
Yam@@
compact
mal
Pil@@
prohibited
ton@@
Third
Puerto
Dan
Hang@@
Wel@@
Test
gray
empty
prisoners
burn
container
serving
Dur@@
Vo@@
reviewed
Implementation
Ang@@
define
Valley
Luc@@
paying
holidays
ental
Side
ax
Mirror
dresses
Pearl
lo
Thomas
defend
PP
tal@@
valid
magazine
Way
conversation
EX@@
Tit@@
headquarters
fate
loans
appl@@
Fle@@
connections
mixed
destination
Loc@@
flows
purchases
Fire
vel@@
designs
attitude
Connec@@
Rules
Cri@@
squ@@
unity
attached
tan@@
HU@@
sand@@
án
Eng@@
tie
nor@@
ther@@
tells
Mi
indicates
vessels
Ren@@
Pool
ICE
Press
Victoria
wa
organizational
glad
arrest
Il@@
cloth
nylon
affordable
ths
ull
Environmental
appreciate
bas@@
Mol@@
detected
reaching
Corporation
reg@@
Core
employee
Prin@@
MD@@
dose
bon@@
vinyl
hardware
strict
wash
CON@@
coach
Hebrew
binding
childhood
Interior
encourages
adapter
Pressure
т
izing
migrants
Any@@
displaced
ORE
★
Nigerian
QR
routes
ved
Prevention
LT@@
roof
Ambassador
Immigration
exposure
Leg@@
phrase
mg
Mid@@
UA@@
jo
7.5
somewhere
sper@@
opposite
USSR
sions
IL
restore
Hum@@
William
heritage
sen@@
zy
deaths
Slovenia
pad
ren
zzle
resulted
SW@@
tone
islands
passport
targeted
bound
trained
ratio
Cabinet
domain
everyday
marked
ORY
®
Not
concepts
hom@@
shoot
asses
Multi
feels
lan@@
aging
diverse
cat@@
Three
Scar@@
calm
utting
ORG@@
estimate
Ky@@
organize
istic
SL
Boutique
enemies
Bad@@
Little
anga
ney
Our
ym@@
kov
star@@
yoga
Syn@@
eighth
disabilities
zed
holds
Discrimination
familiar
dimensional
covering
Slovakia
hic
maker
award
preventing
tend
Veter@@
cope
waist
quiet
personally
WOR@@
philosophy
styles
fruits
contributed
minorities
themes
execution
Kenya
gro@@
incident
gross
awarded
rising
Labour
TB
Bangladesh
graphics
08@@
fac@@
ninth
Wi
sm
addresses
Gun
texture
farm
salt
amic
withdrawal
portfolio
С@@
tracking
Hill
knowing
yn
procurement
lit@@
explanation
hence
casino
05@@
fix
arts
roy@@
smile
damaged
desired
lic@@
Maria
jac@@
Tos@@
stuff
avi@@
Drive
TA@@
Penal
On@@
Var@@
ele
tissue
CS@@
RF
realization
Gas
Personal
equally
Sn@@
KO
tattoo
aire
penalties
blockchain
devoted
220
ç@@
aller@@
aper
tail
generated
logical
principal
gained
sli@@
falling
Chamber
rit@@
07@@
S.@@
az
cy@@
shit
cha@@
acy
modified
ulator
fridge
ь
Tajikistan
seafood
demonstrated
dependent
meanwhile
suite
refers
rest@@
pul@@
complaints
mor@@
funded
productivity
sending
ride
evo
ooth@@
Bangkok
Value
engagement
stere@@
ato
pull
accompanied
aga
ceramic
vacuum
hat@@
involves
102
Sav@@
Florida
Dob@@
prospects
orative
obstacles
6.5
blocks
Over@@
1989
ched
2.3
geometric
Gray
partnerships
ida
surely
Sti@@
Legal
MC
gh
permission
assi@@
Sudanese
Myanmar
Atlantic
Virginia
chip
Ry@@
tis
caught
acket
fo@@
DA@@
citizenship
Toyota
drivers
robot
anna
work@@
employed
itions
amen@@
fees
tennis
20th
Gre@@
stones
CO
Lam@@
asi
expanded
pg
ania
cia
inf@@
exercises
deeply
aters
Lag@@
hunting
riding
lists
slowly
assume
drops
incredible
surrounding
illustrates
tick
somebody
kh@@
internationally
sand
idi@@
lifestyle
ox@@
errors
Appl@@
gloves
spa
thick
Daily
Ce@@
optical
reserve
terrible
wallet
illness
plain
240
UNHCR
coverage
uck@@
emphasis
aggression
ser
shift
CIS
organisations
vol@@
perfectly
mood
workshops
owing
geographical
mere
oot
transformation
FOR
certification
lovers
Chang@@
nam@@
examine
D.
UR
tub
Med@@
Band@@
Mars
gy
choosing
intervention
parent
experiment
ж@@
oldest
annually
musical
beings
tag
snow@@
top@@
constitute
pronunciation
occasion
speakers
IO@@
LL@@
Vietnam
men@@
Bulgarian
van@@
deployment
mol@@
ised
juice
generations
fits
dable
alize
railway
UNIT@@
GO
PS@@
WHO
invention
Scientific
ingo
providers
Libyan
inclusion
Kuwait
spare
recalling
facial
Kosovo
bun@@
stylish
Ty@@
urges
uniform
Professor
ken
accuracy
Culture
Main
Horse
exceed
micro
af
4000
fu@@
refugee
font
Tank
exploitation
shops
minority
recruitment
IO
Bang@@
unemployment
searching
Dri@@
ght
conducting
brands
mistake
Tun@@
batteries
forming
Lodge
polyester
Strip
su
associations
coins
balanced
thereby
bb@@
3.1
red@@
publications
physics
د@@
initiated
enhancing
allies
Les
Jackson
segment
undertake
ination
UNEP
ray
pa
repeat
thickness
ani@@
signing
enhanced
ku
cons
weekend
ros@@
Contact
ulation
resident
elle
Window
HS
Capacity
DR@@
Lab@@
grateful
confident
collar
liked
zing
3.2
gor@@
sta
ž@@
cream
potentially
Hello
falls
temple
3,@@
í
800@@
ope
younger
sight
eggs
Brussels
Chrome
ceremony
MP3
Castle
password
belong
--@@
dri@@
developers
anyway
recording
bigger
coordinated
lounge
les@@
maid
astic
aks
significance
TE
ker@@
Father
win@@
Pen
branches
bracelet
Lau@@
A.@@
PG
Hard
Change
outcomes
М@@
ham@@
ete
Lim@@
aut@@
freely
hose
monetary
Ker@@
directions
Amsterdam
Sign@@
injury
IX
roles
disabled
operator
Da@@
promised
buses
UI
FT
Estonian
bone
medication
native
oun@@
3000
Vision
Powder
expanding
tar@@
Men@@
observers
ously
applicant
strike
1,000
app@@
mix
Ra@@
favor
sad
Bow@@
breast
Disarmament
scheme
doubts
string
ratification
giant
lovely
intelligent
tel
inum
ş@@
uk
updates
Francisco
Belize
russian
ron
erts
ishing
aps
repeated
talked
Dal@@
applying
transmitted
hesitate
realistic
tower
Oc@@
anime
Yugoslavia
measured
grant
shore
Him
alleged
Uni@@
Golf
Cap
Cov@@
tight
candidate
amended
begun
technique
ni
silk
oni
producers
capacities
acceptable
particles
Christians
zones
divorce
Bridge
Recei@@
beat
elier
label
Somalia
Times
precision
4.1
reservation
simultaneously
128
displacement
post@@
Mask
doll
Bil@@
Wheel
hydraulic
contributing
ero@@
processed
450
founder
gers
sir
highlighted
ø@@
ium
Lev@@
Operations
anch@@
hill
causing
Sem@@
surprised
ո@@
waves
gia
ks@@
heim
Website
ь@@
reliability
ente
featuring
Light@@
31.@@
bul@@
Sou@@
summit
expectations
CB@@
1.7
demonstrate
templates
gio
browser
amendment
score
UNECE
orn
headed
Eye
ECO@@
cz@@
managing
Bou@@
accountability
guard
populations
ams
continent
leg
bread
cop@@
Pot@@
List
Electro@@
Cafe
Arm@@
Cir@@
advise
commonly
Rock
protocol
signals
Field
Images
Ltd
â@@
finds
accidents
Black@@
Contracting
Sciences
acquisition
newly
unk
remind
ez
Capital
terrorists
Donald
BT@@
relax
craft
Tro@@
ays
Kir@@
republic
Ash@@
designated
dom@@
leaf
chances
Are
root
aha
evaluate
Os@@
olo@@
basing
Alliance
naya
savings
widespread
assigned
elimination
Catholic
Milan
Tan@@
Promotion
waters
DJ
play@@
thermal
putting
Rob@@
editor
Rol@@
boots
amer@@
ultimate
seller
gap
fort
makeup
ened
zo
tro@@
veterin@@
oli@@
friendship
yours
adventure
pursue
ont
104
val
fri@@
mistakes
brothers
variable
Boys
windows
Bak@@
socio
provider
genic
Algeria
departments
cos@@
Base
04@@
ican
coin
Mother
whereas
Agenda
HR@@
relatives
Som@@
resume
Officer
regarded
ours
utter
Richard
Houston
See
expenditure
apparently
eu@@
prime
responses
min
Flowers
une
ear
Fro@@
journal
ums
Electronics
Supply
nervous
strictly
4.2
tired
Delhi
Terms
tain
Sao
LT
disputes
Lit@@
broke
ree@@
Sab@@
measuring
tasty
scar@@
ati
0.5
noticed
Trinidad
West@@
cosmetic
driven
pat@@
RA
bet
chi
acc@@
preserve
neuro@@
closure
seats
amm@@
Diam@@
merely
ank
Rain@@
Experts
interactive
Village
19th
1.0
fer
Jun@@
iller
EV@@
organisation
SK
grave
uum
wearing
Foot@@
2.8
I.
shouldn
Fall
acceptance
helpful
bol@@
Muslims
ounce
commit
ashes
Wor@@
sters
hydro@@
evi@@
shock
Years
Mand@@
nat@@
Headquarters
involve
ingen
additionally
Got@@
wet
golf
Territory
sor@@
aj
reserved
woven
rely
legally
Smith
suicide
fantastic
recall
Elimination
silic@@
�
donors
oriented
Magic
milf
izz@@
ede
ello
ural
observe
Vis@@
likes
gra@@
abad
aviation
Lithuanian
SK@@
wars
ن
prescribed
bicycle
injured
Package
Fri@@
Son@@
consequently
disorders
ape
bat@@
tape
producer
composed
Chand@@
ry@@
sor
Hat
TF
sized
5th
Monitoring
moments
spl@@
hon@@
hiba
met@@
ished
Dream
racing
Access
fa
conventions
form@@
flexibility
lamps
Kni@@
inj@@
Status
toxic
tens
NP@@
organ
sexy
proven
penalty
Guangzhou
rail
castle
bel@@
tes
babe
osis
PC@@
keys
Distance
cription
buyers
Argentine
notification
Revolution
eco
Asi@@
parallel
fail
com
Play@@
hook
Pon@@
mond
afford
donor
lear
belongs
1.9
exclusively
Rwanda
governing
default
combating
voting
carrier
cosmetics
examined
Iv@@
mont
diesel
PR
Kyrgyzstan
Tobago
ú@@
sees
Leone
Gaza
ager
fre@@
guitar
alls
Movement
reconstruction
improvements
synthetic
canvas
99.@@
Investment
lip@@
portion
dic@@
max
Kin@@
CEO
iny
aves
Nag@@
minor
yar@@
legs
brunette
sur
4th
conformity
extraordinary
shut
integral
winning
ometric
Coordination
Catalan
nutrition
packs
Rab@@
copies
arrive
cro@@
4.3
performing
ined
Money
ა@@
Cell
suggestions
parliament
Partnership
MY@@
tables
108
existed
PM
Bir@@
dale
ation@@
Prague
discovery
cats
Bla@@
Pipe
engra@@
AZ
essence
Ax@@
Jean
passing
ashing
residential
soc@@
repeatedly
correctly
tly
rol@@
boo@@
Engineering
BE
add@@
split
winner
Smo@@
dem@@
Spirit
strengthened
systematic
strap
pose
There
ami
burden
Valentine
Montenegro
V.
renewable
Jum@@
busy
egg
Ve@@
QU@@
cultures
Domin@@
304
gear
iting
ante
excessive
Gs
tut@@
ultra
healing
electoral
FR@@
Guide
dule
Mumbai
mesh
revolutionary
bin
calculated
09@@
Repair
forgotten
arising
blind
ometer
var@@
Maltese
ably
Pic@@
Level
raft
exposed
adaptation
onia
IF
gal@@
euro
tanks
embroidery
cooking
106
tom
faces
honey
nic@@
FO@@
monster
impl@@
Class
sons
subsidiary
civilization
♪
codes
Lee
loc@@
Who
ature
precise
investigations
asylum
gathered
Wid@@
ogo
violent
focusing
Sus@@
ı@@
seeds
aa
browse
settlements
tal
pet@@
resistant
fairly
Last
fitted
vic@@
ratified
jum@@
circulation
verification
enn@@
down@@
Henry
mat
bou@@
constructive
Baltic
Ball@@
recalled
detection
SN@@
hou@@
Down
impacts
Inc
runs
analytical
arise
rer
Jan@@
Ep@@
decreased
prayer
3.3
listening
ria
airplane
dex
Kit@@
plenty
ever@@
iro
Johnson
Framework
Buck@@
witness
Assistance
Lanka
static
OSCE
170
adjust
dong
Pati@@
determining
blowjob
mandatory
Resources
characterized
Der@@
anca
uni@@
operators
societies
mankind
pig
Dragon
112
Kremlin
Lebanese
pleasant
Manual
1988
Bill
tel@@
illicit
enables
3rd
formula
optional
Pin@@
Matt@@
det@@
dimension
allocated
Ric@@
iling
VR
acker
Sir
Cloud
sharp
cameras
ori
Library
ble@@
ი@@
115
restoration
blu@@
scre@@
cen@@
filters
ert
lion
inspired
р
literally
delete
rarely
favour
pes
Ethiopia
Gener@@
Shor@@
ec
ô@@
regards
herself
permitted
2.7
logic
detained
Arts
210
onto
marble
capture
servers
stro@@
choices
mineral
assessments
returns
behaviour
recognizing
competence
infections
4.0
detect
ood
celebrate
Guine@@
Inflatable
signature
parliamentary
mortality
Ny@@
Sky
GS
oma
Zh@@
When
Initiative
elets
subregional
Lower
eline
containers
umes
ently
beef
Forest
Sin@@
ease
VO@@
HT@@
worried
dating
Harry
hearts
endorsed
ove
classification
abilities
density
pers
ew
Independent
Designer
ree
locked
AG
Toronto
excess
thinks
Dun@@
Shev@@
Atlanta
21.@@
affecting
Juan
Develop@@
ag
roller
dignity
representing
Oxford
Guard
2.6
Packaging
Sz@@
disorder
ups
Haiti
Fab@@
rejected
delicious
urgently
backpack
Prosecutor
Custom@@
puts
Persons
lying
999
jiang
Photography
Budget
ion@@
Members
healthcare
ired
amps
lers
Honda
bil@@
Be
mouse
ities
Hospital
fold
ico
Birthday
ances
Young
ea
103
Xi@@
solving
Please
land@@
Vegas
marks
obtaining
Adult
meets
Tren@@
concluding
Bos@@
PT@@
collapse
deputy
E.
wise
defeat
Cho@@
ook
mas@@
screw
necessity
panels
NEW
run@@
Tum@@
cri@@
Veget@@
Côte
profitable
filed
Gulf
certified
enormous
thread
в
4.4
connector
Fac@@
Panama
Trust
jointly
inks
Technologies
horizontal
hopes
IK@@
SA@@
architectural
engineers
ingredients
similarly
grain
anybody
professor
cont@@
ben@@
boost
wider
BM@@
throw
Albania
vice
hyper@@
Honor
Fruit
linear
chose
reflects
clip
texts
gaming
Vit@@
essentially
ith
illi@@
artistic
aluminium
separately
explains
basically
Ay@@
Amazon
ect
boxes
jump
Fifth
BG
edition
hes
Volvo
configuration
Pres@@
tablets
returning
Kur@@
sam@@
Net
EF
Floor
grey
cra@@
е
opens
refuse
8.5
Football
pic@@
preparations
о
WTO
Armed
urge
lyrics
ador
inches
Easy
textile
anxiety
finger
novel
missiles
allegations
das
FAO
closing
←
uba
RAM
fil@@
Bush
Task
one@@
reproductive
acquire
Mik@@
dan
ician
produces
identifying
Hen@@
litter
fake
by@@
PD@@
KA
opposed
nip@@
treme
Mar
Weapons
Lou@@
Peri@@
ising
mothers
Louis
traveling
brake
sovereign
Sul@@
Nordic
receipt
Luxembourg
Us
Mrs.
dropped
stood
temperatures
ă@@
oring
hanging
3.6
RU@@
imported
ix
But
ñ@@
peak
PM@@
03@@
Educational
farmers
euros
α@@
320
5,000
inclusive
welding
eless
UNFPA
god
rescue
ktop
nik
auc@@
Б@@
frequent
imports
Resolution
Lum@@
Chairperson
Joseph
Kan@@
functionality
desktop
Bay@@
kaya
gel
tap@@
bury
spoken
interference
Why
shor@@
DM@@
buck@@
BA
specially
30.@@
importantly
alistic
ف@@
tough
costume
cuisine
commissions
airlines
FL@@
Iceland
blade
Baku
Communications
burning
ifier
s.@@
ía
mann
swear
135
virtually
fewer
Qatar
ther
girlfriend
heaven
At
1990s
PA@@
Collection
Lub@@
Speci@@
planets
ime
CP
Quick
Mall
sn@@
Yes
Goods
ious
Snow
socks
Liberia
Journal
shaped
Regulations
slim
forests
Ok@@
1980
inge
Adam
bit@@
OB@@
observation
neutral
Dan@@
5G
adjustment
welfare
Inclu@@
isa
impressive
narrow
specifications
exi@@
apple
ava
ender
Ben
swim@@
Guatemala
convention
ame@@
cer@@
conclude
manufactured
Popular
py
loose
Vil@@
ud
Residence
Exchange
Boston
NA
globalization
moves
municipal
sustainability
dying
111
breaking
tops
viewed
pel@@
jeans
AF
Pack
Treatment
quito
Happy
Ari@@
Malta
So
ander
Expert
EM
ranking
TM
SMS
Fish
Lviv
Cher@@
Engine
investigate
compilation
elite
belonging
tap
📹
nig@@
Abu
iOS
Bed@@
newest
AA@@
Canon
ough
ц@@
operated
aqu@@
politicians
IST@@
comp@@
Fa@@
nel
derived
upcoming
electronics
wardrobe
Manager
Cape
Ow@@
hoped
King@@
Plant
Off
surveillance
Tat@@
paintings
Boy
Libya
qui@@
campaigns
disk
cam@@
Bog@@
ers@@
Bad
6000
zzi
broadcast
KO@@
experiments
3.4
liberty
phenomena
clubs
cc@@
Radi@@
dish
emergencies
Well
axis
angry
puzzle
profits
adverse
rop@@
deployed
resolved
stupid
hardly
owns
reader
107
recognizes
barriers
globe
holes
warranty
wisdom
paras
Nat@@
aggressive
П@@
towels
concert
Construction
receives
reactions
IE@@
ר@@
Ice
key@@
Self
trials
End
cou@@
lesbian
enko
TD
ė
ę@@
eria
ME
elderly
explosion
entrepreneurs
theoretical
aded
denied
Pos@@
Items
cas@@
salary
proceed
athletes
hip
tied
gambling
tures
comm@@
metals
Tas@@
french
Anna
incidents
ner@@
M.
promotional
chains
reduces
galaxy
Mercedes
oda
Cities
IM
pharmaceutical
Stre@@
Privacy
Nepal
Language
ologist
vers
edit
assumed
DD@@
barbec@@
Gam@@
Chemical
readers
mag@@
4K
Height
foreigners
fault
missed
Under
Fourth
wings
Gran@@
enabling
memories
bust
Uganda
AU
NASA
nov@@
stomach
sciences
Shopping
illed
treatments
Sydney
fiscal
avo@@
Yemen
not@@
surrounded
4,@@
usen
Roma
Intel
PD
separated
coordinate
ika
acqu@@
Green@@
tiny
deserve
keywords
muscles
Commercial
operates
EF@@
onal
ο@@
characteristic
observer
relevance
pil@@
stant
warned
Stockholm
Sum@@
handling
Valve
fun@@
Palestinians
Daniel
tre@@
anne
collecting
Deep
tension
Whit@@
gam@@
LS
designers
limitations
transmit
fraud
thematic
worker
Li
clo@@
mandates
independently
Medicine
5.0
Agriculture
compete
Pas@@
RP
ulu
underground
yang
harmony
publish
succeed
lifetime
orientation
ais
Coast
wan@@
inium
currencies
competitions
compounds
contest
Messenger
premises
mos@@
admitted
Max@@
guided
wage
stit@@
pun@@
soccer
10,000
wherever
akh@@
preventive
banned
employer
iri@@
Dance
2500
ros
infected
Ple@@
rib@@
supervision
creativity
pace
atory
assists
Pel@@
secrets
boards
graduate
offline
Lar@@
wool
hire
passion
son@@
methodology
heels
witnesses
1200
medications
mysterious
premium
classified
posed
boss
diagnostic
dissemination
tolerance
brass
confirmation
landing
yuan
vegetable
Cathedral
hosting
intensity
dom
cha
4.7
shadow
Allah
patent
roots
stein
dirty
nationals
Universe
Rus@@
recover
destinations
preferred
Entertainment
inquiry
Age
IAEA
0.00
bed@@
Yoga
seminar
acute
consequence
Statistics
separation
answered
MB@@
connecting
gging
mur@@
butterfly
quote
IOS
talent
isc@@
6.1
NT@@
advisory
1500
nowadays
investing
disasters
racism
appreciated
Frank
Gy@@
Joe
latex
airline
regulated
stra@@
mobility
reverse
Ran@@
prosperity
Add.1
Ev@@
Dog@@
nose
propaganda
175
ows
SERV@@
routine
challenging
combine
solely
camps
gur@@
commodity
usa
describes
referring
folk
kar@@
solidarity
clearance
heroes
afternoon
smell
shortly
decor
190
ی
freight
log
Analysis
keeps
publicly
solved
Macedonia
thetic
Rap@@
tem@@
Dam@@
enjoyed
employers
Pra@@
GT@@
akes
offences
attractions
5.1
scientist
assessed
IMF
lev@@
surgeon
ential
pricing
Assistant
subjected
ILO
BT
iti
earned
Lun@@
conservation
reflection
gotta
Fel@@
ruling
elsewhere
pork
guilty
seminars
drew
Bus
ises
fastest
complications
Place
3.8
gallery
broader
transfers
Ped@@
injuries
displays
buried
Mouse
mix@@
fucking
exceptional
Will
TRANS
Strategic
Chocolate
homemade
Papua
respected
Stock
sat
MM@@
displayed
graphy
fulfil
S.
rel
literary
201
complaint
spacious
Chal@@
asks
Afghan
5.2
los@@
fleet
Roc@@
prize
iti@@
argument
ef
HA
Tags
meals
Dead
Fur@@
stretch
gym
invasion
expresses
Sl@@
External
dozens
RS
cabinet
Mut@@
zi
Marine
adapt
far@@
MT
tru@@
referendum
achi
ners
profession
Future
ambi@@
х@@
stroke
Lip@@
chest
e.@@
cryptocurrency
Integrated
threatened
practically
Make
arch@@
kiss
singer
Liqu@@
Ban
quantum
ampl@@
oria
hunger
oter
Avenue
Ecuador
fluid
Letter
Stu@@
cry
ols
cord
6th
Sup@@
favorable
Questions
ր@@
bi
angel
probability
CO2
casting
vin
frames
awesome
ī@@
fried
exit
Scre@@
tow@@
globally
complexity
UC@@
gather
iner
eds
Tunisia
Gol@@
violated
reconciliation
Athens
zer@@
Rich@@
constructed
organizing
2,000
precious
Zi@@
Plaza
cylinder
duc@@
Traffic
sustained
They
Communist
Memory
reservations
anese
ango
Instagram
Santiago
Out
automated
dragon
Irish
m2
MD
sting
develops
churches
tings
fought
Rica
ensures
Ou@@
emission
exploration
rot@@
lun@@
fur@@
Climate
Bus@@
champagne
invites
har
integrate
Far
Ath@@
candy
scenario
Housing
iv@@
Population
ة
upgrade
radical
Four
ч@@
lab@@
iqu@@
adi
united
cure
somewhat
Current
introducing
bomb
beam
Volkswagen
acknowledged
fur
Sco@@
eth@@
encouraging
Evening
qualities
Caucasus
1986
progressive
Up@@
celebration
ATION
Nav@@
Hollywood
shipment
Iz@@
coastal
guns
Na@@
environments
og
109
Resi@@
etta
theater
reveal
0.1
processor
eling
ե@@
CAR@@
bie
inheritance
Uzbek
towns
tensions
tion@@
bubble
Wood@@
wheels
ebook
Truck
Squ@@
responded
nie
cho@@
ison
BY
balls
underlying
aside
med@@
3.7
storm
expenditures
Temple
fantasy
Pop@@
Only
CI
abandoned
tractor
tropical
Local
Picture
fle@@
intensive
lec@@
ministry
preservation
Lenovo
tobacco
bathrooms
Distribution
rape
Ali
foam
unlikely
Staff
suspect
intense
conscious
iler
tom@@
floating
Ori@@
nm
web@@
Hitler
Antonio
Wom@@
disability
EX
230
accession
inate
roughly
Principles
sensors
Maxim@@
cumshot
off@@
Ass@@
Nam@@
bin@@
traditionally
vin@@
farm@@
å@@
overnight
holy
VII
ign@@
assure
chro@@
Hero
LC
mount
err@@
iness
preserved
sign@@
perception
Studies
Kos@@
AO
1985
captured
Nak@@
116
differ
iz
LM
router
committees
investor
Pap@@
Mode
stocks
Theatre
Dr
Est@@
oke
spo@@
Mot@@
Kim
YouTube
alien
BS
Maz@@
Days
123
mac@@
nes
7th
buttons
1967
AMD
enjoyment
ref@@
ward
1987
habits
Edge
circuit
actress
trillion
differently
asc@@
Whe@@
fax
syndrome
Production
specify
bot@@
breath@@
oph@@
ress
Person@@
skill
Planning
Venice
silent
tl@@
registering
Almaty
courage
slip
Voice
Emb@@
й@@
instruction
asp@@
admit
Ox@@
bel
bases
relate
Decade
random
purchasing
aro
executed
partially
villages
leagues
sin
infrared
assistant
worthy
bio@@
122
declare
vitamins
isolated
Defence
restricted
oid
eternal
interim
CR
cease
chil@@
amounted
stume
Angola
Prov@@
ე@@
fighter
couples
wages
Sec@@
modules
Nairobi
21st
preparatory
modes
vessel
celebrated
analyze
Motel
portal
DI
expense
eman
Mac
LU@@
Mike
Heads
Warsaw
twelve
corporations
zip
impression
rays
focuses
discipline
elastic
Opel
ange
Cairo
Web@@
Esp@@
yard
ure@@
coalition
Governing
Vir@@
nut
da@@
Mun@@
consistently
Boat
Virgin
emerged
amas
Doctor
ancy
outh
ministers
beliefs
inci@@
aint
minimal
hai
sers
este@@
aspiration
genes
china
constitution
ک@@
internally
loading
smartphones
restored
umin@@
promising
brut@@
fication
psychology
Indiana
festive
OHCHR
Pav@@
dering
Jones
wat@@
discounts
mus@@
AB
capability
audi@@
Mongolia
consisting
intend
parks
breathing
arrangement
folding
,@@
outlined
ought
199@@
painful
POR@@
Blood
suspension
slot
tracks
EA
א@@
Pain@@
fro@@
Bin@@
Constitutional
locks
eye@@
sof@@
Odessa
ection
oval
holders
Host@@
convened
dian
emo@@
IES
bes
inflammation
awards
dealt
drafting
pipeline
vegetarian
lan
band@@
trusted
gravity
sible
acks
settled
ima
SI
ography
jan
Marina
tra@@
council
supplied
pap@@
influenced
prosecution
loaded
Process
114
Call
but@@
continuously
Bosch
aba
monument
vs
Tour
Cambodia
secondly
Munich
babies
thers
Exhibition
ei
dly
5,@@
ARS
body@@
wished
Has@@
sake
robots
immigrants
formulation
Lon@@
Din@@
MHz
1945
tren@@
recipes
Cla@@
bottles
checked
respondents
Pay
plot
225
olo
counter@@
rin@@
lig@@
Tech
ll
Burundi
Christ@@
pumps
forums
anny
bulb
5.8
taxi
Nissan
arguments
migrant
Sochi
Gem@@
High@@
gran@@
Battle
equity
pop@@
voted
Eurasian
distinct
deemed
desert
F.
lifting
Guang@@
refund
8th
sec@@
insufficient
Operation
LD@@
OECD
Manchester
Ret@@
innocent
Mart@@
Assessment
Coach
bulk
Kil@@
identical
skin@@
Albanian
dancing
gar
Pir@@
perf@@
Device
cape
shoe
tract
DHL
halt
imprisonment
competitors
Christianity
allocation
notify
Sam
ox
dor@@
interact
prominent
Ghana
boundaries
hosted
Ark@@
revenues
Malaysian
odi@@
fired
ome@@
eda
uki
House@@
Wide
0.2
რ@@
argue
reportedly
mid@@
Reserve
instances
TS@@
mill
Cour@@
Tanzania
Airlines
Embassy
economics
episode
oming
Application
Д@@
superb
ques
invested
anta
Basic
Mit@@
appliances
Moun@@
rivers
Death
mut@@
uring
chemistry
ի@@
withdraw
Sor@@
100,000
offence
ALL
One@@
Š@@
ests
Hai@@
arium
pot@@
makers
automation
Son
eller
superior
Salvador
196@@
126
к
museums
ი
AE@@
155
ICS
generator
certificates
chairman
Scotland
tournament
bones
cycling
continuation
9.5
rolling
fallen
Zone
Fon@@
lightweight
dar@@
ices
minds
121
revision
IE
autonomous
hur@@
Zoom
Hz
Porto
Item
enabled
GN@@
pending
heading
ids
asting
Tou@@
pressing
equitable
obliged
constitutes
Hay@@
Stream
references
lic
seeks
ayan
cil
animation
seasonal
measurements
securities
EP
shield
Forms
Image
Tourism
disappeared
reception
marking
yed
breath
ū@@
somehow
NOT
Relations
Wars
remedies
decent
dd@@
198@@
thy
gene
Movie
invented
ua
Fal@@
seed
feeding
Slovenian
ão
136
theories
ML
accelerate
distant
collections
Kyoto
fulfill
bamboo
grid
wind@@
innovations
By@@
chairs
118
budgetary
unprecedented
immunity
satisfy
Channel
fying
Chin@@
p.m.
É@@
blow
124@@
Gender
prov@@
mom@@
insert
vel
judgment
dess@@
asa
remarkable
oned
alliance
blame
Kas@@
Kaz@@
Ripple
Tennessee
continental
frozen
Commerce
113
intake
ains
ences
Ad
SY@@
person@@
iss
Tbilisi
attacked
electro@@
crossing
indirect
ghts
LLC
IZ@@
Prize
eni
Train
retain
announcement
You@@
6.2
550
Rev@@
Sax@@
helicopter
Montreal
adds
harder
Nan@@
injection
terror
predict
suppose
Fox
lesson
Gallery
igh@@
resumed
possession
poultry
stem
sensitivity
ited
secretary
Rou@@
124
Budapest
penetration
greenhouse
sacred
aming
coating
lasts
№
flash@@
0.00@@
An
cognitive
religions
Emer@@
bal
ements
117
Laz@@
fighters
Lom@@
viewing
spectrum
В@@
CA@@
rabbit
ρ@@
Diego
promises
orbit
wor@@
mines
aine
fie
3G
staying
rep@@
Audi
amping
ott
ologists
1982
shuttle
esome
1A
meal
speaks
protest
book@@
ram@@
Nokia
reads
Dev@@
VE@@
legend
joining
pools
fellow
great@@
discharge
tragedy
Indigenous
ides
partly
Ale@@
passes
elled
writes
6.3
Uruguay
weren
counted
bonds
vibr@@
hydrogen
scared
Af@@
Qui@@
reiterated
я@@
UC
vit@@
4.8
uro@@
Colorado
Coc@@
therapeutic
WS
oling
Humanitarian
Van
partial
vers@@
Spo@@
Study
layers
suspected
environmentally
apparent
ladi@@
Hybrid
P.@@
ICT
Freedom
pan
distinction
Manufacturer
£
lithium
Like
formats
receiver
surroundings
Block
tiles
survived
GU@@
mixture
nar@@
Chris
9th
facilitating
ι@@
attracted
Made
arbitrary
loving
southwest
followers
adhesive
shelf
notably
med
compromise
get@@
cos
powered
pride
bia
Baz@@
1984
physically
5.3
ė@@
scenes
τ@@
safely
mathematical
allegedly
Linux
hed
Astana
beaches
Ga@@
viruses
controlling
pets
competitiveness
oom
airports
kins
brightness
basket
reaches
Flu@@
tactical
ode
opard
vaccine
м
PAR@@
pole
resin
oting
crash
Pennsylvania
leisure
royal
bath@@
shine
Extension
Sweet
yaz@@
ó
fashionable
tip
PH@@
Shel@@
grams
cushi@@
SHO@@
trailer
incredibly
readiness
ML@@
cluster
yers
gos
Ze@@
tica
Making
acids
suspended
captain
hybrid
boats
Missouri
convenience
regret
Top@@
va@@
Ivan
I.@@
chips
sushi
deposits
Habitat
sin@@
declined
excited
rope
2.9
ín
Helsinki
Infra@@
motivation
promoted
earing
ー@@
ily
ater@@
maritime
Gir@@
fire@@
deeper
CIA
illo
osa
volumes
sequence
Aid
sentenced
dol@@
gods
archive
propose
inspiration
1970
Dry
Coll@@
Intelligence
PRO
Day@@
Kentucky
ն@@
rub@@
pt
requiring
permits
tissues
tv
Economics
ement@@
budgets
silence
acked
cab@@
worship
sem@@
Lisbon
с
oon
VAT
shareholders
Chapter
watched
modernization
Delta
unions
Wol@@
sudden
roc@@
Range
Ven@@
deleted
tender
xed
Most
Seychelles
Clinton
Vehicle
intends
dh@@
ind
meaningful
145
unlimited
excav@@
antique
alists
tariffs
ald
144
Wind
SAR
Nova
5.6
hard@@
Lav@@
GM
perceived
gains
steam
umbrella
Sant@@
journalist
camping
stead
handed
Rud@@
Г@@
Inf@@
Friends
bay
1979
read@@
Suppl@@
indi@@
oms
Wo@@
Sm@@
280
neighbors
Maryland
Ohio
iser
Contain@@
TER@@
forgive
compulsory
mystery
adap@@
valley
exhibitions
ament
ecological
Coo@@
heavily
killer
portrait
winners
replied
Nazi
tumor
prop@@
secured
09.@@
Pediat@@
protocols
needle
inated
ethical
Ele@@
Bit@@
alizing
din@@
Degree
arized
sored
sauna
Scott
Conditions
Meg@@
sus
Built
impose
Heritage
Ah@@
Hil@@
strive
spheres
emphasize
hormone
SIM
Fuj@@
emergence
Senate
rocket
Eg@@
sequ@@
barrier
Steve
script
dev@@
disappear
176
tenth
grants
simulator
adjusted
Inter
hem@@
ux
Hyundai
supplement
Source
assured
Alex
Link
lining
ruled
stal@@
4.6
132
she@@
marry
Circle
Gaming
VO
gathering
Jamaica
Mah@@
Tru@@
ا
endor@@
Olympics
Magn@@
tia
Gear
disc
airy
ures
conjunction
Dep@@
wan
chamber
MAR@@
Vic@@
aling
Bom@@
ą@@
overseas
darkness
aren@@
RT@@
ignore
loads
advised
dam@@
Т@@
Reci@@
stayed
erotic
writers
DL@@
Kha@@
SM
genocide
aca
cy
divine
eters
surprising
sword
diagnosed
VA
past@@
wheat
fulfilled
FS
cycles
temporarily
antic
Robot
ont@@
1980s
fet@@
Unique
pay@@
cuts
Snow@@
corn
202
Gazprom
Tesla
Directive
dial
Parking
ema
oe
Dou@@
HC
participant
oh@@
165
efficiently
Where
warming
ür@@
shade
Barbados
lab
Driver
laugh
rad@@
Property
experiencing
Ministerial
clarify
Sat@@
Miss
2A
Compl@@
thereof
Tak@@
possess
Pension
Server
aim@@
hazardous
Dest@@
Mali
rod
Stra@@
Michigan
oversight
After
volunteers
cigarette
unified
Renault
firmly
GL@@
uncertainty
foundations
protects
cinema
Heat
Jan
protests
rey
eping
Paulo
Fam@@
0.3
ecting
tot@@
Tel
ecosystem
1973
Taylor
tun@@
gri@@
zinc
soci@@
Carolina
ф@@
prohibition
semi
Lao
colored
decree
IG
tonnes
Dmitry
clou@@
proteins
Next
stuck
bonus
Germans
cam
negotiation
wid@@
Economy
spray
Indi@@
bus@@
princess
6.0
Award
232
prin@@
consolidation
asaki
Enti@@
individually
mold
rene
8000
decorate
119
Florence
welcoming
disclosure
thr@@
Jer@@
Torture
6,@@
Arch@@
ario
Elizabeth
sheets
RS@@
alternatives
Transfer
Drugs
sponsors
Van@@
Austrian
Bob
icons
SF@@
ranging
Gur@@
graduates
ffy
doses
gi
5.7
graph
analysts
anu@@
piano
7.2
southeast
cell@@
liz@@
﻿
ii
Ank@@
Pad@@
fume
newspapers
TN@@
Dim@@
mercury
reli@@
comparable
ames
shan
ś
engineer
ouses
3,000
judiciary
Copenhagen
hia
Tehran
alongside
gy@@
oa
ansk
Kot@@
placing
Governor
motor@@
argued
Bag@@
wil@@
Communication
eu
antenna
poker
reward
208
gratitude
eh
ipp@@
×
publishing
cholesterol
reaffirmed
mes
mile
eld
Standards
crises
Traditional
fu
Bell@@
5.4
attempted
quantities
simulation
KE@@
likewise
Pod@@
Procedure
eth
cook
Cypriot
Phoenix
essory
Refugees
Surface
Downloads
yal
termination
steady
Ann@@
ATA
Gil@@
rocks
minerals
passage
xi@@
rella
isolation
Rate
atmospheric
grows
experimental
ffs
lum@@
photographs
criticism
Shop
hills
ingly
severity
FS@@
apolis
exchanges
Del
och
VER@@
consist
Nur@@
omi
Ful@@
packed
Bolivia
Independence
18th
retirement
gases
1981
Captain
Wave
shi@@
compound
Sher@@
arrange
Statement
acknowledge
256
UP
lay@@
nan
mir@@
seal
Py@@
lasted
NA@@
vulnerability
molecular
gged
shampoo
calcium
contributes
Bohem@@
142
Blu@@
Ye@@
fting
approve
coordinating
inv@@
9.7
formally
ll@@
olog@@
indication
Timor
ace@@
eces
theatre
.ru
worlds
considerably
ministries
0.8
acted
NT
bitcoin
antibiotics
occasions
commander
hasn
Flor@@
deny
automotive
ć
Hat@@
tain@@
kit@@
earthquake
Peoples
Mes@@
admission
hood
rev@@
tears
Resid@@
152
meditation
Santo
empowerment
São
hun@@
cel@@
discriminatory
M.@@
ushes
highlight
diamonds
stresses
surgical
thirds
transform
imagination
Peacekeeping
monuments
breach
particle
traders
cleaner
נ@@
6.4
vis
theft
backdrop
NC
Premium
Inspection
underwater
evident
Donetsk
surveys
Mai@@
liberal
192
eradication
Pass@@
minimize
Gh@@
dramatic
modify
Learning
ishes
Bub@@
VPN
PI
ш@@
Long@@
spir@@
distinguished
Dat@@
linen
rows
households
Melbourne
hiding
gang@@
instantly
Coordinator
regulate
168
extract
garage
ador@@
nuts
imm@@
127
opol@@
spite
remedy
OL
reintegration
weekly
treating
determines
criminals
safeguards
UNIDO
ONE
incentive
Illinois
Left
trigger
org@@
FT@@
workplace
eness
urine
fears
NPT
GT
Cayman
frameworks
Tax
acha
wai@@
fingers
Song
recognised
GSM
crown
mutually
carries
Have
designing
organism
rap
Suz@@
Week
Just
Gibraltar
arg@@
gaps
financed
lad@@
inventory
capac@@
remembered
0.4
Sofia
basketball
hoping
capitalism
Chan@@
generating
Bird
mach@@
Net@@
renewed
ographic
alian
D.@@
Advertising
Agr@@
demanded
Account
1975
arranged
Stage
backed
mic
plasma
sufficiently
idad
Easter
sect
Ober@@
ambitious
palace
berries
Raj@@
NGO
Railway
Machinery
grand
mani
amend
packages
Gun@@
Assad
constraints
itch
Season
Marketing
Rep@@
sooner
tries
pharmac@@
molecules
8.1
eland
damn
proj@@
shaft
Raz@@
buff@@
achable
138
Infin@@
sum@@
quar@@
sit@@
Senegal
calculations
Mess@@
Cameroon
bride
Angel
transmitting
2030
141
ر
rad
Without
Andrew
tis@@
consolidated
pli@@
Laun@@
justified
amed
san@@
feld
ère
Frank@@
dock
Mark@@
Credit
schemes
curtain
Sales
Jos@@
Adel@@
profound
attraction
Petro@@
charm
scenery
מ@@
Buddha
ethics
glory
enter@@
Kyrgyz
Steering
asing
bell
Republican
consumed
concentrated
ares
Hob@@
1960
exported
law@@
E.@@
Kamp@@
ew@@
balloon
ged
PB@@
personalized
hatred
Cand@@
OM@@
Kun@@
205
Student
pon@@
Customer
provinces
associate
CB
skilled
1978
tab
cafe
directors
checks
forgot
transformed
venture
UAE
Hart@@
Sr@@
Lang@@
Five
socialist
kon@@
foster
uma
162
3.9
serial
horses
subprogramme
emer@@
GHz
domin@@
50,000
assessing
Kansas
pping
draw@@
planes
chen
Snap@@
Eiffel
fol@@
Mis@@
real@@
aur@@
inequality
pra@@
Frankfurt
WA
cardiovascular
Session
microphone
Or
Kazan
arch
eas@@
Statute
Jon@@
ache
Sol
alk@@
Taliban
Bec@@
posters
detector
soldier
billions
crowd
Darfur
Yeah
walked
drawings
lou@@
ν@@
structured
ple@@
feat
guides
hungry
aking
nurse
municipality
house@@
vibration
relates
kel
Performance
glue
districts
Pope
stops
ring@@
focal
alling
refusal
adapted
Common
brick
ken@@
Design@@
positioning
removing
Laboratory
appeals
ADR
Wilson
Effect
C.@@
TI
Aviation
156
decorated
constituted
servicing
bad@@
ball@@
settle
invisible
activists
Wisconsin
Java
tian
Mitsubishi
Bour@@
throat
Editor
adopting
Ontario
customize
gorgeous
bac@@
operative
thi@@
4.9
charity
Crown
A1
announce
ROM
las
applicants
nerve
endless
Denver
Wolf
undertaking
rang@@
twentieth
Sergey
quartz
ju
Kum@@
deprived
outs
Kap@@
133
Ankara
spots
amine
custody
biodiversity
Cs
151
Shu@@
Commonwealth
resi@@
firstly
YO@@
ج@@
Work@@
atomic
arrow
grad@@
NS@@
Alph@@
Domestic
borne
unacceptable
drilling
cross@@
ranked
patience
tial
breathe
Ukrainians
6.7
Jane
correspond
mod@@
hang@@
ylene
TP
envisaged
anya
Effects
a.@@
activated
ز@@
congratulations
mathematics
pneum@@
Phot@@
Williams
kes
Farm
Brunei
Post@@
accurately
Terrorism
UNODC
inflammatory
PU@@
bronze
Oslo
spe@@
consume
Wales
Sleep
wic@@
TRA@@
plan@@
Index
ë@@
imp@@
unilateral
etooth
Zen@@
cables
Emp@@
Dallas
hua
usi@@
convicted
Sky@@
Fuel
bis
134
stat@@
confused
131
enburg
rot
pond
domination
chy
bond
itz
sar@@
stolen
databases
unexpected
improves
arbitration
fal@@
rez
vir@@
She
rotation
Jam@@
responding
TIR
à
Carlos
cartri@@
isation
RT
Lem@@
threatening
Bear
specification
Geor@@
eligible
Materials
1983
black@@
agn@@
fast@@
Roll
dre@@
factories
0.6
nu@@
notion
sne@@
lish
hormones
204
infant
tt@@
hub
willingness
assisting
ranks
Hamilton
set@@
Bai@@
Here
coaches
zen
fies
creatures
rectangular
Ten@@
Records
laundering
react
Albert
Dublin
alo
quota
tered
Pok@@
seized
recipe
Mechanical
modification
launching
magnet
Active
exhaust
wounded
dependence
Tai@@
1974
substantially
G.
rhin@@
fix@@
KS
projected
LY
rier
vi
Rostov
talented
Peugeot
organisms
Shenzhen
tz
182
Ja@@
briefing
quotes
Kis@@
ნ@@
Articles
celain
ele@@
Philadelphia
travelers
ל@@
bum@@
console
ems
fore@@
expressing
Riga
eras
unnecessary
underwear
&apos;Ivoire
185
NS
WA@@
shots
Zan@@
cruel
GA@@
stry
drill
utilization
discussing
whoever
heights
networking
singing
considerations
bleeding
Suite
Bet@@
mon
restructuring
д
scape
sanitation
backgrounds
weakness
excluded
Flag
deficit
maternal
glit@@
him@@
editing
Novosibirsk
Bac@@
iles
showcase
Insurance
ör@@
Yar@@
ovich
Pay@@
129
Mod@@
accessory
damages
HB@@
Doha
6.6
eager
crop
7.1
iPod
negotiating
enjoying
Down@@
demanding
checking
recalls
Porn@@
medi@@
conc@@
ady
JSC
ashi@@
doc@@
coun@@
Sak@@
tically
defining
http
optimization
6.8
Springs
ped@@
&apos;i
mar
supporters
enberg
ISIS
drunk
lemon
indicating
array
Preparatory
oxide
stunning
liner
divisions
prejudice
kie
textiles
columns
8.2
neighbouring
NC@@
empire
Buc@@
Low@@
stu@@
BA@@
Jose
Columbia
Bru@@
enne
distinguish
Disney
sunlight
ش@@
Videos
Rain
UM
intolerance
modalities
Cub@@
mate
het@@
gun@@
Add
lit
taxation
kits
Stalin
biology
0.7
decisive
Edward
1971
trains
utility
Р@@
satellites
gal
1920
medieval
extradition
wolf
mobilization
8.4
automobile
encounter
oka
predicted
masses
XP
Ray@@
Branch
bert
Enterprise
ition
Л@@
Seller
explosive
Shan@@
ICES
persistent
206
stadt
reiterates
GM@@
640
Territories
proximity
850
fications
Cambridge
angu@@
eleven
blocked
ı
153
Well@@
po
212
transmitter
GC
remarks
nee
Hamburg
brilliant
advancement
MAN@@
CPU
Pierre
BP
governed
shipped
Elements
rat
carriage
Arthur
mos
Text
desirable
sim@@
census
Cav@@
1968
Moz@@
emails
fel@@
rational
anj@@
unlock
1976
drum
139
monitors
fortunately
mounted
vil@@
umb@@
cyber
interventions
valuation
ort
prevented
cited
Artificial
nails
Mom@@
cigarettes
insulation
GH@@
Pow@@
ond
cho
circles
157
Centr@@
magical
tongue
lined
Hus@@
Compact
purely
quit
dra@@
tier
Intel@@
pp@@
Charac@@
CCTV
512
flip
Southeast
ification
accomplished
synthesis
abortion
235
Vancouver
Tol@@
1800
peninsula
thermo@@
safer
Metro
implies
Suppliers
consultative
timing
ego
limitation
Grande
lows
offshore
borough
1970s
hab@@
Sport@@
tured
260
ked@@
nap@@
undoubtedly
dioxide
ault
Rooms
WEB
Jim
ole@@
Annual
sperm
Yerevan
FBI
accounted
elli
motivated
Mauritius
143
P.
Subcommittee
Guil@@
mul@@
voters
crops
demographic
guards
7.4
chenko
carton
amel
icken
bei
burned
san
calories
knee
advances
Reuters
earnings
stimulate
137
promotes
ê@@
presentations
7.3
inevitable
eting
Rid@@
mang@@
166
offensive
pencil
O.@@
Alabama
divide
auction
Features
tendency
lik@@
1972
251
Jur@@
dominant
contractual
physician
sisters
pasta
Calcul@@
540
capitalist
yield
oufl@@
tains
gin@@
Tw@@
delayed
Maj@@
ord
rup@@
IB
1969
oceans
zers
masters
suggestion
mad
Prices
assurance
ean
forbidden
Agricultural
circulated
Let
Books
sing@@
dos@@
evolved
Half
def@@
ION@@
ark
swim
disposable
interactions
mot@@
exceeded
cups
eliminating
Pom@@
Fir@@
searches
ould
que@@
Ancient
Cad@@
cru@@
scan
DN@@
excuse
Tony
270
.e@@
ligh@@
night@@
Chap@@
confrontation
athe@@
WC
thre@@
ret
asis
shelter
MH@@
nutrients
Map@@
AK
OD@@
aesthetic
noble
beloved
XT
correction
Kl@@
Horiz@@
Arms
Register
stake
transitional
ო@@
Excellency
picked
Bud@@
oscope
Yan@@
Alibaba
Limited
215
supplements
510
7.6
Belgrade
Sym@@
UK@@
passive
Nic@@
slavery
Techn@@
Tok@@
8.3
manifestations
154
port@@
Figure
Cruz
Monte
sunglasses
tragic
tackle
enters
ICO
anth@@
VIII
occurring
Letters
ano@@
demonstration
Orlando
economically
wn
profiles
Cel@@
updating
fic@@
pounds
Zo@@
Charlie
emphasizes
sty
pig@@
cher@@
bears
skull
deadly
inas
Life@@
8.8
Les@@
luggage
480
Over
cision
R.
eer
Content
216
coil
147
EB@@
17th
cot@@
salad
lau@@
yah
confidential
Hit@@
tall
commodities
autonomy
esc@@
●
Comprehensive
Kel@@
undermine
bre
tan
respiratory
nights
flame
age@@
Haw@@
travelling
eved
adequately
jail
ovsky
champion
Mechanism
Directors
opponents
Zimbabwe
146
ecosystems
mortgage
hopefully
procedural
bling
enh@@
seasons
ك@@
duck
fatigue
perpetrators
hollow
anium
northeast
Nobel
isure
Lincoln
pipes
1941
uter@@
wit@@
Botswana
a.m.
len@@
documented
Dangerous
itor
161
reflecting
disappointed
folder
™
interpreted
favourable
sto@@
Ton@@
Camp
otel
tub@@
Theater
assisted
anov
formulated
Organisation
Emperor
Clean
agon
poetry
Guidelines
ideology
Gab@@
Detroit
bles
ius
tariff
aph@@
ffle
helmet
fed
Jin@@
servants
wrap
C.3
avoiding
Wy@@
kee
9.2
Caspian
Gate
backup
164
obesity
Brow@@
eal@@
Tashkent
interfere
rane
tish
Dres@@
Nap@@
eton
satisfactory
reviewing
MO
Damascus
Casino
inal
roses
pursuing
tum@@
var
doctrine
activate
م
prolonged
1977
aco
Hav@@
delivering
thro@@
py@@
ruin
J.
dt
delays
Financing
valued
Opera
ety
RFID
Safe
prompt
rough
yel@@
dozen
oli
rob@@
newborn
VE
Sid@@
unclear
nonetheless
telecommunications
pin@@
exceptions
thick@@
erc@@
convince
interviews
atch
aliens
า@@
Francis
1600
16th
strikes
7.8
expects
chat@@
169
Bahrain
apers
LA@@
emi@@
assault
Combat
naval
XX
Layer
gaining
coated
testosterone
wax
circular
smallest
ified
defines
tooth
Us@@
Night@@
Mach@@
148
otes
Cru@@
CF
Bis@@
flu
fever
5.9
OL@@
195
moisture
monastery
slide
sou@@
rhythm
praise
INE
Sing@@
absorbed
carriers
hing
inadequate
Buenos
carpet
Plan@@
comprises
inte@@
Dre@@
hop
engaging
Pep@@
mic@@
titanium
conservative
accountable
1949
Fire@@
Hague
tering
S7
PO
races
Higher
10th
Duma
kova
cement
condemned
incentives
GP@@
mall
lakes
MAN
accepts
7,@@
emin@@
hil@@
grace
izes
gger
trace
concentrate
tunnel
IAL
Lil@@
Aires
prescription
lean
aly@@
easiest
degradation
impunity
haz@@
devil
ern@@
Imperial
EP@@
menus
anytime
8.6
ounds
protector
silicon
1950
drama
Ron@@
earliest
maintains
upset
Eritrea
envelope
anticipated
enda
allergic
casinos
dramatically
monitored
ails
drying
gang
rag@@
ammunition
Nicaragua
mandated
loyalty
203
queen
amongst
Kennedy
reaffirms
borg
amboo
justify
strongest
hos@@
exc@@
inations
compressor
Kay@@
uz@@
Jar@@
DU@@
ras
Gul@@
Advanced
desires
sacrifice
bang
Sed@@
surfaces
vic
Astr@@
span
trash
Resistance
är@@
sid@@
cubic
Description
ented
lowing
bitch
ective
8,@@
openly
cub@@
adjustments
jury
SV@@
ministerial
agen
adolescents
Hell@@
centr@@
negotiate
regimes
delegates
Inv@@
Stro@@
segments
Vista
eri
Eyes
dal@@
Chad
ւ@@
anonymous
legendary
alised
ventilation
evich
Haz@@
.org
Stephen
conscience
ANA
189
1948
lor@@
Cham@@
occurrence
threshold
coll@@
188
socially
releases
hr
furn@@
Premier
ceasefire
attracting
lenses
libraries
cooperative
Jama@@
Free@@
gic
Simon
172
prestigious
basin
Lenin
tremendous
ians
chal@@
IBM
Observer
prevents
costumes
usable
7.9
Animals
pum@@
Sergei
exceeds
Mam@@
Corporate
Non@@
epidemic
MER@@
uncle
ン@@
triangle
Mountains
Things
exquisite
avoided
Dong@@
beta
C.5
Rock@@
fathers
ignored
163
9.8
understands
corporation
flat@@
158
combines
Tub@@
sav@@
Navigation
cave
radioactive
shame
architect
grab
μ@@
notifications
prostitution
slave
Lewis
ost@@
Miller
att
politically
159
insulin
venue
Abkhazia
BB
reveals
Fantasy
thorough
pursued
authorization
administered
Н@@
miracle
211
esp@@
Alice
icity
Pack@@
SO
exclude
legacy
Eleph@@
Tir@@
infectious
bondage
contractors
cow
fs
radar
exam
Direct
oz
tary
Bell
horror
drives
pound
orth@@
Mou@@
struck
disclosed
gol@@
influential
Zar@@
Calendar
OT@@
fit@@
Story
Brit@@
Zel@@
keyword
threaten
heated
Spec@@
uri
lap@@
cent@@
requesting
Cob@@
Honduras
stipulated
191
05.@@
Viol@@
ś@@
ias
Janeiro
gated
Dad
Benz
Wu@@
ه@@
fence
Acting
6.9
0,000
liberation
cancel
Verde
attributed
hurry
violate
touched
Dro@@
owa
analyzed
phases
sincere
exploring
15th
spokesman
Gau@@
agrees
181
Tot@@
Edinburgh
inqu@@
Migration
Lima
wed
Direc@@
restriction
chron@@
Victor
dz@@
anish
loud
Khan
intent
Phil@@
unemployed
quoted
abi
esses
neighboring
Karabakh
breaks
Will@@
locking
acquainted
375
Century
wer
disclose
CL
Vall@@
JI
farms
celebrity
had@@
Final
Representatives
Fiji
Decree
cakes
Ai@@
Europeans
Intergovernmental
refres@@
bir@@
rol
Leon@@
Fine
questionnaire
Conventions
conviction
crying
Client
EMS
149
ared
validity
Tour@@
pairs
blessing
О@@
stor@@
fla@@
380
presidency
Nab@@
20,000
σ@@
UL
ells
Hydro@@
salmon
layout
Urban
Krasnodar
zen@@
tours
kas
hap@@
olive
Cul@@
qualification
Bob@@
diplomacy
deadline
Johannesburg
metabolism
astro@@
dow@@
pearl
kir@@
bee
oils
Planet
dairy
transnational
deliberations
310
Lot@@
glucose
9.6
Equality
xing
330
alisation
Reading
wick
CRE@@
sectoral
nitrogen
retained
murdered
Tut@@
flies
aud@@
inherent
encountered
kil@@
Lines
Dell
reject
panic
ligent
cow@@
ART
7.7
dum@@
pulled
counting
gir@@
chaos
sos
permanently
pursuit
9.9
mice
len
OS@@
Stars
sian
rence
lah
polar
deficiency
organised
sound@@
Andr@@
cin@@
foremost
Ł@@
Carriage
rainbow
crude
tism
wig
ku@@
phen@@
BBC
speeds
Pear@@
ounding
visas
gan
tac@@
Survi@@
educated
Falkland
Zambia
fires
199
reminder
ja@@
colonial
Step
Mikhail
Innovation
lier
alert
Yak@@
184
Od@@
Fing@@
178
agne
ლ@@
kidney
Lad@@
counsel
anx@@
pillar
jar
Mauriti@@
Tennis
foil
absorption
may@@
anian
wellness
trips
Gall@@
utilized
Champ@@
sentences
RES
targeting
Supplier
Anne
unauthorized
accomplish
bers
pays
171
Heavy
ع@@
Xi
detainees
1961
poses
advocacy
Racial
salaries
Produc@@
Matt
researcher
lung
icy
Spar@@
seas
olan
geopolitical
https
joke
PRE@@
destiny
embargo
tran@@
thoroughly
founding
irregular
varies
stan
photographer
Glasgow
1944
Silicon
183
steering
DO
scenarios
visitor
ingham
modifications
Pictures
corrections
Monaco
Jakarta
campus
resorts
IPS
Drug
fifteen
sophisticated
420
Virtual
exp@@
thanked
CAS
Peninsula
Document
Certificate
reminded
Edition
villas
succeeded
ided
screens
unlawful
subsidies
tooth@@
spouse
mainstreaming
Cent@@
insects
Profile
South@@
Total
gardens
von
acet@@
viable
FL
proceeds
Cit@@
Buddhist
catalog
proclaimed
prosecutor
prof@@
Kno@@
uxe
promptly
Vladivostok
1900
720
tide
iy
222
Siberia
ε@@
Naz@@
consultants
instability
atom@@
complement
stating
hoc
geographic
Secret
207
foot@@
Hills
bowl
hygiene
stered
Seattle
Igor
PDF
bol
tique
Nad@@
inos
straw@@
unite
yev
finishing
robust
520
statue
UT
224
fuels
converter
Add.@@
Liberian
Fed@@
priest
ett
Gothic
composite
defects
modular
Violence
tak@@
mainstream
dot
EU@@
mayor
Nice
JO@@
myth
stre@@
tar
unpleasant
sculpture
Inner
API
Architecture
arena
Pedro
algorithms
ancestors
oy
OO@@
indirectly
kol@@
poet
Id@@
ozone
aus@@
aer@@
raz@@
aul
replies
northwest
yan@@
bass
Spi@@
abl@@
Yang@@
Celebr@@
reign
Counter
metro
destructive
Joh@@
Stadium
Proc@@
combining
Fiat
memorandum
substitute
Spider
delicate
VIP
palm
PV
Take
Manila
monopoly
8.7
atoms
lav@@
granting
ashi
pushed
steal
resist
Baghdad
242
Sev@@
lazy
enders
Ital@@
aic
Hawaii
honestly
TT@@
pling
sodium
cour@@
spy
Kate
1960s
show@@
ask@@
vicinity
contractor
Vibr@@
167
Zhe@@
SU
tec@@
Reduction
debut
Zurich
achi@@
nets
optim@@
sheep
10.5
unchanged
Championship
nan@@
PV@@
Provi@@
kno@@
Manhattan
Oklahoma
endants
draws
Kab@@
Buff@@
modest
sev@@
9,@@
harmonization
mad@@
kilometres
196
investigating
xes
idity
drag
Basel
salon
prototype
huh
fireplace
punished
River@@
ICA
comprising
liabilities
arises
wealthy
incorporate
sink
harassment
mild
crypto
ern
cellular
Standing
ale@@
variations
Truth
woods
vocational
oy@@
irrigation
originating
yi
assumption
Budgetary
norm
Poroshenko
Lay@@
gradual
fabrics
angles
titles
regulating
Sarah
9.3
apor@@
reporters
Sac@@
λ@@
Electrical
lam
pped
equator
WP.29
odor@@
gie
1.
shake
optimize
lov
asha
Solutions
highway
Ray
Aw@@
Elena
hr@@
farming
Samara
electromagnetic
log@@
modeling
Senior
preferably
Bran@@
Motorola
patch
twin
Anim@@
174
organizers
1917
som
án@@
call@@
hov@@
Processing
Good@@
prisons
preceding
neg@@
comparative
DR
rush
staffing
socialism
173
refrain
Lyn@@
Estate
jun@@
Franc@@
enforced
obstacle
brac@@
XI
testimony
221
Bavaria
Paradise
ship@@
fulfilling
thrown
Frequ@@
heater
replacing
crossed
aser
ב@@
apparatus
pas@@
Palm
galaxies
registry
ghost
Monte@@
imaging
Shim@@
HF
MW
Massachusetts
confidentiality
varied
performances
hunt
hiking
sh
L.
institute
angels
Marshall
macroeconomic
Somali
bat
tlen@@
Niz@@
ph
Guar@@
Iowa
eps
002
scanner
Eli@@
olu@@
cip@@
stun@@
9.4
glance
ы
slight
accepting
atics
infl@@
blo@@
tec
Agent
clarification
Nick
grand@@
Works
Rav@@
rov@@
inst@@
Wit@@
controversial
Gaz@@
anci@@
pie
PCB
gasoline
C.1
breakfasts
dialog
limiting
penis
attitudes
certi@@
Adventure
shar@@
Hur@@
shed
sewing
cad@@
Maritime
elly
ς
delighted
Namibia
Neg@@
Awards
wee@@
SCO
itting
authentic
ashed
1939
Focus
albums
chester
ß@@
4,000
Nicholas
candle
urs
Moses
inability
dile
twi@@
excluding
H.
discomfort
recipient
puzzles
H.@@
ratify
entary
Dav@@
bow@@
ร@@
Marie
colours
Luis
Socialist
Def@@
critics
historically
rests
More@@
intentions
observance
orally
indispensable
Developing
Falls
varieties
252
Monetary
sym@@
Lev
boot
tactics
Patent
Os
act@@
Studios
dar
8.9
Dum@@
issuance
Bali
Surve@@
embedded
ense
EVA
completing
Valent@@
cio
Evaluation
inating
spac@@
Ombudsman
Carri@@
Equ@@
shorter
Coun@@
Loo@@
eci@@
Rev.1
Supplement
ultrasonic
resolving
Statistical
Fair
Directorate
kt
longest
Wild
Songs
behave
esh@@
timetable
excellence
auspices
yk@@
proc@@
deterioration
mounting
R.@@
fitting
unfair
MAX
SSD
1965
Lux@@
301
Pentagon
assembled
177
exclusion
stat
ult
bid
flags
hosts
caps
WO@@
fatty
entrepreneurship
Eric
tubes
subscribe
tos
Patrick
OD
Latvian
lett
grinding
regulator
governor
07.@@
laughter
medal
boyfriend
245
Lab
treasure
visibility
MR@@
Nelson
een
Davis
consuming
Mill@@
hello
prosecutors
integrating
AH@@
aching
exceeding
philosophical
Practice
flesh
investigated
Comor@@
evaluations
attending
cooler
Ryan
presenting
yards
Sector
skoy
Ivan@@
Activities
Rico
crafts
comb@@
Terminal
Outer
unt
Siemens
TT
endo@@
Sub
Hos@@
sch
persecution
chess
Perm
corrosion
slots
WhatsApp
sliding
disappearance
CV@@
newer
accelerated
Others
initiate
dominated
Holland
B.@@
Chevrolet
Strong
Duke
Know
İ@@
clicking
ardo
entr@@
amide
ecti@@
uction
inging
anding
loo@@
deputies
naked
dra
ules
Á@@
influences
dawn
enge
Command
Lis@@
197@@
installations
ranges
cid
Art@@
bills
bos@@
186
13th
alcoholic
spreading
218
NY@@
draulic
cruise
mak@@
Orchestra
Morgan
Release
sis
solvent
2025
systemic
stance
226
hey
Used
offset
Johnny
ment@@
extru@@
teenagers
Austin
12.5
Workers
struc@@
commented
dangers
CY@@
swing
Nam
Madagascar
1918
flu@@
souls
heal
hired
arti@@
κ@@
canal
Aff@@
187
exotic
kal@@
graduated
ANT@@
troop
abandon
Phuket
hall@@
compression
eus
Sixth
faithful
tiger
triple
sincerely
complementary
corridor
Dhabi
NB@@
mail@@
binary
Border
248
crimin@@
hostile
і
Lotus
agon@@
forecasts
GD@@
213
anco
nominated
capita
deck
list@@
tioning
Their
habit
Resource
shortage
sburg
conversations
aja
EE@@
freeze
oak
documentary
facto
ost
Nord
Comb@@
virtue
breed
fortress
Ess@@
tire
subparagraph
Cum@@
FAQ
omm@@
194
DB
weird
pulse
Diagnos@@
fossil
Kevin
Stop
Rural
Fron@@
specialty
spr@@
Tus@@
distribute
Yor@@
SR.@@
defenders
circum@@
hats
1940
7000
Ferr@@
discretion
IH
atives
Atomic
Dig@@
selecting
peer
liable
facilitation
Alt@@
217
episodes
coherence
Clim@@
Cant@@
fairy
NET
Ama@@
credible
VP@@
Main@@
explicitly
believers
Osaka
Start
Flight
festivals
licensed
eliminated
Bronze
Vy@@
conv@@
tangible
anie
pal
Vor@@
Eco
nish
Logistics
qualitative
COM@@
appoint
oper@@
Yugoslav
Unity
Hem@@
Helena
preserving
Att@@
Brun@@
9000
clarity
Zin@@
customary
erg@@
bru@@
Sap@@
ener@@
quantitative
ickness
intermediate
underlined
254
Share
Medi@@
Princip@@
shire
esta
combinations
Ts@@
209
sins
Rover
DB@@
harsh
likelihood
harvest
spec@@
195@@
uti@@
blocking
Event
pression
ption
1966
notable
commended
jection
jungle
Cars
aton
confirms
OIOS
dou@@
fascinating
Rim@@
thesis
Boris
appointments
homeland
Ot@@
deserves
Minnesota
cryptocurrencies
eff@@
scratch
magazines
prayers
Tiger
Kuwaiti
elevator
Taipei
attempting
neighborhood
Valencia
Oregon
step@@
geography
Ethiopian
Cancer
crane
ograph
12th
nowhere
Medvedev
accommodate
193
subscription
human@@
dessert
Biological
turnover
dat@@
therein
^
253
confusion
pertaining
afterwards
utilize
Memorial
Faculty
airspace
severely
query
Polo
vaccines
pis@@
petroleum
Holocaust
analyse
EST
ested
ACT@@
declarations
José
prints
л
N.
Jab@@
voices
Presidential
Inst@@
tha
shu@@
Diesel
unto
mercy
consistency
Allen
onomic
pub@@
preference
accumulated
ega
charming
amer
HTC
skyscrap@@
bloody
championship
lastly
bridges
overwhelming
1958
neighbor
BI
laboratories
Mom
UF@@
restrict
Relief
Brexit
tale
Seven
meth@@
sided
lis
Orleans
funeral
technically
Soci@@
Proliferation
Burkina
Die
pediatric
blanket
corners
inja
addiction
tural
ener
baseball
Alaska
iled
Mozambique
Saf@@
Crimean
lob@@
Swi@@
lonely
lac@@
spra@@
licensing
Brian
Sai@@
Jimmy
Find
Dru@@
diving
hear@@
Surin@@
fled
Netflix
briefly
lease
spacecraft
demonstrates
Against
1963
helicopters
ross
consultant
performs
outputs
fem@@
laundry
perspectives
evolving
Pig@@
Track
simplified
Hab@@
ext@@
organizer
Kem@@
ridge
Einstein
wi
Cin@@
Run
plat@@
John@@
Set@@
fool
creature
SQL
Delivery
realities
eli
Rum@@
countless
illusion
hostel
Hoc
opera
Arizona
specialize
popul@@
approaching
investigators
elec@@
Nick@@
bis@@
Salon
wondered
evaluated
infinite
hostilities
v.
Commander
1964
214
Pop
nic
2.
Ya@@
grandfather
Liverpool
barely
vik
0.9
ADA
accumulation
defeated
Oscar
CAT
league
Employment
stadium
amper
243
dare
forthcoming
brave
Pole
battles
2D
Liv@@
atar
MENT
literacy
genius
sorts
witnessed
fertility
transboundary
dur@@
Autom@@
Competition
Milk
227
Burg@@
Boli@@
ghter
Contin@@
ansas
ced
MI@@
uss
э@@
أ@@
Bron@@
ն
safeguard
vap@@
kindly
Lor@@
trim
tery
pov
Cow@@
ña
pist@@
mel
beans
poin@@
scholars
Major
Dancing
drone
ffiti
ester@@
Spon@@
whis@@
dges
attorney
curtains
ried
ה
decorations
reproduction
momentum
enforce
Auditors
ISS
sion@@
peri@@
cep@@
Citro@@
Fav@@
HT
ensured
embassy
Wayne
bian
dried
incurred
tico
multimedia
outbreak
practitioners
FDA
polymer
Look
Panda
gli@@
Mahar@@
magnificent
allocate
Salv@@
jing
Ship
bacterial
amo
ń@@
COM
elect
Tag@@
198
recycling
Fit@@
tg@@
concerts
Lakes
striking
ique
tex@@
11th
iter
aska
ris
เ@@
14th
dosage
RI
gas@@
relieve
yst@@
lighter
prostate
objection
formerly
Writ@@
debts
inputs
Fair@@
Greater
graduation
Grand@@
screening
Adviser
warfare
iya
Jen@@
True
aring
accreditation
sends
abuses
lem@@
Issues
ק@@
Vincent
Gel@@
traveled
stopping
Tuc@@
asthma
Matthew
salvation
switching
179
α
Stay
Anton@@
outlet
rod@@
Heaven
rers
Cisco
gates
Blo@@
daughters
ambassador
membrane
pine
Hub
wins
Integration
congratulate
ün@@
Any
expecting
occasionally
bite
joints
HRC
Harvard
asleep
Sign
renowned
adem@@
Aut@@
Policies
boring
suited
jack
ق@@
Jud@@
Check
trademark
ns@@
zes
successor
CRC
apa
Sad@@
241
223
inflatable
complainant
TRAN@@
228
whit@@
undergo
Olymp@@
sealed
grandmother
TEL
aur
aying
Decision
deb@@
alter
fiction
use@@
map@@
probe
Wr@@
inary
vy
communist
Kob@@
Mazda
sung
ceased
alog
attach
Jet
springs
tumors
path@@
geometry
CU@@
izza
purse
observing
issuing
Zak@@
Durban
slaves
pies
establishes
activation
194@@
ECO
pills
garment
chang@@
Ras@@
Jas@@
photograph
Juli@@
woo@@
credibility
Harbor
horn
drought
231
positively
Bry@@
Perfect
ə@@
entrusted
Irkutsk
mosaic
thor@@
Tim
WP.@@
extending
Syl@@
Tunisian
provincial
faculty
dirt
hammer
quest
issa
bu
LL
fusion
MAT@@
accessibility
Ethernet
Workshop
Students
Consul@@
lem
Lion
irrit@@
Generation
owe
Gon@@
physiological
Seasons
Ket@@
systematically
cookie
wondering
encing
elaboration
prohibit
Had@@
Bau@@
Corruption
etz@@
Kuala
conditioner
upload
А
generous
seekers
fon@@
Bez@@
ito
Sig@@
Draft
Charlotte
Om@@
LEDs
ci
Faso
coherent
Forex
spon@@
barrel
dered
N.@@
phere
fragile
rat@@
simplicity
execute
surplus
ffe@@
fisheries
Franklin
Partners
hydr@@
badly
onds
wrist
ت
escalation
פ@@
rug
intensify
Photos
ral
hs
gut
Riyadh
failures
elephant
curious
tles
197
notebook
asy@@
recession
normative
Creator
believing
Chu@@
6,000
materi@@
wich
rid@@
Dialogue
Nit@@
facilitated
IVE
break@@
・
insky
UND@@
Gas@@
aiming
Mang@@
ل
claiming
arta
supplementary
masks
aia
vent
orm@@
iri
dressed
screen@@
Leningrad
cabin
rement
ercing
Alan
ideological
refl@@
Khal@@
boarding
ERS
Come
medicinal
sup@@
Jal@@
FM@@
Sahara
minors
sticks
convey
matching
LDCs
Committees
colony
ý
ami@@
verified
MON@@
LTE
Organizations
Month
aud
continuity
Acti@@
uranium
Paraguay
patents
Telescope
Hear@@
desperate
embro@@
tivity
340
Instrument
ections
gon
folks
C.2
Porsche
dio
Need
236
clay
long@@
pushing
stays
Organic
civilizations
aide
etc.
rendered
Peruvian
&apos;cause
expulsion
trol@@
respects
Addis
ka@@
Visit
laun@@
Drop@@
sha
UNRWA
bankruptcy
apples
Audit
316
struggling
loyal
eur
hockey
mediation
blank
Democracy
ND@@
contingent
professionalism
Mario
enhancement
illegally
num@@
rejection
consolidate
cage
1962
Sever@@
disciplinary
analog
Kok@@
237
confirming
eo
oids
fuc@@
sorted
SBI
exterior
deer
arthritis
Mill
anim@@
Pan
chaired
Ö@@
fulfilment
rises
sors
Ign@@
Liechtenstein
234
irrespective
quarters
SOL@@
CEDAW
Clark
bisexual
vill@@
App@@
01.@@
sanitary
compiled
formulate
Tong@@
origins
carnival
Zam@@
ي
custom@@
Novgorod
Func@@
gab@@
magnitude
judgement
rolls
incorrect
founders
mitigation
Kath@@
arose
Treasury
wound
competing
school@@
bombs
seamless
Kut@@
wishing
vation
inspections
ACE
Shield
reductions
letting
0,@@
concentrations
Philip
Fly
astr@@
gation
nity
deliveries
privileges
antly
extraction
titled
establishments
Za@@
Democrats
Benin
Venus
lectures
gameplay
Choose
spiral
gne
vern@@
sealing
Sit@@
inhuman
mium
1300
tags
conf@@
FF
Americas
Friend@@
hits
Cooper
WordPress
adhere
happier
predictable
Nep@@
fortune
Protocols
condens@@
Form
Cards
contacted
Il
anks
Jason
Bang
justification
aru
disturbing
lending
ITY
Ф@@
ayev
HY@@
ovka
bug
mixing
perceive
EA@@
Heights
diff@@
pins
Oversight
hn
Hunter
ס@@
Salt
belts
volunteer
blan@@
manually
1947
wanting
bro
1946
amar@@
Soul
viral
matrix
Pit@@
surfing
mp
Rosa
Oz@@
lunar
reaffirming
Past@@
wives
worn
²
bucket
accredited
incidence
Bissau
233
streaming
Marco
gotten
diver@@
ichi
Cont@@
tee
fails
remuneration
Barn@@
ectors
advancing
Chelsea
1942
cherry
submissions
efs
อ@@
219
SER@@
whilst
FOR@@
pilots
alike
tends
bored
richest
mund
relaxation
initi@@
neighbours
qi
sman
nas@@
beverages
quad@@
astronomers
coral
variables
Expl@@
Doc@@
RD@@
thermom@@
prisoner
credits
inherited
Parker
und
AC.@@
aquarium
institutes
thereafter
Install@@
urgency
mobil@@
illy
occupying
multic@@
retired
periodically
tribute
compl@@
aspirations
Maldives
Oman
Facility
methodological
fats
attributes
m3
nom@@
dic
uting
boundary
dez
Yun@@
dresser
altitude
Hamp@@
max@@
ulated
flood
blessed
creator
Instruments
Ž@@
LP
Person
Atmos@@
stic
calculator
xenophobia
potatoes
urg@@
cid@@
reaffirm
CN.4
lightning
owed
with@@
surprisingly
OC
მ@@
insight
yu
UD@@
Walter
V.@@
travels
describing
fulness
rian
DD
jazz
premature
Boy@@
mou@@
Et@@
gent
unic@@
restaur@@
chap
Buddhism
A4
imperative
expedition
agg@@
Alexand@@
oos
Historical
cancellation
ister
abs
Andre@@
licenses
FE
440
dressing
Avi@@
Shir@@
uro
hadn
ECA
ached
vely
Dub@@
Quebec
Users
Rwandan
deprivation
ru
238
recognise
264
chin
Eagle
abolition
و
CV
IW@@
Basketball
vesti@@
meantime
playground
SB
stamp
Jazz
conception
Elis@@
nickel
Brothers
Lac@@
linking
dig
Birmingham
electr@@
steroids
scrat@@
Early
memorial
Kim@@
ageing
qualifications
freezing
bits
Asp@@
suspects
Nord@@
eder
Leo
locally
explanations
liquids
LAN
physi@@
Eu@@
batch
terminals
headphones
tening
ensi@@
telescope
FIFA
Kra@@
Retail
punish
connects
Rail
Coalition
inevitably
Through
yle
Woods
Survey
outline
Anthony
doubled
umber
Vas@@
destroying
convene
magnesium
breakthrough
XV
DM
repairs
submitting
malaria
URE
aly
IONS
jub@@
ée
chapters
scary
correspondence
loses
bench
Cook
ruins
kick
archaeological
absorb
tre
transported
plas@@
contracting
restoring
Expo
Comm@@
quer@@
Roy@@
plastics
302
cup@@
ods
candles
ampton
kovo
244
emotion
Vatican
assumptions
altogether
coup
Visa
planetary
ს@@
inking
247
Vari@@
females
itors
Brem@@
repatriation
anic
asted
Catherine
Merc@@
assignment
typ@@
Liberty
coupon
legitimacy
timer
246
UPS
pressed
chassis
kho@@
bps
survivors
multipl@@
reinforce
bold
useless
metallic
mir
Naples
breaker
Lost
YOU
Kelly
Beng@@
ember
spell
sar
witch
rab@@
pit
Venezuelan
mets
climb
bourgeois
dings
businessman
hectares
Morning
Stan@@
inland
raises
Seg@@
Get@@
Ababa
isi
hypo@@
Queensland
kk@@
nineteenth
ied
W.
And@@
Howard
attendance
flo@@
bouquet
AND@@
Io@@
tization
spin@@
washed
scooter
Baltimore
Zhu@@
rivals
hist@@
reinforced
metric
mother@@
ballet
vić
descent
epi@@
diplomats
brun@@
zo@@
anal@@
poisoning
Montana
ury
economists
Arabs
puppy
Marvel
fir@@
knives
temples
ben
ig
A2
Pixel
snake
illance
FP
Ross
despair
Batman
clips
lungs
deploy
mud
்
liber@@
ulate
Colombo
iter@@
fork
Liber@@
9.1
Parliamentary
varying
ט@@
negatively
Minim@@
perfection
animated
arriving
furnished
Chat
ingredient
disciplines
Risk
onset
Kri@@
reiterate
1100
azz@@
Phase
Bren@@
Audi@@
tages
hypothesis
entrepreneur
Marc
1956
statute
aver
TY
occupy
dean
denial
lawful
Boeing
ulin
paradise
ins@@
parameter
asia
decreases
examining
Aer@@
K.
Bern@@
appealed
commands
lifted
goodbye
rah
render
adjacent
د
pronounced
linguistic
pros@@
morality
y.@@
յ@@
Gos@@
enshrined
allowance
Vilnius
Vul@@
phrases
cle@@
simultaneous
essi@@
eled
grip
Tibetan
Presidents
kissing
Sla@@
jana
luxurious
sustain
ordering
cav@@
ores
consecutive
curriculum
wav@@
Brid@@
barrels
dness
Aliyev
employ
whereby
prevalence
teries
arel
vaccination
249
Nob@@
Aviv
Lisa
complain
Turk@@
Grou@@
short@@
Eritrean
Help
incomes
RD
proves
asy
amino
Volume
brains
walks
cleansing
capsule
Rule
ession
ply
fiers
Hilton
wash@@
porter
renewal
Meas@@
Scal@@
maximize
mechanics
bent
swi@@
Apar@@
bikes
maternity
WP
hormonal
analytics
Fore@@
tdown
wounds
Da
Walking
expectancy
filing
QC
supreme
fan@@
Ufa
bullet
Cris@@
genre
Arena
atta
rotating
Beg@@
som@@
appetite
Muhammad
diversification
utmost
Dynamic
onian
560
fres@@
Many
AShemaleTube
Kabul
Ig@@
sla@@
glos@@
2050
Swit@@
Cardi@@
militants
enger
enna
239
matic
Brooklyn
aches
265
vy@@
pathology
Columbus
craw@@
MF@@
notwithstanding
rens
Drink
Barri@@
wastes
opt
teaches
enery
Musical
tuberculosis
ureth@@
rendering
divi@@
negotiated
broker
tricks
ailing
pensions
Television
complexes
bot
Mé@@
س
mobilize
cafes
Indic@@
Models
Administrator
trick
exchanged
emerge
aligned
950
pillars
æ@@
degrading
Christopher
flooring
drafted
Miguel
stand@@
toxins
broadcasting
ung@@
1951
ż@@
kar
asti@@
SG
monsters
mes@@
poison
sco@@
Peacebuilding
lacking
bubbles
eaten
Impact
blin@@
politician
ror
Sag@@
guilt
opponent
Bella
Vie@@
intimate
continents
proposes
Knowledge
reasonably
mess
Jupiter
1959
Jacqu@@
dream@@
aked
hyp@@
municipalities
insul@@
extremism
incompatible
Xbox
uz
arming
Figh@@
analyzing
Lind@@
ï@@
TOP
depend@@
breakdown
breeding
gentlemen
occupational
Wed@@
suspicious
detective
attracts
archives
ér@@
ecraft
Carter
teens
ski@@
convening
nominal
home@@
305
Congolese
nomination
laying
Buil@@
Analy@@
ht@@
connec@@
eter@@
spatial
recovered
cht
combustion
yu@@
Stat@@
Thur@@
apologize
tear
229
disseminate
hepatitis
Adults
bly
bak@@
Billy
perfume
securing
boom
pepper
stur@@
sten@@
autism
icks
KB
extensions
counts
Renaissance
خ@@
garlic
SBSTA
FAR@@
exercised
Oliver
alities
Vibrator
readily
aerial
Corn@@
Chic@@
asse
ony@@
Sir@@
Growth
seventy
1943
uta
VP
logy
FX
encryption
onom@@
discoveries
Knight
MG
IK
Benjamin
Jed@@
hak@@
withdrawn
artillery
retention
Medium
pel
questioned
eg
weaknesses
prince
curve
versi@@
Luke
skoye
amba
expressions
TRO@@
cultivation
workforce
ento
successes
ה@@
Gold@@
yen
regrets
traces
extends
XML
orb@@
Kurdish
symbolic
sson
arc@@
dium
traits
comparing
Adi@@
F1
ions
Transitional
Learn
jurisdictions
Dresden
Physical
marriages
burger
mim@@
geological
tuna
optimized
steadily
embrace
hop@@
coordinator
Krist@@
continually
til
Forec@@
Ossetia
Pret@@
you@@
exercising
earning
ル@@
adviser
inspire
analyst
ASEAN
Visual
uto
extrac@@
Chelyabinsk
ication
mosque
abra@@
ago@@
kr@@
fatal
ATE
WW@@
gary
parental
Barack
subway
alled
market@@
dietary
swallow
ODM
Bio@@
Voyager
Jacob
sponsor
exporting
Tibet
rics
گ@@
warn
Companies
IMO
tribes
ř@@
baking
submarine
amid
mun@@
Napoleon
PhD
lessly
Thanksgiving
Kings
enza
03.@@
Export
bla@@
Her
evaluating
infants
fundamentally
Certification
WS@@
juvenile
Kad@@
surrender
Views
economical
IQ
kel@@
cocktail
duction
feasible
Inc.
agan
hereinafter
sellers
1957
Lumpur
ako
Machines
cannabis
ί@@
Reference
elementary
Niger
resting
locate
sweat
flowing
isk
Donbass
CU
rom@@
bio
symptom
sharply
sho@@
Optim@@
attain
Dus@@
advocate
Rat@@
predecessor
Beirut
hem
consisted
Lawrence
gue
devastating
wired
vie@@
elty
bled
KP
1955
Marx
reflective
Leon
concludes
ğ@@
Activity
poorest
dim@@
biennial
occ@@
Ever@@
metabolic
dam
Thor@@
tum
ATIONS
Theory
recreation
landed
Hi
cles
ody
romance
Moldovan
atten@@
Adap@@
otherapy
Ghost
DIS@@
rewards
immigrant
differential
abor@@
compromised
Victory
Hamas
organ@@
polis
musician
absent
Russell
differs
NFC
goo@@
Beer
aled
herein
؏
ۗ@@
ڪ
peacebuilding
abo@@
Measu@@
Cass@@
ocul@@
coconut
ecoin
30,000
belonged
Shal@@
proceeding
assuming
risen
acoustic
It@@
Bruce
icated
alphabet
Six
Alzheimer
punk
conceptual
Foun@@
rio
Yekaterinburg
Mohammed
pointing
prospect
balances
Autonomous
downloaded
creditors
Chron@@
cooperating
landmark
neurons
saint
strain
Havana
serv@@
mentally
prizes
YS
Carl
trans
inappropriate
bor
certainty
nation@@
Anderson
locals
pack@@
actu@@
multifunctional
1950s
Wei@@
disputed
Projects
cuit
MEN@@
Metropolitan
courtyard
trem@@
ushing
Divine
livestock
rav@@
liberalization
deciding
Lane
1400
bolt
tant
analy@@
Big@@
Desert
throne
manifest
gem@@
Х@@
Protect
gua
casualties
tations
historians
Brother
contr@@
ovskaya
merits
Yos@@
Va@@
Newcastle
fireworks
subjective
snacks
memor@@
ruler
dum
272
rena
mitigate
Abraham
rebels
Triangle
proletariat
agreeing
2022
Corps
Smar@@
methodologies
removable
Bologna
Netanyahu
Gardens
No.@@
amen
Devices
dome
marijuana
URL
INA
conducive
uli
flour
308
Viking
linkages
unanimously
demobilization
ured
ees
itary
Ps
affiliated
OT
Koz@@
cheating
Available
drove
trailers
revenge
voluntarily
ح@@
sexually
bye
Mail
1954
UNM@@
ideally
Rice
Duty
Complex
Barbara
Physics
instructed
Andy
Sau@@
tend@@
boxing
Louisiana
realizing
ologi@@
Kazakhstani
Shin@@
lied
corrected
Some
administrator
OP
Ds
Cali@@
Ferrari
trapped
eon
315
comprise
parcel
approached
eball
english
meg@@
annexed
perseverance
Oli@@
icians
1930
elaborate
tory
Krasno@@
stabilization
arri@@
Nation
subscribers
inhabited
Continental
ORT
teachings
Phones
ino@@
responsive
stor
Streng@@
violating
wood@@
refined
Mayor
potato
backs
aus
math
Cash
Canal
HER@@
lumin@@
enta
demonstrations
tation
Hours
Alber@@
collectively
supportive
oud
tribunal
manifestation
bathing
purity
pour
glow
phot@@
dispen@@
camoufl@@
acres
idal
PLC
Roger
Ś@@
cosmic
Walker
Connect
nerves
pledged
Formula
eper
GI
TEC@@
multinational
Accounting
handled
288
Um@@
viewers
reactor
spirits
paths
citing
originated
Danny
este
Mongolian
listened
Karl
nodes
nal
275
Ner@@
ד@@
shoulders
otic
argues
Reform
Shadow
Eve
costly
inserted
Sheikh
threatens
forgiveness
sunny
comprised
acle
Hans
pac@@
erti@@
commissioned
commentary
banana
valves
Zero
figured
fingerprint
tex
Thi@@
architects
ann
relaxing
inde@@
presidents
rea
bunch
openness
dupl@@
290
Close
aggregate
intr@@
ogenic
stove
evolutionary
cancers
bulbs
caffeine
ShemaleZ
Oleg
ucli@@
aforementioned
granite
explored
Return
agonal
Trafficking
Regi@@
&apos;the
Olga
cot
Events
nest
pupils
Scottish
11.5
odor
Kho@@
dolls
These
Mau@@
guin
alan
Select
fluor@@
Krasnoyarsk
bean
sporting
icia
aders
enting
sadly
EST@@
Yemeni
dismissed
zombie
centralized
Douglas
Angel@@
explaining
Ages
evolve
Exercise
footwear
lu
tam@@
kom@@
Trading
Ottawa
II@@
ه
Newton
Hall@@
Cookie
Tatarstan
SON
priests
پ@@
UNOPS
allergies
Indians
Belgian
pho@@
Edison
Lob@@
Balance
Jay
Julia
posi@@
wald
Gates
410
Occupied
illnesses
discrete
Contro@@
neutr@@
Chec@@
eing
separ@@
Oh@@
careers
đ@@
lon
ermo
HL
akov
rainy
durability
scales
ancer
sandwich
500,000
stric@@
burst
alis
caution
rov
eradicate
shortcomings
illes
corrupt
Mass
Oceania
neo
Robin
stop@@
ugly
decentralized
extremist
fiftieth
dB
atur@@
compressed
լ@@
waterfall
nam
wrap@@
time@@
Zap@@
loid
centrifu@@
aver@@
gues
Mem@@
ffin
galvan@@
scrap@@
timate
Ottoman
torch
haw@@
SN
counterparts
ip
outreach
imply
RE
Home@@
clause
Erdogan
iance
Kul@@
Personality
Grace
penal
asser@@
dless
0.0
Newsp@@
appearing
racist
licence
warrant
alignment
elles
NY
02.@@
rally
IGH@@
SPA
warrior
Anton
Jerry
refriger@@
POL@@
butter
landscapes
cancelled
atom
Isab@@
Ek@@
embodiment
Broad@@
Xia@@
servant
bler
publisher
defensive
Testing
elevated
defending
ook@@
Armenians
Turks
wording
optimistic
Structure
accord
criterion
talents
տ@@
debates
Kia
impro@@
Alfa
cube
unconscious
incomplete
tice
gauge
iers
mileage
ilia
deliberately
Partner
eb
iga
NI
ility
coo@@
upgrading
Cameron
Maintenance
sunshine
storing
accompanying
ht
303
Claus
exhausted
Pent@@
outlets
financially
privatization
athlete
insist
charter
fancy
inform@@
incoming
stripes
nursing
CG
Viktor
processors
Champions
spouses
August@@
rub
Basi@@
Settlements
violates
manipulation
Arc@@
petition
abdominal
Lak@@
Bonn
Aur@@
Punishment
impressed
Alexandria
կ@@
kan
Warning
horizon
г
Е@@
utes
them@@
armor
8,000
predictions
amaz@@
✔
Portland
Ş@@
impartial
hu
bonuses
committing
polished
obey
atively
SUV
Kris@@
vacancy
WFP
1953
opia
ј@@
sport@@
Kharkiv
§
uda
thereto
rell
Devil
explicit
dementia
neural
2100
Message
horrible
Rai@@
chlor@@
emon
gaz@@
versus
T.@@
GEF
nutritional
porting
males
pixel
dealer
ept@@
Should
Hell
essed
novelty
decor@@
criticized
variants
reb@@
lon@@
opes
assurances
creators
Ms
1933
high@@
Castro
aev
advisers
リ@@
gener@@
Heli@@
nes@@
Hope
Different
orsk
grin@@
cessation
&apos;an
connectivity
stationary
definite
zburg
dun@@
Pip@@
new@@
Liberation
Tin@@
Kle@@
interpret
emia
liquidity
Am
tyre
1914
flew
eau
Jes@@
adherence
Satan
Algerian
Brand@@
cardi@@
abolished
arious
Perf@@
fountain
etto
isl@@
430
tool@@
unforgettable
Highway
immense
Ballet
Nazis
shocked
epic
Hands
Tallinn
Healthy
broadly
cit@@
hunter
compassion
Merkel
acquiring
Disease
Saturn
fulfillment
ballistic
nell
Payment
nov
Dean
gon@@
climbing
fluctuations
oner
Auto@@
1952
Election
Kras@@
stimulation
Efficiency
cardboard
translator
cattle
recruited
stipulates
aso
hl
bombing
trauma
postponed
Moroccan
authentication
&apos;S
diary
ogen
companion
Til@@
printers
conspiracy
Tomsk
logistical
Cz@@
thal@@
suggesting
Judge
construct
NP
iances
suspend
overcoming
trunk
motors
Moore
Response
cemetery
sten
youngest
xy
Rotterdam
Greeks
alpha
Leader
ASS
physicians
comedy
altered
virgin
cle
Pant@@
Race
UNCITRAL
extrabudgetary
interval
Corr.1
atically
Gan@@
1919
cured
sat@@
Industries
PF
Measures
accomplishments
Sic@@
Chernobyl
ype
margin
Luci@@
transferring
greeting
gin
odds
communicated
builds
induction
Steam
FIN@@
Skype
antibodies
Ana
passports
login
ference
.....
guiding
traction
Rod@@
fame
station@@
suspicion
Loren@@
towers
Jordanian
Concept
dispose
ิ@@
harmonious
niche
Experience
uphol@@
Anniversary
Dark@@
mem@@
tus
lap
Based
profitability
open@@
bearings
Call@@
Mercury
liqu@@
condemn
Route
ials
aving
hemisphere
Jeff
failing
Xin@@
wow
Contemporary
unstable
pretend
dictatorship
Certi@@
admissibility
bud
Travel@@
lock@@
isy
hackers
Luk@@
Kub@@
chef
Fuk@@
finalized
Former
ects
Aj@@
stereotypes
onable
mainland
ტ@@
Registration
Monster
belly
stole
collaborate
lowering
risky
yr
humor
trader
shark
EE
aste
1B
legends
martial
fragments
passionate
graph@@
401
synchron@@
arc
Words
insisted
Dy@@
anni
anno@@
relay
arly
isha
caring
Colonel
Heroes
psycho@@
oneself
descriptions
setup
prevailing
inn
beverage
charts
businessmen
Reser@@
Č@@
uncomfortable
370
antes
contamination
Saharan
porn
uous
Near
Oper@@
roman@@
Nev@@
declining
chemotherapy
Arbitration
Ivoire
Hou@@
understandable
Stock@@
rati@@
acti@@
Nas@@
stabil@@
icing
lava
iden
უ@@
ints
Powers
impressions
finances
obs@@
scanning
etic
itive
poorly
child@@
Institutions
iza
NL@@
slower
Farm@@
Dj@@
Than@@
Santos
,000
regulators
cial
1,0@@
Israelis
pain@@
REN@@
pornography
shooter
cycl@@
kW
Dave
repl@@
ecology
enjoys
Nikol@@
yson
luminous
sniper
EG@@
Chel@@
Role
forestry
Jehovah
quietly
aar
waited
lobby
Infrastructure
Kaliningrad
blos@@
anni@@
itsu
aux@@
conceived
pill
plum@@
Vs
Monroe
WG@@
nova
Gran
ggs
strengths
wheelchair
Notice
ject
Antigua
adventures
liquidation
Sarajevo
essa
handles
Tag
euro@@
colonies
special@@
weighing
threw
attributable
monkey
Program@@
descendants
License
IND@@
hing@@
toe
bother
owl
therapist
beneath
Leste
beginners
herbs
troubles
shocking
planted
onde
induc@@
rigid
Lic@@
carbonate
editorial
yce
hospitality
rumors
ultrasound
oline
Bristol
projection
Horn
messenger
Bucharest
psych@@
wards
compensate
crack
withstand
Amy
ESCAP
Flying
shr@@
Conflict
unwanted
Say@@
dense
armies
Warren
Consumer
Shemale@@
illustrated
Oblast
menstrual
Kru@@
workout
liters
smiling
wel
rebel
God@@
Dz@@
brutal
switches
addictive
tioned
Catalonia
underway
midnight
chan@@
Archives
vana
liaison
collaborative
fair@@
tron
digestive
Lyon
Tommy
И@@
triggered
3.
IDE
Qaeda
assemble
celebrating
abundance
Monterrey
api@@
s.com
feasibility
agging
ä
Patriarch
wildlife
Envoy
Let@@
psychologist
Denis
appendix
fici@@
stro
traded
JS@@
investigative
kindergarten
outset
Gat@@
beneficiaries
upgraded
Dil@@
25th
Atom@@
ideals
Togo
Khabarovsk
filtration
strips
Malawi
formations
inexpensive
duly
Ma
306
gram
sberg
mus
oppose
advertisement
Never
outfit
cult
patrol
T.
bic@@
firearms
cozy
Nagorno
Cargo
las@@
Jamahiriya
rett
conve@@
Adams
period@@
ά@@
gos@@
Testament
gla@@
cast@@
apping
fraction
Hak@@
keeper
vomiting
omen@@
Nintendo
seemingly
Developed
variation
omo
Soft@@
ю@@
Chairs
hol
spectacular
Cologne
Results
dging
asters
น@@
dest@@
yon
Andrey
stuff@@
republics
insect
aurus
Blu
pollutants
gravitational
lecture
supervisory
tric@@
pav@@
hara
Applications
dreamed
raid
Dani@@
piracy
skirts
noticeable
06.@@
Deb@@
configured
Lus@@
accompany
reminds
Dist@@
arat
ritual
garbage
climatic
advisable
Diana
Therapy
collision
alog@@
......
ashamed
ISA
desertification
Attorney
touching
Separ@@
Least
Romeo
ბ@@
prosperous
itated
yd
ories
Loss
cash@@
ICC
Constantinople
allergy
Mrs
throwing
anced
Andrei
Trip@@
realise
Ron
eship
indications
Real@@
Djibouti
mani@@
Monument
UB
AST
simplify
pend@@
stressing
airing
anchor
485
Strengthening
lions
rolled
Opening
Macedonian
teenager
Vasi@@
dé@@
arin
lottery
Gordon
senses
marker
winds
Sham@@
executions
countering
Nou@@
Ted@@
vac@@
IEN@@
fights
Veg@@
clusters
balloons
conveyor
hos
privilege
Daddy
Gabriel
protesters
extingu@@
saves
ACC
TNT
Every
Bam@@
Dakota
kills
rounds
cone
desi@@
statutory
adopts
nur@@
dence
Rest
Tob@@
Zoo
colleague
eira
uch
crystals
Basin
ア@@
emperor
Card@@
cks
POS
SF
Organized
eti
contaminated
raped
å
gall@@
Clou@@
alli@@
Python
sleep@@
Cycle
communicating
1938
evsky
etown
startup
stom@@
primitive
Consultative
Did
generic
Yuri
killings
mai@@
lif@@
Uz@@
Lead
Campbell
appropriately
hid
curved
tracked
Does
whatsoever
lately
transformer
wipe
Trinity
maturity
ABC
Legislative
1936
amor@@
Fisher
pyramid
neum@@
Patriotic
fox
200,000
Medic@@
chers
petrol
Electoral
agram
ignorance
1,500
sep@@
emphasizing
divorced
residing
fruitful
Pain
Sep@@
attribute
Voronezh
posting
diagnostics
adal@@
Follow
Golan
Ed
best@@
designation
tires
mega
Hir@@
essor
Gig@@
Ind@@
M2
delivers
Auth@@
unpredictable
hypertension
decreasing
nesia
hierarchy
Before
brow@@
bull@@
eries
spine
relaxed
­
Classical
prescribe
Los@@
Shelf
Mind
additives
Interim
Better
Stanley
DF
LES
slept
copic
cool@@
390
ios
thereon
simplest
reck@@
blogs
mass@@
interfaces
retro@@
Ves@@
Su
miniature
Networks
shut@@
1929
Wer@@
rine
homeless
Romans
skiing
coupled
yethylene
design@@
deeds
deliberate
Eurasia
Magazine
farmer
ć@@
ased
cin
ghtness
picturesque
deep@@
B1
bitter
Sob@@
influenza
internships
digi@@
Helicop@@
enacted
nausea
Senator
practicing
abnormal
Interactive
ais@@
ussy
diets
Siberian
Fen@@
Aligned
stepped
Perry
Nicol@@
nos@@
Recovery
Procurement
WP@@
dys@@
deceased
pol
Bishop
cost@@
beard
Method
strings
realm
sauce
1937
renew
Viet
vendors
Peg@@
flora
clin@@
Lud@@
selective
Cyber@@
affair
rats
ately
guaranteeing
Diversity
edges
zin
Angela
burns
here@@
Acts
911
π@@
phy@@
ა
standardized
dividends
Genocide
wore
bud@@
genital
Emma
zu
maxim@@
acne
Quran
vian
volatile
annexes
wires
zel
Shut@@
Compos@@
march
leverage
bugs
Slo@@
pH
equation
hus@@
Fight
Conservation
hij@@
ilo
jokes
Assi@@
civic
ticism
Aug@@
eil
stranger
Arn@@
laughing
Nem@@
Album
CAN
veterans
Mine
Zagreb
dog@@
damaging
mit
identifies
yana
appro@@
Jefferson
OK@@
macro
pow@@
volcano
concerted
FDI
Jonathan
inser@@
lesser
Prof@@
debris
keen
camp@@
cum@@
renovation
Sean
abin@@
arization
bour
legi@@
Swan
Alfred
dwell
admire
councils
centimeters
Omsk
Churches
ulating
Chil@@
Saratov
icle
knees
blades
unhappy
signatures
INTER@@
rant
7,000
rin
Lavrov
Clar@@
ת
Wang
Rodri@@
cousin
exhibit
lawsuit
backing
ño
cooled
Won@@
ler@@
atra
qualify
folded
Elev@@
sells
avan
woke
Trailer
08.@@
mirrors
fibre
marketplace
exhibits
tol@@
iction
dominate
eti@@
ս@@
clarified
Integr@@
screaming
evacuation
accessing
ims
credited
trail
rs
examinations
opathy
ASE
Krakow
promotions
surprises
blast
spark@@
launches
anson
rera
LNG
Darwin
succession
answering
manship
tiv@@
tionally
Dogs
dinosaur
owski
Prohibition
duplication
Record
ghton
P2@@
Hag@@
guez
unconditional
Abdul@@
ista
ş
Nation@@
poll
tailored
alternate
Grac@@
femin@@
molecule
peti@@
Jak@@
Crisis
countryside
Mining
Fig@@
Friendship
painter
weakened
deserved
voc@@
eleventh
prob@@
dissolved
ativity
switched
shy
blockade
Brus@@
Tenerife
planting
pigs
Donbas
roof@@
philosopher
tless
executives
Steven
Meh@@
rooted
zoo
PS4
Reality
Aurora
....@@
expelled
peculiar
stool
Carl@@
radius
awi
chloride
beside
tos@@
odd
Midd@@
dreaming
Apollo
ก@@
expressly
XIX
Rachel
Mast@@
Yok@@
efficacy
OLED
viol@@
forcing
vul@@
headache
vivid
Alpha
Dau@@
Volgograd
Bhutan
ス@@
slogan
Guaran@@
teenage
CER@@
BM
prohibits
Talk
combatants
GY
projections
ESA
twins
jealous
entries
node
NH@@
Portrait
Lec@@
loween
Ara@@
transi@@
tual
settlers
tungsten
breastfeeding
annoying
Bes@@
queries
airs
light@@
alt
rim
Graham
Ex
wom@@
Then
ats@@
Guardian
Automotive
volatility
Isl@@
manifested
Silver@@
LORD
advertisements
oper
Serv@@
xx@@
Hog@@
inquiries
Nevada
Welcome
Michel
terminology
cali@@
04.@@
hobbies
Reserved
earthquakes
IAN
scandal
Mississippi
geo@@
scored
ë
embodiments
educate
refuses
postal
Update
trad@@
generators
mist@@
phy
Twin
sac@@
ANT
Related
terminate
straw
searched
Rick
energies
debtor
Gw@@
practiced
variant
Muk@@
breast@@
Samuel
inity
Disaster
ample
drones
auxiliary
agers
Course
ather@@
Prophet
Pla@@
disagree
croco@@
Spir@@
Leonardo
Thom@@
coma
clean@@
scal@@
Antarctica
tas
ridiculous
vert
anas
resilience
ior
accusations
coding
div@@
Brad@@
Port@@
escaped
dep@@
tomb
prestige
frustration
Pis@@
tournaments
Yuk@@
Religion
1930s
Intellectual
disadvantages
Jennifer
LB
ophone
pressures
Lucas
cyber@@
side@@
hated
hostels
umi
Nom@@
suppression
cleared
volcanic
ste
Gary
peasants
Ahmed
administering
medals
halls
onics
Feder@@
Ç@@
，
bull
ladder
Cleveland
Observatory
participates
catalogue
balancing
Pak@@
sadd@@
aug@@
main@@
arity
zig
communism
fing
ASA
beg@@
Gros@@
Justin
olic
catering
Guyana
Operating
urgical
pixels
Chechnya
SIT@@
Jake
Religious
Laura
behavioral
landlocked
IoT
Paul@@
SEC@@
alter@@
Poz@@
govern
Aircraft
optimum
mushrooms
fonts
insecurity
harness
INST@@
picnic
Appeals
how@@
Thank
ambulance
kan@@
ě@@
fea@@
honored
tment
Amman
prosecute
Pris@@
resumption
builders
oce@@
Majesty
dem
smuggling
Emil@@
sunflower
hike
managerial
exporter
Sebastian
Maya
DAF
colon@@
B2@@
MDGs
Ris@@
presently
smar@@
revise
prone
Sultan
Fish@@
Amar@@
pathological
etti
rie
Kid@@
acher
ラ@@
filament
buffer
Ach@@
acknowledges
glob@@
Las@@
Very
hiring
problematic
carved
respecting
Gonz@@
catastrophe
rez@@
Question
reproduced
smo@@
Spart@@
OPEC
sic
oba
PayPal
Smoking
hearings
Fra@@
Trav@@
Explorer
Contract
invalid
remo@@
versa
Carmen
Thir@@
telephones
injustice
yacht
Wik@@
Harris
schedules
goddess
hov
electrons
donations
zia
Pyongyang
SID@@
Grant
tes@@
dinosaurs
hobby
aris
correlation
alleviate
eman@@
trainer
myths
yna
disadvantaged
Bahamas
acon
CN.@@
publicity
opa@@
Exp@@
compass
Oriental
F.@@
ital
Gom@@
bek
attachment
ן
Gaul@@
pag@@
chambers
shelves
streams
timber
ishment
Batumi
Aleksand@@
lord
aneous
appraisal
Boulevard
divor@@
bladder
restraint
shortest
supposedly
Agreements
thu@@
Keep
SEC
Automobile
Arti@@
fostering
itas
compens@@
prospective
ify
surge
civilized
Fla@@
Sell
ș@@
sits
ा@@
thyroid
audiences
bend
shining
Raf@@
Rest@@
arez
jur@@
nationalism
uno@@
tomatoes
Create
SAM@@
uncertain
rankings
colleges
jumping
everage
reside
gel@@
Baker
attained
intensified
panoramic
inconsistent
Ａ@@
surviving
Lily
dude
domains
handy
lawn
agement
dles
Icelandic
restrictive
etr@@
Fren@@
subtle
ENT
Hiroshima
blend
smokers
obligatory
ocation
Path
quarterly
G.@@
Hidden
enthusiasm
etal
Madison
supplying
mighty
asts
shipments
ambitions
Advancement
iki
Haj@@
rain@@
dov
Greenland
sky@@
picking
Schengen
uch@@
insured
Stal@@
Gag@@
MacBook
illustrations
conform
vulnerabilities
developmental
Cay@@
nightmare
Caf@@
Motors
Pag@@
leton
Antalya
dysfunction
traumatic
ITC
reset
Fashi@@
coloring
&apos;a
oul
wer@@
accelerating
composer
affe
イ@@
jah
hazards
diagnose
cular
opi@@
Kent
G20
Margaret
enth@@
vity
ocr@@
illumination
fabulous
Alberta
Title
Striptease
diploma
urai
agr@@
Imag@@
resignation
clever
storms
oes
mapping
culp@@
congress
Sevastopol
USE
Samoa
imposition
snack
oblast
defendant
Glen@@
tives
psychologists
Philosophy
Associated
pitch
NK@@
Teacher
Potter
antibiotic
simpler
murders
vacancies
genetically
endeavour
equip@@
drain
Maine
sang
RM
pledge
Spring@@
seaside
sim
Carnival
ALL@@
strator
Mall@@
Jacques
impetus
memorable
omega
ú
υ@@
Guatem@@
knock
poem
behaviors
Chancellor
aline
unavailable
Eden
Andorra
307
badge
historian
dier
Municip@@
sensation
occupies
prompted
coon
Gav@@
flavor
Alps
Memorandum
stimulating
deli@@
ary@@
Junior
Adobe
explosions
Yo@@
sweet@@
Bishkek
õ@@
acht
ninety
beaten
excitement
generates
terminated
crete
abstentions
compositions
oto
Consulting
rebuild
lane
icate
gesture
magnets
ounge
devote
Maps
Uk@@
bourgeoisie
anism
კ@@
modelling
rors
complained
East@@
imposing
ATM
Chem@@
1C
submits
nationwide
carbohydrates
holistic
kidneys
onau@@
valu@@
motives
classroom
purification
insights
cking
capit@@
laughed
AWG
analysed
twelfth
consular
extr@@
navigate
Excell@@
remotely
Dakar
wr@@
otted
Crus@@
osi@@
otels
Transnational
navy
concise
Mon
š
seas@@
Fleet
Nicolas
wis@@
shaping
fted
betting
odo@@
ucci
baseline
Manufacturing
determin@@
snap@@
filtering
attacking
aunt
Tech@@
patter@@
CW
Hindu
arrests
CNN
Pa
Correc@@
wrapped
Evil
BAS@@
Navi@@
Ground
Jamie
melting
460
Wes@@
Harrison
challenged
Its
estrogen
healthier
wallets
beast
charitable
wells
secular
Lanc@@
Artist
nav@@
Strasbourg
Manuel
Snapshot
worthwhile
worrying
Ann
1932
pric@@
manages
astronauts
325
sibility
celebrations
soda
Nina
Groups
մ@@
warmer
Metro@@
smarter
canceled
Accra
tune
Irina
vibrant
Figu@@
summarized
gum
poems
revol@@
Origin
Earth@@
adversely
leak
än@@
rein@@
Larry
Emily
Warri@@
hazard
positioned
narrative
apped
ั@@
Ant@@
edi@@
warmth
midst
bias
praised
seizure
scri@@
wears
demonstrating
direc@@
frequencies
Canc@@
Lucia
directories
credentials
XII
shells
Admiral
Canyon
friction
Equal
Poverty
franchise
well@@
Files
Univer@@
Turin
Albu@@
proxy
Lei@@
JavaScript
Agn@@
bage
handsome
eigh@@
programm@@
weekends
Laws
Balkans
macro@@
floods
Fut@@
advocates
filming
fibers
merged
Thessaloniki
psychiatric
Shah
Mauritania
15,000
Episode
receptors
rifle
orch@@
à@@
veness
assign
extinction
nis
versatile
ucks
lation
bees
ennial
Crow@@
professionally
journals
steroid
offspring
comic
Whole
Database
BAN@@
Alek@@
Amendment
gens
pumping
disc@@
Birds
deco@@
Quartet
stina
Lut@@
Ideas
aman
40,000
rent@@
programmed
mutations
Barry
9001
Analytics
childbirth
ysk
Celsius
frag@@
Want
Trial
brief@@
Norman
MK
Joan
Introduction
accidentally
Pier@@
aza
shores
andro
frost
Ethics
ilers
suppress
imitation
policymakers
Password
1935
Chuck
rich@@
mush@@
minded
oping
hib@@
irreversible
Rog@@
Brest
tense
VER
guardian
Rit@@
legality
malicious
Globe
accum@@
Rei@@
ycl@@
Storm
tees
elaborated
imagined
Mohamed
ARE
izable
dedication
Aven@@
phil@@
basement
mation
communic@@
pigment
power@@
suitcase
deci@@
Ugan@@
freshwater
yro@@
defective
ō@@
miracles
Ruby
bore
worries
rus@@
Lieutenant
osphere
confession
cocaine
Conferences
Rh@@
turbine
dont
î@@
undergoing
Trans
vou@@
microscope
izers
NEPAD
Mec@@
Bart@@
watch@@
ordin@@
Patri@@
Utah
Holding
abol@@
brochure
reimbursement
Welfare
Reporting
professions
hir
progression
dealers
Cann@@
ticul@@
weaker
prerequisite
exploit
dash@@
WG
Brain
Diffe@@
decentralization
Governmental
renal
fixing
Antarctic
bure@@
imperial
Fis@@
Berg@@
peacefully
Rescue
plu@@
audits
pler
Pix@@
Byr@@
incorporating
rail@@
lag
absor@@
hardness
ACT
expectation
vs.
Veli@@
verbal
exic@@
Yas@@
ვ@@
BRICS
Rak@@
abil@@
NAT@@
encies
90s
float
browsing
authorised
transforming
Thous@@
Ш@@
soluble
itory
Aq@@
ety@@
convincing
prediction
turn@@
hin
Oce@@
Pass
1905
angular
CERD
newsletters
Alexey
box@@
studios
Bobby
pulling
Elec@@
UFO
encrypted
UE
specialties
vans
shadows
overlooking
celebrities
flagship
verbale
Scho@@
utilizing
informing
depressed
Meth@@
viewer
configure
communal
intervals
sampling
pit@@
tribe
Mongol
Stor@@
kam@@
recipients
Hondur@@
critically
revelation
orus
millennium
Gandhi
ude
awaiting
Jew
Ways
hostage
Jim@@
Rhe@@
ARD
Daw@@
Airways
GH
block@@
baggage
priv@@
downtown
Recommendations
GmbH
bricks
Pregn@@
UNO@@
asteroid
ă
s.
exams
budgeting
births
milit@@
Languages
Nancy
feared
premiere
baba
accidental
View@@
gly@@
averages
parade
portions
Cost
hung
induced
Ian
ö
prevail
Num@@
brokers
compres@@
Championships
militia
wet@@
inviting
spinal
pesticides
cottage
public@@
economist
briefed
minus
after@@
SecretaryGeneral
electron
preparedness
strangers
atti
elia
dw@@
microorganisms
ń
lacks
aan
wholly
oted
sculptures
inclined
firing
twist
see@@
objections
specializing
IEC
what@@
ometr@@
SMEs
transc@@
imbalance
shareholder
Faith
provoke
witz
deviation
gra
revival
expiration
imprisoned
Blog
Pavel
Progress
skeleton
ล@@
Stefan
tification
frustrated
bare
relying
eks
saturated
stra
Jon
annexation
condi@@
irs
Turkmen
Param@@
UNIFEM
erection
Tik@@
pent@@
Amaz@@
Sop@@
Inland
journalism
expose
Vers@@
rick
possessed
CES
vampire
cried
herbal
clearing
terrain
motive
elasticity
capsules
Wolf@@
VD
Hugo
modal
facade
Genesis
p.m
basics
gently
Fed
confined
cathedral
donation
ection@@
M1
ane@@
duce
conquer
tele@@
Exclu@@
ineffective
meteorological
interestingly
deportation
yi@@
Each
Atl@@
someday
comfor@@
specialization
hman
Rada
Tran@@
depicted
olig@@
attan
Forbes
Rex
venti@@
catching
matched
Chechen
amy
striving
Sugar
diplomat
dang@@
xia
conducts
Filip@@
evol@@
Qaida
rum@@
retailers
Schools
honesty
gul@@
potassium
equilibrium
harmonized
regi@@
transform@@
dive
stap@@
Yel@@
Grad@@
submarines
Marino
ό@@
class@@
facilitates
Monastery
U.S
accessed
ש@@
Cola
TION
shifts
Gabon
Kinshasa
embodied
lively
IOC
hen
Julian
tionist
Jessica
warnings
mum@@
exemption
icable
superhero
Patt@@
ʼ@@
Phan@@
UNIFIL
briefings
grocery
Clinic
CAR
regulates
ved@@
Milky
blown
align
Kou@@
handic@@
intervene
atic@@
tolerate
pos
needles
pipelines
eding
weed
stateless
amnesty
randomly
Feb
exporters
Pac@@
Pre
Fred
disaggregated
Steph@@
±
Some@@
Reli@@
Requ@@
harmless
tomato
obi@@
therapies
confront
undertook
Mosque
uphold
mania
ooth
energetic
parti@@
sensing
collapsed
Invent@@
jects
recreational
abide
merger
Step@@
Mog@@
UST
noon
Level@@
Isaac
ule
aut
uber@@
tou@@
Distribu@@
Neil
renamed
Banks
internship
seize
crus@@
Mans@@
invasive
eighty
reco@@
smoked
rotate
grains
Mali@@
UA
Elli@@
cleaned
Harvey
coup@@
E3
subregion
sensations
MED@@
proving
Legend
Allied
Requirements
bag@@
passwords
strang@@
validate
tici@@
vocabulary
Ticket
ilian
tok@@
inher@@
IU
mills
დ@@
foreigner
remainder
starter
bloc
1921
Carlo
patches
Nazarbayev
multidisciplinary
a.m
Hein@@
istan
GRE@@
mosquito
toast
Kerry
CDC
torn
Psych@@
Watson
oi
fers
amusement
iso@@
interviewed
neglect
wels
aths
Types
placebo
sadness
Omega
nikov
uniforms
headaches
adjusting
deepest
Vene@@
contradiction
recruit
melt
lica
VID@@
Marse@@
cler@@
PlayStation
rulers
esteem
suspen@@
praying
repression
Roy
grasp
Hut@@
oise
1934
Scot@@
Tha@@
tioners
ASE@@
awake
deen
extrajudicial
quanti@@
Options
ג@@
worm
suffers
fines
oker
Matrix
257
Registry
Inte@@
assumes
inventions
changeable
prepares
peripheral
pedestrian
competitor
Academic
Ted
Kurds
hurts
lor
battlefield
optimism
cuc@@
Arsenal
Fay@@
tortured
у
liter
speculation
Prison
ODA
Kharkov
Murray
Reports
conver@@
entin
yama
nominations
Dreams
sympathy
workload
arsenal
conveniently
Poker
mers
chem@@
cooked
iously
scattered
possesses
Fall@@
Conduct
drank
beating
1925
smoothly
Rafael
defended
pneumonia
U.N.
Medal
Houses
explo@@
nings
contradictions
Prote@@
Appeal
Seminar
ط@@
Waste
herewith
olen
eighteenth
Model@@
Rolling
alternatively
Shakespeare
referral
ected
munitions
informative
Applied
appropriation
biz@@
professors
thirteenth
associates
Lock@@
deposited
cir@@
ported
absurd
informational
ether
benefited
Care@@
Kav@@
adaptive
Gö@@
standardization
borrow
Email
Europa
258
Everything
Liter@@
relies
poles
ful@@
entrepreneurial
Practical
acknowledging
reliance
Alpine
pron@@
constituent
Clear@@
vas@@
Forests
Goal
sov
Accounts
Aaron
onso
sex@@
grouped
violin
humankind
genetics
decom@@
spam
ounces
messaging
unas
intercourse
faction
rought
Markets
robbery
ves@@
creditor
Contacts
appor@@
γ@@
Alcohol
tribu@@
jumped
ege
anova
concessions
Enh@@
Roosevelt
won@@
subsistence
appe@@
slope
kindness
Pattaya
ril
CCD
debu@@
buc@@
oxy@@
atter
Hillary
empirical
utilities
Murphy
ultraviolet
bility
advisor
seduc@@
violet
shri@@
Inside
DPRK
MONUC
Rah@@
ushed
lef@@
auctions
mins
FZ
Chev@@
Jobs
catalyst
xen@@
nurses
Avengers
mattress
tizing
Choice
tag@@
Coordinating
sketch
vegetation
fade
zodiac
malnutrition
defl@@
coincidence
Giovanni
clu@@
condemns
lime
plight
rockets
fib@@
overweight
Ozone
avia
radically
anes@@
arov
etric
dens@@
CMS
additions
404
spor@@
Vik@@
Expan@@
intentionally
philosophers
drop@@
Ten
thankful
extensively
eded
escent
ored
sandy
grades
portraits
gau@@
Treas@@
Buk@@
285
clashes
mistaken
ooh
Banking
xim@@
etry
centric
bind
refuge
tude
defect
enz@@
List@@
Gai@@
Voluntary
آ@@
cents
pause
1700
chuk
Pilot
stack
Than
fertilizer
reasoning
Walt
activist
controllers
284
recycled
Banglad@@
intestinal
supplemented
Bernard
summits
deficiencies
ft@@
paradigm
phe@@
sens@@
Kand@@
Responsible
consulted
Build
furt
rons
consciously
Portal
Stev@@
transp@@
VM@@
Ż@@
calculating
ICRC
commercially
nationally
depths
runner
Mend@@
י
catastrophic
wines
assassination
deepening
there@@
biography
nationalist
selfish
tunnels
dded
Increased
H.E.
whist@@
anus
arb@@
vain
peers
Position
par
Governance
capitals
stabilize
Cinema
intimidation
privately
exploded
Import
cop
lengthy
Petroleum
During
lars
traveler
Macau
Phy@@
Natur@@
finite
merchant
rightly
elessness
four@@
immun@@
Kro@@
chr@@
compartment
essay
Neuro@@
edy
residual
Abid@@
invaluable
road@@
ulates
fifteenth
Elite
revealing
highlighting
Adv@@
ambient
incin@@
importing
offenders
darling
dist@@
Yu
instrumental
Victims
Doors
282
wellery
disappointment
Pittsburgh
sley
swelling
aerospace
uga
essing
ų
browsers
tility
junior
daddy
Svet@@
seizures
mia
Serious
turkey
ogue
abe
boiler
ained
prophet
formulating
ART@@
capitalization
antioxidants
heart@@
dist
Volga
tweeted
Oren@@
ISO9001
moti@@
NAS@@
Franco
ի
annot@@
ţ@@
yo@@
enson
erals
federation
Sok@@
cavity
declares
Sicily
weaken
Phil
moist@@
rect@@
ffi@@
textbooks
shop@@
bending
1922
sul
merge
resettlement
affirmed
commencement
bran@@
Stein@@
Hyper@@
sixtieth
Foc@@
unification
radicals
rhetoric
nationalities
editors
commod@@
Republicans
commenced
fissile
hips
OAU
exempt
Friend
trophy
tribal
trademarks
oti@@
Was
reunion
Davi@@
protec@@
fairness
handful
dor
cran@@
rison
425
Strait
conquered
Mack@@
permissible
mammals
Rho@@
Clinical
accustomed
261
Czec@@
cing
distributors
AGE
explosives
preferential
Evans
infringement
spontaneous
travellers
pioneer
gadgets
mortal
Psychology
lison
C1
specifies
30th
Hul@@
seg@@
Row@@
266
Roberts
ić
Urugu@@
Joy

shoc@@
clearer
hev
Confederation
stealing
Sei@@
Resident
Churchill
sensi@@
mentation
framed
309
specializes
Khan@@
ulations
Tropical
GROUP
312
EK
amending
methane
idiot
counselling
sec
inda
erroneous
attaches
Exam@@
vodka
frontier
insolvency
Click
emotionally
ingu@@
constellation
seals
fle

intuition
Consum@@
1912
commanders
ambition
Gospel
Sunny
proportions
optic
Fat@@
incorporation
underscored
itis
U.S.@@
Cave
Sud@@
motorcycles
Stabil@@
Leadership
hab
proceeded
susceptible
Chambers
borrowed
abundant
door@@
retreat
Volunteers
azza
borrowing
alarming
steril@@
281
1931
Mama
enclosure
refusing
destined
emen
ect@@
ม@@
Kod@@
injections
Aleppo
غ@@
manipulate
hya
Stones
harmon@@
Sv@@
MOQ
insane
erosion
shrink
wolves
Campaign
cares
CONF.@@
Vanuatu
Bond
mented
brackets
Suk@@
cogn@@
uation
Imp@@
disruption
hes@@
reat
thirdly
Investigation
rum
Andro@@
awful
cker
Shab@@
Petr@@
realised
drainage
Yur@@
Natalia
spends
Provisional
accumulate
Dildo
CIT@@
wonders
Hub@@
Gods
indifferent
Eth@@
Nikolai
IST
ballot
1915
crush
goodness
Marrak@@
Fernando
debit
schizophrenia
CP.@@
Officers
ossi@@
sque@@
300,000
Hig@@
lus@@
whale
sham@@
Thompson
breaches
veto
Anal
HO
Vu@@
reactors
Presidency
giants
punishable
vascular
Scandinavian
UNMIK
Marcus
tendencies
Sberbank
prohibiting
censorship
distributor
Bloo@@
bn
Andrea
unfortunate
Memb@@
velocity
Notes
atization
Claude
probable
zombies
Goa
oscopic
Wright
entail
predominantly
Personnel
outdated
Bermuda
wre@@
trainers
atin@@
interrupted
conditional
Sard@@
Disabilities
Prev@@
Andri@@
thirteen
Mason
neutrality
gear@@
travelled
banners
antioxidant
asion
touch@@
Nike
Bachelor
lubric@@
Points
Zor@@
259
topical
Crescent
Hep@@
disciples
Quar@@
geon
enzymes
curiosity
sixteenth
insulated
drift
authorize
ogen@@
obil@@
grapes
aining
Jo
boasts
implements
Hussein
Qat@@
Request
Comman@@
threads
dynasty
Eddie
encouragement
Reagan
undesirable
ECOWAS
Adri@@
pheric
omas
unsuccessful
revolutions
Automation
mercenaries
−
flooding
booth
contexts
ansen
republican
Helen
Recommendation
80s
sponsoring
Boris@@
aftermath
mark@@
pick@@
cass@@
Gambia
asth@@
Mickey
day@@
advertise
umn
cosm@@
Lok@@
deter@@
assass@@
ethnicity
Holidays
dominance
fascist
Problems
inception
Excel
pity
rosis
Families
Deli@@
pandemic
Gard@@
reinforcing
Components
vendor
Marriage
taxpayers
Sherem@@
cops
tractors
Klein
Depression
lowered
laptops
ッ@@
Schwar@@
anche
ellers
Classification
poll@@
spider
novels
ysis
rh@@
ove@@
smiled
Further
Arabian
Osi@@
akin
gsten
habitat
introductory
galleries
Lore@@
Patriarchate
dent
jap@@
25,000
dissolution
trump
if@@
Tart@@
superiority
fledged
synergies
seventeenth
intentional
menopause
Bolivarian
redress
Challenge
Judicial
salts
milestone
lifts
Lexus
ticle
flee
courier
Cannes
Makh@@
Hei@@
Jorge
His@@
Ener@@
470
administrations
cham@@
Roleplay
Chemicals
dots
289
XIII
IPSAS
Kop@@
ribs
Ralph
Macron
pers@@
moratorium
Kursk
demo
poc@@
oustic
ice@@
isol@@
ORD
thwest
Hanoi
cautious
kh
feder@@
Davidson
attainment
Susan
Titan
262
Laur@@
calibration
orchestra
EV
outdoors
IAS
artwork
construc@@
hip@@
eable
Mitchell
Linda
offerings
bay@@
emy
silly
Zen
inspectors
leakage
prom
chase
Oct
Jav@@
personalities
CAP@@
Tourist
Art.
relied
try@@
tokens
shifting
dera
annon
Krishna
ruble
Rich
judged
Tax@@
Canary
incitement
sigh@@
maj@@
accede
Again
privileged
Angels
caves
ration@@
atable
Numbers
ginger
Twel@@
triumph
inadmissible
dropping
acceded
Electr@@
Hezbollah
releasing
ematic
tyres
intim@@
Bloomberg
yourselves
Nau@@
unpaid
competencies
athletic
ood@@
ses@@
awe@@
dine
Garcia
analysing
ras@@
urb@@
ENER@@
shocks
dul@@
WE
eres
LTD
rented
Million
conductor
transplant
grap@@
inequalities
lub@@
impaired
295
blessings
registers
plots
oppression
platinum
sickness
ao@@
Blockchain
prec@@
tail@@
SGS
clicks
Himself
RAL
lethal
1910
Friedrich
souvenirs
Alexei
distress
got@@
contacting
Pablo
Pam@@
Josh
Astrakhan
oscill@@
OA
sequences
338
victories
1923
Aman@@
Carac@@
equations
distil@@
osh
itsa
laz@@
aret
Chisinau
weakening
Corridor
mony
crowded
Municipal
token
motions
bos
Sik@@
Haitian
Michel@@
nickname
specifics
1924
Primary
Maxim
lyn
controversy
Flood
foreseen
inalienable
patented
renovated
ghosts
Cookies
kina
Path@@
preambular
marginalized
employs
Wonder@@
Tari@@
frog
albeit
Transit
nick@@
aroma
Mail@@
ires
tau
centered
pedagogical
journeys
strengthens
Kov@@
Citizens
indicative
Mater@@
Noah
cardiac
Tajik@@
Bruno
Robinson
cab
monks
gies
cel
Han
60s
mediate
Eb@@
proactive
broadband
Chapel
Gay@@
kovsky
Riv@@
sightseeing
Tah@@
Rand@@
ئ@@
Michelle
Cartagena
NBA
psychic
Egyptians
Effective
rigorous
Henri@@
deg@@
Schol@@
builder
must@@
Superman

labor@@
impartiality
Job
erson
inspiring
illas
cows
yearly
tales
rituals
gateway
pots
gren@@
enzyme
Fundamental
Fox@@
curricula
bureau
Compliance
esto
4.
oga
compliant
guil@@
Parti@@
livelihoods
scholarship
Rating
Tyumen
trades
tham
Masters
Push@@
zin@@
physicist
sels
Ural
stressful
Cambodian
У@@
ergy
IFT
Host
Cere@@
opy
Opportunities
avier
UP@@
Connecticut
grati@@
characterize
surveyed
convictions
Ala@@
fic
batt@@
Kashmir
amber
Dow@@
Chro@@
shifted
finest
sailing
2,500
hitting
Mechan@@
Nig@@
exploited
airfield
IME
stakeholder
Matters
ground@@
lus
siveness
Kirk@@
demons
detecting
truthful
pledges
atures
Symphony
statues
hurricane
judging
penetrate
socioeconomic
symmetrical
labs
fluids
Closed
hana
nd
treasures
fourteen
VEN@@
visions
Amnesty
Roses
rina
circuits
sies
deepen
Karen
Holmes
accomplishment
karma
mint
designate
AIR
mates
Eurostat
Yandex
feast
cany
merchants
Vod@@
eler@@
burial
stamps
Dah@@
Nutrition
Guarantee
Minimum
endure
arius
peculiarities
Tours
kos@@
substitution
testi@@
Solution
toxicity
remembering
green@@
cellul@@
enses
physicists
natur@@
manuscript
calcul@@
UX
esis
tribunals
fing@@
prosecuted
serviced
bush
thief
Lib@@
interconnected
warehouses
introduces
persistence
Rein@@
kis@@
Spr@@
jewellery
telecommunication
evacuated
winding
wrong@@
hostages
Bh@@
G8
mechan@@
Bosnian
compelled
Underground
declaring
Tyler
ensen
proportional
Evolution
authoritative
footage
aired
Serbs
ratifying
cylin@@
bomber
Because
administrators
tu
beats
way@@
sometime
assemb@@
Minorities
Win
ishi
factions
inia
ignition
oshi
constitu@@
arer
Goo@@
weigh
SSL
industrialized
narrow@@
speeches
Chemistry
Hockey
obsolete
Suppression
WITH
eighteen
Baroque
collector
ration
backward
payable
Programming
Colonial
GCC
atal
rication
check@@
Dennis
virtu@@
ometry
Dick@@
1928
MIC@@
tenure
Greg@@
illu@@
brighter
forecasting
tari@@
sexuality
ousness
dead@@
Tig@@
arma
railways
azzo
spinning
evenly
Abu@@
unmanned
quotas
kshire
Kash@@
swap
motto
dest
compile
reproduce
reorganization
Ethnic
frankly
slip@@
LIF@@
Naval
individu@@
partition
Okay
Roman@@
obe@@
Centers
Semitism
mess@@
ror@@
retaining
braking
shook
Pec@@
arteries
Quarter
NOW
х
Abbas
Bey@@
Craig
Investments
Inhuman
enhances
extracted
Crete
opposing
icky
mobilizing
283
Plenary
stery
heroin
Give
soy
beneficiary
researches
calorie
Yang
UNOCI
nongovernmental
Telegram
stretched
K2
inian
avi
reporter
Vera
PCs
directive
evapor@@
bullets
doping
org
stems
scare
surround
flav@@
Uber
fertilizers
Troy
eous
proposing
ologic
Yaroslavl
alliances
allied
Gob@@
Kare@@
269
tenge
spark
sail
enjoyable
VIS@@
disappears
Aug
ignoring
Musk
wiring
dependency
Menu
responds
conquest
gists
tough@@
INF
chol@@
ICAL
onent
isco
Gin@@
skip
cultivated
cheerful
invitations
Lesotho
liss
overthrow
tively
echo@@
gro
delegate
gle@@
neur@@
omy
couch
enni@@
č
268
cosmos
icit
Hop@@
mill@@
bies
miners
bells
SQ@@
Previous
kiy
honorary
underlines
Rosneft
tattoos
Comments
bank@@
Ship@@
integr@@
noteworthy
Aud@@
gov@@
℃
Class@@
Sexual
thered
Sadd@@
aster@@
pirates
diarrhea
Appendix
chooses
industri@@
okes
Judaism
Hassan
arguing
Dushanbe
Riviera
bureaucratic
1913
universality
saints
universally
conqu@@
Stanford
hardest
menstruation
educ@@
astronomy
illac
Byzantine
medic@@
quis@@
biomass
fauna
disrupt
Eri@@
ト@@
righteous
Rati@@
motiv@@
zz
disable
Anto@@
rains
Stol@@
grandchildren
appealing
amped
Statue
Ved@@
O2
tened
commends
ARC
inventories
biblical
hp
Lucy
276
CBD
affiliate
fts@@
greetings
aments
Communities
&apos;We
Released
parasites
Participation
satisfying
transporting
Stavropol
XIV
moder@@
merit
removes
XVI
Regular
cla@@
modem
Dream@@
exhibited
persist
ongs
rainfall
RIA
Ü@@
Madonna
sensory
standpoint
ogram
‧
hym@@
onov
electrode
fluorescent
cylinders
Slav@@
interdisciplinary
Ramadan
institution@@
elegance
XXI
Surgery
startups
archaeologists
wasted
worms
ggle
Yog@@
collects
CRM
wastewater
jam@@
andra
1325
Understanding
voiced
XXX
disseminated
Tunis
NM@@
Varna
oks
photo@@
Walk
Tobacco
remnants
uria
Bret@@
undermining
Rhine
lacked
Zer@@
disadvantage
Danube
fetus
quo
Braz@@
Archit@@
revisions
approximate
sheer
Identification
theoretically
crum@@
photographic
Degrading
blower
commence
Solidarity
Pact
10,@@
Sut@@
cruci@@
ibid
Akh@@
warmly
Revolutionary
misuse
jets
preferable
regeneration
N1
invaded
yogurt
article@@
undergone
precedent
astronomical
parliamentarians
subsidiaries
sap@@
cocoa
repeating
Stewart
vier
REC@@
atism
reunification
Observ@@
deadlines
roubles
EEC
Nov
freed
copying
programmer
287
infinity
Artists
efully
famine
nicotine
Dawn
EEA
Tanz@@
gland
jurisprudence
indices
vagina
vari@@
expired
ō
safeguarding
imi
markers
Baikal
symbol@@
testify
endorse
exile
genuinely
distr@@
postpone
286
rebuilt
secretly
cough
ilit@@
photographers
Rin@@
modern@@
undertakes
entially
Rhodes
이@@
interacting
bron@@
ص@@
care@@
carcin@@
ting@@
CPC
phosph@@
D.C.
sal
mutation
Genoa
fortunate
Tajik
Termin@@
DEC@@
closes
uncommon
newsletter
cabinets
wear@@
duplicate
authenticity
enriched
perme@@
pirate
visually
centi@@
system@@
drums
neurological
sync
biotechnology
influencing
How@@
boiling
rig@@
RAS
recurrent
Racism
persuade
slowing
bau@@
Andal@@
fourteenth
kidnapped
GW
RK
demon
entails
Caledonia
Say
ticks
geographically
itating
sweets
unveiled
itations
quette
adhe@@
departmental
compelling
expan@@
LGBT
stimulus
edited
ว@@
Beatles
techn@@
tagged
outlines
repe@@
disturbed
Khar@@
accompl@@
forged
Has
Between
artifacts
olf
contracted
lateral
ocy@@
hinder
dividing
veg@@
withdrew
Hunt
Mr@@
sharks
verses
differentiated
erected
1540
enrichment
venues
liberated
Hour
veins
Per
malware
Clau@@
cybersecurity
Inform@@
altern@@
vention
icide
orie
orial
citation
learns
rage
Jeremy
struggles
hereby
resigned
god@@
armored
veil
evidenced
Reduc@@
Turner
regener@@
rog@@
accorded
tastes
corridors
banning
install@@
Sloven@@
circumstance
homework
intact
ity@@
refrigeration
Establishment
OIC
grad
xon
boun@@
uity
Bretton
299
strategically
temp@@
orca
impulse
bets
interpretations
reservoir
chapel
Morris
iment
d.@@
perceptions
Consensus
stretching
anders
figuration
vaginal
Happiness
anted
exceptionally
Tu
Cruel
vez
Zim@@
initiation
claimant
orphans
Prem@@
recruiting
excursions
pled
Settings
Petro
median
finalize
bil
Andreas
saf@@
wheel@@
Bern
Literature
fav@@
eternity
Claire
263
1911
func@@
Pyr@@
detrimental
McDonald
Cherni@@
の@@
presumably
Kirov
dub@@
retains
spreads
pear@@
idi
onomy
Laurent
solves
reforming
altar
forefront
Oracle
Own
sional
etics
cervical
Being
FSB
lend
G7
Leave
beautifully
oath
regain
urging
attractiveness
stereot@@
Wis@@
billionaire
Informal
ACH
deo
Regions
Pollution
chairmanship
configurations
B2
repetition
Increase
publishers
squad
olds
perpet@@
Uncle
adolescent
Bank@@
thly
ib
palette
depos@@
Priv@@
Verkhovna
Are@@
Blair
Operational
paramount
mans
forensic
urious
1373
grief
confronted
preceded
participatory
Acceler@@
Å@@
000,000
tsunami
ranes
tized
leasing
ruined
ʻ@@
annah
essly
Mist@@
Less@@
harmonize
irritation
urity
void
actic
atti@@
abst@@
implant
ysh@@
american
Movies
squares
siege
Dimit@@
packet
Tell
ght@@
Guam
alise
ateway
chair@@
292
Isle
Desertification
gentleman
shelters
just@@
commanded
atings
Kus@@
Fant@@
spices
life@@
bless
iced
apar@@
converting
Amer@@
Advisor
ி@@
ahn
ч
lings
lessness
MBA
Accord
definitive
elephants
speedy
inferior
monarchy
donated
manic@@
Parkinson
Summary
omes
ego@@
Dubrov@@
constructions
syl@@
Prevent
judgments
pragmatic
unofficial
EMEP
orderly
stimulates
hic@@
mysteries
vibrations
Situation
Detective
genome
70s
adequacy
spotted
grammar
Approach
Johann@@
thal
rescued
EAEU
atories
imminent
improper
temptation
soo@@
condom
dynam@@
Mental
Normandy
charcoal
successive
verdict
photos@@
chlorine
incub@@
infantry
authoritarian
unrest
vacant
waking
ounded
lova
Stru@@
Answ@@
bons
constructing
standby
polls
empower
easing
diversify
Concert
futures
З@@
iv
slowdown
Logan
sorrow
Vehicles
parliaments
Inspector
posal
examines
chim@@
engineered
Registrar
296
doc
J.@@
ob
Adol@@
icles
expl@@
directives
herb
stru@@
pha@@
iii
killers
Individual
EIA
ffer
Alf@@
Twenty
consolidating
ana@@
sq@@
pretext
Narcotic
found@@
Fingering
usefulness
Laden
Ligh@@
Artem@@
cryp@@
vio
jaw
rounded
Eff@@
illustrate
frightened
ン
insol@@
denying
epherd
Guy
bandwidth
serum
sixteen
Ei@@
GDPR
Chan
Gregory
Azov
eration
aids
objectively
scor@@
unaware
Reconstruction
sterilization
hostility
AID@@
anemia
posture
leap
Marqu@@
executing
yt@@
Counter@@
ido
ict
Using
clamation
Suriname
colum@@
elberg
eral
senti@@
Clara
amin
chip@@
compiling
akh
lt
anton
customization
exchanging
investigator
hay
OH
interdependence
essions
ayed
Saints
lik
ि@@
1926
penetr@@
discre@@
NGC
navig@@
precautions
peasant
toll
Rental
eats
complied
delight
Ministries
adia
methyl
malignant
rapporteurs
orbital
quin@@
deferred
tine
atu
enrolled
clown
Mineral
Eur@@
assed
fraudulent
umen
1916
adapting
lity
mythology
Slavic
arab@@
safest
termin@@
shallow
liam@@
Coca
conserv@@
ladyboy
Neutr@@
Verification
News@@
Jaguar
Rehabilitation
allowances
uterus
holm
straightforward
Leip@@
Silva
mov
Pompeo
realism
ackers
rotor
academics
predic@@
Nine
expiry
zhen
ific@@
synonymous
Ashley
receptor
UEFA
uniqueness
morph@@
UNAMID
hydrocarbons
1920s
ographer
vapor
story@@
Thanks
Dud@@
commend
ACS
oly@@
Nothing
epilepsy
endorsement
Safari
thering
Smi@@
pile
decay
innocence
esman
solic@@
feminine
swift
gins
fall@@
Konstan@@
settling
tech@@
IDF
rip@@
democracies
questioning
dismissal
Pushkin
impairment
entertaining
cane
workplan
gad@@
Nexus
thumb
enclosed
slowed
Buyer
1907
eclipse
diversified
Deut@@
smen
insomnia
technicians
ceramics
Also
folders
Kiri@@
-I
Mathematics
Technological
스@@
erra
imperialism
accent
advertisers
Industri@@
poured
automobiles
Wester@@
Struc@@
Pete
buddy
itan
pale
MIS@@
loneliness
2024
Kaf@@
495
anned
Gust@@
Bull
validated
vent@@
jan@@
Brook@@
elev@@
cache
Native
invent
Aspects
autom@@
Obj@@
Too
elites
tability
spar@@
ovulation
emic
chez
aden@@
erb@@
es.@@
spotlight
NR
Rig@@
Telecommunications
orate
SAS
dru@@
Yanukovych
ț@@
ussia
Creation
pertinent
Э@@
circus
defendants
Ebola
Period
Tay@@
Rail@@
cornerstone
disper@@
condolences
discovering
coli
thin@@
nonsense
Alexa
adan
Fried@@
Laos
O.
peacekeepers
reas@@
endangered
bypass
Catholics
validation
bishop
rock@@
oured
Tox@@
imperialist
Send
doctoral
comics
Paragu@@
aban@@
priori@@
Dec
fen@@
urbanization
asty
nai@@
Copy
deported
Prayer
hier@@
secrecy
Mob@@
wherein
ership
localization
perpetrated
Naj@@
Glob@@
snor@@
Sites
์
According
2000s
commit@@
Archive
50s
anesthesia
FCCC
auditing
glorious
sailors
mended
fia
exposition
Ken
heed
Collins
Iber@@
dan@@
Ing@@
Steps
stringent
cus
Balkan
archi@@
eagle
famili@@
Roberto
amazed
inspect
decolonization
subordinate
Prix
Which
reimbur@@
1927
Maur@@
widow
Thr@@
Universities
usti@@
enquiry
happily
bots
confiscation
Cohen
ITS
ecz@@
Voc@@
saturation
rowing
Ready
Czechoslovakia
iconic
supernatural
ade@@
Konstantin
rebellion
princip@@
consortium
ois@@
scream
RUS@@
icked
logos
zan
Airbus
DNS
nau@@
Break@@
secretariats
crashed
Nile
ceremonies
MENTS
digestion
ա
escort
synthe@@
radio@@
Kud@@
representations
Teaching
auditor
Rut@@
weights
itment
Updated
proprietary
sums
robotic
Anglo
solemn
Feli@@
junction
Reich
interregional
Practices
rese
Gent@@
273
Lama
tease
copied
alright
reconnaissance
tutorial
distortion
color@@
favorites
Wildlife
Bolton
Fah@@
Income
arrivals
Chang
Omar
tour@@
シ@@
intersessional
whoa
obedience
dwelling
contraindications
guideline
awakening
ulators
unhealthy
PPP
Ril@@
rix
cau@@
level@@
hael
Benefits
eliminates
ר
Lauren
methyl@@
metast@@
seam@@
daytime
correspon@@
smells
democratization
uprising
ferry
Caroline
liness
ley@@
deduc@@
dump
writings
displaying
frac@@
ench@@
Alter@@
terrestrial
benchmarks
դ@@
quicker
escal@@
Poles
microbes
fabricated
Spencer
thou
SCR
appreciates
multiplayer
downs
YE@@
ception
Caesar
obli@@
â
ATP
corporal
Desi@@
immortal
surance
dumping
ipple
Worldwide
Kill
Whats@@
Temporary
undertakings
ECT
taxpayer
convergence
scholarships
Sent@@
sedan
approves
gian
weddings
torate
311
hani
foreseeable
zation
miscellaneous
fertile
aboard
anc
artic@@
Lloyd
onate
Discovery
Pandora
hacking
clan
preschool
UNAIDS
spectro@@
CSS
preview
tz@@
RNA
differentiation
flir@@
aku
Symposium
misleading
hedge
ially
lodge
trustworthy
transformations
ARY
appearances
icket
lex
town@@
mentioning
Kay
assemblies
sche
Sara
Andre
abolish
relocation
Occup@@
ince
Radiation
yor
academy
outsourcing
cal
coefficient
η@@
sizing
excursion
eval
teles@@
gil@@
ё@@
ressed
wasting
Strat@@
trance
Simferopol
Bug@@
colli@@
incur@@
Chrysler
Catal@@
biom@@
tit@@
tackling
lander
icz
seismic
eric
Cole
inmates
tightly
curb
undermined
lays
prey
12,000
parity
Ho
Securities
iner@@
roulette
assistants
igi
Directory
Tribunals
revive
Violations
dispatch
ceilings
Stand@@
peac@@
spokesperson
gol
Johann
Meetings
complies
Units
emblem
έ@@
iko
LOVE
peanu@@
metry
refining
UNCCD
patriotic
fasting
astronaut
iang
merchandise
Monica
Leaders
Adrian
farewell
packaged
Rob
Hudson
assert
stepping
implants
kissed
IONAL
Bless@@
tem
24th
announcements
toms
ECB
mati@@
brigh@@
Really
Strategies
Shad@@
informs
offense
arrows
CN.9
Methods
Improvement
Atlantis
repository
overlap
alerts
oxidation
reconsider
Prep@@
Test@@
forwarded
finishes
reconc@@
ISO@@
Frederick
XVIII
deletion
ISH
overload
author@@
Sandy
currents
diligence
ois
Enforcement
Railways
CMP
Georgi@@
opedic
Road@@
asser
Vamp@@
residency
restart
aspirin
affirm
anabolic
yields
confiscated
Xen@@
academia
agi@@
Capit@@
tyr@@
indis@@
flow@@
ี@@
massacre
gence
Azer@@
isms
branded
Armstrong
allow@@
Leonard
warriors
ANY
Factor
Ukra@@
bli@@
coincide
addendum
anges
‐
lax@@
Ward
filmed
renting
assing
ø
conduc@@
curse
NAS
gest@@
champions
bans
lav
alcoholism
267
Barbuda
Reconciliation
thy@@
GMT
provoked
discusses
nucleus
Pavilion
ise@@
housed
chasing
fig@@
dancer
regretted
prayed
Astro@@
semester
Owen
vocal
ם
mystical
Insp@@
otting
Yahoo
vague
falsi@@
butter@@
advocated
invoked
plague
bes@@
fierce
pass@@
abs@@
atis@@
Abdullah
277
condemnation
ward@@
recordings
Mogadishu
mete@@
advent
00s
imper@@
Hend@@
Them@@
Eight
optimizing
urt
acious
Broadway
sed@@
acles
arbitral
poli@@
anonymity
Aarhus
redeployment
UNMIL
ologically
cris@@
Another
mentality
unsafe
antibody
fluctu@@
vak@@
nate
vated
uncontrolled
arom@@
cricket
Beth@@
correspondent
disappearances
verted
bachelor
ส@@
tall@@
Trev@@
Winston
contradictory
mindful
embar@@
Ability
expire
vering
confusing
mountainous
kicked
ril@@
Scheme
numerical
provocation
poisonous
orda
programmers
truths
doz@@
provocative
ague
plugin
impress
sedi@@
Teachers
SMM
alizes
congratulated
ateral
ク@@
Hid@@
biased
stum@@
Serb
Taxi
tent@@
beg
Paphos
Rogers
till@@
unilaterally
Keith
Eugene
Arnold
analyzes
inspected
Yer@@
Knights
Jol@@
atri@@
Lingu@@
ancing
antagon@@
Civic
Earl
nour@@
Murmansk
racks
nea
deteriorating
audited
encompasses
deem
Soviets
Behavi@@
comet
spectators
osh@@
ő@@
turing
rejuven@@
flaws
elder
remembers
canc@@
slopes
Liu
will@@
Abdul
Jong
distorted
deformation
anxious
dolph@@
robotics
burnt
22nd
iring
გ@@
caf@@
inson
Forever
rebuilding
archy
Pluto
Biology
K.@@
tents
kilograms
reinforcement
quotation
Eco@@
dwarf
extinct
unle@@
unsure
mosques
Picasso
guarded
ension
equip
Pharmaceutical
paints
ope@@
plac@@
prevalent
eving
bureaucracy
unde@@
Every@@
insignificant
gaz
Tripoli
descriptive
extremists
Bin
intercultural
1904
pyramids
multiply
2.2.@@
depended
commenting
unloading
repaired
Beat@@
Abe
circulating
predictability
Witnesses
r.
.com@@
Allies
DUCT@@
worsening
unites
EURO@@
weigh@@
stors
blamed
measurable
masturb@@
Papa
cliff
ր
Contest
Ltd.
Ler@@
Oversi@@
usion
tling
EUR@@
magn@@
Falun
quisition
nas
Destruction
confuse
Nicosia
stants
bankers
logistic
compliments
mum
EBRD
retire
disagreement
schem@@
alas
Ahmad
Orion
duct
Dick
Polar
bodily
ESC@@
auditors
eff
Count
dividend
abused
Emmanuel
recourse
strat@@
thee
Neigh@@
nutrient
revit@@
tili@@
acity
ticated
substanti@@
Shak@@
coercion
hunters
neglected
prophets
parish
humble
Responsibility
entive
marital
Add.2
sewage
advantageous
avoidance
take@@
Weapon
ESCWA
ux@@
weighs
predecessors
contingency
fills
bananas
resurrection
Cryst@@
arisen
Greg
tionary
iodine
uneven
bicycles
orig@@
treats
broaden
վ@@
intestine
comfortably
Khartoum
Operator
impede
B12
Brotherhood
contradict
entation
pier
conflicting
INTERNATIONAL
scarce
Syndrome
anticipate
Target
shortages
Annie
muc@@
distributing
invoice
resp@@
Savior
nyt@@
Bo
Diet
flowering
Larnaca
Clu@@
Dag@@
sent@@
chap@@
Limassol
thol@@
categor@@
Jun
60,000
omy@@
character@@
ovan
imag@@
normalization
mafia
Crimes
confess
prote@@
dolphins
ESD
Mosk@@
Torres
279
ultr@@
Stan
inous
Instruc@@
exemptions
IEL@@
Drake
atized
dedicate
endurance
counterpart
Nim@@
JIU
ā
coordinators
izations
militias
fat@@
sentiment
meta
amounting
assignments
societal
Translation
cion
bula
Protestant
inhal@@
egel
Pages
Rolls
afa
LEX
Managing
degrad@@
fond
lian
vich
obs
Gong
dynamically
derivatives
278
multitude
echo
Sah@@
lingu@@
enka
harbor
opium
timeline
pod@@
visu@@
t.@@
ugg@@
academ@@
baths
awaited
reminders
stly
presses
Chess
Candi@@
affection
propag@@
airplanes
WIPO
rels
resembles
trainings
speed@@
lion@@
lovsk
awaits
collabor@@
upbringing
Dji@@
ʼ
MAC
angi@@
defender
instinct
Courts
restricting
madness
contraception
volcanoes
Four@@
enthusiasts
tax@@
tists
temperament
dissolve
Vitamin
allocations
YOUR
hates
Scorpi@@
toler@@
paperwork
eners
1908
udge
IOM
Transparency
abduction
Leonid
333
azi
dity
28th
ī
legisl@@
Bashar
MES
Equatorial
immuno@@
pec@@
courageous
beforehand
Bill@@
1,200
triangular
progressively
obstruc@@
TVs
industrialization
khov
pret@@
fascism
seriousness
Carol
tuning
stir@@
Confi@@
rogen
soy@@
Ronald
streamline
vals
holdings
applicability
Associations
interrup@@
schooling
griev@@
equals
heroic
cheer@@
Parad@@
peaks
casing
rash
neo@@
intermediary
Secure
flare
Felix
Chase
sev
ambigu@@
similarities
Procedures
hmm
adze
recovering
misunderstanding
vine
reactive
complemented
Jr
egar
Bach
assy
1906
McCar@@
p.@@
counsel@@
XVII
bloom
Elvis
ammonia
Ibrahim
Singh
staged
commissioning
Manufac@@
monasteries
Flem@@
exert
runway
Hurricane
Otto
pip@@
Jackie
discontinued
Terry
lact@@
Consortium
souvenir
factual
Pharaoh
unted
interrogation
Austr@@
Luhansk
lice
Domain
Ral@@
adz@@
icking
viability
9,000
Treaties
Tes@@
fore
diminished
unciation
labeled
neighbourhood
surpassed
orials
Collective
³
sati@@
ilov
Edu@@
Stav@@
exec@@
Bap@@
infertility
Youn@@
Census
manuscripts
motivate
cooperated
asserted
isolate
wellbeing
Grenada
requi@@
phased
augmented
icul@@
cracks
murderer
274
Aleksandr
Berkeley
Associ@@
beware
리@@
tighten
kidnapping
26th
infr@@
inventor
simul@@
prescri@@
incapable
deter
wol@@
1901
ח@@
crap
atrocities
voter
Swift
Kurdistan
logs
Hod@@
✓
reliably
apartheid
footnote
edly
missionary
eag@@
infring@@
graves
Belgorod
dumb
Citizenship
discs
cript
auto@@
Blake
FRE@@
every@@
overdue
expands
Illicit
Phillips
vand@@
immer@@
asphalt
celestial
expedite
Him@@
rehabilit@@
numer@@
coloured
veteran
refurb@@
richer
widest
Algiers
1850
petitions
Nami@@
Reasons
inhib@@
harvesting
Bratislava
eurozone
influx
poli
deaf
mentions
healed
Ish@@
Stability
enlargement
gospel
cian
productions
Plato
Caucasian
disseminating
repayment
ato@@
berger
heavens
benchmark
seldom
AMA
troubled
astral
legislature
Trends
ept
Bradley
vertically
Jesse
requ@@
Vinci
scripts
comrades
endeavours
tle@@
upgrades
zzy
patri@@
Accoun@@
hyth@@
Reed
abducted
beginner
spirituality
Ashgabat
Harmon@@
icos
colour@@
skins
vein
skoe
tai
potent
osla@@
Career
GRE
drastically
oles
mansion
र@@
scrip@@
UNFCCC
measles
resemble
Nel@@
suburbs
fronts
communicable
Innovative
fam@@
predators
acquaintance
similarity
Giant
uman
Prosecution
skel@@
jack@@
IFRS
Exper@@
rit
disturbances
tness
interiors
CCC
eventual
polling
respectful
Kalin@@
collaborating
German@@
istics
hacker
heavenly
sacrifices
Programs
anatomy
While
marginal
discer@@
Sophia
sol
Gle@@
birth@@
amy@@
revitalization
Curtis
excre@@
Agents
enced
aquatic
aeros@@
elds
vern
admir@@
Dominica
artificially
ethno@@
interrelated
theaters
Infl@@
Ef@@
disparities
annum
clos@@
Deg@@
nude
celebrates
concealed
directing
forgetting
smith
snakes
fibr@@
servic@@
affiliates
unequal
destroys
Institution
Brig@@
communiqué
orphan@@
enqu@@
estimation
persu@@
Falcon
battalion
intermediaries
Jenny
ANCE
forex
interpreter
ingen@@
bidding
armaments
estive
Birth
ب
securely
employing
self@@
lawmakers
boiled
ued
vities
meaningless
Seventh
►
infrastructures
ophy@@
asus
Nuremberg
unting
judic@@
tance
eruption
Horizon
unresolved
MIT
GIS
incumbent
hart
ต@@
Franz
wrongful
numbered
nin@@
utation
gil
eBay
separates
desperately
Battle@@
sians
Sense
zh
BlackBerry
Centres
etsk
upward
sweetheart
oste@@
iners
baked
relativity
foregoing
husbands
disregard
logging
chec@@
Babylon
Schedule
bourne
disgu@@
scientifically
Chen
12,@@
Entry
CHAIRMAN
digit
thum@@
Nest@@
fishermen
Okin@@
conversely
intangible
hereditary
assis
concur@@
signatories
Fortune
qualifying
vaccinated
Provide
Supervisory
Islamabad
カ@@
turtle
poon
EPA
Maduro
bill@@
implied
U.S.-@@
amoto
Lukashenko
alloys
Scripture
reparation
envel@@
Peru@@
Heydar
masterpiece
vre
ually
ventures
Standardization
notices
panor@@
utsk
gry
Champion
muscular
bombers
denies
adop@@
rocky
pir@@
king@@
nt
Legends
embarrassed
sab@@
2023
Dimension
coexistence
Ov@@
Paragraph
Parks
opted
explanatory
empowered
clocks
harbour
IFC
olithic
sei
hydrocarbon
fucked
adel@@
Margar@@
whiskey
corro@@
graphical
Mum@@
occup@@
Ez@@
Carm@@
rides
moun@@
nier
գ@@
supervised
collap@@
Victorian
tonic
Option
refine
creams
Joshua
tallest
optics
repairing
kne@@
sorting
Gut@@
Politics
asym@@
cohesion
Sci@@
betrayed
abdomen
Raymond
breeds
teenth
smiles
Dic@@
publishes
IPO
highways
anes
ICT@@
Veron@@
trajectory
wrestling
sail@@
antiquity
SSR
Pub@@
await
Transboundary
Abbey
ᴬ@@
thri@@
Git@@
Ч@@
Powell
migrate
kid@@
dances
attentive
CTBT
compromising
owning
Freder@@
27th
minimizing
trum@@
advent@@
Consi@@
dark@@
Idlib
separatists
erated
circulate
petitive
amin@@
pp.
oversee
Nicole
categorized
livelihood
istically
erectile
Constan@@
gynec@@
rejects
ambassadors
Nos.
supporter
boosting
sauc@@
Eurovision
Purpose
Alma
Fitz@@
Baptist
Success
Programmes
asso
bankrupt
Zelensky
Holo@@
bic
shaking
iters
Tina
sensible
rewarded
Sanders
additive
Marxist
Enhanced
reser@@
yeast
ascertain
leys
questionable
Around
ロ@@
Bengal
cand@@
Henri
migr@@
helium
Alex@@
longevity
heavier
enlarged
sity
Pill@@
Kherson
segregation
organizes
clauses
Boards
unanimous
Documents
斯@@
nee@@
disastrous
endorses
routing
downward
Neptune
Wend@@
entirety
café
weak@@
refu@@
Immun@@
Author@@
Enterprises
remark
Glory
civil@@
Peaceful
outgoing
Principle
Francesco
Chi
cooperatives
grandparents
strains
ITU
specialised
tize
grape
areth
gestures
Olivia
Metall@@
complying
Refugee
digits
gadget
bourg
Fati@@
consultancy
broad@@
singles
Migrant
therland
Dispute
wicked
hack
թ@@
intern@@
Minutes
Sharon
onc@@
Kirill
boy@@
Archi@@
Born
Cluster
oters
substantiated
cock@@
COUN@@
Kurt
melo@@
Botanical
experim@@
Heav@@
servicemen
gru@@
photographed
Healthcare
laughs
instructor
uploaded
ouring
inscription
neighbour
insofar
unexpectedly
bishops
assertion
condoms
Labs
discharged
dol
naive
illary
aesthetics
separating
astrology
fif@@
Teresa
bell@@
compensated
traced
Wells
Compensation
vicious
thirst
reversed
expres@@
Sakhalin
、
tat@@
Know@@
Ensure
enactment
footprint
limbs
ention
impacted
extracts
artery
magi@@
align@@
Week@@
discourse
tram
Saddam
stok
Italians
Outlook
oney
50th
redirected
Drag@@
cry@@
Bent@@
Rs
Human@@
electroly@@
hna
editions
Amat@@
delic@@
coercive
ICAO
canonical
Com
farther
dick
Adoption
mixtures
warns
candi@@
aise
Forestry
Rocky
overhead
Stuart
avian
Coch@@
Brad
30s
uble
Fortress
Palau
Concer@@
perimeter
symmetry
triggers
CPR
Employe@@
electronically
squeeze
secret@@
recurrence
traps
Nathan
monk
ー
awei
Rita
โ@@
sely
touches
complim@@
banquet
apol@@
Swaziland
tled
buil@@
enum@@
bipolar
dification
arbitr@@
B2B
pse
Foster
ellular
permissions
correctness
verb
cann@@
Judges
lifelong
pistol
disbur@@
clash
scaling
Fear
Rebecca
ashk@@
Skills
Lamborghini
turbo@@
thrive
tapes
existent
exhaustion
aper@@
Holiness
carpets
put@@
Ander@@
Hash@@
advising
Ec@@
ICP
imbalances
sta@@
theology
dres@@
Nicaragu@@
Ñ@@
electrodes
Simpson
ECLAC
777
wavelength
betrayal
sule
ồ@@
Sullivan
counseling
sects
turbines
Kry@@
issi@@
inton
inactive
observes
outbreaks
1875
instituted
gus
TCP
Begin@@
Multilateral
carbon@@
sad@@
Fisheries
bitcoins
jealousy
rab
CDM
Northwest
insi@@
narcotic
Rus
Nakh@@
Julie
fish@@
thank@@
dim
copy@@
vie
gamma
mons
feeds
premise
HTTP
Svetlana
Conclu@@
metre
Mohammad
ectives
igen@@
scenic
Respon@@
inspector
foolish
fly@@
Hoff@@
Promis@@
fragrance
doub@@
ld
Positive
Harmony
Porter
worsen
Parents
caus@@
fullest
embassies
goat
beams
phate
identities
exhaustive
datas@@
Coal
steep
corps
abb@@
ท@@
endable
ery@@
Kron@@
storey
cared
Negoti@@
Marathon
fingerprints
ъ@@
MRI
antibacterial
Settlement
flux
grat@@
shel@@
tained
atis
brightest
Principal
Dynasty
resonance
Marxism
etro@@
instruc@@
Sali@@
deficits
differing
C.4
poets
gros@@
CST
Sanc@@
grow@@
subconscious
onna
thieves
ò@@
substrate
tailor
polite
darker
paradox
GPU
Cook@@
irrational
Still
opathic
need@@
Firm
rek
agged
1903
Dec.
insti@@
Joel
gastrointestinal
bid@@
Could
Himal@@
mailing
hak
deteriorated
factor@@
adulthood
benz@@
ucc@@
uniting
bloggers
biometric
heal@@
20s
Abra@@
mascul@@
Guid@@
Primor@@
generals
announces
starvation
Provider
archipelago
possessing
enrolment
disposed
o.@@
250,000
rites
pulp
dialogues
Delegation
Ukr@@
smugg@@
pickup
Stories
dow
view@@
Ø@@
believer
enty
Alexandra
sher@@
scar
Gib@@
complaining
SAP
Sept
incorporates
entic@@
slaughter
𝔄@@
Always
strates
auti@@
Since
FIR@@
outskirts
phon@@
Aegean
righ@@
devotion
Zionist
luckily
causal
crushing
Baron
TRADE
branding
vag@@
smoo@@
SIL
blues
Beast
replaces
Brah@@
Samarkand
adul@@
pathologies
diction
IPC
upstairs
webpage
Institu@@
myriad
concession
dragons
thrust
sponsorship
Palais
isse@@
Comoros
lain
hima
kidding
insists
unused
mam@@
now@@
photoc@@
oped
irresponsible
gorod
Thrones
tenberg
Spiritual
potency
orum
predicts
Gogh
Engineer
Trotsky
crystalline
decrees
affirms
qual@@
Ellen
Savi@@
Together
Elections
figur@@
pavilion
inist
Arab@@
agger
individuality
Deter@@
folds
verge
suff@@
1902
classi@@
Era
Areas
Messiah
737
Constantine
leng@@
Philippe
Freud
sulfur
Burton
performers
𝒜@@
grandma
amus

patriotism
crosses
fragment
Identi@@
collagen
Tele@@
realizes
KGB
ל
finals
Orthodoxy
comprehend
culmin@@
injected
semiconductor
mediators
underneath
ticity
Bolsheviks
Syrians
aura
23rd
Schmidt
Communists
SAT
Uses
Ⲁ@@
essional
Tatars
explode
poisoned
closures
IPCC
coastline
collectors
voyage
metadata
compet@@
1909
scars
Antwerp
Iranians
Pari@@
stup@@
misconduct
priced
SIA
reluctant
objectivity
vir
Eternal
centred
erase
interrog@@
ด@@
disagreements
seated
differentiate
scrap
ceases
espionage
tightening
Names
kni@@
totalitarian
marketers
Berez@@
grandson
counties
UNITAR
deforestation
lords
bn@@
inorganic
imaginary
slides
pest
nuances
Μ@@
faults
Ա@@
arrears
epoch
Gross
intestines
Louise
rus
Chir@@
misery
vampires
Dylan
illusions
UNAM@@
ค@@
Stabilization
portations
utterly
eligibility
liquefied
フ@@
sterile
apocalyp@@
completeness
Accid@@
small@@
emitting
Batt@@
Guards
Islam@@
signatory
Transition
C.6
legalization
Ra
insur@@
goodwill
Anatoly
Problem
biochemical
diabetic
Lopez
0.01
Galileo
analogy
elines
slightest
5.00
asteroids
Inno@@
尔@@
penny
offs
Khaz@@
Samu@@
ardi@@
starred
rescent
Satur@@
Zem@@
Mao
uters
appreci@@
biologically
inaccurate
Nizhny
acupuncture
Historic
ŭ@@
strokes
budgeted
CARICOM
conductivity
landmines
Establis@@
doctrines
attle
pact
uli@@
Gothenburg
reduc@@
addy
enrich
Within
Broadcasting
collaborated
certific@@
Committed
crushed
illers
Christine
hottest
Must@@
inherit
grim
attackers
hospitalized
Kuz@@
volleyball
iff
Tog@@
scrutiny
resign
Swaz@@
mortar
mono@@
inefficient
ectivity
Promoting
lifespan
daylight
monkeys
ruit
labeling
psoriasis
Cherk@@
Luther
𝕬@@
ensemble
Eat
peptide
PJSC
disproportionate
tasked
questionnaires
physiology
Volo@@
angel@@
waterfalls
evan
seventeen
posing
modi@@
UTC
crow@@
str
juana
ustin
Donna
henko
heightened
intrigu@@
Listen
offender
hemp
ussi@@
hag@@
lyn@@
spok@@
intel@@
enstein
Rust@@
inflicted
educators
broadcasts
creations
COMM@@
crews
tally
ophobia
deprive
indefinitely
tet
hep@@
Labor@@
Dating
cerebral
Customers
Term
reness
ratios
Aston
mama
acquisitions
derive
Astronom@@
lev
bod@@
overe@@
brakes
Think
specifying
Adolf
Journey
Samar@@
vitality
𝘈@@
intersection
enlightenment
б
MINUSTAH
Write
itching
CEFACT
utely
event@@
mln
Pyramid
Yes@@
START
Int@@
cture
Drama
diam@@
unusually
salv@@
Profession@@
PACE
newborns
wizard
chemist
Mobility
stagnation
impulses
shiel@@
Robo@@
rements
Alberto
hail
temporal
catalog@@
essness
contributors
Gorbachev
Volunteer
tim
envy
referen@@
Eva
punc@@
metropolitan
stakes
Tula
exacerbated
allo@@
Vladi@@
brigade
Kyle
tants
atitis
infusion
Aristotle
sustaining
IDB.@@
critic
Valery
CTC
Rous@@
ALS
forge
Cruise
harmed
Marilyn
diminish
scholar
Compet@@
Evangel@@
manufactures
Bav@@
eminent
remarked
glands
Sophie
pris@@
Versailles
Mamm@@
Reas@@
pregnancies
futur@@
membranes
Author
disappointing
kernel
agro@@
earmarked
pseud@@
colon
Advant@@
687
antivirus
struggled
philanthrop@@
Liaison
incidentally
uit
qa
TECH@@
overdose
congrat@@
ย@@
ð@@
マ@@
aqui@@
riots
litres
Ageing
tat
Continue
paralysis
Pash@@
1,5@@
Diseases
agro
nett
staring
pes@@
400,000
Deutsche
Resp@@
lated
Colin
roofs
Liberal
spice
fty
revi@@
skies
promp@@
predator
ethn@@
movable
promulgated
carrots
𝙰@@
disposition
Gyp@@
wed@@
ller
hides
groundwater
passi@@
pensioners
Ki
announcing
sci@@
Isk@@
Marsh@@
accountant
्
utilis@@
Gabri@@
δ@@
TED
hie
pardon
proposition
flames
ming@@
homosexuality
oved
underwent
excavations
immunities
gymnastics
Goddess
cruelty
demolition
visualize
tracing
disappoint
mc@@
verte@@
angers
protections
𝔸@@
clergy
CIS@@
humane
Passport
Hist@@
Everyone
researching
counterfeit
unfamiliar
translates
bai@@
31st
WP.30
resol@@
telescopes
atia
reign@@
rd
atha
29th
atical
subscri@@
Compar@@
diffusion
cocktails
operation@@
theast
readings
hubs
toral
resilient
Altai
unjust
illiteracy
Engineers
spelling
dubbed
organise
idate
gamers
transplantation
round@@
ₐ@@
스
Viagra
unrelated
acs
beauti@@
mobilized
hydrox@@
staircase
possessions
yping
reve@@
theirs
lasers
quets
Associate
linkage
Amanda
democr@@
recommending
𝐀@@
withdrawing
Bek@@
restitution
reconcile
oric
statehood
LinkedIn
isi@@
earthly
leaf@@
sculp@@
ს
thood
bur
merc@@
kilometer
big@@
ź@@
placements
unreasonable
barbar@@
Anastasia
prioritize
tob@@
1890
enic
exten@@
ghtful
gluten
underestimate
Waters
doomed
frightening
Africans
fundamentals
collecti@@
spi@@
dissi@@
prerequisites
Aerospace
illuminated
revers@@
reacted
ý@@
eses
occupations
Inquiry
UNMIS
desc@@
symbolizes
nop@@
persecuted
Temper@@
hardship
oscopy
Commissions
denom@@
feed@@
FTP
admin
𝘼@@
Zimbab@@
stig@@
glut@@
Six@@
Brigade
Trustees
Conn@@
surgeons
sessional
U.K.
agile
Canadians
cartoons
interrupt
arib@@
consign@@
overlooked
Recognition
dry@@
𝗔@@
notorious
overly
castles
deploying
Interest
Scientology
consum@@
necess@@
Offices
sociology
Burma
lenders
twe@@
relli
atus
polio
devi@@
Duncan
Views@@
icious
.ua
echn@@
immunization
Б
osion
Titanic
contested
eson
Wallace
deviations
classifications
stell@@
fut@@
train@@
Firefox
glo@@
intellect
AC.109
Herbert
sounded
cheat
ghty
syrup
Eradication
neutron
oil@@
大@@
Welsh
reciprocal
Licens@@
telecom
Dame
algae
infect
Nikolay
mud@@
Hubble
juices
ifying
occasional
fab@@
Important
crip@@
df
Novosti
exemplary
Copyright
actional
Warner
Abkhaz
protracted
statutes
defer
Sally
ک
prostitute
Needs
iland
Governors
rationale
Beli@@
param@@
Timothy
conveyed
Schneider
1840
Islamist
Cooperative
simplification
placeable
RID
endeav@@
microfinance
Nights
obsessed
Yellow@@
Beyond
liberties
blackmail
Ka
sue
canned
SKU
emitted
unfinished
aceful
recurring
stent
Cry
programmatic
orient@@
needing
1880
schoolchildren
detectors
skating
aven@@
licences
returnees
ERP
sanction
Unified
coronary
collateral
Miles
prophecy
wrinkles
iTunes
Gand@@
psyche
bizarre
Zhang
SpaceX
Documentation
skeptical
conceptions
bail
1860
comparisons
fined
learnt
Lena
meteo
issu@@
hint
☆
cortex
curator
onwards
க@@
omer@@
პ@@
Christi@@
proletarian
pdf
indictment
irrelevant
edes
notions
Carrie
Poltava
ansa
glacier
ulls
bark
lymph
streamlining
administer
compatriots
synergy
mistress
Venetian
Betty
liar
Schul@@
fragmentation
theatrical
insult
Hampshire
tactic
Much
1888
Kitts
induce
elic
commerci@@
sured
curves
indul@@
ecu@@
ansky
pla@@
Facts
rude
tedness
Consulate
classics
confidently
Stone@@
Toy@@
sabotage
premier
hemorrhoids
interpreting
ィ@@
dismantling
separatist
smil@@
tolerated
ISIL
admissible
abortions
importation
tricky
attaining
swept
intru@@
Subcommission
Gret@@
Citizen
unwilling
toilets
plains
nutri@@
ecommerce
strives
ethanol
meric
Add@@
impres@@
bey
1896
undermines
underestimated
cultivate
pastor
Amur
Angl@@
termed
Approval
calibr@@
embraced
Archbishop
stellar
Moo@@
destabilizing
uncertainties
YP
inaccessible
AIR@@
Funds
fist
Ilya
faculties
awn
orbits
Hugh
geared
diversion
transl@@
Overseas
exaggerated
psychiatrist
pathways
arche@@
entic
Ole@@
scopy
Info
revolution@@
Advoc@@
gifted
agendas
Hughes
Stud@@
𝐴@@
Fy@@
sympath@@
elders
Sunni
Sergio
ishable
Abuse
itate
junk
expires
inauguration
derness
produc@@
Clarke
atl@@
1,4@@
requisite
copes
Yale
Plans
mol
UNDCP
Berry
toes
banknotes
coag@@
quit@@
Sources
joins
countermeasures
atol@@
DAY
Agro@@
tually
checkpoints
embryo
artis@@
oppressed
Idea
Theresa
IBA
enture
apology
neighbour@@
Qual@@
Nevis
patrols
Tomorrow
pathogens
boxer
litigation
Core@@
150,000
Argent@@
enly
quick@@
Sisters
pharmaceuticals
Ruth
Zuckerberg
criticize
blogging
alleviation
modernize
deed
affiliation
Kyrgyz@@
conceal
Koreans
receipts
poorer
dictator
urer
Your@@
Davos
imagery
dled
dred
impeded
udes
some@@
Chair@@
sensual
usal
hash
trimester
plun@@
serotonin
ority
tigh@@
lesions
superficial
icating
crossover
Congres@@
Arist@@
vigorous
Sami
govern@@
mined
vide@@
Sister
snip@@
sium
Diplomatic
Tokelau
Polytechnic
Jeffrey
nover
INF@@
aned
Decolonization
tolerant
onos@@
itively
condemning
recognizable
autoimmune
Siri@@
tiveness
Harold
MPs
originality
Conf@@
applause
preamble
initiating
hygienic
UNU
postgraduate
elevation
pref@@
vol
Ibid
PV.@@
rested
ì@@
wrink@@
Bailey
prototypes
forcibly
aspire
Sergeant
rho@@
Counsel@@
centrally
ジ@@
solitary
logically
Nikola@@
ü
hears
impe@@
Ivanov
palaces
marsh@@
Depos@@
sively
stret@@
tuition
Christina
Improve
recep@@
translating
Aeroflot
singers
Combating
Κ@@
erec@@
TASS
endocrine
intellectuals
Prof.
McG@@
ensk
レ@@
Preparation
expedi@@
donate
aggressor
commemorate
Nixon
Beck@@
Quantum
Equip@@
UNPROFOR
Selection
Cair@@
dissatisfaction
Happen@@
lys@@
adju@@
І@@
routinely
enduring
escence
unidentified
stretches
helpless
lad
Hass@@
բ@@
Clin@@
redness
mone@@
UNIS@@
uncovered
plantation
blindness
Qur
aler@@
absorbing
Ilham
adol@@
pus
whichever
osity
Luther@@
Hawking
favour@@
Meteorological
repay
Dagestan
dermat@@
osteoporosis
uly
Nir@@
sider
predicting
inion
nationalists
principally
Kivu
hoods
CEB
hug
soils
digging
orchestr@@
Wilhelm
Archaeological
Mozart
Electricity
addic@@
angled
Master@@
struction
AMISOM
ovna
Ecology
marathon
dening
stem@@
trusts
fleeing
remittances
Bethlehem
analogues
militant
herpes
allegation
constituting
Gen
roster
oods
consul@@
grouping
Telecom
Pand@@
acquaintances
brochures
SOC
cook@@
Deputies
manuel
บ@@
Westminster
Conventional
cious
Dalai
raids
distribu@@
disturb
isations
VTB
tides
egal
aggravated
Freedoms
pave
tionality
Beta
SION
ripe
rifles
Krak@@
analytic
Safe@@
dehydration
attainable
sulphur
dir@@
Arusha
scans
ubs
coping
inseparable
POL
indefinite
underline
ayas
nursery
ecture
bust@@
intensification
undue
invaders
Rent
monopol@@
ADN
alleg@@
subsection
itous
tland
climbed
Bonus
Jedi
Artsakh
reti@@
borrower
Tatiana
oranges
deleting
Journ@@
modifying
1899
Enforced
lowers
phosphorus
Poor
Mosul
integrates
demonstrators
desp@@
CRP.@@
Sverdlovsk
directs
pert
homosexual
Bentley
textbook
Even
lengths
pleas@@
contraceptive
erly
Phar@@
leuk@@
radic@@
guardians
approving
wilderness
paved
Interpol
cooperates
sworn
onym
ensla@@
affirmative
otov
Nursultan
congenital
𝑨@@
dull
crowds
aldehyde
ferences
policeman
waterways
Salman
disks
spherical
Relationship
forehead
国@@
Timo@@
rical
margins
pros
leaks
synchronization
sexes
embarked
paci@@
―
prolong
depreciation
Interfax
Maurice
etes
️
arial
culinary
Julius
puppies
Said
ò
capturing
immortality
omer
ز
scep@@
junc@@
ologies
&apos;clock
Qualcomm
frontal
Seas
タ@@
Coming
adic
Princeton
Entrepreneurship
regiment
Jinping
emigration
rabbits
millionaire
assimil@@
excludes
opping
cataly@@
Phys@@
sq.m
arbitrarily
emit
yk
blood@@
ographs
Challenges
assortment
capitalists
taxable
overtime
present@@
declines
localized
whales
repercussions
𝓐@@
Saakashvili
athle@@
whe@@
-you
pering
Geo@@
Mahmoud
Α@@
idle
stabilized
Outcome
imposes
uninterrupted
illum@@
з
stationed
Mold@@
Lou
Sheriff
Mong@@
5.
rite
Indo
tails
departed
CCW
compares
follic@@
hampered
Ж@@
supplementing
Beth
swords
ウ@@
Todd
breasts
.m@@
Wild@@
alphab@@
commun@@
routers
uniquely
stipul@@
honey@@
acquires
Rost@@
coaching
Museums
Presentation
IDPs
alge@@
bribery
pulmonary
endometri@@
instr@@
fus@@
dentistry
advisors
mentor
Homer
verifiable
converts
bowel
blow@@
dire
ophobic
bulletin
tranqu@@
ellip@@
queue
Karak@@
POPs
Dmit@@
Substances
Contributions
Hank
frank
Yourself
treasury
dev
rigen@@
shelling
identi@@
Seas@@
seless
Subsidiary
enium
blogger
deception
graphs
encompass
Madame
commits
expon@@
upheld
MSC
heir
aerobic
Sacred
host@@
shutdown
preconditions
STEM
outward
eradicating
verb@@
coatings
parat@@
cryst@@
humiliation
Hannah
uled
omers
ographical
masterpieces
Christie
avoc@@
confessed
importers
polluted
corrective
Colon@@
Joey
backwards
Nos@@
crater
Geographic
miserable
Semitic
obese
Adventures
presumption
flagrant
note@@
compos@@
imov
Fukushima
♥
mare
lette
ferrous
victorious
bios@@
instincts
sober
discouraged
judgements
gram@@
Wu
Jan.
1812
Jord@@
offended
persists
intu@@
Achi@@
mys@@
oot@@
Cause
Fifty
scourge
admits
mort@@
agrarian
CSTO
Salisbury
ych@@
Oceans
cradle
Chairmen
Certific@@
Sherlock
restra@@
Photoshop
כ@@
icular
acceding
urinary
unforeseen
triumph@@
Manu@@
semi@@
encycl@@
NAP@@
Minor
Chanel
Average
viewpoint
tedly
Shaw
admiration
Giuli@@
Films
rushed
asers
depressive
Eliz@@
southeastern
MINURSO
raining
TIRExB
Sche@@
С
suffice
NLB
repatri@@
inev@@
Fs
Hopkins
ulous
Mutual
‑
Cen@@
greed
natives
transgender
reef
tarian
evangel@@
phosphate
premi@@
terrifying
Places
mutilation
Categories
fracture
Dmitri@@
François
PRESIDENT
Hermitage
Homeland
prognosis
sings
appropriations
NBC
turmoil
empathy
CDs
Gazette
vsky
rennial
ypical
catar@@
Authorities
spiritually
governors
U.
arev
Pskov
scoring
qualitatively
normalize
paper@@
obj@@
particulate
stine
torn@@
mountain@@
educating
horizon@@
grounded
pathway
melanoma
mitigating
Hawaiian
monarch
blers
effected
Assy@@
1940s
revolt
affaires
voys
lead@@
acceler@@
boycott
simulate
whereabouts
consumes
atro@@
filtered
song@@
custo@@
transmitters
greatness
Radio@@
Natalie
buys
contempt
horizons
culturally
bloodstream
galactic
UNFICYP
itte
fools
deposition
Ivorian
rectify
Creed
Alexis
intro@@
bastard
multifaceted
folklore
confronting
ophysical
WMO
plugins
Carnegie
ignorant
speculative
GAZ
thic
derivative
troubl@@
foc@@
bians
derog@@
PRST
anticipation
cleans@@
grav@@
null
multilateralism
Less
Krem@@
clarifying
trusting
nephew
Ferdinand
crust
summar@@
altering
sme@@
headlines
analogue
comment@@
pains
McCartney
Harper
dea
warheads
instructors
reconstructed
Khmer
behold
ת@@
flooded
Ronaldo
awkward
noisy
interfe@@
lender
Leslie
UNITA
CBS
inski
nationalization
cultiv@@
rans@@
orium
Josef
inhibit
hopeless
endemic
trun@@
Apache
ADHD
ytes
lel
translators
Coin@@
glori@@
fictional
stats
Speech
bytes
Entity
Regulatory
nadzor
devastated
presumed
gtr
Guild
univers@@
apost@@
bour@@
）
fungi
cocc@@
secre@@
Cemetery
portals
Asset
debated
spies
puppet
contests
NSA
terri@@
dancers
resum@@
Municipality
contributor
Become
forgiven
computational
Gren@@
suppressed
delegated
phar@@
Scientists
Gilbert
Oct.
politici@@
antidepressants
wagon
reversible
oblig@@
interruption
honoured
majestic
petrochemical
constrained
Wizard
Commod@@
Assassin
shale
geo
synagogue
shad@@
surrendered
WG.@@
Crypto@@
2040
sender
❤
adolescence
Ily@@
reng@@
arguably
weighed
Lion@@
precursors
Erik
Sasha
Liability
Handbook
bucks
skill@@
interfering
Launch
identifiable
clues
earth@@
ayne
Past
Defender
gangs
humili@@
glaciers
Mecca
interdependent
sibly
landmarks
Aliens
specificity
Bulletin
Connor
ο
identifier
prosecutions
migrated
casc@@
doubling
compul@@
bullying
Adaptation
Molly
rents
issuer
ointment
vania
gymn@@
Amendments
fores@@
envisages
inov
athlon
depart
아@@
uated
ensee
Eli
endanger
ド@@
incorrectly
Corp
Econom@@
conce@@
pep@@
subj@@
Maidan
Cryp@@
Unknown
metabol@@
shipbuilding
transitions
alt@@
1870
prohibitions
polymers
epidemiological
Explo@@
GHG
Bolshevik
fear@@
perc@@
Secondary
Derek
morally
endeavor
ω@@
unbelievable
swiftly
PRC
username
Transformation
arid
Script
Klaus
guitarist
bloc@@
ogly@@
incid@@
auri
themed
oxidi@@
sanctioned
BMI
traum@@
ν
then@@
boast
hometown
Yev@@
honeymoon
Aboriginal
Expe@@
pests
rovich
commemoration
terraces
purified
Mandela
tresses
Martha
chant
Balk@@
distract
chann@@
encounters
II.@@
distinguishing
Tsar
Exploration
1898
pivotal
flock
Casey
confron@@
rigi@@
hull
contraceptives
homogeneous
entertain
Wagner
wild@@
permitting
hypothetical
fru@@
function@@
stock@@
thrilled
intoxication
Colom@@
supervise
grass@@
თ@@
Telecommunication
Urals
UNIC@@
hoo
Tonga
generalized
IRU
umentation
inhibitors
afforded
Mexic@@
Disability
grees
ambiguous
demarcation
MiG
eases
cognition
passions
Refund
Changes
ע@@
2.1.@@
Republics
gigantic
pathogenic
SC.3
Organizational
convoy
classify
alie
tanker
Missile
empowering
vod@@
six@@
irre@@
mindset
Aus@@
reputable
wisely
abstr@@
scription
zhan
Ulyanovsk
Bloom@@
Beverly
telem@@
syndic@@
admired
Goldman
Ordinance
depl@@
thinkers
plunge
Psychiat@@
deliber@@
bids
preserv@@
trails
Chargé
mila
CEC
resh@@
fountains
theli@@
ง@@
cereals
gene@@
pilgrimage
comprehensively
partisan
hints
theological
preaching
leukemia
paren@@
allah
bible
resides
Nikita
consec@@
Societies
recei@@
practicable
Fred@@
Alg@@
carto@@
arism
lodged
refrigerators
spot@@
precursor
Civilian
sincerity
Shevchenko
biopsy
discriminate
McCain
Would
B.C.
aston@@
indic@@
knocked
confinement
microscopic
-the
inconvenience
Kerch
ז@@
tians
favoured
continu@@
Micronesia
hypno@@
freel@@
Pal
stam@@
monumental
Fame
oligarchs
drastic
liners
strate
senators
drills
Once
moth
osen
Cath@@
ᵃ@@
Publis@@
archs
job@@
exes
advertised
Extraordinary
intrinsic
fli@@
spike
Kimberley
Edwards
LLP
pupil
tov
morals
Ph.D.
stabilizing
Seville
bargain
enact
Euros
Agencies
Pric@@
น
chaotic
magne@@
plaque
retrieve
Commons
approvals
prece@@
bov
liquidated
Quinn
blows
sustain@@
elu@@
witnessing
subsidy
acea
percep@@
dious
policemen
cath@@
Particip@@
DPR
1701
IRA
Arkhangelsk
Jaz@@
loos@@
impotence
perpetrator
Peskov
broadc@@
pens@@
Ark
enig@@
guarantor
overwhelmed
bosses
supersti@@
devised
reform@@
conceive
scarcity
UNMO@@
Mines
gars
Mariupol
parenting
Hey@@
1,6@@
supervisor
rejecting
yment
sculptor
impossibility
Advice
bites
forging
signaling
ா@@
Almighty
dilemma
otechn@@
finger@@
hopeful
para@@
motherhood
financi@@
Ide@@
yuk
gt
ensuing
remarkably
tus@@
Fasc@@
STA
β@@
habitats
Revi@@
distinguishes
format@@
fidelity
retri@@
1830
Tril@@
reflections
uted
disrupted
cite
Yulia
asm
distracted
companions
warranted
MasterCard
onry
inct
chore@@
iP@@
Certain
fai@@
Doro@@
gov
GOST
Umoja
manip@@
passages
Kara
Jap@@
spontaneously
mediator
Biom@@
evidently
metro@@
Camel@@
Tsi@@
catalytic
Yakutia
modernized
tweet
bargaining
streamlined
demon@@
guit@@
IKEA
greens
impurities
tiers
Մ@@
astronomer
icates
Renewable
mechanic
uniformity
anor
ession@@
provocations
Edgar
Bess@@
franc@@
owes
truste@@
incre@@
ADB
nonprofit
cence
Commun@@
（
obligated
Excellence
Stocks
boil
pesticide
backbone
federations
importer
adel
reland
Legion
Indicators
Trin@@
plain@@
Celtic
multidimensional
theses
chiefs
casts
nutritious
pluralism
guins
commemorative
assembling
1820
clim@@
Yusu@@
ē@@
multicultural
sacrificed
aggreg@@
Bukhara
psychotherapy
undergraduate
uncover
ATO
calmly
concentr@@
thful
secon@@
jour@@
reefs
solvents
Maggie
sequel
attacker
transcend@@
agor@@
variability
Childhood
profoundly
harma
itsky
joyful
13,@@
diluted
Present
arsenals
princes
Chur@@
unreliable
disturbance
Hiz@@
Rockefeller
friend@@
speci@@
Contrac@@
succ@@
Tatyana
demining
gest
mastered
antennas
tranquility
skyi
manifests
groupings
borrowers
geology
shortened
splendid
packets
unconditionally
Yeltsin
lywood
ס
Jules
deton@@
Soros
sanity
come@@
onboard
ɐ@@
unrealistic
manned
Contracts
uries
girl@@
Experim@@
ysics
Turkic
sketches
Gibson
oin
lifestyles
instalment
simulated
moderation
spective
widening
stead@@
renov@@
Conservative
Drac@@
Sebas@@
relics
panel@@
rak@@
ophthal@@
affirming
APR
lep@@
Biden
nap
elevators
Vitebsk
ス
iture
differenti@@
responsibly
州
Zakhar@@
marrow
1,3@@
scheduling
thoughtful
Arbitr@@
crossings
contagious
Adriatic
consulate
regrettable
relessly
Rank
warships
Augu@@
demilit@@
Remember
tyranny
liberalism
anyan
automate
Unions
Ano@@
respondent
15,@@
unsustainable
replica
retailer
replenishment
chak@@
accuse
conceivable
salons
fetal
ashvili
pation
Requi@@
trav@@
Influ@@
Yal@@
Specific
unfavorable
righteousness
acre
Bonnie
shoots
alteration
alim@@
ル
ர@@
Codes
Auschwitz
psychotropic
tenders
asbestos
deterrence
Were
cun@@
Vadim
robbed
wei@@
Sanctions
DIS
opl@@
redistribution
statistically
complementarity
Gmail
partments
hardcore
dram@@
crossroads
indiscriminate
externally
OJSC
backyard
heartbeat
Clients
Chr@@
dissatisfied
atorial
Moody
depositary
diaspora
Consideration
exclu@@
4.1.@@
deems
accusing
eron
Ecos@@
migratory
inclu@@
MTS
whites
enlightened
PPC
prehistoric
corpor@@
botanical
11,@@
vegan
evasion
Develop
Pho@@
negligence
less@@
Sinai
addicted
McLaren
SADC
finalization
sociological
pedestrians
benefiting
itude
clue
landers
Coordin@@
taxed
dispatched
villagers
ropolis
comparatively
jumps
retaliation
axes
colonization
bloodshed
advocating
circled
structuring
CCP
utr@@
Wait
Geography
mary
supr@@
specimens
commensurate
commemor@@
Dynamics
hamm@@
organisational
interstate
Regiment
Likes
horri@@
lightly
disintegration
narcotics
siblings
cereal
etary
1,7@@
brink
otropic
firmware
headquartered
lux@@
ghan
Malcolm
mind@@
1848
ecks
onomics
hness
bard
trag@@
articulated
operatives
afterward
Katie
accelerator
Specialist
elong@@
Rogo@@
AC.1
claimer
exhibitors
odynamic
Komsom@@
HPV
CEP
astonishing
Wisdom
profiling
【
covenant
Consolidated
ف
expeditions
forwarding
disconnect
3,500
dared
sympathetic
taxis
ghs
Revenue
Jung
mommy
Smol@@
Contractor
womb
eers
constipation
adore
pope
Granting
Wag@@
Such
Mafia
vial
Yat@@
Busin@@
Monter@@
pheres
opol
inters
Geographical
takte
consoles
X.
prejudices
ancestor
IRS
insertion
Persi@@
sweeping
illegitimate
lubricants
literal
reiterating
Simp@@
escorted
reformed
dictate
sinks
cancerous
symposium
Lords
warts
Avoid
Grec@@
disp@@
Comment
ovarian
Sundays
Guiding
Molecular
Chall@@
chromosome
Annan
ç
Bail@@
pilgrims
subscriber
pretending
edible
eldest
lowship
demolished
witches
spoil
EXPO
regression
policymaking
Ō@@
Those
merging
Pascal
communion
neft
estan
Reynolds
Americ@@
odus
attorneys
innov@@
courtesy
ovsk
thromb@@
80,000
Myster@@
Xinjiang
SME
إ@@
shouted
p.
Ernst
tram@@
Persia
Kaspersky
ggers
WP.15
deceive
prerog@@
sourcing
burgh
categorically
ument@@
SES
Orders
yachts
forbid
º@@
erous
fungal
horrific
Nichol@@
OPCW
Sergi@@
blew
Believe
Chris@@
novel@@
Mona
Resolutions
aires
protagonist
flammable
kindergartens
&apos;you
precip@@
marginalization
assion
Audrey
hypnosis
Kuznet@@
replication
Yalta
convertible
quake
Sachs
portrayed
moderately
complication
openings
follow@@
unaccompanied
icon@@
variance
hil
Berm@@
Foods
ŏ@@
Hud@@
pup@@
Î@@
thinner
readable
vanished
franch@@
hrer
drafts
indivisible
ancers
stimuli
yss
awaken
vested
persuaded
swit@@
invoke
arding
plur@@
Ⓐ@@
insecure
infinitely
Liam
tenants
Novor@@
Maurit@@
Ninth
Glenn
destabilize
CRIC
immersion
ritis
fugi@@
confessions
agons
country@@
timately
petty
】
lucrative
fashioned
bibli@@
offenses
Kamchatka
shoppers
reacts
wiped
sanctuary
Smolensk
aido
citrus
pent
emanating
overes@@
reuse
cholera
Kaluga
cytes
diplomas
multilingual
contempl@@
Finn
Ericsson
cries
longitudinal
Diabetes
typho@@
Tournament
FORM@@
40th
proclamation
dispersed
ifications
embark
doubtful
hegemony
balcon@@
Lives
nage
renounce
Them
sow
aristocr@@
polarization
supremacy
harmonizing
sement
Snowden
revived
chari@@
tigers
1889
foodstuffs
mathematician
embracing
Damon
downturn
UNAMA
chman
quarantine
neighborhoods
caliber
metallurgical
Lennon
predetermined
a.i.
pater@@
Opportunity
Publishing
fiel@@
covert
atov
1895
fascinated
fra@@
Reve@@
attachments
Detention
BCE
learners
repeal
escu
footing
&apos;it
prudent
encompassing
Councils
テ@@
Sabbath
U.@@
arities
detriment
billing
Odys@@
14,@@
secretion
erian
Capitol
Klim@@
keepers
Missions
OPS
rejoice
stering
adver@@
adrenaline
Something
inaction
COP.@@
Nov.
Absolute
illian
Corpor@@
spill
roadmap
ferr@@
suburban
orov
dissid@@
Juliet
encoding
Sharif
Comedy
urov
Zub@@
crashes
concentrating
Feb.
defenses
Tall@@
anthropogenic
touring
abed
complicate
Ask
depletion
domes@@
monopolies
chak
‌
grou@@
blur@@
jure
lanes
hospitalization
Deci@@
Nauru
riches
colo@@
expeditiously
cleanse
enthusiastic
metallurgy
Hebron
ป@@
esters
Isaiah
Ludwig
FROM
exer@@
slogans
ounced
Bennett
EB.AIR
bombings
stockpiles
armament
leav@@
renko
impati@@
vigorously
dialec@@
mour@@
aromatic
epidemics
Graduate
alum@@
gr
evalu@@
spur
semantic
timeliness
emphasi@@
Chloe
mamm@@
Vasily
Janet
RBC
reservoirs
Krai
know@@
rapper
guru
bottled
fabrication
OAS
revising
drowned
RSS
interpersonal
Promote
limestone
devise
invade
graduating
dimin@@
mantle
enforcing
septic
immersed
nominate
unfounded
Wolfgang
drun@@
Secrets
chemically
Σ@@
Anatol@@
tyr
colonialism
egr@@
INF.@@
experimentation
Royce
thriving
fashi@@
cruiser
weighted
ilee
relocated
summed
vings
infiltr@@
experimenting
civilisation
Poli@@
instantane@@
Tor
vey
sures
admi@@
tise
spectral
atherosclerosis
deduction
vaccinations
Carpath@@
vertebr@@
φ@@
technician
ச@@
footsteps
Palmer
mails
Priority
Bodies
metaphor
prostitutes
World@@
workplaces
unbearable
ende@@
film@@
Corr@@
disco@@
incar@@
halfway
strum
prolong@@
receivable
dismiss
GTA
asserts
GNU
Dana
conspir@@
Lugansk
nautical
rapporteur
bore@@
Martian
Facilitation
Charity
duci@@
extradite
veda
idated
fixes
airborne
promul@@
dopamine
benign
cores
iat@@
Angelina
millennia
subsidi@@
search@@
ridic@@
aggres@@
noc@@
utri@@
percei@@
store@@
torpe@@
pathy
indem@@
retre@@
rhe@@
Terror
practitioner
wing@@
Katherine
sore
suck
nally
Sahel
redemption
Harv@@
afflic@@
ะ@@
mourning
pursuance
ulted
ause
postpon@@
ニ@@
Starbucks
Periodic
Interpre@@
Kenneth
PSA
gnee
polarity
Facilit@@
reminiscent
phic
hierarchical
checkpoint
migraine
veget@@
chau@@
envi@@
outright
derives
Saxon
urgy
chickens
dialysis
underpin@@
brokerage
è
Kommersant
motorway
treason
superpower
Mubarak
Kepler
degenerative
porters
birthplace
competences
malfunction
Discipl@@
ateful
sni@@
Afro
shrinking
anity
sier
deplo@@
championships
asov
witter
Colos@@
itarianism
Purchase
guise
indoors
600,000
hid@@
indifference
lobbying
exchang@@
erial
vil
CHA
mob
assuring
drown
rish
baptized
orian
khan
reckless
drawbacks
3.2.@@
multiplied
ressing
apportionment
disinformation
stripped
weaponry
Hier@@
legitim@@
Gram@@
Mete@@
hurricanes
orous
sau@@
thankfully
Democrat
Investig@@
extraterrestrial
क@@
Karelia
≤
technologically
excessively
sweating
Aral
solids
dragged
fellowship
拉@@
ledger
excuses
appointing
regrettably
UNE@@
computerized
originals
1874
abnormalities
tensive
senator
70th
Shang@@
Anonymous
Libra
verbs
embarr@@
spiders
composers
Investigations
escalating
ictions
textures
cloning
imperfect
1897
Libr@@
cannon
Ecumenical
expel
Invest
carbohydrate
Decisions
essive
banker
discovers
sugars
Luf@@
reluctance
riot
deliver@@
Nai@@
calend@@
theart
contingents
Interview
Opinion
reson@@
Revelation
eability
classmates
Diane
deteriorate
millim@@
GRSP
generosity
necessities
familiarize
summaries
Ownership
म@@
fasc@@
라@@
arterial
coincided
detox@@
Maybe
advises
Modern@@
subprogrammes
nev
Journalists
Cyber
overlapping
alterations
Method@@
ucle@@
eption
inspires
Cameltoe
explores
Cypriots
toxin
contraction
wakes
absorbs
compromises
verifying
manipulated
orr@@
amphetamine
Disabled
Arrang@@
descended
slaugh@@
Empowerment
conut
Assets
Valer@@
clinically
idating
confl@@
dists
acqui@@
greet
append@@
thirsty
Doctors
oist
losers
neutralize
listings
Medieval
underscores
locating
overarching
prise
knowingly
tombs
Bulg@@
hurting
liberals
spokeswoman
theatres
coincides
preventable
proudly
surrounds
Elder
SNA
ression
hypotheses
Initiatives
reparations
hacked
POP@@
tougher
Achiev@@
simulations
phony
slows
volunte@@
therapists
Homo
Philharmonic
nasty
न@@
Intolerance
fortified
Roth@@
refe@@
right@@
assimilation
Tillerson
lement
magician
sus@@
hies
WP.1
plateau
Vinc@@
Ekaterina
otechnology
dup
ailments
stagn@@
arranging
1863
uate
upside
pard
undeniable
enrol@@
tentative
Reliable
sary
agog@@
ectomy
vable
unjustified
terrified
propetrovsk
Found@@
moons
Ayur@@
Ernest
virtues
1894
lapse
residues
terribly
reset@@
invariably
Wealth
drowning
צ@@
cong@@
Hemisphere
meteor@@
intriguing
corpse
stimulated
NIS
performer
consp@@
tsov
antic@@
reth@@
ammon@@
deri@@
discrepancies
evna
ფ@@
retali@@
Sons
GOD
fractures
Uran@@
gras@@
involuntary
disgusting
Restoration
Investigative
abeth
aretz
omed
Thought
achievable
pioneers
Moder@@
stimul@@
pouring
utable
shin
bail@@
WORK
implicit
Accor@@
portr@@
rets
telec@@
Identity
Resurrection
rallies
unavoidable
exploiting
miraculous
sedentary
worsened
Zaire
Louvre
Flynn
ப@@
burdens
chewing
Mystery
Fathers
vious
Everest
چ@@
disciplined
Jolie
anthrop@@
prehen@@
Duchess
bery
naming
Accreditation
Whitney
rheumatoid
photons
vectors
70,000
microbial
preach
preclude
exter@@
breathtaking
subtitles
needless
rists
Publications
Wife
incremental
idol
symbolism
discrepancy
baptism
embryos
Abb@@
puzz@@
construed
1871
riders
Share@@
claimants
Vacc@@
akova
subsoil
Torah
drome
♦
knowledgeable
esel@@
mination
starving
Disneyland
lump
excer@@
constructively
breadth
ularity
ych
inval@@
sufficiency
onians
ourable
ystem
ร
clarifications
Northeast
grabbed
Herman
nightmares
master@@
stigma
sq.
Ambassadors
Founder
ikh
orthodox
appren@@
Emplo@@
chromosomes
procuring
Grenadines
flown
erad@@
anticip@@
shields
plantations
sitemap
hedr@@
Alco@@
practi@@
dilig@@
unnoticed
frontiers
shorten
Kolom@@
spect@@
led@@
Saul
unrestricted
ABO@@
lecturer
encryp@@
payroll
betray
endowed
orship
Retur@@
francs
indexes
pregn@@
ulcers
LAC
constituents
ramp@@
fermentation
Postal
ύ@@
Progressive
Evidence
bilingual
synchronized
disappearing
loser
itus
hers
abstraction
fron@@
fluent
fossils
continual
scalable
dwar@@
substituted
canals
Nur
rewarding
grids
econom@@
Respect
Karma
tober
Volodymyr
Provisions
バ@@
deserts
1893
alien@@
obstruction
OUR
nul@@
transfer@@
testified
trivial
aldo
Natal@@
halted
conferred
omet@@
1,8@@
precedence
Appro@@
ensu@@
victor@@
tuary
paralyzed
Schum@@
regim@@
cohe@@
Prav@@
fundament@@
Incre@@
propelled
nels
reminding
EECCA
Rivi@@
thirtieth
USS
poetic
Restric@@
Analytical
fragmented
histor@@
manoeu@@
Counsel
carot@@
Spam
Late
volunteering
Communism
iden@@
ensky
UNOMIG
digest
cements
happiest
elaborating
democratically
traitor
revert
famously
GRRF
itentiary
WADA
mosquitoes
jeopardize
Serge@@
phenomenal
concep@@
repro@@
ishness
depicts
clear@@
envoy
Benedict
ocytes
glyc@@
summarizes
captivity
tertiary
Republika
Borders
victim@@
edema
pher
Doc
extremes
detailing
Supervision
insectici@@
Karaganda
Princ@@
hanged
Đ@@
avail
elim@@
Educ@@
plementary
Stepan@@
պ@@
premiums
Abyei
tories
brethren
Q.
tripartite
uments
loe
immoral
byp@@
fantasies
brain@@
battalions
Prok@@
discrimin@@
awarding
heirs
urban@@
hash@@
chequ@@
deterrent
acknowledgement
mies
Genti@@
wrec@@
prevailed
eim@@
unition
suspicions
fungus
unfold
hind
morbidity
attribu@@
Recogn@@
feminist
Weekly
swa@@
folic
escalate
week@@
gladly
emerges
subscriptions
legislators
Meyer
atology
Mikha@@
icism
vens
Philip@@
Improving
Carol@@
hemoglobin
summoned
comprehension
matism
Effici@@
Bowie
ruthless
Scandinavia
bromide
sentiments
nobility
hamper
principled
ogenesis
suicidal
Recon@@
Koval@@
Zeus
canyon
impover@@
Admir@@
sova
orphan
ander@@
supervis@@
cauc@@
🅐@@
Ｈ@@
Rashi@@
flourish
mash
exor@@
gaseous
analogous
punitive
opian
aeg@@
NOx
intrac@@
billionaires
revoked
dop@@
evacuate
instinc@@
Payments
therly
chairpersons
lympho@@
deceived
cynical
throws
idze
amazingly
Metals
proportionate
itably
UNF@@
colds
Naf@@
feudal
Dynamo
archival
flag@@
avenues
contradicts
awakened
Cyrus
underscore
Pollut@@
Hap@@
UNME@@
cobalt
Australians
Bundes@@
tication
landscap@@
Mug@@
collisions
semen
irony
spying
habitual
Tuvalu
enth
Vasili@@
tragedies
compliment
correcting
parked
ascer@@
promot@@
gn
lex@@
repetitive
Opposition
Elon
metaph@@
cathe@@
Thre@@
listeners
opic
cyan@@
applic@@
robi
INSTRAW
Maxwell
atts
Biodiversity
ombud@@
derm@@
choir
cardinal
Begin
intra
1861
Ubuntu
e.com
1881
Voy@@
Thinking
harv@@
tify
diers
ہ
amphibi@@
repeats
Freddie
maneu@@
stasy
anatomical
protectionism
ectable
peace@@
millimeters
Srpska
pioneering
Moh@@
parc@@
splitting
16,@@
Cauc@@
voy@@
FIG
gluc@@
relieved
vigilant
meditate
allocating
sionist
dissertation
obscure
Sist@@
Hosting
liter@@
parachute
GRPE
vowed
uns
0s
harsh@@
seabed
Mueller
ishu
UPR
expropri@@
Abram@@
Cret@@
depicting
Heather
doms
turtles
depleted
aggressively
interlocutors
libido
Context
interpretative
overhaul
distur@@
codification
chanting
Ä@@
yrinth
surve@@
Motherland
alarmed
abstain
Bing
gossi@@
hesitation
implementations
sq
digitalization
Juven@@
ferring
belongings
Ā@@
ICSC
Departments
geothermal
defin@@
reviewers
vot@@
interpreters
ा
Nazism
video@@
erto
agre@@
GRSG
Experi@@
Synod
オ@@
dictated
■
humility
captures
liberate
Khalifa
sleeps
fearing
ł
pseu@@
caste
mucous
dismantled
Ibn
petro@@
pretrial
adj@@
cred@@
outflow
Highness
scanned
ffic@@
redirect
activating
rhythms
UNCDF
Olympiad
pressive
enthusi@@
invests
uality
Կ@@
joy@@
elo@@
front@@
distrust
anomalies
logist
clerosis
recruits
cortisol
coc@@
MTV
ceremonial
Trojan
upwards
infer@@
pleasing
bursts
stadiums
devoid
Appe@@
ynthesis
otech
″
adhered
earns
Prussia
notary
achment
Websites
bronch@@
،
expendable
summarize
achy@@
forc@@
substitutes
Auditor
adversaries
bile
explorer
prophe@@
markings
portation
authorisation
щ@@
cere@@
disproportionately
shouting
broadening
sinking
finalizing
anguard
THC
Rabbi
Colum@@
immerse
conclusive
behavioural
repressive
reciprocity
childcare
midterm
conserve
encer
basi@@
Provincial
prising
basins
bloo@@
Haley
brotherhood
1865
ouri
siding
survivor
synthesized
vastly
aS
coa
Marines
exam@@
heter@@
evenings
rivalry
Sections
Billboard
Hercul@@
Patricia
tast@@
inets
Provision
telep@@
cleanliness
IMIS
aesthe@@
degeneration
Doug
precondition
Word@@
แ@@
kilogram
Suez
ideologies
adv@@
jeopardi@@
reptiles
detached
austerity
Kyrgy@@
unequivocal
icillin
Gregor
Ahmad@@
ल@@
salty
tices
expen@@
Doctrine
emaker
communists
Mustafa
simpl@@
nance
Guinness
flavors
garden@@
َ@@
GRO@@
Abroad
rethink
Dang@@
ographers
fisherman
ords
coronavirus
Humanity
inaugurated
psychologically
NPP
LSD
jewel@@
Ferguson
dison
pension@@
exempted
inertia
wart
Evgen@@
dergar@@
ejaculation
upholding
contemporaries
1,5
ض@@
impul@@
1267
dislike
elas@@
receivables
sche@@
pagan
Buddhists
regimen
Osama
ocar@@
fairs
ironically
itiner@@
unci@@
🅰@@
conciliation
humid
stati@@
refinery
oasis
Legislation
powerless
negotiable
precautionary
trafficked
bluepr@@
स@@
Buffett
1891
malls
differed
opportun@@
invoices
miscarriage
Megan
Innovations
Grodno
1882
ardly
afil
ٹ@@
Paralympic
cartilage
irregularities
Jerem@@
fice
seafarers
authentic@@
′
intensifying
Marshal
Englis@@
heav@@
Charlot@@
anded
paramilitary
retina
aided
stealth
devaluation
chill
isers
Norman@@
erupted
specimen
sick@@
ு@@
costing
itories
firefighters
tious
preced@@
Socialism
euph@@
controllable
commandments
Who@@
seniors
locomotive
Civilizations
pollen
policing
Partnerships
Emir@@
Owner
remission
novice
hec@@
even@@
encro@@
ign
biosphere
habit@@
exposing
psychosocial
Ricky
dumped
surpass
cros@@
narr@@
Elimin@@
fortieth
proph@@
UNDOF
predominant
organising
commercialization
entures
arithmetic
APEC
dden
homogen@@
Worlds
Jor@@
ő
Hunger
siology
fishery
photovoltaic
unsatisfactory
bolster
inviolability
accept@@
abduc@@
Khas@@
yakov
metropolis
collo@@
blurred
formidable
vom@@
periphery
Vikings
aquaculture
Mikhail@@
Portfolio
bred
hallucinations
herds
accru@@
akha
Matter
ications
tack@@
constraint
doubted
reacting
steer
aff
assa@@
etons
pancreas
handing
extraterritorial
usability
reflex
marketed
blasph@@
Prisoners
metal@@
Transnist@@
hairs
spins
expressive
ware@@
Kant
logged
1886
Pompe@@
mantra
🄰@@
コ@@
Malay@@
Arsen@@
Hoc@@
homicide
◆
ppm
resour@@
ⓐ@@
oxides
intimacy
Advis@@
entitlement
faulty
formalities
Tymoshenko
interlocutor
handbook
Pale@@
tandem
1815
Pitt
FAS
trop@@
valleys
embarrassing
subparagraphs
Veterans
goddamn
athy
manife@@
Entrepreneurs
behaviours
connective
Ascension
Bened@@
paral@@
broadest
Must
obst@@
Market@@
corp@@
Vitaly
compel
replicate
afford@@
biologists
strife
discontent
shameful
pressions
recreate
Pers@@
theon
ซ@@
Scriptures
scam
Pashinyan
suring
entrust
ques@@
Vol
epic@@
addi@@
Π@@
observatory
autocr@@
cheated
dit
hrs
arist
However
barb@@
Guardi@@
dismantle
MONUSCO
Gaga
2035
erased
jud@@
Amir
incarcer@@
attr@@
UNDAF
Engels
mortgages
amines
painless
inhibit@@
interoperability
outlining
exacerbate
repu@@
tr
pois@@
manners
inherently
autonom@@
Restaurants
assassinated
desir@@
altitudes
precarious
dures
endured
empires
Madam
appropriated
bacterium
cryptographic
sidelines
unborn
habitable
scalp
worthiness
noti@@
contravention
Institutes
unequivocally
tankers
achev
labelling
perpetual
Techno@@
Judiciary
OOO
Restaur@@
gatherings
patron
jackpot
1885
chloro@@
orbiting
veri@@
nesses
inclination
valent
lymph@@
datory
Psychological
harm@@
warrants
existential
ml@@
rupt
Lynch
Valen@@
traffickers
speeding
Diploma
Galactic
tite
gment
condu@@
contaminants
correlated
pale@@
lieutenant
inhalation
conservatives
genesis
provisionally
Bagh@@
வ@@
Sustainability
Threat
comets
Nevsky
skep@@
trou@@
Referen@@
renders
Truman
worldview
Polit@@
impeding
phobia
atum
rector
Trader
17,@@
UNID@@
100th
congressional
inno@@
chiefly
kat
waiver
η
swine
begging
contemplated
hath
yielded
bable
rehear@@
ECTS
Consultation
rebirth
genus
1864
dialects
indign@@
շ@@
tempted
azole
resurrec@@
Prosp@@
Gen.
Brent
Murder
Eis@@
adhering
solitude
sterone
northeastern
े@@
ephal@@
eased
enlarge
bare@@
Israel@@
Anavar
stubborn
unarmed
sourced
correctional
cide
ў@@
resisted
usoleum
crowned
Inspectors
asymmetric
ovaries
த@@
Plurinational
Missing
Kofi
avoids
ו
distinctions
replen@@
Rakh@@
apostles
acidity
liest
व@@
Infantry
transforms
thou@@
antimicrobial
Ս@@
unparalleled
intricate
phs
ISU
Debt
christ
prescriptions
avenue
peptides
abusive
anthem
exus
‎
iceberg
escap@@
χ@@
hob@@
aero@@
narc@@
13,000
Pharmacy
[...]
