#version: 0.2
t h
i n
a n
th e</w>
r e
t i
e r
a r
e n
o n
o n</w>
o f</w>
o r
t e
o u
t o</w>
an d</w>
in g</w>
i t
r o
i n</w>
e s</w>
a l
o r</w>
i s</w>
e r</w>
e d</w>
s t
a c
i c
o m
a l</w>
i l
a ti
a t
a s
o s
i s
e s
e c
e l
a p
a n</w>
T h
f or</w>
a t</w>
o l
u r
a s</w>
l e</w>
a d
a b
a m
q u
s i
t s</w>
e n</w>
r i
p ro
ati on</w>
v e</w>
c h
en t</w>
o t
u s
l o
te d</w>
a g
Th e</w>
l i
l y</w>
l e
d i
it h</w>
re s
w ith</w>
o u</w>
d e
c on
c o
u n
u l
ar e</w>
c om
w h
ap os
apos ;</w>
& apos;</w>
ti on</w>
y ou</w>
c e</w>
t r
e m
ou r</w>
th at</w>
b e
n o
i t</w>
a y</w>
u c
o p
i r
t er
n e
b e</w>
s h
on s</w>
i g
a r</w>
f or
te r</w>
v er
ou n
2 0
p l
i d
b y</w>
e x
f f
ro m</w>
er s</w>
s e
f rom</w>
qu ot
h a
quot ;</w>
& quot;</w>
it y</w>
t a
p er
at e</w>
s u
i m
o o
o w
m ent</w>
er e</w>
. co
ou t</w>
.co m</w>
p or
r a
d s</w>
ab le</w>
b u
e t</w>
th e
p ar
re n
re c
m a
al l</w>
il l</w>
m e
th er</w>
y our</w>
h as</w>
in e</w>
re d</w>
ag e</w>
u m
c an</w>
c l
v i
th is</w>
ur e</w>
no t</w>
o c
m an
k e</w>
w or
a ted</w>
w ill</w>
s p
g h
m o
d uc
on e</w>
e t
g r
ha ve</w>
w e
ou r
20 1
e v
es s</w>
l d</w>
ic e</w>
en ts</w>
te s</w>
i es</w>
in g
c h</w>
com p
ti c
a y
t h</w>
an t</w>
om e</w>
d ing</w>
I n
w as</w>
m e</w>
i c</w>
e ar
i r</w>
en t
s o</w>
an ce</w>
st r
for m
u t
a v
g e</w>
ar y</w>
on al</w>
or e</w>
ic h</w>
as e</w>
ab out</w>
as t</w>
it e</w>
re g
am p
e l</w>
C h
t ;</w>
al ly</w>
it s</w>
v er</w>
g t;</w>
& gt;</w>
d e</w>
b er</w>
& #
p e
ou ld</w>
ati ons</w>
am e</w>
p os
s t</w>
res s</w>
es s
k ing</w>
ig h
h o
m in
wh ich</w>
t o
i z
a d</w>
I n</w>
d er</w>
w e</w>
lo w
s e</w>
ti ons</w>
R e
d is
p h
us e</w>
s er
i al</w>
i p
a in
e d
ad d
es t</w>
ac e</w>
s te
c re
u s</w>
i ti
be en</w>
1 2
t ing</w>
h e
ac c
t u
an d
f in
a te
com m
os t</w>
or y</w>
gh t</w>
k s</w>
p r
pro v
f e
b o
C an
m ore</w>
C om
0 0</w>
U n
A l
a u
ec t</w>
con t
d o
i d</w>
ti me</w>
u b
ou s</w>
i f
e p
re s</w>
u p
P ro
g u
p res
l a
i a</w>
m ar
add ress</w>
m il
ren t</w>
d ay</w>
A n
al l
an y</w>
a f
Th is</w>
I t</w>
al so</w>
t y</w>
form ation</w>
si on</w>
r an
oo d</w>
o ther</w>
1 9
oun d</w>
a in</w>
pro duc
de v
Can ad
us t</w>
i l</w>
ar d</w>
W h
i on</w>
S t
or s</w>
o m</w>
m on
ac k</w>
en d
ver y</w>
C on
ic al</w>
as s
lo c
e w</w>
b le</w>
por t</w>
p re
k e
o ff
ac h</w>
f ac
al s</w>
a il
c oun
il l
o b
re e</w>
en ce</w>
cl u
u m</w>
es e</w>
f ol
u e</w>
o g
ac h
s ec
v is
the ir</w>
os e</w>
s y
st s</w>
en ti
el l</w>
r ou
is t</w>
d er
v e
uc h</w>
ad e</w>
d es
12 4
di ff
g n
em ent</w>
id e</w>
n o</w>
bu t</w>
124 ;</w>
&# 124;</w>
f u
c ol
A r
ser v
an c
m ay</w>
en c
20 0
ay s</w>
f l
u al</w>
ing s</w>
ar i
e a
f ir
amp ;</w>
& amp;</w>
p ri
f i
sp ec
g o
s el
in formation</w>
b r
t ri
o f
ti ve</w>
a re
t w
m s</w>
ro om</w>
i v
. .
1 0</w>
in ter
Y ou</w>
at ing</w>
ap p
ati onal</w>
u p</w>
ta in
d o</w>
o w</w>
on g</w>
I f</w>
A c
w a
at a</w>
il e</w>
1 0
w i
us ed</w>
por t
t e</w>
fol low
the y</w>
m ost</w>
l ast</w>
i f</w>
en er
u st
an s</w>
be t
sh ould</w>
te red</w>
al e</w>
el l
g h</w>
su p
ti c</w>
w w
.. .</w>
no w</w>
igh t</w>
wor k</w>
l ine</w>
f r
re qu
ic es</w>
H ome</w>
in clu
li ke</w>
en d</w>
c ar
u t</w>
h el
a m</w>
Canad a</w>
ow n</w>
w ay</w>
diff e
c or
an s
ne w</w>
s ol
ac t</w>
I P</w>
P ar
is h
Com m
n ec
si mil
M ar
p o
d ec
h i
g e
pro c
s ur
W e</w>
su b
th ere</w>
simil ar</w>
si gn
in d
iti es</w>
w ere</w>
de ter
l l</w>
rec or
m p
an g
&# 9
wi th
ear s</w>
v en
F or</w>
reg is
m ents</w>
l es</w>
h e</w>
el op
p er</w>
ti es</w>
on ly</w>
t ure</w>
ar m
n ame</w>
res p
p ol
fir st</w>
ot e</w>
c er
lo o
e w
s c
s uch</w>
y p
fu l</w>
t en
diffe rent</w>
in to</w>
ic ation</w>
s ti
n um
t or</w>
il ity</w>
k et</w>
regis tered</w>
ul ar</w>
li ght</w>
sy ste
g et</w>
g re
h ou
ati ve</w>
S p
2 0</w>
th an</w>
lo w</w>
wh o</w>
b ec
d r
o ver</w>
ow n
a k
i ted</w>
al ity</w>
O n
ma in</w>
t ur
m at
g l
res ul
v es</w>
is h</w>
E n
b as
y ears</w>
re l
t ly</w>
x t</w>
ate g
b l
n ing</w>
gr ap
t re
i an</w>
ag es</w>
y e
D i
the m</w>
em ber</w>
tr y</w>
wh en</w>
we en</w>
1 1</w>
op le</w>
a ir
te c
op er
ol og
f ul
t le</w>
el y</w>
u d
v ing</w>
ar d
u ro
p le
h ol
di st
ho w</w>
e ff
a th
e st
vi ew</w>
- 0
r e</w>
se ar
for e</w>
follow ing</w>
bet ween</w>
man y</w>
e qu
li c</w>
ne ed</w>
fin d</w>
u r</w>
l in
S h
tr ans
per i
r is
ac k
s ite</w>
th ing</w>
di rec
s k
oo l</w>
s a
th ese</w>
E x
P h
te m
P l
B l
str uc
si ble</w>
om s</w>
pe ople</w>
h is</w>
d el
num ber</w>
p s</w>
tw o</w>
en s
0 0
l ar
ver n
w ell</w>
f un
ac ti
a tes</w>
o v
par t
c ri
l s</w>
p ub
wh ere</w>
e ach</w>
se e</w>
dev elop
u res</w>
en g
c ur
in te
wh at</w>
recor ds</w>
H o
en tr
1 2</w>
il y</w>
g an
n ational</w>
B o
w ould</w>
y ing</w>
ma ke</w>
E uro
iz ed</w>
D e
ro w
for m</w>
d om
te l</w>
A d
ig h</w>
b est</w>
m y</w>
e y</w>
g i
an n
our s</w>
a use</w>
i tion</w>
ch ar
as s</w>
an ts</w>
prov id
j ect</w>
st ar
av ail
y s
Q u
m ade</w>
i st
5 0</w>
Th ere</w>
1 .
te n</w>
d re
in d</w>
e as
syste m</w>
M on
l ec
I P
at ure</w>
ch il
M an
b er
b le
ha d</w>
pl ace</w>
ur ing</w>
ter s</w>
g ra
a ir</w>
des ig
ta in</w>
el ec
1 8
f o
ow er</w>
per s
wa ter</w>
g ood</w>
I N
T o</w>
M o
th en</w>
j o
ti m
le v
e -
v ate</w>
w ant</w>
s m
d y</w>
th rou
L a
t on</w>
resp on
im port
up d
S e
ateg ory</w>
s ome</w>
o d</w>
af ter</w>
Al l</w>
P re
m ine</w>
te ch
j ec
in c
ne t</w>
ri ght</w>
or ies</w>
par tic
b el
in ce</w>
o p</w>
ri bu
hel p</w>
3 0</w>
C o
ear ch</w>
ev er</w>
m ent
oun t</w>
in t</w>
ou t
201 8</w>
h os
g o</w>
as h
pro per
C ol
avail able</w>
ch es</w>
ir e</w>
u tion</w>
f il
A N
l it
v al
in a</w>
tech n
man u
ic i
ap pl
F r
oc i
pl ac
t -
2 .
h ome</w>
bu s</w>
R es
v ir
is e</w>
a st
ex p
comp le
l and</w>
p ur
ta ke</w>
b i
on g
U s
in k</w>
er y</w>
om en</w>
ti on
j ust</w>
deter mine</w>
el s</w>
P r
th er
f ree</w>
H e
om e
al th</w>
k now</w>
In ter
se t</w>
l an
c ase</w>
grap h
d ays</w>
or der</w>
t yp
si de</w>
c es</w>
par t</w>
d ed</w>
con tain
con si
e f
ot h</w>
g ener
D ata</w>
pro ble
is sion</w>
li gh
l ess</w>
man ual</w>
t ro
at or</w>
m ust</w>
oo k</w>
ma in
i p</w>
no w
on -
ic k</w>
arm ac
em b
ke ts</w>
ro oms</w>
B e
v ol
d u
w .
sign ed</w>
li f
ye ar</w>
ch o
19 9
or gan
c le
upd ated</w>
h ours</w>
import ant</w>
in cre
u g
n er</w>
an ge</w>
Pro duc
w y
produc t</w>
R E
ol d</w>
ww w.
throu gh</w>
are a</w>
S ta
ou s
tic al</w>
re ad
e y
v ari
1 6
S er
B y</w>
produc ts</w>
hou se</w>
M a
f am
dom ain</w>
B r
requ i
comm un
O ur</w>
con di
k ed</w>
un der</w>
in f
un der
u tes</w>
pos sible</w>
ow s</w>
d ata</w>
o s</w>
IP v
M in
d oc
S u
vern ment</w>
r y</w>
N ew</w>
N ote</w>
Un ited</w>
h ere</w>
em p
k m</w>
dev ice</w>
ot al</w>
m er
ic s</w>
A R
i de
own lo
et y</w>
with out</w>
s ame</w>
bu il
An d</w>
t al
w at
c ap
serv ice</w>
ti onal</w>
b us
1 5</w>
sear ch</w>
me di
ar t
on d</w>
amp le</w>
si d
enc y</w>
min utes</w>
f ound</w>
c ul
f ri
n ed</w>
ro s
lit tle</w>
ne xt</w>
en s</w>
e g
coun try</w>
Un able</w>
3 ;</w>
&#9 3;</w>
U S
1 ;</w>
&#9 1;</w>
or d
l l
t able</w>
ren ce</w>
de p
h igh
as signed</w>
C l
pub lic</w>
L E
1 5
f t</w>
gr ou
f ace</w>
ou gh</w>
d ic
an t
te ls</w>
dre n</w>
ad di
r it
cont ro
d ra
ab ility</w>
0 .
gr am
le g
d on</w>
ar ti
th s</w>
ad v
spec if
li m
s ale</w>
d ri
m m</w>
h igh</w>
hos ted</w>
G re
E R
in ess</w>
it ch
an ti
com e</w>
W or
d uring</w>
por ts</w>
man ag
ap pro
h er</w>
m an</w>
A s</w>
ev en</w>
G u
t otal</w>
end ed</w>
C O
res t</w>
v ed</w>
ic k
r u
o graph
W ith</w>
c our
ex c
proc ess</w>
3 .
N or
i e
ar ds</w>
4 .
s ch
p e</w>
bec ause</w>
ful l</w>
p age</w>
3 0
Sta tes</w>
mat er
an al
s w
C oun
pro f
in st
pro tec
A p
do es</w>
be ing</w>
Wh at</w>
pri vate</w>
ic ations</w>
ver s
wh e
mo d
qu ality</w>
ic a</w>
sh ip</w>
b re
on line</w>
an k</w>
qu ite</w>
s es</w>
vir on
loc ated</w>
iz e</w>
f light</w>
n ess</w>
us ing</w>
at ur
ut e</w>
on om
rec e
wor ld</w>
w ays</w>
qu e</w>
nec ess
ish ed</w>
vi ew
con nec
it al</w>
z e</w>
k now
ati c</w>
ec h
N o
A T
lar ge</w>
is su
ven tion</w>
a ther</w>
pe an</w>
st a
p a
be fore</w>
b ur
serv ices</w>
f ur
H om
T r
si ve</w>
sa id</w>
ownlo ad</w>
ic ally</w>
d es</w>
equ ip
a ut
ab l
th ose</w>
sup port</w>
b ed</w>
in es</w>
s ul
u ary</w>
or g</w>
L ist</w>
te e</w>
fac tu
d at
develop ment</w>
C ar
ow ever</w>
l ist</w>
Euro pean</w>
c ust
tr a
sm all</w>
m i
i ve</w>
s ure</w>
i ons</w>
o ve</w>
ch ange</w>
t ors</w>
qu es
bo dy</w>
g iv
G er
M e
IPv 6</w>
l ab
mon ths</w>
lif e</w>
p op
au th
b ack</w>
me th
prov ide</w>
v id
in al</w>
em ents</w>
Com p
f er
2 4</w>
ou th</w>
A t</w>
ta il
m ul
D ec
cont in
M O
it u
ec ted</w>
R o
in s</w>
g y</w>
am es</w>
2 5</w>
F e
R O
emp lo
1 7
B u
resul ts</w>
s o
d ge</w>
p ut</w>
t al</w>
ex ample</w>
st ra
b it</w>
re comm
or t</w>
pl ay
chil dren</w>
eff ec
sel f</w>
with in</w>
c as
ea ther</w>
c ity</w>
G o
Canad ian</w>
p li
1 4
Y our</w>
olog y</w>
c ould</w>
resul t</w>
necess ary</w>
d ro
ar m</w>
k es</w>
pr ice</w>
H ow</w>
S te
a z
. org</w>
armac ies</w>
N S</w>
at s</w>
1 4</w>
tr ac
o ver
gra m</w>
s of
fun c
e p</w>
s .com</w>
O n</w>
A s
ate ly</w>
P er
as si
P ol
acc ess</w>
y -
a i
ep age</w>
h y
O p
s ing</w>
si mp
be d
201 9</w>
deter min
1 00</w>
c i
do or</w>
iz ation</w>
me as
S ain
inclu ding</w>
e ds</w>
Fr ance</w>
I m
si ons</w>
am ount</w>
str y</w>
con cer
or ig
Hom epage</w>
tic s</w>
F ind</w>
S ec
c a
enti al</w>
bas ed</w>
wy ers</w>
O r
ar ound</w>
D es
Wh en</w>
1 3</w>
contain s</w>
en ing</w>
y s</w>
de l</w>
we b
pl ay</w>
vi ties</w>
er ing</w>
at t
S T
se ver
read y</w>
Th ey</w>
B ut</w>
cl os
ti v
b en
dist ribu
te xt</w>
1 8</w>
ys is</w>
we e
N o</w>
b oth</w>
loo k</w>
ec onom
P ri
en ter</w>
ap art
1 6</w>
tri es</w>
is ion</w>
di vid
proper ty</w>
c entr
T o
factu re
O ff
off er</w>
c ategory</w>
S y
wor d</w>
st ud
as ed</w>
V i
tem per
y le</w>
p i
le t</w>
b ility</w>
su m
Bl ack</w>
dat ab
ic ul
s ome
d en</w>
4 0</w>
m en
pro gram
0 9</w>
at ter
us er</w>
L i
n e</w>
E N
th ree</w>
lev el</w>
loc ation</w>
L e
p ed</w>
g en
fe rence</w>
l ong</w>
un i
th em
it tee</w>
in t
oper ation</w>
Di rec
s al
be g
A u
cont act</w>
st o
1 3
2 5
ent ly</w>
ail y</w>
ati on
A C
g le</w>
he alth</w>
ad i
ea p</w>
D o</w>
h um
n al</w>
re mo
T ra
b ro
G r
er c
al low
itch en</w>
au ti
ach ine</w>
201 3</w>
s af
ver y
d one</w>
ad s</w>
Re g
in ation</w>
comp any</w>
m ember</w>
el d</w>
an ds</w>
typ e</w>
sta ur
H e</w>
m uch</w>
f lo
tim es</w>
N e
t ory</w>
er al</w>
wh ile</w>
sh e</w>
F or
U R
Comm ission</w>
0 00</w>
D is
ex peri
com mod
ne ar</w>
am e
G oo
re pres
is ter</w>
Ho tel</w>
oc k</w>
ar ly</w>
ap er</w>
en viron
ph one</w>
off ers</w>
datab ase</w>
inclu de</w>
is m</w>
coun tries</w>
Produc ts</w>
es si
cust om
all ed</w>
at h</w>
2 4
ol s</w>
tr av
ur y</w>
c an
i al
us ers</w>
c ar</w>
C or
Th ese</w>
gr ound</w>
c ess
contro l</w>
part ment</w>
sti tu
acc or
par ts</w>
dist ance</w>
M X</w>
d aily</w>
re as
b ath
op en</w>
g ed</w>
li ving</w>
ol ution</w>
at ures</w>
en ds</w>
li on</w>
c m</w>
st ay</w>
sh ows</w>
s ince</w>
p le</w>
1 7</w>
oc ial</w>
s cre
ch ang
et ing</w>
I C
k en</w>
n s</w>
w omen</w>
to day</w>
re ad</w>
anal ysis</w>
tr ain
S up
bus iness</w>
accor ding</w>
a ter</w>
. net</w>
ligh ts</w>
x im
w in
I s
y l
appl ication</w>
on t</w>
m is
wor k
st or
to p</w>
fi ed</w>
I T
2 1</w>
c al
c e
J o
ar t</w>
ap e</w>
im m
provid ed</w>
pol ic
auti ful</w>
mar ket</w>
an ies</w>
form ed</w>
st and
st ing</w>
Sp ec
sec ond</w>
ur ity</w>
a w
acti vities</w>
a ve</w>
c r
of ten</w>
fam ily</w>
ac tion</w>
t or
view s</w>
s ed</w>
id s</w>
ver age</w>
co ver</w>
i e</w>
P e
H owever</w>
ne t
atur al</w>
desig n</w>
n or
H T
temper ature</w>
O R
A f
8 .
E R</w>
on ic</w>
ke y</w>
ne w
m us
u si
ain st</w>
bet ter</w>
go vernment</w>
A mer
ul ation</w>
tic ket</w>
Con t
tre at
sever al</w>
Ser v
determin ed</w>
h ear
un ity</w>
d own</w>
grou p</w>
Goo gle</w>
w al
ati c
wor ks</w>
p ower</w>
b al
le ar
ac commod
de tail
il ities</w>
ou se</w>
a ff
s en
proble ms</w>
ig n</w>
p ing</w>
me ans</w>
mar kets</w>
in v
f ile</w>
as tic</w>
specif ic</w>
W e
fe w</w>
s on</w>
e very</w>
C ategory</w>
vi ous</w>
an a</w>
Ch ina</w>
Ar ti
ag ainst</w>
ir c
ass oci
b ook</w>
K ey
m er</w>
p ool</w>
I S
i te
us es</w>
W eather</w>
des cri
5 0
F in
l ong
P or
R ec
Mar ch</w>
Su per
e very
i ous</w>
un e</w>
k itchen</w>
1 9</w>
char ac
gre at</w>
hi m</w>
to o</w>
c are</w>
V e
pers on</w>
u ally</w>
pro ject</w>
on es</w>
our ces</w>
g ame</w>
A L
ful ly</w>
ran ge</w>
i k
pos ition</w>
5 .
ch ec
id ay</w>
d ate</w>
w id
gi ve</w>
peri od</w>
anc es</w>
A b
1 -
re fore</w>
addi tion</w>
pl an
W omen</w>
le ast</w>
ad ing</w>
G ener
O N</w>
id enti
manu facture
W at
ic an</w>
In formation</w>
o t</w>
re view</w>
T V</w>
J u
pro gram</w>
lo t</w>
ho tel</w>
c il</w>
proble m</w>
D ev
web site</w>
2 2</w>
proc ess
b ri
wh ite</w>
6 0</w>
u x
wor king</w>
inter national</w>
F l
ind ic
no v
Comm ittee</w>
it ted</w>
r ati
h al
in ing</w>
201 8
est abl
de fin
es ti
A g
e ts</w>
ust ri
g row
star t</w>
manag ement</w>
c ost</w>
c y
arti sts</w>
jec ts</w>
re co
po int</w>
ep t</w>
E lec
im ple
del i
ment al</w>
fin anc
bel ow</w>
A fr
n on-
follow s</w>
C al
cl ose</w>
f ood</w>
T a
fl u
pres ent</w>
ben ef
col lec
s itu
re port</w>
o il</w>
sti ll</w>
pro pos
h er
b ar
E S</w>
s uc
condi tions</w>
i str
d ll</w>
com b
al ways</w>
ri c</w>
m emb
inf o</w>
auth or
st ate</w>
il le</w>
di d</w>
2 6</w>
6 .
ard en</w>
treat ment</w>
grap h</w>
B el
al ready</w>
res earch</w>
be autiful</w>
t t
loo king</w>
um ents</w>
lan gu
mater ial</w>
M ic
H ol
Coun cil</w>
ter in
str ic
B i
simp le</w>
Sain t-
bo ard</w>
loc al</w>
pl es</w>
im p
a k</w>
s -
0 1</w>
elec tr
op s</w>
B ar
n a</w>
low er</w>
b ab
du ce</w>
Us a</w>
st ain
be c</w>
a way</w>
S ch
enc es</w>
ag re
st re
ip s</w>
Ph armacies</w>
partic ip
requi red</w>
usi c</w>
as k</w>
s un
co p
si tes</w>
Af ter</w>
S ho
acti v
oun d
W i
ati s
per f
are as</w>
bu y</w>
comm on</w>
p ec
si ze</w>
k er</w>
atic ally</w>
u ter</w>
I tal
c us
C entr
vari ous</w>
S w
tr ain</w>
tri c</w>
Ger many</w>
H O
tur al</w>
h and
s oci
ph ot
ab ove</w>
sec tion</w>
accommod ation</w>
U N
ex t</w>
b ack
spec ial</w>
in iti
N ational</w>
n er
ren ch</w>
b a
apart ment</w>
in ts</w>
as ter</w>
br uary</w>
0 5</w>
201 7</w>
tw are</w>
f ig
com for
st ance</w>
ma j
cont ribu
co o
g et
20 20</w>
C re
an other</w>
ic ial</w>
S ub
ho tels</w>
th ink</w>
in e
flo or</w>
re al</w>
G l
S k
m ag
pub l
ne eds</w>
equip ment</w>
st er
aut om
mul ti
9 -
b or
tur n</w>
ha ir</w>
S un
2 8</w>
l ed</w>
A S
coun ty</w>
distribu ted</w>
p en
h app
rati o</w>
r .</w>
at ors</w>
F ree</w>
tic le</w>
struc ture</w>
plac es</w>
ge ograph
T ran
go ing</w>
der n</w>
i ed</w>
i als</w>
B ri
re duc
in divid
u es</w>
dra w
ti l</w>
p ly</w>
7 .
ap pe
m ot
cour se</w>
Fe bruary</w>
o -
ill s</w>
Ho tels</w>
air s</w>
ens ure</w>
sk in</w>
d ou
of f</w>
O ut
M L</w>
u re
p an
rel ated</w>
ul es</w>
ma p</w>
col or</w>
D NS</w>
ne y</w>
Se e</w>
us e
v ill
c ent
S earch</w>
pur ch
de f
l ing</w>
n ers</w>
orig inal</w>
pl an</w>
le x
i or</w>
an y
reg ul
prof essi
sp ace</w>
2 3</w>
La wyers</w>
w ood</w>
st an
ne ar
E S
ros s</w>
ta ken</w>
Go vernment</w>
9 .
if ic
gh ts</w>
A n</w>
an ks</w>
Euro pe</w>
p ass
bl ack</w>
mar ri
cur rent</w>
d am
er g
b oo
incre ase</w>
all s</w>
we ather</w>
s ocial</w>
ve st
in vention</w>
eff ect</w>
P R</w>
provid es</w>
. dll</w>
ol e</w>
vi de
2 3
ev olution</w>
cer tain</w>
ro w</w>
Un i
F o
in vol
en ted</w>
emplo y
su g
f er</w>
eas y</w>
N ext</w>
d ers</w>
ch e
di es</w>
fi eld</w>
giv en</w>
vers ity</w>
p tion</w>
Th e
ti s
direc tly</w>
C H
produc tion</w>
ex am
near by</w>
experi ence</w>
chil d</w>
h ic
know n</w>
m achine</w>
mon th</w>
oun g</w>
r ing</w>
Qu e
vis it
F rench</w>
vis its</w>
N ov
st yle</w>
le ase</w>
a il</w>
a .com</w>
cl es</w>
mil lion</w>
p ain
buil ding</w>
D ownload</w>
i ally</w>
lo b
n atural</w>
s ing
st u
P o
T H
sh ow</w>
ti f
ous ly</w>
m ic
g er</w>
e duc
ent al</w>
2 -
memb ers</w>
v en</w>
partic ular</w>
it able</w>
P ub
fr ont</w>
a x
R em
ut ure</w>
we ight</w>
n am
ab les</w>
Gener al</w>
de red</w>
struc tion</w>
gu ide</w>
rece iv
On line</w>
sear ches</w>
op port
for man
detail s</w>
ser ver</w>
bath room</w>
h or
p aper</w>
3 1</w>
L oc
p ay
En gl
whe ther</w>
d ue</w>
l ay
He alth</w>
he ad</w>
a u</w>
econom ic</w>
Key word</w>
techn ical</w>
off ice</w>
un til</w>
al th
Wh ite</w>
gl ass</w>
pop ular</w>
5 -
h on
p ati
om an</w>
meth od</w>
c irc
T ur
sur face</w>
u ment</w>
ener gy</w>
2 7</w>
train ing</w>
oo ds</w>
comp anies</w>
R us
s il
c ra
cor rec
re li
le t
reg ion</w>
sh all</w>
sid ent</w>
F ran
ve red</w>
es -
h and</w>
le y</w>
w ash
ie ve</w>
8 0</w>
is ed</w>
p ot
p ow
Ch ar
a h
c ot
en jo
ec e</w>
Ac t</w>
S O
hum an</w>
me d
val ue</w>
lo g
olog ical</w>
associ ated</w>
vis ion</w>
st and</w>
ar ran
G en
am p</w>
. info</w>
por ted</w>
ou l
la w</w>
O ther</w>
C as
R A
requi re
ac tive</w>
w ide</w>
ris k</w>
U S</w>
pur pos
n it
L a</w>
ir d</w>
S il
V al
I I</w>
issu es</w>
ch eap</w>
On e</w>
en ding</w>
tr ad
H igh</w>
a im
J une</w>
O c
app li
ate st</w>
sup pli
HT ML</w>
t a</w>
te st</w>
con sul
de m
Inter national</w>
Wor ld</w>
our ce</w>
fl ying</w>
v al</w>
ti ce</w>
b ot
ag s</w>
e sts</w>
u it</w>
r s</w>
ter r
F ir
F I
e ase</w>
ed eral</w>
J an
comp uter</w>
Dev elop
d ownload</w>
ec tion</w>
A ir
m en</w>
polic y</w>
6 0
ag r
E L
ish ing</w>
te am</w>
comp os
ass es</w>
4 0
ques tion</w>
pres sure</w>
geograph ically</w>
f uture</w>
S al
R i
car ri
o x
ex pl
2018 -0
b ra
fe atures</w>
qu ery</w>
fac t</w>
at ory</w>
c li
tu res</w>
financ ial</w>
c ell
ar ri
M at
t ar
row n</w>
Super markets</w>
bo x</w>
gener al</w>
o d
a red</w>
ple ase</w>
forman ce</w>
m al</w>
comple te</w>
S outh</w>
ma king</w>
f re
vis it</w>
th ers</w>
fo rec
bec ome</w>
mo del</w>
cor respon
ac y</w>
fur ther</w>
t ari
S o</w>
add ed</w>
sec urity</w>
M en</w>
w r
r ate</w>
e ti
P i
G et</w>
c le</w>
st ory</w>
E C
we ar</w>
desig ned</w>
cre ate</w>
p ic
, 000</w>
acc ess
diff icul
as h</w>
B ra
19 8
ri ghts</w>
C le
dis cus
h ar
c o</w>
a verage</w>
G e
y r
on d
N ew
9 0</w>
direc t</w>
Th at</w>
I S</w>
trav el</w>
g es</w>
c alled</w>
ha ving</w>
inclu des</w>
ren g
Man ag
M ore</w>
M ay</w>
f ast</w>
C ity</w>
cur ren
im prov
J e
com es</w>
commun ity</w>
D el
ste el</w>
T ech
s ay</w>
A ir</w>
se qu
ver s</w>
tr an
i ev
loc k</w>
g ar
ver sion</w>
Min ister</w>
T ri
en ough</w>
um in
sh are</w>
H ere</w>
b il
a -
st ation</w>
se par
C A
to ge
l a</w>
F ac
ex per
2 9</w>
adv ant
ind u
ar ies</w>
c el
c ent</w>
toge ther</w>
charac ter
A m
z z
sp e
Man u
si a</w>
Ac cess
pro ve</w>
pl ate</w>
p rec
I D
cas es</w>
S tu
ati ves</w>
repres ent
Dec ember</w>
S tr
sign ific
stra te
s or
gu id
Nor th</w>
reco gn
F rom</w>
i um</w>
g ir
B est</w>
protec tion</w>
re sid
m oun
dec or
su ff
201 6</w>
i ble</w>
sol ution</w>
re staur
tain ed</w>
di g
C our
ter m</w>
acc ount</w>
v ely</w>
y et</w>
v o
bed room</w>
E U</w>
M A
O R</w>
ho to</w>
recor d</w>
proc ed
sof tware</w>
V er
c a</w>
di o</w>
ech an
cho ose</w>
g arden</w>
dep end
y our
G rou
D MO
c enter</w>
o es</w>
g er
I s</w>
allow s</w>
tri p</w>
w all</w>
7 0</w>
as es</w>
Sp ain</w>
tr act</w>
te ly</w>
in ed</w>
DMO Z</w>
indu stry</w>
an ing</w>
con duc
av o
scre en</w>
u g</w>
y oung</w>
environ ment</w>
3 -
In di
ul t</w>
lo ve</w>
sh op</w>
recomm ended</w>
min istr
T er
hi b
LE D</w>
forec ast</w>
sc i
S ome</w>
ta king</w>
fo re
mi x
am er
UR L</w>
le ft</w>
pre v
f oc
um e</w>
e red</w>
spec ial
hol d</w>
H ouse</w>
se a</w>
comm it
addi tional</w>
ab ly</w>
mater ials</w>
li ve</w>
or ing</w>
rou te</w>
L ab
ve hic
Tech n
bu t
w rit
Sy ste
m or
sh e
w el
equip ped</w>
wid th</w>
an im
marri ages</w>
s le
techn ology</w>
Bl ue</w>
i er</w>
ac qu
al low</w>
ques tions</w>
V ill
Us er</w>
it ing</w>
am ong</w>
M ed
A L</w>
if t</w>
S ol
20 0</w>
Ac cor
wee k</w>
H er
m ission</w>
ag ing</w>
B er
effec tive</w>
or ity</w>
r adi
F i
your self</w>
es ted</w>
hal f</w>
en e</w>
st reng
M E
ag o</w>
f ab
es n</w>
fer red</w>
il i
comp eti
A t
e e</w>
3 5</w>
Produc t</w>
ne ed
sol ve</w>
di t</w>
Access ories</w>
w ard</w>
chang es</w>
201 5</w>
syste ms</w>
comp ris
langu age</w>
in vest
Op en</w>
2 2
s ent</w>
t ow
ul ts</w>
ro le</w>
l and
al ong</w>
comp on
Ve terin
m em
e k</w>
maj or</w>
st e</w>
do esn</w>
li am
pol y
n ight</w>
me eting</w>
y .com</w>
activ ity</w>
re ally</w>
en n
k a</w>
su per
c ess</w>
P al
hol iday</w>
es pec
typ es</w>
i o</w>
Pri vate</w>
Bu y</w>
M r.</w>
me tal</w>
lob al</w>
S ep
M ost</w>
mic ro
A P
4 5</w>
pr ac
espec ially</w>
meas ures</w>
manu als</w>
tem ber</w>
um b
L o
remo ve</w>
h ard</w>
ar ding</w>
li k
Fir st</w>
dec ision</w>
f our</w>
ad d</w>
er -
vide o</w>
4 -
bl ue</w>
e .com</w>
per formance</w>
me et</w>
ch ed</w>
A ut
j our
en ed</w>
in stitu
c at
o ds</w>
com pl
ste p</w>
Jo h
loo d</w>
the refore</w>
ten tion</w>
is ions</w>
ou ght</w>
ten ance</w>
func tion</w>
Que bec</w>
appro pri
imm ing</w>
w are</w>
manufacture r</w>
re -
inte rest</w>
de st
L I
ai m</w>
igh ts</w>
sec tor</w>
st ant</w>
Afr ica</w>
ma kes</w>
to ber</w>
si bility</w>
re si
cap ac
P C</w>
pr inc
P an
ach ed</w>
al u
pro jects</w>
cho ice</w>
Jan uary</w>
R el
ag ain</w>
le dge</w>
L A
c ou
M P
li qu
dri ve</w>
c ed</w>
lear n</w>
dr y</w>
purch ase</w>
p ay</w>
O f</w>
visit ors</w>
A pri
R ed</w>
Apri l</w>
contin u
saf ety</w>
re la
l y
wh y</w>
sch ool</w>
ati n</w>
E U
require ments</w>
grou ps</w>
l ic
Sep tember</w>
ex t
mo dern</w>
B e</w>
es sion</w>
pr ices</w>
Develop ment</w>
hel d</w>
us h</w>
ag ed</w>
lan ds</w>
hear t</w>
im prove</w>
on ed</w>
net work</w>
t op
f -
ta il</w>
L in
d -
Ju ly</w>
sing le</w>
l is
f res
Bo ard</w>
atter y</w>
resp ect</w>
Grou p</w>
emplo ye
im medi
us ually</w>
re main
eff ici
pol i
i red</w>
leg al</w>
b ar</w>
T S</w>
en ter
Vi ew</w>
vi a</w>
Pre vious</w>
Ital y</w>
oc c
T w
L ar
i m</w>
S am
stud y</w>
it ation</w>
us h
IN G</w>
ment ation</w>
l ation</w>
proper ties</w>
c are
S he</w>
f y</w>
perf ect</w>
Oc tober</w>
U se</w>
os s</w>
dis ease</w>
on ce</w>
inclu ded</w>
m echan
fil es</w>
r y
Tran s
201 4</w>
if e</w>
bed rooms</w>
ad j
del s</w>
contin ue</w>
an g</w>
0 2</w>
bas ic</w>
ren tal</w>
t ation</w>
star ting</w>
an o</w>
F ri
some thing</w>
develop ed</w>
mon it
ustri al</w>
ter ms</w>
t own</w>
bas is</w>
Cont act</w>
stric t</w>
Serv ices</w>
su itable</w>
connec tion</w>
n ature</w>
Re staur
un d
ke ep</w>
im age</w>
ad op
tu al</w>
b and
tr ade</w>
com ing</w>
ad er</w>
gre en</w>
do m</w>
Par is</w>
eng th</w>
enc ies</w>
ig r
M ul
m usic</w>
Pre sident</w>
E ach</w>
p ack
B re
grow th</w>
m y
stan ding</w>
rece ive</w>
form s</w>
ser ies</w>
ind ows</w>
tic kets</w>
program s</w>
v ic
id ence</w>
T I
el ements</w>
w ell
M or
in o</w>
ac tions</w>
vi l</w>
pers onal</w>
inte gr
v ille</w>
C ust
L ight</w>
st ri
8 0
m a</w>
H y
pos iti
eas ily</w>
A ug
j u
M et
per form</w>
H ar
g ing</w>
m l</w>
wh ole</w>
vi ol
oun ds</w>
ir t</w>
3 2</w>
lik ely</w>
t ou
st op</w>
m om
ri st
C ha
consi dered</w>
Pro v
J ap
organ iz
th us</w>
C amp
ro ad</w>
situ ation</w>
S P
receiv ed</w>
h u
cre ated</w>
erc ial</w>
i sts</w>
Off ice</w>
partic ul
wat ch</w>
Mon tre
Engl ish</w>
T -
res ources</w>
access ories</w>
se as
F ur
m ote</w>
H um
f av
bur g</w>
b and</w>
requ est</w>
ri es</w>
n ote</w>
educ ation</w>
Accor ding</w>
mo vi
char ge</w>
pl ant</w>
ef for
ag n
ar k</w>
F il
re al
US A</w>
ul l</w>
appropri ate</w>
min im
o l</w>
el low</w>
S en
f lights</w>
F un
c all</w>
Ste el</w>
A D
plac ement</w>
chec k</w>
beg in
at us</w>
Th us</w>
mon ey</w>
ev ent</w>
po ints</w>
d en
M al
fri ends</w>
plac ed</w>
tr a</w>
for ce</w>
ne ver</w>
W il
professi onal</w>
com par
ent ation</w>
C ap
m it</w>
m b
Sho es</w>
Ch il
el ement</w>
L O
every thing</w>
b an</w>
equ al</w>
ex ec
st ore</w>
0 6</w>
res er
av es</w>
ip e</w>
ar s</w>
p ast</w>
0 4</w>
cl assi
ob jec
reg i
c lo
li g
a i</w>
9 -0
A G
ch i
h om
ch all
ne l</w>
tion ing</w>
sel ected</w>
w oman</w>
ord in
descri bed</w>
s mo
de -
th ings</w>
c u
c ause</w>
g as</w>
S an</w>
in ted</w>
0 3</w>
ess ential</w>
me t
C ar</w>
enjo y</w>
M il
b ase</w>
B as
k ers</w>
b on</w>
4 8</w>
cont ent</w>
am s</w>
S im
curren tly</w>
C -
oo m</w>
sti t
por ting</w>
4 2</w>
M i
0 8</w>
tion ary</w>
b an
E l
M ember</w>
ash ion</w>
anc ed</w>
g est</w>
dev ices</w>
play ed</w>
ch ing</w>
iti z
ev alu
Th en</w>
sub ject</w>
them atically</w>
per formed</w>
t on
2 6
b lood</w>
sp ac
wal k</w>
go vern
sol u
N ow</w>
la wyers</w>
inst all
I L
Arti st</w>
sh ort</w>
Montre al</w>
ol k
elec tric</w>
5 00</w>
ph armacies</w>
ut y</w>
particul arly</w>
Nov ember</w>
F ood</w>
Amer ican</w>
S ale</w>
long er</w>
he at</w>
un it</w>
qu ick
r a</w>
lev els</w>
Pub lic</w>
t age</w>
cle ar</w>
B en
C an</w>
ass ess
gu e</w>
ateg ories</w>
co de</w>
b ir
T e
fe el</w>
Res earch</w>
m ary</w>
le ave</w>
saf e</w>
Col or</w>
difficul t</w>
app ly</w>
cra ft</w>
ff ic</w>
doc ument</w>
mo v
ma xim
le -
V ide
be ach</w>
m un
W al
ter n
c at</w>
need ed</w>
fi ve</w>
in tro
lab or
la un
comfor table</w>
th ird</w>
ex ten
z a</w>
in -
th re
imp act</w>
0 7</w>
opport unity</w>
m al
di d
M ad
hi story</w>
W ater</w>
Aug ust</w>
e i
is s
sp ea
f requ
str ong</w>
D o
Par k</w>
f low
S E
Ch eap</w>
issu e</w>
2018-0 9-
esti ma
Gre en</w>
de tec
al o
T re
to ols</w>
um p</w>
R I
P op
2 8
pr is
On tari
ev ents</w>
d y
St ate</w>
ph ys
2 7
C ur
o thers</w>
20 00</w>
dou ble</w>
S ur
en sive</w>
te le
qu i
terr ace</w>
individ ual</w>
on y</w>
Uni versity</w>
me dic
S of
ph armac
lin es</w>
et te</w>
T or
inte re
ch em
ol f</w>
W in
Ch in
F am
know ledge</w>
e u
P lease</w>
ar ing</w>
Ontari o</w>
g oods</w>
tem por
med ical</w>
uni que</w>
i -
doc uments</w>
ap s</w>
ac ts</w>
sw imming</w>
ill ed</w>
Centr e</w>
I N</w>
me ters</w>
Amer ica</w>
200 6</w>
c lim
el op</w>
er ia</w>
th ough</w>
ic ate</w>
3 6</w>
C a
i ans</w>
carri ed</w>
ta kes</w>
gr ad
Serv ice</w>
res ses</w>
re f
ba g</w>
ing dom</w>
S m
uc k</w>
ig n
lin k</w>
e .
capac ity</w>
mo dels</w>
T O</w>
F ol
Un ion</w>
L ux
cle an</w>
ap prov
re p
ad ap
k et
l d
cor por
con struction</w>
co sts</w>
T it
bu d
Re public</w>
reg arding</w>
sh ire</w>
w arm</w>
201 2</w>
U L
m os
effec ts</w>
spe ed</w>
quick ly</w>
le ad</w>
custom ers</w>
sy n
S A
band width</w>
b all</w>
b ers</w>
c ut</w>
sh own</w>
1 1
B ack</w>
exc ell
condi tion</w>
d n
pr acti
connec ted</w>
r un
out side</w>
af f</w>
ar an
con su
appl ic
ov en</w>
r ules</w>
re fl
r on
c .</w>
so on</w>
nit ure</w>
h es
invol ved</w>
4 1</w>
B al
ol es
ari an</w>
g ames</w>
min ute</w>
main tenance</w>
ti ves</w>
ex ist
B us
sh ips</w>
3 4</w>
T em
3 8</w>
an e</w>
Tr ade</w>
lay er</w>
ear ly</w>
200 5</w>
re duce</w>
concer ning</w>
st aff</w>
Ph one</w>
O N
S i
c ard</w>
commit ment</w>
par king</w>
6 -
m itted</w>
em ail</w>
pos ed</w>
go t</w>
co vered</w>
liqu id</w>
B a
Comm unity</w>
p ress</w>
begin ning</w>
wor ds</w>
sh ower</w>
m ess
E d
av ing</w>
ac ross</w>
10 0
y er</w>
W ed
ec h</w>
back ground</w>
purpos e</w>
it ary</w>
id d
high -
Ph il
4 4</w>
ex pres
ill ing</w>
in nov
stor age</w>
201 0</w>
cl ick</w>
T yp
Inter net</w>
re ference</w>
ri g
appro ach</w>
medi a</w>
se e
Re ad</w>
ac ks</w>
f ication</w>
ther n</w>
S af
As s
m ight</w>
incre ased</w>
qu are</w>
ad ministr
poli tical</w>
ic h
dis play</w>
si an</w>
f ar</w>
s ource</w>
r o</w>
a vi
ach es</w>
200 7</w>
avo id</w>
centr e</w>
fi x
uc k
c amp
par ty</w>
pre par
K o
on a</w>
stand ard</w>
Ar ticle</w>
bel ieve</w>
dev elop</w>
signific ant</w>
h ab
re ach</w>
oper ations</w>
stud ents</w>
under stand</w>
Gu ide</w>
ici ans</w>
pro mo
Sup pli
200 8</w>
d ining</w>
in depend
app o
process es</w>
op in
ro r</w>
meth ods</w>
N E
c able</w>
ve get
bab y</w>
immedi ately</w>
ren ces</w>
el ing</w>
9 9</w>
vari ety</w>
B ur
t un
emb ly</w>
Manag ement</w>
imple mentation</w>
new s</w>
M y</w>
re turn</w>
pa red</w>
U p
3 5
B ro
Elec tr
d a</w>
m 2</w>
or i
St re
h op
an ted</w>
7 5</w>
Or gan
k ind</w>
ter nal</w>
IPv 4</w>
em erg
st -
A v
S ci
pres ence</w>
l ess
c ab
clos ed</w>
sh or
v ac
Tra v
De partment</w>
sum mer</w>
n ation
employ ment</w>
appli ed</w>
l er</w>
st ock</w>
eng ine</w>
ag e
fil m</w>
s ou
pot ential</w>
high er</w>
p at
mo b
T im
en h
igr ation</w>
a c</w>
al ia</w>
m es</w>
lim ited</w>
er t</w>
um s</w>
S pe
En g
C E
TH E</w>
D r
hou ses</w>
agre ement</w>
3 6
an ia</w>
sur r
s em
mot or</w>
t ool</w>
ide al</w>
T op</w>
l ength</w>
acc ep
con c
B ab
ra tes</w>
N et
ti n</w>
F A
benef its</w>
7 -
e f</w>
can not</w>
fu el</w>
te x
iti onal</w>
h our</w>
P os
s ens
e z
b attery</w>
Chin ese</w>
establ ished</w>
stit ute</w>
it ch</w>
N ame</w>
gra ted</w>
sub st
min al</w>
sup ply</w>
f ail
ad vis
z er
maxim um</w>
i tions</w>
AN D</w>
3 3</w>
ste ps</w>
fac ilities</w>
Pl ay
a h</w>
consi der
Man ual</w>
serv ed</w>
n ot
he alth
cl aim</w>
comple tely</w>
G al
g ress</w>
br ing</w>
il s</w>
trans fer</w>
s .
to m</w>
Par liam
an -
h owever</w>
ex clu
air craft</w>
oo t</w>
P ow
L igh
do ing</w>
n ice</w>
respon sible</w>
at tention</w>
c ities</w>
s li
bre ak
leg is
es ter</w>
4 7</w>
par k</w>
i ent</w>
al most</w>
e ar</w>
ver se</w>
P ower</w>
st age</w>
R oom</w>
appl ications</w>
2 9
deli very</w>
In d
it self</w>
ach iev
g lobal</w>
Pr ice</w>
en -
sch ed
est er
eas es</w>
1 ,
e th
gl asses</w>
W est</w>
200 4</w>
St yle</w>
r u</w>
Air port</w>
te ll</w>
la ter</w>
P en
pop ulation</w>
mp tion</w>
ame work</w>
acc ord
ta x</w>
f a
appe ar</w>
writ ten</w>
func tions</w>
7 0
in side</w>
t our
f ederal</w>
y a</w>
M ag
do w</w>
Spec ial
sel ection</w>
M ari
fab ric</w>
pl astic</w>
d ings</w>
A M
F re
Lar ge</w>
pr int</w>
Syste m</w>
est ate</w>
jo b</w>
mo di
Par t</w>
ge ts</w>
wy er</w>
apart ments</w>
l at
work ers</w>
ug s</w>
ri d</w>
201 1</w>
in struc
P S
m ing</w>
j ud
F i</w>
w oo
dic tionary</w>
sel ect</w>
regi onal</w>
qu al
b ul
part ments</w>
Ag ency</w>
M achine</w>
u k
inst alled</w>
P ur
rec ent</w>
commun ities</w>
sal es</w>
5 5</w>
publ ished</w>
appro xim
t ook</w>
am ic</w>
S ince</w>
in ner</w>
D E
se t
ob tained</w>
el ines</w>
b s</w>
D I
L E</w>
pi ece</w>
An ti
dr ug</w>
ho t</w>
Wh y</w>
O F</w>
environ mental</w>
character is
A B
op tion</w>
En viron
organ ization</w>
The refore</w>
Ad d</w>
200 3</w>
. e
D ou
her it
st one</w>
anti -
ther ap
ti s</w>
mob ile</w>
fres h</w>
jour ney</w>
S we
S a
E con
excell ent</w>
wor th</w>
G ames</w>
h ard
se en</w>
L an
Aut om
No t</w>
it .net</w>
g en</w>
su stain
T un
t om
organiz ations</w>
L on
C er
manufacture rs</w>
la wyer</w>
amer a</w>
sh ape</w>
Sub ject</w>
Bo x</w>
ide a</w>
ess es</w>
co ol
tiv ely</w>
intro duc
contro ll
sto olk
stoolk it.net</w>
dn stoolkit.net</w>
as ing</w>
op ping</w>
Pro tec
D ri
N ations</w>
Cour t</w>
200 9</w>
ei ther</w>
use ful</w>
er ous</w>
Ar e</w>
3 D</w>
re lev
st ate
r up
p hoto</w>
ans w
y l</w>
A partment</w>
op tim
di a</w>
centr al</w>
s us
Hol iday</w>
S I
te l
con f
Econ om
pre vious</w>
but ton</w>
f ish</w>
Fam ily</w>
T E
prev ent</w>
c y</w>
dis h
tempor ary</w>
sel ves</w>
rel ation
the re
S et</w>
resp ec
cent ury</w>
ti ps</w>
s atis
ea m</w>
Con tro
vehic le</w>
ec es</w>
propos ed</w>
c anc
gh out</w>
c rit
ru n</w>
cl aim
T u
un ities</w>
8 -
par ti
gu aran
w s</w>
ann oun
exp ected</w>
por tion</w>
f f</w>
de al</w>
ar ticle</w>
AT I
res ted</w>
Be fore</w>
ple as
trans port</w>
ep tion</w>
E qu
4 6</w>
custom er</w>
C y
A ff
S -
tr u
C ase</w>
n i
US D</w>
at trac
anc y</w>
Ch rist
hy dro
id ed</w>
H el
Vide o</w>
Al so</w>
is on</w>
L eather</w>
idd le</w>
cal cul
Sec re
pers ons</w>
con fir
C R
e al
compon ents</w>
se ts</w>
L ou
ur ation</w>
s end</w>
exam ples</w>
as er</w>
3 7</w>
end ly</w>
it ting</w>
S o
10 -
acc oun
con sum
esti g
br and</w>
p oc
tiv ity</w>
p u
in ate</w>
c ut
he ating</w>
oper ating</w>
strate g
D uring</w>
direc tion</w>
con clu
over all</w>
m et</w>
re ly</w>
mom ent</w>
con ven
A -
s l
suc cess
M ot
pro of</w>
os is</w>
Direc tor</w>
S ize</w>
prac tic
u red</w>
b on
f low</w>
S el
z ed</w>
Re gi
or g
D u
A lex
reas ons</w>
n y</w>
T able</w>
bi g</w>
op tions</w>
recomm end
P ain
M B</w>
inter nal</w>
M any</w>
Bus iness</w>
correspon ds</w>
N O
P O
4 5
op ening</w>
olog ies</w>
B O
ite ms</w>
E ast</w>
B oo
le ts</w>
h ands</w>
autom atic</w>
T O
l in</w>
dig ital</w>
collec tion</w>
out door</w>
cri ption</w>
comm ercial</w>
r ub
3 9</w>
H u
b ands</w>
Ar t</w>
si on
lo y
hos p
O b
par ties</w>
V is
I r
ex erc
star ted</w>
prov inc
et c</w>
3 00</w>
es .com</w>
wa ve</w>
employe es</w>
B each</w>
pre pared</w>
protec t</w>
al ing</w>
hi stor
tis h</w>
am a</w>
c ast
C lo
D V
d i</w>
S um
Pro gram</w>
tain s</w>
to il
Res ults</w>
pl at
On ce</w>
approxim ately</w>
t y
ic o</w>
author ities</w>
ad es</w>
ell ing</w>
cl in
fin al</w>
Mat er
whe re
Typ e</w>
T eam</w>
fr ame</w>
W indows</w>
g s</w>
con ver
S C
invest ment</w>
col d</w>
ex change</w>
c itiz
compos ition</w>
Hum an</w>
ul ations</w>
b ran
ograph y</w>
bec om
ex tre
sp o
co ff
in fl
d ress</w>
ou d</w>
off icial</w>
proper ly</w>
H a
qu anti
F OR</w>
trad itional</w>
fac tory</w>
on to</w>
arran ty</w>
chi tec
mat ter</w>
m ach
il ing</w>
fol low</w>
proced ure</w>
well -
install ation</w>
wor ld
E C</w>
av y</w>
phot os</w>
consu mption</w>
bo di
et c.</w>
in k
P D
restaur ant</w>
l ost</w>
win ter</w>
x es</w>
comple x</w>
Ser ies</w>
provid ing</w>
mo ve</w>
cl ass</w>
t ab
V ol
gre ater</w>
suff ici
m ed</w>
mar k</w>
D ay</w>
ber g</w>
accord ance</w>
main tain</w>
re a</w>
car s</w>
H am
sel f-
le ad
e ding</w>
stand ards</w>
wr ite</w>
a .
pers on
recomm end</w>
L u
Restaur ants</w>
reg n
ec k</w>
gu ests</w>
ing ly</w>
it ate</w>
throu ghout</w>
commun ication</w>
B ir
M usic</w>
prov ince</w>
sp a
M use
oc cur
Per s
respon se</w>
dam age</w>
An dro
4 3</w>
no ted</w>
v it
M c
ha m</w>
Veterin ary</w>
K ingdom</w>
clim ate</w>
ad ver
sur ance</w>
200 2</w>
201 9-0
instruc tions</w>
electr onic</w>
H ous
no thing</w>
res ol
R om
H ist
k ids</w>
V ic
o .com</w>
dis eases</w>
T R
F lo
Bu il
m ir
ti l
de b
te -
L im
ar a</w>
app ear
ame ter</w>
re place</w>
oun ded</w>
Direc tory</w>
hou se
C D</w>
enti re</w>
9 5</w>
Pop ular</w>
wee ks</w>
si b
seas on</w>
ser ve</w>
pres ented</w>
iz ing</w>
exist ing</w>
giv es</w>
u tive</w>
im ages</w>
crit eria</w>
manu fac
Parliam ent</w>
E v
S how</w>
SO A</w>
S he
iv es</w>
reas on</w>
inst all</w>
s ell</w>
ven ue</w>
con centr
qu ar
is ation</w>
benef it</w>
h un
. .</w>
res sed</w>
N i
New s</w>
ic y</w>
Y or
D ig
6 5</w>
s co
E mp
200 1</w>
ag ged</w>
gir l</w>
sh ow
c ategories</w>
ch air</w>
defin ed</w>
E D</w>
Joh n</w>
buil t</w>
relev ant</w>
sub cat</w>
Ger man</w>
ter rit
princ ip
oc r
up on</w>
col l
solu tions</w>
he ad
lo g</w>
co -
sy mp
comp ati
s we
ris e</w>
sug g
Sil ver</w>
Rus sia</w>
S ports</w>
in flu
cy cle</w>
oles ale</w>
w ish</w>
positi ve</w>
cul tural</w>
S ou
nor mal</w>
reg ions</w>
in ten
dri ver</w>
th anks</w>
sc ape</w>
S .</w>
P age</w>
Comp anies</w>
vill age</w>
P u
min d</w>
R en
p ul
simp ly</w>
k in
ac id</w>
separ ate</w>
f em
wat ch
a p</w>
sur ve
requ ire</w>
fam il
it or</w>
D -
c os
bor n</w>
for d</w>
in str
pl ants</w>
m as</w>
ic ip
produc ed</w>
P at
Aff airs</w>
se tt
enc our
practi ce</w>
pro per</w>
acc ur
Canad ians</w>
H I
u le</w>
sh ip
sign al</w>
ro ll
fur niture</w>
S pr
st al</w>
Bri tish</w>
C I
le aves</w>
ic ity</w>
5 1</w>
du le</w>
p al
dep ending</w>
Mul ti
fun ding</w>
manag er</w>
3 8
Spec ial</w>
di tion</w>
l oss</w>
R os
us tice</w>
advant age</w>
P res
Au str
5 4</w>
ut ri
tur ing</w>
chall eng
tri bu
vol ume</w>
Andro id</w>
inv estig
Out door</w>
an tly</w>
c ros
sun g</w>
wat ches</w>
h ood</w>
w on</w>
Centr al</w>
win dow</w>
ic er</w>
V ir
y n
part ners</w>
em bodi
g ree</w>
H on
er ation</w>
L e</w>
al tern
Special ized</w>
Sec urity</w>
S ing
C i
col ors</w>
ex ternal</w>
com .
Ap pl
ar r
Tit les</w>
sup ple
id es</w>
le ather</w>
l atin</w>
ob s</w>
D em
sc ri
cul ture</w>
sa ve</w>
l atest</w>
s tic
4 9</w>
stu dies</w>
estima tes</w>
Ad v
5 2</w>
pi eces</w>
t an
b un
p ain</w>
lab els</w>
soci ety</w>
Pro f
coff ee</w>
Cle ar</w>
C at
P S</w>
an ish</w>
effor ts</w>
Coun ty</w>
fil ter</w>
i on
ind ustrial</w>
our g</w>
br ary</w>
Chil dren</w>
sk i</w>
w on
H D</w>
pa id</w>
lis ted</w>
C O</w>
m ol
correc t</w>
Vill a</w>
F er
ph ase</w>
allow ed</w>
hon or</w>
develop ing</w>
No .</w>
L et</w>
Re al</w>
T el
ad a</w>
bot tom</w>
z es</w>
we b</w>
An g
w arranty</w>
P a
mo de</w>
t ren
E -
process ing</w>
si x</w>
Lon don</w>
op h
me an</w>
pay ment</w>
F ederal</w>
or ial</w>
sci enti
umin um</w>
H and
she et</w>
li ance</w>
W he
H or
p atter
beg in</w>
Ho t</w>
co operation</w>
Sam sung</w>
techn i
inter net</w>
f lex
Con vention</w>
w a</w>
sp ir
Wh ile</w>
te ach
mus icians</w>
in ting</w>
As soci
econom y</w>
no tes</w>
F arm</w>
Arti sts</w>
B or
tro ph
es day</w>
ca used</w>
Elec tric</w>
5 3</w>
air port</w>
Afr ican</w>
re views</w>
B ank</w>
mem ory</w>
opin ion</w>
u als</w>
D om
ur ban</w>
J ac
pa ren
tow ards</w>
fig ure</w>
S cre
consi der</w>
o k
institu tions</w>
val u
t i</w>
S ocial</w>
in come</w>
p are</w>
hol ders</w>
ur al</w>
r ap
On -
N on-
ro c
minim um</w>
polic ies</w>
R ob
am b
fr amework</w>
pati ent</w>
adj ust
enc ed</w>
ann ual</w>
u str
G ar
ure ment</w>
um n</w>
gener ally</w>
19 7
c ame</w>
in sul
inter ior</w>
phys ical</w>
spec ies</w>
foc us</w>
al -
se l</w>
mov ement</w>
r ich</w>
pro te
flu id</w>
divid ed</w>
val ues</w>
dis cover</w>
Pr o</w>
sh oes</w>
h ost</w>
Y es</w>
int ended</w>
US B</w>
ie f</w>
ap p</w>
S M
cap ital</w>
G old</w>
8 8
sof t</w>
comfor t</w>
tou ch</w>
Tw o</w>
w ise</w>
W ell</w>
ment ary</w>
W all
F u
ec ts</w>
prof ile</w>
vi ously</w>
ligh ting</w>
I ts</w>
E N</w>
Comp any</w>
ra ted</w>
S cot
professi on
ra ther</w>
G B</w>
in king</w>
ak er</w>
tra ffic</w>
con y</w>
s ays</w>
Bab y</w>
ord ers</w>
G i
f all</w>
b es</w>
c s</w>
buil d</w>
L atest</w>
competi tion</w>
movi e</w>
Re port</w>
d ol
per man
Qu ality</w>
doc tor</w>
in de
Is land</w>
Trav el</w>
as ked</w>
Br and</w>
tran si
el -
col labor
fri ger
J ew
ing ton</w>
S ant
A N</w>
E r
ch an
lo ad</w>
9 0
e ve</w>
l or
e ous</w>
coun t</w>
for ward</w>
ing .com</w>
r ound</w>
l amp</w>
re placement</w>
re ferred</w>
Ph ot
sur -
ap ers</w>
en se</w>
Wat ch</w>
T E</w>
pharmac y</w>
M ob
entr ance</w>
program me</w>
giv ing</w>
desig n
t oms</w>
l ux
O t
assess ment</w>
own er</w>
b ac
any thing</w>
S U
appear ance</w>
i stry</w>
el im
To day</w>
fri endly</w>
le ading</w>
watch es-
t ations</w>
pro duce</w>
s mar
H igh
Muse um</w>
w ine</w>
play er</w>
G od</w>
at -
as ks</w>
ve terin
guid elines</w>
P L
if ied</w>
V en
condi tioning</w>
compris es</w>
re ports</w>
m igration</w>
d own
form er</w>
Us ed</w>
k n
mor ning</w>
g n</w>
A T</w>
cell s</w>
vill a</w>
them selves</w>
- up</w>
r ad
p il
R C</w>
con trac
ep ing</w>
pro gress</w>
4 8
Rus sian</w>
mar k
p air</w>
u its</w>
Is ra
restaur ants</w>
o di
B ou
cer tain
fore ign</w>
agr icul
part ner
off ered</w>
B ul
s ession</w>
R ou
p ath
m enti
go ti
B ook</w>
cer tif
Qu é
fir e</w>
f it</w>
yr ics</w>
z one</w>
B ec
D en
Ro y
ac tu
U r
assi stance</w>
R ol
ob itu
obitu aries</w>
wh ose</w>
fac tors</w>
ne tic</w>
Cust om
3 7
fri end</w>
n ect</w>
mos ph
k g</w>
a ult</w>
E duc
b ad</w>
langu ages</w>
e br
1 50</w>
pati ents</w>
C am
St and
. ru</w>
D oc
con v
gen res</w>
in i</w>
H un
e an</w>
remain s</w>
Manu facture
de mon
strate gy</w>
t ary</w>
reduc ed</w>
sh ops</w>
li er</w>
proc e
on able</w>
La ke</w>
elec tro
O per
K ar
.e .</w>
ach ieve</w>
y right</w>
ain s</w>
mix ture</w>
ev idence</w>
C ot
an ese</w>
Sm all</w>
r ac
S uch</w>
sk ills</w>
P -
st atus</w>
i .e.</w>
he ight</w>
U K</w>
M er
B ath
independ ent</w>
ati vely</w>
CO N
fr uit</w>
A C</w>
di men
N um
C .</w>
is es</w>
it er
s n
pan el</w>
every one</w>
suc cess</w>
w anted</w>
bud get</w>
Met al</w>
Mo del</w>
troph ies</w>
5 6</w>
consi sts</w>
S tain
k il
is ing</w>
th es</w>
mo ther</w>
regis ter</w>
X -
ma il</w>
qu es</w>
distribu tion</w>
cre am</w>
requi res</w>
ne g
Ta ke</w>
A U
p regn
Ligh ting</w>
ob ject</w>
ser ious</w>
5 9</w>
O il</w>
y m
Camp ing</w>
or al</w>
Ar ch
In stitute</w>
te mp
Stre et</w>
adop ted</w>
J os
In te
4 00</w>
woo den</w>
bro ad
a wa
U l
5 00
qui et</w>
re main</w>
v an</w>
up per</w>
C E</w>
se em
ak es</w>
consi st
C op
wor ked</w>
Stain less</w>
opport unities</w>
Qué bec</w>
r ic
os ing</w>
famil ies</w>
St ock</w>
g on
E s
pro mote</w>
dr ugs</w>
inf ra
Sain t</w>
M ade</w>
men ted</w>
Gl ass</w>
Pl astic</w>
de gree</w>
N atural</w>
arri val</w>
purpos es</w>
legis lation</w>
H al
id ent</w>
el ess</w>
ta ste</w>
ad em
RE S
S ha
l ack</w>
Wh ere</w>
S ell</w>
ur ch</w>
T agged</w>
f ic</w>
On- line</w>
er ies</w>
S c
F ashion</w>
Wat ches</w>
n ia</w>
tr o</w>
en tered</w>
hou sing</w>
g .</w>
fu n</w>
pl ans</w>
D e</w>
tur ned</w>
reg ular</w>
c ement</w>
doc um
fac il
V I
Comm un
P RO
Jap an</w>
ren t
characteris tics</w>
recommend ations</w>
g old</w>
auth ors</w>
5 8</w>
w alls</w>
inte rested</w>
un its</w>
occ up
F ab
ul a</w>
con text</w>
comm ittee</w>
cle aning</w>
Bra z
es tic</w>
ap h
Pe ople</w>
happ y</w>
ti le</w>
Par ts</w>
st atis
b row
Pro gram
Al ber
identi fy</w>
D ep
d u</w>
Des ign</w>
R a
inte grated</w>
individ uals</w>
wash er</w>
s ound</w>
M us
M em
ti fied</w>
th in</w>
Gre y</w>
cre te</w>
oc k
sec re
AC K</w>
sp ring</w>
rela x
L eg
ch ance</w>
t our</w>
P C
E L</w>
pic ture</w>
fl ic
tr ue</w>
rec ently</w>
bal ance</w>
Equ ip
pos sibility</w>
mil itary</w>
w ar
te s
On ly</w>
10 .
pri v
M oun
long -
resi stance</w>
un a</w>
suppli ers</w>
vers al</w>
Austr alia</w>
H is</w>
autom atically</w>
er ful</w>
s ex
V ery</w>
ag ent</w>
k ept</w>
wat er
R adi
Pl an</w>
import ance</w>
fer ably</w>
menti oned</w>
cour t</w>
out put</w>
proced ures</w>
Mon t
ob tain</w>
d ang
prov isions</w>
re le
st ar</w>
ab ilities</w>
w ent</w>
p on
relation ship</w>
monit oring</w>
pol ice</w>
comm ents</w>
lar gest</w>
did n</w>
M ac
paren ts</w>
car ry</w>
j a</w>
form ing</w>
hel ps</w>
ne goti
tal k</w>
reg ard</w>
F ull</w>
ar chitec
Por tu
dr ink</w>
mess age</w>
flow ers</w>
ey es</w>
dem and</w>
199 9</w>
3 9
ing er
al y
i ri
Saf ety</w>
b ank</w>
ven ess</w>
f ound
sustain able</w>
el t</w>
if ication</w>
am m
l ate</w>
A R</w>
organ ic</w>
ol a</w>
l -
en a</w>
fix ed</w>
al ized</w>
Ital ian</w>
b loc
cli ents</w>
cop yright</w>
B ot
to -
Rem ove</w>
Yor k</w>
identi fied</w>
suffici ent</w>
G ir
4 6
B ed
E l</w>
h ind</w>
lear ning</w>
P hoto</w>
K e
g a</w>
s ports</w>
re ached</w>
d on
Pub l
fe rences</w>
Con nec
chang ed</w>
S A</w>
some one</w>
hib ition</w>
ste ad</w>
cr y
di agn
ex e</w>
pre pare</w>
rou ght</w>
pri or</w>
Con ference</w>
Im age</w>
chem ical</w>
n ames</w>
indic ated</w>
C ro
dec isions</w>
main ly</w>
es tiv
t old</w>
J ust</w>
s .</w>
I gu
Contro l</w>
per cent</w>
d .com</w>
no tice</w>
p p
re lease</w>
plan ning</w>
W HO
E M
B I
Ch o
La w</w>
tain ing</w>
b ath</w>
E m
E g
rel ess</w>
S an
Co de</w>
a is</w>
Pol icy</w>
5 7</w>
Par ty</w>
s cho
as c
ne igh
2 ,
tra it</w>
ear ch
si gn</w>
ap ter</w>
Mo dern</w>
ra in</w>
in et</w>
D O
ab sor
man ner</w>
port ation</w>
break fast</w>
t ings</w>
in ated</w>
Dig ital</w>
is s</w>
dec ided</w>
compl ain
practic es</w>
w ar</w>
Sp anish</w>
li es</w>
f ine</w>
re pe
ate ll
B C</w>
let ter</w>
some times</w>
mi um</w>
w est</w>
me ets</w>
fam ous</w>
medi um</w>
M y
frequ ency</w>
D C</w>
L ong</w>
dis played</w>
stre et</w>
E T
wash ing</w>
WHO IS</w>
th ick
L yrics</w>
y ellow</w>
ro ll</w>
bil lion</w>
profession als</w>
S T</w>
sh ap
de par
part ner</w>
de ath</w>
F ig
er gy</w>
ti li
sen si
anal y
con fig
el ds</w>
B ea
c ris
high ly</w>
fl at</w>
de partment</w>
Dou ble</w>
detail ed</w>
H P</w>
Des ig
li fe
en coun
at mosph
e. g.</w>
og y</w>
.co .
n utri
ish ment</w>
i k</w>
Q U
answ er</w>
B L
i .com</w>
ligh tly</w>
sa w</w>
avail ability</w>
9 8</w>
M os
W ar</w>
f ill</w>
l ose</w>
comple ted</w>
re ported</w>
Des cription</w>
B us</w>
sh irt</w>
ch ain</w>
th ous
circ uit</w>
li ves</w>
in ations</w>
set ting</w>
. com.
ish es</w>
C ul
Inter nal</w>
alo gue</w>
ur o</w>
pri mary</w>
2 1
4 7
diffe rence</w>
embodi ment</w>
bal cony</w>
R ights</w>
Wed ding</w>
Al though</w>
comb ination</w>
ti sing</w>
We b
symp toms</w>
Igu ana</w>
intere sting</w>
st ates</w>
Hous es</w>
ing er</w>
health y</w>
cool ing</w>
tu be</w>
Autom atic</w>
effici ent</w>
hol der</w>
Ba g</w>
C enter</w>
B rown</w>
et h</w>
res sing</w>
D on</w>
pow der</w>
c ell</w>
reg istr
t s
ra m</w>
concer ned</w>
ag encies</w>
aff ected</w>
exp ensive</w>
do ors</w>
st ers</w>
S oci
p ite</w>
id a</w>
comp ared</w>
hand le</w>
challeng es</w>
evalu ation</w>
FI G</w>
multi ple</w>
mil k</w>
St ation</w>
comp an
ne -
con tract</w>
l ad
e at</w>
ad ed</w>
pl ates</w>
ex tra</w>
Tre at
d or
A gre
f air</w>
as p
M ex
on ing</w>
D E</w>
th ought</w>
atell ite</w>
St .</w>
te a</w>
th or
b right</w>
ed ge</w>
em a</w>
S le
me an
toil et</w>
re in
hop e</w>
Christ mas</w>
citiz ens</w>
V C</w>
it ness</w>
t .com</w>
sol id</w>
Wat er
W ash
cre ation</w>
p ages</w>
k er
R u
re di
de pos
cle an
Ro ad</w>
su n</w>
t ask</w>
Ex ec
Ab out</w>
uc le
discus sion</w>
B -
g ol
fur n
9 9
L and
A S</w>
pre -
St ar
resid ence</w>
A M</w>
s quare</w>
In st
men u</w>
gi um</w>
C ab
Pro per
Indi a</w>
2 50</w>
a id</w>
sh opping</w>
pur su
P ic
con flic
ec tor</w>
M ay
arm ing</w>
W ester
w ri
jo int</w>
ac king</w>
m aster</w>
descri ption</w>
x -
ac es</w>
therap y</w>
et e</w>
is tic</w>
extre m
Se a</w>
streng th</w>
i bility</w>
t ree</w>
st ations</w>
be aut
O w
Ch eck</w>
represent ative</w>
G I
L og
ang le</w>
ing redi
p ack</w>
s ources</w>
b it
ti an</w>
i a
fun ds</w>
3 00
de tail</w>
T P</w>
Ot ta
L t
Techn ology</w>
B ay</w>
i x</w>
arti cles</w>
C M
Sun glasses</w>
objec tives</w>
ru le</w>
un ch</w>
tran spa
w all
Fo re
oo d
and a</w>
r ating</w>
B ack
Clo thing</w>
bus in
sec ond
in surance</w>
P ag
- -</w>
oun ding</w>
cre dit</w>
ar ms</w>
situ ated</w>
bo at</w>
go al</w>
becom es</w>
in j
ong s</w>
k -
T ex
Econom ic</w>
pleas ant</w>
con sequ
W el
Sch ool</w>
Pro ject</w>
c ro
lin ks</w>
ens es</w>
di e</w>
on ds</w>
u b</w>
be hind</w>
au l</w>
ag ue</w>
ici ous</w>
adv ice</w>
ing u
Bo ats</w>
f oot</w>
num bers</w>
Y ear</w>
Gre ece</w>
ac e
E T</w>
sh el
di strict</w>
PD F</w>
sc ale</w>
respon sibility</w>
Mo vi
G arden</w>
E ven</w>
at too</w>
Lin ks</w>
z h
H D
sh o
I T</w>
contain ing</w>
d ark</w>
rec i
Tun is
get ting</w>
exp ec
herit ance</w>
eng ine
vehic les</w>
Cl ick</w>
sto red</w>
bi o
L ast</w>
requ ested</w>
th es
es sible</w>
wa ste</w>
on ics</w>
sib ilities</w>
Bel gium</w>
z y</w>
sle ep</w>
con stitu
P ink</w>
199 8</w>
fac es</w>
par agr
incre asing</w>
v in
circ um
grow ing</w>
al co
anim al</w>
. ca</w>
a qu
Net work</w>
hosp ital</w>
k i</w>
in spec
G ol
stain less</w>
Otta wa</w>
G E</w>
B M
st a</w>
f ight</w>
W all</w>
P R
Fin anc
An n
o red</w>
er ship</w>
Loc ation</w>
Jap anese</w>
C D
Pl us</w>
a ke</w>
k l
es h</w>
rent als</w>
am ber</w>
A V
approv ed</w>
or a</w>
o o</w>
sp r
ar ity</w>
Sant a</w>
ra il</w>
Educ ation</w>
c amera</w>
di ed</w>
Gre at</w>
ob lig
S C</w>
sup ported</w>
L au
G H
con tain</w>
plat form</w>
Sw it
wal king</w>
M un
G ood</w>
int age</w>
reduc tion</w>
dest ination</w>
comb ined</w>
sal t</w>
clos ure</w>
pe ace</w>
X L</w>
contain ed</w>
Wh ich</w>
L y
issu ed</w>
res olution</w>
it al
ent ary</w>
g al</w>
en ge</w>
p es</w>
B ud
fail ure</w>
Num ber</w>
d ates</w>
i tes</w>
dic ated</w>
sub mitted</w>
bec ame</w>
sm all
H os
ir on</w>
in ser
adv ance</w>
regul ations</w>
lab our</w>
em e
le x</w>
O ce
an k
ay ing</w>
W ant</w>
compon ent</w>
Cont ents</w>
L ear
T op
R h
the tic</w>
di ameter</w>
is land</w>
gir ls</w>
12 0</w>
fav or
defin ition</w>
pen sion</w>
mun icip
er t
a x</w>
on ia</w>
C are</w>
an i
ip es</w>
di um</w>
ev ening</w>
success ful</w>
C L
i ples</w>
G O
F R
ta x
g ift</w>
Gen eal
tic ip
ap h</w>
be ds</w>
om b
ann ed</w>
prepar ation</w>
app ears</w>
Cor por
under standing</w>
w il
sh ared</w>
am oun
T ro
si zes</w>
au x</w>
Environ ment</w>
con ference</w>
h am
I C</w>
go es</w>
princip le</w>
P ack
radi o</w>
ti veness</w>
di et</w>
min ation</w>
In c</w>
Equip ment</w>
effici ency</w>
promo tion</w>
ur s
sur name</w>
play ing</w>
g ro
particip ants</w>
gon na</w>
ha vi
8 5</w>
ot a</w>
p et</w>
5 5
Bec ause</w>
au di
6 4</w>
ther wise</w>
0 -
s am
do g</w>
con tr
Ma p</w>
s ter</w>
c c</w>
Ri ver</w>
w in</w>
Loc ated</w>
Col our</w>
ing -
y ed</w>
j un
car bon</w>
ir ts</w>
D iv
Ass embly</w>
r ors</w>
ite m</w>
st ops</w>
iz es</w>
amp s</w>
anim als</w>
M ain
bo dies</w>
reg ards</w>
f lower</w>
Hist ory</w>
re view
or ation</w>
ter y</w>
et ings</w>
beg an</w>
B ran
2018 -
ch os
fo ot
al one</w>
6 8</w>
er a</w>
cop y</w>
Sun day</w>
A no
w ard
R ental</w>
concer n</w>
el ry</w>
P ort</w>
classi c</w>
sen se</w>
EU RO
C N
G olf</w>
u x</w>
b y
to x
sugg ested</w>
cot ton</w>
des ired</w>
Roy al</w>
ca uses</w>
Wester n</w>
me at</w>
e m</w>
fe ature</w>
G ran
M el
dis pos
Min i</w>
w ills</w>
Reg ister</w>
fo rest</w>
pre ferably</w>
pr ise</w>
particip ation</w>
b rought</w>
G ra
alth ough</w>
Ind ustrial</w>
C A</w>
exc e
jec tion</w>
6 1</w>
Pi er
Ac tion</w>
3 3
beaut y</w>
re mote</w>
perf ec
meas ure</w>
Braz il</w>
Reg ulation</w>
won der
D r.</w>
Sho p</w>
fem ale</w>
Mater ial</w>
us ual</w>
dis h</w>
Associ ation</w>
Br un
f ashion</w>
j obs</w>
Str ateg
spac ious</w>
si mul
lux ury</w>
c ir
special ized</w>
sug ar</w>
form at</w>
prac tical</w>
j ac
estiv al</w>
wee k
D ol
dis p
ar ch
quanti ty</w>
vit am
re h
vis ited</w>
en su
or d</w>
v a</w>
tim ate</w>
T our
L ow</w>
Av ail
cou ple</w>
Tur key</w>
as y</w>
wel come</w>
house hold</w>
provinc ial</w>
Im migration</w>
ther lands</w>
rou tes</w>
au gh
registr ation</w>
Exec utive</w>
tre ated</w>
Agre ement</w>
s lightly</w>
Cl ub</w>
C able</w>
O ver
M ir
- S
wa it</w>
all ing</w>
id ity</w>
M M
m ass</w>
seem s</w>
pres er
protec ted</w>
read ing</w>
correspon ding</w>
it a</w>
is sion
Re view</w>
ph en
off ici
E D
dep ends</w>
A sia</w>
i j
10 00</w>
A gr
li e</w>
remo ved</w>
is ms</w>
ATI ON</w>
bre ak</w>
in ter</w>
specif ically</w>
20 20
exerc ise</w>
dom estic</w>
sk y</w>
ic on</w>
O S</w>
D on
k y</w>
ur a</w>
Lux ury</w>
w ind</w>
ast er
O rig
top ics</w>
i Phone</w>
ill ustr
ci vil</w>
W H
str ate</w>
p ump</w>
C ou
techn ologies</w>
t in
multi -
ail s</w>
so il</w>
con nect</w>
Ch amp
Sci ence</w>
recogn ize</w>
announ ced</w>
tar get</w>
sup ports</w>
Un der
Ne ed</w>
dy nam
cre ating</w>
k .com</w>
i b
t les</w>
loo ks</w>
stre am</w>
s ent
Sup port</w>
I R
acc essible</w>
serv ation</w>
m as
p ass</w>
D resses</w>
cli ent</w>
Tunis ia</w>
S mar
be havi
cle arly</w>
charac ter</w>
S ome
Ap ple</w>
Out ings</w>
tr ack</w>
ownlo ading</w>
ed om</w>
m id
ap est</w>
lim it</w>
j ew
C T
fu ge
T ar
E M</w>
conduc ted</w>
B R
mo dule</w>
ch e</w>
mag n
certain ly</w>
. exe</w>
Ci vil</w>
atmosph ere</w>
el eg
subst anti
7 5
P aul</w>
extrem ely</w>
comp reh
ex ac
f ather</w>
electr ical</w>
inte l
gr ade</w>
dec re
E ar
p sy
for ces</w>
moun tain</w>
tis su
m el
P E</w>
tur ns</w>
c ore</w>
dr yer</w>
L is
6 7</w>
St or
str ong
Ne therlands</w>
if y</w>
in ks</w>
Y ellow</w>
Je an-
maj ority</w>
L iv
Th er
b ags</w>
Pag er
where in</w>
h arm
u k</w>
Je an</w>
y outh</w>
oper ate</w>
bac ter
state ment</w>
we d
b ing</w>
ot ing</w>
continu ed</w>
or ities</w>
mar ks</w>
in ch</w>
Pager ank</w>
initi al</w>
S ony</w>
s av
u um</w>
ext ended</w>
En ergy</w>
us sel
h a</w>
sol d</w>
ly mp
camp a
initi atives</w>
Ac ti
resul ting</w>
contribu te</w>
I D</w>
infra structure</w>
B et
Un der</w>
air e</w>
Ch ris
K itchen</w>
6 6</w>
Or der</w>
intere sts</w>
D ra
in put</w>
em e</w>
V o
neg ative</w>
ti re</w>
vic ti
tr ying</w>
concer ns</w>
friger ator</w>
ver ing</w>
advant ages</w>
f ran
oc ks</w>
De tail
T ags</w>
zer land</w>
for tun
bra ke</w>
dre am</w>
6 00</w>
cl ing</w>
Ab original</w>
re r</w>
exec ut
Ma ke</w>
v an
upd ate</w>
incre ases</w>
re member</w>
al ed</w>
bab ly</w>
compati ble</w>
6 2</w>
objec tive</w>
el le</w>
world wide</w>
Ano ther</w>
ari ans</w>
sil ver</w>
chos en</w>
B on
plan e</w>
ell a</w>
th ly</w>
b lock</w>
sp end</w>
n u
I te
occ ur</w>
r ace</w>
C V</w>
Col lec
al ization</w>
resi stant</w>
Swit zerland</w>
loy ment</w>
zz le</w>
draw er</w>
Mo re
mo tion</w>
it ter</w>
decor ation</w>
om as</w>
run ning</w>
fam ili
ass embly</w>
R ev
Ac cess</w>
aff ect</w>
st ances</w>
s ample</w>
follow ed</w>
S port</w>
p m</w>
b ow
col le
m iddle</w>
coo king</w>
iv ed</w>
p ath</w>
Th anks</w>
am az
b order</w>
st able</w>
ch ron
199 7</w>
k o
pow erful</w>
Col umb
C ri
Wor k
M r</w>
ul ed</w>
2. 0</w>
om a</w>
coo l</w>
O P
gre es</w>
am end
s and
C r
Co ol
ó n</w>
Sof tware</w>
de dicated</w>
Protec tion</w>
pres cri
Q C</w>
Wh olesale</w>
int ment</w>
b rown</w>
S H
ph as
less -
c in
C hair</w>
establ ish</w>
fi elds</w>
ver si
represent atives</w>
30 1</w>
bot tle</w>
wri ter</w>
Reg ion</w>
ho l</w>
comm itted</w>
off ering</w>
ke y
ig e</w>
cris is</w>
Pol y
cut ting</w>
z ing</w>
en able</w>
Cl assi
D or
re action</w>
E ff
perfec tly</w>
princ iples</w>
Di strict</w>
p as
contribu tion</w>
ey e</w>
scienti fic</w>
as k
ris ks</w>
ad o</w>
6 3</w>
al le
gener ation</w>
Movi es</w>
K ids</w>
D A</w>
P ress</w>
ex pos
k ra
boo ks</w>
author ity</w>
viol ence</w>
reli able</w>
At lan
subst ances</w>
orig in</w>
S atur
tre at</w>
x .com</w>
H en
ame ters</w>
ve -
st on</w>
g a
tele vision</w>
C over</w>
mon y</w>
U N</w>
u ted</w>
Wi -
se x</w>
Con go</w>
elec tion</w>
improv ed</w>
A partments</w>
K en
mag netic</w>
deli vered</w>
fin ish</w>
y ond</w>
O r</w>
c .com</w>
Min istry</w>
our able</w>
gu est</w>
adver tising</w>
mo ist
W ood</w>
aw are</w>
v ation</w>
ob jects</w>
des k</w>
Ex c
m on</w>
L ev
ain ed</w>
Un like</w>
adv anced</w>
j e
buil dings</w>
Columb ia</w>
ac compan
pri ority</w>
strateg ic</w>
for get</w>
Tor onto</w>
exper ts</w>
ab ol
g al
applic able</w>
sw itch</w>
Bl u
C F
play ers</w>
ar i</w>
stud ent</w>
for ced</w>
ar ia</w>
1 st</w>
in ary</w>
4 9
movi es</w>
cel ebr
agre ed</w>
M u
guaran tee</w>
inter pre
re stric
Fe atures</w>
man age</w>
m .</w>
ag g
H air</w>
F lights</w>
en der</w>
I II</w>
M aster</w>
la ke</w>
propos al</w>
encoun tered</w>
In f
EN T</w>
sh oul
eas ier</w>
M en
Syste ms</w>
character ized</w>
Pr int</w>
dou b
Ge or
fe et</w>
jec ted</w>
Br ussel
d n</w>
vol tage</w>
initi ative</w>
Cal i
12 .
C S
micro wave</w>
conven ient</w>
Engl and</w>
5 0.
th -
re new
Financ ial</w>
govern ments</w>
ch ro
tre es</w>
ann els</w>
f as
vac ation</w>
if ts</w>
g row</w>
employe e</w>
O ld</w>
moun ted</w>
d ens
oo king</w>
paragr aph</w>
b ought</w>
An im
bo y</w>
administr ation</w>
rel ating</w>
Wi- Fi</w>
C u
sus p
chan nel</w>
lo ts</w>
R et
b ig
ide as</w>
for d
f our
l ar</w>
st ated</w>
Res ources</w>
scho ols</w>
is c
A z
graph ic</w>
veget ables</w>
a j
app reci
Stand ard</w>
manufac turing</w>
v as</w>
S .
ro ads</w>
In heritance</w>
Lux emb
Prof essi
innov ative</w>
in formed</w>
Tim e</w>
g lo
arran g
E X
tem plate</w>
sens or</w>
G lobal</w>
ha ir
7 2</w>
Ad ministr
ist ers</w>
requ ests</w>
de ep</w>
im pres
199 6</w>
Regi onal</w>
care fully</w>
it age</w>
sy m
t ol
gar age</w>
p ink</w>
pic tures</w>
sof a</w>
30 2</w>
high est</w>
pec ts</w>
patter n</w>
Mob ile</w>
M B
EURO P
T A</w>
tic ally</w>
introduc ed</w>
trans mission</w>
altern ative</w>
clo thes</w>
hab it
pain ting</w>
b o</w>
partner ship</w>
con struc
comp liance</w>
Alex a</w>
mot or
a to</w>
om en
conc ept</w>
s a</w>
C ra
w ards</w>
e uro
cul ation</w>
cri tical</w>
se at</w>
bri dge</w>
cor ner</w>
P ay
ste el-
M -
mechan ical</w>
pack age</w>
us ted</w>
s er</w>
i di
me aning</w>
S quare</w>
end a</w>
G ift</w>
dish es</w>
Isra el</w>
Mic ro
me etings</w>
B ased</w>
rele ased</w>
p apers</w>
K ing</w>
busin esses</w>
L uc
g ri
sign s</w>
vis ible</w>
S li
sid es</w>
E very</w>
De f
V -
depar ture</w>
particip ate</w>
P ost</w>
oc cas
e x</w>
stain less-
d ur
sec tors</w>
actu ally</w>
pre t
Geneal ogy</w>
te es</w>
bir th</w>
Lan gu
monit or</w>
Brussel s</w>
mi x</w>
Techn ical</w>
ingredi ents</w>
controll ed</w>
pro bably</w>
pres ent
T i
tu de</w>
r at
thick ness</w>
g y
la ws</w>
DV D</w>
S and
whe el</w>
ax y</w>
op ened</w>
f ishing</w>
tra -
r i</w>
Pl ace</w>
D avi
l t;</w>
& lt;</w>
medic ine</w>
B os
qu e
W IT
vol un
t ac
Wall paper</w>
res earch
Gr and</w>
jo y</w>
stainless- steel-
im ag
sta ke
del eg
pos t</w>
ad equ
draw n</w>
Bea uty</w>
ass age</w>
C P
ograph ic</w>
is n</w>
Fo ot
condi tion
pl ays</w>
nation ality</w>
ar ily</w>
ac el
to on</w>
tele phone</w>
R ank</w>
sci ence</w>
ent ure</w>
ir a</w>
em o
t led</w>
ran e</w>
C la
p ast
V eg
Pow der</w>
se y</w>
agre ements</w>
y e</w>
St -
g ent
st ly</w>
factu red</w>
itch en
Fun d</w>
car t</w>
ad ults</w>
C B
suppli es</w>
w ants</w>
effor t</w>
imple mented</w>
S ar
sear ched</w>
L ife</w>
co ordin
Reg ulations</w>
R ic
D A
c ast</w>
W ar
S em
ut ch</w>
V ac
N A</w>
con crete</w>
b a</w>
in stead</w>
compar ison</w>
rel ative</w>
Fol low</w>
M ain</w>
sun set</w>
3 2
D R</w>
k o</w>
EU R</w>
m in</w>
Fri day</w>
ordin ary</w>
mo der
n d</w>
signific antly</w>
Med ical</w>
t ot
Me dia</w>
re nov
tif ication</w>
Fin ally</w>
Ex p
exc ept</w>
7 7
Indi an</w>
fig ures</w>
dra w</w>
canc er</w>
emerg ency</w>
J er
C os
func tional</w>
O L
m g</w>
Manag er</w>
author ized</w>
contain er</w>
cust om</w>
innov ation</w>
Her itage</w>
Coun try</w>
ri a</w>
t g
con temporary</w>
Mex ico</w>
Fran c
n ucle
f illed</w>
4 2
B ar</w>
low -
V E</w>
h im
ph ones</w>
Al l
T A
st y
T ER
sec ure</w>
integr ation</w>
Mon day</w>
accur ate</w>
acc o</w>
Luxemb ourg</w>
om et
car ds</w>
fir m</w>
ax is</w>
Off icer</w>
ther more</w>
Wi Fi</w>
on e
m ist
d ated</w>
pe p
og en
sto res</w>
I A</w>
hu ge</w>
ach ing</w>
pl us</w>
reco very</w>
Bath room</w>
pro p
pain t</w>
l am
is ol
a er
conduc t</w>
att ached</w>
reas onable</w>
F ed
B ut
ren ti
. de</w>
ob served</w>
Res er
1 20
abl ed</w>
he ader</w>
C z
s outh</w>
S tra
mo bil
Pain ting</w>
Con di
j e</w>
el ig
Fr ont</w>
Pl an
exp lo
mach ines</w>
ro t
harm ful</w>
Pri me</w>
influ ence</w>
G ame</w>
Tra ffic</w>
rel ations</w>
te sts</w>
m ale</w>
D S</w>
18 4.
ev a</w>
Prov ince</w>
lo y</w>
ther mal</w>
dem ocr
al uminum</w>
al er
O h</w>
organ ized</w>
fin ished</w>
v el
b our
E very
6 9</w>
R ent</w>
consul t</w>
mus e
C C
Restaur ant</w>
writ ing</w>
p .com</w>
struc tures</w>
grad u
s atellite</w>
specif ied</w>
ad y</w>
s port
long- term</w>
met res</w>
Be autiful</w>
pol l
hol e</w>
em phas
Acti vities</w>
Buil ding</w>
compris ing</w>
rel and</w>
at oes</w>
- P
T C</w>
K it</w>
Agr icul
pack aging</w>
w ire</w>
kin ds</w>
b at
O lymp
as onic</w>
bath rooms</w>
boo king</w>
Th urs
rel ation</w>
g ave</w>
19 .
t ank</w>
av ig
rub ber</w>
achiev ed</w>
as pects</w>
le ads</w>
h em
contin ues</w>
er ce</w>
C el
tr ust</w>
re ve
mechan ism</w>
exc ep
resol ves</w>
Ch r
for ums</w>
is i
6 8
ission er</w>
am ing</w>
A li
them e</w>
expres sed</w>
To ols</w>
docum entation</w>
P P
Cha ir
IS O</w>
An y</w>
re ar</w>
E le
Dis cover</w>
all ery</w>
C irc
w are
hes ive</w>
4 00
id den</w>
5 7
M S
f arm
G S</w>
3 ,
val ve</w>
A rea</w>
c tion</w>
approv al</w>
Davi d</w>
flex ible</w>
om m
trans l
land scape</w>
imple ment</w>
pos itions</w>
ti se</w>
mil e</w>
chang ing</w>
circum stances</w>
M ol
o ts</w>
ad or</w>
lat ter</w>
co c
m o</w>
U p</w>
o is</w>
w indows</w>
e k
d am</w>
favor ite</w>
I mp
th day</w>
ic ated</w>
N ed
star ts</w>
M AR
ic king</w>
More over</w>
sti mul
t ang
be half</w>
exten sion</w>
B ol
L ine</w>
rou gh</w>
w ing</w>
ic y
oc ol
ex trac
wonder ful</w>
me ter</w>
V il
S t</w>
1. 5</w>
f at</w>
if ic</w>
p ipe</w>
pre vention</w>
corpor ate</w>
care er</w>
199 5</w>
Thurs day</w>
w as
gener ates</w>
ag en</w>
ent y</w>
end ant</w>
f itted</w>
dra ft</w>
AG ES</w>
pr inting</w>
ea h</w>
smo oth</w>
s en</w>
co l</w>
c up</w>
Mot or
prov ision</w>
ag u
ma y
histor ical</w>
Par t
4 ,
establ ishment</w>
b log
st ress</w>
L it
17 .
N ic
H ear
L et
sp on
let te</w>
A ustri
8 00</w>
Manu als</w>
p cs</w>
Eng ine
agricul tural</w>
at temp
fre edom</w>
a res</w>
hom es</w>
co pe</w>
Sel ect</w>
conflic t</w>
chall enge</w>
educ ational</w>
fortun ately</w>
wa iting</w>
col our</w>
b b
h all</w>
v ar
il ed</w>
We b</w>
sol e</w>
in vi
Gal axy</w>
Pan el</w>
under stand
st op
direc tory</w>
HT TP</w>
recogn ized</w>
B an
surr ounding</w>
bus es</w>
ab e
Ad vis
second ary</w>
T otal</w>
sup porting</w>
nec k</w>
F li
ch lor
Cali for
Wor k</w>
sur vi
fac ing</w>
mat ch</w>
Me eting</w>
de grees</w>
ann er</w>
tu red</w>
reg ulation</w>
su it</w>
rel atively</w>
supple mentary</w>
o therwise</w>
ir ing</w>
par ameters</w>
form al</w>
Appl ication</w>
Wed n
exac tly</w>
consul tation</w>
L -
ju ice</w>
Fab ric</w>
n al
M E</w>
b ol
ra ised</w>
re porting</w>
compar ator</w>
16 8.
bun al</w>
9 2</w>
pos e</w>
h tt
repres ents</w>
hy dra
k it</w>
net works</w>
comp ens
Fac tory</w>
sc en
recor ded</w>
wed ding</w>
Suppli ers</w>
g ary</w>
cl ass
P aper</w>
n ar
dish washer</w>
of t</w>
gi ous</w>
mo ving</w>
en try</w>
pregn ancy</w>
an i</w>
spac es</w>
Del i
inf ection</w>
serv ing</w>
inde x</w>
leg s</w>
ur g
D ub
lin ked</w>
f la
happ ens</w>
ist an</w>
T attoo</w>
gr an
dro p</w>
re n</w>
collabor ation</w>
effec tively</w>
igh t
In de
t asks</w>
program ming</w>
Bra ke</w>
Manufacture rs</w>
C ast
Scot land</w>
Go vern
hum an
Au th
T ou
Stu d
vir us</w>
occur s</w>
- B
sol id
streng then</w>
ur is
pre viously</w>
own ers</w>
ite ly</w>
es tion</w>
be yond</w>
gen ous</w>
cre ative</w>
go als</w>
l es
eme tery</w>
er rors</w>
po or</w>
ext ent</w>
sub sequ
lit er
U kra
R ose</w>
r on</w>
sh ar
li st
L am
Sy n
num erous</w>
repres ented</w>
fil ters</w>
experi enced</w>
claim s</w>
inf ec
co ating</w>
Satur day</w>
po st
A F
Ad di
ce re
Professi onal</w>
et ro
ad ding</w>
z y
In du
Ite m</w>
EUROP AGES</w>
regul atory</w>
at tribu
I reland</w>
al es</w>
pro mis
el se</w>
clo thing</w>
te sting</w>
br ush</w>
am ond</w>
La wy
Li brary</w>
el ev
Wedn esday</w>
m atic</w>
low ing</w>
bel iev
f elt</w>
Au dio</w>
Wor king</w>
O ver</w>
n -
Win ter</w>
R ome</w>
Cust om</w>
appo inted</w>
L ink</w>
administr ative</w>
5 -0
n ic</w>
prote in</w>
cast ing</w>
Dis play</w>
indic ate</w>
ster n</w>
iz on
he ar</w>
A qu
ert ys</w>
Sec ond</w>
Radi o</w>
hear d</w>
Lawy ertys</w>
ag ents</w>
allow ing</w>
C in
he avy</w>
perman ent</w>
d uration</w>
chec king</w>
n es</w>
fi ber</w>
fun d</w>
experi ences</w>
tour ist</w>
streng th
instr uments</w>
ri d
inter face</w>
6 3.
W a
ke eping</w>
ut ting</w>
6 7
Califor nia</w>
Scre en</w>
cap able</w>
v ul
d ly</w>
Re ference</w>
Fur thermore</w>
f ro
ear lier</w>
surve y</w>
require ment</w>
pl as
comp et
R ound</w>
2020 -0
V an</w>
appe al</w>
iv al
L av
Indu stry</w>
A x
ic one</w>
cos me
se ven</w>
man ds</w>
ag ency</w>
exp an
S E</w>
temper atures</w>
M as
G -
mean ings</w>
qu ir
alco hol</w>
is sions</w>
ren cy</w>
J ustice</w>
pass eng
e ties</w>
compreh ensive</w>
af ter
g ian</w>
Sec tion</w>
expec tations</w>
sp read</w>
F OR
acc el
el a</w>
sensi tive</w>
f r</w>
s port</w>
I M
ren ess</w>
Ch ief</w>
ex hibition</w>
program mes</w>
ind ustri
op tical</w>
it ations</w>
fr uits</w>
dep th</w>
P ik
ri ver</w>
lar ger</w>
St ar</w>
ing en</w>
trans portation</w>
smo king</w>
regul arly</w>
Nor thern</w>
M iddle</w>
accep ted</w>
9 6</w>
wid ely</w>
d il
7 -0
sur ing</w>
tari at</w>
mis sions</w>
laun ched</w>
al k
2 B</w>
lin ed</w>
r ying</w>
understand able</w>
fl av
er .com</w>
Pre mium</w>
c alls</w>
mark eting</w>
direc tor</w>
ch annels</w>
k id
iri t</w>
He ad</w>
de al
T ren
f ish
H ave</w>
U C
dri ving</w>
employ ed</w>
Y O
th ir
IN E</w>
o de</w>
h aps</w>
sched uled</w>
on e-
R -
A .</w>
Us ing</w>
eleg ant</w>
W ell
Eg yp
es el</w>
accompan ied</w>
dec ide</w>
res s
bar s</w>
E state</w>
it i</w>
Avail able</w>
Suppli er</w>
Sing le</w>
at ch
dang erous</w>
fac tor</w>
ann a</w>
k in</w>
f ying</w>
a rest</w>
cab inet</w>
P ac
P A</w>
cour ses</w>
bi ke</w>
E li
sched ule</w>
ick en</w>
inger ie</w>
N ot
ul ated</w>
V ari
R ub
Bo dy</w>
fi replace</w>
si vely</w>
lo an</w>
é e</w>
Cre am</w>
tw o-
ec tive</w>
collec ted</w>
C ard</w>
è re</w>
f ly</w>
20 21</w>
le aving</w>
G E
FA Q</w>
pris es</w>
Ni ke</w>
RE N
oun ge</w>
F ish
am en
add ressed</w>
p .
S or
Comm issioner</w>
ber ry</w>
ass ist</w>
th ro
se g
6 5
Fac e
territ ory</w>
Ve hic
compos ed</w>
12 -
correc tions</w>
lic ence</w>
10 00
bre a
P ad</w>
Mic ha
S ig
ac ting</w>
dis ci
al d</w>
U .
z er</w>
Po int</w>
Anti -
es sions</w>
anc ing</w>
improv ing</w>
Phil ip
184. 168.
ri de</w>
s k</w>
lead ers</w>
m outh</w>
mar ket
R ot
fri dge</w>
po t</w>
is -
ill a</w>
Ma x</w>
sever e</w>
ard ed</w>
con stant</w>
Comm ercial</w>
St an
2. 5</w>
sur g
Classi c</w>
Sp are</w>
p el
au dio</w>
spea k</w>
ry lic</w>
Com ple
inte st
stake holders</w>
fe eling</w>
Stu dio</w>
un ion</w>
s q
f air
c up
B oth</w>
A ra
u lic</w>
competi tive</w>
loc ations</w>
Pers onal</w>
is ted</w>
Pr inc
ce iling</w>
T ab
ven tions</w>
g in
manag ed</w>
199 4</w>
D ate</w>
it ors</w>
P il
A ud
F -
C li
rela tes</w>
St ore</w>
F ound
00 1</w>
techni ques</w>
Pl ay</w>
meas urement</w>
B E
wi m</w>
pain ted</w>
al i
T own</w>
sco pe</w>
decor ative</w>
N ice</w>
dispos al</w>
C off
u n</w>
iter ran
ec ting</w>
D P</w>
veget able</w>
ou red</w>
deli ver</w>
r ural</w>
Phil ips</w>
R ad
consist ent</w>
1 10</w>
Liv ing</w>
E st
pr inted</w>
reduc ing</w>
con stan
g in</w>
ch airs</w>
estima ted</w>
Con sul
facil itate</w>
K n
M A</w>
E poc
tor al</w>
qu ick</w>
ti les</w>
sec onds</w>
M an</w>
s ence</w>
cri minal</w>
P la
ov o</w>
w ife</w>
Mic h
ri er</w>
dis cri
P AR
Lt d</w>
st ories</w>
sett ings</w>
Mic ros
She et</w>
A G</w>
M ur
arti st</w>
concentr ation</w>
hear ing</w>
remo val</w>
Con ver
16 .
Fl or
Epoc h</w>
hol ds</w>
for cement</w>
transpa rent</w>
applic ant</w>
him self</w>
ac t
Ch e
sec tions</w>
att ack</w>
9 1</w>
et ary</w>
bra in</w>
D ress</w>
T ER</w>
su ite</w>
8 8</w>
Wh o</w>
T om
main tained</w>
hol ding</w>
re fuge
acc ept</w>
jo in</w>
exper im
there of</w>
rep air</w>
veterin ary</w>
Tra in</w>
Bar cel
Fl at</w>
Detail s</w>
re d
sex ual</w>
Ber lin</w>
pe ti
til ity</w>
yl ene</w>
Th ree</w>
m ac
Spe aker</w>
enh ance</w>
ch r
f le
vis ual</w>
defin itely</w>
flo ors</w>
z en</w>
D I</w>
b in
al ities</w>
Se ver
sel ling</w>
C ent
As si
Comp are</w>
se eds</w>
bo ats</w>
on lin
clu es</w>
20 2.
b ou
situ ations</w>
ome ters</w>
The ir</w>
é al</w>
t ons</w>
off ices</w>
Off icial</w>
fe ed</w>
C ry
ac adem
exper tise</w>
Pen al</w>
diffe rences</w>
P VC</w>
Dec ision</w>
strateg ies</w>
ch er</w>
Y oung</w>
Portu gal</w>
dest ro
C ru
re t
as sets</w>
p un
j ustice</w>
U M</w>
rec eption</w>
fe e</w>
ap par
ill er</w>
electr icity</w>
br on
er ror</w>
A D</w>
p t</w>
li brary</w>
mil es</w>
che apest</w>
m u
Sh irt</w>
w ash</w>
exam ination</w>
fun dam
Lab or</w>
Ar c
Pik best</w>
pret ty</w>
de partments</w>
M eas
ti a</w>
amaz ing</w>
sub scri
Li ke</w>
sh aring</w>
C ategories</w>
Tra ining</w>
n ur
m ic</w>
mb H</w>
i eld</w>
Organ ization</w>
wr ong</w>
dom in
Tri bunal</w>
f illing</w>
cros s-
end ar</w>
M erc
L es</w>
G ro
air -
K ey</w>
remain ing</w>
Cur rent</w>
pres entation</w>
tion ally</w>
g is</w>
Prov inc
vide os</w>
j i
um -
h ur
s an
o id</w>
ne ys</w>
Lear n</w>
st ood</w>
d os
il er</w>
Fig ure</w>
arran ged</w>
campa ign</w>
Med iterran
sol ar</w>
consider ation</w>
tri al</w>
stic k</w>
ex ist</w>
C emetery</w>
P M</w>
in sp
repres ent</w>
L and</w>
pos ter</w>
Found ation</w>
M AN
p -
ag as
. name</w>
decre ase</w>
Ch at
te ll
stre t
B at
Face book</w>
in door</w>
Pr ices</w>
res ource</w>
ra w</w>
B ill</w>
fin ally</w>
oper ational</w>
st ability</w>
W r
mix ed</w>
receiv ing</w>
In iti
L ook</w>
9 3</w>
Mon tr
m ut
St atis
expos ure</w>
H R</w>
Fran k
f an</w>
Alber ta</w>
r ings</w>
to col</w>
ro b
ren tly</w>
g ard
G mbH</w>
effec tiveness</w>
WIT H</w>
en suring</w>
ell o</w>
Lou is</w>
ox ide</w>
L ov
8 6</w>
at- screen</w>
L aser</w>
8 2</w>
ne x</w>
F em
For um</w>
th ank</w>
am ed</w>
En ter
Electr onics</w>
9 4</w>
re ality</w>
4 3
duc tion</w>
Desig ner</w>
he ated</w>
um es</w>
suppli er</w>
re y</w>
22 1.
ell ed</w>
Stor age</w>
l aser</w>
shap ed</w>
Direc tive</w>
7 1</w>
ti tle</w>
o v</w>
fres h
disci pl
im possible</w>
O l
ran ked</w>
Proper ty</w>
techni que</w>
le ader</w>
C amera</w>
ev es</w>
no ise</w>
As k</w>
H ard
r h
cry stal</w>
v o</w>
propos als</w>
S mo
exper t</w>
fre ez
Environ mental</w>
ap ph
ou ter</w>
hes itate</w>
tren ds</w>
cont acts</w>
co vers</w>
tal king</w>
pl anned</w>
as su
8 1</w>
li ver</w>
ber ries</w>
S ter
p our</w>
fin ding</w>
bri ef</w>
cho osing</w>
uni versal</w>
coun ter
Brun sw
Re sto
s aying</w>
Bi g</w>
o graph</w>
appo intment</w>
Barcel ona</w>
th inking</w>
el ine</w>
um ps</w>
a f</w>
uck y</w>
ug g
Pre face</w>
dri ed</w>
z .com</w>
O u
S S</w>
M P</w>
gr ounds</w>
Vic tor
beg ins</w>
thous ands</w>
Par ticip
financ ing</w>
sub mit</w>
C C</w>
integr al</w>
fi x</w>
ay a</w>
enti onal</w>
B ad
Ch urch</w>
ag ree</w>
reg im
sp ent</w>
Fore ign</w>
A l</w>
improv ement</w>
ar di
discus s</w>
architec ture</w>
Pol and</w>
stainless-steel- case</w>
Cho ose</w>
htt p</w>
th ick</w>
s y</w>
ra ise</w>
er o</w>
f ast
un g</w>
Mediterran ean</w>
Lim ited</w>
p en</w>
con s
smar t
s wim</w>
furn ished</w>
c ross</w>
ro be</w>
d ressing</w>
d ay
research ers</w>
tri ed</w>
Flo or</w>
S lo
happ en</w>
s ong</w>
terr or
ex port</w>
oul dn</w>
pri orities</w>
co ast</w>
ro of</w>
ac tor</w>
gram s</w>
S K
vo ice</w>
Mar ket</w>
form ula</w>
histor ic</w>
C ath
pr oud</w>
m ally</w>
M S</w>
Ch em
ag ement</w>
f if
constan tly</w>
decor ated</w>
Inst all
draw ing</w>
manufac ture</w>
ment ing</w>
g ain</w>
star s</w>
N ap
2 nd</w>
serv es</w>
cer amic</w>
Sun rise</w>
institu tion</w>
it y
diff er</w>
h us
- de-
re frigerator</w>
arri ve</w>
r in
any one</w>
Cz ech</w>
id ents</w>
encour age</w>
B U
nor th</w>
phot ograph
al a</w>
6 00
sub si
pr ic
r d</w>
B ed</w>
Mar ia</w>
respon d</w>
ab sence</w>
Emp loyment</w>
p age
fi er</w>
di v
alle l</w>
quar ter</w>
Coff ee</w>
ter minal</w>
small er</w>
Austri a</w>
j uris
m ask</w>
awa reness</w>
G U
consequ ences</w>
Sum mer</w>
E V
Co .</w>
f ant
ch amber</w>
Pur ch
hard ware</w>
lo go</w>
Cot ton</w>
hor n</w>
aim ed</w>
pass ed</w>
ne ur
resid ents</w>
op pos
G o</w>
g ate</w>
la w
He ad
iz er</w>
15 0
Li ber
ab il
al ism</w>
in ating</w>
spec tive</w>
pr on
log ged</w>
offici als</w>
relax ation</w>
pres ents</w>
lif t</w>
ox y
appar atus</w>
enti ally</w>
p ick</w>
1 1-
E th
og a</w>
ne u
indic ators</w>
Atlan tic</w>
iti ve</w>
Trans port</w>
7 7</w>
Tu esday</w>
H and</w>
ocol ate</w>
direc tions</w>
bel t</w>
ro se</w>
L A</w>
S ite</w>
amoun ts</w>
n a
BM W</w>
d ose</w>
or row</w>
W est
di r
Rec omm
4 4
anc ou
aster n</w>
pre dic
Pier re</w>
clos est</w>
B attery</w>
agas car</w>
dynam ic</w>
HI V</w>
B ags</w>
rou lette</w>
adequ ate</w>
Nov a</w>
re placed</w>
l u
all -
end it
Ned gis</w>
tain ment</w>
P as
C lim
V intage</w>
Mad agascar</w>
wh om</w>
S om
H E
e ight</w>
e dition</w>
9 7</w>
res ort</w>
F ile</w>
illustr ation</w>
accoun ts</w>
pe ts</w>
C up</w>
st at
custom ized</w>
Ro oms</w>
Hon ourable</w>
id ing</w>
M id
s itting</w>
ter min
Brunsw ick</w>
Mari e-
Play er</w>
ess or</w>
6 -0
por trait</w>
min ister</w>
1 1.
D ar
connec ting</w>
e di
50. 63.
ac tual</w>
gre y</w>
Ste p</w>
ten sion</w>
stra ight</w>
a o</w>
d inner</w>
In clu
L ooking</w>
Eng ine</w>
s now</w>
eng aged</w>
er o
E asy</w>
sub stance</w>
F res
ass em
phot ography</w>
oc ket</w>
tr ou
me al</w>
commun ications</w>
acel et</w>
v ity</w>
Mad rid</w>
n an
co w</w>
ob a</w>
Montr éal</w>
t ables</w>
Sh ort</w>
ic ers</w>
G lo
7 4</w>
N I
Ar ts</w>
184.168. 221.
Ph armac
lay ers</w>
S ti
cour age</w>
char ged</w>
te ams</w>
Pe ter</w>
tes ted</w>
G as</w>
gu n</w>
50.63. 202.
li t</w>
pre sident</w>
C H</w>
elig ible</w>
be aring</w>
S co
Deli very</w>
Di ff
8 7</w>
an .com</w>
Re f</w>
O range</w>
f arm</w>
al ty</w>
c ru
ann e</w>
P E
investig ation</w>
z e
page views</w>
or ces</w>
7 8</w>
gh t
M s.</w>
ord ination</w>
N ature</w>
umin ium</w>
V ancou
accep table</w>
TI ON</w>
tu b</w>
C e
S W
par liam
ear -
r ice</w>
foc used</w>
S au
d ust</w>
top ic</w>
z ation</w>
we ap
us age</w>
pay ments</w>
H ou
ne arest</w>
Ex pl
protec tive</w>
Orig inal</w>
ic ian</w>
G R
D R
respec tively</w>
Pos ted</w>
B ACK</w>
an der</w>
st yl
sh af
8 4</w>
transi tion</w>
k y
herit age</w>
Tur k
d enti
st ro
attrac tive</w>
quir y</w>
et -
es h
u tions</w>
J es
la id</w>
ver tical</w>
sh ut
advis e</w>
cop per</w>
Chat roulette</w>
bre ath
8 9</w>
Ge org
et o
che ese</w>
psy ch
Lab our</w>
Fil ter</w>
B 2B</w>
S ens
Sh ower</w>
Vancou ver</w>
D ur
sm an</w>
st om
in ery</w>
b anks</w>
Sol ar</w>
Dri ve</w>
ic als</w>
0 ,
claim ed</w>
thre e-
s. ca</w>
7 6</w>
St art</w>
de ep
An dre
Per f
pl ing</w>
Al uminum</w>
on going</w>
contro ls</w>
b ach</w>
clu b</w>
consum er</w>
cent age</w>
clin ical</w>
199 2</w>
T D</w>
L amp</w>
contribu tions</w>
adap ted</w>
Fin ance</w>
appe ared</w>
su s</w>
mat ters</w>
gener ated</w>
discus sed</w>
mir ror</w>
Secre tariat</w>
fe es</w>
n or</w>
Install ation</w>
Mar tin</w>
In n</w>
B ah
coo k</w>
certif icate</w>
ass ess</w>
swe et</w>
config uration</w>
pu ts</w>
Micha el</w>
concer t</w>
7 3</w>
al leg
T U
boo k
S ER
A ma
w oven</w>
see m</w>
st ages</w>
Ko rea</w>
dimen sions</w>
chil d
Su n</w>
un ning</w>
t um
ag a</w>
mon t</w>
appli es</w>
z i
C lar
Micros oft</w>
all erg
P A
In vest
n on
L G</w>
P ack</w>
val id</w>
mon d</w>
mon thly</w>
l ap
Soci ety</w>
tissu e</w>
hor izon
prescri bed</w>
alo g</w>
Ch i
M emb
is ure</w>
dor f</w>
enti tled</w>
equ ival
St ri
coll ect</w>
tur ning</w>
s on
au dit</w>
aim s</w>
Wi th
Cor n
b ill</w>
S S
le ment</w>
bl ed</w>
mar ine</w>
Publ ications</w>
For ce</w>
G O</w>
A th
S to
for t</w>
y es</w>
cr uc
Pro c
C AR
K u
6 6
O k
18 0</w>
augh ter</w>
har mon
ex act</w>
K al
victi ms</w>
con version</w>
vi br
ha z
Swe den</w>
bow l</w>
Sim il
own s</w>
mo ved</w>
ca p</w>
L CD</w>
work shop</w>
fac tion</w>
juris dic
continu ous</w>
m it
Hos p
on es
run s</w>
M I
ow ing</w>
Di vision</w>
um p
i re-
N R
- subcat</w>
o re
depos it</w>
contribu ting</w>
es sive</w>
Mor oc
know s</w>
l v
wh olesale</w>
Cont in
L ove</w>
ic ks</w>
B our
del icious</w>
Bre ak
v acc
clos ely</w>
col umn</w>
199 3</w>
u .com</w>
par allel</w>
ad ult</w>
bo ards</w>
ro ot</w>
l os
.co. uk</w>
M ach
A mon
f icial</w>
D er
E mer
v es
di alogue</w>
art z</w>
T ob
D ark</w>
cri me</w>
expl ained</w>
Smar t</w>
id ays</w>
ess els</w>
lin der</w>
in ity</w>
provinc es</w>
chr onic</w>
p s
de ad</w>
consum ers</w>
mess ages</w>
D am
Rel ated</w>
expl ore</w>
Sup er</w>
d ownloading</w>
indic ates</w>
dist inc
ent ing</w>
kil ometers</w>
po ver
meas ured</w>
expres sion</w>
tri dge</w>
she ets</w>
ligh t
Main tenance</w>
Tem per
se ek</w>
ter ans</w>
n ic
T S
car rying</w>
qu et</w>
B il
laun ch</w>
confir m</w>
In stitu
bo l</w>
sp ot</w>
organ is
if f</w>
en ters</w>
14 0</w>
Ch ange</w>
sh ot</w>
fl at-screen</w>
confir med</w>
Cas a</w>
exp ect</w>
Wi reless</w>
Tem plate</w>
off icer</w>
Stu dies</w>
Corpor ation</w>
os ph
Chris tian</w>
W oo
rec ru
Me th
nam ed</w>
lead ership</w>
in corpor
stu dio</w>
ph y
instr ument</w>
cer tified</w>
ac ted</w>
I l
Lit tle</w>
m assage</w>
g un
Char les</w>
resid ential</w>
in s
r are</w>
Au to</w>
20 -
me tal
vul ner
enter ing</w>
condition ed</w>
comp ounds</w>
lo aded</w>
3 4
lis ten</w>
Y outh</w>
Cre ative</w>
pat ent</w>
ol ine</w>
br ings</w>
coo k
si ght</w>
elim inate</w>
T al
ing ing</w>
cl ar
F T</w>
L os</w>
K r
si m
Bo at
.. ..</w>
mis s</w>
V ER
In nov
ber t</w>
person nel</w>
thes is</w>
Ex port</w>
end ers</w>
Comm ents</w>
them es</w>
connec tions</w>
Moun tain</w>
F O
des ire</w>
or ful</w>
ch urch</w>
identi ty</w>
E dition</w>
p in</w>
hy per
acc um
co in</w>
15 .
Gl asses</w>
N u
rela x</w>
man date</w>
F ishing</w>
doc tors</w>
P I
lar ation</w>
M IN
is ine</w>
T y
P P</w>
vers ary</w>
des pite</w>
Commun ications</w>
Y eah</w>
Some times</w>
D ani
RES UL
E astern</w>
O x
Sw iss</w>
sign als</w>
refl ect</w>
S n
G ay</w>
rec ipe</w>
sk i
F estival</w>
f oods</w>
Jew elry</w>
ship ping</w>
8 3</w>
H i
V it
Is lands</w>
é r
li ved</w>
ea u</w>
trans lation</w>
H z</w>
Pow er
ar gu
am i</w>
re l</w>
man n</w>
in e-
spec ially</w>
legis l
ill ust
depend ent</w>
v ote</w>
199 0</w>
deb ate</w>
nucle ar</w>
mol ec
lab el</w>
mechan isms</w>
tom orrow</w>
pre ferred</w>
L ingerie</w>
Pal est
f igh
Th rough</w>
m .com</w>
priv acy</w>
el ed</w>
perman ently</w>
R ap
D un
cot tage</w>
collec tive</w>
oblig ations</w>
or dered</w>
Bed room</w>
roc k</w>
Fin ding</w>
r ics</w>
Gu ests</w>
C AN
H ond
Val ley</w>
F ul
In str
direc ted</w>
gre en
Gen eva</w>
s and</w>
sp ot
bur n</w>
B ow
in form</w>
sur faces</w>
anc ient</w>
po st-
design ated</w>
ed ings</w>
Im ages</w>
parti cles</w>
G ab
En joy</w>
De aler
p ure</w>
mot ing</w>
o k</w>
no tic
ur ies</w>
n esses</w>
P H
n om
P ot
Ukra ine</w>
U R</w>
c iv
exclu sive</w>
RESUL TS</w>
peri or</w>
statis tical</w>
compati bility</w>
wi reless</w>
o on</w>
i res</w>
ag on</w>
vac uum</w>
Man it
rec y
iti s</w>
re vol
re venue</w>
Ch ang
ach e</w>
li a</w>
prec ip
d ges</w>
super market</w>
ware house</w>
te en
isc al</w>
s apph
S ask
fundam ental</w>
v essels</w>
intel lig
odi c</w>
em issions</w>
15 -
Dealer s.ca</w>
Boat Dealers.ca</w>
ab use</w>
gr anted</w>
min i</w>
Veterin arians</w>
prof it</w>
c and
E p
f at
ta ke
g one</w>
Dec or
g am
respon sibilities</w>
Al p
Y am
Spr ing</w>
S end</w>
G ri
ch er
conv entional</w>
Fur niture</w>
P on
fr ag
M I</w>
Amon g</w>
Secre tary</w>
Fed eration</w>
conf idence</w>
immedi ate</w>
7 00</w>
Geor ge</w>
Do or</w>
detec tion</w>
we ak
sol v
fo am</w>
bo w</w>
Cl os
fac ility</w>
Fli x
did ates</w>
R ing</w>
p l</w>
ste m</w>
Ma ur
is co</w>
Strateg y</w>
Inter ior</w>
op tional</w>
ari b
r ay</w>
app ing</w>
v et</w>
al ist</w>
sp are</w>
Memb ers</w>
H an
fil ed</w>
c ep
M M</w>
J ames</w>
att or
Nor th
In v
pover ty</w>
J an</w>
D S
Pan asonic</w>
Div orces</w>
V el
or ange</w>
Ma j
p an</w>
di abe
gl y
ath le
ov a</w>
e ph
Rob ert</w>
ter ior</w>
re vis
o ke</w>
n ose</w>
excep tional</w>
C and
Ar ab
adjust able</w>
s low
ra il
m i</w>
W ill</w>
P U</w>
8 5
S av
statis tics</w>
G A</w>
ph il
t- in</w>
pro jec
T ips</w>
Sever al</w>
satis fied</w>
res c
C ross</w>
res sion</w>
Pr ince</w>
Cl ass
r and
associ ation</w>
in y</w>
ad hesive</w>
Ma c</w>
ol der</w>
expl ain</w>
d ance</w>
Statis tics</w>
Ret ur
Re d
elec ted</w>
cas h</w>
Bi ke</w>
si t</w>
Des pite</w>
high ways</w>
Pac ific</w>
accel er
H er</w>
l ying</w>
e ast</w>
Olymp ic</w>
v ary</w>
A k
jac ket</w>
g olf</w>
Med ic
Tex as</w>
meas uring</w>
bu ff
Bot tle</w>
Ara b</w>
pan els</w>
bran ds</w>
b ourg</w>
Wash ington</w>
r ich
di versity</w>
exp endit
ag ne</w>
a ine</w>
He ating</w>
ear th</w>
consi ders</w>
c ing</w>
v ector</w>
9 5
hol es</w>
Electr onic</w>
v oc
di ble</w>
pe ace
fe ed
la -
Treat y</w>
recogn ition</w>
introduc tion</w>
en g</w>
F ar
Co sta</w>
bec ue</w>
T our</w>
Sain te-
m ur
ak ers</w>
invest ments</w>
18 .
respec tive</w>
week end</w>
Loc al</w>
ne arly</w>
j us
mis sing</w>
modi fied</w>
T enn
Ap p</w>
Agricul ture</w>
sh ell</w>
if ications</w>
brow ser</w>
m -
sub -
Re pair</w>
F L
Gol den</w>
g as
k illed</w>
per centage</w>
lar s</w>
cre d
Water proof</w>
it arian</w>
d uty</w>
T an
typ ical</w>
comp ound</w>
en ables</w>
jour nal
sub strate</w>
j ust
Par king</w>
sc ene</w>
invi ted</w>
d ar
ome ter</w>
he im</w>
au d
x ed</w>
Comp uter</w>
av a</w>
Flor ida</w>
qual ified</w>
bro ad</w>
dro ps</w>
s ongs</w>
wor ry</w>
ti ble</w>
R ac
eg gs</w>
D L
oppos ite</w>
dist ingu
qu o
f al
j i</w>
spea king</w>
smar t</w>
app ed</w>
renov ated</w>
ge -
negoti ations</w>
st ove</w>
With out</w>
th y</w>
g ers</w>
P ool</w>
k ingdom</w>
2 3.
10 -0
Fur ther</w>
rap id</w>
publ ication</w>
mar ked</w>
f aster</w>
bu tt
Ex cell
ag ram</w>
Col le
p ra
hus band</w>
F lower</w>
my self</w>
char ges</w>
Tu be</w>
ri an</w>
ox id
muse um</w>
m ise</w>
S et
appl ying</w>
mus cle</w>
tour ism</w>
guid es</w>
j .com</w>
eto oth</w>
c rown</w>
in ian</w>
ID S</w>
MO N
ple ased</w>
li p
re au</w>
L ed</w>
co vering</w>
P OR
mil li
correc tly</w>
Inte grated</w>
lim its</w>
es tions</w>
am mat
Ly on</w>
substanti ally</w>
7 9</w>
suppli ed</w>
Sof t</w>
Manufacture r</w>
te ch</w>
lat eral</w>
at able</w>
show ing</w>
gen der</w>
w et</w>
Pers on
under stood</w>
K now
Fil m</w>
Qu ick</w>
H all</w>
Th omas</w>
A verage</w>
Ex ample</w>
exp ress</w>
B B
u a</w>
hon ey</w>
O EM</w>
be aches</w>
Gr aph
sub section</w>
ov al</w>
fr on
pil ot</w>
industri es</w>
Saf e</w>
Program me</w>
R ight</w>
N an
16 0</w>
D ue</w>
por ters</w>
sh op
h ang
Collec tion</w>
icy cle</w>
l as</w>
A U</w>
ann i
eu tical</w>
Sh are</w>
199 1</w>
medic ines</w>
re turned</w>
Vi et
hel ping</w>
T os
C ô
l ounge</w>
bu ying</w>
cont am
s lo
f ers</w>
x i</w>
ti tude</w>
discus sions</w>
der ing</w>
gr ay</w>
al p
consul t
charac ters</w>
s pl
Comp ati
re fer</w>
ammat ory</w>
visit ing</w>
poly mer</w>
happ ened</w>
st ands</w>
AP K</w>
mar ily</w>
A I
V in
a head</w>
8 00
in di
ent re
f ications</w>
inst ance</w>
four th</w>
atter ies</w>
L ap
s ort</w>
fu sion</w>
Re ar</w>
ran ts</w>
com ment</w>
Ex per
trans ferred</w>
op en
comp act</w>
g -
S tic
y ers</w>
ver th
F M</w>
adv oc
solu tely</w>
At tor
satis faction</w>
identi fication</w>
Work shop</w>
m ar</w>
g el</w>
verth eless</w>
Mil an</w>
enti ve</w>
tol er
- watches-
kl ace</w>
h an
l ot
D C
aly st</w>
D re
12 5</w>
serv ic
er to</w>
cruc ial</w>
agricul ture</w>
Ar ri
uni versity</w>
d ale</w>
S ust
ref use</w>
off icers</w>
re form</w>
engine ering</w>
no on</w>
me als</w>
ma ke
pro xim
Re qu
Direc tor
B ell</w>
te au</w>
Treat ment</w>
K er
amend ments</w>
M C
tr uck</w>
chec ks</w>
i i</w>
mov ements</w>
Ur ban</w>
advant age
is tered</w>
t one</w>
n avig
Com b
ch icken</w>
be am</w>
cent res</w>
1 30</w>
dens ity</w>
s ail
2018-0 9-0
fol io</w>
ut ation</w>
Arti cles</w>
gra ve</w>
cl ub
ket tle</w>
imple menting</w>
h all
op les</w>
id en
yl on</w>
inspec tion</w>
am bi
reser ve</w>
p lot</w>
amm ation</w>
Clim ate</w>
ul ate</w>
jo ined</w>
er ic
ac tors</w>
Por table</w>
R am
Sp a</w>
s mile</w>
inter medi
hol idays</w>
un less</w>
sem i-
becom ing</w>
and ed</w>
neu tr
dam aged</w>
bl ack
fe eding</w>
exc ess</w>
Dem ocr
s i</w>
ad just</w>
Vir tual</w>
moist ure</w>
ush ed</w>
T reas
u tili
Jes us</w>
met abol
Dri ver</w>
Custom ized</w>
thre at</w>
o ils</w>
Que en</w>
il ton</w>
Sen ior</w>
sam ples</w>
Chil d</w>
A W
I V</w>
ex hi
and -
Egyp t</w>
1 10
F F
Mo dule</w>
exten sive</w>
v ations</w>
Nor way</w>
re ply</w>
x i
en ne</w>
ep s</w>
discri mination</w>
Sh ip
str a</w>
IT Y</w>
Mot or</w>
exp enses</w>
U .</w>
CO MP
guid ance</w>
pri marily</w>
infl ammatory</w>
3 60</w>
pass word</w>
M é
p ig
Br it
B ang
bo xes</w>
GH T</w>
sel l
equival ent</w>
T V
Pl at
d in
5 6
shaf t</w>
c lock</w>
inter nation
sug ge
on y
dre ds</w>
br e</w>
proce edings</w>
gh ly</w>
e tr
au g
am ine</w>
tw ice</w>
N ig
peri ods</w>
state ments</w>
K -
ol ar
Ev ents</w>
enter prises</w>
T EL
und ai</w>
fin ance</w>
sapph ire-
s ac
tab lets</w>
dur able</w>
a sts</w>
found ation</w>
auth or</w>
To il
In door</w>
Sw imming</w>
lin ing</w>
sol di
con ve
govern ance</w>
G a
ch amp
Be ige</w>
uc ks</w>
as ingly</w>
Tr uck</w>
Un it</w>
Pri v
H ill</w>
ten n
conven i
M ess
yl ind
sp irit</w>
min eral</w>
L ong
c n</w>
produc ing</w>
ic tion</w>
T ool</w>
s low</w>
lar g
is k</w>
W ine</w>
w it
employ er</w>
amen ities</w>
R ock</w>
P U
be an</w>
CO R
Wel come</w>
Sp ace</w>
Portu gu
can didates</w>
b ird</w>
Tr ad
train s</w>
L ac
Con struction</w>
om i</w>
reli gious</w>
poc ket</w>
M atter
pre neur
ES CO</w>
radi ation</w>
Hy undai</w>
Ang el
ST E
c av
k itchen
s or</w>
car toon</w>
oper ator</w>
sapphire- glass</w>
opin ions</w>
3 50</w>
Ear th</w>
a w</w>
M ount</w>
Ap ply</w>
diagn osis</w>
moun tains</w>
k new</w>
y ear-
Mos cow</w>
S ud
characteris tic</w>
S us
ific ent</w>
Res pon
tren d</w>
hel ped</w>
quar ters</w>
Turk ish</w>
Multi -
Manit oba</w>
por tions</w>
ch est</w>
an te</w>
Ow ners</w>
Matter horn</w>
J ud
Un fortunately</w>
ra id</w>
L ist
J ord
B un
re ti
ke ys</w>
dis count</w>
ext end</w>
an ch
s ounds</w>
pro moting</w>
S Y
scre w
conclu ded</w>
L ord</w>
I F
D G
sch e</w>
Ve terans</w>
RA M</w>
e ating</w>
fu r</w>
P ra
24 -
indic ator</w>
Up per</w>
ev en
curren cy</w>
s essions</w>
J our
real ized</w>
execut able</w>
relation ships</w>
L en
horizon tal</w>
diagn os
i que</w>
M ER
t ags</w>
lo s</w>
No body</w>
ff s</w>
l unch</w>
b ad
We ight</w>
G B
tab let</w>
Cry stal</w>
scre w</w>
ell s</w>
L ad
fur t</w>
stom ach</w>
Fo rest</w>
Arch ives</w>
ac ids</w>
di date</w>
def ine</w>
pursu ant</w>
nor mally</w>
it ar</w>
ex posed</w>
Dom in
connec tor</w>
vari eties</w>
Pack aging</w>
k i
of -
bo t</w>
inv ent
valu ation</w>
omet ric</w>
U V</w>
D id</w>
ir l
whe els</w>
a we
deb t</w>
Bl ack
ic it</w>
S R
Con tribu
manu factured</w>
acc ident</w>
surr ounded</w>
ati le</w>
fe ar</w>
h it</w>
ed ed</w>
G ard
mus cles</w>
D ES
at ly</w>
acqu ire</w>
Uni versal</w>
Pic ture</w>
L ea
An ton
inj ury</w>
comb ine</w>
sym bol</w>
clos er</w>
bir ds</w>
Hist or
n ut</w>
laun dry</w>
de als</w>
ent ries</w>
aut umn</w>
To ys</w>
res sive</w>
in c</w>
f iscal</w>
Oce an</w>
comp ly</w>
sc ap
p ped</w>
pres sion</w>
Rem ote</w>
ti ll
id er</w>
hy dr
attrac tions</w>
Cro ati
kn ife</w>
W ire</w>
Sk i</w>
J am
adjust ment</w>
n .com</w>
ver sions</w>
c row
oo th
IC E</w>
E A</w>
Be au
pleas ure</w>
ca ke</w>
M iss
optim al</w>
D utch</w>
att acks</w>
l ay</w>
X ia
own ed</w>
necess arily</w>
st ones</w>
provid ers</w>
Re views</w>
P ul
att end</w>
Sk in</w>
answ ers</w>
n as
inter vention</w>
h idden</w>
at re</w>
te eth</w>
D y
s in
Break fast</w>
sh ade</w>
see ing</w>
ensu res</w>
é n
peri odic</w>
An nex</w>
el i</w>
T ry</w>
. fr</w>
un necessary</w>
ak ed</w>
L ic
l ens</w>
high- quality</w>
co verage</w>
che aper</w>
3 rd</w>
calcul ated</w>
regim e</w>
Fol lowing</w>
Victor ia</w>
volun te
Ac commod
U T
H ong</w>
special ist</w>
infl ammation</w>
exce ed</w>
comm erce</w>
Whe ther</w>
Portugu ese</w>
O NS</w>
P ER
low s</w>
le d
La w
ig rants</w>
g .com</w>
Vis it</w>
p y
Sust ain
prepar ing</w>
Cre ate</w>
pep per</w>
W O
st atic</w>
I ll
there by</w>
d aughter</w>
bre ad</w>
st airs</w>
l o</w>
m its</w>
Th ail
ak i</w>
I ra
oo k
insul ation</w>
1 .</w>
vir tu
Pur ple</w>
Fran ç
Per formance</w>
vitam ins</w>
h at</w>
k ne
ro les</w>
A d</w>
v enti
pro g
plac ements</w>
Di st
fun ded</w>
ro man
organis ations</w>
en na</w>
Ass ess
bl ade</w>
Cl ass</w>
elec tions</w>
Ser ver</w>
ay ed</w>
valu able</w>
stri p</w>
UN ESCO</w>
Th ose</w>
G N
ag enda</w>
c on</w>
under taken</w>
ev ol
L ace</w>
C lin
19 2.
Blu etooth</w>
roll er</w>
e tic</w>
ac ute</w>
fil ms</w>
el astic</w>
ab solutely</w>
vitam in</w>
purch ased</w>
adop tion</w>
versi ties</w>
per spective</w>
os ter</w>
U. S.</w>
thre ats</w>
st y</w>
P enn
B row
X X
No tice</w>
3. 5</w>
L ive</w>
il ian</w>
Ad just
wash ed</w>
arm ed</w>
N ec
detec ted</w>
well- being</w>
om mun
fe ren
ol ina</w>
ell er</w>
el i
ev ent
is ely</w>
C ub
fas hi
cl asses</w>
Re placement</w>
ti me
consul ting</w>
K ong</w>
cre ates</w>
facil it
comm and</w>
pregn ant</w>
dis orders</w>
gu y</w>
patter ns</w>
Engine ering</w>
l ac
arti s
b one</w>
a e
T elec
appro aches</w>
activ ely</w>
contrac ts</w>
per mit</w>
attor ney</w>
ro tation</w>
row s</w>
E uro</w>
co at</w>
ack ed</w>
s au
A ri
te en</w>
lear ned</w>
g ot
de t
a uc
def ault</w>
Thail and</w>
z ones</w>
ti e</w>
ex tract</w>
cra f
T RA
te ed</w>
R S
Colle ge</w>
sent ences</w>
dri vers</w>
imp acts</w>
ard less</w>
Y ou
I deal</w>
manag ers</w>
Fac ilities</w>
Mar ine</w>
disp ens
Ir on</w>
- to-
may be</w>
famili ar
Sen ator</w>
M it
For d</w>
N ight</w>
bro ken</w>
Rub ber</w>
descri be</w>
pl enty</w>
op ens</w>
cor rid
al ysis</w>
dr ying</w>
Por trait</w>
teach ing</w>
shoul der</w>
n ings</w>
hor se</w>
expan sion</w>
Dep uty</w>
F RE
sequ ence</w>
ex ha
respon d
itch ing</w>
sug gest</w>
ang er</w>
Ac tive</w>
Vill age</w>
hib ited</w>
t ability</w>
Su ite</w>
A sian</w>
nutri tion</w>
mag az
10 1</w>
res in</w>
demon stra
s qu
controll er</w>
incre asingly</w>
simul tan
5 2.
t ape</w>
To y
car di
ro ots</w>
Nor we
RO N
sen ior</w>
fir ms</w>
Cle aning</w>
Ann ual</w>
s now
rup tion</w>
Bor de
desig ner</w>
l es-
difficul ties</w>
des ir
S ex
T est</w>
Di esel</w>
Mem orial</w>
reser vation</w>
tang ular</w>
Mater ials</w>
hun dreds</w>
ro d</w>
Mar ri
Pol ice</w>
u d</w>
ol ic</w>
b r</w>
Op ening</w>
review ing</w>
A venue</w>
min i
gi ene</w>
ti que</w>
f ed
acqu is
6 9
Resto Montreal</w>
ma kers</w>
ound ings</w>
dr inking</w>
ü r
Custom er</w>
ab road</w>
im ported</w>
A IDS</w>
determin ation</w>
sol ving</w>
plac ing</w>
farm ers</w>
compens ation</w>
tru th</w>
pre fer</w>
ro p
ell ant</w>
Cul ture</w>
d d
teach ers</w>
du ties</w>
equ ality</w>
co m</w>
compl icated</w>
super markets</w>
fac ts</w>
mo bility</w>
des er
al g
Ha iti</w>
c au
i Pad</w>
F ort</w>
es tive</w>
Pro vid
M ary</w>
process ed</w>
del ay</w>
y u
L U
C ome</w>
labor atory</w>
olog ist</w>
s burg</w>
s .org</w>
orig inate</w>
in jection</w>
pro mise</w>
emerg encies</w>
D J</w>
exerc ises</w>
fin ed</w>
classi fication</w>
con servation</w>
pow ers</w>
th read</w>
is tics</w>
L ower</w>
un k</w>
freez er</w>
Norwe gian</w>
fant astic</w>
b al</w>
ed ges</w>
sty les</w>
h an</w>
enc ing</w>
c ute</w>
lo ading</w>
Gu id
app le</w>
v in</w>
Am ster
Ex press</w>
Bro ad
k ill</w>
ain ing</w>
orig in
can vas</w>
W ol
W ind
S eas
he av
L at
sum mary</w>
ill ance</w>
ha ven</w>
D al
up coming</w>
ag ues</w>
de ad
F ire</w>
let ters</w>
Administr ation</w>
Ex change</w>
Tel e
d al</w>
and ro
I ON</w>
dol lars</w>
smart phone</w>
D av
comp li
tow ard</w>
flex ibility</w>
air ports</w>
gener ate</w>
consi sting</w>
asp ect</w>
fir m
f alls</w>
N RC</w>
ach el
bloc ks</w>
grad ually</w>
i ver</w>
Veg et
Do g</w>
en em
Ber n
l as
enti rely</w>
success fully</w>
in ar</w>
Fr ame</w>
dis k</w>
pos sibilities</w>
lo ved</w>
S F
eric g
NE W</w>
30 -
li ber
comp are</w>
sp a</w>
P ap
Z AR
B ay
h ill</w>
Con si
S hi
dr inks</w>
M .</w>
D im
ari o</w>
PS D</w>
trans mitted</w>
V ID
lec tual</w>
sp ending</w>
re min
j er
B all</w>
5 9
hel p
go w</w>
Mun icip
ep h</w>
j p</w>
produc ers</w>
Ter rit
B ase</w>
Res ort</w>
Ch an
dis courage</w>
z o</w>
tri g
show ed</w>
air- conditioned</w>
am ended</w>
Cap ac
ell ery</w>
J .</w>
Ar m
it y-
at ten
t ut
di vision</w>
ol ive</w>
commun icate</w>
Ta x</w>
doub t</w>
dis covered</w>
cal endar</w>
W E
Program s</w>
strong ly</w>
bur y</w>
e ze</w>
x y
C ros
T on
G iv
De ath</w>
Ap p
trav eling</w>
ste in</w>
Def ence</w>
memb rane</w>
es cap
aw ard</w>
Ch am
2 -0
pro portion</w>
K y
sch eme</w>
surr oundings</w>
1. 6</w>
modi fications</w>
ch -
Fish eries</w>
Mar k
mus ical</w>
m uc
e ously</w>
bran ch</w>
Retur n</w>
Cast le</w>
S V
Im port
p ping</w>
gr and
Me te
c am
Organ ic</w>
v est</w>
nor thern</w>
mid -
Th ank</w>
vir tual</w>
Tob acco</w>
v ous</w>
trav el
cu isine</w>
Sh ows</w>
2 20
Fin land</w>
ta b</w>
um ping</w>
adj usted</w>
cast le</w>
precip itation</w>
T ow
af raid</w>
p d
si zed</w>
prec ision</w>
Amster dam</w>
fin dings</w>
A B</w>
org ans</w>
Rom ania</w>
ear l</w>
conclu sion</w>
- time</w>
t abl
ol e
n y
Ap pli
med ication</w>
Cos me
web sites</w>
ugg age</w>
J acqu
I -
LE S</w>
Sh ar
govern mental</w>
s car
L ag
A K
contr ast</w>
sy mb
ut ing</w>
ste am</w>
W C</w>
l amps</w>
M ov
L atin</w>
Cin ema</w>
F le
desir able</w>
B ath</w>
2 .</w>
ful l-
P ed
familiar ize</w>
can didate</w>
ah a</w>
eg g</w>
li d</w>
li sts</w>
hand ling</w>
cl oth</w>
str act</w>
char ging</w>
diabe tes</w>
R og
im pl
bacter ia</w>
Sur ve
wil d</w>
pan or
defin itions</w>
ari um</w>
euro s</w>
exist ence</w>
ch ester</w>
1 -0
on ne</w>
su m</w>
ex emp
5 mm</w>
fab rics</w>
S in
25 00</w>
s aving</w>
lo vely</w>
tr y
n ish</w>
Boo ks</w>
th r
Anim al</w>
3 2.
M ar</w>
inv itations</w>
f oun
P ure</w>
N ik
pron oun
p a</w>
dri ven</w>
extre me</w>
de .com</w>
Diff e
le g</w>
cal m</w>
ast ro
asc ular</w>
J un
F A</w>
1. 2</w>
bi ological</w>
D est
ri x</w>
rec ipes</w>
re store</w>
prof ession</w>
Rem ember</w>
ad min
ew an</w>
Re ports</w>
gre atest</w>
ter ing</w>
be ar</w>
Li qu
L as</w>
9 00</w>
s atur
fi re
develop ments</w>
In cre
Jos eph</w>
th ouse</w>
1 3.
char t</w>
sle eve</w>
at uring</w>
struc tural</w>
b atteries</w>
Leg al</w>
Joh n
per haps</w>
exec uted</w>
Min isters</w>
Accommod ation</w>
reduc es</w>
P ump</w>
ã o</w>
su its</w>
marri ed</w>
we igh
Ke ep</w>
secre t</w>
fol k</w>
classi fied</w>
le af</w>
M is
Ch er
ne um
bl u
tif y</w>
emp ty</w>
dis charge</w>
Hear t</w>
Moroc co</w>
He at</w>
occas ion</w>
H au
- based</w>
Col omb
Ac adem
ri ding</w>
5 8
n ail</w>
ch ocolate</w>
d al
train ed</w>
Mic hel
Gre ek</w>
vi c</w>
Sen ate</w>
complain t</w>
cry st
K in
G or
oxy gen</w>
id ly</w>
atch ewan</w>
sq m</w>
ge ar</w>
er als</w>
Woo den</w>
R y
mem ber
di verse</w>
str ation</w>
ast ing</w>
A sh
arrang ement</w>
Gir ls</w>
K on
D .</w>
techn ological</w>
irl pool</w>
6 4.
Spe ed</w>
inter n
gol den</w>
tri ps</w>
w .com</w>
difficul ty</w>
Hosp ital</w>
V ER</w>
Sim ple</w>
v als</w>
K ir
D at
we stern</w>
pass ing</w>
represent ing</w>
zz i</w>
big gest</w>
Di amond</w>
1 19.
Pl aces</w>
ge ted</w>
aw arded</w>
R ail
Georg ia</w>
veterin arian</w>
Ta g</w>
19 th</w>
Bud get</w>
hosp it
pl ur
g or
4 -0
Lev el</w>
Ac coun
ten na</w>
see king</w>
es po
insp ired</w>
N -
ford able</w>
feed back</w>
wall paper</w>
ph osph
anni versary</w>
Sask atchewan</w>
ER S</w>
ic ates</w>
refuge es</w>
arrang ements</w>
f are</w>
spe ech</w>
T ech</w>
Addi tional</w>
f ans</w>
enc e-
d life</w>
Land scape</w>
h r
fer tili
St and</w>
hib a</w>
f ounded</w>
do gs</w>
Fem ale</w>
p et
p ace</w>
invol ves</w>
E LE
legisl ative</w>
cont ents</w>
b .com</w>
00 0
Assi stant</w>
Sci ences</w>
Den mark</w>
Bir th</w>
L or
li min
te ur</w>
Mar k</w>
gu ard</w>
0. 5</w>
2 20</w>
j et</w>
in .com</w>
jew elry</w>
Res ist
nu ts</w>
sup er</w>
AL L</w>
indic ating</w>
Inde ed</w>
main taining</w>
ro y
201 7-0
Indi genous</w>
atur ally</w>
ac et
provid er</w>
strength ening</w>
determin ing</w>
c ylind
bal anced</w>
co ordination</w>
p ap
en forcement</w>
We ek</w>
trav elling</w>
M .
bi tions</w>
CH F</w>
Bel ow</w>
gr ant</w>
cy linder</w>
6 4
t as
gard ens</w>
be l</w>
review ed</w>
isol ated</w>
co ast
Stan ding</w>
oc ean</w>
b or</w>
a e</w>
stitu tion</w>
St one</w>
j o</w>
M ENT</w>
rec ip
oper ators</w>
pop ulations</w>
ash es</w>
ti ous</w>
subsequ ent</w>
h o</w>
Tou ch</w>
reli ef</w>
m ate</w>
u ine</w>
s ity</w>
ch arming</w>
dis cre
u ter
Co ast</w>
R ent
K i
pl ug</w>
S L
end or
Af gh
tex ture</w>
hydra ulic</w>
Non- system</w>
iden tical</w>
R A</w>
ro te</w>
rep utation</w>
man i
G az
ack now
re stor
Mari e</w>
G PS</w>
str onom
particip ating</w>
w er</w>
sol ved</w>
co ach</w>
v il
Lo ire</w>
ure ments</w>
th res
F itness</w>
N U
r ical</w>
exp and</w>
stu died</w>
sh irts</w>
Bo at</w>
K a
Par ties</w>
j am
b log</w>
S ound</w>
A vi
specif ications</w>
neigh bor
P ad
MO RE
Ind ones
dro me</w>
air y</w>
o ted</w>
prec ise</w>
Sco tia</w>
b y-
al arm</w>
k ings</w>
enc ia</w>
25 0
bot tles</w>
up s</w>
sus pension</w>
bas ket</w>
em es</w>
Ch â
prec isely</w>
prov ed</w>
dec la
thous and</w>
ep ik</w>
G allery</w>
Ar gent
wor n</w>
i ously</w>
bir thday</w>
Th re
represent ation</w>
g c
establ ishing</w>
s u</w>
Sta te
tim ely</w>
clin ic</w>
M echan
Gre en
l en
ip per</w>
but ter</w>
ar ts</w>
n ine</w>
A ch
h i</w>
F el
- watches</w>
le isure</w>
ex tra-
accur acy</w>
ti gh
execut ing</w>
produc tive</w>
ef s</w>
Ste ering</w>
ath er-
z o
re .com</w>
exc eption</w>
C at</w>
F our</w>
Innov ation</w>
Merc ed
ma ker</w>
P ass
se al</w>
carri er</w>
n am</w>
V an
tru ly</w>
loo ked</w>
L ights</w>
w rote</w>
ul p
bri d</w>
conc ep
gl ue</w>
Cool blue</w>
oper ated</w>
ent e</w>
B and</w>
l .com</w>
gre atly</w>
Auth ority</w>
desig ns</w>
br inging</w>
Re present
G ifts</w>
isi on-
evalu ate</w>
ma x</w>
continu ing</w>
I ce</w>
ven ues</w>
ta g</w>
2018- 10-0
u ph
cor d</w>
P endant</w>
AN D
remain ed</w>
cour ts</w>
os y
e ing</w>
care ful</w>
Borde aux</w>
i es
every day</w>
Fr amework</w>
w arm
, 00</w>
Vi ol
limin ary</w>
R ue</w>
Dem ographic</w>
B .</w>
r yp
imm igration</w>
sh ine</w>
real ize</w>
func tion
famili ar</w>
tr ading</w>
ri tis</w>
practi tion
l ub
dis c</w>
cir culation</w>
Gu est</w>
Pr inting</w>
corrid or</w>
B it
e z</w>
boo ts</w>
al .com</w>
achiev ements</w>
7 50</w>
c el</w>
H aving</w>
invol ving</w>
Sh er
C U
Tos hiba</w>
Elec tro
IC s</w>
Rou te</w>
super vis
awe i</w>
le mon</w>
L L
v intage</w>
eal and</w>
T ai
M C</w>
und red</w>
st ac
jud icial</w>
recor ding</w>
4 x
se -
st abil
consider able</w>
ig u
Pu erto</w>
Gir l</w>
Assess ment</w>
Sci enti
Gr ay</w>
we aring</w>
Pos ter</w>
magn ificent</w>
Suppli es</w>
u ters</w>
S ide</w>
O m
ref ers</w>
produc es</w>
employ ers</w>
bro ther</w>
am ent</w>
aff ects</w>
bo ys</w>
Flix bus</w>
consu me</w>
f estival</w>
moun ting</w>
Phot os</w>
Dani el</w>
it ment</w>
co very</w>
198 9</w>
we red</w>
iti me</w>
col ored</w>
1. 1</w>
are n</w>
in quiry</w>
weap ons</w>
T est
a es
B A</w>
v elop
n ails</w>
dec or</w>
B ad</w>
Hun gary</w>
A A</w>
dat ory</w>
in o
b our</w>
m ouse</w>
C ut</w>
am bo
en ship</w>
vulner able</w>
z on</w>
b iz
G L
shor t
to b
intro duce</w>
Com peti
Temper ature</w>
Techn ologies</w>
eu tic</w>
8 7
organ isation</w>
Toy ota</w>
R E</w>
sh ares</w>
Con sum
eth nic</w>
O s
Jord an</w>
gi o</w>
atic s</w>
pen etr
Char ter</w>
port able</w>
bran ches</w>
Xia omi</w>
Re placements</w>
the -
os a</w>
stra p</w>
A .
separ ated</w>
appli ances</w>
appreci ate</w>
N a
Fi re
municip ality</w>
con vers
ist er
C R</w>
Vehic les</w>
Sh opping</w>
Jo int</w>
as is</w>
clos ing</w>
bar becue</w>
N ation</w>
Toil et</w>
con sent</w>
Bu reau</w>
anal ys
C all</w>
Web site</w>
life time</w>
V A</w>
G h
spo ts</w>
accommod ate</w>
wall papers</w>
gr ass</w>
Hu awei</w>
ra p</w>
E P</w>
C ape</w>
8 9
pos ted</w>
ob serv
T H</w>
sh ock</w>
Ko re
lv ania</w>
ve sting</w>
trans action</w>
f itness</w>
on .com</w>
v ement</w>
trans actions</w>
om atic</w>
i ther</w>
Sal es</w>
ing ham</w>
H oo
cl icking</w>
Treas ury</w>
at or
separ ately</w>
acqu ired</w>
Be verage</w>
abl ing</w>
v ital</w>
F C</w>
ess ed</w>
take MORE
takeMORE .net</w>
Jac ket</w>
Te a</w>
LI ZAR
ra ft</w>
1 4.
N G</w>
teach er</w>
mat ches</w>
h arm</w>
en th
O K</w>
zer o</w>
bel ong
b age</w>
P atter
Ad ver
S ab
Al ger
loo p</w>
inter view</w>
read s</w>
p ush</w>
port folio</w>
b ia</w>
LIZAR TE</w>
n on</w>
w ind
o tic</w>
exc iting</w>
Invest ment</w>
CA S</w>
surg ery</w>
ac o</w>
F ine</w>
E .</w>
Sw itch</w>
ing e</w>
d .</w>
cosme tic</w>
val id
commit ments</w>
gradu ate</w>
F ish</w>
marri age</w>
fl our</w>
dep end</w>
Hond a</w>
Ch apter</w>
8 6
t ories</w>
re verse</w>
n ation</w>
ericg own</w>
2019-0 5-
W -
cor ro
G S
Ap pe
benef icial</w>
eng age</w>
academ ic</w>
Langu age</w>
L ength</w>
human itarian</w>
e ted</w>
gu es</w>
Ad apter</w>
F ace</w>
P rec
pres ti
e uro</w>
der ived</w>
g an</w>
contr ary</w>
are t
Sup ply</w>
Sou thern</w>
Doc uments</w>
territ orial</w>
Contro ll
dist ur
su d
arti ficial</w>
Pol i
stre ets</w>
entre preneur
pl ated</w>
u l</w>
suff er</w>
spr ay</w>
view ed</w>
re t</w>
occur red</w>
S ource</w>
C rown</w>
bit r
High -
frequ ent</w>
cav ity</w>
C af
al loy</w>
T oul
For ces</w>
um a</w>
th m</w>
lo d
c k</w>
syn thetic</w>
j an</w>
audi ence</w>
phen omen
av aria</w>
I v
out standing</w>
Lav al</w>
partner ships</w>
w ool</w>
h undred</w>
Key words</w>
ap or
Sens or</w>
Commun ication</w>
grow n</w>
re ment</w>
S on
fl ash</w>
e- mail</w>
Li th
l i</w>
er ic</w>
c amp</w>
B ear
pl ed</w>
Trans fer</w>
Pol ar
ta xes</w>
pres sing</w>
compet ent</w>
O ri
ch i</w>
diffe renti
Wr ite</w>
n g</w>
M ass
M ak
Ir an</w>
he ads</w>
m old</w>
di pl
out let</w>
func tioning</w>
fl oral</w>
D U
mis es</w>
colle agues</w>
al bu
ha i</w>
A er
co ated</w>
str ug
integr ity</w>
princip al</w>
Mar t
Cl ose</w>
resp ir
lin ear</w>
jurisdic tion</w>
circ le</w>
Wi thin</w>
Ad dress</w>
co al</w>
Fres h</w>
tr ay</w>
tox ic</w>
h .com</w>
a king</w>
tot ally</w>
if i</w>
at ers</w>
rece ip
H op
- sur-
ir o</w>
c af
rail way</w>
poll ution</w>
manag ing</w>
dec ision-
guaran teed</w>
arri ved</w>
Sustain able</w>
Proper ties</w>
AT E</w>
I denti
F as
Cer tif
mach inery</w>
acc idents</w>
pp ers</w>
ca using</w>
se p
de aling</w>
be ar
coun ter</w>
Min i
Mich el</w>
un able</w>
te sti
te lec
o tive</w>
part mental</w>
s per
re o</w>
por ter</w>
M ill
T og
C amer
B es
do s</w>
Rh ô
t ance</w>
plan ting</w>
tar gets</w>
jud g
complain ts</w>
Par ks</w>
al i</w>
W oman</w>
.e u</w>
P in
oc y
v ast</w>
man datory</w>
ir rit
vari ant</w>
upd ates</w>
ti ght</w>
E EC</w>
f its</w>
IT E</w>
f i</w>
ad ow</w>
10 4.
Por to</w>
p ick
min ing</w>
enh anced</w>
re actions</w>
comm only</w>
V I</w>
D F
dest inations</w>
after noon</w>
x x
enter prise</w>
democr atic</w>
Pal ace</w>
new sp
W OR
Ju li
relax ing</w>
intest inal</w>
imm une</w>
ic on
sau ce</w>
en er</w>
af fordable</w>
3 -0
Arch ive</w>
Ar chitec
proce ed</w>
C arib
suff ering</w>
gr at
was n</w>
al li
Al tern
Pro cess</w>
2018- 10-
sib ly</w>
Import ant</w>
uni or</w>
al uminium</w>
in habit
acquis ition</w>
Frank furt</w>
ner vous</w>
Develop er</w>
buil t-in</w>
ble -
out comes</w>
di x</w>
produc tivity</w>
A P</w>
mist akes</w>
recommend ation</w>
sou thern</w>
In tel
An dr
Pa ul
A h</w>
wat ers</w>
D own
sh ore</w>
inser t</w>
butt ons</w>
Tour ism</w>
ves sel</w>
low est</w>
Ac c
Super market
b ay</w>
p up
Emp lo
so ap</w>
coun sel</w>
compris e</w>
Ex peri
demon strate</w>
pris on</w>
G il
em er
B erg
Dist ribu
sim pl
passeng er</w>
illust rated</w>
consul tations</w>
Supermarket world
G as
Supermarketworld guide</w>
Chair man</w>
t ant</w>
figh ting</w>
i er
tenn is</w>
ec osy
pl ug
bas in</w>
Ca p</w>
Yam aha</w>
Ch ic
Part ner
Ar t
vari able</w>
sc ulp
dis abilities</w>
F on
del ete</w>
C it
neigh bour
ge able</w>
f ing</w>
sy lvania</w>
receiv es</w>
Ven ice</w>
Ham ilton</w>
se ats</w>
adap ter</w>
Stud ents</w>
ab o
or ts</w>
mod ules</w>
reg ardless</w>
CO M</w>
Croati a</w>
inten sity</w>
Wh irlpool</w>
E P
R ay
conv inc
c -
Ste ph
Cal culation</w>
le ather-
lin en</w>
tabl espo
ak a</w>
ul ty</w>
be er</w>
interpre tation</w>
Ter race</w>
cab in</w>
Rom an
propos es</w>
pot atoes</w>
s ick</w>
N am
pr ints</w>
V ar
D oes</w>
the dr
ne uro
pass age</w>
frequ ently</w>
over come</w>
itu de</w>
Bran ch</w>
c ub
I O
app a
bl ing</w>
V W</w>
K E</w>
Hel p</w>
Condi tioning</w>
trad ition</w>
s ink</w>
help ful</w>
f ra
adap t</w>
tr e</w>
exam ine</w>
y oun
the ast</w>
ommun ications</w>
coc k
qu artz</w>
ob stac
detec t</w>
S D</w>
hall way</w>
at eral</w>
amend ment</w>
add resses</w>
B S</w>
w an</w>
ob serve</w>
ing ers</w>
4 50</w>
poc kets</w>
over looking</w>
F E
Bi o
I ES</w>
g la
m at</w>
al ize</w>
ab und
any where</w>
id ential</w>
May be</w>
K el
r as
le y
im port</w>
com mands</w>
J ack</w>
0 1
P ati
ing ual</w>
clin ics</w>
S D
Every thing</w>
rap idly</w>
tar geted</w>
Sil icone</w>
ex ists</w>
ch a</w>
la sting</w>
loc king</w>
pro sec
attemp t</w>
mo on</w>
Ri o</w>
Champ ion
peri ph
mus h
Sle eve</w>
comple x
clean er</w>
Bas ic</w>
He alth
infec tions</w>
10 5</w>
Advis ory</w>
w ines</w>
peace ful</w>
s ain
p ist
Ch ro
C itiz
enc il</w>
ol i</w>
f it
ach ment</w>
Lis bon</w>
g ap</w>
b ell</w>
out come</w>
o ak</w>
M agn
un usual</w>
mo stly</w>
oblig ation</w>
t ar</w>
ate n</w>
Rec or
J ack
invol vement</w>
car d
Bri dge</w>
Sch ed
transl ated</w>
territ ories</w>
protec ting</w>
improv ements</w>
Can vas</w>
50 -
` s</w>
tr um</w>
re medi
artis tic</w>
Cle an</w>
en ue</w>
pr inter</w>
meth od
lic ense</w>
behavi or</w>
ar g
P ipe</w>
whe at</w>
ro gen</w>
B ER
hor m
shar p</w>
ti er</w>
transpa rency</w>
inter active</w>
Cul tural</w>
shor t-
lab or</w>
o z</w>
deleg ation</w>
bo iling</w>
U E</w>
u -
comb at</w>
fol der</w>
low ers</w>
organ ize</w>
o ids</w>
im posed</w>
é es</w>
p ac
en za</w>
ci um</w>
S hel
Car bon</w>
th ou
leather- band</w>
S l
a b</w>
institu tional</w>
fair ly</w>
oper ative</w>
ac compl
F ast</w>
K am
nar row</w>
eng ra
G ul
p ip
broad cast</w>
Lov epik</w>
cy cles</w>
col ours</w>
1. 4</w>
comple tion</w>
Con tract</w>
T om</w>
Ben ef
exam ined</w>
ti p</w>
M D
Cas ual</w>
guid ed</w>
Expl ore</w>
P un
internation ally</w>
cl ou
p. m.</w>
M R
we alth</w>
certif ication</w>
T F
G RE
Class ical</w>
BL ACK</w>
0 7
on ym
k top</w>
arm y</w>
water proof</w>
Mo d
F lex
less ons</w>
Bran ds</w>
work shops</w>
V inc
os s
en tic
as .com</w>
Sh ops</w>
cre ati
Cour ses</w>
ex plan
Inf ra
Con temporary</w>
198 8</w>
rel la</w>
Comp on
Adv anced</w>
ren e</w>
invest ors</w>
wel ding</w>
g allery</w>
17 0</w>
bl an
fail ed</w>
con solid
intermedi ate</w>
c alling</w>
in spir
compos itions</w>
2 4.
tic ul
be ads</w>
I G
Bul gar
p ical</w>
D ry</w>
Penn sylvania</w>
inhabit ants</w>
Mar ina</w>
Ne ar</w>
anc a</w>
adj ac
iz za</w>
K at
jo ints</w>
hi king</w>
Th eme</w>
N av
construc ted</w>
be at</w>
Comm on</w>
custom ize</w>
moder n
P ut</w>
l un
behavi our</w>
rec ep
ol d
cat ch</w>
Br on
op er</w>
sp ra
slow ly</w>
Bl an
z -
h ot
T am
gar lic</w>
adop t</w>
poly ester</w>
Sh ell</w>
Kore an</w>
remo ving</w>
Cap ital</w>
k en
he re
fer ring</w>
re turns</w>
thre at
I L</w>
decla red</w>
ch ol
g ifts</w>
Su itable</w>
ac rylic</w>
in form
w ishes</w>
to ys</w>
Del eg
sol ute</w>
so dium</w>
Amer ic
o b</w>
phenomen on</w>
mat ure</w>
C M</w>
Mic ro</w>
op position</w>
b uck
cal i
y ar
sc ore</w>
F light</w>
suc c
a ks</w>
In surance</w>
Bir thday</w>
ul tr
priv il
ward robe</w>
r ul
P .
D ownloading</w>
adjac ent</w>
A tt
li p</w>
ig aret
hy po
Qu anti
f .com</w>
V ia</w>
or -
Cor rec
uni form</w>
jud ge</w>
Trans portation</w>
H -
Marri age</w>
í a</w>
g ent</w>
h n
for um</w>
rec re
gi e</w>
pres s
enter tainment</w>
co des</w>
Viet nam</w>
sa una</w>
ver ages</w>
ag er</w>
Vac uum</w>
Pro cess
10 2</w>
i ors</w>
eng agement</w>
uni versities</w>
oper ates</w>
li ps</w>
reser ved</w>
ici ency</w>
spec tac
met als</w>
C K
Mo dels</w>
circ ular</w>
plur ality</w>
incre dible</w>
def ence</w>
as king</w>
er ci
dec line</w>
2- 3</w>
UR E</w>
dec ades</w>
V ision</w>
exc essive</w>
accoun ting</w>
smo ke</w>
reli ability</w>
past e</w>
Perf ect</w>
se ed</w>
ast ers</w>
col orful</w>
ch apter</w>
D ro
Pro tocol</w>
Min im
in er</w>
emerg ing</w>
Fran co
re ferences</w>
Electr ical</w>
found land</w>
substanti al</w>
H il
subsi di
soldi ers</w>
pris on
e ther</w>
Mov ement</w>
Carib bean</w>
pre ferences</w>
gu ys</w>
Bet ween</w>
az z</w>
E ven
ush ing</w>
duc ed</w>
B in
pe oples</w>
loc ks</w>
D a
AN CE</w>
b ound</w>
h as
Des k</w>
t end
it ud
Instr uments</w>
str ing</w>
m ers</w>
tr ail
no tification</w>
m ation</w>
Fi ber</w>
N ord
wh ate
M and
Cot tage</w>
Attor neys</w>
po ol
par k
if ying</w>
Cer amic</w>
sm ell</w>
draw ings</w>
thedr al</w>
ma il
W ood
flow s</w>
Isra eli</w>
H AR
propos e</w>
im mer
whate ver</w>
Wor d</w>
cop ies</w>
Tel ev
Sol id</w>
strong er</w>
sh ades</w>
hab il
B M</w>
municip al</w>
M T
v .com</w>
d ough</w>
De ut
dis abled</w>
B .
ban k
Z ealand</w>
suc ce
ass y</w>
M ale</w>
J O
vic inity</w>
ur ine</w>
process or</w>
fin ds</w>
larg ely</w>
believ ed</w>
ho p</w>
bur ning</w>
Su ites</w>
R ange</w>
kitchen ette</w>
ro l
b ound
or ological</w>
gra in</w>
typ ically</w>
ab and
O f
K ur
thor ou
Ligh t
Sing ap
ver ify</w>
r ick</w>
ri ers</w>
L ind
du -
Wil li
Air ports</w>
ti ma
ski ing</w>
scienti sts</w>
me ant</w>
l s
T ower</w>
trans m
spea ker</w>
ab dom
R an
In spec
nam ely</w>
de em
Ch ev
Adjust able</w>
men tion</w>
N AT
not ary</w>
ch op
advis ed</w>
h ome
mani fe
S top</w>
pe ak</w>
Ric hard</w>
20 .
expl ains</w>
New foundland</w>
Ma king</w>
MP 3</w>
il a</w>
exhi bitions</w>
5 4
Cop per</w>
sc rat
s h</w>
et a</w>
un employment</w>
le .com</w>
p y</w>
M EN
impres sive</w>
Medic ine</w>
environ ments</w>
sav ings</w>
Ma xim
Cl au
ste ms</w>
int ments</w>
par ks</w>
activ ated</w>
F F</w>
F ound</w>
ti de</w>
associ ations</w>
H app
so -
Simil ar</w>
Con trac
decor ate</w>
5 ,
C .
reser ves</w>
ax ial</w>
3 .</w>
tob acco</w>
se where</w>
as sum
Comple te</w>
D ining</w>
conveni ence</w>
Veterin arian</w>
Pre par
L S</w>
shap es</w>
y ou
tt a</w>
tex tile</w>
si onal</w>
achel or</w>
ell ation</w>
Ch al
16 2.
up grade</w>
work place</w>
An na</w>
emb ro
R .
O li
sou l</w>
gener ator</w>
ast e</w>
democr acy</w>
char m</w>
t ap
att ended</w>
H air
R é
jun ction</w>
Str as
Co -
tow els</w>
aut onom
Col d</w>
th y
d a
Bulgar ia</w>
therap eutic</w>
13 -
s ought</w>
roman tic</w>
di c</w>
Off ers</w>
im proper</w>
amp oo</w>
R ock
7 8
prev ents</w>
Boo k
ur s</w>
co ins</w>
C P</w>
enjo ying</w>
Y uk
anal o
ve re
sk irt</w>
ques tion
S itu
sor ry</w>
Econom y</w>
re cover</w>
cook ies</w>
c it
il legal</w>
t oc
en ever</w>
D an
198 7</w>
revis ed</w>
min or</w>
x ing</w>
new ly</w>
imm un
inser ted</w>
panor amic</w>
separ ation</w>
rece iver</w>
. no</w>
si x
o st
P ak
Bos ch</w>
ol i
S B
Pr inted</w>
bre ast</w>
bas ement</w>
P es
chem icals</w>
Sm ith</w>
on ally</w>
sal ad</w>
parti al</w>
G T
broad casting</w>
Produc tion</w>
surve illance</w>
st ery</w>
s anc
te c</w>
pi x
os .com</w>
Motor cycle</w>
Cal gary</w>
sli p</w>
l y-
fa ith</w>
ul ator</w>
passeng ers</w>
lo vers</w>
c er</w>
Rem oval</w>
Chr ist</w>
l umin
exclu sively</w>
Mar c</w>
D r</w>
d ownlo
ri b
adv enture</w>
calcul ation</w>
S I</w>
ten s</w>
restric tions</w>
at i</w>
coll ar</w>
me dy</w>
ch at</w>
N ur
st ressed</w>
cri mes</w>
car tridge</w>
shel f</w>
thres hold</w>
ex it</w>
ri sts</w>
Poly ester</w>
Cha in</w>
exec utive</w>
Ship ping</w>
N E</w>
Le ban
Ar my</w>
el e</w>
Adv ant
p utting</w>
Singap ore</w>
CM P</w>
20 th</w>
é s</w>
publ ic
conver ter</w>
m s
H av
suff ered</w>
k no
0 4
tra ff
prepar ations</w>
gu il
an ticip
we ak</w>
ev ille</w>
Str uc
M e</w>
duc tor</w>
inten se</w>
dang er</w>
amoun ted</w>
O ut</w>
special ists</w>
consider ing</w>
te dly</w>
3. 0</w>
ob vious</w>
go v
trans formation</w>
work er</w>
viol ation</w>
b alls</w>
p v
br ass</w>
amp ing</w>
treat ments</w>
encour aged</w>
sti r
Sup re
stop ped</w>
Wor ks</w>
plan et</w>
th i
enjo yed</w>
Tran spa
Mil itary</w>
fat ty</w>
up lex</w>
Pre sid
styl ish</w>
Dep ending</w>
198 5</w>
celebr ate</w>
ab eth</w>
Sh owing</w>
de mands</w>
2 10</w>
se ating</w>
Tem plates</w>
Prof essor</w>
positi oned</w>
p ipes</w>
ey el
C um
ford shire</w>
ac i
N et</w>
cere mony</w>
P el
sil icone</w>
inv ite</w>
Willi am</w>
sle eves</w>
p ad</w>
wor st</w>
sens ors</w>
k ar
t b
G row
re feren
o ch
con stra
m ount</w>
E valuation</w>
- 19</w>
pa rent</w>
chro me</w>
bacter ial</w>
Ri vi
pre mises</w>
land scap
th row</w>
green house</w>
pre liminary</w>
sc al
Mon itor</w>
G y
meas urements</w>
collec tions</w>
Manu factured</w>
Ne u
attribu tes</w>
. pl</w>
Cri minal</w>
tom atoes</w>
un known</w>
tiv ation</w>
p ull</w>
per forming</w>
M ission</w>
conver t</w>
En ter</w>
ES T</w>
k re
gr in
seg ment</w>
Well -
F ro
A I</w>
1. 0</w>
the red</w>
cl oud</w>
Ac rylic</w>
tissu es</w>
h oo
Sec tor</w>
Sy ria</w>
inv est</w>
p ers</w>
CE O</w>
Indones ia</w>
he aling</w>
collec ting</w>
c ann
ex ports</w>
D ial</w>
Sum mit</w>
Stu dy</w>
Ham burg</w>
Es s
6 ,
prote ins</w>
our selves</w>
ic e
B is
sugge sts</w>
p acking</w>
t v</w>
I de
h ang</w>
C ell</w>
Prov ence</w>
over -
quo ise</w>
N ar
H S</w>
Emer g
particip ated</w>
V E
S hou
Vari ous</w>
Initi ative</w>
C ard
En d</w>
s ers</w>
19 0</w>
calcul ate</w>
f inger</w>
cell ar</w>
k a
cap abilities</w>
bel ongs</w>
p in
e able</w>
Vi enna</w>
J obs</w>
em br
L AN
Co ordin
Char ger</w>
m esh</w>
D O</w>
at om
An alysis</w>
aw a</w>
anti bio
b lo
app ellant</w>
mar ble</w>
po inted</w>
contribu ted</w>
z el</w>
com partment</w>
H end
ad t</w>
Dec oration</w>
1. 8</w>
y ard</w>
U P</w>
Strateg ic</w>
Im port</w>
4 0.
fac ed</w>
T rou
respir atory</w>
ed y</w>
ten ing</w>
h l
K or
ex ported</w>
Bel t</w>
N avy</w>
Mus li
7 9
l ucky</w>
sel y</w>
r is</w>
ist a</w>
Flo rence</w>
wel com
simultan eously</w>
Mun ich</w>
f ingers</w>
N at
vern ight</w>
C F</w>
Boo ts</w>
r ack</w>
fr ames</w>
re medy</w>
liter ature</w>
foot ball</w>
R oman</w>
zh ou</w>
R isk</w>
char ger</w>
S ave</w>
positi oning</w>
Hard ware</w>
G DP</w>
gy m</w>
J on
refl ected</w>
prev enting</w>
member ship</w>
R .</w>
Exp lo
è res</w>
de man
leg iti
ar bitr
victi m</w>
Hy dra
cust oms</w>
ch ief</w>
I V
2 30</w>
tw er
thorou ghly</w>
id al</w>
Stra p</w>
bron ze</w>
ic op
hes ion</w>
pres sed</w>
Sum mary</w>
f on
Cô te</w>
sco red</w>
Whe el</w>
inf ected</w>
Po ints</w>
re tail</w>
mod es</w>
assess ed</w>
Dev ice</w>
fe at</w>
Is su
ru b</w>
ta p</w>
over view</w>
Ph ase</w>
the ory</w>
bri ef
F air
CO UN
eas ed</w>
8 .com</w>
Philip p
Dub ai</w>
5 3
sh ift</w>
regul ated</w>
allerg ic</w>
T ru
Por t
r ug
d ingly</w>
ch in
Hand le</w>
K az
16 0.
Lab or
ul ous</w>
pr ised</w>
gl u
ip er</w>
coo ked</w>
Giv en</w>
t y-
cin ema</w>
inde ed</w>
sav ed</w>
ex tra
co zy</w>
cap ture</w>
Supre me</w>
extra- urban</w>
A ward</w>
Academ y</w>
ab sent</w>
subsequ ently</w>
st ume</w>
Ph ys
il li
Fl u
Con nect</w>
intellig ence</w>
an eous</w>
stret ch</w>
Jew ish</w>
Bed rooms</w>
ur ious</w>
bin ding</w>
Ch amber</w>
C ities</w>
Requ est</w>
pe g</w>
P W
ü n
n l</w>
m ad
cel e
t ine</w>
Ira q</w>
w age</w>
prov en</w>
Am end
Pe ace</w>
is er</w>
P ep
Lt d.</w>
2. 2</w>
sensi tivity</w>
lic ens
sol ub
is lands</w>
fi bers</w>
Capac ity</w>
B la
Cle an
Rel ations</w>
Palest inian</w>
w illing</w>
Phot ography</w>
K T
á n</w>
so- called</w>
Fi eld</w>
v el</w>
i g</w>
f ell</w>
Ex ternal</w>
manu ally</w>
key board</w>
C utting</w>
M other</w>
mis sed</w>
ea ter</w>
cas e-
Mag netic</w>
parti ally</w>
ro t</w>
ori entation</w>
H R
h ose</w>
ther m
v is</w>
Let ters</w>
in si
con stitute</w>
Ne vertheless</w>
3 3.
r l</w>
long itud
Decor ative</w>
Vir gin
ol o</w>
ill ness</w>
Vic e-
pu zzle</w>
K itchen
A ST
p tions</w>
HO TEL
An ne</w>
contribu tes</w>
S ME
r .com</w>
li sting</w>
R ules</w>
Ch ap
ti res</w>
B lo
Aud i</w>
Reser ve</w>
P .</w>
Di e
Contribu tions</w>
Can on</w>
2 17.
under taking</w>
mut ual</w>
it z</w>
it ual</w>
g rid</w>
che stra</w>
Appl ic
z ip</w>
S ul
develop s</w>
Ch ec
rep airs</w>
In c.</w>
ch am
De fin
car bo
De tec
dis ability</w>
dol lar</w>
datab ases</w>
coun try
RE S</w>
J as
tu m</w>
glo ves</w>
Star ting</w>
H ot
Even ing</w>
her bs</w>
bul k</w>
t ower</w>
ig an</w>
ambo o</w>
n ations</w>
au x
W ER</w>
pay ing</w>
Sur face</w>
Quanti ty</w>
Mar se
E ye</w>
C are
sc roll</w>
nam ent</w>
der ly</w>
T T
2. 1</w>
ch al
Plan ning</w>
1 30
ous tic</w>
ex terior</w>
B E</w>
re sts</w>
Sel f-
S N
intel lectual</w>
Sou th
D ish
os oph
tu bes</w>
shut tle</w>
eg ar</w>
ver ning</w>
Glo ves</w>
R ates</w>
po ols</w>
der iv
blog spot
HD MI</w>
modi fy</w>
198 6</w>
improv es</w>
Pl ate</w>
Cat al
A id</w>
tex ts</w>
Fri endly</w>
pric ing</w>
it é</w>
en ess</w>
Argent ina</w>
umb ers</w>
bat tle</w>
T ours</w>
Pr inter</w>
Democr atic</w>
repe ated</w>
A ds</w>
Ap pen
0 6
conver ted</w>
sk illed</w>
resul ted</w>
ma ster
trou ble</w>
ik i</w>
contain ers</w>
- R
ell ers</w>
Ev ent</w>
organ ised</w>
IP O</w>
Res idence</w>
Per u</w>
Corpor ate</w>
config ured</w>
b es
mom ents</w>
incorpor ated</w>
m ood</w>
W id
v able</w>
purch ases</w>
discipl inary</w>
Be ij
and el
Stras bourg</w>
18 5.
L .</w>
Con cer
An twer
Ad ap
welcom ed</w>
S P</w>
ed -
ack er</w>
CO MM
pre ad</w>
t end</w>
sen ding</w>
Ma ke
O EC
Mete orological</w>
clean ed</w>
T ank</w>
Win dow</w>
Wal let</w>
omen `s</w>
sli de</w>
inv o
Alex and
p ants</w>
on i</w>
15 4.
l ace</w>
wat ching</w>
c m
For m</w>
S cho
invent ory</w>
c enters</w>
Top ics</w>
Appe al</w>
not ably</w>
yr én
C out
t ress</w>
sequ ently</w>
Ed ward</w>
an tenna</w>
R ab
on- line</w>
an n</w>
Ra w</w>
g ation</w>
ren a</w>
en abling</w>
Ver sion</w>
er ra</w>
Rail way</w>
Recomm end
h ide</w>
em ia</w>
Sh ould</w>
Pres sure</w>
en zy
assem bled</w>
P om
roll ing</w>
cu ts</w>
9 8.
In tro
re sident</w>
1. 3</w>
regi stry</w>
r ab
Ed mon
ab solute</w>
V O
S uc
CR TC</w>
2 40</w>
0 8
lap top</w>
ap art</w>
aff ili
Ac tivity</w>
su ited</w>
demonstra ted</w>
Accor dingly</w>
Qu ar
D aily</w>
loc ate</w>
eng ines</w>
high light</w>
C olog
B avaria</w>
supple ment</w>
Br acelet</w>
phy si
publ ications</w>
sle eping</w>
independ ently</w>
pro b
loc ked</w>
ma tes</w>
plan ted</w>
W A</w>
L ow
Jacqu es</w>
Con gress</w>
receip t</w>
im ports</w>
U -
ran ging</w>
V es
Fu el</w>
pos sibly</w>
n es
ad ds</w>
stric tly</w>
specif y</w>
T OR</w>
Pol ish</w>
val ley</w>
organ isms</w>
Z e
Direc t</w>
sur prised</w>
25 .
P ho
graph ics</w>
se es</w>
jew ellery</w>
Secre tar
S AR
ri -
g au
P y
invol ve</w>
Alger ia</w>
k ir
Lau rent</w>
Let ter</w>
L ite</w>
0. 1</w>
w aves</w>
sub jects</w>
V olk
adver tis
te .com</w>
et al</w>
enth usi
Reser vations</w>
F R</w>
A y
un ions</w>
tur b
on ate</w>
car bon
Of ten</w>
Cy cling</w>
re aching</w>
enti ty</w>
st an</w>
d able</w>
is tic
ener g
AC E</w>
A E</w>
pass es</w>
sa fe
Per i
com bus
as set</w>
o vernight</w>
m iti
expl os
R S</w>
o a</w>
is ex</w>
des -
onlin e.com</w>
descri bes</w>
Ali bab
sli ding</w>
B all
M IT
g ion</w>
Exc ept</w>
R CMP</w>
20 9.
pharmac eutical</w>
auth entic
wor se</w>
function ality</w>
M ath
k ins</w>
bul b</w>
Sor ry</w>
ri gh
or n</w>
ser vers</w>
ri e</w>
L é
i x
every where</w>
cr yp
W o
ST R
Inte gr
protec ts</w>
rat ings</w>
dis closure</w>
dimen sion</w>
Emerg ency</w>
c ables</w>
Cour se</w>
am y</w>
Excell ent</w>
g all
el e
Philip pe</w>
iz ations</w>
V ector</w>
re venues</w>
win ning</w>
t é</w>
ar th
k es
hydro gen</w>
fr agr
appli ance</w>
ind ication</w>
tr ous
Clo thes</w>
gen etic</w>
B ak
fashi onable</w>
Beij ing</w>
fol d</w>
M eg
en burg</w>
cylind rical</w>
respon ses</w>
hand les</w>
Ob viously</w>
Pe ter
stu di
Mir ror</w>
vill as</w>
cosme tics</w>
adi um</w>
Priv acy</w>
L es
sh are
D NA</w>
Pe ti
milli ons</w>
K M</w>
Wal es</w>
M AT
State ment</w>
Proc ed
t attoo</w>
H ey</w>
ro s</w>
M r
R F</w>
t ages</w>
event ually</w>
OEC D</w>
ag on
achiev ing</w>
Char ac
where as</w>
col on
c ouldn</w>
a z</w>
Provinc ia</w>
p ill
del icate</w>
re aches</w>
n aturally</w>
habit at</w>
d g
Sh ang
B ap
be ige</w>
access ory</w>
re stored</w>
pas sion</w>
am o</w>
fil tr
F IN
conclu sions</w>
b is
aqu eous</w>
corpor ation</w>
pd f</w>
guaran tees</w>
br a</w>
Under wear</w>
F our
oc key</w>
Govern or</w>
sett lement</w>
escap e</w>
pro mp
inter action</w>
W ind</w>
Ch all
sil k</w>
se aling</w>
saf ely</w>
concentr ated</w>
Sw im
Cab inet</w>
AB S</w>
V all
promis ed</w>
dimen sional</w>
cor ners</w>
produc er</w>
u ation</w>
q .com</w>
decision- making</w>
de grad
to y</w>
mag ic</w>
Co operation</w>
u ght</w>
W is
Liqu id</w>
Hor se</w>
Afgh an
w ouldn</w>
los ses</w>
li fier</w>
hi o</w>
N iss
H amp
23 6.
AR D</w>
un pleasant</w>
fe el
stri ke</w>
h ire</w>
bi e</w>
spea kers</w>
Mon it
K S</w>
on- site</w>
H ard</w>
ght ness</w>
K E
si st
m ill</w>
ru g</w>
St ock
S atellite</w>
cre di
2 8.
lo ans</w>
Cout u</w>
refl ection</w>
dre ams</w>
coast al</w>
cal cium</w>
Mar y
L ec
di amond</w>
U su
Me di
Ul tra</w>
comm erci
sy r
p .</w>
N O</w>
Fer r
c i</w>
br acelet</w>
l der</w>
b uc
imag ine</w>
commit tees</w>
Pl ant</w>
rad or</w>
canc ellation</w>
ar -
L ef
L IN
D IS
ri f
0 5
g aining</w>
vari ed</w>
spectac ular</w>
independ ence</w>
chlor ide</w>
L em
year- old</w>
cat alog</w>
Colomb ia</w>
LA N</w>
ustr ation</w>
7 6
Stud ent</w>
Cy pr
ori ented</w>
i an
Rel ig
pa ired</w>
p ens
man if
mix ing</w>
habil itation</w>
u li
Emplo ye
Val encia</w>
F oc
Mi x</w>
Bo ys</w>
ou ts</w>
s la
Vehic le</w>
R ich
N ames</w>
T el</w>
Car toon</w>
ath er
sur prise</w>
ser iously</w>
lan ding</w>
pro tocol</w>
jo ining</w>
Appen dix</w>
In fl
x y</w>
ve .com</w>
pr o</w>
en ers</w>
7 ,
view ing</w>
K ing
u zzi</w>
is a</w>
H ab
Langu ages</w>
G am
Afghan istan</w>
w av
sched ules</w>
re as</w>
seas onal</w>
ear ned</w>
scre ening</w>
d resses</w>
F lowers</w>
200 .
ik a</w>
coun ts</w>
m m
is si
O ber
electro de</w>
P ads</w>
B log</w>
acc used</w>
B en</w>
screw -
loc k
chron ograph</w>
n ick
E as
reve aled</w>
o h
dec reas
convinc ed</w>
detec tor</w>
T ell</w>
S now</w>
Marse ille</w>
Manu fac
ster one</w>
n i</w>
D s</w>
Pain tings</w>
p neum
e ter</w>
terror ism</w>
ba king</w>
Le e</w>
Cypr us</w>
Vi ew
cel ain</w>
an th
Chem ical</w>
prec ious</w>
g ear
roll ed</w>
ra k
Purch ased</w>
nor mal
bo il</w>
at ories</w>
Boo king</w>
venti lation</w>
R ate</w>
E mail</w>
ine a</w>
tg age</w>
k id</w>
be st
c amer
Pr ague</w>
c n
Joh ann
quanti ties</w>
Nap les</w>
syn drome</w>
ap le</w>
respec ting</w>
van ized</w>
s v
g el
2 7.
admin istered</w>
T- shirt</w>
ap k</w>
Chang es</w>
child hood</w>
ak h
Jac kets</w>
D ay
10 4</w>
dis plays</w>
Ma z
D IN
un d</w>
bor ne</w>
rou te
ch ip</w>
c enti
ar o</w>
sustain ability</w>
iss ance</w>
In k</w>
en ix</w>
cho ices</w>
Br ass</w>
enc ryp
navig ation</w>
oul try</w>
k shire</w>
I R</w>
us tin</w>
den se</w>
US E</w>
Connec tor</w>
l acqu
follow -up</w>
at tract</w>
mas sive</w>
Yuk on</w>
Virgin ia</w>
Rev enue</w>
In ch</w>
- 7
rin se</w>
in ches</w>
Z ur
Recor ds</w>
solv ent</w>
tri als</w>
A E
lo v
es timate</w>
C AL
4 th</w>
pe red</w>
K G</w>
L ock</w>
il es</w>
sho e</w>
exten ds</w>
b all
Stand ards</w>
Ren ault</w>
I E</w>
life style</w>
hum idity</w>
onym ous</w>
applic ants</w>
W ould</w>
T W
La un
ou x</w>
Monit oring</w>
yrén ées</w>
expendit ure</w>
it an</w>
ent a</w>
f alling</w>
exp anded</w>
Dy nam
Hy dro
Edmon ton</w>
hal f-
Hom es</w>
make up</w>
sign ature</w>
pop ul
D N
al located</w>
Tele phone</w>
NR K</w>
tou rists</w>
lif ting</w>
har vest</w>
bus y</w>
A wards</w>
min ority</w>
F al
6 2.
Sta ff</w>
ligh ted</w>
fol i
ch en</w>
G RA
F la
Ex tra</w>
n ative</w>
3 1
te ach</w>
enti ties</w>
elev ator</w>
g r</w>
Cust oms</w>
K O
proxim ity</w>
Oper ations</w>
y el
s d
sub mission</w>
et ries</w>
chec ked</w>
L ady</w>
S now
Con stitution</w>
duc t</w>
O hio</w>
Hous ing</w>
hair dryer</w>
my net
compl ications</w>
vin yl</w>
initi ated</w>
fe els</w>
el and</w>
Su perior</w>
E arr
Imp le
Corn wall</w>
th ane</w>
ar range</w>
Sched ule</w>
K os
A i
G EN
umb o</w>
en velop
Hol y</w>
yr .no</w>
equ ity</w>
In dic
Vac ation</w>
lit ers</w>
graph y</w>
appro x</w>
Cur rently</w>
Cl oud</w>
T emp
de struction</w>
T- Shirt</w>
trans fers</w>
Niss an</w>
Log o</w>
J unior</w>
co st-
Win ni
Smar t
C I</w>
i as</w>
Anton io</w>
d ess
sub jected</w>
remo vable</w>
g ently</w>
cur tains</w>
k h
W omen`s</w>
p es
mynet fair</w>
flu or
Inde x</w>
rac ing</w>
ep is
Lear ning</w>
dis placement</w>
T ol
c ia</w>
Cont ent</w>
deem ed</w>
è s</w>
pro files</w>
colle ge</w>
cir cul
Earr ings</w>
Colog ne</w>
ra ys</w>
c igaret
Ma h
F ren
Direc tors</w>
Nic ol
fer r
T RO
longitud inal</w>
geograph ical</w>
gc .ca</w>
Director ate</w>
ID A</w>
IC AL</w>
ed a</w>
Alex ander</w>
tra il</w>
pe di
FRE E</w>
ul timate</w>
Shou lder</w>
own ership</w>
pain tings</w>
cre w</w>
w ich</w>
ten der</w>
pro hibited</w>
Fl ash</w>
pre sid
ist ering</w>
c ough</w>
ven ted</w>
i el
bur ied</w>
exec ution</w>
AD A</w>
Il lin
Sil k</w>
di agram</w>
bar riers</w>
Up date</w>
2. 3</w>
ux e</w>
y ield</w>
teen th</w>
t ours</w>
fif th</w>
bur gh</w>
qual ities</w>
reti rement</w>
qu is
fix ing</w>
country side</w>
or ous</w>
en see</w>
Lin col
Le on
L ang
pati o</w>
Know ledge</w>
shel ves</w>
certain ty</w>
r an</w>
Partner ship</w>
B N
25 -
down -
par ameter</w>
P ants</w>
ph ases</w>
no ble</w>
2019-0 5-0
Experi ence</w>
pi ano</w>
preser ve</w>
D ER</w>
Spr ay</w>
Cal cul
sec ur
Nec klace</w>
mem or
G et
w ings</w>
te x</w>
per ce
aff ir
er ts</w>
a .org</w>
e ye
Usu ally</w>
l ers</w>
enti c</w>
car b
re mark
ester shire</w>
Illin ois</w>
Winni peg</w>
Per haps</w>
i z</w>
j an
belong ing</w>
L D</w>
at er
Oce ans</w>
ush es</w>
dec laration</w>
ateg or
og ram</w>
ment ally</w>
f ate</w>
St atus</w>
magaz ine</w>
fav our</w>
sup posed</w>
moist ur
ab is</w>
t s-
og n
believ es</w>
add ressing</w>
ar rested</w>
PR O</w>
absor ption</w>
ON E</w>
ill on</w>
p H</w>
Sau di</w>
gun dy</w>
C T</w>
1 200</w>
z ers</w>
tiv ated</w>
destro yed</w>
athle tes</w>
- of-
vin egar</w>
Per man
y- General</w>
war ning</w>
sear ching</w>
o .
col oring</w>
U T</w>
ra ising</w>
tar iff</w>
volun tary</w>
syn chron
ie u</w>
Gl as
P sy
identi fying</w>
ro of
am el</w>
Th ird</w>
par as
Appl ications</w>
v s</w>
Lab rador</w>
f asc
B uck
f ies</w>
dr um</w>
cup s</w>
Ex am
s light</w>
SME s</w>
Me dium</w>
D el</w>
H A</w>
in take</w>
wh enever</w>
ear n</w>
Gen der</w>
Guid elines</w>
c k
30 00</w>
indi genous</w>
scen es</w>
St at
gener ations</w>
4. 5</w>
inclu sion</w>
Hou se
Vide os</w>
po sts</w>
P s</w>
Franc isco</w>
inj uries</w>
en .com</w>
1 A</w>
reco vered</w>
fin ishing</w>
renew al</w>
be red</w>
A le
emo tional</w>
cri tic
compos ite</w>
plat forms</w>
glo bal
Reg ul
Ax ess</w>
electr onics</w>
Ter ms</w>
Re frigerator</w>
F ive</w>
ok ay</w>
tow el</w>
hum ans</w>
WH O</w>
Cor ner</w>
y or</w>
Slo ven
he a</w>
di al</w>
ha us
conduc ting</w>
yp ik</w>
scre ws</w>
s ister</w>
Alber t</w>
susp ended</w>
sing le-
Fre der
F ather</w>
dr am
Scienti fic</w>
alg ori
G ive</w>
f a</w>
bur den</w>
E vol
Slo v
feel ings</w>
el ty</w>
ea stern</w>
t ones</w>
Philipp ines</w>
Au di
tre ating</w>
P T</w>
spec trum</w>
h ook</w>
viol ations</w>
sw oman</w>
pow ered</w>
ogen ic</w>
e il</w>
dra in</w>
P umps</w>
Fun ction</w>
Brit ain</w>
h our
ic ide</w>
Ach iev
pl en
cor n</w>
t ops</w>
optim ally</w>
rub les</w>
R ings</w>
E F</w>
C S</w>
disp ute</w>
rec tangular</w>
T ree</w>
col um
Telev ision</w>
Dec laration</w>
refl ects</w>
L TD</w>
D ance</w>
5 2
X P</w>
Di pl
sun ny</w>
repe at</w>
P M
6 50</w>
kre is</w>
P G</w>
Jer sey</w>
16 V</w>
vir al</w>
re direct</w>
con ce
andro id</w>
P le
Ar n
super vision</w>
fore sts</w>
Is l
inter ventions</w>
n m</w>
le ver</w>
im a</w>
u tility</w>
GO s</w>
per mitted</w>
Transpa rent</w>
Cre dit</w>
fro zen</w>
con vic
o h</w>
mat ching</w>
N un
7 00
0 9
down town</w>
E G
bar rier</w>
7 4
pur ple</w>
Ken ya</w>
Co oper</w>
ti tan
simp lif
inclu sive</w>
lo ads</w>
W ay</w>
O T
Bo xes</w>
notic ed</w>
B ell
R ain
M er</w>
b orders</w>
3 8.
L ens</w>
Advis or</w>
neutr al</w>
min erals</w>
ex hib
ab or
Volk sw
k its</w>
aff ecting</w>
ad verse</w>
Pre mi
ut ter</w>
in ine</w>
Rec ent</w>
individ ually</w>
convers ation</w>
sur pris
stri ps</w>
g arian</w>
In stead</w>
20 8.
r am
Secretar y-General</w>
es ium</w>
c l</w>
Wash ing</w>
F requ
b ent</w>
E mil
screw- down-
screw-down- crown</w>
T ub
ec ological</w>
Patter n</w>
Ar th
nit ting</w>
ous ness</w>
back -
m ere</w>
b om
sp ices</w>
medic ations</w>
Vit am
Br u
requ iring</w>
J VC</w>
n one</w>
IN C</w>
, 99</w>
us ter</w>
H ER
ob servation</w>
AG E</w>
cons ist</w>
sport sman</w>
Met al
Hydra ulic</w>
need le</w>
Antwer p</w>
cro ps</w>
Op tical</w>
ori tes</w>
cros sing</w>
c ats</w>
O L</w>
Lad ies</w>
Man chester</w>
C K</w>
pass port</w>
tre as
urg ent</w>
ish i</w>
G RO
Di stance</w>
gr y</w>
at ings</w>
observ ations</w>
alco hol
Rol l</w>
Dish washer</w>
he rent</w>
se ed
ess entially</w>
dis sem
l ings</w>
1- 2</w>
photograph s</w>
ky o</w>
T own
Ma x
tro pical</w>
trac ks</w>
Lab el</w>
L ay
spir itual</w>
some what</w>
ne ts</w>
Gr ad
Res olution</w>
0 s</w>
remedi es</w>
Administr ative</w>
201 6-0
Provinc ial</w>
C ore</w>
Situ ated</w>
G all
deter i
E F
ur ance</w>
f ts</w>
Al liance</w>
9 1.
t ent</w>
UL T</w>
E mb
D ual</w>
St reng
bath tub</w>
bi z</w>
T PU</w>
ke eps</w>
fun g
MA N</w>
ton ight</w>
N az
40 -
er s
Pers ons</w>
light weight</w>
K h
well- known</w>
fla g</w>
ec o-
Purch ase</w>
B achelor</w>
W on
Volksw agen</w>
log ical</w>
Pla za</w>
Perman ent</w>
toil etries</w>
Sup ple
Well- being</w>
Col l
AR T</w>
ter mination</w>
IN TER
chop ped</w>
p end
ig ns</w>
embodi ments</w>
consist ency</w>
fil ing</w>
Rh in
F an</w>
Recomm ended</w>
Hen ry</w>
Chic ago</w>
it .com</w>
wor thy</w>
sport swoman</w>
Im prov
st .com</w>
lo ops</w>
O ff</w>
Sec ond
sor ted</w>
O D</w>
15 00</w>
suffici ently</w>
recru itment</w>
o x</w>
ro l</w>
in jec
Dim en
terr aces</w>
Ju an</w>
renew able</w>
P T
y n</w>
wor l
p c</w>
T ic
Arri val</w>
yp e</w>
Z -
z i</w>
ra rely</w>
class ical</w>
M all</w>
C ad
Br and
A ub
i op
al ised</w>
desig ners</w>
An y
Franç ois</w>
tel ls</w>
thou ghts</w>
fol ding</w>
L Y</w>
9 00
dec ade</w>
Ind ustri
sugg estions</w>
Mem ory</w>
R oc
H ur
Val ent
T RI
S ign</w>
Az ur</w>
Gr ound</w>
wel coming</w>
hi p</w>
gl uc
sw elling</w>
pos s
ish ments</w>
Compati bility</w>
C AT
form ats</w>
y or
medic inal</w>
lod ging</w>
P RE
L ie
bil ateral</w>
un rated</w>
inc ident</w>
H Y
complex ity</w>
1 15</w>
wat er-
ag o
ne ither</w>
ne akers</w>
OR S</w>
B A
ther mo
Ben z</w>
. ch</w>
metal lic</w>
l osing</w>
Sy m
an ol</w>
J et</w>
am ide</w>
CO L
hur t</w>
18 -
cop ic</w>
bl ades</w>
icon ductor</w>
sent ence</w>
satur ated</w>
Oper ating</w>
30 4</w>
d é
be t</w>
a issance</w>
0. 00</w>
sen ators</w>
read er</w>
foc uses</w>
W A
J E
Arc tic</w>
10 6</w>
bu si
destro y</w>
cl ay</w>
tax i</w>
m c
l ou
aff airs</w>
st unning</w>
j ar</w>
gu ess</w>
dec k</w>
Competi tion</w>
Al pes</w>
re forms</w>
metabol ism</w>
co il</w>
as sign
p etro
ten ed</w>
R F
N GOs</w>
in sec
sum mar
sh oo
Sh ape</w>
Happ y</w>
install ing</w>
initi ally</w>
AN T</w>
spo ke</w>
So vi
8 ,
hand -
ad ise</w>
Pre -
3. 1</w>
198 4</w>
high lights</w>
f el
id ery</w>
boo ked</w>
Off ices</w>
j ob
Hau te-
v aries</w>
back up</w>
M ou
re fined</w>
b ly</w>
accoun tability</w>
V O</w>
vol umes</w>
D UC
de partmental</w>
In uit</w>
trac king</w>
ati gue</w>
vo tes</w>
concep ts</w>
ban king</w>
M esh</w>
sec ured</w>
recy cl
comp uters</w>
St ut
Rac ing</w>
d h
L il
Isl amic</w>
Ok ay</w>
Comm unities</w>
route km</w>
rand om</w>
F a
strug gle</w>
respond ents</w>
add le</w>
Mon th</w>
la sts</w>
rig id</w>
h ec
dou ble-
Tenn is</w>
Jos eph
2. 4</w>
c ategor
a. m.</w>
extra ordinary</w>
controll ing</w>
g ases</w>
combus tion</w>
tic ol
Alibab a.com</w>
pot entially</w>
pol e</w>
direc tors</w>
eng er</w>
man ip
Rol ler</w>
P etro
Back ground</w>
fri end
Pro motion</w>
De ep</w>
F inal</w>
12 3</w>
b ak
Sol utions</w>
fr ac
st or</w>
su perior</w>
our i</w>
ti tles</w>
in formal</w>
re tro</w>
lay ing</w>
ell es</w>
club s</w>
Imp act</w>
k- in</w>
j ets</w>
deal er</w>
B lock</w>
.com. br</w>
high lighted</w>
corro sion</w>
S Q
He ypik</w>
y on</w>
cap ital
re friger
integr ate</w>
s z
Re al
fre ely</w>
reser vo
es is</w>
M ec
pro por
ma id</w>
Ther mal</w>
os te
Zur ich</w>
Vo ice</w>
P earl</w>
ob taining</w>
Pain t</w>
Est abl
Br ush</w>
Bel gian</w>
quot e</w>
mush rooms</w>
albu m</w>
o y
R on
H U
Com fort</w>
Ch ile</w>
dis posed</w>
Swe dish</w>
RO M</w>
on ions</w>
S R</w>
K le
cat alogue</w>
o que</w>
D B</w>
mo ves</w>
k el
Shang hai</w>
ter fly</w>
p airs</w>
advantage ously</w>
Th om
n ights</w>
cle ans
th west</w>
S imp
Mont pel
correspon d</w>
comm ission</w>
pro of
J i
A h
in su
Bo y</w>
r hy
explo itation</w>
24 h</w>
sc ious</w>
Tit le</w>
S po
D et
3 20</w>
vill ages</w>
D P
AR E</w>
Gul f</w>
ch et</w>
Hi king</w>
tima tely</w>
pre mium</w>
pain ful</w>
ann ually</w>
Dest inations</w>
Al ph
14 -
ty ard</w>
parliam entary</w>
mat rix</w>
con train
exclu ded</w>
Mo on</w>
plas ma</w>
pl ain</w>
olog ists</w>
T en
L ot</w>
reli gion</w>
S car
F all</w>
n ight
eg al</w>
Pl as
Me at</w>
e de</w>
In divid
Smo king</w>
Maj or</w>
e a</w>
bloc k
D ry
Au dit</w>
car ton</w>
stic ks</w>
in er
M au
Al arm</w>
2019-0 1-
surve ys</w>
Z am
o therapy</w>
aw ards</w>
Y ears</w>
Mul ti</w>
A X
se as</w>
shor ten</w>
H ow
under ground</w>
ta sty</w>
fa ult</w>
stro ke</w>
dis covery</w>
Tai wan</w>
vari ations</w>
N on</w>
el as
restor ation</w>
ener y</w>
Law rence</w>
l av
ure ly</w>
fal se</w>
anc ement</w>
Explo rer</w>
Connec tors</w>
in struction</w>
Surve y</w>
ink le</w>
de tention</w>
T I</w>
l er
sil icon</w>
ish er</w>
dir t</w>
c c
ME N</w>
comp ression</w>
ati on-
S port
D in
Graph ic</w>
C ook
tic es</w>
in ventions</w>
dev oted</w>
br ick</w>
res cent</w>
am end</w>
Trad itional</w>
Del ta</w>
proc urement</w>
ev ed</w>
dem ic</w>
5 1
re tain</w>
mar king</w>
he ading</w>
ar .com</w>
W IPO</w>
ye th
Pho enix</w>
9 6
got ten</w>
equ ally</w>
odi versity</w>
ass ador</w>
air lines</w>
tell ing</w>
ev al</w>
bo iled</w>
Un isex</w>
play ground</w>
enn es</w>
el sewhere</w>
ch t</w>
advoc ate</w>
Conver ter</w>
gu itar</w>
T ask</w>
Ad ri
Amend ment</w>
. l
min i-
D M</w>
resol ve</w>
Rhô ne-
Desig ned</w>
CO VID
z on
traff icking</w>
sci ences</w>
C s</w>
ro ts</w>
refuge e</w>
ili ary</w>
b j
ans wered</w>
Ow ner</w>
st air
Cas til
foc using</w>
Su z
Spec ifications</w>
in tr
Christ op
Car s</w>
solub le</w>
mo de.com</w>
lux urious</w>
I I
W IN
F uture</w>
oph istic
di am
vis ions</w>
continu ously</w>
Î le-
Scot t</w>
Don ald</w>
Controll er</w>
minim al</w>
fas test</w>
zz les</w>
th al
br o</w>
ge red</w>
to aster</w>
surg ical</w>
end o</w>
Infra structure</w>
ri dge</w>
N utri
hy giene</w>
Diffe rent</w>
Adv enture</w>
ter ri
SP OR
sel ec
app s</w>
Pr ac
Am b
conflic ts</w>
Sh irts</w>
ste ering</w>
FI GS</w>
buff et</w>
O thers</w>
10 3</w>
fish eries</w>
w ay
Tran sm
vis ibility</w>
w er
corpor ations</w>
ath s</w>
Re fuge
E sp
C arm
r ounded</w>
nov el</w>
ish -
e u</w>
camer as</w>
ar ise</w>
Tr ust</w>
moder ate</w>
S HO
l on</w>
agg reg
f arms</w>
S ug
ic .com</w>
Y -
trad em
con scious</w>
prec ed
bul bs</w>
att ach</w>
por teur</w>
arr ay</w>
42 mm</w>
form ity</w>
Poli tical</w>
16 -
tal ks</w>
s om
assi um</w>
To y</w>
J -
Dol lar</w>
syste matic</w>
week ly</w>
au -
14 0
syn thesis</w>
comb ines</w>
M IC
thro at</w>
d ating</w>
RE D</w>
gr ants</w>
ear th
12 V</w>
ph r
p ine</w>
neighbor hood</w>
li ability</w>
hang ing</w>
Represent ative</w>
excell ence</w>
emphas is</w>
He avy</w>
An aly
promo tes</w>
nit rogen</w>
know ing</w>
GI F
D own</w>
AS E</w>
con sen
Consum er</w>
9 8
absor bed</w>
T ay
Sha red</w>
go s</w>
medi um-
struc tured</w>
Rel ease</w>
4 .</w>
with draw
Sim on</w>
ies worldwide</w>
Pharmac iesworldwide</w>
ch ances</w>
win ner</w>
origin ally</w>
ob ile</w>
Nig eria</w>
V OL
Pre vention</w>
est one</w>
201 9-
14 7</w>
w an
cros s
16 0
A did
st adt</w>
ye ster
ro bot</w>
d ys
U s</w>
sou p</w>
o ves</w>
con dens
ch ap
cou pled</w>
D H
bel ong</w>
G em
tr ace</w>
ur t</w>
reg ener
op ol
igr ant</w>
Z an
visit mode.com</w>
P av
rob ust</w>
judg ment</w>
ath y</w>
nutri ents</w>
la m</w>
Mo z
J azz</w>
win ding</w>
fun ny</w>
rein forced</w>
M O</w>
Top ic</w>
HOTEL .com</w>
A- HOTEL.com</w>
6 3
ation .com</w>
Net works</w>
1 12</w>
mo thers</w>
Hol der</w>
Al loy</w>
h in
ess e</w>
R iv
Mag ic</w>
C ush
cool ed</w>
S on</w>
l eng
Nor man
p rece
fi ve-
cus h
rou tine</w>
ME T
per mission</w>
in um</w>
ent -
econom ies</w>
phil osoph
fav our
Toul ouse</w>
9 4
10 8</w>
c ran
re turning</w>
l on
V al</w>
st ur
in ver
Ven ez
Fr on
Gre ater</w>
Sovi et</w>
. jp</w>
Ren aissance</w>
Prov ence-
citiz en</w>
C G
pres cription</w>
W D</w>
Agricul tural</w>
molec ular</w>
J a
A ge</w>
E ll
b i</w>
Châ teau</w>
super b</w>
wal ks</w>
pre mi
S cri
Comp act</w>
lay out</w>
con grat
Th ai</w>
Doc ument</w>
Con sequently</w>
no ver</w>
Foot ball</w>
De als</w>
journal ists</w>
confir mation</w>
9 7
af ood</w>
l an</w>
ac le</w>
Mon t-
wid er</w>
busi est</w>
att achment</w>
F it
pay able</w>
creati vity</w>
18 0
Telec om</w>
Clau de</w>
lad y</w>
in cl
cele bra
as se</w>
Thre at</w>
à rl</w>
t une</w>
comp ress
o des</w>
Pi ece</w>
Eli z
COVID -19</w>
te k</w>
Adid as</w>
The atre</w>
L ess</w>
un fortunately</w>
l au
Evol ution</w>
cas ing</w>
arri ves</w>
olar ship</w>
occup ational</w>
benef ici
IS H
r us
arg uments</w>
N ylon</w>
be ans</w>
Deut sche</w>
Cent ury</w>
on ion</w>
P acking</w>
in tention</w>
al ties</w>
ail ing</w>
De c</w>
P AN
5 th</w>
S àrl</w>
ri l</w>
exp ense</w>
bu yers</w>
ari ans
ar ial</w>
gener ating</w>
L T
bor ough</w>
Hum an
ros is</w>
h ex
survi val</w>
Se par
ON AL</w>
I con</w>
dis closed</w>
B Y</w>
remark able</w>
tre m
G ig
2 9.
h t
N H
th inks</w>
cro p</w>
coo ter</w>
real istic</w>
or i</w>
Wal k</w>
hospit als</w>
Or chestra</w>
Coun tries</w>
determin es</w>
Z one</w>
k on
es see</w>
b in</w>
ang a</w>
Parliam entary</w>
P V
NO T</w>
19 8.
f t
cush ion</w>
C ool</w>
ver -
r ound
Avail ability</w>
E mir
bear ings</w>
K om
K an
Deleg ation</w>
Chro me</w>
uph ol
B T</w>
ta ught</w>
pay day</w>
anc er</w>
Le ad
st aying</w>
pro long
o dy</w>
arians guide</w>
Veterin ariansguide</w>
Sk y</w>
B ub
E specially</w>
Addi tionally</w>
stra in</w>
enem y</w>
el derly</w>
cat alyst</w>
Ca thedral</w>
connec ts</w>
am ino</w>
Mo di
F ant
Particip ated</w>
P ie
w anna</w>
ir s</w>
60 -
Tw in</w>
K it
Ac count</w>
se aled</w>
ou n</w>
tg art</w>
Tra il</w>
. us</w>
out lined</w>
e igh
Certif icate</w>
il -
assess ments</w>
Ill ustration</w>
De tail</w>
Compati ble</w>
s s
expendit ures</w>
p assi
R unning</w>
div or
pul se</w>
1 ,000</w>
Mi di
re rs</w>
h at
Publ ished</w>
Fran k</w>
in ets</w>
Se at</w>
il la
advantage ous</w>
Del uxe</w>
Char lot
MER CE
Stut tgart</w>
In sul
Fo rec
obstac les</w>
f atigue</w>
card board</w>
psych ological</w>
Sy rian</w>
pist on</w>
Architec ture</w>
3 4.
w itness</w>
Tenn essee</w>
R id
ho sts</w>
E X</w>
in hib
gen uine</w>
z io</w>
ed onia</w>
res ume</w>
N eck</w>
Ex hibition</w>
satis factory</w>
Sud an</w>
3 30</w>
one er</w>
Pro file</w>
PO WER</w>
vic tory</w>
new s
Ul tr
H .</w>
7 4.
u ity</w>
h ills</w>
ch o</w>
Ful ly</w>
H ay
scho ol
er ine</w>
ch ic</w>
Y et</w>
3 0.
us able</w>
coun cil</w>
Pro mo
Col ors</w>
re f</w>
at on</w>
ni k</w>
hi ons</w>
flav or</w>
infec tious</w>
Jo b</w>
Dec or</w>
inv itation</w>
inter rup
ingredi ent</w>
Dat ab
whe el
pursu e</w>
p o</w>
exten ding</w>
es pread</w>
au to</w>
Cush ion</w>
bl end</w>
L ex
Key board</w>
hom ogen
hi bit</w>
d ad</w>
LE R</w>
wel comes</w>
U g
Tur n</w>
s ophistic
Mal ay
list ening</w>
G at
em ul
e dit</w>
satis fy</w>
org an</w>
p iv
he ater</w>
terror ist</w>
has n</w>
tu p</w>
at titude</w>
ann y</w>
9 ,
Ad ult</w>
b ones</w>
u h</w>
de pression</w>
Pro jects</w>
ard -
Swe et</w>
G .</w>
Cl er
b its</w>
S election</w>
19 80</w>
en abled</w>
2 1.
Pen sion</w>
Gr ade</w>
publ ish</w>
sul es</w>
b anner</w>
distingu ished</w>
b icycle</w>
T ak
en co
com man
an ium</w>
un ci
l or</w>
restric ted</w>
as ide</w>
L ot
D ays</w>
B icycle</w>
ad el
b d
Mon te
bo ost</w>
Si erra</w>
H ub
sk a</w>
occup ied</w>
me tric</w>
inten sive</w>
he rein
vari ation</w>
Fur n
log ic</w>
Rec ord</w>
Cal ais</w>
compar able</w>
architec tural</w>
M ask</w>
S AL
min t</w>
it ches</w>
carri ers</w>
ab ras
ref used</w>
impl ications</w>
contin ent</w>
sal ary</w>
correc tion</w>
hun ting</w>
brea ks</w>
Gar age</w>
f ail</w>
cy cling</w>
ou l</w>
6 6.
no zzle</w>
auth entic</w>
C lock</w>
am ar
B L</w>
Rou tes</w>
PP T</w>
De b
per mits</w>
ch ose</w>
I K
2 6.
f eld</w>
cou pling</w>
Princ ess</w>
tal ent</w>
pli es</w>
ge m</w>
et .com</w>
dos age</w>
Cand y</w>
ris ing</w>
exha ust</w>
andel ier</w>
Mo de</w>
privil eg
competi tiveness</w>
il ia</w>
W TO</w>
decre ased</w>
O me
ach t</w>
SER V
M ik
25 5.
li me</w>
cl er
c ill
Ph u
C ute</w>
Eth iop
Mil k</w>
H ello</w>
st at</w>
lin k
P et</w>
mix er</w>
CR A</w>
re ver
ard ous</w>
St ay</w>
Mo ham
C ES
w ick</w>
stu ff</w>
inter s</w>
f ever</w>
Us age</w>
1 11</w>
econom ical</w>
cul tures</w>
Ge ar</w>
P D</w>
prece ding</w>
accommod ations</w>
Sh ore</w>
special ty</w>
F alls</w>
em ission</w>
c ure</w>
Chris ti
impres sion</w>
announ cement</w>
ta -
ev o</w>
colum ns</w>
b les</w>
au d</w>
person ality</w>
ili ation</w>
port al</w>
offici ally</w>
me tr
id o</w>
Pat rick</w>
im s</w>
b li
Sof a</w>
. nl</w>
yester day</w>
tro ops</w>
celebr ation</w>
Cre ek</w>
de ar</w>
TR AN
T L
Sk y
sh oot</w>
kid ney</w>
mur der</w>
L yn
consist ently</w>
ch ains</w>
to ol
revol ution</w>
Qu estions</w>
Pak istan</w>
Me aning</w>
Angel es</w>
AS S</w>
newsp aper</w>
Lith u
m ass
O therwise</w>
x er</w>
Spr ings</w>
C IT
v .</w>
R ay</w>
D ak
row ing</w>
ob li
o to</w>
cor ruption</w>
ble eding</w>
a ic</w>
br ac
blogspot .com</w>
H C</w>
rele ases</w>
occ er</w>
Miss ouri</w>
ö r
l uck</w>
i us</w>
f ed</w>
essi bility</w>
al ine</w>
V ista</w>
12 3
ill umin
c estershire</w>
gn e</w>
ath ers</w>
T ext</w>
rup t
happ ening</w>
gri p</w>
arti er</w>
Aut o
in ju
comb ining</w>
Mex ican</w>
Chev ro
om ing</w>
evalu ated</w>
IS A</w>
Alp es-
la h</w>
en z
M i</w>
En h
Down town</w>
direc tive</w>
constitu ted</w>
ra d</w>
pack ages</w>
A Z
os ity</w>
W S</w>
Vol ume</w>
Bat tle</w>
k el</w>
bro th</w>
3. 2</w>
í n</w>
tran qu
Sal v
min isters</w>
ic ing</w>
f loo
an es
8 4
Val ue</w>
R ural</w>
presti gious</w>
Mary land</w>
stud ying</w>
imm unity</w>
n ity</w>
Wor ld
im per
evalu ations</w>
ass is</w>
Ama zon</w>
AT A</w>
dep loyment</w>
En tr
any more</w>
Up on</w>
ge on</w>
In -
re st
our t</w>
oles al
health care</w>
commun ic
Comm erce</w>
ver ification</w>
ag e-
solid arity</w>
practition ers</w>
Pil ot</w>
encour aging</w>
demon str
Ver y
L uggage</w>
J .
C ay
ran ges</w>
B olog
18 th</w>
g m
case- back-
case-back- crystal</w>
assu me</w>
High way</w>
Back pack</w>
s can</w>
p ation</w>
as ser
Steph en</w>
Gab ri
Aut umn</w>
ti red</w>
J enn
Grow th</w>
k u</w>
Pi x
pal m</w>
appreci ated</w>
3 7.
C av
mon etary</w>
ma them
head quarters</w>
V AT</w>
dr ug
art a</w>
purch asing</w>
pl ain
cell ul
A mp
transm itter</w>
den ly</w>
won der</w>
t ack
mo m</w>
V IL
wid espread</w>
ket ball</w>
ch y</w>
Sex y</w>
Intel lig
non- woven</w>
D EL
ff ing</w>
ex changes</w>
youn ger</w>
og en</w>
neigh b
ic ular</w>
for cing</w>
flow ering</w>
M ouse</w>
H ang
wit nesses</w>
on- demand</w>
Gu ard</w>
urg ently</w>
cy cl
Brow se</w>
è ge</w>
m ust
ath ering</w>
M T</w>
v oting</w>
Cru z</w>
periph eral</w>
St age</w>
P ocket</w>
volunte ers</w>
d l
Car olina</w>
wat ering</w>
T EN
Be ing</w>
sa uc
re habilitation</w>
e h
n ie</w>
chang er</w>
brea king</w>
ra ine</w>
lo ween</w>
c um
Austr al
Sub -
hon our</w>
vacc ine</w>
u sion</w>
s .info</w>
Leban on</w>
pro sper
big ger</w>
al ive</w>
Manufac turing</w>
li ked</w>
di versi
un install</w>
stor ing</w>
k W</w>
c uc
ar tic
Foot wear</w>
Ath ens</w>
m aps</w>
Pro per</w>
Fl oral</w>
k u
gir l
In tel</w>
b acks</w>
Res p
Enter prise</w>
Bron ze</w>
B ank
inter -
An der
ed itor</w>
cent uries</w>
K W</w>
treat y</w>
de m</w>
Sti ll</w>
E dge</w>
ro pe</w>
cau ght</w>
pre determined</w>
ensu s</w>
Ta xi</w>
muse ums</w>
A lex</w>
0 3
Tan z
as ka</w>
Chevro let</w>
W om
Pu zzle</w>
shor ter</w>
renew ed</w>
To kyo</w>
Fr uit</w>
appe ti
Yor kshire</w>
Mich igan</w>
th an
Pack age</w>
Au g</w>
re now
il ings</w>
lim iting</w>
her self</w>
C ooking</w>
def end</w>
Proc urement</w>
wa ist</w>
igh ted</w>
M L
ent ures</w>
reli eve</w>
elec toral</w>
T EC
vari ants</w>
comple ment</w>
il ization</w>
preser ved</w>
IC A</w>
op posed</w>
j ump</w>
al t</w>
w ound</w>
inspir ation</w>
ear rings</w>
Off er</w>
v ag
pol is</w>
off -
14 5</w>
tu b
per forman
ch ips</w>
br ation</w>
for th</w>
ell i</w>
det ached</w>
del eted</w>
chec k
B ig
legiti mate</w>
Gran de</w>
u it
proce eding</w>
con ferences</w>
L ip
sh r
Cel ebr
us al
travel ers</w>
announ ce</w>
ad or
accord ingly</w>
Sp ac
slo pes</w>
Adver tising</w>
su le</w>
hy brid</w>
acti vate</w>
S ound
path ology</w>
R T
h yp
dead line</w>
An sw
municip alities</w>
Vir gin</w>
Emir ates</w>
dem a</w>
str aps</w>
Mechan ical</w>
is .com</w>
Labor atory</w>
Al ic
S ign
en ame</w>
dig estive</w>
cou ples</w>
1. 9</w>
sho oting</w>
Mr s.</w>
sp ine</w>
n s
be auti
ing o</w>
vo id</w>
ben ch</w>
g ross</w>
fl ora</w>
ch air
breath ing</w>
appa rent</w>
Ro ch
O T</w>
Mar ble</w>
Ad am</w>
5 4.
c ion</w>
Circ uits</w>
S ac
R un
B EL
pen sions</w>
P ou
A ULT</w>
advis able</w>
Qu estion</w>
H as</w>
Ess ential</w>
C ER
An th
hol m</w>
al ert</w>
D é
t anks</w>
f ec
O ne-
dos es</w>
ar rest</w>
mo del
c eption</w>
F E</w>
be ef</w>
coordin ated</w>
ph er
N ou
under lying</w>
sw itching</w>
ga thered</w>
phot o
inter views</w>
g ather</w>
Y u
v ap
ac oustic</w>
sp lit</w>
sel ler</w>
ac a</w>
p encil</w>
o z
K B</w>
F av
distinc t</w>
consequ ence</w>
b ble</w>
ash ing</w>
V oga</w>
Te ach
Or ders</w>
def ects</w>
four -
E leg
A ur
Ath le
8 -0
attrac tion</w>
IC S</w>
G os
198 2</w>
wa ke</w>
rul ing</w>
Very Voga</w>
af r
th ic</w>
fir st-
Reg ular</w>
O -
y ours</w>
gr ound
constitu tes</w>
G on
li ter</w>
occur rence</w>
in sufficient</w>
al location</w>
X S</w>
f ting</w>
13 5</w>
re fresh
con sec
er b
ar do</w>
Bu ff
se ven
investig ations</w>
IN T</w>
Fu j
y c
st ain</w>
rupt cy</w>
p oured</w>
nec klace</w>
en ic</w>
en vis
amp ton</w>
R U
short- term</w>
deep ly</w>
am -
wi res</w>
circ uits</w>
E B
Bah n</w>
Ag enda</w>
prop ylene</w>
comple mentary</w>
V A
effici ently</w>
d s
Comm ons</w>
wa x</w>
pro pri
fore ver</w>
ri des</w>
Detail ed</w>
us .com</w>
re tro
aw n</w>
sh ield</w>
ov ascular</w>
gen e</w>
Anti que</w>
l enses</w>
G el</w>
Al uminium</w>
je ans</w>
hour ly</w>
bi om
Minim um</w>
M s</w>
K as
Mit sub
I X</w>
H it
CO 2</w>
dep loy
Tog ether</w>
S qu
Dis c</w>
.co. il</w>
g og
V P
iz z
ge ometric</w>
S L</w>
9 9.
me l</w>
FOR D</w>
consen sus</w>
to s</w>
fil ename</w>
em an</w>
bab ies</w>
cur y</w>
v ig
con ut</w>
Prec ision</w>
N on
G T</w>
Op tim
N ear
Mo tion</w>
experim ent</w>
ad ows</w>
Hos tel</w>
appo intments</w>
Eliz abeth</w>
B LE</w>
k t
0 2
N ever</w>
Broad casting</w>
f arming</w>
b ai
Fac ulty</w>
CI HR</w>
z inc</w>
sm oo
Val ve</w>
S ession</w>
y og
stra w
H em
res ili
jo in
Merced es-
C o</w>
Bud apest</w>
def ense</w>
bon us</w>
List ings</w>
Ed itor</w>
m igrants</w>
ess ence</w>
dis order</w>
C ards</w>
fed er
NAT O</w>
under take</w>
f itting</w>
re z</w>
comp ete</w>
at ured</w>
termin als</w>
ter n</w>
emo tions</w>
co a</w>
Ter m</w>
Fri ed
Car tridge</w>
ul le</w>
Me an
Phu ket</w>
mil d</w>
S K</w>
Gu inea</w>
A 4</w>
3 9.
ic ons</w>
f li
busin ess
N avig
ro bo
bloc king</w>
K il
Au thor
12 2</w>
vis a</w>
tru sion</w>
survi ve</w>
f et
We gow</w>
D ell</w>
Sp irit</w>
ep ide
y o</w>
r us</w>
Tw itter</w>
K ol
Oper ation</w>
ce ilings</w>
Jer usal
g li
clos et</w>
Op el</w>
Bolog na</w>
2 2.
transi t</w>
PO L
stimul ate</w>
gear box</w>
ang .com</w>
EU -
off set</w>
ben e
ai red</w>
leg ally</w>
ñ a</w>
vibr ation</w>
ister ial</w>
t ative</w>
p av
ex tr
- 8
ver t</w>
sur fing</w>
fe aturing</w>
In side</w>
AC T</w>
depos ited</w>
R umbo</w>
B ag
re conc
gent le</w>
reg istering</w>
pack ed</w>
Mitsub ishi</w>
B and
Al ways</w>
wil dlife</w>
tis m</w>
t ality</w>
Cal endar</w>
. cn</w>
di esel</w>
M Hz</w>
Pos ition</w>
trans form</w>
in cur
prop ag
g aps</w>
T Y</w>
1 15
E arly</w>
Co ach</w>
C EN
t us</w>
per sist
inju red</w>
house holds</w>
Play a</w>
Dis pos
H ours</w>
ak ia</w>
Cosme tic</w>
C V
L ub
second -
pro be</w>
inv as
hol low</w>
R ig
Inspec tion</w>
1- 1</w>
w rap</w>
deman ding</w>
cra zy</w>
Jerusal em</w>
yor k</w>
the atre</w>
recomm ends</w>
par tly</w>
extrac tion</w>
T RE
B AR
poly mer
d ental</w>
as ound</w>
I biz
press ors</w>
enh agen</w>
constra ints</w>
2 30
serv ative</w>
ent ally</w>
argu ed</w>
S anti
Montpel lier</w>
D ental</w>
al ig
UN IC
L ift</w>
Uni vers
L as
poli tics</w>
20 5</w>
j am</w>
Regi ons</w>
st ays</w>
conf ident</w>
adi tions</w>
promis ing</w>
cas ual</w>
Plat form</w>
fil tered</w>
Compon ents</w>
ure thane</w>
tom ato</w>
p umps</w>
li fied</w>
accur ately</w>
phys ician</w>
lic ensee</w>
dis comfort</w>
N om
explan ation</w>
consum ed</w>
y- to-
tic a</w>
ri k</w>
acknow led
BO X</w>
m L</w>
author ization</w>
i ents</w>
or th
G au
5. 5</w>
go verning</w>
Sto res</w>
4 G</w>
su rely</w>
invi tes</w>
An alyst</w>
Vol vo</w>
Mon aco</w>
see ks</w>
conduc tive</w>
arm chair</w>
W rit
Near by</w>
M R</w>
thir d-
ome try</w>
elim ination</w>
10- minute</w>
tempor arily</w>
lo on</w>
f ai
Uni que</w>
SV G</w>
vin ey
K A</w>
y an</w>
p ho
P en</w>
pri me</w>
happ iness</w>
ang el
R C
al isation</w>
Off ering</w>
In come</w>
7 3
cred its</w>
Dub lin</w>
woo d
telec ommunications</w>
campa igns</w>
R w
G AR
ER ING</w>
inter ven
Z oo</w>
V EN
Every one</w>
Condi tions</w>
rel ate</w>
Oc t</w>
ol ec
str ange</w>
P LA
concentr ations</w>
micro -
ep er</w>
es ome</w>
t an</w>
ro bes</w>
n our
grin ding</w>
Op port
pool ing</w>
p ag
in fr
dr ill</w>
cur ve</w>
bu yer</w>
su r</w>
pot assium</w>
fi bre</w>
Gener ally</w>
p ins</w>
fl ats</w>
P our</w>
L .
in age</w>
9 6.
re actor</w>
oo s</w>
har ass
e b
W ide</w>
N A
in fo
bu l</w>
a g</w>
Ap ps</w>
scre ens</w>
re jected</w>
Re tail</w>
voc ational</w>
asp ir
Over view</w>
M F
H az
sand y</w>
mem ories</w>
R and
Ac tu
sol ely</w>
reve al</w>
alleg ed</w>
recip ient</w>
St yl
Con tain
Champ agne</w>
tail s</w>
pl ant
Ibiz a</w>
IL O</w>
pro spec
old est</w>
gre w</w>
11 1.
adap tation</w>
Simil arly</w>
sign ing</w>
d ney</w>
achiev ement</w>
E t
CB SA</w>
é l
ed o</w>
cab bage</w>
ang o</w>
L um
motor cycle</w>
m es
fragr ance</w>
He ight</w>
24- hour</w>
uk i</w>
reservo ir</w>
C ris
sel ecting</w>
renow ned</w>
g astro
analy ze</w>
Mi ke</w>
Jour nal</w>
H at</w>
Die go</w>
od a</w>
Chr is</w>
resp ected</w>
Leg is
Out side</w>
lob by</w>
an xi
practic ally</w>
Col or
201 7-
id -
favour ite</w>
draw ers</w>
H us
z en
bo y
W arm</w>
oc e
extrac ted</w>
M D</w>
p it</w>
S ah
Ex tract</w>
Chan nel</w>
withdraw al</w>
off ence</w>
antibio tics</w>
S ax
1 .com</w>
or ca</w>
coun sell
Sub scri
organiz ational</w>
if ax</w>
ic -
R ail</w>
ut or</w>
cli p</w>
Polar ized</w>
Ad hesive</w>
m asks</w>
Pr acti
ati tude</w>
ar row</w>
Com par
200 0
entrepreneur s</w>
ro ad
yeth ylene</w>
ang ular</w>
seem ed</w>
Imple mentation</w>
- N
he ights</w>
e vil</w>
pe d
not ing</w>
P ay</w>
Foot note</w>
0, 0</w>
Le ague</w>
198 3</w>
aes thetic</w>
Jo e</w>
at ri
L akes</w>
filtr ation</w>
fail s</w>
amp lifier</w>
North west</w>
AC COUN
10 7.
l en</w>
arri ving</w>
te as
no tified</w>
fac ial</w>
cur r
Ag encies</w>
ton gue</w>
or ph
Sho e</w>
Lea ve</w>
Flex ible</w>
M assage</w>
An ti</w>
20 1</w>
tum or</w>
syste m
Metal lic</w>
A 1</w>
meth yl
P op</w>
pre ference</w>
method ology</w>
P air</w>
M all
pat ch</w>
og s</w>
acqu ain
Com pressors</w>
rib bon</w>
lo ver</w>
P et
Sloven ia</w>
g ained</w>
no des</w>
L anc
, 98</w>
YO U</w>
Lef t</w>
K Y
5 50</w>
t v
s ocks</w>
o dic
m itting</w>
S op
Mercedes- Benz</w>
Champion ships</w>
for get
de mo
d op
con junction</w>
path s</w>
lub ric
Pay ment</w>
dur ability</w>
l ux</w>
ri ed</w>
ob viously</w>
fi b
L iter
t ooth
ate way</w>
Ru n</w>
t ment</w>
Mark eting</w>
Z h
prof itable</w>
fe wer</w>
des c
Bal cony</w>
viol ent</w>
el em
E scape</w>
v i</w>
de aths</w>
V ote</w>
promo tional</w>
m p</w>
Pat ent</w>
Wil liam
Th emes</w>
vir uses</w>
po is
f ence</w>
am er</w>
Cur rency</w>
ate -
analys es</w>
fe as
Benef its</w>
Austral ian</w>
REN AULT</w>
R ho
198 1</w>
renti al</w>
Met ro
E I
imm igrants</w>
P NG</w>
Histor ic</w>
sh ed</w>
b ond</w>
Com pos
f ats</w>
D i</w>
CA D</w>
fle et</w>
alu n</w>
del ighted</w>
N .
O ak
ann i</w>
lad ies</w>
F arm
Bes ides</w>
Bad en-
oc ul
Fer n
no de</w>
H A
s lot</w>
ill es</w>
Power Point</w>
In ser
H ob
inv ested</w>
g ay</w>
e o</w>
coun sel
co ver
Wil d</w>
E CO
ic ure</w>
engra ving</w>
ST ER</w>
SA N</w>
Sh or
O S
prolong ed</w>
favor able</w>
har mony</w>
Goo ds</w>
ad mission</w>
W ay
V R</w>
Fren ch-
An k
recy cling</w>
bo iler</w>
anti- inflammatory</w>
H aw
60 s</w>
s our</w>
co- operation</w>
Glas gow</w>
ut ory</w>
omet res</w>
classi fi
In struction</w>
or us</w>
lim itations</w>
appl es</w>
Musli m</w>
Cop y</w>
virtu ally</w>
an o
T ig
magn esium</w>
haus en</w>
gener ous</w>
R av
Lin en</w>
ti tu
assi stant</w>
Sh en
M es
F L</w>
AN NU
sal ts</w>
char ts</w>
bre ath</w>
T N
Enter tainment</w>
cour tyard</w>
Pre ferably</w>
Distribu tion</w>
Arab ia</w>
Achiev ements</w>
ven s</w>
Tour ist</w>
the ater</w>
Qu i
. be</w>
we l</w>
Cath erine</w>
ro tor</w>
in no
Hal ifax</w>
Po st
Mon ey</w>
Vinc ent</w>
L ucky</w>
Mal ta</w>
Chair s</w>
2 16.
g ood
YO UR</w>
Protec tive</w>
Intro duction</w>
the ore
st ocks</w>
cle ar
MA X</w>
te ful</w>
AN G
ev apor
er s.com</w>
dis rup
T ap
Re ading</w>
u el</w>
hon est</w>
co t</w>
be ams</w>
S z
Re ply</w>
Pre pare</w>
N ucle
Meth od</w>
No v</w>
ID E</w>
Y el
F alun</w>
Al bu
ush i</w>
elim inated</w>
abo ve-
LE N
Ch ron
st ayed</w>
pli ed</w>
ter -
person alized</w>
at ar</w>
vers atile</w>
trail er</w>
P apers</w>
Micro wave</w>
s oo
mon t
em ade</w>
T B</w>
Re qui
ELE CT
fav or</w>
ab a</w>
S pot</w>
distribu te</w>
deal t</w>
P it
al ition</w>
or m
Some one</w>
Dis ney</w>
D anish</w>
bath ing</w>
tal ked</w>
V ice</w>
Ther ap
Lap top</w>
ste n</w>
ty res</w>
techn icians</w>
des ktop</w>
Bl ade</w>
p ads</w>
lo ves</w>
i est</w>
deli vering</w>
al o</w>
De gree</w>
tion s.com</w>
Over all</w>
us al</w>
kn it</w>
B right</w>
seg ments</w>
B ird</w>
collabor ative</w>
ANNU AL</w>
Datab ase</w>
200 4-
str o</w>
seed lings</w>
coll ap
sal mon</w>
and in
9 25</w>
ner ve</w>
inter ference</w>
Tr ump</w>
struc turing</w>
tw el
tax ation</w>
spr ings</w>
hu b</w>
horm one</w>
dep ic
Multi ple</w>
g ast
de t</w>
bed ded</w>
John son</w>
Seas on</w>
S id
Cosme tics</w>
i en</w>
Pre pared</w>
minim ize</w>
Wh ite
Un til</w>
Territ ories</w>
G M</w>
fa x</w>
engine ers</w>
ati al</w>
O ak</w>
AC K
it ability</w>
f oster</w>
uni verse</w>
Eng agement</w>
ic e-
c z
Li fe
Goo d
Cap tain</w>
5 000</w>
ital y</w>
ic acy</w>
dis aster</w>
AR T
car rots</w>
W ard
5- minute</w>
f all
Resist ant</w>
Re p
dis appear</w>
acceler ate</w>
Ar men
1000 -
sugg estion</w>
sophistic ated</w>
Wall papers</w>
G el
ris on</w>
challeng ing</w>
Ir ish</w>
ecosy stem</w>
fav orites</w>
Ele ments</w>
Re tro</w>
Mar itime</w>
DI Y</w>
ach i</w>
Eff ects</w>
spea ks</w>
ick ness</w>
gen ic</w>
n iv
l um
kil ometres</w>
avi er</w>
cer y</w>
insul ating</w>
ch a
carri es</w>
back pack</w>
pronoun ced</w>
c ad
tut or
bro thers</w>
teas po
icop ter</w>
shop .com</w>
nur sing</w>
Str ong</w>
rand om
Lo dge</w>
LI GHT</w>
flo oring</w>
e ur</w>
Den is</w>
mac ro
hop es</w>
Cas ino</w>
shoo ts</w>
expl oration</w>
W ash</w>
Jack son</w>
spo on</w>
16 5</w>
No tes</w>
tic ity</w>
ide ally</w>
T Y
Se bas
Syn thetic</w>
ph y</w>
as yl
AS S
ear ns</w>
shoul ders</w>
3 1.
to oth</w>
F ax</w>
B om
tr aditions</w>
poli tic
Tur bo</w>
S pl
S ed
Franc is</w>
ill o</w>
vi er</w>
am mon
Qu ick
D W
12 5
h ell</w>
get ary</w>
sc r
dir ty</w>
Fe aturing</w>
hel met</w>
mon es</w>
inter im</w>
Li b
gi ant</w>
fo res
B lood</w>
t lement</w>
jud ges</w>
Mi ami</w>
Domin ican</w>
Citiz enship</w>
3 80</w>
st ation
Pal m</w>
Loc ate</w>
stair case</w>
bri a</w>
Infl atable</w>
. gc.ca</w>
t le
ent y-
V AL
Ce iling</w>
person ally</w>
ad der</w>
J im
B RA
u i</w>
rot ating</w>
pronoun ce</w>
cru ise</w>
present ations</w>
jer sey</w>
it ory</w>
com b</w>
cher ry</w>
Ch el
bro ch
i OS</w>
Vill as</w>
Cub a</w>
poly mers</w>
forget table</w>
S cr
I MP
tw enty</w>
sud denly</w>
monit ored</w>
g oo
chol ester
Z o
he m</w>
bi odiversity</w>
I d
grou p.com</w>
B y
192. 64.
tor que</w>
s ocket</w>
oc h</w>
gre di
as a</w>
I cel
De par
s que
eleg ance</w>
tion .com</w>
Sp ir
un employed</w>
be gun</w>
Gr and
em or
car pet</w>
ro tary</w>
accep tance</w>
Gu itar</w>
2 15</w>
P ir
In gredi
3 5.
1 16</w>
sul ph
Île- de-
tr ails</w>
mic ros
sk ill</w>
B D
fin ishes</w>
Make up</w>
10 ,000</w>
succe ed</w>
d airy</w>
Princ ip
Ch art</w>
trans formed</w>
avi an</w>
X L
Cop enhagen</w>
autom ated</w>
iz on</w>
ligh ter</w>
bri ghtness</w>
am in
Hen ri</w>
70 s</w>
Mar g
br u
I gn
so da</w>
ot t</w>
T ape</w>
Inclu des</w>
symb ols</w>
ri fu
dr illing</w>
sl ices</w>
mod ular</w>
w n</w>
W ifi</w>
Rec y
3 60
le um</w>
g s
C isco</w>
Cath olic</w>
s ement</w>
av er</w>
Lis ten</w>
t z</w>
out doors</w>
SY ST
Mean while</w>
K ay
I stan
sever ity</w>
rig ation</w>
organ ism</w>
k k
Forec ast</w>
3 50
fo x</w>
Ab stract</w>
Temp le</w>
Rom a</w>
l uggage</w>
Al -
Ex clu
me tro</w>
intern ship</w>
cur ved</w>
ambi ent</w>
al ph
olar ships</w>
compris ed</w>
Re fl
Indi ana</w>
F air</w>
so vere
MAN U
217. 160.
ko k</w>
E ric</w>
recogn izes</w>
en rich
Rec e
Chec k
sum mit</w>
ti ed</w>
her o</w>
Andre w</w>
correspon d
S atin</w>
soci o-
co gn
Por sche</w>
Nan tes</w>
12 1</w>
stre am
gro ove</w>
argu ment</w>
Regi stration</w>
24 0
Ra f</w>
su ites</w>
si de
Bou tique</w>
d ness</w>
law n</w>
car go</w>
O ven</w>
viol et</w>
op pon
land kreis</w>
b ap
list ings</w>
li th
dec ent</w>
Br ad
pen alty</w>
intest ine</w>
Spec ification</w>
2 60</w>
r ue</w>
Relig ion</w>
ut en
he el</w>
Sen egal</w>
ACCOUN TS</w>
grow s</w>
SI ON</w>
B ik
D rug</w>
defin ing</w>
C Y
10 3.
dis placed</w>
Col orful</w>
An to
an ne
T us
Gl ou
prev entive</w>
fra ud</w>
discre tion</w>
- 1</w>
w ill
v om
m am
compress or</w>
U se
Tur quoise</w>
Le ader</w>
B T
partic le</w>
jec tive</w>
bro ader</w>
D .
Assi stance</w>
prof essor</w>
at s
In dependent</w>
neighbour hood</w>
la b</w>
attemp ts</w>
Wis cons
trig ger</w>
Santi ago</w>
ver ified</w>
di gn
12 8</w>
subscri ption</w>
complain ant</w>
ton nes</w>
relev ance</w>
qual ifications</w>
pow er
modi fication</w>
ar ities</w>
Lo ans</w>
ul s
ar k
n ylon</w>
landscap es</w>
est e</w>
depos its</w>
assess ing</w>
ub a</w>
some where</w>
Istan bul</w>
House hold</w>
10 7</w>
w ages</w>
occup ation</w>
e .org</w>
dec o</w>
Reg istered</w>
re fund</w>
inst ant</w>
anti oxid
U L</w>
trac es</w>
Cou p
C N</w>
var nish</w>
u ela</w>
promis es</w>
foun der</w>
jus tified</w>
assum ed</w>
Wol f
n ess
join tly</w>
insul a</w>
FI A</w>
h r</w>
FA O</w>
ri m</w>
it ative</w>
di ving</w>
depend ence</w>
Al ban
l ingu
d- case</w>
Tim es</w>
od y
contam ination</w>
ch ina</w>
D ir
unci ation</w>
el ly</w>
ch rist
ab stract</w>
M IL
sp ouse</w>
gluc ose</w>
constitu tional</w>
Res ource</w>
Che ese</w>
cardi ovascular</w>
M aker</w>
C ob
ump kin</w>
a que</w>
N ATI
di arr
Stri p</w>
Hy giene</w>
p per</w>
S CH
Mu z
F .</w>
. biz</w>
ous es</w>
ap er
occas ions</w>
AS T</w>
Pro pos
7 2
in ars</w>
exp ir
K m</w>
Hal loween</w>
ren al</w>
Pres entation</w>
ar ising</w>
AB LE</w>
work force</w>
preser vation</w>
agg ressive</w>
activ ation</w>
Clean er</w>
sam pling</w>
g ains</w>
Histor ical</w>
G un
C amp</w>
un forgettable</w>
ti al</w>
human ity</w>
fl ame</w>
d j
D ic
w et
pil low</w>
C air
Sp lit</w>
tra its</w>
h oods</w>
Ster ling</w>
or r
. it</w>
consider ations</w>
G Y</w>
des ert</w>
cann abis</w>
ati es</w>
inst antly</w>
in let</w>
20 4</w>
bl ind</w>
In fin
deli vers</w>
N Y</w>
umb rella</w>
ran es</w>
Anim als</w>
Wiscons in</w>
Long -
dec ides</w>
Whe els</w>
muc ous</w>
j ack</w>
D ING</w>
in heritance</w>
as p</w>
clar ify</w>
Wil dlife</w>
L unch</w>
et tes</w>
ate au</w>
Pri mary</w>
over s</w>
N ep
D res
t- shirt</w>
performan ces</w>
We ar</w>
Moun ted</w>
Iv ory</w>
Cool ing</w>
Ch ocolate</w>
enjo ys</w>
citiz enship</w>
chem istry</w>
GIF TS</w>
Al i</w>
Bel ar
past a</w>
mon o
intellig ent</w>
Wal king</w>
Eleg ant</w>
resol ved</w>
man s</w>
W aste</w>
An dal
www. nan
g em
bar a</w>
atten ding</w>
ai res</w>
Tra iler</w>
L ess
cl icks</w>
por celain</w>
ot .com</w>
Prov ide</w>
Ne ed
B ac
as ted</w>
i th
Tr ue</w>
Stre tta</w>
R T</w>
F oun
s an</w>
m ati
gu ards</w>
L ew
i ter</w>
192.64. 119.
decreas es</w>
cat ering</w>
toler ance</w>
p ou
dis solved</w>
de formation</w>
clim bing</w>
Ste ve</w>
G A
renov ation</w>
mist ake</w>
f ood
Orig in</w>
resc ue</w>
Johann es</w>
n est</w>
j n
Con crete</w>
sk irts</w>
re tention</w>
os si
envelop e</w>
id er
g ar</w>
con sole</w>
Pri ze</w>
en gl
AC H
no te
en orm
K no
E ug
Can cer</w>
prob ability</w>
an tim
st al
lin ess</w>
ang les</w>
Ha iti
C RE
sh ampoo</w>
os sy</w>
is y</w>
consider ably</w>
ber land</w>
thy ro
question n
Tr ack</w>
Mon t</w>
Maxim um</w>
Dev on</w>
1. 5
gl ing</w>
Sy mp
R im
P izza</w>
H F</w>
D a</w>
conclu de</w>
b org</w>
Regul atory</w>
Bi ble</w>
a 10.
N ick
sk aya</w>
signific ance</w>
diagnos ed</w>
optim um</w>
ch ur
at ric</w>
D j
C B</w>
re mind</w>
po p</w>
Bang kok</w>
civ ilian</w>
S ri</w>
Pres cription</w>
3- 4</w>
www.nan a10.
www.nana10. Play
www.nana10.Play DG
www.nana10.PlayDG ame
www.nana10.PlayDGame .co.il</w>
sc an
s ville</w>
l uc
arth ritis</w>
4 5.
p t
L ille</w>
Fri ends</w>
our ing</w>
in eau</w>
M om
13 2</w>
st ats</w>
kne e</w>
imag ination</w>
i y
Ome ga</w>
Mach inery</w>
ter dam</w>
mar itime</w>
fed eration</w>
at .com</w>
re placing</w>
radi us</w>
l ley</w>
T R</w>
Arc ade</w>
analo g</w>
res on
Vin yl</w>
diagnos tic</w>
ac ne</w>
Buil t</w>
c ents</w>
Rec o
trans mit</w>
scen ario</w>
Sh ow
dat as</w>
t owns</w>
li br
Mal i</w>
C ook</w>
valu ed</w>
mal function</w>
A do
stir ring</w>
ph on
exce eds</w>
e ge</w>
SQ L</w>
CAN ADA</w>
m ire</w>
hab its</w>
c ies</w>
advis ory</w>
POR T</w>
Grou ps</w>
D ER
L un
Bo b</w>
environ mentally</w>
B order</w>
3 d</w>
1. 0
haz ardous</w>
Sli m</w>
Sem i-
Is ab
ide red</w>
br and
De pos
mean ing
iv a</w>
ign on</w>
ge ous</w>
R oo
N -</w>
Hol land</w>
projec tor</w>
ju ven
enn ium</w>
ass urance</w>
Fun c
molec ules</w>
ec o</w>
deli ber
b end</w>
P ays</w>
Con c
p acks</w>
SM S</w>
. in</w>
w o
ul timately</w>
distingu ish</w>
Respon se</w>
Arth ur</w>
12 4</w>
reg arded</w>
fri ed</w>
car pooling</w>
all y-
40 mm</w>
w is
insec ts</w>
Nucle ar</w>
kid neys</w>
connec tors</w>
Rot terdam</w>
P O</w>
ear nings</w>
anxi ety</w>
sw ing</w>
rop shire</w>
ke -
form ations</w>
ink les</w>
mor tality</w>
micro phone</w>
co s</w>
Sh ropshire</w>
sanc tions</w>
proof ing</w>
autom ation</w>
Tay lor</w>
Cli ent</w>
domin ant</w>
Y ar
Spec ific</w>
deploy ed</w>
G ou
C ord
10 ,
w oods</w>
pri ze</w>
min ent</w>
forec asts</w>
et ta</w>
M K
3 10</w>
Vice- President</w>
high way</w>
a str
D IN</w>
10 9</w>
pres su
ach able</w>
w ipe</w>
b id</w>
Hal f</w>
G ST</w>
sail ing</w>
defin es</w>
aph s</w>
ac company</w>
V IP</w>
assu red</w>
But ton</w>
p endant</w>
P od</w>
Eff ective</w>
Stra ight</w>
S HI
de vi
X T</w>
1 14
autom otive</w>
J ones</w>
Be ar</w>
un t</w>
to doc
st ad</w>
shel ter</w>
l oud</w>
bus h</w>
L oo
L ine
Health y</w>
sk y
po ts</w>
ma d</w>
experim ental</w>
er son</w>
tri m
surpris ing</w>
ship ment</w>
encoun ter</w>
Veget able</w>
p c
Malay sia</w>
s ound
em en</w>
d an
H .
EN Z</w>
C ause</w>
iri e</w>
h ate</w>
T ile</w>
B V</w>
re production</w>
ip ped</w>
for gotten</w>
Proced ure</w>
todoc olec
re marks</w>
it -
dam ages</w>
todocolec cion</w>
P in</w>
Industri es</w>
AP I</w>
om er</w>
el .com</w>
ash ed</w>
W .</w>
Appli ances</w>
è ne</w>
flo ating</w>
Ed it
th ful</w>
ne vertheless</w>
infra red</w>
FI D</w>
2019-05- 14</w>
cri min
Air lines</w>
201 6-
exc ited</w>
terri ble</w>
secur ities</w>
17 5</w>
reser vations</w>
recycl ed</w>
F P
Ar k
v ice</w>
mag net</w>
h l</w>
O M</w>
NE T</w>
bri ties</w>
m ingham</w>
Protec tor</w>
K .</w>
s our
iz able</w>
ful f
cholester ol</w>
cap ability</w>
E ther
popul arity</w>
g eting</w>
divor ce</w>
1 17</w>
carbon ate</w>
sal on</w>
in vesting</w>
Foc us</w>
dec om
C oo
hydra tes</w>
2018-09- 18</w>
comp ressed</w>
and um</w>
Bern ard</w>
ul tra-
ym nas
s ley</w>
ov ed</w>
off enders</w>
197 9</w>
roy al</w>
Po sters</w>
Dis cus
Sal t</w>
referen ced</w>
Tur in</w>
val ves</w>
in fusion</w>
Inv estig
G ER
Auth or</w>
inc idence</w>
Defin ition</w>
Bit coin</w>
k ind
Ser bia</w>
u tionary</w>
0. 2</w>
tr ucks</w>
stor m</w>
pan demic</w>
OR Y</w>
E sti
d um
yr am
trous ers</w>
algori thm</w>
E .
sem inar</w>
strength ened</w>
Vitam in</w>
install ations</w>
air line</w>
Sy dney</w>
Moun tains</w>
my ster
dis till
al ign
mis s
ad oles
Pol o</w>
19 -
du pl
S ant</w>
M X
addi tives</w>
Al b
sac rif
cell ular</w>
assem ble</w>
tablespo ons</w>
cur tain</w>
b loo
8 3
Em bro
la kes</w>
T UR
Fun ding</w>
aux iliary</w>
ac ul
E aster</w>
ar oma</w>
pos es</w>
Bir mingham</w>
Bet ter</w>
20 2</w>
j p
im aging</w>
con dem
Braz ilian</w>
in puts</w>
downlo aded</w>
200 7-
19 70</w>
S ic
Ep son</w>
Bath rooms</w>
pl aster</w>
dro pped</w>
St ory</w>
z ona</w>
s wee
om er
comb inations</w>
Re ady</w>
Pe ts</w>
vest ock</w>
n av
hor ses</w>
boo t</w>
Sar ah</w>
D ü
tr on</w>
com promise</w>
bro ok</w>
d ine</w>
cab inets</w>
Hamp shire</w>
E ye
perf ume</w>
Non- smoking</w>
k it
be verages</w>
l ag
gr o</w>
enh ancing</w>
th a</w>
t ants</w>
stainless-steel- band</w>
all ine</w>
ps d</w>
hi e</w>
b os
am pl
C ould</w>
s ar
ro g
h n</w>
N OR
Calcul ate</w>
seas ons</w>
Ste reo</w>
R ech
ot ers</w>
j a
discri min
f ted</w>
counsell or</w>
Lor raine</w>
- 1
en te
beauti fully</w>
Vis a</w>
Tanz ania</w>
H ire</w>
B RO
visit or</w>
sco res</w>
Dre am</w>
Ca b</w>
gan g</w>
lacqu ered</w>
con g
bb les</w>
sn ack</w>
in tu
W oven</w>
infl ation</w>
h il
e es</w>
Sh op
K now</w>
Dis closure</w>
threat ened</w>
be y</w>
acc essibility</w>
I Z
pic ked</w>
on er</w>
less on</w>
in gh
c akes</w>
A sp
with in-
ik o</w>
g ad
d v
fr iction</w>
firm ly</w>
e dema</w>
tu ber
lo ire</w>
dr y
Nor d</w>
Fo x</w>
Alic ante</w>
tablespo on</w>
certif icates</w>
L AT
un likely</w>
on o</w>
Veg as</w>
classifi eds</w>
cap sules</w>
C L</w>
si ded</w>
9 3
17 th</w>
adjust ments</w>
- related</w>
t am
Or th
Joseph -
ship s-
ho v
Scre w</w>
Reco very</w>
R O</w>
K ent</w>
tor ture</w>
cr acks</w>
Dr ink</w>
D ES</w>
200 6-
t agged</w>
licens ed</w>
L ounge</w>
5 x
gen ital</w>
Rog er</w>
Cli p</w>
j ury</w>
in timate</w>
Tex tile</w>
Ran king</w>
Dimen sions</w>
Car t</w>
Ag ent</w>
iss ors</w>
et on</w>
an as</w>
Comp et
estiv als</w>
Charac ter
d ual</w>
BL UE</w>
temp le</w>
vi k</w>
parti tion</w>
emerg ence</w>
Wom ens</w>
Cl oth</w>
un c
tri dges</w>
Nicol as</w>
on au
are r</w>
Saint- Jean-
R ice</w>
vis ually</w>
sub missions</w>
di bly</w>
Co ated</w>
within- 24h</w>
v as
ships- within-24h</w>
import antly</w>
de x</w>
compreh en
um .com</w>
S AN
217.160. 0.
hear ts</w>
consec utive</w>
bound aries</w>
Out put</w>
az z
Th or
Ag ain</w>
sun light</w>
herein after</w>
Si x</w>
Merced es</w>
LA S</w>
te o</w>
le ak
Ar ound</w>
A zer
pol ar
g athering</w>
Wil son</w>
Al f
pol itan</w>
h of</w>
bre ast
ans as</w>
Be ds</w>
tex tiles</w>
rec ur
enem ies</w>
Ri b
Kar ls
competi tors</w>
U tility</w>
radi o
expl oring</w>
car olina</w>
an ie</w>
H ome
H ew
spe eds</w>
grad es</w>
fol ded</w>
ar c
accel eration</w>
MO D</w>
B au
in correct</w>
def icit</w>
Wor kers</w>
4. 1</w>
real -time</w>
ran k</w>
j ug
al e
S O</w>
expres sions</w>
exclu ding</w>
Exper ts</w>
Emp ire</w>
4. 2</w>
co stume</w>
ta kings</w>
H ood</w>
ke e</w>
en ium</w>
Har bour</w>
ili ans</w>
f uc
eth ical</w>
vari ables</w>
credi ted</w>
I .
36 5</w>
spo ken</w>
Depar ture</w>
re vi
ind ications</w>
Cont acts</w>
r ag
oxid ation</w>
Us ers</w>
syr up</w>
in direct</w>
enjo y
dar k
Y E
L if
j k</w>
av ut</w>
am less</w>
Whe el
M U
IN A</w>
100 -
rad ical</w>
innov ations</w>
L C</w>
Euro pe
firm ware</w>
J U
Educ ational</w>
4. 0</w>
re pl
c z</w>
furn ace</w>
J im</w>
weap on</w>
Bow ling</w>
tem berg</w>
med al</w>
f lies</w>
expan ding</w>
Fu n</w>
Bal ance</w>
Ag ainst</w>
tr ag
mov able</w>
e ks</w>
1 14</w>
sch emes</w>
pur ity</w>
o ti
st ool</w>
develop ers</w>
ad i</w>
IN ES</w>
stand ardi
hor mones</w>
TE CH
im bur
Pier re-
win ds</w>
rol ls</w>
investig ate</w>
centi meters</w>
A bo
yar n</w>
s ons</w>
re tained</w>
no tify</w>
T .</w>
Pl ug</w>
Gard ens</w>
s r
ap ol
Fre e
Ethiop ia</w>
Ado be</w>
9 2
well .com</w>
resid ue</w>
P ng</w>
bo x
Scho ols</w>
Pharmac eutical</w>
p p</w>
d b
b und
Hol e</w>
Fin ish</w>
lar ge-
bas es</w>
Tr ucks</w>
N umbers</w>
Mag az
per ception</w>
T ops</w>
S am</w>
For mal</w>
ong side</w>
di oxide</w>
comm it</w>
V IS
philosoph y</w>
et ti</w>
K ev
ste red</w>
air ing</w>
V II</w>
Fir m
1. 7</w>
loc ally</w>
W ool</w>
PC B</w>
Ex tension</w>
Amb assador</w>
tr unk</w>
t- up</w>
deriv atives</w>
aug ust</w>
V ig
Lithu ania</w>
ra in
mar ch</w>
emphas ize</w>
Gr ill</w>
rel las</w>
bri gh
D G</w>
with stand</w>
od or
F UR
Can nes</w>
trac tor</w>
ho sting</w>
G SC</w>
E E
la p</w>
B ai
paragr aphs</w>
exclu de</w>
Car di
Ag ri-
tax pay
en de
dra inage</w>
conve yor</w>
clou ds</w>
N ev
t z
Res in</w>
s in</w>
pra yer</w>
influ enced</w>
To ol
D B
ty re</w>
mor tgage</w>
en berg</w>
Le u
D uplex</w>
ren ts</w>
lo ose</w>
au x-
ag le</w>
In jection</w>
tub ular</w>
af a</w>
aband oned</w>
Red mi</w>
Pri or</w>
Mach ines</w>
Inst agram</w>
Cas es</w>
re m
illust rates</w>
fr action</w>
Com for
Sug ar</w>
Slov akia</w>
re tail
harass ment</w>
dis per
conf idential</w>
Ph y
con sci
CN C</w>
g g
ad e
Hy brid</w>
swe et
op e</w>
cy ber
209. 200.
P ast
O val</w>
Cap it
in ev
den ied</w>
electro des</w>
con s</w>
Bo ston</w>
diffe rently</w>
def iciency</w>
coun t
Ex tre
12 ,
u ate</w>
Mac edonia</w>
CA N</w>
Al co
g om
elig ibility</w>
Vis ual</w>
ye ast</w>
co .com</w>
Meas urement</w>
Bur gundy</w>
as th
aer os
Le isure</w>
H P
weak ness</w>
in n</w>
Mo to</w>
F AC
A man
Pl ated</w>
N y
Ingredi ents</w>
wel fare</w>
D T
9 50</w>
n at
li kes</w>
gr ill</w>
F T
-B ENZ</w>
where ver</w>
re vision</w>
f inger
Z ar
y eah</w>
crow d</w>
Use ful</w>
compar ing</w>
carri age</w>
ti f</w>
Sle eves</w>
209.200. 154.
og ie</w>
coordin ate</w>
e ira</w>
ul ent</w>
ed ly</w>
ann ular</w>
3. 3</w>
v re</w>
P ick
M ind
Gener ator</w>
se d
accum ulation</w>
prog ressive</w>
encour ages</w>
SU V</w>
5 .</w>
In ner</w>
DES -BENZ</w>
sett led</w>
scar f</w>
lin er</w>
in fin
Municip al</w>
Coordin ator</w>
re tri
pol ished</w>
incur red</w>
Mari o</w>
peri odic
ann ers</w>
W W
s j
V or
tutor ials</w>
brow sers</w>
Graph ics</w>
A m</w>
sub stitu
mo tive</w>
ay -
X XL</w>
Mob ility</w>
DF O</w>
tin y</w>
li able</w>
docum ented</w>
bath s</w>
V as
Som er
cal or
me tro
m Ah</w>
ex otic</w>
Bap ti
2018-09- 26</w>
abdom inal</w>
S ocks</w>
Len ovo</w>
parliam ent</w>
att an</w>
align ment</w>
QU E</w>
shoul dn</w>
recogn ised</w>
ran king</w>
cir cles</w>
un wanted</w>
ew ing</w>
B ob
ste reo</w>
MERCE DES-BENZ</w>
introduc ing</w>
ex cur
acel ets</w>
scri pt</w>
high- end</w>
Se ts</w>
sex y</w>
cap sule</w>
pe dest
Resto Quebec</w>
ur i</w>
secre ts</w>
gener ic</w>
ff ed</w>
elim inating</w>
der ives</w>
Rec tangular</w>
I M</w>
sen iors</w>
ocul ars</w>
guil ty</w>
gn y</w>
turb ine</w>
n ig
elev ation</w>
Me tro</w>
Contin u
Al most</w>
tw in</w>
T ON</w>
Fol ding</w>
rug ated</w>
engine er</w>
abund ant</w>
plan es</w>
K im</w>
Dispos able</w>
B R</w>
Associ ate</w>
tim ing</w>
inc idents</w>
Sh ock</w>
R ule</w>
bre eding</w>
Wa ke
Ch icken</w>
val idity</w>
colle ague</w>
promo ted</w>
dic ations</w>
cy clo
ad here</w>
sup pl
perce ived</w>
hard ly</w>
anticip ated</w>
Bo ard
S G
d in</w>
Mess age</w>
2 70</w>
our met</w>
ch .com</w>
Ta king</w>
162. 255.
v ent</w>
reve als</w>
for ward
asyl um</w>
Tren d</w>
E col
199 .
set tle</w>
min es</w>
con figure</w>
are l</w>
N ancy</w>
sw itch
onom ic</w>
cap tured</w>
D Y</w>
heav ily</w>
fit tings</w>
enorm ous</w>
em ble</w>
add y</w>
Oc cup
13 9</w>
M iss</w>
Di e</w>
sw itches</w>
im pose</w>
even ly</w>
Part ner</w>
H ills</w>
Gr ant</w>
Geor ges</w>
Ether net</w>
2 80</w>
t angle</w>
open ings</w>
main tains</w>
isol ation</w>
a us
V ul
Cas tel
zh en</w>
ve ins</w>
b ag
2018-10-0 3</w>
sculp ture</w>
s inc
dec o
Oper a</w>
veterin arians</w>
ben z
Res idential</w>
N it
C ost</w>
twel ve</w>
r he
iti ous</w>
down stream</w>
SE T</w>
Ed in
No thing</w>
Connec tion</w>
rec all</w>
PC S</w>
Al z
re z
Rhône- Alpes</w>
soci eties</w>
buc ket</w>
Fo am</w>
log istics</w>
Resist ance</w>
M asters</w>
Ex ha
ta res</w>
canc el</w>
bour ne</w>
T il
S ir</w>
Michel in</w>
roc ks</w>
on de</w>
m ig
in expensive</w>
cell aneous</w>
br al</w>
Qu artz</w>
r as</w>
el ong
acc id
I O</w>
wh ite
ash i</w>
Tow els</w>
Pro te
C ell
2-0 1</w>
regul ator</w>
optim ize</w>
bus h
bl adder</w>
Z u
Avi ation</w>
dri ves</w>
bu ds</w>
p ts</w>
ine .com</w>
r ing
mo ther
IP S</w>
Exper t</w>
D uty</w>
4 K</w>
ari os</w>
ag li
N el
Ch ance</w>
uls ory</w>
re fin
ne gl
interpre ted</w>
amb ia</w>
Wh it
ür t
Egyp tian</w>
il st</w>
Stu di
c d
Th eater</w>
read ers</w>
Issu es</w>
Fe b</w>
pip eline</w>
mal ware</w>
cal ories</w>
absor b</w>
U z
ro ds</w>
af ford</w>
Co ats</w>
pri zes</w>
or .com</w>
bo arding</w>
Re pe
prison ers</w>
mat tress</w>
hydro x
LE T</w>
rad ial</w>
gu ay</w>
avo ided</w>
D M
y oga</w>
un limited</w>
con formity</w>
am ong
V .</w>
Scot ts
Ox ford</w>
Meas ures</w>
IC ES</w>
AI R</w>
op en-
j on</w>
Phot ograph
ll a</w>
STE ERING</w>
Prepar ation</w>
Fre edom</w>
4 20</w>
ant i</w>
TV C-
sp in
h t</w>
camp ing</w>
Recommend ation</w>
Part ners</w>
200 5-
prof its</w>
ful ness</w>
ar y
Karls ru
Engl ish-
Cre te</w>
Comm it
is se</w>
209.200.154. 54</w>
anti que</w>
Exc el</w>
pot ato</w>
incre dibly</w>
W er
P ig
Ari zona</w>
recip ients</w>
ei ver</w>
abdom en</w>
La c</w>
Corn el
out puts</w>
St ars</w>
v end
no tif
De ad</w>
197 8</w>
under takings</w>
s ace</w>
p h</w>
j j
bar gaining</w>
ar ter
C ast</w>
r ust</w>
c am</w>
Doc tor</w>
eth ics</w>
co operate</w>
Entr ance</w>
form ulation</w>
S equ
For mul
12 6</w>
olog ically</w>
cryst als</w>
and o</w>
pes tic
exemp tion</w>
RI C</w>
Mon te</w>
Mc G
IS H</w>
B I</w>
4 7.
w arming</w>
on set</w>
k ia</w>
Ph D</w>
I z
B ISH
z burg</w>
pro lif
de d
cat aly
J ose</w>
consul ted</w>
ang es</w>
Z en
C LE
rel atives</w>
qu est</w>
practition er</w>
eth yl</w>
coordin ates</w>
2 .com</w>
present ing</w>
Rent als</w>
Ab u</w>
suc tion</w>
St y
S EN
for b
er ion</w>
alig ned</w>
Arab ic</w>
re sting</w>
mag ical</w>
dynam ics</w>
Lin k
2 A</w>
ultr asound</w>
exten sions</w>
as m</w>
Se ine</w>
Particip ants</w>
ass isted</w>
Car los</w>
15 5</w>
th reads</w>
frequ encies</w>
F low</w>
Bro ther</w>
Ac id</w>
s ad</w>
162.255. 119.
es ho
V a
6 th</w>
un like</w>
ra y
r ink</w>
La b</w>
Jos é</w>
Con servation</w>
reas on
in hal
H S
Ca uc
inter act</w>
ar omatic</w>
F S</w>
Afr ic
23 2</w>
titan ium</w>
mar gin</w>
discipl ine</w>
Re ader</w>
R GB</w>
Practi ce</w>
Contin ue</w>
b att
Har ry</w>
CA P</w>
t ough</w>
slo pe</w>
Ri ver
P RES
Di ameter</w>
c t
ate mal
PRO DUC
me ts</w>
bud getary</w>
T ac
Bor n</w>
Blan c</w>
v a
simul ation</w>
Ang el</w>
ge st
capac ities</w>
W olf</w>
Jew s</w>
Dr agon</w>
l j
g ia</w>
b la
advertis ements</w>
ret te</w>
pron unciation</w>
per sec
del ving</w>
B B</w>
earth qu
e rec
Nun avut</w>
E lis
h ing
In stant</w>
G D
sa c</w>
respon ded</w>
pos session</w>
mic ro</w>
h en
b all-
4x 4</w>
prescri be</w>
d un
Mo der
F if
K I</w>
mil it
24 ,
t ably</w>
p ir
Can cel</w>
d t</w>
con test</w>
ar ov
Sof ia</w>
LI MIT
Hop e</w>
s atin</w>
pro jection</w>
Swe at
de duc
Tab let</w>
Person alization</w>
pri de</w>
g il
An ci
Al ab
g lob
Y S</w>
worl d-
dis advantages</w>
HO L
H ai
A ro
sil ica</w>
inten si
inspec ted</w>
di etary</w>
Up coming</w>
E ST
k nitting</w>
Eff ect</w>
inter val</w>
fr ance</w>
resid ual</w>
lor d</w>
Pri x</w>
wor ried</w>
nam ents</w>
al ley</w>
up stream</w>
O sc
O ne
L i</w>
Contrac ting</w>
docum entary</w>
R ide</w>
Al ps</w>
Tar iff</w>
IN G
I ran
om ena</w>
S ON</w>
K ap
fore stry</w>
ex porters</w>
acc ession</w>
P RI
supple ments</w>
iti onally</w>
diarr hea</w>
S at
La ur
Fil es</w>
not arial</w>
among st</w>
Chall enge</w>
u ts</w>
Presid ency</w>
Bre ak</w>
altern atives</w>
Tic kets</w>
tur nover</w>
fu els</w>
Spec ies</w>
Jo in</w>
Edin burgh</w>
pol yethylene</w>
concentr ate</w>
Rad well</w>
Geneal ogie</w>
s sel
rou ter</w>
man icure</w>
attribu ted</w>
Tre m
N .</w>
Dry er</w>
6 x
op t</w>
l ity</w>
gu m</w>
B IL
re imbur
col i</w>
Exha ust</w>
C iv
4 6.
Mar tin
M US
F oot</w>
ürt temberg</w>
ge o
Pre ferred</w>
Dis count</w>
Access ory</w>
lit ter</w>
con ies</w>
Scotts dale</w>
Sand als</w>
H ans
E ver
regul ate</w>
Vic tor</w>
Dom aine</w>
B og
st ack</w>
aut o
Ug anda</w>
F it</w>
S EC
Andr é</w>
pul p</w>
per for
influ enza</w>
demon stration</w>
C ir
An ni
ren ted</w>
i a.com</w>
h u</w>
W it
14 ,
.com. cn</w>
Mul ticol
2 25</w>
m ou
less ly</w>
develop er</w>
Gen uine</w>
A F</w>
ud ed</w>
stat utory</w>
ev ac
Rad well.com</w>
Mar co</w>
K ha
p earl</w>
in corporate</w>
amb itious</w>
Under standing</w>
Symp toms</w>
thor ough</w>
s b
quis ite</w>
inter actions</w>
y i
per pend
fr amed</w>
ch im
al lo
Municip ality</w>
ro -
Centr o</w>
ir us</w>
Sur f</w>
Blu e
t os
ment -
financ ed</w>
Gu ang
Se eds</w>
R acks</w>
pv d-case</w>
cul tivation</w>
c ited</w>
19 0
min orities</w>
RI GHT</w>
Op ens</w>
Midi -P
ar ks</w>
Be er</w>
tur n
Ukra inian</w>
Premi er</w>
Govern ance</w>
set te</w>
experim ents</w>
contam inated</w>
C ITY</w>
a .info</w>
Gu atemal
sp here</w>
sa ke</w>
Pro sec
L af
ul ating</w>
symp tom</w>
diam onds</w>
small est</w>
ish ings</w>
bur g-
Rap porteur</w>
ur ban
mor al</w>
in ates</w>
T ING</w>
con domin
Des ign
D EN
un certainty</w>
toc ols</w>
le f
drug stores</w>
Le on</w>
vom iting</w>
r ication</w>
Gu aran
cand le</w>
liqu ids</w>
im eter</w>
comple ting</w>
age ously</w>
str ands</w>
atic al</w>
R FID</w>
Not re-
A void</w>
6 9.
est y</w>
config ur
Ren ew
8 mm</w>
plas tics</w>
memb ranes</w>
electro magnetic</w>
cont acted</w>
cl ause</w>
N atur
AR Y</w>
13 1</w>
ir oning</w>
endor f</w>
Pur pose</w>
21 st</w>
E lev
A 3</w>
sn acks</w>
per me
our c
tu res
sion ism</w>
pos ing</w>
P v
Frequ ency</w>
lif ts</w>
fe atured</w>
ex -
camp us</w>
Stock holm</w>
B é
bre ed</w>
19 5.
1000- 2500</w>
sof t
re iter
os cill
F illing</w>
vi an</w>
cere als</w>
HO N
Ex erc
res orts</w>
k illing</w>
Mon thly</w>
M am
persist ent</w>
p ond</w>
dispens able</w>
contin ental</w>
bro ke</w>
an ian</w>
Lou ise</w>
veget ation</w>
spec tives</w>
sain t</w>
men str
7 th</w>
g es
Scre en
ATI ONS</w>
subsidi ary</w>
iz ers</w>
dil uted</w>
d .
con e</w>
SO R</w>
A reas</w>
20 6</w>
var ying</w>
out fit</w>
fertili zer</w>
Individ ual</w>
Car rier</w>
trav ellers</w>
K et
Clin ical</w>
ex ag
Ter minal</w>
F S
t shire</w>
t ina</w>
disp utes</w>
ai .com</w>
17 0
o intment</w>
gl as</w>
19 75</w>
vo ted</w>
m oul
m l
key word</w>
ful fill</w>
exclu sion</w>
Kaz akh
susp icious</w>
relax ed</w>
gr and</w>
car a</w>
b amboo</w>
S é
Tra ins</w>
Rec ogn
prec au
bud sman</w>
AS A</w>
Pil low</w>
theore tical</w>
c age</w>
Be ads</w>
ä r
pro portions</w>
emp ow
A ar
ate l
4 1
volunte er</w>
he ter
full- time</w>
You Tube</w>
Qu al
un expected</w>
e ball</w>
Wel ding</w>
Ped ro</w>
Liber al</w>
Fi xed</w>
e ber
Exam ples</w>
en i
Sh ap
Azer bai
25 ,
in th</w>
fast ening</w>
elas ticity</w>
con vention</w>
Univers ité</w>
Pro jec
if er</w>
aqu atic</w>
F ar</w>
z ipper</w>
public ly</w>
hydr ation</w>
el ast
compet ence</w>
Vol un
Process ing</w>
- 111.
trac tion</w>
por k</w>
A stronom
100 ,000</w>
re vers
pre vented</w>
clim b</w>
atmosph eric</w>
allow ance</w>
Organ isation</w>
Hun ter</w>
ES S</w>
Belar us</w>
al ie</w>
orig inating</w>
dec is
Can al</w>
particip ant</w>
inten ds</w>
Si tes</w>
Peri od</w>
K IT</w>
17 ,
zi g</w>
n oun</w>
sud den</w>
s ch</w>
infl atable</w>
e try</w>
bu mp
an t-
Plan et</w>
gi ble</w>
enzy me</w>
ecosy stems</w>
Light weight</w>
G ren
A ven
mini bar</w>
g ins</w>
dep uty</w>
Op tions</w>
Depos it</w>
Co in</w>
ra z
le an</w>
est ing</w>
W arranty</w>
Re porting</w>
star ch</w>
rel s</w>
calcul ations</w>
blan ket</w>
Est onia</w>
tem plates</w>
appo int</w>
stri king</w>
o th
Midi-P yrénées</w>
10 80
meaning ful</w>
mach ining</w>
Kn ife</w>
civ ilians</w>
bil ingual</w>
Canad a-
prosper ity</w>
L AND</w>
sugge sting</w>
Cer tification</w>
- T
hom emade</w>
bre w</w>
al ists</w>
15 th</w>
v et
st uck</w>
nutri tional</w>
don or</w>
bu bble</w>
Nutri tion</w>
Jam a
stic kers</w>
ow ed</w>
es te
cust ody</w>
ad mitted</w>
N ad
Lib ya</w>
Gy m</w>
Econom ics</w>
Bri g
sil ent</w>
fer ry</w>
dis cs</w>
every body</w>
simpl icity</w>
re act</w>
p izza</w>
ol en</w>
1 18</w>
PW GSC</w>
Mat t</w>
G H</w>
Answ er</w>
pre val
Bear ing</w>
3 G</w>
inst ances</w>
at tic</w>
Spac ious</w>
18 5</w>
sing er</w>
on ian</w>
min istry</w>
col or
- off</w>
assign ment</w>
fin ely</w>
an ine</w>
ex changer</w>
Sa una</w>
manife stations</w>
deleg ates</w>
sto rey</w>
in jected</w>
comp ulsory</w>
X X</w>
Al ice</w>
y wood</w>
um b</w>
mix tures</w>
buff er</w>
Dec ker</w>
4 10</w>
te ar</w>
he im
glo be</w>
Pi oneer</w>
Lat via</w>
FR AN
22 ,
iv el</w>
horm onal</w>
counsel or</w>
ass ure</w>
Pan ama</w>
Mi xed</w>
bil li
al izing</w>
No te
E cu
19 00</w>
ver te
id en</w>
cul osis</w>
conduc tor</w>
break down</w>
bl anc
all er
Ite ms</w>
Fre ez
A V</w>
lev ard</w>
d ash
so red</w>
ow y</w>
alleg ations</w>
al ongside</w>
Ward robe</w>
T ony</w>
Jan e</w>
6 2
share holders</w>
concer ts</w>
Maur iti
L INE</w>
D uc
q i</w>
gastro intestinal</w>
Me et</w>
autonom ous</w>
Agri- Food</w>
ho tel
gl and</w>
don ors</w>
con fron
celebra ted</w>
15 ,
produc ts-
privileg ed</w>
Y ves</w>
S eville</w>
. blogspot.com</w>
six th</w>
flu o
are t</w>
ad .com</w>
H ud
sh it</w>
jurisdic tions</w>
end ants</w>
di ver
bloc ked</w>
O B
Emb assy</w>
Col on
alcohol ic</w>
gr ading</w>
extrac ts</w>
abund ance</w>
m us</w>
hec tares</w>
flu x</w>
clear ance</w>
Mat the
H ague</w>
Glou cestershire</w>
COMP RES
5 cm</w>
st umes</w>
ma h</w>
fib res</w>
be .com</w>
Se x</w>
5 ,000</w>
v ascular</w>
medi eval</w>
ly wood</w>
6. 5</w>
24 V</w>
V ie
Opport unities</w>
Im ag
pe el</w>
inf er
f ellow</w>
de x
u ge
epis ode</w>
acet ate</w>
OP EL</w>
penetr ation</w>
oc kets</w>
EC U</w>
Caf é</w>
k al
gl ass
K ING</w>
Americ ans</w>
13 6</w>
ter ly</w>
allerg ies</w>
electro ly
cr ushed</w>
Line ar</w>
2. 8</w>
ne x
sh adow</w>
in as</w>
er ly</w>
ca ve</w>
K its</w>
18 2</w>
wr apped</w>
doub tedly</w>
de feat</w>
hand ed</w>
gla zing</w>
experi encing</w>
S ol</w>
R CA</w>
La ura</w>
differenti al</w>
be ings</w>
Pl ans</w>
Nor th-
Gen re</w>
ae ological</w>
Gr an</w>
Electro lux</w>
embro idery</w>
W y
Pi ano</w>
H KT
under way</w>
r ation
gal ow</w>
Stic k</w>
F an
26 4</w>
ta sting</w>
resol utions</w>
mar ker</w>
l ung</w>
fr ying</w>
exac erb
W ave</w>
- H
cost- effective</w>
ro v
cross- border</w>
ar ch</w>
serv ants</w>
prospec ts</w>
M iller</w>
A irc
b id
ar u</w>
Me ter</w>
Castil le</w>
CN W</w>
sol l-
gre ase</w>
dist or
Valent ine</w>
Sy l
Ma ison</w>
G P</w>
Com man
stri pes</w>
T au
C LO
50 s</w>
am ending</w>
Mem or
Camer oon</w>
non- governmental</w>
mis sible</w>
Venez uela</w>
u z
f estive</w>
ad he
G ate</w>
vis u
use a</w>
tour nament</w>
off ences</w>
i o
del ays</w>
bi ology</w>
Wil tshire</w>
San to</w>
wel ded</w>
wav el
im pe
avi ation</w>
Ste am</w>
Hun garian</w>
Charlot te</w>
C us
utili zation</w>
hard ness</w>
fi ers</w>
fab ulous</w>
dec oc
23 1</w>
elem entary</w>
19 ,
fac ade</w>
avo iding</w>
Bri an</w>
tel es
sho ts</w>
Peter sburg</w>
Govern ments</w>
re mem
cl utch</w>
T DI</w>
i Pod</w>
cool er</w>
appeti te</w>
anim ation</w>
C lear
esh ire</w>
On lin
v on</w>
tradem ark</w>
phen omena</w>
L ig
Cel e
in dispensable</w>
. ir</w>
ymnas tics</w>
w ick
is o
found ations</w>
bat ch</w>
D an</w>
respond ent</w>
organiz ing</w>
iss a</w>
Tel es
Mo ist
L om
ff y</w>
Z oom</w>
righ t-
b oss</w>
Rec ently</w>
Fi at</w>
Ex terior</w>
Caf e</w>
carbo hydrates</w>
a ur
Pla in</w>
Pal ma</w>
M ental</w>
Advant ageously</w>
K id
EM S</w>
d umping</w>
SP EC
P an</w>
Au gu
simplif y</w>
lin king</w>
add ic
Somer set</w>
Gas oline</w>
Des ktop</w>
24 1</w>
19 60s</w>
in ia</w>
er ie</w>
d uplex</w>
analy zed</w>
acul ture</w>
p ut
exce eding</w>
Inf o</w>
Har per</w>
Gal vanized</w>
it aine</w>
camp s</w>
ate dly</w>
Condi tion
t ch</w>
per ia</w>
collec tor</w>
H at
2019-05- 11</w>
net working</w>
cos ity</w>
bal conies</w>
197 6</w>
1 13</w>
m ould</w>
col oured</w>
W AT
IN D
Dra wing</w>
emphas ized</w>
Gol d
in table</w>
c us</w>
MB H</w>
Cra ft</w>
ish ers</w>
14 4</w>
mun d</w>
lun gs</w>
fa ke</w>
detec ting</w>
am .com</w>
T anks</w>
Engine er</w>
transi stor</w>
ill ary</w>
accompan ying</w>
rhy thm</w>
flu ids</w>
di er</w>
rein forcement</w>
distribu tor</w>
W as</w>
B ren
Telec ommunications</w>
Re friger
Jac ob</w>
div ide</w>
Ser ious</w>
Cas h</w>
read ily</w>
make -up</w>
L amps</w>
Accoun ting</w>
80 -
adv ances</w>
C é
un ited</w>
b -
v ent
qui to</w>
e- up</w>
Circ uit</w>
G an
Fas hi
um ber</w>
stric ts</w>
Re in
jac kets</w>
in duc
dign ity</w>
FR ANCE</w>
D EC
2 10
0. 3</w>
m ens
TE L</w>
Protec t</w>
h d
b are
Spec if
S even</w>
Karlsru he</w>
Cum bria</w>
Alab ama</w>
z ir
top -
n t</w>
h ence</w>
R 2</w>
Pack ard</w>
sur plus</w>
sh ut</w>
ag ers</w>
T ut
- free</w>
ir rigation</w>
R ain</w>
P N
tribu te</w>
time -
specif ication</w>
doub ts</w>
UNIC EF</w>
6 1
with draw</w>
sens ations</w>
is i</w>
illi ant</w>
be ars</w>
2019-0 2-01</w>
2. 0
X i
O FF</w>
17 -
toil ets</w>
it ly</w>
direc tor
Aud itor</w>
Ad ults</w>
ris es</w>
ge .com</w>
at t</w>
F ast
Cy linder</w>
Consi der</w>
c ensus</w>
ass emb
andin avian</w>
ligh t-
ic s.com</w>
gly cer
Ken ne
H as
- Saint-
mot ors</w>
Si em
16 th</w>
vol can
infr ing
frag ile</w>
direc tional</w>
T M</w>
In struc
Dr ugs</w>
Connec tions</w>
spec im
di g</w>
c ans</w>
access ed</w>
Kazakh stan</w>
oun ce</w>
nation als</w>
kn itted</w>
fem ales</w>
Sig nal</w>
BB Q</w>
- mounted</w>
ser ial</w>
e tes</w>
P ass</w>
M at</w>
E ast
18 ,
t s.com</w>
she ep</w>
ser y</w>
fall en</w>
ef f</w>
cor on
Simp ly</w>
1 200
if ier</w>
gra ins</w>
crit erion</w>
commun al</w>
os la
igu el</w>
fasc inating</w>
T T</w>
Por tal</w>
Hy per
s is</w>
pix els</w>
camp site</w>
Bub ble</w>
st en
sch em
B amboo</w>
w ifi</w>
se wing</w>
poly urethane</w>
act ress</w>
Sk ate
Le ad</w>
C oc
Arti ficial</w>
um entation</w>
teaspo on</w>
Trem bl
Champion ship</w>
11 ,
k ina</w>
He av
Chal et</w>
occur ring</w>
int end</w>
Icel and</w>
Clos ed</w>
197 3</w>
s p</w>
hos tel</w>
gro cery</w>
dis counts</w>
2020 -
y- sur-
id ation</w>
L M</w>
Jac uzzi</w>
Dynam ic</w>
Ap proxim
A gu
r ush</w>
pi e</w>
diagn ose</w>
P EN
D inner</w>
C ran
6 13-
remo ves</w>
pro jected</w>
MIN I</w>
C ow
testi mony</w>
negoti ation</w>
coo ker</w>
T OR
B S
secre tary</w>
nes ota</w>
G MBH</w>
EL ISA</w>
es thouse</w>
depar ting</w>
ad mire</w>
Dur able</w>
Ac cu
500 -
n ap
Gi ov
en closed</w>
201 5-0
under go</w>
um ental</w>
mol ding</w>
Im mun
I vo
197 7</w>
T 2</w>
Lincol n
BI OS</w>
recre ational</w>
per forms</w>
ill ers</w>
gau ge</w>
fo il</w>
S ão</w>
orig ins</w>
non- smoking</w>
insul ated</w>
excep tions</w>
dipl omatic</w>
cub es</w>
To o</w>
O h
gl ad</w>
be st-
S ak
Ro of</w>
Gu y</w>
Gat ineau</w>
wr inkles</w>
spon ge</w>
sh if
sep tic</w>
g ence</w>
co operative</w>
b low</w>
Se oul</w>
tun nel</w>
rever sible</w>
or if
low n</w>
k ov
fl at
envis aged</w>
cigaret te</w>
Alp ine</w>
re ferring</w>
hou ette</w>
er os
abol ic</w>
s .net</w>
Je ep</w>
E ste
Con do</w>
mo l</w>
Bas el</w>
A ve</w>
the ft</w>
architec t</w>
S ard
K ab
Be ach
ti enne</w>
enn y</w>
bel ief</w>
ac idi
è re-
presti ge</w>
inter f
Ma il</w>
F oods</w>
irrit ation</w>
em bedded</w>
b c
hun ger</w>
for k</w>
Th i
administr ator</w>
N B</w>
Min nesota</w>
read ed</w>
gra vity</w>
PL AN
I ron
nick el</w>
adjust ing</w>
A ber
st on
po or
op l
l yrics</w>
establ ishments</w>
emer ged</w>
J EC
I AN</w>
Ro y</w>
Nor dic</w>
Gran ada</w>
Ar d
del ayed</w>
Sk i
19 5</w>
metabol ic</w>
f ut
f j
curr icul
am ics</w>
me rely</w>
l il
cl arity</w>
M rs</w>
J ob
sustain ed</w>
scen arios</w>
rel ay</w>
im mobil
at oms</w>
pati ence</w>
ist ries</w>
dol l</w>
Lim a</w>
Gu il
Gaz a</w>
8 50</w>
5. 1</w>
g ame
Nur sing</w>
00 -
multi lateral</w>
j ack
ha w
L V
mo s</w>
co conut</w>
Dou glas</w>
Ar med</w>
ten sions</w>
m elt</w>
in os</w>
M ill</w>
y .org</w>
interf ere</w>
gra teful</w>
et ts</w>
t .
dess ert</w>
anti bodies</w>
Ca ke</w>
Adver tis
fer able</w>
can al</w>
Struc ture</w>
Pi eces</w>
J av
begin ners</w>
R ica</w>
4 50
20 ,
uc tu
dig ital
Fig ures</w>
syste mic</w>
journal ist</w>
es tim
be e</w>
Je ans</w>
condition er</w>
R in
At mosph
well ness</w>
n em
log s</w>
lan e</w>
o e</w>
cap s</w>
K un
E di
respon ding</w>
or ia</w>
mon uments</w>
Z im
s park
eng aging</w>
ver n</w>
d z
c all
w iring</w>
Elec tions</w>
lingu istic</w>
le ton</w>
gov ina</w>
ed iting</w>
degrad ation</w>
Rw anda</w>
E b
7 50
tox ins</w>
res ist</w>
pen ding</w>
euro pean</w>
Ple as
At las</w>
we ar
simp lified</w>
periodic ally</w>
G .
A del
Aqu itaine</w>
60 2</w>
16 ,
wh olesal
sc ales</w>
passi onate</w>
chal et</w>
ac res</w>
T es
us si</w>
sp icy</w>
qui ries</w>
ati lity</w>
Employe e</w>
C ed
styl ing</w>
s dorf</w>
need les</w>
Pe uge
produc tions</w>
po d</w>
pill ar</w>
actu ator</w>
Suz uki</w>
R ace</w>
P é
Bos nia</w>
1 19</w>
an no
10 th</w>
refl ective</w>
mal es</w>
exhi bit</w>
cus hions</w>
br ushes</w>
201 4-
res et</w>
C ut
ol k</w>
og ical</w>
T ip</w>
In spir
Sur g
Inclu ded</w>
I B
susp ected</w>
deser ve</w>
F RON
Exp o</w>
maxim ize</w>
labor atories</w>
int ent</w>
fl ange</w>
bur ns</w>
Th ings</w>
HT C</w>
brea the</w>
R af
BU Y</w>
trans verse</w>
con ia</w>
bar k</w>
Set tings</w>
Lea f</w>
L P</w>
K aw
Cas tell
sp atial</w>
publ ishing</w>
b ic</w>
Tw o-
Phys ical</w>
Men u</w>
13 ,
under -
qual ify</w>
l ingerie</w>
do or
Refuge es</w>
P ain</w>
Op en
Get ting</w>
Autom otive</w>
t je</w>
fil m
d ressed</w>
cock tail</w>
accep ts</w>
Trans lation</w>
Sec ure</w>
2018-09- 13</w>
ess ing</w>
Pay day</w>
ul ative</w>
repe atedly</w>
cleans ing</w>
inf ants</w>
Art works</w>
su icide</w>
pressu res</w>
hear t
fi br
bi kes</w>
T um
bri de</w>
associ ate</w>
Wor ds</w>
F .
inc ub
S W</w>
7. 5</w>
-0 1</w>
ren der</w>
num er
m is</w>
as -
Meth ods</w>
us a</w>
t own
fre ight</w>
autonom y</w>
Typ es</w>
2 x
nas al</w>
do t</w>
sa x
mo re
Gh ana</w>
ph ony</w>
le m</w>
in duced</w>
Ver tical</w>
V lad
3 20
ow a</w>
Psy ch
ze govina</w>
j ub
co coa</w>
attrac ted</w>
S ag
Fr ag
Bo dy
titu des</w>
S old</w>
Oce ania</w>
Firm ware</w>
sy ner
re structuring</w>
WH ITE</w>
R ico</w>
N C</w>
Li ège</w>
2 mm</w>
sc enery</w>
Min ing</w>
te t</w>
decor ations</w>
L M
v 1.
mor ph
head ed</w>
desig ning</w>
de z</w>
character ised</w>
IF I</w>
A H
A 2</w>
consequ ently</w>
ach us
re mun
me try</w>
ch andelier</w>
Y an
I .</w>
w ol
quanti tative</w>
craf ts</w>
P ET</w>
Mon gol
shor tly</w>
Hon ey
Dev ices</w>
Buil t-in</w>
ship ped</w>
m berg</w>
gor geous</w>
comm ented</w>
and er
Sa id</w>
N Y
Lin ux</w>
Gre noble</w>
AR S</w>
2018-09- 14</w>
spir its</w>
si e</w>
ren s</w>
k t</w>
govern ed</w>
accompl ished</w>
W ars</w>
Ivo ire</w>
G HT
sto re
man ship</w>
0. 0
re ments</w>
Mar kets</w>
LIMIT ED</w>
-de- Calais</w>
multi media</w>
Th ir
Shen zhen</w>
B az
promo tions</w>
out line</w>
no -
insul in</w>
Sub mit</w>
Ha wa
18 00</w>
Mass achus
C om</w>
. ed
mir rors</w>
K ne
J eff
Cair o</w>
wh el
Stic ker</w>
Sh ampoo</w>
P F
En tre
B an</w>
yu an</w>
phys ically</w>
ig s</w>
High er</w>
C LA
ass or
V AC</w>
Test ing</w>
Play ers</w>
Pati o</w>
E co
na usea</w>
ji ang</w>
ener ife</w>
Wind sor</w>
Roman tic</w>
Bang lad
A men
2. 5
micro organisms</w>
liter ally</w>
le tin</w>
fran ch
Lincoln shire</w>
Cat alogue</w>
r al</w>
Q -
L F</w>
reason ably</w>
low ering</w>
bound ary</w>
Im medi
AN A</w>
st ering</w>
ut ens
sou th-
exam ining</w>
bon ds</w>
Co ating</w>
pen alties</w>
dis advantage</w>
chec k-in</w>
T .
Sel f</w>
ST AR</w>
hand y</w>
Peuge ot</w>
2018-09- 12</w>
ti zed</w>
distinc tive</w>
Employe es</w>
23 ,
wor th
tech .com</w>
in aug
V ille</w>
S earch
F U
trad ers</w>
tr usted</w>
bol t</w>
Z E</w>
T uc
Maz da</w>
H ockey</w>
Dü ssel
Di agn
a ver
Sp on
G ros
G reg
.l u</w>
tr al</w>
d ing
A O
eli hood</w>
consult ants</w>
Manag ing</w>
Gl en
end ance</w>
eff icacy</w>
distur b
Th rou
Massachus etts</w>
Hon ey</w>
Direc tions</w>
sand als</w>
refl ecting</w>
ha te
G ord
ju ly</w>
distinc tion</w>
ch assis</w>
Provence- Alpes-
Lew is</w>
Gen oa</w>
En sure</w>
DE N</w>
o i</w>
nam on</w>
bl in
Hond ur
Car re
24 8</w>
ter rain</w>
inter vals</w>
ent um</w>
St adium</w>
IC K</w>
comfor tably</w>
po res</w>
en closure</w>
Guatemal a</w>
de pri
4. 3</w>
n au
i onal</w>
high- speed</w>
facilit ates</w>
Re duc
ô me</w>
sto l</w>
or ch
leg es</w>
perpend icular</w>
negoti ate</w>
as ian</w>
2 1,
li b
i ff
ad en
GH z</w>
Fam il
D ress
Attor ney</w>
www. c
vil le-
p oultry</w>
dispens er</w>
design ation</w>
Qu ad
tail ored</w>
pain ter</w>
form ers</w>
for -
SM D</w>
invo ice</w>
grap es</w>
fish ery</w>
ben ding</w>
Viet nam
R ud
tr on
tim er</w>
l ington</w>
ie v</w>
fav ourable</w>
champ ion
P oultry</w>
utens ils</w>
s cooter</w>
iti c</w>
gen e
analy tical</w>
Düssel dorf</w>
w c</w>
uter us</w>
app er</w>
vi able</w>
te s-
sti pation</w>
research er</w>
mer ch
e i</w>
e der</w>
T 1</w>
Moroc can</w>
Mar rak
lim itation</w>
lic ences</w>
19 8</w>
facilit ating</w>
ben ch
ate .com</w>
agre b</w>
TVC- Mall</w>
Siem ens</w>
Pl ug
Multi media</w>
HO ME</w>
eas iest</w>
qual ification</w>
m r
commun icated</w>
al titude</w>
Su ff
j une</w>
forb idden</w>
b aked</w>
V EL
TE D</w>
Organ izations</w>
Contain er</w>
ev eless</w>
S cal
Min eral</w>
Des cri
win ners</w>
round -
ke .com</w>
e b</w>
You tube</w>
friend ship</w>
Def ense</w>
C W
Bar bara</w>
sun glasses</w>
Wal ter</w>
I AL</w>
Hew let
sem inars</w>
om ed</w>
fun gal</w>
dec lined</w>
breath taking</w>
Po st-
La us
es ity</w>
an j
ay .com</w>
Tem por
Res earch
t j
ed oms</w>
88 8</w>
x n-
st resses</w>
qu er
R over</w>
H all
Cent res</w>
23 5</w>
p anc
kn ives</w>
con trad
Ver ona</w>
M 2</w>
Kev in</w>
v ine</w>
co hesion</w>
T as
M oul
Hy dr
ti ll</w>
Trou sers</w>
man ages</w>
f ar
e en</w>
K id</w>
icy cles</w>
fl y
es ia</w>
Tri p</w>
13 3</w>
z ens</w>
wash basin</w>
pro tot
i .
Hun ting</w>
Motor ola</w>
Consul tation</w>
sti pul
bo dy
qu it
ab ul
Z ip
Si x
deteri oration</w>
Bin oculars</w>
bel ts</w>
M ass</w>
G AN
umb ing</w>
t all</w>
roll ers</w>
Re ad
ti um</w>
san itary</w>
r yl
fl uctu
Pan or
An n</w>
adequ ately</w>
Conver tible</w>
B ill
survi v
exag ger
bu g</w>
n avy</w>
demonstra tes</w>
che f</w>
ch sia</w>
all ergy</w>
Go als</w>
Dom estic</w>
third- party</w>
scrat ch</w>
For tun
ap ril</w>
W N</w>
V ES</w>
Dis covery</w>
fre eze</w>
ST O
A si
SI M</w>
Bu en
o res</w>
minim alist</w>
g ang
aes the
a a</w>
Sk ating</w>
weigh ing</w>
sequ ences</w>
por ous</w>
li vely</w>
accum ulated</w>
F LE
ul in</w>
tures que</w>
li vestock</w>
k itch
fo g</w>
ev ident</w>
end less</w>
en to</w>
appreci ation</w>
14 1</w>
g inger</w>
en on</w>
appa rently</w>
Ther m
ent .com</w>
bl ender</w>
Tem pered</w>
O .
Her zegovina</w>
questionn aire</w>
no body</w>
Par k
or o</w>
deep er</w>
ma x
in visible</w>
200 2-
vis cosity</w>
athle te</w>
trans ported</w>
sw im
Or al</w>
M aps</w>
Circ le</w>
ver sus</w>
sy s</w>
requ is
Scri pt</w>
Com position</w>
Airc raft</w>
197 4</w>
S avo
- in</w>
here in</w>
R D</w>
socio- economic</w>
scal p</w>
ri vers</w>
gas oline</w>
g z
Y ug
W IFI</w>
spon sored</w>
ha us</w>
du es</w>
ax es</w>
acknowled ged</w>
T AL</w>
pa rental</w>
im paired</w>
homogen eous</w>
hel ieu</w>
c ence</w>
b ic
Salv ador</w>
EN G
C IS
B K</w>
B 1</w>
Azerbai jan</w>
sch olarship</w>
myster ious</w>
i to</w>
Th ink</w>
La ter</w>
A sk
thir ty</w>
Tit anium</w>
C 1</w>
200 0-
motor cycles</w>
mag ne
claim ant</w>
ate x</w>
ST ER
6 50
photograph er</w>
Lan ka</w>
Com plain
Co at</w>
us ages</w>
pas sive</w>
organ ise</w>
li v
bron ch
Tren ds</w>
Gr in
300 0
co ding</w>
H ST</w>
E co</w>
Book ing.com</w>
201 5-
2 2-
geograph ic</w>
contrain dications</w>
ar ises</w>
lik elihood</w>
f ont</w>
can ad
a o
Br ing</w>
fr y</w>
Z agreb</w>
Fe ature</w>
Circ ular</w>
Ce re
CA R</w>
enzy mes</w>
Throu ghout</w>
le ans</w>
in herent</w>
her bal</w>
Rent Board
RentBoard .ca</w>
v y</w>
li ed</w>
VI E
F I</w>
Co stume</w>
Bro ok
hyper tension</w>
contrac ting</w>
F os
5. 0</w>
tar geting</w>
ad al
H EL
Cer tain</w>
wheel chair</w>
physi ological</w>
fe rential</w>
Catal onia</w>
zz o</w>
mont blanc
clos es</w>
blu e
Om budsman</w>
M iguel</w>
D J
um ed</w>
trav en
sti ff
me -
Cla ire</w>
C ables</w>
ham mer</w>
Zan ussi</w>
Sebas tian</w>
3 mm</w>
pe -
ew are</w>
de tained</w>
d well
Kel ly</w>
Buil d</w>
Bre men</w>
μ m</w>
y k
don ation</w>
O live</w>
Movi e</w>
man -
cent rifu
Ju lie</w>
Comp liance</w>
C ass
stain s</w>
e bo
Cl utch</w>
tri m</w>
p ushed</w>
id el
Test o
L oss</w>
B uc
path ological</w>
inc enti
ea k</w>
di ve</w>
di stricts</w>
Won der
Ster oids</w>
Re as
Do ors</w>
CH AR
é -
ly m
h ockey</w>
gradu ates</w>
fil tering</w>
er land</w>
adi ent</w>
Op in
19 70s</w>
M UL
Inser t</w>
Bow l</w>
exc av
ear ls</w>
ar c</w>
Vol tage</w>
N ail</w>
K ra
Ch annels</w>
9. 00</w>
sel ective</w>
negoti ated</w>
b ills</w>
G P
F ROM</w>
E- mail</w>
6 mm</w>
comm emor
ard y</w>
Financ ing</w>
w ounds</w>
Requi rements</w>
Con fig
8 th</w>
se afood</w>
newsp apers</w>
hu a</w>
e res</w>
bud gets</w>
bu bbles</w>
C ock
ter a</w>
re taining</w>
fish er
T im</w>
T enerife</w>
Regi stry</w>
No kia</w>
pro -
in scri
h ad
Dro p</w>
Cy ber
ing ent</w>
as ia</w>
War saw</w>
W ill
Vil a</w>
B le
meth yl</w>
know led
hel icopter</w>
contrac tor</w>
wh ilst</w>
un anim
re ward</w>
C ity
ten ds</w>
phys ics</w>
Laus anne</w>
scan ning</w>
propos ing</w>
Studi os</w>
C all
se di
pix el</w>
i x-
dig estion</w>
Legis l
DE L</w>
poor ly</w>
notic eable</w>
he els</w>
gre ens</w>
dissem ination</w>
Super vis
L ud
L omb
ve au</w>
t ag
syn ony
g mb
cor rup
Wid th</w>
W hate
5 50
scre en
dec ember</w>
Inst all</w>
Ele ment</w>
3 M</w>
é té</w>
l ery</w>
at inate</w>
Dres den</w>
Altern atively</w>
tang ible</w>
s occer</w>
s ink
preced ented</w>
dis appeared</w>
E ur
70 -
b ell
Pl ants</w>
I BM</w>
Gu n</w>
Gabri el</w>
Camp bell</w>
Ap r</w>
A j
cas ino</w>
bu re
p ounds</w>
h p</w>
T D
R ack</w>
Bu ch
sk et
n ip
flow ing</w>
accoun ted</w>
small -
compli ment</w>
am ents</w>
Z ero</w>
Whate ver</w>
Mis cellaneous</w>
succ essive</w>
cot tages</w>
ch ick
Wa it</w>
U h</w>
Char ging</w>
C artier</w>
st up
Shar p</w>
S olution</w>
Reg arding</w>
yog urt</w>
nov elty</w>
d f
b old</w>
Cor s
continu ity</w>
any way</w>
EM ENT</w>
E O</w>
Cros s
4 80</w>
s ends</w>
ri pe</w>
ot ted</w>
CP U</w>
9 1
2018-09- 11</w>
syn onymous</w>
[...]
