#version: 0.2
e s</w>
p o
e n
d e</w>
t i
a n
o n
po s
& a
pos ;</w>
&a pos;</w>
o u
l e</w>
q u
i n
r e</w>
e r
i s
o n</w>
e s
u r</w>
e t</w>
a r
e m
p r
a i
l a</w>
en t</w>
e r</w>
l es</w>
t r
c h
o r
a ti
n e</w>
o m
i t
e u
d es</w>
a u
qu e</w>
p a
e n</w>
t e</w>
a l
e l
a v
i l
ou s</w>
em ent</w>
a c
a t
po ur</w>
u n</w>
p l
c on
o i
s i
es t</w>
é r
t re</w>
r e
d u</w>
d i
c e</w>
an s</w>
é t
a g
t s</w>
ati on</w>
l i
on s</w>
u ne</w>
r é
pr o
an t</w>
s u
a m
c om
c i
c o
m e</w>
s e</w>
d ans</w>
r es</w>
a u</w>
e ur</w>
d é
p ar
a p
e z</w>
a b
s ur</w>
f i
r i
e t
ti on</w>
on t</w>
a s
c u
n i
on n
r s</w>
v i
v o
e x
é s</w>
o t
é e</w>
v ous</w>
e c
a in
i l</w>
e c</w>
u s</w>
t es</w>
ou v
a d
g r
i m
ai re</w>
au x</w>
pa r</w>
av ec</w>
d u
f f
t u
it é</w>
2 0
r o
ag e</w>
é es</w>
s t
po r
f or
pa s</w>
eu rs</w>
ou r
c es</w>
o l
qu i</w>
a l</w>
e l</w>
p er
en ts</w>
m o
i e</w>
en t
l is
L e</w>
o u</w>
pr é
é l
pl us</w>
ai t</w>
en d
qu es</w>
. co
s er
a is
.co m</w>
t er
ér i
r es
m in
é g
è re</w>
p u
eu x</w>
ét é</w>
u ti
n o
ati ons</w>
el le</w>
i s</w>
s ont</w>
ai s</w>
ou r</w>
l u
L es</w>
m an
il l
d e
ê tre</w>
t en
è s</w>
m es</w>
v er
oi r</w>
s s
uti lis
po u
d is
L a</w>
c a
e au</w>
t ou
p eu
l o
q u</w>
ch e</w>
o p
i v
c ou
g u
t é</w>
in e</w>
20 1
b le</w>
oi s</w>
es s
et te</w>
g e</w>
an ce</w>
qu ot
quot ;</w>
& quot;</w>
vo tre</w>
é n
i c
ai res</w>
for m
g n
it e</w>
m ar
an ts</w>
e il</w>
m ent</w>
a n</w>
em p
a le</w>
ain e</w>
i que</w>
si on</w>
u s
v is
b re</w>
g t
par ti
C h
b i
tr es</w>
n ous</w>
en ce</w>
p i
v en
c l
em ents</w>
ti ons</w>
l l
m on
gt ;</w>
& gt;</w>
b u
ab le</w>
i t</w>
& #
p e</w>
e u</w>
m u
d onn
p h
t er</w>
s i</w>
el s</w>
a t</w>
re g
b l
is tr
en tr
t e
o b
is s
i r</w>
j ou
er s</w>
s es</w>
au t
is e</w>
é c
I l</w>
it s</w>
s e
s tr
m il
pro du
peu t</w>
s ou
f on
g i
c e
el les</w>
s o
d om
o c
1 2
ch er
al l
C om
ti v
an g
il le</w>
l ement</w>
oi t</w>
è me</w>
al is
in s</w>
it u
0 0</w>
c or
I n
reg istr
at u
en ti
an n
t h
en registr
por t
p é
c er
d ét
f r
é m
en s</w>
e -
b r
u e</w>
c ar
in t
re c
ai n</w>
l eur</w>
at s</w>
tr av
pr i
per s
en te</w>
ad res
d er
s é
ouv er
pou v
i er</w>
è res</w>
t ement</w>
pré s
c ette</w>
u m
adres se</w>
ti onn
s on</w>
C on
ais on</w>
an te</w>
1 9
al ement</w>
a ch
tr i
ti que</w>
f fi
t emp
in ter
cu eil</w>
s y
j our</w>
it és</w>
en tre</w>
at eur</w>
dom aine</w>
a s</w>
A c
is t
an d</w>
g ne</w>
as s
an d
donn ées</w>
v ent</w>
end re</w>
su iv
s -
él é
il s</w>
a y
an de</w>
ti n
E n</w>
m é
l t
e ff
in ci
com me</w>
com m
a r</w>
i n</w>
pos i
tr ouv
m p
e v
a di
b er
r ap
f ac
an s
vi r
m ais</w>
N o
pr ès</w>
di ff
su r
C an
ar i
de v
p e
u r
v e</w>
t eur</w>
o g
o y
po n
tou t</w>
c r
b li
i g
si mil
12 4
qu i
por t</w>
c ation</w>
con n
n om
é v
124 ;</w>
&# 124;</w>
in form
e ill
pl ac
u n
tu re</w>
trav ai
t -
ar g
n ouv
c tion</w>
h i
20 0
au tres</w>
our n
e ts</w>
f in
ar ti
m i
a i</w>
re cher
ser v
or s</w>
an ti
. .</w>
m ê
i on</w>
1 0</w>
pr inci
t ous</w>
V ous</w>
on ne</w>
f ait</w>
d o
u ni
pers onn
temp s</w>
i d
ser vi
. ..</w>
ati on
diff ér
A n
r en
j e</w>
s ol
pos si
él ec
per m
P our</w>
ag es</w>
f aire</w>
ad a</w>
r ou
pa y
ap par
S u
s em
é d
j et</w>
en vir
oi re</w>
cu l
A r
w w
d es
S i</w>
Q u
l le</w>
a les</w>
pouv ez</w>
P ro
1 0
su lt
r em
R e
n es</w>
no tre</w>
d em
É t
fi n</w>
Can ada</w>
so ci
mê me</w>
ac c
g én
at ég
tr ans
u l
ég alement</w>
b res</w>
s al
dé c
tr ès</w>
p end
jou rs</w>
N ous</w>
er min
d eux</w>
t o
su p
on e</w>
pr em
n ation
f s</w>
&# 9
l e
i es</w>
ch es</w>
pou r
pu is</w>
pu bli
z -
ai ent</w>
av oir</w>
ch er</w>
pr es
h é
l s</w>
dét ermin
al ité</w>
s ti
con tr
h u
no m</w>
s a</w>
ch am
I P</w>
ain s</w>
i ère</w>
an t
an c
en ne</w>
c li
com p
pro c
T r
d r
o s</w>
P ar
d re</w>
l eurs</w>
j u
si d
ô t
princi pa
A u
a que</w>
l on
o i</w>
simil aire</w>
in g</w>
b les</w>
si gn
pé ci
is te</w>
f ois</w>
a î
h eu
bi en</w>
g an
o s
en f
r el
pl u
D ans</w>
vo y
b il
gr ap
com pr
I m
b ou
2 0</w>
der ni
g ar
sy st
au ss
di rec
im port
ti f</w>
b o
c ré
o ff
U ni
entr e
gr am
el op
possi ble</w>
i r
gén ér
el l
s ans</w>
ch o
cu r
ti ques</w>
t ant</w>
E n
ce p
f a
t y
at eurs</w>
oi n</w>
li gne</w>
s eu
tr ai
prés ent
pay s</w>
su s</w>
ais s
peu vent</w>
m ét
Ac cueil</w>
ap pl
A l
str u
au r
c our
R é
d ou
m ise</w>
d er</w>
mé di
1 1</w>
c ri
b e
com pl
ar m
enregistr é</w>
vo s</w>
m ati
i de</w>
it es</w>
an tes</w>
f ér
an ces</w>
D e</w>
av ons</w>
j us
av ez</w>
elop p
pend ant</w>
mp ;</w>
&a mp;</w>
ber g
i gn
atég or
s péci
ac tiv
ain si</w>
u m</w>
t élé
ec tion</w>
- 0
ç on</w>
com man
e aux</w>
in f
ver s</w>
in di
é qui
or gan
utilis ation</w>
ar d</w>
p es</w>
auss i</w>
M on
com mu
in g
man u
m is
dé v
ch arg
f ai
F r
c an
fon c
p en
a se</w>
recher che</w>
J e</w>
mar ch
c le</w>
ab les</w>
en ces</w>
l or
inform ations</w>
em bre</w>
tr o
s ite</w>
P h
produ its</w>
pa ss
p éri
o ù</w>
ain es</w>
ec tu
m eill
P l
mo ins</w>
M ar
s om
n éc
r ement</w>
b es
cer t
d s</w>
in t</w>
ét ait</w>
v oir</w>
1 2</w>
ac t
s or
U ne</w>
U n</w>
con t
min u
hé berg
ca s</w>
ati que</w>
s itu
produ it</w>
es si
5 0</w>
co ll
ê te</w>
fa çon</w>
dév elopp
a k
at s-
te ch
éri eur</w>
f il
ré gi
g l
pe ti
m es
G r
ré sult
pro gram
ver s
es tion</w>
pro pri
envir on</w>
P ar</w>
pro bl
s an
in st
pu l
entre pr
al i
pr iv
travai l</w>
o de</w>
0 0
qu el
el on</w>
3 0</w>
cou rs</w>
a près</w>
ab ri
m a
gr ou
é li
syst ème</w>
de puis</w>
vi e</w>
m ois</w>
ou l
ac cueil</w>
ap p
h au
en n
con cer
h om
mo y
z- vous</w>
f er
f em
pri x</w>
p ec
ouver n
Ét ats-
v ille</w>
posi tion</w>
em pl
re z</w>
t on</w>
n on</w>
néc ess
p eu</w>
atégor ie</w>
v al
eu re</w>
eff ectu
m ent
eu ro
ch au
1 8
c am
m et
ten ir</w>
è mes</w>
es ti
pro t
I P
tou tes</w>
or d
av ant</w>
u re</w>
n et</w>
au tre</w>
nom bre</w>
m aison</w>
m at
i re</w>
C e</w>
organ is
po li
A N
personn es</w>
f l
po ni
parti e</w>
qu ement</w>
par t</w>
et tes</w>
201 8</w>
é ch
ex emp
for me</w>
pr im
in c
pi è
il i
c ad
détermin er</w>
pro f
atu re</w>
g ouvern
par t
pré c
sti tu
A v
el lement</w>
d oit</w>
T ou
is es</w>
m en
principa le</w>
B r
ri r</w>
ser a</w>
oi res</w>
h y
dis poni
x im
l ég
i ques</w>
d è
tri bu
ét u
a ff
heu res</w>
grap h
M o
d ro
ar ri
a te</w>
ch aque</w>
a c</w>
minu tes</w>
arm ac
in s
gu e</w>
al y
es t
or d</w>
f am
s ement</w>
v es</w>
h ôt
t ot
S t
w .
P r
c ô
v ue</w>
D i
E S</w>
b an
as se</w>
con om
no s</w>
v re</w>
C ette</w>
cou p</w>
co re</w>
it er</w>
enf ants</w>
A p
a fin</w>
f abri
fi cation</w>
servi ces</w>
ré s
ré alis
enregistr ements</w>
v r
19 9
perm et</w>
ar r
al u
utilis er</w>
at t
be au
ch i
b ase</w>
p s</w>
itu re</w>
i le</w>
t eurs</w>
ww w.
appl ic
n u
m ain
b us</w>
1 5</w>
ré e</w>
s ec
si ons</w>
c i</w>
s ous</w>
sem ble</w>
il les</w>
ass ez</w>
pa ge</w>
ter r
ten ant</w>
ni v
ch ez</w>
in es</w>
pos e</w>
d ont</w>
parti cu
1 6
A R
o r</w>
C ar
vo l</w>
IP v
k m</w>
trouv er</w>
P o
pa c
m al
mon de</w>
eu se</w>
dev r
j ourn
I N
élec tr
en tes</w>
i qu
sé cur
é conom
1 .
an ci
ol og
d on
si eurs</w>
ét ab
suiv ant</w>
b e</w>
3 ;</w>
&#9 3;</w>
ven tion</w>
1 ;</w>
&#9 1;</w>
héberg é</w>
P age</w>
a z
No te</w>
B i
qu alité</w>
ré pon
V o
ti ent</w>
h o
en c
en core</w>
res pon
op ér
j eu
ag er</w>
B o
T h
Im possible</w>
f our
inst all
n ot
er g
différ ente</w>
et t
in v
a qu
parti r</w>
2 .
gr atu
or i
s eil</w>
E x
E N
c ations</w>
ê tes</w>
po pul
fonc tionn
en d</w>
sign ée</w>
bes oin</w>
f u
é b
ti fs</w>
C O
s elon</w>
Uni s</w>
c al
con tre</w>
su b
ri g
an ge</w>
développ ement</w>
d i</w>
ic i</w>
pr endre</w>
a x
ab il
L iste</w>
er ci
L i
por te</w>
es sus</w>
exemp le</w>
ci p
a y</w>
ô le</w>
particu li
vo lu
b on</w>
s our
jus qu</w>
g ni
er a</w>
U R
es se</w>
manu el</w>
fac e</w>
mis sion</w>
équi p
ai r</w>
di t</w>
mu l
proc essus</w>
m m</w>
do cu
e z-vous</w>
plu sieurs</w>
as signée</w>
su ite</w>
c el
ai lle</w>
servi ce</w>
E R
ér is
m er</w>
s oit</w>
r is
al im
prem ier</w>
1 5
onn ement</w>
san té</w>
m ag
ti s
ex pl
sal le</w>
an aly
ai de</w>
T I
ati ve</w>
l an
j ets</w>
i ons</w>
beau coup</w>
d oi
int ér
seu lement</w>
pres sion</w>
bil ité</w>
u es</w>
è rement</w>
sécur ité</w>
c atégorie</w>
j ec
A m
rap port</w>
û t</w>
ai l</w>
i dé
2 4</w>
gr ande</w>
C o
fi er</w>
dis posi
é o</w>
M an
è g
l y
3 0
c ro
t able</w>
O u
ph ot
our d</w>
eu ses</w>
cô té</w>
v endre</w>
se ign
tou te</w>
P i
four ni
si que</w>
e d</w>
E t</w>
ch ang
C e
a m</w>
S ain
c entr
ré du
cont ac
a jou
C ou
è ne</w>
nom br
en g
inter nation
h ai
plac ement</w>
hu i</w>
concer n
2 5</w>
E s
ffi ci
s que</w>
ais ons</w>
co l
ol o
es -
vis ion</w>
end r
G u
j ourd</w>
et er</w>
1 4
or g</w>
t u</w>
pour r
du str
ac tu
i -
ab or
L E
s se</w>
cu is
g é
b ill
ce la</w>
D es</w>
travai ll
tot al</w>
mo dè
au c
M O
États- Unis</w>
r u
mat éri
euro pé
car act
derni ère</w>
ac tion</w>
IPv 6</w>
er re</w>
cham bres</w>
form ation</w>
c ap
ann ée</w>
m em
ti en</w>
mar i
t ez</w>
niv eau</w>
t ex
No tre</w>
S er
tech ni
gouvern ement</w>
résult ats</w>
a re</w>
am éli
G o
don c</w>
1 4</w>
fér ence</w>
pro jet</w>
V oir</w>
ex c
aut om
sou hai
pro xim
é du
lo g
priv é</w>
au g
l ar
am ment</w>
con di
l ou
B e
em ent
er s
armac ies</w>
B u
bu t</w>
au t</w>
stru c
év alu
tu r
1 7
h um
1 00</w>
m om
mil li
Con seil</w>
as sur
v oul
ai ll
D éc
R o
. org</w>
doi vent</w>
ê t</w>
P or
w e
re qu
tou jours</w>
tr ois</w>
N S</w>
com pos
aut or
S h
f ourn
in ts</w>
re présent
no v
dem ande</w>
D E</w>
comman d
c h</w>
b at
por ts</w>
L u
piè ces</w>
program me</w>
éri eure</w>
qu anti
prés ente</w>
man ière</w>
o x
s avoir</w>
1 3</w>
m ents</w>
cad re</w>
vi ent</w>
m ot
1 8</w>
Pro du
enn ent</w>
n um
ô t</w>
éc r
201 9</w>
T élé
ré serv
cham bre</w>
m on</w>
av ait</w>
c et</w>
b onne</w>
ca r</w>
er r
con tient</w>
prem ière</w>
res t
ac e</w>
améli or
parti cip
lu i</w>
t ements</w>
ch ar
proxim ité</w>
1 6</w>
ex tr
fi gu
applic ation</w>
met tre</w>
1 3
oi x</w>
l in
gr and</w>
si mp
Fr ance</w>
ouv rir</w>
simil aires</w>
bl an
activ ités</w>
2 4
en semble</w>
ét és</w>
R E
n or
dis t
5 0
re t
n er</w>
ri er</w>
au v
ar d
I S
E u
plac e</w>
con tin
trai tement</w>
j o
can adi
fem mes</w>
sol u
ex t
u res</w>
ten u</w>
é ment</w>
d ess
mem bres</w>
e d
ffi c
pers onne</w>
A u</w>
ord in
D é
cep tion</w>
ty pe</w>
perm et
P ré
én é
A ll
è tres</w>
nouv eau</w>
M ais</w>
qu oi</w>
In ter
O n</w>
lo c
r ant</w>
in dustr
an i
commu ni
cho is
probl èmes</w>
comp te</w>
ac cor
s .com</w>
M ot
p ér
ag ne</w>
a f
C ol
commu n
a w
ti ss
ci r
mon tr
ci -
a ffi
œ u
grou pe</w>
inform ation</w>
in i
au jourd</w>
ent aires</w>
av is</w>
li m
qu el</w>
cuis ine</w>
car te</w>
analy se</w>
v ac
re au</w>
dé fin
is c
essi onn
a -
a de</w>
dé cl
i ème</w>
m er
0 9</w>
s ouv
po int</w>
arti cle</w>
march é</w>
ati f</w>
h ab
is ion</w>
b our
iss ance</w>
D om
es pa
is tre</w>
v a</w>
ann ées</w>
t és</w>
él ev
qu er</w>
som m
en s
arti s
nouv elle</w>
e ffic
ph one</w>
pr om
li g
off re</w>
s élec
r ent</w>
ér o
E lle</w>
acc ès</w>
nécess aire</w>
3 .
g estion</w>
4 .
201 3</w>
quel ques</w>
s si
fon ction</w>
con stru
utilis ateurs</w>
p ati
er ie</w>
dist ance</w>
ven ir</w>
ca t</w>
c in
R O
li eu</w>
b al
al ors</w>
é cu
eu x
l ors</w>
C es</w>
qu é</w>
lo gi
mo de</w>
com pa
con sid
voy age</w>
abil ité</w>
sé qu
mes ure</w>
1 7</w>
a h
o ci
V i
mo di
or ig
eff et</w>
temp ér
on es</w>
probl ème</w>
s oi
grap hi
D e
en nes</w>
Eu ro
h ist
ch ev
quanti té</w>
m is</w>
graph ique</w>
dr oit</w>
P u
O r
F or
is ation</w>
j am
qu es
s h
H ôt
tiv e</w>
olog ie</w>
éri que</w>
J o
an im
com ment</w>
cor ps</w>
T E
r aison</w>
ess oires</w>
ex am
v ari
on d
c m</w>
dev ez</w>
0 00</w>
at ten
mom ent</w>
M X</w>
c au
C or
s su
entrepr ise</w>
2 1</w>
C H
c les</w>
b ar
gu es</w>
concern ant</w>
I ls</w>
b ois</w>
ais e</w>
n atu
m or
prof essionn
hôt el</w>
alis er</w>
c ats</w>
hau te</w>
4 0</w>
march és</w>
régi on</w>
con s
ati ves</w>
ai der</w>
S e
sup pl
ent aire</w>
. net</w>
utilis ateur</w>
fam ille</w>
l am
L e
O N</w>
aug ment
m a</w>
av ant
con se
comm enc
N ouv
j à</w>
A d
con du
péri ode</w>
N e
vac ances</w>
e .com</w>
a d</w>
R A
volu tion</w>
cl é</w>
ex e</w>
simp le</w>
utilis é</w>
ser ont</w>
b as
d l
pré par
su is</w>
st y
vis u
préc éd
qu estion</w>
S y
g er</w>
at te
souv ent</w>
r er</w>
caract éris
dé jà</w>
ob tenir</w>
p tion</w>
Sain t-
fabri c
is er</w>
import ant</w>
Vo tre</w>
int érieur</w>
recher ches</w>
g o
sour ces</w>
T ous</w>
com b
appar eil</w>
lis te</w>
ban que</w>
l ec
n eu
P e
main tenant</w>
mal adi
tu res</w>
Go og
ox y
min istr
l er</w>
suiv ante</w>
n e
é tr
C am
enregistr ement</w>
ques tions</w>
S al
l av
entrepr ises</w>
Goog le</w>
ou ti
consid ér
charg er</w>
as soci
c y
t om
app el
mati ère</w>
c entre</w>
Av ec</w>
v éri
v é
v it
1 9</w>
è te</w>
c s</w>
p an
P O
conn aiss
m é</w>
effectu ées</w>
g es</w>
an ç
tech n
C A
an des</w>
M i
j eu</w>
6 0</w>
oc k
disposi tif</w>
pl e
ob jec
tex te</w>
H T
v in
ab l
pa gne</w>
o l</w>
respon s
v eill
con stitu
U S
si e</w>
Com ment</w>
ad ap
cli ents</w>
ét ap
r èg
U R</w>
uni s</w>
v oi
re ven
M ét
pro pos
lou er</w>
B l
dem and
c k
dro its</w>
vo iture</w>
H om
meill eur</w>
ai ls</w>
solu tion</w>
et é</w>
condi tions</w>
m ach
Re cher
é gr
su per
T A
A vo
prot ection</w>
M in
n i</w>
ét at</w>
en -
ap pro
E m
W e
Dom aine</w>
ab lement</w>
Ph armacies</w>
is me</w>
ati ques</w>
ré gl
2 2</w>
2 5
fac il
C u
hom me</w>
é co
h e
r on
décl ar
ic ro
cou leur</w>
s k
t or
el l</w>
Com mission</w>
Produ its</w>
suppl ém
sid ent</w>
tr e
eu res</w>
nouv elles</w>
qu and</w>
ann on
disponi bles</w>
L ors</w>
pen s
t els</w>
mar s</w>
spéci fi
fourn iss
ar di
ç u</w>
pi r
â ce</w>
con fi
di re</w>
coll ec
artis tes</w>
Avo cats</w>
ex péri
f ri
som mes</w>
pl an</w>
publi que</w>
201 8
ou t
ca pac
fin anci
empl oy
Ch am
produ ction</w>
g en
éd ér
se con
o k
Ch ine</w>
devr ait</w>
étab lis
én erg
résult at</w>
enf ant</w>
poli tique</w>
t al
ét ér
tr u
lor sque</w>
ap pr
se p
tr ain</w>
dé f
olo gi
fem me</w>
it ation</w>
ar t</w>
int égr
o ins</w>
fi l</w>
mon di
rest aur
con for
ad ministr
part i</w>
con séqu
ai l
2 6</w>
é volution</w>
as tique</w>
comm erci
b ain</w>
t ari
fi ci
moy en</w>
p re</w>
propri été</w>
empl oi</w>
lu mi
ré s</w>
équi pe</w>
h or
cor rec
All em
mes ures</w>
pu is
tempér ature</w>
ac ier</w>
ri s</w>
t o</w>
g ens</w>
soci été</w>
t ée</w>
eng ag
f eu
as si
b as</w>
dl l</w>
por ter</w>
ex écu
an a</w>
dess ous</w>
re command
gar anti
su l
R ou
voul ez</w>
fi x
E S
cert ains</w>
ér ie</w>
ém ents</w>
blan c</w>
0 1</w>
ca le</w>
i a</w>
mul ti
M A
s è
s û
L I
po ly
Ac c
chau ff
o o
comman de</w>
fon d</w>
ssu res</w>
an e</w>
grou pes</w>
in vention</w>
États- unis</w>
op h
isc ine</w>
modè le</w>
fr oi
vi dé
t aille</w>
L A
ati s
mot eur</w>
id enti
appl iqu
cho se</w>
d ent</w>
médi cam
hi cu
a .com</w>
gé o
8 .
1 -
ci el</w>
des tin
sec teur</w>
étér in
po s</w>
trouv é</w>
con tribu
n oir</w>
c eux</w>
v ement</w>
on g
conn ec
prim er</w>
ren seign
a si
oc ca
c a</w>
s ci
mo bil
étu di
R i
trouv e</w>
r adi
A près</w>
si gni
z one</w>
es t-
2 8</w>
v eu
C l
ini ti
0 5</w>
génér al</w>
ê ts</w>
par ten
Ser vi
M .</w>
n on
détermin é</w>
év rier</w>
p le</w>
re -
ér o</w>
res pec
r ati
des sus</w>
201 7</w>
m él
t ent</w>
20 20</w>
it aire</w>
2 3</w>
li t</w>
b éné
O N
v ê
Allem agne</w>
dé but</w>
fon d
con st
disponi ble</w>
p ai
de -
hôt els</w>
lon g</w>
manu els</w>
V I
il li
te -
not amment</w>
peti t</w>
contac t</w>
mi eux</w>
envir onnement</w>
Euro pe</w>
du r
O n
in dre</w>
1 ,
compr end</w>
ess enti
0 .
i ères</w>
ti er</w>
val eur</w>
Pl us</w>
différ ents</w>
nation al</w>
L or
b ande</w>
pouv oir</w>
vis ites</w>
inf o</w>
nombr eux</w>
aî tre</w>
M at
L o
direc tement</w>
b es</w>
ardi n</w>
N or
U E</w>
R I
p er</w>
ré qu
S ur</w>
D NS</w>
su c
3 1</w>
program mes</w>
utilis ée</w>
M L</w>
s c
bes oins</w>
. dll</w>
9 -
ay ant</w>
con somm
en si
tr a
ent ation</w>
ch e
A g
ch oix</w>
P A
ach eter</w>
m eu
i tion</w>
8 0</w>
plu part</w>
électr ique</w>
él éments</w>
vi er</w>
po ints</w>
p eau</w>
m i</w>
ver t</w>
L E</w>
mo i</w>
y n
f évrier</w>
Ar tis
u el</w>
contr ôle</w>
5 .
f édér
espa ce</w>
compr is</w>
B ou
inv esti
situ é</w>
è ge</w>
inc lu
auc un</w>
entr ée</w>
au té</w>
t aux</w>
fonctionn ement</w>
f réqu
t t
Hôt els</w>
jam ais</w>
pro pose</w>
ch ier</w>
m embre</w>
f av
str atég
bu reau</w>
é qu
P R</w>
em bl
B ar
li qui
ill age</w>
V er
ac cu
fac ile</w>
ap pu
res sources</w>
requ ête</w>
arri v
situ ation</w>
mo der
sur face</w>
alis é</w>
C as
lo i</w>
s hi
pro pre</w>
écr an</w>
b ri
r om
hu ile</w>
l aqu
Qu éb
visu aliser</w>
in ture</w>
ti qu
alis ation</w>
U ti
œu vre</w>
ac tions</w>
com par
H ot
m ain</w>
renseign ements</w>
all er</w>
fi chier</w>
t a</w>
g am
C r
techni que</w>
l aiss
al o
2 7</w>
char ge</w>
2 3
ex ig
- clé</w>
eux ième</w>
derni er</w>
T e
ac i
b ro
gu eur</w>
cl ai
id s</w>
ét aient</w>
M aison</w>
endr oit</w>
t el</w>
jus te</w>
Québ ec</w>
appar tement</w>
N i
vis it
co û
t ête</w>
D es
bo î
chev eux</w>
for c
piè ce</w>
n av
D u
c at
o -
serv eur</w>
l ev
ordin ateur</w>
Com me</w>
cert aines</w>
c lu
Ce la</w>
oc cu
T o
sal on</w>
assur er</w>
donn é</w>
di c
sor ti
expéri ence</w>
ou tre</w>
pro ch
è tre</w>
différ entes</w>
0 ,
M al
télé phone</w>
li gn
Tou t</w>
cor respon
ang er</w>
bill et</w>
donn er</w>
Mot -clé</w>
m ou
é tique</w>
è ces</w>
ét aire</w>
géo graphi
l and</w>
sou s-
pro pos</w>
. info</w>
r age</w>
ouver ture</w>
activ ité</w>
énerg ie</w>
ist ance</w>
c it
économ ique</w>
publi c</w>
pro jets</w>
vé hicu
en voy
Su per
F em
ouver t</w>
ext érieur</w>
ett oy
cri ption</w>
Ch au
ch em
sty le</w>
A C
at re</w>
mon t
par tement</w>
S O
effic ac
C atégorie</w>
ali ères</w>
f aut</w>
mét éo</w>
ot h
r é</w>
ac k</w>
on ique</w>
évalu ation</w>
sy n
Mét éo</w>
Uti lis
b ains</w>
souhai tez</w>
ver re</w>
r a</w>
nouv eaux</w>
A ss
proc édu
fr ais</w>
al ités</w>
hau t</w>
cul ture</w>
dé cor
ver sion</w>
6 .
laqu elle</w>
R ob
HT ML</w>
P ri
il la</w>
charg ement</w>
ti tu
i ers</w>
parti es</w>
ven te</w>
déc ision</w>
es s</w>
signi fi
v u</w>
occa sion</w>
qu elles</w>
al li
rati o</w>
i um</w>
ré c
suiv ants</w>
j ardin</w>
A ch
rés eau</w>
R oy
oxy d
so l</w>
n ég
ré parti</w>
particuli er</w>
comm er
sol eil</w>
pa pi
9 0</w>
qu ez</w>
modi fi
vers ité</w>
lumi ère</w>
oc k</w>
arg ent</w>
personn el</w>
géographi quement</w>
journ alières</w>
hom mes</w>
T O
mach ine</w>
Inter net</w>
2018 -0
ad op
ju in</w>
r a
min istre</w>
d g
s au
pré ci
expl o
si m
ré uni
fi que</w>
uti ons</w>
aut our</w>
iss on</w>
év én
C al
pré fér
m icro
co ût</w>
con serv
pr ise</w>
E R</w>
A U
7 0</w>
gr âce</w>
M u
Tou tes</w>
po ids</w>
meill eurs</w>
compa gni
ci- dessous</w>
conn ex
e y</w>
derni ères</w>
T i
ém atique</w>
poli tiques</w>
opér ation</w>
t our
heu re</w>
cré er</w>
J u
A fri
ci d
milli ons</w>
tr ouver
ré gu
p iscine</w>
pass er</w>
pourr ait</w>
F i
a o
établis sement</w>
ex iste</w>
m ètres</w>
docu ment</w>
sé jour</w>
2 9</w>
docu ments</w>
gu ide</w>
H u
capac ité</w>
b â
ç a</w>
amélior er</w>
t an
M ari
sem aine</w>
d euxième</w>
r endre</w>
europé enne</w>
mu n
rap ide</w>
a z</w>
rem pl
sélec tionn
o v
in a</w>
peti te</w>
par ce</w>
J e
E t
ati fs</w>
t ac
eu r
su jet</w>
Th e</w>
Tr ouv
pr is</w>
S ou
b all
vis i
li vr
r end
vi s</w>
bu r
ai ment</w>
natu r
im age</w>
ro y
jeu nes</w>
génér alement</w>
cli mati
ac k
V ol
proc éd
Mon tr
aff aires</w>
o ffici
f lu
constru ction</w>
in te</w>
travai lle</w>
H e
rap id
tr a</w>
im pl
g e
f ais
intér ess
éri c
em placement</w>
in dé
fin anc
d or
l es
fil m</w>
t ées</w>
contin u
S elon</w>
éc an
Au c
seu l</w>
19 8
P rem
ti fi
in stitu
C E</w>
E l
th er
quel que</w>
r ôle</w>
I I</w>
ter ie</w>
sim pl
S A
fr anç
emp s</w>
7 .
con sult
éc ri
201 6</w>
o li
mil i
ris que</w>
ty pes</w>
M P
it y</w>
équip ement</w>
m e
M e
f en
concer ne</w>
lo b
C entre</w>
pa l
and s</w>
ac cep
at h
é p
gr av
su s
euro s</w>
s ites</w>
N oir</w>
déc embre</w>
nombr euses</w>
étap e</w>
bill ets</w>
tin ér
syst èmes</w>
j eux</w>
em ment</w>
Hot el</w>
fabric ant</w>
sor te</w>
vi ol
20 0</w>
D MO
o t</w>
m s</w>
a ï
tionn aire</w>
at es</w>
investi ss
2 -
cel u
DMO Z</w>
vidé o</w>
qu atre</w>
am e</w>
j an
rapid ement</w>
t elles</w>
4 0
qu els</w>
tiv es</w>
eu sement</w>
UR L</w>
su ff
di ffici
pro b
i f
3 5</w>
min ist
S I
U N
re l</w>
6 0
tro p</w>
T E</w>
vo l
mari ages</w>
z z
W in
ill ez</w>
S i
ill et</w>
d ol
s av
co p
ur g
it ement</w>
di o</w>
in er</w>
l à</w>
ph y
entr aî
m as
o f</w>
Es pagne</w>
k a</w>
ma xim
en ir</w>
li b
fourni r</w>
sû r</w>
P C</w>
lo cation</w>
commun aut
ob serv
moy ens</w>
ré sid
au -
ri l</w>
liqui de</w>
c â
C E
cel lu
on i
4 5</w>
d ate</w>
ter min
C er
génér ale</w>
pl age</w>
itu res</w>
an ni
le quel</w>
ess ay
uni que</w>
cro issance</w>
ch al
élé ment</w>
n ettoy
9 .
p el
pi ed</w>
suff is
ér it
5 -
ar ch
g ér
commenc er</w>
sé par
ag ri
bi le</w>
comp ét
st ock
ter me</w>
a éro
m us
con ception</w>
201 5</w>
é di
Bi en</w>
av o
moy enne</w>
S E
mi gr
prot ég
fr u
maladi e</w>
tr ait</w>
du rée</w>
Ce pendant</w>
en seign
t eau</w>
es sion</w>
trav ers</w>
es p
eff or
trouver ez</w>
Déc ouvrir</w>
m écan
o graph
ig n</w>
c as
b éb
aut eur</w>
b or
gratu it</w>
L oi</w>
is é</w>
ét ant</w>
tri ce</w>
po m
con form
industr ie</w>
dé mar
our r
so li
pl an
Com ité</w>
d a</w>
T ri
an g</w>
k e</w>
effectu er</w>
D E
F on
2 2
héberg ement</w>
v e
o ti
m ai</w>
Afri que</w>
fai ble</w>
aî t</w>
L oc
t embre</w>
chois ir</w>
I s
dis tribu
B er
orig in
install ation</w>
s érie</w>
l et
ell e-
t ation</w>
rou ge</w>
étab li
onn es</w>
indi vi
Ch aque</w>
LE D</w>
man ger</w>
auc une</w>
principa l</w>
Ch ar
in oxyd
di ver
dev ri
conse ils</w>
Acc essoires</w>
dis cu
Di rec
ren contr
pro gr
iss ant</w>
s qu</w>
st o
pl astique</w>
exc ell
aut o
dé s
cir cul
accor d</w>
m al</w>
R E</w>
re ce
fav or
compl et</w>
p il
pos er</w>
Ét at</w>
S an
t ôt</w>
E st
at oire</w>
am éric
pr atique</w>
logi ciel</w>
dé e</w>
ais se</w>
hist oire</w>
mé d
is sion</w>
ob lig
nation ale</w>
n ature</w>
D I
phot o</w>
modè les</w>
it al</w>
for t</w>
tr an
ren forc
étu des</w>
to bre</w>
ap propri
T -
C I
ch im
dou ble</w>
B el
res te</w>
supplém entaires</w>
tr im
in ten
tinér aire</w>
Sy st
C et</w>
mu ni
A L
o k</w>
v étérin
ti tre</w>
ré sou
h e</w>
S am
N ord</w>
v res</w>
rou te</w>
h an
t h</w>
iv er</w>
F il
P er
jan vier</w>
form ul
so ins</w>
ch ers</w>
arri ère</w>
ag ré
popul aire</w>
d ér
ac qu
étu de</w>
acc essoires</w>
li n</w>
heu r
techni ques</w>
s ensi
tiv ement</w>
ang l
h ô
vr aiment</w>
R es
reg ar
qu ant</w>
as su
W h
nu it</w>
ci ens</w>
tro du
Lor sque</w>
abor ation</w>
autom atique</w>
ob jet</w>
figu re</w>
f ont</w>
struc ture</w>
pos sè
c o</w>
mê mes</w>
T S</w>
facil ement</w>
I tal
on g</w>
0 2</w>
ca f
enti er</w>
g ag
papi er</w>
Ph ot
bour g</w>
m e-
num éro</w>
tr adi
E T</w>
mar que</w>
pré sident</w>
comb in
G rou
R est
is tes</w>
y .com</w>
précéd ent</w>
dé pen
dét ails</w>
co le</w>
do ssi
D is
lu min
ouver te</w>
ch é</w>
commer ce</w>
utilis e</w>
contr ô
él è
import ants</w>
sou tien</w>
pr en
caractéris tiques</w>
pro vin
C li
A S
t elle</w>
po l
pl ani
c ér
n é</w>
F er
P ay
n g</w>
régi on
techn ologie</w>
r ac
201 4</w>
3 2</w>
l anc
z e</w>
m l</w>
av oc
ai e</w>
ag it</w>
am is</w>
b re
im médi
M er
du e</w>
ch age</w>
rédu ire</w>
ai gn
sep tembre</w>
résou dre</w>
ch ac
ma j
avoc ats</w>
pro che</w>
o w
ri en</w>
industr i
prés ent</w>
av ril</w>
ph armac
B at
ad u
M ag
k ing</w>
Par is</w>
min im
iv re</w>
ec teur</w>
c ab
ni e</w>
Roy au
fon ds</w>
w or
m ation</w>
g az</w>
occu p
mili eu</w>
p ing</w>
ac h</w>
i ge</w>
cin q</w>
o is
b elle</w>
rel i
chi ers</w>
éli min
em por
an k</w>
v er</w>
am ique</w>
f re
th ématique</w>
t i</w>
gr andes</w>
y a</w>
ser ait</w>
direc tion</w>
5 00</w>
év iter</w>
per for
Ré sult
oi rs</w>
ex per
L in
meill eure</w>
Cou leur</w>
r ay
p ôt</w>
particuli èrement</w>
exam en</w>
acc essi
th é
è que</w>
0 4</w>
We b</w>
h t</w>
cli ent</w>
m ess
re ç
conn ue</w>
sour ce</w>
dé part</w>
w s</w>
D ét
t abl
ar t
bâ ti
an o</w>
Mo dè
spéci alis
U S</w>
r y
conséqu ent</w>
Ital ie</w>
ju illet</w>
0 3</w>
utilis és</w>
c .</w>
vi ennent</w>
trans port</w>
e ils</w>
s er</w>
m an</w>
béné fici
fi chiers</w>
0 6</w>
Su d</w>
orig ine</w>
actu ellement</w>
oc tobre</w>
Jo h
Auc un</w>
om e</w>
ten sion</w>
fr on
lu t
atégor ies</w>
Uni on</w>
h ode</w>
n a</w>
compl è
ê me</w>
par l
Montr é
gratu itement</w>
diffici le</w>
ti ère</w>
3 -
avo cat</w>
intér êt</w>
Ét ats</w>
n é
G e
mu si
ca les</w>
S oci
x e</w>
qu elle</w>
no te</w>
répon se</w>
Rest aur
Gu ide</w>
dé b
utilis ant</w>
dis pose</w>
A P
sur veill
oi gn
fam ili
internation al</w>
al l</w>
0 8</w>
hab itu
cl és</w>
k it
li en</w>
outi ls</w>
Man uel</w>
engag ement</w>
suc c
objec tif</w>
import antes</w>
pu issance</w>
pl at
4 2</w>
is i
mon tre</w>
arr ê
9 -0
seu le</w>
4 8</w>
Ne w</w>
eff ets</w>
t- être</w>
ou se</w>
produ c
au ne</w>
pour quoi</w>
Chau ssures</w>
TI ON</w>
pro pr
o d
alim entation</w>
im porte</w>
télé charger</w>
ar ds</w>
suiv antes</w>
T V</w>
d ès</w>
M a
ré férence</w>
cou leurs</w>
V al
gr os</w>
O R
internation ale</w>
aff ec
fonc tions</w>
télé vision</w>
tiss u</w>
2 8
v él
mu sique</w>
im mobil
tr on
fai tes</w>
P our
l ation</w>
lar ge</w>
M I
li c
médicam ents</w>
matéri el</w>
T y
phot os</w>
pour rez</w>
2 ,
g lob
terr asse</w>
bl eu</w>
én ag
br u
T u</w>
s age</w>
p ê
T u
m ouv
E L
Montré al</w>
devr aient</w>
op ti
L am
O b
con centr
P ers
suiv re</w>
ins cri
avant age</w>
C -
l aire</w>
ao ût</w>
réalis ation</w>
cou che</w>
di d
ch ange</w>
4 -
0 7</w>
s ens</w>
nécess aires</w>
popul aires</w>
prés ence</w>
Recher che</w>
S k
pa sse</w>
form ations</w>
Tr ans
2 6
connex ion</w>
D er
se in</w>
ri ère</w>
c elle</w>
possi bilité</w>
L un
G ar
vê tements</w>
te fois</w>
ti ers</w>
mét al</w>
popul ation</w>
cau se</w>
gam me</w>
journ ée</w>
communi cation</w>
soi ent</w>
lar s</w>
f um
Résult ats</w>
Artis te</w>
S an</w>
con ten
conn u</w>
pr ises</w>
conse ill
h onn
chi ff
dis pos
Super marchés</w>
béb é</w>
for mes</w>
arti cles</w>
m auv
garanti e</w>
P al
v ues</w>
it aires</w>
tin g</w>
vit esse</w>
A t
b lo
R us
h er
oti di
non -
possè de</w>
m ém
ter re</w>
app el</w>
m ère</w>
t- il</w>
L ou
dol lars</w>
vi e
iss ons</w>
d -
effic ace</w>
co lor
20 00</w>
réserv er</w>
di s</w>
o eu
dé s</w>
s auv
2018-0 9-
organis ation</w>
cou cher</w>
ë l</w>
nov embre</w>
â ge</w>
co de</w>
simpl ement</w>
Qu el
visit eurs</w>
3 6</w>
vo ls</w>
F re
im prim
t end
régu li
Gr and</w>
posi tions</w>
er -
ari at</w>
pl a
M ad
b on
dev ant</w>
s enti
y l
or ique</w>
europé en</w>
S ty
s atis
T ur
D ou
eu ve</w>
moder ne</w>
cl ass
vi c
cu ir</w>
a h</w>
s ac</w>
par mi</w>
iss ent</w>
F A
res ter</w>
s pec
perfor man
2 7
cl as
t ons</w>
ann eau</w>
h ors</w>
envir onn
contac ter</w>
Royau me-
ouv rez</w>
terr it
objec tifs</w>
t ourn
cré ation</w>
di rig
s ection</w>
200 6</w>
p les</w>
f rig
en qu
co s
regar der</w>
av i
tru c
cert ain</w>
tiv ité</w>
qu otidi
è ce</w>
is se</w>
b ord</w>
h ar
cho ses</w>
è rent</w>
permet tant</w>
trouv és</w>
S péci
er ont</w>
ex erci
vi n</w>
ch in
S ol
F in
con tenu</w>
ail les</w>
dou che</w>
dé l
aill eurs</w>
i tinéraire</w>
aur a</w>
l and
oy ez</w>
ach at</w>
ob ten
e z-
idé e</w>
3 8</w>
olog ique</w>
at ement</w>
On tari
en suite</w>
propri étés</w>
S tr
us ine</w>
201 2</w>
prom o
soci étés</w>
enti èrement</w>
vis ite</w>
trav aux</w>
Ap partement</w>
d n
3 4</w>
es ter</w>
mati ères</w>
st ati
4 1</w>
ologi es</w>
ple in</w>
pass ante</w>
e k
gr é</w>
dé mo
opér ations</w>
véhicu le</w>
B lan
in fr
Em placement</w>
ri di
in nov
ch aî
v an
ag rap
B an
is ol
Ontari o</w>
Am érique</w>
propr es</w>
pl at</w>
F I
ajou ter</w>
Télé charger</w>
Pi èces</w>
in et</w>
appar eils</w>
compl ète</w>
im ages</w>
on c
maladi es</w>
4 4</w>
canadi enne</w>
mét hode</w>
si è
lor squ</w>
si onn
200 5</w>
l ati
v eux</w>
o te</w>
as h
is -
ourr iture</w>
entre tien</w>
é cou
ab ord</w>
S ch
uni vers
avant ages</w>
h ér
C ap
fai te</w>
Fem me</w>
ac s</w>
N e</w>
v ou
ag ent</w>
mét ho
matéri aux</w>
V ente</w>
lon g
B al
in ée</w>
v end
déclar é</w>
P ol
M eill
c al</w>
or dre</w>
E N</w>
appar tements</w>
con sul
anim aux</w>
indi qué</w>
oi e</w>
consomm ation</w>
dis position</w>
p eux</w>
201 0</w>
l è
régi me</w>
procédu re</w>
7 5</w>
financ ement</w>
li que</w>
procéd é</w>
z ones</w>
mo du
Q ue</w>
Can adi
ac el
R u
bu dg
cur r
op tion</w>
b er</w>
por té</w>
ti rer</w>
édu cation</w>
par agrap
r am
compr endre</w>
T or
S T
régl ement
3 6
sem bl
au x
tr ou
Qu and</w>
celu i</w>
tionn el</w>
au près</w>
alu min
atte indre</w>
feu ille</w>
e g
mondi ale</w>
ci n</w>
re froi
ol f</w>
f t</w>
S U
œ ur</w>
d onne</w>
cour ant</w>
conn aître</w>
travaill er</w>
à -
200 7</w>
B ro
9 9</w>
atten tion</w>
Cham bre</w>
peti ts</w>
ic k</w>
con vient</w>
pac t</w>
ec i</w>
L A</w>
sorti e</w>
import ante</w>
S te
chau d</w>
ven u</w>
fourniss eurs</w>
P as</w>
vi v
ven tu
200 8</w>
tr oph
f ille</w>
esti m
n o</w>
re ur</w>
Pri x</w>
lon gue</w>
ologi ques</w>
câ ble</w>
Su p
H y
dur able</w>
bat terie</w>
atu res</w>
s on
il l</w>
gram me</w>
indivi du
organis mes</w>
An dr
trans fer
des ign</w>
élev é</w>
électr onique</w>
A in
k e
J eux</w>
ach et
b a</w>
pl i
ven ue</w>
A D
inc roy
G en
nor m
IPv 4</w>
chang ements</w>
ati vement</w>
outi l</w>
ch t
situ ée</w>
Av ant</w>
S oyez</w>
M as
v illes</w>
L O
perm is</w>
p aux</w>
o ss
ju ridi
ret our</w>
terr ain</w>
cr it
professionn els</w>
t â
M or
for ce</w>
hab it
A jou
do s</w>
5 5</w>
mél ange</w>
C ad
pass é</w>
l arg
A V
Ain si</w>
exig ences</w>
ver ti
direc t</w>
jou er</w>
hy dr
pr atiques</w>
Servi ces</w>
chang ement</w>
tionn elle</w>
B as
utilis ez</w>
P I
3 3</w>
pri or
étr ang
t ard</w>
ex ist
dé si
ais es</w>
fabric ants</w>
N O
oi d</w>
C onn
un ité</w>
Loc ation</w>
o le</w>
é clai
au che</w>
lég u
li re</w>
ré par
alo gue</w>
meill eures</w>
régi ons</w>
iss ez</w>
a po
uti le</w>
di am
V oi
ris ques</w>
port ant</w>
tiv ités</w>
administr ation</w>
ph armacies</w>
st ock</w>
annon ces</w>
m y
U ni</w>
sci enti
frig ér
4 7</w>
re çu</w>
sou ff
sub st
it ez</w>
canadi en</w>
C R
économ ie</w>
m enti
ô mes</w>
s w
di vers</w>
o re</w>
l as
con clu
ou bli
boî te</w>
ch és</w>
ri e</w>
ten ti
Ré publique</w>
honn eur</w>
plac er</w>
ré es</w>
pa th
Utilis ez</w>
immédi atement</w>
ex port
N on</w>
voi e</w>
. ca</w>
. r
l ande</w>
répon dre</w>
P S
sup érieure</w>
iss eur</w>
h iver</w>
sol utions</w>
S itu
appel é</w>
exc lu
al ie</w>
mari age</w>
fi é</w>
ç ons</w>
jo int</w>
permet tre</w>
ass embl
réuni on</w>
lég is
é ni
2 9
ét age</w>
fl ex
3 5
8 0
m 2</w>
reven di
il lu
aéro port</w>
G al
pé ti
plac es</w>
ci- dessus</w>
princi paux</w>
alumin ium</w>
R et
pouv ons</w>
correspon d
sti ques</w>
200 4</w>
G E</w>
pa ges</w>
jeu ner</w>
cl in
mo t</w>
ju st
di e</w>
m ains</w>
ex ac
H am
Mon t
su ffi
déc ri
po tenti
c re
é ventu
y -
w n</w>
s ex
num érique</w>
dic tionnaire</w>
angl ais</w>
em ball
coû ts</w>
di vis
C a
gr ands</w>
matéri au</w>
sélec tion</w>
indé pend
ter mes</w>
exemp les</w>
Grou pe</w>
niv eaux</w>
201 1</w>
employ és</w>
li er</w>
i des</w>
trouv ent</w>
s port</w>
fédér al</w>
pos é</w>
anti ll
circul ation</w>
lu n
donn ée</w>
franç ais</w>
Quel ques</w>
gu erre</w>
peti tes</w>
uni quement</w>
Te ch
lon gueur</w>
z i
lib ér
complè tement</w>
ser ve</w>
li bre</w>
ch ron
augment ation</w>
priv ée</w>
efficac ité</w>
end ant</w>
ou rs</w>
or ti
confi r
1 1
C i
O c
peu t-être</w>
arti er</w>
p a</w>
f our</w>
es te</w>
hy dro
M EN
inoxyd able</w>
f er</w>
règ les</w>
climati s
si n</w>
In formations</w>
C ro
siè cle</w>
An n
er t</w>
Tr av
v as
6 -
co opération</w>
can did
vétérin aire</w>
é pa
es .com</w>
200 3</w>
c oin</w>
rés istance</w>
cit oy
b y</w>
lim it
suiv i</w>
pr end</w>
endr a</w>
M aisons</w>
compa gn
c ité</w>
vis ant</w>
l at
c k</w>
7 -
No m</w>
M us
sto ol
pe inture</w>
shi re</w>
sup primer</w>
provin ce</w>
B I
G re
ett ent</w>
di tion</w>
P D
alim entaire</w>
r ê
Est -
stool kit
appu y
stoolkit .net</w>
dn stoolkit.net</w>
H er
200 9</w>
Mi ch
ca pa
S tu
éco le</w>
off rir</w>
S -
tra jet</w>
ce -
all ez</w>
cl air</w>
anti -
Au tres</w>
Rus sie</w>
C our
p neu
chau ssures</w>
per man
pr it</w>
commun auté</w>
organis ations</w>
gar der</w>
4 6</w>
as pec
ajou té</w>
par am
r ot
Lun ettes</w>
s cri
di men
3 00</w>
R en
l it
M E
règ lement</w>
Bo î
su g
nor mes</w>
sup port</w>
Sty le</w>
su re</w>
o les</w>
am b
c ent
ro se</w>
m et</w>
Modè le</w>
Royaume- Uni</w>
con curr
étudi ants</w>
cher ch
3 7</w>
u sion</w>
caf é</w>
F i</w>
compagni e</w>
Pour quoi</w>
méd ec
y p
connaiss ance</w>
dé cr
ér ap
c on</w>
dé jeuner</w>
travaill eurs</w>
ax e</w>
fru its</w>
3 ,
av aient</w>
M E</w>
spécifi ques</w>
gt emps</w>
per tin
f leurs</w>
Ar ti
effor ts</w>
vo itures</w>
applic ations</w>
Recher cher</w>
com position</w>
ati quement</w>
ograph ie</w>
dis tin
ti r
N E
3 D</w>
al og
Su jet</w>
cri min
tri ques</w>
10 0
fabri cation</w>
minist ère</w>
ég ard</w>
par c</w>
Der ni
le y</w>
lan gue</w>
gratu ite</w>
lon gtemps</w>
bou ton</w>
tr adu
paragrap he</w>
D on
prof iter</w>
M ain
É qui
Al ex
tabl eau</w>
g are</w>
succ ès</w>
d el
a tr
p u</w>
Uni versité</w>
ann u
t ori
ag ue</w>
av anc
ti ce</w>
P an
iss ement</w>
st ation</w>
cir cu
Hom me</w>
import ance</w>
3 9</w>
su it</w>
y eux</w>
off res</w>
c atégories</w>
ét aires</w>
ti onne</w>
is ions</w>
clas sique</w>
g al
mar che</w>
Pré sident</w>
Ach eter</w>
A b
pr êt</w>
d ang
c ent</w>
éch antill
m ement</w>
P ap
mon tant</w>
parten aires</w>
s pa
è de</w>
San té</w>
Av ez-vous</w>
I r
C N
è nes</w>
di ag
pro ches</w>
confor table</w>
in trodu
Bu reau</w>
véri fier</w>
ch ap
f ins</w>
appro che</w>
av ions</w>
chauff age</w>
av e</w>
supplém entaire</w>
as t</w>
d aire</w>
r ue</w>
ad ul
g lis
- B
en z
R ég
ti me</w>
Ré serv
e illi
migr ation</w>
e ds</w>
s ph
con seil</w>
nég oci
p â
M ach
sy mp
vis age</w>
él ég
a j
se aux</w>
dét aill
com ité</w>
cou pe</w>
l ent</w>
r aisons</w>
direc teur</w>
P arti
Q U
N ations</w>
médicam ent</w>
menti onn
métho des</w>
man d
acel et</w>
extr ém
O ff
ig h
m ique</w>
car bu
C O</w>
rel ations</w>
alim ents</w>
V is
ad er</w>
fi ques</w>
mém oire</w>
st and
évén ement</w>
sem aines</w>
étap es</w>
l ab
pen se</w>
ex ter
U n
CO N
Andr oid</w>
feu illes</w>
con f
Cer t
et c.</w>
in o</w>
natu rel</w>
sk i</w>
ai m
entraî n
â teau</w>
P E
ci eux</w>
at tribu
A ffi
pres que</w>
lign es</w>
ac teur</w>
mag ni
Servi ce</w>
chal eur</w>
éri eures</w>
transfer t</w>
crit ères</w>
el d</w>
suffi t</w>
Pr ot
lan gues</w>
et c</w>
Blan c</w>
derni ers</w>
.r u</w>
du re</w>
Bl eu</w>
4 5
b ar</w>
dis que</w>
é tiqu
che f</w>
E d
B O
con cep
3 8
tri ces</w>
at tr
part ager</w>
idé al</w>
con figu
cl asse</w>
dé li
A M
restaur ant</w>
S é
protég er</w>
g o</w>
Voi ci</w>
principa lement</w>
S ur
D V
ver tu</w>
De puis</w>
disposi tions</w>
sur tout</w>
équip ée</w>
is ième</w>
s aison</w>
4 3</w>
principa les</w>
pr ess
D r
plu tôt</w>
de cin</w>
rem ar
re aux</w>
ré di
dis sement</w>
sal les</w>
Ou vert</w>
promo tion</w>
at el
is és</w>
livr aison</w>
ré si
No s</w>
ex position</w>
val eurs</w>
propri étaire</w>
g es
p p
comp ati
environn ement
en se</w>
d o</w>
cer tifi
pou ss
H ar
mouv ement</w>
ber g</w>
re té</w>
Hôt el</w>
r an
a k</w>
J us
D -
aiss ance</w>
c œur</w>
6 5</w>
rou l
T err
emp ê
rap ports</w>
9 5</w>
restaur ants</w>
Or gan
H O
p ère</w>
au l
R ap
aur ait</w>
réalis er</w>
fai ts</w>
k i</w>
g auche</w>
pro vo
eux -
dé es</w>
A us
tu n
oo d</w>
Win do
T aille</w>
Im age</w>
t ables</w>
am our</w>
sy m
im pression</w>
comm ission</w>
D el
201 9-0
m aisons</w>
par ents</w>
L iv
v aiss
200 2</w>
s tu
7 0
qu it
dom aines</w>
C D</w>
e m</w>
P S</w>
vi a</w>
s ais</w>
1 er</w>
tr ic
volu me</w>
pou dre</w>
av enir</w>
li és</w>
Al ors</w>
si x</w>
d é</w>
pati ents</w>
inf lu
ar a</w>
ven tions</w>
br an
n ourriture</w>
ten ue</w>
aut eurs</w>
soci al</w>
exerci ce</w>
correc tement</w>
en i
pr euve</w>
f ils</w>
f eu</w>
Ph ili
voy ez</w>
cré é</w>
par ler</w>
chac un</w>
ém a</w>
v illage</w>
surveill ance</w>
conform ément</w>
SO A</w>
en cour
laiss er</w>
perm ettent</w>
ap préci
k il
is ant</w>
cl us</w>
sur -
économ iques</w>
asi n</w>
accessi ble</w>
am i</w>
diver ses</w>
sub cat</w>
Vo l</w>
c elles</w>
v ég
200 1</w>
professionn el</w>
A T
it anni
ex te</w>
on y</w>
op tions</w>
n al</w>
mo bile</w>
Windo ws</w>
cul aire</w>
jeu ne</w>
explo itation</w>
particip ation</w>
S on</w>
respons able</w>
évén ements</w>
dro ite</w>
En suite</w>
signifi e</w>
rédu ction</w>
Trouv ez</w>
M c
m ée</w>
B lu
ent er</w>
élev ée</w>
on or
ti ennent</w>
ment ation</w>
to il
am bi
agré able</w>
bou te
véri fication</w>
5 1</w>
T R
for te</w>
acc ro
Ap pl
discu s
consul ter</w>
condu c
V illa</w>
o di
lati n</w>
Pro pri
t our</w>
in é</w>
compét ences</w>
e x</w>
cht ones</w>
inter ne</w>
5 4</w>
spéci al</w>
Pe ti
tr o</w>
S ec
publi cs</w>
mis es</w>
confi ance</w>
Ret our</w>
Br u
mé decin</w>
ac compagn
4 9</w>
è se</w>
um ents</w>
ang le</w>
v ais</w>
Pro gramme</w>
A ir</w>
re pas</w>
ac ide</w>
C ré
ab s
i les</w>
v inci
h auteur</w>
dé cid
su d</w>
int ég
R em
4 8
gen res</w>
stratég ie</w>
D iv
inter nes</w>
C A</w>
con férence</w>
cap it
est- ce</w>
Rou ge</w>
5 2</w>
or k</w>
lu xe</w>
S im
s ch
soci ale</w>
pourr aient</w>
t oire</w>
or e
cr ème</w>
Ty pe</w>
essay er</w>
d yn
confor t</w>
vis iter</w>
t .com</w>
Ou i</w>
h ou
es prit</w>
y au</w>
vis ions</w>
on -
man if
devri ez</w>
tro isième</w>
install er</w>
ac tif</w>
H au
com .
éri eurs</w>
t ab
compr en
vari été</w>
pos te</w>
m age</w>
log ement</w>
qu és</w>
D onn
g é</w>
ph ase</w>
demand er</w>
r ang
autor ités</w>
médi as</w>
p én
éch elle</w>
stock age</w>
t ér
a o</w>
ré frigér
D o
ic k
O p
sup érieur</w>
id ité</w>
ci vi
oi le</w>
con çu</w>
ac er</w>
connaiss ances</w>
In di
fais ant</w>
it ec
D em
su ng</w>
chang er</w>
Q u</w>
établi r</w>
super marchés</w>
an dis
g h
activ e</w>
not er</w>
Déc ouvrez</w>
produ ire</w>
bi ens</w>
fourni t</w>
augment er</w>
gen re</w>
a des</w>
us age</w>
ffi ce</w>
E lec
prem ières</w>
Sal le</w>
st er</w>
Dét ails</w>
V eu
G i
F ac
G ro
dang er
ch ou
cli quez</w>
cou l
ex er
pr ét
soci aux</w>
oeu vre</w>
sign al</w>
A -
nav ig
tou che</w>
dem andes</w>
Ti tres</w>
Mat éri
K ar
5 3</w>
musi ciens</w>
S o
qu et</w>
cu l</w>
ô me</w>
is ée</w>
comm ence</w>
8 8
c en
e y
S ant
Hom e</w>
cul tur
vi vre</w>
symp t
fen être</w>
ati onn
compagni es</w>
qu artier</w>
coll aboration</w>
cau s
Veu illez</w>
g ris</w>
arriv ée</w>
aw a</w>
l oin</w>
bli oth
F abri
con tenir</w>
ais ir</w>
cal me</w>
L av
US B</w>
rel atives</w>
fréqu ence</w>
L ond
Sam sung</w>
Par lement</w>
Canadi ens</w>
at ou
télé chargement</w>
E ff
entr er</w>
ain ement</w>
qu ée</w>
li e</w>
vaiss elle</w>
comm entaires</w>
a just
per te</w>
ter n
trai te</w>
déc isions</w>
comm un</w>
a éri
PO UR</w>
è le</w>
cu pér
appr ouv
B or
cour t</w>
mondi al</w>
cellu les</w>
d ence</w>
fonc tionne</w>
ou n
t es
pl antes</w>
impl iqu
formul aire</w>
d .com</w>
C our</w>
E ss
du rant</w>
V étérin
fac teurs</w>
ext érieure</w>
montr es-
F ai
j aune</w>
po ign
om b
è ve</w>
affi r
k er</w>
im pact</w>
c er</w>
19 7
prépar ation</w>
ser t</w>
r ation</w>
expl iqu
H D</w>
Be au
mo d
cal cul
4 ,
we b</w>
veu t</w>
é vi
fil ms</w>
particip ants</w>
demand é</w>
ven ant</w>
r ais
9 9
mar ques</w>
am ent
install ations</w>
it re</w>
lut te</w>
re présente</w>
d ur</w>
actu elle</w>
utilis ées</w>
illu str
W or
1 50</w>
v oit</w>
fr aî
z on
M il
s in
loc aux</w>
er i
pê che</w>
e k</w>
centr ale</w>
recommand é</w>
ri el</w>
jou x</w>
d in
reven u</w>
t ateur</w>
F lor
ab r
mor t</w>
bâti ment</w>
R C</w>
cher cher</w>
. com.
défin i
Ag ence</w>
ar s</w>
In formation</w>
j et
c ouver
pl aque</w>
compos é</w>
pai ement</w>
i m</w>
ré d
ro its</w>
Ar g
commenc é</w>
N um
is ent</w>
pres se</w>
C at
cou p
B us</w>
Restaur ants</w>
com port
mess age</w>
développ er</w>
et er
É tiqu
o ot
co t
li vre</w>
ti n</w>
R É
pi eds</w>
am a</w>
gt on</w>
t y</w>
compos ants</w>
trai ter</w>
prem iers</w>
néc ro
f r</w>
v ont</w>
chem in</w>
ap prendre</w>
g no
H ist
enqu ête</w>
présent er</w>
pharmac ie</w>
m ur</w>
- 10
vers aire</w>
équ ili
B ri
ir a</w>
di minu
mon tres</w>
ess eur</w>
am i
poli ce</w>
ser ez</w>
A I
r o</w>
u ss
par fois</w>
z a</w>
chaî ne</w>
ti mes</w>
v ul
sou lign
e b
Artis tes</w>
vég ét
th e</w>
cam pagne</w>
nettoy age</w>
ti l
financi ère</w>
o .com</w>
L ES</w>
An gl
Ro se</w>
techn ologies</w>
Pr o</w>
F u
rece voir</w>
investiss ement</w>
it eur</w>
d ot
ac tifs</w>
contin ue</w>
au di
Q UE</w>
logi es</w>
ni s</w>
Ar ch
tionn els</w>
veu illez</w>
3 7
Com mun
struc tions</w>
Joh n</w>
vis e</w>
l i</w>
gar de</w>
as truc
Main tenant</w>
ak e</w>
ci er</w>
nom s</w>
c ateur</w>
st atu
f é
P RO
commerci al</w>
emball age</w>
T un
déc ouvrir</w>
fr an
graphi ques</w>
Mon tres</w>
Est- ce</w>
R ec
4 00</w>
t est
d el</w>
ter a</w>
ouv re</w>
S C
nécro logies</w>
j a</w>
j i
in ation</w>
con ç
intér êts</w>
V ue</w>
écri re</w>
titu de</w>
Aus tr
an -
montr er</w>
el i
représent ant</w>
ic ité</w>
dossi er</w>
fi c</w>
modifi cations</w>
Situ é</w>
en du</w>
Tou tefois</w>
m ol
sec teurs</w>
P lu
pil ote</w>
éri ques</w>
l et</w>
al co
d avantage</w>
ré per
ré ception</w>
phy sique</w>
et -
Fr anç
af ri
contr at</w>
5 6</w>
micro -
all em
f us
v ill
n er
puis que</w>
Télé chargement</w>
F am
ist ant</w>
r ons</w>
gr oss
î le</w>
princi pes</w>
ré cupér
distribu tion</w>
ju di
port able</w>
P -
carbu rant</w>
av ion</w>
compr ennent</w>
ti é</w>
m oi
e w
recommand ations</w>
Vol s</w>
prépar er</w>
8 -
port ée</w>
fam illes</w>
D u</w>
5 9</w>
k g</w>
an ie</w>
respons abilité</w>
P E</w>
bur g</w>
appliqu er</w>
véhicu les</w>
de venir</w>
t est</w>
V ic
b an</w>
form er</w>
Di eu</w>
t s
fil les</w>
F ourn
man che</w>
troph ées</w>
par king</w>
W i
ord -
san g</w>
P C
trans par
p ital</w>
on des</w>
M ême</w>
i- Fi</w>
or ge</w>
vê tement</w>
su jets</w>
él abor
e f</w>
o ine</w>
R èg
bil ités</w>
In stitu
affi chage</w>
si f</w>
c é</w>
li ber
D A
am e
inf ec
I ci</w>
P ou
cont exte</w>
ob tenu</w>
in tes</w>
cham p</w>
pai x</w>
dépen ses</w>
ang es</w>
v illa</w>
v aut</w>
. n
is sions</w>
d on</w>
S M
vo lon
E UR
r on</w>
ai rement</w>
En tre
pré sid
el lig
urg ence</w>
équip ements</w>
qu ali
arrê ter</w>
g ène</w>
l ang
quel qu</w>
diag no
t on
param ètres</w>
mét alli
itanni que</w>
d en</w>
cab inet</w>
com porte</w>
déclar ation</w>
renforc er</w>
H ol
pré vu</w>
diff usion</w>
dét ail</w>
inter médi
envoy é</w>
cu lt
D A</w>
aut ant</w>
destin ation</w>
W i-Fi</w>
at ell
c élè
mi r
dét ach
es c
5 8</w>
oi les</w>
dél ai</w>
exper ts</w>
M icro
f au
démo cr
d y
cl assi
entr et
C eci</w>
dou leur</w>
Cam ping</w>
str uments</w>
réc emment</w>
bou t</w>
reg istre</w>
es tiv
p it
car tes</w>
S S
sympt ômes</w>
i p</w>
Syst ème</w>
E -
de vient</w>
ent é</w>
trim oine</w>
tu be</w>
lo cale</w>
rel ation</w>
M y
pe ints</w>
esp èces</w>
An d
procédu res</w>
re z-vous</w>
D év
rend ement</w>
gouvern ement
ch ent</w>
répon d</w>
ob jets</w>
mati n</w>
f f</w>
co or
ad hé
r t</w>
s ession</w>
pré férence</w>
ti fication</w>
tan dis</w>
glob ale</w>
budg et</w>
out chou
éclai rage</w>
e p
co ton</w>
ai der
m at</w>
ass er</w>
s oir</w>
Sain t</w>
heur eux</w>
e ant</w>
disponi bilité</w>
ch an
s t</w>
sec r
am es</w>
princi pe</w>
L ire</w>
a dé
L an
rem bour
g ique</w>
A B
op in
ren d</w>
H or
U I
3 9
institu tions</w>
pati ent</w>
Dév elopp
Ch i
V ill
refroi dissement</w>
citoy ens</w>
hist orique</w>
i ci
amélior ation</w>
ê tres</w>
s por
beau té</w>
vi gueur</w>
for d</w>
l ine</w>
assur ance</w>
ré g
s ili
pi erre</w>
qu ent</w>
cad eau</w>
bi t</w>
A ir
lat ér
bou ill
bal l</w>
éd er</w>
er n
P eu
inf érieure</w>
ar es</w>
pouv ant</w>
L im
M ul
Pro f
is tique</w>
ti ck
v an</w>
prot é
Sec r
pen sion</w>
b one</w>
dét ec
S ac</w>
ex pé
con tenant</w>
prob ablement</w>
F l
incroy ablement</w>
c lo
b us
Car act
4 6
res s
par fait</w>
go ût</w>
rig ht</w>
maj or
A éro
di pl
n ord</w>
légu mes</w>
A ff
199 9</w>
meu bles</w>
dis par
pr on
C ode</w>
ill er</w>
Ajou ter</w>
in clus</w>
G I
réalis é</w>
l ait</w>
organis me</w>
h am
chin ois</w>
y ez</w>
Pré vision</w>
appu i</w>
5 7</w>
T P</w>
p in
di ffi
Al ber
outchou c</w>
l é</w>
or er</w>
Po w
P au
f is
atte int</w>
mis si
pér im
â tre</w>
g a</w>
exécu tion</w>
spéci ale</w>
ch e-
In scri
stand ard</w>
é po
maxim um</w>
V en
li ens</w>
No ël</w>
A s
pay er</w>
blioth èque</w>
Par k</w>
ouv oir</w>
m b
Min ist
Fem mes</w>
tu g
Lu x
Gr âce</w>
err eurs</w>
pl as
performan ce</w>
défin ition</w>
oni c</w>
man que</w>
th ème</w>
cher chez</w>
k s</w>
bal con</w>
circu it</w>
I gu
B ur
v érit
a g</w>
fourniss eur</w>
ev er</w>
it ations</w>
at oires</w>
T er
a pon
pro vinci
extr ê
p anneau</w>
2 50</w>
pan ier</w>
P endant</w>
ar bre</w>
caract ère</w>
élec triques</w>
cér é
capac ités</w>
ag er
Y ork</w>
indi que</w>
ic ation</w>
ti le</w>
M me</w>
érit age</w>
neu f</w>
infr astruc
d en
H o
s éri
comm une</w>
br acelet</w>
ré solution</w>
d ge</w>
compl exe</w>
voy ager</w>
D or
S orti
estim ons</w>
ren ouv
cy cle</w>
ag ents</w>
p ét
chau de</w>
on iques</w>
l e-
ér a</w>
N om
cré dit</w>
dossi ers</w>
d ri
réalis és</w>
évalu er</w>
rel ativement</w>
t empor
Minist ère</w>
b aign
e bo
c .com</w>
iv es</w>
Bat eaux</w>
Wh ois</w>
Lu min
envoy er</w>
E C</w>
ch ir
ré sol
Au tom
D istr
all ons</w>
diagno sti
Ban que</w>
apo n</w>
V C</w>
C S
V idé
permet tra</w>
ex cep
att end
is ter</w>
véri fi
pir ation</w>
Ass oci
écri t</w>
Re command
at er</w>
d ens
er ez</w>
fond ament
b o</w>
th é</w>
g el
pré nom</w>
communi cations</w>
V O
pr is
l its</w>
per du</w>
L y
représent ants</w>
W il
E l</w>
car di
présent é</w>
ai gu
4 7
B en
rencontr é</w>
Con tac
D C</w>
march andis
inf lam
main tenir</w>
N eu
s ho
Spéci alisé</w>
Li ens</w>
b eau</w>
it ant</w>
d enti
décri t</w>
Soci été</w>
afri c
end roits</w>
AU X</w>
C lu
P os
s oin</w>
ec h</w>
D O
h a</w>
magni fique</w>
K o
ai me</w>
vit am
k r
décor ation</w>
hy po
S w
bi o
C y
S ell</w>
S il
fai tement</w>
Igu ana</w>
Caract éris
im ag
Trouv er</w>
A li
olo gne</w>
enti ss
I R
x y
centr al</w>
x -
Fer me</w>
Étiqu eté</w>
9 8</w>
établis s
ti ge</w>
ch auss
J apon</w>
pneu s</w>
in age</w>
différ ence</w>
uti les</w>
D I</w>
nation aux</w>
internation ales</w>
eu il</w>
jus tice</w>
9 0
mo sph
secon de</w>
m it
k i
l ac</w>
ou est</w>
s el</w>
. fr</w>
b ons</w>
li ées</w>
anci en</w>
Cu is
et tre</w>
reç oit</w>
is ées</w>
dé pl
devri ons</w>
fu t</w>
spécifi que</w>
auto chtones</w>
constitu e</w>
al lu
arri ve</w>
c anc
dou x</w>
c ouverture</w>
chi en</w>
com péti
Tr ès</w>
pl ans</w>
er ait</w>
d û</w>
coll ection</w>
muni ci
ce pendant</w>
G o</w>
ré uss
or ation</w>
int ellig
loc al</w>
en- être</w>
lev er</w>
M ac
particip er</w>
ro be</w>
fi r
re change</w>
requ is</w>
concurr ence</w>
plani fier</w>
de aux</w>
po t</w>
in structions</w>
enseign ement</w>
adul tes</w>
ann ul
Austr alie</w>
ant al
stati stiques</w>
En vir
plac é</w>
possi bilités</w>
compren ant</w>
cep ti
install é</w>
résid ence</w>
V oy
trans mission</w>
di x</w>
ré fér
t ap
é tro
e e</w>
it ali
ca n</w>
B re
en v
par faitement</w>
Au to
g on
cons ac
modi fier</w>
reven us</w>
l ac
P R
extrém ité</w>
alog ie</w>
ing s</w>
natur elle</w>
Fr anc
vir us</w>
U r
Je an</w>
N I
g as
ch ets</w>
proch aine</w>
pré occup
k o</w>
charg é</w>
b lu
tri b
ing .com</w>
fre in</w>
fé min
M B
p .com</w>
essenti el</w>
E r
tari fs</w>
vr ai</w>
sé journ
p sy
att ach
eilli r</w>
int érieure</w>
fil tre</w>
D eux</w>
cl é
Uni es</w>
O tt
C entr
si eur</w>
s il
M o</w>
B es
ré el</w>
les quelles</w>
Mach ine</w>
ess es</w>
k .com</w>
ann eaux</w>
o m</w>
ér ation</w>
l d
par tout</w>
P L
5 00
pa s
ab sor
Car te</w>
cons ci
PD F</w>
Col l
ess ai</w>
froi d</w>
dé m
C ity</w>
réfrigér ateur</w>
co les</w>
télé ph
es ter
am ents</w>
ot tes</w>
Ass embl
12 0</w>
ic a</w>
ven tes</w>
flu x</w>
n ou
lec teur</w>
V ê
w are</w>
ai es</w>
to i</w>
car bone</w>
Com bien</w>
per dre</w>
si ège</w>
at mosph
Re g
b onnes</w>
connec té</w>
pré vention</w>
Au jourd</w>
J ou
pl ain
m asse</w>
ot te</w>
règ le</w>
D ES</w>
gér er</w>
continu er</w>
m ages</w>
Ar t</w>
por tes</w>
p y
Po int</w>
dét en
G én
tâ che</w>
cr ist
ther mique</w>
l o</w>
élé br
o ise</w>
préc ision</w>
ch ance</w>
personn alis
cert ainement</w>
199 8</w>
les quels</w>
s é</w>
as t
. exe</w>
6 4</w>
MEN T</w>
f or</w>
dé ci
A fin</w>
respec t</w>
C V</w>
cour riel</w>
communaut és</w>
form at</w>
ré seaux</w>
d an
connec ter</w>
dé pend
adap té</w>
ac es</w>
s atell
v ar
mo tif</w>
b oi
un ités</w>
vél o</w>
bu l
pro fil</w>
T H
Es t</w>
C ab
ch on</w>
off rent</w>
chim iques</w>
Tur qu
st er
cont empor
l d</w>
rédu it</w>
Tech n
u lt
M en
territ oire</w>
condi tion</w>
ic s</w>
anim al</w>
te z-
dev ons</w>
N u
O ffice</w>
bre v
lav e-
progr ès</w>
natur elles</w>
P om
prob able</w>
alis te</w>
D an
bl ement</w>
ati e</w>
co eur</w>
ca outchouc</w>
dépen d</w>
C in
Nouv elle-
ré serve</w>
p o</w>
re cu
Gr èce</w>
tend ance</w>
om ètres</w>
phy si
op tique</w>
lam pe</w>
pr ouv
Rob es</w>
vi ande</w>
au rez</w>
X -
mo ts</w>
subst ances</w>
A vis</w>
bat eau</w>
mach ines</w>
cop y
présent ation</w>
cons iste</w>
cham pi
communaut aire</w>
des cription</w>
B A
ch u
v ain
communi quer</w>
8 5</w>
rel ative</w>
ti on
br û
diam ètre</w>
ét oiles</w>
to x
at a</w>
arch itec
S ci
professionn elle</w>
fil tr
T ex
lo cales</w>
â g
financi ers</w>
en vie</w>
u le</w>
voy ag
off er
part ag
br ill
servi r</w>
exter ne</w>
veu lent</w>
V ille</w>
G ol
p au
c eau</w>
Ott awa</w>
aff aire</w>
Bel gique</w>
pl aisir</w>
T C</w>
ay a</w>
lég èrement</w>
S om
L t
mu r
ri ch
ér er</w>
in stru
ç ant</w>
T emp
for ces</w>
vo is
P res
Ph one</w>
L aw
atel ier</w>
juridi que</w>
h en
t ém
épa isseur</w>
prom ouvoir</w>
tionn ement</w>
s ais
Boî te</w>
ot a</w>
ré ci
X L</w>
Équi p
cr ise</w>
r us
internation aux</w>
acc él
pass age</w>
Cu ir</w>
marchandis es</w>
pr int
In de</w>
capa ble</w>
combin aison</w>
radi o</w>
ti ères</w>
Règ lement</w>
Lond res</w>
to r</w>
in gton</w>
a che</w>
contribu er</w>
gr and
élimin er</w>
associ ée</w>
Nouv e
intermédi aire</w>
ap h
Br un
can ap
men u</w>
i- ci</w>
dé sign
s col
soi gn
av en
as ins</w>
b asse</w>
PO R
T ro
tempér atures</w>
mar t
b el
l abor
bi les</w>
T able</w>
rap pel
tionn elles</w>
P a
met ure</w>
décid é</w>
dom mages</w>
est- il</w>
acc éder</w>
Pu bli
liber té</w>
th érap
Com mer
vir tu
publi é</w>
al tern
B on
g ri
annon ce</w>
er ons</w>
c aux</w>
iss u</w>
H D
F R
lic ence</w>
av ance</w>
P as
co u</w>
5 ,
6 1</w>
moi tié</w>
phot o
ch en
es tre</w>
b ation</w>
d ez</w>
An ti
f ar
condu ite</w>
arr êt</w>
am us
pres t
tr on</w>
cu ill
L a
lab els</w>
con c
ri vi
mag asin</w>
pe ine</w>
condu it</w>
M -
fourn i</w>
dem an
c c</w>
légis l
EUR O
har mon
let tre</w>
l ai
s eur</w>
améric ain</w>
flex i
copy right</w>
Ch ris
re fl
Man u
ag ir</w>
idé es</w>
soli de</w>
f ant
essenti elles</w>
canadi ennes</w>
S tre
initi ative</w>
ing rédi
ém issions</w>
S a</w>
li eux</w>
C C
innov ation</w>
boi tier</w>
G ES</w>
Pro c
Vê tements</w>
comman des</w>
ach eté</w>
pro position</w>
l é
r y</w>
nation ales</w>
ré nov
él aboration</w>
chois i</w>
T A</w>
dé fi
aut -
a la</w>
3 00
ch rom
Po li
suffis amment</w>
gouvern ements</w>
Caractéris tiques</w>
st e
M AR
nu tri
pl ante</w>
conséqu ence</w>
H P</w>
mauv aise</w>
Ou est</w>
as es</w>
Sorti es</w>
publi ques</w>
D ri
Con vention</w>
O ri
O r</w>
radi o
d ents</w>
Par oles</w>
plani fication</w>
in i</w>
Trav ail</w>
autom atiquement</w>
compl ex
un d
cen tres</w>
simp les</w>
se -
and a</w>
intégr ation</w>
s able</w>
te aux</w>
milli ards</w>
w ood</w>
ag u
gén ère</w>
et h
médi cal</w>
trans fér
particip é</w>
cr u
Des cription</w>
è n
abs ence</w>
ét h
cri p
co ff
sci ences</w>
ent -
a trice</w>
n étique</w>
vi de</w>
lo t</w>
en ce
é pi
hum aines</w>
n au
R om
Su isse</w>
Donn ées</w>
W al
b act
c ôt
act eurs</w>
b y
ét en
Be ach</w>
éch ange</w>
trouv ez</w>
affi che</w>
j ection</w>
dé co
M ode</w>
Direc teur</w>
lim ite</w>
suc re</w>
tot ale</w>
fer me</w>
de g
6 00</w>
fi bre</w>
lég er</w>
man ager</w>
20 20
h ol
ex périm
pom pe</w>
In c</w>
k o
st ér
rap p
S ans</w>
sus cepti
om bi
El les</w>
pr êts</w>
B M
6 8</w>
N E</w>
. de</w>
hu man
re vêtement</w>
Assembl ée</w>
In dustr
g out
minim um</w>
mél ang
intégr é</w>
dou te</w>
B as</w>
clai rement</w>
off rant</w>
N ot
cy lin
sou tenir</w>
is ez</w>
lon gues</w>
puis se</w>
Con tr
étr anger</w>
6 7</w>
ai g
fu gi
f e</w>
C D
trai rement</w>
maxim ale</w>
reg ard
M ex
l ing</w>
J ac
reli gi
boî tier</w>
blan che</w>
min ér
r è
l our
S E</w>
dé bu
visi onnement</w>
ar ité</w>
diff us
b elles</w>
p auv
re comman
modu le</w>
p ain</w>
Cert ains</w>
A L</w>
.co .
m in</w>
major ité</w>
iss age</w>
nécess ité</w>
A i
t ax
in qui
Con se
d it
L on
c ateurs</w>
mes ur
am en
A sie</w>
m ente</w>
inclu ent</w>
Bl ack</w>
ins pec
rési l</w>
6 6</w>
5 7
rece v
tir oir</w>
S ar
épo que</w>
ét an
pos ée</w>
autom ne</w>
mand at</w>
initi atives</w>
M os
opti mis
Pau l</w>
Gén ér
y m
spec tac
génér ation</w>
en ci
sex u
Pl an</w>
B -
P AR
pro fon
A z
h onor
danger eux</w>
le aux</w>
y me</w>
h ori
enti el</w>
Sant a</w>
Fr an
s én
pl ats</w>
P ager
10 .
Ac tivités</w>
édi tion</w>
test aments</w>
lumi ères</w>
discus sion</w>
ch ant</w>
log ique</w>
scienti fiques</w>
int age</w>
employ é</w>
Pers onn
B résil</w>
Pager ank</w>
en vis
An nu
des sin</w>
is h
tran si
form é</w>
gram mes</w>
6 2</w>
W at
z h
in d
différ ent</w>
AN T</w>
pr ati
g el</w>
entiss age</w>
t- elle</w>
cop ie</w>
sol aire</w>
S ony</w>
m o</w>
M M
Qu elle</w>
esti me</w>
tick et</w>
l ois</w>
meu ble</w>
trai té</w>
por tun
rou tes</w>
br as</w>
alim entaires</w>
F C</w>
O S</w>
Turqu ie</w>
g ation</w>
respons ables</w>
nu clé
montr é</w>
en a</w>
g re
R adi
Con trairement</w>
bl é</w>
excell ent</w>
franç aise</w>
lin ge</w>
détach ées</w>
ac cr
correspon d</w>
ex ception</w>
Mul ti
ph én
kil omètres</w>
pens er</w>
autom o
éd é</w>
pl aît</w>
O M
inter net</w>
i- même</w>
Ver t</w>
lang age</w>
ar ts</w>
extrê mement</w>
las er</w>
u sure</w>
ti ll
is tres</w>
aî tr
h am</w>
fac es</w>
sign al
étab li</w>
aut on
lec ture</w>
à- dire</w>
rais onn
G er
préfér able</w>
Développ ement</w>
on to</w>
Com muni
DV D</w>
b loc
C re
man ches</w>
pé tro
nouv el</w>
j ac
ap porter</w>
cert aine</w>
is- je</w>
appropri é</w>
Pr om
pi re</w>
effectu é</w>
P éri
D U</w>
Clu b</w>
Ch em
B our
Ne w
B C</w>
viol ence</w>
m és</w>
Tun is
jo indre</w>
pa trimoine</w>
ad di
si gne</w>
En tr
Nouv eau</w>
In st
er reur</w>
a ér
L og
P iscine</w>
d its</w>
e z
sc ène</w>
gr an
est- à-dire</w>
moder nes</w>
cu isson</w>
Com p
judi ci
lu i-même</w>
In t
ori ent
d y</w>
caractéris é</w>
199 7</w>
procéd er</w>
c ell
En fin</w>
on ni
K i
Don c</w>
estiv al</w>
pro por
Meill eurs</w>
signifi c
empl ois</w>
vérit able</w>
pou ces</w>
aspec ts</w>
6 3</w>
répon ses</w>
ó n</w>
m én
di manche</w>
Cli quez</w>
boute ille</w>
c tions</w>
end s</w>
Recommand é</w>
sug gér
contribu tion</w>
Inter national</w>
S P
er .com</w>
réglement ation</w>
ch ée</w>
ju g
2 1
revendi cation</w>
Ex pl
ple ine</w>
cour se</w>
eff ec
T ER
appr entissage</w>
30 1</w>
anni versaire</w>
coll abor
ni que</w>
ne ige</w>
50 .
aiss ent</w>
G ris</w>
br on
Associ ation</w>
Ac tu
Et at</w>
To p</w>
bi joux</w>
at e
V éri
E UR</w>
S ho
réserv ation</w>
réguli èrement</w>
sti mul
financi er</w>
fav eur</w>
An non
f lor
F R</w>
shi rt</w>
Is ra
S t-
bact éri
f ou
inv ités</w>
av er
elop pe</w>
X I
ci els</w>
ent endu</w>
aul t</w>
Phot o</w>
m â
parten ariat</w>
Bes oin</w>
j us</w>
A G
di a</w>
po isson</w>
cour te</w>
Institu t</w>
ré action</w>
v ap
sor t</w>
ent ôt</w>
am énag
actu el</w>
considér é</w>
A U</w>
T V
consomm ateurs</w>
Commer ce</w>
dyn amique</w>
vidé os</w>
Aff aires</w>
disposi tifs</w>
potenti el</w>
b att
in o
Qu els</w>
mil itaire</w>
Cuis ine</w>
ar i</w>
au ri
précéd ente</w>
expéri ences</w>
l u</w>
pos és</w>
f e
personn alisé</w>
canadi ens</w>
eu e</w>
gno l</w>
Tor onto</w>
inter vention</w>
in és</w>
is tiques</w>
S port</w>
9 ,
an o
déf ense</w>
opér ationn
L -
déf aut</w>
priv és</w>
plu ie</w>
Fon ds</w>
tou tefois</w>
ré alité</w>
possi bles</w>
ar mes</w>
iss ante</w>
hé s
5 5
M oy
s ait</w>
p eur</w>
E C
inten tion</w>
Sé cur
bou tique</w>
Q C</w>
identi fier</w>
han di
hum ain</w>
î tre</w>
cos mé
consult ation</w>
celu i-ci</w>
O uti
A cier</w>
aug mente</w>
F ri
Qu el</w>
per mé
deg rés</w>
solu ment</w>
n oire</w>
D ur
w ay</w>
ét ais</w>
investiss ements</w>
ré fl
ré cep
fai ll
ss es</w>
proch ain</w>
E L</w>
dé sor
célè bre</w>
op portun
associ és</w>
gar age</w>
M on</w>
Pi erre</w>
T ag
g él
a- t-il</w>
statu t</w>
Mon sieur</w>
N ation
mont agne</w>
cô te</w>
v oix</w>
6 ,
manif est
pe int</w>
W est</w>
cu s</w>
modi fication</w>
Je an-
Organ isation</w>
Num éro</w>
d ant</w>
qu ées</w>
hum idité</w>
C ali
inst ant</w>
f ête</w>
10 00</w>
et wor
dé pu
cou ches</w>
A ni
si ve</w>
comp ter</w>
pa ssi
mauv ais</w>
N A
Annu aire</w>
résol u</w>
co -
rempl ir</w>
ne y</w>
es pér
hum ains</w>
v ér
let tres</w>
éventu elles</w>
ex prim
199 6</w>
b ét
ad missi
Fil ms</w>
propos é</w>
nation alité</w>
lt ;</w>
& lt;</w>
ven us</w>
aim ez</w>
chac une</w>
des ign
abl e-
conten ues</w>
30 2</w>
ac compl
T issu</w>
sep t</w>
rem erci
au dio</w>
M es
cherch eurs</w>
G éné
trib utions</w>
Mu sique</w>
Derni ères</w>
t ent
i Phone</w>
exam iner</w>
é ti
chiff res</w>
scienti fique</w>
M ir
cu le</w>
graph ie</w>
ar y</w>
ce aux</w>
mont age</w>
L L
élec tro
re cours</w>
Hom mes</w>
Alex a</w>
É tu
dr a</w>
inf érieur</w>
ic t</w>
p ist
d il
conserv ation</w>
du es</w>
Off res</w>
sorti r</w>
appl ique</w>
7 2</w>
dé chets</w>
print emps</w>
financi ères</w>
B os
ai mer
réc ente</w>
In trodu
cor por
famili ar
M el
j apon
évalu ations</w>
correspond ant</w>
S eu
Com par
tis sus</w>
Direc tion</w>
th èse</w>
ret ourn
recher chez</w>
y er</w>
end om
vic times</w>
x .com</w>
abil ités</w>
défi s</w>
co pi
C T
Et ats</w>
mu rs</w>
Ap ple</w>
ré fugi
out h</w>
f ec
B lo
av ais</w>
t ailles</w>
T ab
facil iter</w>
w it
fer meture</w>
accor ds</w>
électr oniques</w>
b aisse</w>
pro venant</w>
L aur
alco ol</w>
8 00</w>
att endre</w>
am or
S av
Gr atu
Géné alogie</w>
e- ville</w>
développ é</w>
Fam ille</w>
dé pôt</w>
éco les</w>
pren ez</w>
h ém
ter res</w>
heur eusement</w>
aci er-
K e
mécan isme</w>
E X
r ur
it a</w>
de hors</w>
entraîn ement</w>
w i
ic ô
M S
au- dessus</w>
ar k</w>
rivi ère</w>
c élébr
R -
secon d</w>
3 3
è s-
dem i-
car rière</w>
em pr
cu ivre</w>
parten aire</w>
ici le</w>
inoxyd able-
h al
efficac es</w>
acier- inoxydable-
C ô
fabri qué</w>
Gr ande</w>
el e
G ouvern
lav er</w>
y er
con que</w>
én or
sau f</w>
w an</w>
stratég ique</w>
préc is
séjourn er</w>
d at
Beau coup</w>
U l
secon daire</w>
espa ces</w>
y cl
d éri
préc ise</w>
ar me</w>
c ens
Pay s-
minu te</w>
nor me</w>
main tien</w>
côt és</w>
as k
personn els</w>
Aéro port</w>
in ement</w>
is mes</w>
bi entôt</w>
gn on</w>
pl ant
vas te</w>
we b
autor ou
K u
canc er</w>
2. 0</w>
excell ente</w>
k b
pro fond
d am
Por t</w>
col onne</w>
con e</w>
re ti
Mus ée</w>
collec tivités</w>
m ir</w>
énag ers</w>
Ré s
v ez-vous</w>
inscri re</w>
Pay s</w>
H éritage</w>
fonctionn alités</w>
région al</w>
Tri bu
identi fi
ass istance</w>
t es-
j e
fi eld</w>
préci s</w>
Ch ev
H ou
opti m
Qu elles</w>
J ourn
so r</w>
t age</w>
R ank</w>
m ail</w>
pré voit</w>
ann exe</w>
ver rou
trans ports</w>
indi ces</w>
médec ins</w>
Introdu ction</w>
soi rée</w>
ass age</w>
Lux em
end rier</w>
gag ner</w>
fin ition</w>
cou ple</w>
adé qu
opin ion</w>
a .
ch et</w>
établiss ements</w>
micro- ondes</w>
garanti r</w>
Tr ai
ist an</w>
g in
civi le</w>
conseill er</w>
ol s</w>
Prem ier</w>
er gi
Sup primer</w>
An t
st a</w>
et erre</w>
iv al
électr icité</w>
particu les</w>
6 9</w>
particuli ère</w>
sign es</w>
fix e</w>
li vres</w>
class ement</w>
conséqu ences</w>
const at
s ec</w>
F E
réalis ée</w>
lo re</w>
I II</w>
légis lation</w>
t é
d us</w>
v o</w>
ingrédi ents</w>
bo issons</w>
x i
pers pec
cid ent
7 7
poign ée</w>
gross esse</w>
m g</w>
g az
ing éni
Bru x
ri che</w>
H I
ré vél
coul oir</w>
s pir
comp tes</w>
d oc
oc é
fi bres</w>
spéci ales</w>
ég al</w>
gratu its</w>
fi ez</w>
D avi
or t</w>
Com m
S ports</w>
cou per</w>
Por tug
écr its</w>
envir ons</w>
IN E</w>
e ille</w>
10 -
sym bo
b ag
S élec
pla fond</w>
satell ite</w>
pos t
re di</w>
syn di
comp ens
8 ,
s avez</w>
s exe</w>
vé ni
dom icile</w>
sélectionn er</w>
ch lor
oi ff
man i
toil ette</w>
pré serv
Angl eterre</w>
Im migration</w>
cam éra</w>
p ô
constru ire</w>
l a
Min i</w>
S pe
climatis ation</w>
en- tête</w>
f leur</w>
vi eux</w>
re conn
18 4.
génér ales</w>
2018 -10
9 2</w>
M A</w>
échantill on</w>
Tou te</w>
familiar iser</w>
vétérin aires</w>
cér amique</w>
as h</w>
U V
cul p
pré cip
g olf</w>
fer a</w>
on ie</w>
im pres
ad o</w>
fourni e</w>
Br itannique</w>
spéci aux</w>
der rière</w>
médec ine</w>
n aissance</w>
as ses</w>
pourr a</w>
Arch ives</w>
te feuille</w>
ent ement</w>
rê ve</w>
et ez</w>
mag asins</w>
a pr
Eff acer</w>
réserv oir</w>
Ex emp
Cham bres</w>
G ard
H en
T hom
L is
inter prét
anci enne</w>
T im
ru p
Luxem bourg</w>
B us
ag o</w>
aspec t</w>
4 2
j ard
Arti cle</w>
ob st
cou rir</w>
présent ant</w>
V all
on e
sal aire</w>
posi tif</w>
organ es</w>
L um
ch ement</w>
E T
ann uel</w>
équip é</w>
rem placement</w>
candid ats</w>
S cot
lumin eux</w>
su i
ach es</w>
tiss ement</w>
publi cité</w>
pay sage</w>
conserv er</w>
er res</w>
cu e</w>
configu ration</w>
mar k
tâ ches</w>
M ou
g .com</w>
Par mi</w>
in struments</w>
bi en-être</w>
Davi d</w>
ét ariat</w>
0 -
S hi
form ule</w>
sou mis</w>
can al</w>
ch ées</w>
Tribu nal</w>
it ent</w>
è re-
v ège</w>
publi cation</w>
Commun auté</w>
Col ombi
.n ame</w>
C ul
ab solument</w>
K it</w>
métalli que</w>
conform ité</w>
H ot</w>
ic ations</w>
pos ées</w>
limit ée</w>
M arti
p ection</w>
commerci aux</w>
cap teur</w>
bar re</w>
Es pa
pour ri
con ver
199 5</w>
larg eur</w>
g ie</w>
l ad
par le</w>
performan ces</w>
ot es</w>
Vétérin aires</w>
Péri ode</w>
L U
ins cription</w>
ch at</w>
s acs</w>
En f
val u
propri étaires</w>
jou eur</w>
tom be</w>
Con sult
n ée</w>
fr om
fer mé</w>
par all
ach ats</w>
9 6</w>
identi té</w>
c av
6 7
v ez</w>
Rap port</w>
ré pu
I S</w>
T ES</w>
agri culture</w>
M éd
c ann
FA Q</w>
ess ais</w>
3 2
m am
arr êts</w>
compar ateur</w>
Matéri el</w>
revendi cations</w>
de x</w>
ten eur</w>
vap eur</w>
C .</w>
Nor vège</w>
Lam pe</w>
l ing
et age</w>
soci ales</w>
ex pression</w>
Su iv
su res</w>
IS O</w>
D en
réuni ons</w>
o des</w>
adop té</w>
D ol
ét er</w>
el la</w>
de gré</w>
él arg
HT TP</w>
- je</w>
chim ique</w>
cli mat</w>
mus ée</w>
concentr ation</w>
pré al
milli ers</w>
ay ez</w>
bu reaux</w>
dét ection</w>
habit ants</w>
direc tive</w>
mo tifs</w>
Con férence</w>
organis er</w>
élev ées</w>
héberg ements</w>
elle- ci</w>
ebo ok</w>
men er</w>
on de</w>
Brux elles</w>
n ez</w>
propos ent</w>
com pose</w>
h tt
L it
alis me</w>
inf ection</w>
ordin aire</w>
compati ble</w>
l ée</w>
arti cul
m onn
Pe inture</w>
Gal ax
mo des</w>
bl es
W C</w>
ar bres</w>
étrang ers</w>
Pu is-je</w>
docu mentation</w>
ty s</w>
chiff re</w>
de venu</w>
S pr
tionn aires</w>
s ac
fin al</w>
pâ te</w>
Y ou
terr or
S T</w>
fi ce</w>
M I</w>
16 8.
tionn é</w>
hum aine</w>
Plu sieurs</w>
M ur
U L
Pays- Bas</w>
C ot
tr ine</w>
associ é</w>
annon cé</w>
direc te</w>
ti ne</w>
lave- vaisselle</w>
a tri
Cali for
am po
O ù</w>
offici el</w>
fix ation</w>
Nouv elle</w>
rencontr er</w>
Conn ec
1 20
profond eur</w>
t oile</w>
recommand ons</w>
n d</w>
con fér
appar ition</w>
rou tière</w>
S and
F e
Isra ël</w>
natur els</w>
prior ités</w>
destin é</w>
ég lis
om ie</w>
multi ples</w>
dom es
d ates</w>
origin al</w>
ph r
Arg ent</w>
pou ssi
ment aires</w>
D ev
clin iques</w>
lo s</w>
cor d</w>
pertin entes</w>
Po st
t onnes</w>
particuli ers</w>
tu yau</w>
ar ab
par oi</w>
de au</w>
H ouse</w>
PA GES</w>
ren du</w>
ag nes</w>
S A</w>
A N</w>
Restaur ant</w>
f as
or donn
cult és</w>
Pers onne</w>
M AN
H um
st ade</w>
for um</w>
T abl
cr ois</w>
Produ c
oblig ations</w>
5 -0
Télé phone</w>
larg ement</w>
agri cole</w>
distin c
concer t</w>
end rez</w>
bat tre</w>
cl ar
6 8
rec ettes</w>
logi ciels</w>
cre di</w>
centr e-ville</w>
EURO PAGES</w>
for tement</w>
cu re</w>
com bien</w>
ur b
inclu re</w>
antal on</w>
S au
fi ée</w>
or iques</w>
secon des</w>
r i</w>
C H</w>
R ome</w>
diagnosti c</w>
chem inée</w>
améric aine</w>
re traite</w>
fréqu ents</w>
immobil ier</w>
ouver tes</w>
appro visionnement</w>
ég alité</w>
Law yer
É l
quotidi enne</w>
dé lég
s ent
L es
9 1</w>
G estion</w>
ill on</w>
Lawyer tys</w>
dimen sions</w>
précis ément</w>
P A</w>
é or
Franç ais</w>
ren contre</w>
th étique</w>
so ft</w>
jeu n
e .
dom in
s en</w>
du -
M et
port ent</w>
al s</w>
entrepr en
b anc
t oit</w>
vi vent</w>
T en
Ri ch
diffi cultés</w>
st on</w>
ri re</w>
commerci ale</w>
éri r</w>
g er
progr essi
Temp ér
san gu
jou eurs</w>
nécess ite</w>
prom en
2020 -0
en venue</w>
d ale</w>
ro b
équili bre</w>
V ir
éten due</w>
compr im
as er</w>
Dou ble</w>
7 5
pré visions</w>
ér é</w>
désor mais</w>
om étr
un es</w>
con tributions</w>
pré venir</w>
î ner</w>
bas é</w>
expl ique</w>
Lumin aires</w>
v ant</w>
inter face</w>
struc tures</w>
péri odi
po i
li aison</w>
co l</w>
sélectionn é</w>
im possible</w>
hydr au
T RA
F li
ti ens</w>
B ay</w>
architec ture</w>
F -
chauss ée</w>
m ac
ci pl
c -
ci en</w>
Galax y</w>
l y</w>
entret enir</w>
con vention</w>
dis crimin
al -
Pré par
t ol
os si
pro positions</w>
équ ival
comb us
S S</w>
S t</w>
1 10</w>
doi g
Bou tique</w>
pouv ait</w>
E M</w>
ati n
èg es</w>
ét hy
d ois</w>
éch anges</w>
P in
Stre et</w>
C â
co m</w>
con vain
st abilité</w>
00 1</w>
Colombi e-
plat e
donn ant</w>
tes ts</w>
A C</w>
pol lu
on a</w>
or y</w>
C os
rè gl
7 -0
senti r</w>
d am</w>
viv ant</w>
aux quels</w>
ro s
- montres-
al d</w>
fil tres</w>
v eau</w>
S C</w>
situ ations</w>
ograph e</w>
couver cle</w>
er ies</w>
Ch ois
D R</w>
Vidé o</w>
Envir onnement</w>
tr op
2 B</w>
ï des</w>
Lt d</w>
pron onc
appel er</w>
R éc
y le</w>
men é</w>
ci dent</w>
effectu ée</w>
sou pe</w>
f t
hu it</w>
tr ique</w>
gl ace</w>
aut h
anci ens</w>
appropri ée</w>
S ite</w>
P VC</w>
exac tement</w>
pla ques</w>
Fai tes</w>
commun s</w>
bas es</w>
im mun
com pré
un g
t ch
Colombie- Britannique</w>
in aire</w>
pro long
pi k</w>
pon t</w>
ordin ation</w>
atmosph ère</w>
jou é</w>
he ader</w>
répar ation</w>
équi pes</w>
Ch al
provin ces</w>
réd acteur</w>
fi able</w>
l ar</w>
hy per
vi l</w>
défin ir</w>
H al
F OR
si mul
a ques</w>
stratég ies</w>
ré parti
20 21</w>
del à</w>
charg ez</w>
ber t</w>
F ond
élè ves</w>
d age</w>
Distr ict</w>
car ton</w>
mess ages</w>
bru it</w>
b log
e ch
6 3.
comport ement</w>
H el
m aîtr
dis cipl
psy ch
p s
G olf</w>
rel ev
visi ble</w>
péri ph
commerci ales</w>
ouv r
T our
our ces</w>
un i</w>
rot ation</w>
sensi bil
C el
Th e
fourni s</w>
Nor th</w>
renouv el
I l
ri d</w>
184. 168.
4 00
Hau te</w>
bâti ments</w>
lim ites</w>
rel ax
Tag s</w>
avant ag
pro to
di alogue</w>
a el</w>
correc tions</w>
9 4</w>
démar rer</w>
fédér ale</w>
N av
publi cations</w>
isi rs</w>
r ist
pom mes</w>
D ate</w>
a x</w>
9 3</w>
milli on</w>
O s
dé partement</w>
f ol
oy er</w>
d aires</w>
8 8</w>
allem and</w>
for êt</w>
cl av
Con go</w>
réfugi és</w>
p aire</w>
199 4</w>
aut euil</w>
vou s-
lun di</w>
aider a</w>
trans form
im primer</w>
re fus
ar n
id a</w>
J eu</w>
B E
augment é</w>
po che</w>
um s</w>
ol et</w>
associ ation</w>
industri el</w>
utilis ent</w>
C I</w>
D U
mécan ique</w>
déri v
ma qu
t ali
collec te</w>
dou ce</w>
mag nétique</w>
nettoy er</w>
concep t</w>
tr ou</w>
ad or</w>
mou sse</w>
cl am
papi ers</w>
immobil ières</w>
ob a</w>
hô tes</w>
conduc teur</w>
par faite</w>
Phili ps</w>
inter ven
autor isation</w>
lanc er</w>
perman ent</w>
a b</w>
europé ens</w>
personn elles</w>
appro bation</w>
adop tion</w>
fi t</w>
do se</w>
des c
souhai te</w>
ex is
Res to
chap itre</w>
cal cul</w>
Utilis ation</w>
p anneaux</w>
obst ac
ats- Unis</w>
ai r
accu eillir</w>
compos és</w>
pro jec
proté ines</w>
é o
blo c</w>
pré vue</w>
contr ain
ke ting</w>
ann es</w>
T an
C ir
P P
. ...</w>
nav i
lég ère</w>
R os
Ni ke</w>
contac ts</w>
gr aines</w>
empê cher</w>
le ad
entr ées</w>
G -
fin ale</w>
sem i-
enc re</w>
dispos ent</w>
d s
Mex ique</w>
gl y
Des ign</w>
P én
S in
or ces</w>
ap parti
fac tion</w>
dé plac
Wor ld</w>
Y u
I T</w>
effor t</w>
Uni vers
P ê
L au
199 0</w>
déb arr
ré n
err an
in con
ti es</w>
lis s
hori zon
D r</w>
transi tion</w>
er o</w>
iss aire</w>
H z</w>
handi cap
ori entation</w>
B ir
ic al</w>
aur ont</w>
po inte</w>
Mer ci</w>
grav es</w>
ag ers</w>
pô ts</w>
cad eaux</w>
fac teur</w>
contr aire</w>
cl u</w>
En semble</w>
respons abilités</w>
Rou tes</w>
hen sion</w>
z .com</w>
fen êtres</w>
tu rel</w>
Stu dio</w>
influ ence</w>
w .com</w>
n et
Ir lande</w>
labor atoire</w>
intéress ant</w>
gu id
X i
prior ité</w>
export ations</w>
s te</w>
S H
P N
Et ats-Unis</w>
Bar cel
ré su
our eux</w>
atten tivement</w>
renforc ement</w>
S .
ic o</w>
it erran
Ap par
pr u
lo cations</w>
Im ages</w>
S em
pl aqu
20 2.
respec ter</w>
spécialis és</w>
alis tes</w>
s ens
to p</w>
artis te</w>
av ez-vous</w>
s ame
hau sse</w>
di versité</w>
con tiennent</w>
cro y
vend redi</w>
it h
dé bit</w>
Exemp le</w>
An aly
J eu
port eur</w>
re pér
s .
ci um</w>
P y
inscri t</w>
élec tions</w>
comp t
8 6</w>
ori al</w>
médi caux</w>
log o</w>
trav ers
dé tru
lim ité</w>
O u</w>
der ie</w>
di g
kb est</w>
con verti
Pi kbest</w>
ô les</w>
ed g
m oul
d ons</w>
- -</w>
réfl éch
8 2</w>
contrô ler</w>
te z-vous</w>
di um</w>
communaut aires</w>
fu sion</w>
tour isme</w>
mobil ier</w>
R ess
tiss eur</w>
nou s-
Lo gi
aci des</w>
vous- même</w>
t atou
réci pi
grou p
c eci</w>
appar aît</w>
condu ire</w>
app elle</w>
parl ement
Ch ap
G E
quotidi en</w>
organis é</w>
étrang ères</w>
R a
con ven
mon ter</w>
C C</w>
k u
contr e
n és</w>
m assi
baign oire</w>
caractéris tique</w>
T om
Pl ay
gu er</w>
fr ag
Cad re</w>
G O
coll è
prest ations</w>
H ab
Réserv ez</w>
hô pital</w>
alis ée</w>
V é
Ge or
8 1</w>
A vi
mb H</w>
constru it</w>
fin i</w>
am o
Ach etez</w>
L AN
e ants</w>
ois eaux</w>
7 1</w>
land ais</w>
chois issez</w>
Portug al</w>
phén om
li s</w>
Ber lin</w>
accu mul
représent é</w>
sup er</w>
or es</w>
T É</w>
19 .
montr ent</w>
9 7</w>
hor aires</w>
fonc é</w>
Fac ebook</w>
rédu ite</w>
efficac ement</w>
cent age</w>
D im
ac ry
im pôt</w>
an moins</w>
tradu ction</w>
popul ations</w>
Gratu it</w>
C AN
nous- mêmes</w>
bat eaux</w>
lis sement</w>
représent ent</w>
mu lt
pu issent</w>
indi cateurs</w>
imprim é</w>
g or
recher chés</w>
C atégories</w>
p .</w>
ac te</w>
an tique</w>
sè che</w>
inform er</w>
t ag
rec ru
én onc
Dem ande</w>
r ure</w>
propos ons</w>
munici pal
arriv er</w>
cir const
S acs</w>
jeu di</w>
i z
dis pens
Qu i</w>
di r</w>
C L
7 ,
por te-
assu re</w>
conf lit</w>
st ations</w>
P ren
C af
ser vent</w>
mi x
bou che</w>
et h</w>
be cue</w>
cat alogue</w>
mar ine</w>
C op
im meuble</w>
appuy er</w>
gr ès</w>
M IN
ore illes</w>
auth enti
arm ée</w>
di ab
agri coles</w>
mer veill
Tunis ia</w>
G mbH</w>
minist ères</w>
ég ale</w>
s ité</w>
Alber ta</w>
é mo
f ur
w n
priv il
program mation</w>
os ph
lanc é</w>
Lou is</w>
fi cations</w>
éch é
vers er</w>
ap e</w>
pourr ont</w>
3 4
jam bes</w>
c elle-ci</w>
22 1.
n ord-
origin ale</w>
pl ong
S un
idé ale</w>
si ez</w>
T É
v el
AV EC</w>
Prem ium</w>
c our</w>
Ma x</w>
res se</w>
jou e</w>
b oire</w>
trai tés</w>
cau ses</w>
r ent
es tin
l aires</w>
pres s</w>
habitu ellement</w>
tr age</w>
élev és</w>
co ordination</w>
P U</w>
rés istant</w>
rem ise</w>
er ic
ê le</w>
hés itez</w>
con forme</w>
S es</w>
C em
accu eill
se y</w>
édu c
th me</w>
mati s
ins pection</w>
th e
sign é</w>
m ic
cu s
tu me</w>
rem placer</w>
ak i</w>
anim é</w>
st able</w>
oul ette</w>
M em
u k</w>
C AR
v ite</w>
V an</w>
sw ick</w>
autor isés</w>
6 5
SU L
p pe</w>
trans formation</w>
min i
tom b
de vi
K en
v oire</w>
Pr in
famili ale</w>
t ur</w>
aut és</w>
intég rée</w>
an es</w>
rus se</w>
og a</w>
cl ô
htt p</w>
Rég ion</w>
offici elle</w>
en vers</w>
B ul
res pir
bl anc
pi ques</w>
grav e</w>
élég ant</w>
pens ez</w>
expé dition</w>
con jo
é tiques</w>
C U
pour suivre</w>
incon véni
mer credi</w>
ag ement</w>
présent ent</w>
z o
B ab
con vi
M id
Cou n
fa çons</w>
- de-
charg es</w>
St ation</w>
certifi cat</w>
Mo der
s mart
mar qu
correc t</w>
un s</w>
divis é</w>
ti m
vis ités</w>
i k
d îner</w>
7 7</w>
ver se</w>
ess é</w>
b el</w>
a pa
vo i</w>
al ent
G R
s et</w>
F édér
sh op
re z-
str ess</w>
coor données</w>
A l</w>
Gouvern ement</w>
17 .
Ad ap
sou ris</w>
mis sions</w>
fi cateur</w>
règl ements</w>
G l
T U
es el</w>
ak e
cré e</w>
négoci ations</w>
constitu ent</w>
trou bles</w>
log ements</w>
Pén al</w>
juridi ques</w>
V ER
toil ettes</w>
pos sé
mas que</w>
Nom bre</w>
y u
J an
L et
ent elle</w>
optim ale</w>
n ations</w>
secon daires</w>
ag é</w>
IN G</w>
con version</w>
10 00
v us</w>
b .com</w>
différ ences</w>
quel conque</w>
mont agnes</w>
cin éma</w>
impres sionn
TE R</w>
part age</w>
Rob e</w>
sign aux</w>
é -
mil itaires</w>
s u</w>
ab an
m aux</w>
compar aison</w>
acier-inoxydable- boitier</w>
w ell</w>
j ur
c ass
oxy de</w>
œu vres</w>
G rap
mo biles</w>
indé pendant</w>
donn ent</w>
complex es</w>
ver re-
du c
voi es</w>
fourni es</w>
somm et</w>
ent ente</w>
bi bliothèque</w>
respec tivement</w>
bou cle</w>
mécan ismes</w>
lan tique</w>
exclu si
esp èce</w>
Ser ies</w>
7 4</w>
co hér
cul aires</w>
accro ître</w>
é cl
same di</w>
Mari e-
Mari a</w>
norm ale</w>
part ements</w>
hor mon
ap er
d d
soli d
présent ée</w>
8 7</w>
Alex and
f o
tran qu
not es</w>
7 8</w>
c oiff
edg is</w>
horizon t
europé ennes</w>
Prem ières</w>
m aître</w>
considér ablement</w>
commu nes</w>
R el
BM W</w>
tri che</w>
h all</w>
p cs</w>
Brun swick</w>
F ar
li min
con cours</w>
peu ple</w>
US A</w>
Peti t</w>
P rés
R ol
eter y</w>
ci ble</w>
prés ents</w>
pos tes</w>
t asse</w>
ter s</w>
aut o-
appliqu é</w>
ten ce</w>
Sain te-
canap é</w>
Fabri c
Par ce</w>
N edgis</w>
mentionn é</w>
off rons</w>
dou c
str ic
m énagers</w>
tez- nous</w>
dé placement</w>
produc teurs</w>
po ol</w>
dé di
figu res</w>
12 .
all ant</w>
flu ide</w>
onn é</w>
d rap
ré v
pass ant</w>
P ologne</w>
L ake</w>
Hist orique</w>
V erre</w>
sauv e
Califor nie</w>
éch app
climati que</w>
ci a</w>
tr é
ser ie</w>
autor ité</w>
b ab
n ess</w>
appar aissent</w>
I R</w>
Cem etery</w>
8 9</w>
ser aient</w>
Nouve au-
ju ge</w>
gar çon</w>
con struc
6 -0
églis e</w>
lu es</w>
ouver ts</w>
50. 63.
4 4
tra fic</w>
c c
main ten
Gr an
Div orces</w>
8 4</w>
ul tr
t le</w>
k er
pi n</w>
ans ons</w>
Vé hicu
ad ol
rel atifs</w>
aph ir</w>
Auc une</w>
We b
apr ès-
industri elle</w>
De al
clin ique</w>
tap is</w>
For um</w>
S ER
in tures</w>
Li gne</w>
ouv er</w>
184.168. 221.
re vue</w>
appar ence</w>
num ériques</w>
is ition</w>
hydr at
7 6</w>
18 0</w>
Por trait</w>
Sy n
hist oriques</w>
50.63. 202.
interven ants</w>
so yez</w>
k y
TE UR</w>
T os
mi di</w>
l a-
Nation al</w>
É valu
res tric
at or</w>
om es</w>
Sélec tionn
v all
gn ons</w>
V anc
B R
capit ale</w>
in suffis
g â
stati onnement</w>
b a
B ag
décr ites</w>
Pl an
On line</w>
instru ment</w>
soulign é</w>
J é
livr é</w>
or ange</w>
n ér
g yp
li é</w>
7 3</w>
peti t-
cont am
z on</w>
en du
compl ém
adap ter</w>
W illi
Mo du
A part
É lec
Lin k</w>
Sécur ité</w>
prépar é</w>
oot ball</w>
che- cheveux</w>
ple inement</w>
atis tique</w>
Cor ée</w>
su d-
vou dr
ti e</w>
situ és</w>
an t-
soign eusement</w>
dem ain</w>
bou cles</w>
ez- le</w>
T O</w>
sub str
énerg étique</w>
P on
sup prim
déb at</w>
h os
atri ème</w>
entre pôt</w>
em b
Vétérin aire</w>
pro viennent</w>
Com pati
lo ts</w>
Ch atr
ly m
ent endre</w>
ssi n</w>
ch i</w>
Pu is</w>
Conse ils</w>
esp ère</w>
dor f</w>
cap ital</w>
Pr inci
gé ni
lis se</w>
V it
Chatr oulette</w>
acc ent</w>
espa gnol</w>
Hu ile</w>
dé placer</w>
co sse</w>
g h</w>
rend ez-vous</w>
détermin ée</w>
ol y
re connaissance</w>
I N</w>
ran donnée</w>
f um</w>
h i</w>
offer ts</w>
g -
v ins</w>
from age</w>
ac cident</w>
i j
Ch ang
ch eur</w>
ag e
199 2</w>
F O
mouv ements</w>
élimin ation</w>
Cert aines</w>
ép au
par avant</w>
app els</w>
sur faces</w>
Cou rs</w>
B 2B</w>
g ol
Ci vil</w>
prim aire</w>
Ch er
po issons</w>
ré us
TO UR</w>
Marti n</w>
lo v
lit tér
ac tes</w>
Pap iers</w>
P oi
oblig ation</w>
. -
O NS</w>
favor iser</w>
Vanc ouver</w>
titu laire</w>
voi ci</w>
Mad rid</w>
ther mo
devr a</w>
Micro soft</w>
Com mentaires</w>
nouv e
pour centage</w>
n y</w>
rou e</w>
dér oul
suggér é</w>
comm en
S a
remar qu
e- forme</w>
14 0</w>
Parti e</w>
is on</w>
circonst ances</w>
tr ains</w>
expérim ent
ex tension</w>
I A</w>
R ad
nom mé</w>
ban des</w>
cou n
compét ence</w>
ab ord
com mod
ven til
pl ages</w>
observ ations</w>
man n</w>
b ach</w>
y r
ig ht</w>
mo bilité</w>
infrastruc ture</w>
rem on
isc o</w>
ol i</w>
fu tur</w>
T RE</w>
el ec
12 -
ê ne</w>
Modè les</w>
I D</w>
annu elle</w>
e- t-il</w>
Co .</w>
Z u
Outi ls</w>
on s-
lo w</w>
n ager</w>
ch ette</w>
M uni
m .com</w>
D É
Mon tre
1, 5</w>
vul nér
n ation</w>
icô ne</w>
re tirer</w>
conserv é</w>
a por
And re
err y</w>
UN I
G A
ch ô
gn es</w>
an i</w>
L G</w>
Par king</w>
volon té</w>
tron ics</w>
rou es</w>
pharmac eu
pauv reté</w>
chan son</w>
re fu
min istres</w>
iss eurs</w>
atu r
t ellement</w>
ent our
con clu</w>
S érie</w>
cer veau</w>
V os</w>
serv i</w>
C lar
or a</w>
chaî nes</w>
P at
bét on</w>
pri me</w>
m ères</w>
Au triche</w>
class é</w>
s a
ti se</w>
s co
automo bile</w>
ci v
spéci alement</w>
exis tence</w>
u p</w>
accessi bles</w>
Lor squ</w>
onn er</w>
S én
Meill eur</w>
on al</w>
M oun
veill er</w>
parti el</w>
bas ée</w>
compré hension</w>
F o
VI H</w>
u er</w>
cuill ère</w>
inform atique</w>
we ek
arti fici
X X
Su ite</w>
it ed</w>
Phot ographie</w>
sélectionn ez</w>
ais se
6 00
T RO
ti s</w>
Véri fiez</w>
impliqu é</w>
vi br
mir oir</w>
N é
b ob
men su
gu laire</w>
T re
trai ts</w>
Do cu
essenti elle</w>
ban ques</w>
199 3</w>
con gél
ré mun
cul tiv
L S</w>
ï de</w>
struc tur
lav age</w>
ou i</w>
Mich ael</w>
Fi gu
spa ci
raisonn able</w>
dé gr
constitu é</w>
s culp
ré pét
tot alement</w>
fi és</w>
CO MP
R am
trouv ées</w>
él as
travaill é</w>
clu b</w>
be aux</w>
moy ennes</w>
échantill ons</w>
it ée</w>
environnement ale</w>
intég rés</w>
A G</w>
e re</w>
tr ous</w>
ax i
identi fication</w>
dém ie</w>
art z</w>
o c</w>
Su ède</w>
pré vues</w>
mét aux</w>
an ément</w>
T D</w>
Affi cher</w>
ajou te</w>
D ani
climati ques</w>
C F
s k</w>
ag a</w>
Pro vin
fonctionn er</w>
po t
cul turel</w>
offici elles</w>
r -
SUL TA
Nouv elles</w>
hor aire</w>
S to
Manu els</w>
ri z</w>
8 3</w>
as cens
col at</w>
d ite</w>
flex ion</w>
i di
P aci
cour ants</w>
In n</w>
n -
ven ez</w>
re connu</w>
lu x
au de</w>
M S</w>
r assembl
en fin</w>
navig ateur</w>
spéci alisé</w>
s ain
al .com</w>
p ur</w>
M M</w>
c ouv
par cours</w>
Acc ès</w>
not ari
inci dence</w>
S ing
l aisse</w>
is su
caus és</w>
C ES</w>
all ég
Tabl eau</w>
Tr a
ém ission</w>
mesur er</w>
Cas a</w>
1 1-
mon ie</w>
m ètre</w>
délég ation</w>
B ad
oubli ez</w>
7 00</w>
pai ements</w>
satis faction</w>
2 .</w>
Arti cles</w>
Montre al</w>
mati que</w>
hor n</w>
eux- ci</w>
4 3
Ch arg
intégr ante</w>
déf i</w>
aut oc
chang é</w>
Char les</w>
S us
co opér
A x
U kr
conn us</w>
nor mal</w>
è tes</w>
pres tation</w>
k h
gr as</w>
D S
u p
pa t
Bo at
poussi ère</w>
Th er
s s</w>
mi el</w>
si ble</w>
som me</w>
T ré
L os</w>
S ign
Roy al</w>
P H
ell ectu
mani pul
subst ance</w>
v ité</w>
fix é</w>
Ç a</w>
Équi pe</w>
num ér
li bres</w>
extr ait</w>
confi denti
mar keting</w>
. p
discu ter</w>
travaill ent</w>
tri co
ag ences</w>
signifi cations</w>
réuss i</w>
J O
fon dée</w>
v éris
indépend ante</w>
L ever</w>
O li
im permé
hé li
é dés</w>
in jec
A .</w>
connex es</w>
termin é</w>
H ô
lo isirs</w>
M C</w>
volon t
ple x</w>
ic h</w>
senti ment</w>
sé ance</w>
at ti
tur b
ti tres</w>
se g
cli ent
H é
cent aines</w>
P en
RÉ SULTA
min i</w>
mal gré</w>
étudi er</w>
D S</w>
indi quer</w>
ec k</w>
on lin
g lu
dor mir</w>
K r
inc en
eu ves</w>
M ob
tour istiques</w>
RE TOUR</w>
cham ps</w>
ess er</w>
in ois</w>
lun ettes</w>
Pol y
Ress ources</w>
pu issant</w>
Provin ce</w>
24 h</w>
b is
fa ç
repér er</w>
trai tements</w>
consult ez</w>
em br
const amment</w>
all erg
con dam
A F
M B</w>
en lever</w>
bi ologique</w>
appro fon
export ation</w>
s en
sou rire</w>
i ez</w>
ag r
s pati
ré col
tend ances</w>
ro bo
médi cale</w>
re joindre</w>
r l
M it
hydrau lique</w>
Qu alité</w>
RÉSULTA TS</w>
ti r</w>
monn aie</w>
dé faill
M édi
e a</w>
T I</w>
plat e-forme</w>
cu its</w>
as onic</w>
ch aise</w>
Secr étariat</w>
adap tation</w>
Y am
sol d
g ou
Ori ent</w>
const ante</w>
at aire</w>
T ar
gon fl
considér ée</w>
B ill
P ad</w>
d anger</w>
in titu
r an</w>
par ole</w>
Prot ection</w>
ol ine</w>
Gen ève</w>
conclu sions</w>
u t</w>
honor able</w>
h 00</w>
6 6
appliqu ée</w>
dél ais</w>
Pren ez</w>
industr ies</w>
Ré pon
ers .ca</w>
Di am
simpl i
discrimin ation</w>
ri gi
puis siez</w>
dev ait</w>
voul ons</w>
ri ch</w>
lin é
Mar ie</w>
reg ard</w>
Is land</w>
men ace</w>
e h
rel atif</w>
réper toire</w>
or n
ess oire</w>
P ack</w>
Deal ers.ca</w>
Boat Dealers.ca</w>
in jection</w>
E ur
Con di
am pou
mor ceaux</w>
er y</w>
MO N
tém oign
Au dio</w>
j i</w>
chi ens</w>
suscepti bles</w>
he im</w>
L T</w>
régl er</w>
Blu e</w>
ph ones</w>
A lt
G A</w>
t us</w>
super marché</w>
qu atrième</w>
ci des</w>
introdu ction</w>
d ress
ari o</w>
é sie</w>
ess ence</w>
cul tures</w>
Produ it</w>
Co ol
précéd emment</w>
fron tière</w>
15 0
Cor n
vo te</w>
M ol
sor tes</w>
mat ch</w>
région ale</w>
St ar</w>
S K
e o</w>
Con stru
affi cher</w>
pré vision</w>
T UR
B ois</w>
organ e</w>
K h
an .com</w>
industri els</w>
essi ons</w>
att aque</w>
S ask
S W
elle- même</w>
V ar
Fli x
rés ist
re venir</w>
Mon de</w>
publi ée</w>
diminu tion</w>
plan cher</w>
t ain</w>
G RA
Em pl
modifi é</w>
ash ington</w>
endom mag
Câ ble</w>
direc tives</w>
iv e</w>
diffici les</w>
eur re</w>
froi de</w>
b s</w>
pan or
k in</w>
S ous</w>
b ol
s ons</w>
it able</w>
tra jets</w>
R an
sou l
ss i</w>
int ellectu
M ac</w>
per fec
au- delà</w>
Pan asonic</w>
pi erres</w>
acqu isition</w>
pa quet</w>
an ne</w>
im migration</w>
AN S</w>
infrastruc tures</w>
vitam ines</w>
pres sions</w>
Chau ff
visit ez</w>
sal ari
C ru
Rob ert</w>
autorou tes</w>
I n</w>
in ière</w>
di vision</w>
rés ine</w>
pou let</w>
somm eil</w>
uni ques</w>
approuv é</w>
fl its</w>
pétro le</w>
Poli tique</w>
onn és</w>
cardi aque</w>
ém erg
sensi blement</w>
mot eurs</w>
16 0</w>
2 50
U M</w>
Man it
gouvern ance</w>
ve ille</w>
ch â
Mu si
poly mère</w>
discus sions</w>
z u
en gr
k in
k et</w>
str ation</w>
ét ages</w>
D ig
ag ence</w>
v esti
rempl issage</w>
t ar
mat ern
ll e
le x</w>
k y</w>
i p
e- et-
élabor er</w>
suiv ez</w>
alent ours</w>
R ot
m y</w>
ch âteau</w>
os ité</w>
vér ité</w>
L CD</w>
v én
uni versité</w>
de- chaussée</w>
an th
Au tre</w>
é pou
om ique</w>
in fir
In f
déco r</w>
N ord-
C B
sili cone</w>
pay s
ett a</w>
16 .
dé gu
ong les</w>
pro vis
pr ennent</w>
petit- déjeuner</w>
exerci ces</w>
onn age</w>
li ée</w>
Reg istre</w>
plat eau</w>
pouv oirs</w>
7 9</w>
i c</w>
proch aines</w>
M ak
améric ains</w>
4 9
v ag
Fédér ation</w>
voy ages</w>
essenti ellement</w>
C TION</w>
V E</w>
vari ante</w>
m ont</w>
inform é</w>
tu m
V -
ti c</w>
d ing</w>
Bi bliothèque</w>
ten te</w>
préfér é</w>
régl age</w>
import ation</w>
origin ales</w>
F aire</w>
ch ansons</w>
Fourn isseur</w>
w er</w>
Tex as</w>
Cou pe</w>
J ames</w>
cru ci
f ati
h ach
Vo iture</w>
Télé chargez</w>
b it
atten te</w>
pren ant</w>
u x</w>
12 5</w>
ru ban</w>
stu dio</w>
exam in
con flits</w>
bo l</w>
représent ation</w>
assu rez-vous</w>
s and
ce inture</w>
migr ants</w>
comm is</w>
R ev
K al
compos ant</w>
Ge orge</w>
régl able</w>
T oy
li br
int estin
è ques</w>
oth érap
Ré férence</w>
att aqu
Su ivre</w>
incroy able</w>
si r
N ettoy
Compar ez</w>
par as
1 30</w>
oblig atoire</w>
Barcel one</w>
du l
pr euves</w>
direc trices</w>
Pow er
restaur ation</w>
défini tivement</w>
M ay
appar ait</w>
sci ence</w>
em s</w>
ri v
Secr étaire</w>
B ret
g g
cl aire</w>
indi quant</w>
dens ité</w>
M D
signi fication</w>
am pl
rec ette</w>
assi s</w>
as s</w>
décl en
cri tiques</w>
ém ie</w>
tour istique</w>
autoc ars</w>
K it
Entre tien</w>
t axe</w>
super be</w>
e p</w>
contin u</w>
mét ab
li a</w>
P eter</w>
contribu e</w>
aut o</w>
f éli
Ukr aine</w>
en ni
vi ce-
o se</w>
bénéfici er</w>
oot h</w>
aut- par
G ay</w>
f ais</w>
j .com</w>
re- fort</w>
k it</w>
Vic tori
tribu nal</w>
3 60</w>
œ il</w>
Phot os</w>
car rés</w>
uni on</w>
sus pension</w>
destin és</w>
autor isé</w>
Wh ite</w>
Ly on</w>
T S
fr app
jard ins</w>
ci- après</w>
Mal gré</w>
Dé partement</w>
pourri ez</w>
et ooth</w>
A th
at o</w>
tr om
détermin ation</w>
Su per</w>
ch aises</w>
Fond ation</w>
M eu
ci e</w>
prot ec
Mot eur</w>
entraî ner</w>
navig ation</w>
y e</w>
Ag ri
plate forme</w>
o v</w>
mag né
pré -
co lon
vitam ine</w>
sav ent</w>
og ène</w>
199 1</w>
r av
Équip ement</w>
répar er</w>
ar gu
F al
s ent</w>
Prem ière</w>
a p</w>
radio diffusion</w>
in c</w>
Thom as</w>
ver sions</w>
uti l
PS D</w>
dirig eants</w>
Ré sid
Par c</w>
rang ement</w>
cu ire</w>
dev rez</w>
ron de</w>
par fum</w>
por tefeuille</w>
aéro ports</w>
M er</w>
Liv raison</w>
g lo
cad res</w>
p iste</w>
mar di</w>
man ie</w>
débarr asser</w>
jus tifi
région aux</w>
E h</w>
endr ont</w>
dimen sion</w>
ci bl
C T</w>
ch é
mar i</w>
lo ok</w>
ver te</w>
az a</w>
cri tique</w>
P ER
J am
japon ais</w>
C K</w>
Nouveau- Brunswick</w>
l enti
B ah
convain c
si mult
t em
C S</w>
direc ts</w>
contr ats</w>
min or
défin is</w>
ré vis
accr ue</w>
lim iter</w>
dem eure</w>
urb aine</w>
rap ides</w>
Contac tez-nous</w>
gag n
br ou
3 50</w>
exper tise</w>
y aux</w>
B éb
Sélectionn ez</w>
é volu
inflam mat
bar becue</w>
S R
boute illes</w>
fru it</w>
Chois issez</w>
cid ents</w>
Post é</w>
ac cou
Voy age</w>
univers el</w>
D R
H on
Co sta</w>
so i</w>
em ail</w>
Prof itez</w>
af t</w>
poi trine</w>
ch ari
parti ci
ac u
trim estre</w>
ab ond
o ts</w>
can aux</w>
contempor ain</w>
j um
ec k
st abil
jeun esse</w>
gi a</w>
es cal
-0 1</w>
Cô te</w>
tradi tionnelle</w>
po êle</w>
gu ides</w>
illustr ation</w>
p us</w>
substr at</w>
spor tif</w>
Inscri vez-vous</w>
T end
C R</w>
in tr
- subcat</w>
propos er</w>
étudi ant</w>
ag on</w>
t el
o st
ne w
au paravant</w>
Mil an</w>
de .com</w>
ag as
déc ouverte</w>
bo isson</w>
ég i
ascens eur</w>
ti an</w>
T erre</w>
min ce</w>
flexi ble</w>
lad ite</w>
gi ène</w>
ari ats</w>
oo d
hu iles</w>
Sask at
Ch âteau</w>
personn elle</w>
Grap h
Euro pé
è lement</w>
E ast</w>
coû t
ti enne</w>
ex ige</w>
adop ter</w>
situ e</w>
M ill
ent ail</w>
inter ro
D un
s aphir</w>
av or
ri es</w>
ten ez</w>
F M</w>
Qu e
rappel er</w>
W est
Oc é
A f
il ton</w>
conclu sion</w>
S TA
employ eur</w>
ment ale</w>
Soci étés</w>
fer m
port ées</w>
oc cident
mus cles</w>
Li eux</w>
ré forme</w>
inst ant
2018-0 9-0
ul aire</w>
Cl assi
mét éor
i en</w>
res sort</w>
brev et</w>
ci de</w>
St .</w>
Elec tronics</w>
m ar</w>
9 5
diff èrent</w>
actu elles</w>
vo il
att én
Par fois</w>
qu in
pa l</w>
client èle</w>
L ar
I dé
obten us</w>
i d</w>
con fron
vi ens</w>
s ports</w>
est om
No v
vie w</w>
tr emp
Radi o</w>
V ou
récupér er</w>
béb és</w>
form ément</w>
Montr er</w>
déc our
o la</w>
b in
ond a</w>
év entail</w>
ét ag
énor me</w>
adul te</w>
afric aine</w>
- S
pro ven
ati ne</w>
bi ais</w>
ins cr
M a</w>
mari ée</w>
fum eurs</w>
au quel</w>
R oul
Tr ois</w>
thérap eu
or ies</w>
an ten
trans mettre</w>
précéd entes</w>
répon dent</w>
oubli er</w>
et n
V intage</w>
ov o</w>
cosmé tiques</w>
U V</w>
poly ester</w>
om i</w>
Tra fic</w>
voyag eurs</w>
men aces</w>
résid ents</w>
Hist oire</w>
soi e</w>
M ati
P ér
fi ces</w>
récupér ation</w>
S e</w>
ul l</w>
por trait</w>
it y
r ont</w>
B ol
C K
d ites</w>
pos ant</w>
bou l
e la</w>
O l
C le
8 5
ry thme</w>
inflam mation</w>
f i</w>
olog y</w>
Affi che</w>
voy er</w>
rou ges</w>
ell o</w>
spécialis tes</w>
ph osph
enregistr er</w>
G ri
ap porte</w>
M ER
hi p</w>
in ess</w>
B on</w>
liqui des</w>
li ers</w>
A ssu
w at
Mal heureusement</w>
région ales</w>
n at
C P
c n</w>
minist éri
préoccup ations</w>
Peu t-être</w>
A R</w>
per les</w>
n .com</w>
T ap
h ot
und ai</w>
conç ue</w>
océ an</w>
her bes</w>
sembl ent</w>
S Y
Ap partements</w>
dé fil
H ong
posi tive</w>
présent és</w>
ergi es</w>
él astique</w>
on .com</w>
laiss ez</w>
i .com</w>
S c
s tique</w>
expliqu er</w>
bro sse</w>
e- mail</w>
rou lement</w>
rec ycl
proc édés</w>
l aine</w>
stratég iques</w>
G U
économ ies</w>
eux- mêmes</w>
dét endre</w>
K ir
exter nes</w>
O EM</w>
étiqu ette</w>
Ad ministr
mon o
f aisons</w>
B ar</w>
zz le</w>
conseill ons</w>
B â
Propri étés</w>
v acc
pro pa
atten d</w>
pul véris
pos ent</w>
op position</w>
démo graphiques</w>
chron ique</w>
alis es</w>
li v
préal able</w>
vi t</w>
is ations</w>
met tant</w>
Let tres</w>
âg ées</w>
prof esseur</w>
Im prim
qu ête</w>
lanc ement</w>
priv ées</w>
déc ès</w>
hum ide</w>
Hy undai</w>
soli des</w>
T our</w>
iss es</w>
Tr u
Cham pi
fai bles</w>
con som
cho colat</w>
L eur</w>
Ac cord</w>
si de</w>
S we
D ES
oxy gène</w>
t él
ém et
démar rage</w>
Re garder</w>
collec tivité</w>
ot er</w>
f ère</w>
ON G</w>
pr ê
V A</w>
chô mage</w>
réserv ez</w>
th i
territ oires</w>
T ot
St and
enti elle</w>
tom ber</w>
T am
L LE</w>
re commande</w>
ouv ri
T- shirt</w>
mon té</w>
élec tor
Hé berg
parl é</w>
ch ol
Min istre</w>
indi cations</w>
M ic
sy l
ah a</w>
Mat ter
Ad resse</w>
défin i</w>
char me</w>
phot ographie</w>
isol ation</w>
contr e-
S oins</w>
1 10
b aie</w>
R h
physi ques</w>
compr om
ab us</w>
chir urg
interprét ation</w>
K am
off ert</w>
k on</w>
exc essi
gr ill
ph il
ron d</w>
o o</w>
k ar
- montres</w>
B ase</w>
J er
ti les</w>
D ow
Bor deaux</w>
cellu le</w>
qu ets</w>
N U
w er
S our
n s</w>
proto cole</w>
M ém
récipi ent</w>
le d</w>
cu les</w>
applic ables</w>
vari étés</w>
laiss é</w>
b and
ais ses</w>
H an
cal endrier</w>
Matter horn</w>
Béb é</w>
Or ange</w>
L ing
th er</w>
mom ents</w>
G O</w>
1 .</w>
commer ces</w>
all ait</w>
éch ang
ag en</w>
on gl
hypo th
c tu
C .
tou rs</w>
arri ère-
Ou t
spécifi quement</w>
fonctionn aires</w>
T w
institu tion</w>
G am
ç age</w>
É cole</w>
exécu table</w>
co ok
Annon ce</w>
équip ées</w>
maqu illage</w>
m ène</w>
Hô pital</w>
nav ire</w>
Modu le</w>
os se</w>
D L
mon d</w>
absor b
re j
I tinéraire</w>
s tre</w>
bou tons</w>
W ester
ri n</w>
B elle</w>
prof ession</w>
r ab
CE E</w>
défaill ance</w>
ON U</w>
ent al</w>
D ar
cher che</w>
Pré visions</w>
dis tric
pa p
fourniss ent</w>
cr yp
blu e</w>
A qu
Sh ar
observ ation</w>
ré vision</w>
exécu tif</w>
v ecteur</w>
sem bles</w>
ur gi
yl on</w>
consult ations</w>
Proc édé</w>
R ay
P ad
dé fici
s anc
r ues</w>
pres cri
mou le</w>
as te</w>
Manit oba</w>
is h</w>
h ouse</w>
th èmes</w>
A y
P enn
tr ement</w>
it z</w>
mi -
intégr er</w>
cor rig
vis eur</w>
norm alement</w>
ay age</w>
n our
Be auté</w>
Ess ayez</w>
ré elle</w>
vie ille</w>
N ourriture</w>
Mar que</w>
n oix</w>
A T</w>
Mari age</w>
D ès</w>
Am eri
in dispens
tes- vous</w>
sign ature</w>
f ine</w>
is sus</w>
St ar
Appl iqu
seu ls</w>
glob al</w>
lo ge</w>
g om
ce voir</w>
Comp te</w>
effectu e</w>
judici aire</w>
Au x</w>
2 20</w>
sol é</w>
for êts</w>
su ites</w>
r ait</w>
Victori a</w>
al er
symbo le</w>
rest ent</w>
confor tables</w>
1 1.
dis ent</w>
spécialis te</w>
Ap pu
jou ets</w>
Moder ne</w>
récep teur</w>
encour ager</w>
aéri enne</w>
Jus qu</w>
occu pe</w>
M él
essay ez</w>
I L</w>
lut ter</w>
CN RC</w>
J aune</w>
h .com</w>
re connaiss
dé cou
mar bre</w>
s ach
port és</w>
étro ite</w>
f a</w>
al ign
p es
l es-
d ay</w>
K ing</w>
bouill oire</w>
Com man
lis tes</w>
f oie</w>
coû te</w>
be ige</w>
relax ation</w>
essenti els</w>
c ouvrir</w>
comm entaire</w>
connec teur</w>
ch asse</w>
r al
super fici
B ell</w>
mo tiv
ES CO</w>
ore ille</w>
ing en</w>
détaill ée</w>
week -
individu elle</w>
fac iles</w>
bou illi
v ois</w>
organ ique</w>
quanti tés</w>
di que</w>
ru ption</w>
pé d
il i</w>
b r</w>
recher chent</w>
r aff
g orge</w>
sé min
engag ements</w>
Dé clar
priv ative</w>
I ni
19 2.
opportun ité</w>
G B
rez- de-chaussée</w>
r ain
m assage</w>
f ootball</w>
D J</w>
scol aire</w>
L ac
ci tron</w>
alli age</w>
él oign
y o</w>
o d</w>
dé légu
conç us</w>
re pos</w>
éné tr
nutri tion</w>
bo x</w>
M ise</w>
compl iqu
che fs</w>
Sou s-
obstac les</w>
li ques</w>
as se
moder n
at ér
mi les</w>
13 .
nom ination</w>
fl ot
I RE</w>
s ine</w>
Por to</w>
S pa
a we
ou x</w>
adhé sif</w>
Véhicu les</w>
tradi tionnel</w>
Gre en</w>
enti ère</w>
am pli
vie il
f auteuil</w>
lè vres</w>
Re d</w>
appel ée</w>
ad hér
pro fit</w>
gyp te</w>
A M</w>
empr un
réalis ations</w>
Rés eau</w>
collè gues</w>
Au ssi</w>
fabri qués</w>
V E
Mo di
rég im
gr aisse</w>
adol esc
, 5</w>
8 00
qu e
mécan iques</w>
dé posé</w>
for esti
ordonn ance</w>
al ise</w>
exam iné</w>
agas car</w>
R ue</w>
9 00</w>
clav ier</w>
transpar ent</w>
du cation</w>
exécu te</w>
classi ques</w>
as pir
cultur elle</w>
K ong</w>
UR S</w>
Blu etooth</w>
rem plac
vi es</w>
quit ter</w>
congél ateur</w>
lai ton</w>
s core</w>
em ark</w>
thé âtre</w>
F eu
surveill er</w>
péri odes</w>
T atou
Enf ants</w>
perman ente</w>
expl orer</w>
initi ale</w>
R EN
rac ines</w>
C ath
ac ét
mél anger</w>
diab ète</w>
concern ent</w>
fron tières</w>
Pow er</w>
cri me</w>
om ètre</w>
e ffici
Mad agascar</w>
form ant</w>
métalli ques</w>
Propri étaires</w>
G ren
de viennent</w>
dr ome</w>
zz i</w>
enn em
ence inte</w>
défini tions</w>
rés ili
apparti ent</w>
W ar
or ie</w>
Se p
cor ro
capa bles</w>
F ord</w>
virtu el</w>
Ver sion</w>
di v
S or
ma de</w>
Au tor
Re d
observ er</w>
comm issaire</w>
inv ité</w>
Ber n
ur bain</w>
dirig er</w>
Mas ter</w>
fum ée</w>
cul té</w>
B U
con vers
libér ation</w>
el -
b ague</w>
rou leaux</w>
estom ac</w>
di vul
am end
c ée</w>
tch èque</w>
parten ariats</w>
j au
ing -
br un</w>
I I
lo se</w>
Ar ab
TE L
s ée</w>
mar t</w>
ou t</w>
pu re</w>
eur o</w>
Resto Montreal</w>
arriv é</w>
lam e</w>
Bi joux</w>
spa cieux</w>
enseign ants</w>
esti ni
extr a
bar s</w>
É cosse</w>
adap tée</w>
stitu tion</w>
in du
câ bles</w>
I tali
G N
mari time</w>
Laur ent</w>
At l
devr ont</w>
ni ques</w>
acry lique</w>
O h</w>
5 6
am iques</w>
T oul
en jeux</w>
ant i</w>
Pro jet</w>
dem n
re ts</w>
dan se</w>
plain te</w>
S outh</w>
et a</w>
2 3.
aimer ais</w>
E as
Br acelet</w>
ambi ance</w>
gr o
or que</w>
chev al</w>
am p
lin gu
W ashington</w>
An g
œu fs</w>
dis cours</w>
contrô leur</w>
r ang</w>
p énétr
con dens
St ock
Al li
atte inte</w>
déci der</w>
M iss
vers é</w>
phr ases</w>
ex pan
accep té</w>
K -
Scot land</w>
puis -je</w>
a w</w>
ché ité</w>
fr ère</w>
fl am
CO R
m ail
li tres</w>
nuclé aire</w>
cus sions</w>
arm oire</w>
k s
Ro ad</w>
ter ies</w>
es tes</w>
UN ESCO</w>
br itannique</w>
territ ori
n an
tin g
pass agers</w>
Sup port</w>
at aires</w>
produ isent</w>
For t</w>
N et
I E</w>
Coll ection</w>
Angl ais</w>
fr ot
eric go
verre- saphir</w>
Sal on</w>
précip itations</w>
sé chage</w>
S et</w>
s avons</w>
In struments</w>
H ong</w>
inclu t</w>
V in
fix er</w>
ma tri
dév eloppe</w>
Air port</w>
O rig
Lum ière</w>
L igh
ch t</w>
F ir
concern és</w>
com portant</w>
démocr atique</w>
ann a</w>
sou mettre</w>
p istes</w>
champi gnons</w>
ad mis</w>
inten sité</w>
co lle</w>
F our
contr ac
n e-
al th
aur aient</w>
pro s
J ord
r ôles</w>
en g</w>
ca de</w>
Am ster
s po
réguli ère</w>
C M
minér aux</w>
essay é</w>
N ig
par oles</w>
charg ée</w>
10 1</w>
ré clam
s pa</w>
H aï
n y
arti san
CH E</w>
â me</w>
décour ager</w>
ar ro
accu eille</w>
Ch rist
voi ent</w>
j p</w>
infir mi
d ité</w>
S pa</w>
S .</w>
ter ont</w>
far ine</w>
appr is</w>
î les</w>
ten us</w>
accep ter</w>
indivi dus</w>
appr endrez</w>
ag res
f it
Str atég
sho p</w>
br ane</w>
bi ère</w>
qu ette</w>
in -
ret ard</w>
roul eau</w>
alis és</w>
s it
sén ateur</w>
direc tions</w>
cat aly
u che</w>
cultur elles</w>
consci ence</w>
Z AR
I V</w>
mar cher</w>
activ ement</w>
p -
F estival</w>
comb at</w>
rac on
Con tin
O ne</w>
autom atis
er ge</w>
S V
pris on</w>
T EN
tionn er</w>
pi vo
ag o
expé di
pon s</w>
W ol
T al
peu ples</w>
C enter</w>
commenc ent</w>
E D
men ée</w>
imprim ante</w>
enqu êtes</w>
aper çu</w>
enf ance</w>
actu els</w>
sep h</w>
prés entes</w>
réalis ées</w>
flu or
t ateurs</w>
di ction</w>
r ale</w>
C ur
li ère</w>
employ eurs</w>
gout tes</w>
i bu
dev oir</w>
ã o</w>
Assu rez-vous</w>
y mes</w>
phénom ène</w>
bu ff
b ie</w>
destin ée</w>
activ er</w>
Logi ciel</w>
Gro ss
TI ONS</w>
RA M</w>
rembour sement</w>
en rich
sup pression</w>
at -
G S</w>
mod alités</w>
étan chéité</w>
Ameri can</w>
ers hip</w>
Fourn isseurs</w>
è che</w>
investiss eurs</w>
expl or
boî tes</w>
re trait</w>
sépar ation</w>
in utile</w>
po ir</w>
omb ie</w>
si fs</w>
plan ète</w>
m ér
bri que</w>
rel lement</w>
Lo ve
5 2.
A ri
ig ni
b ot
viol ation</w>
O C
sou ple</w>
secr étaire</w>
mé tro</w>
pré vus</w>
min e</w>
au d
25 00</w>
sensibil isation</w>
f estival</w>
H i
provo quer</w>
Ma j
in dex</w>
Mar oc</w>
Ét ape</w>
Syst èmes</w>
tu de</w>
ais ie</w>
ex positions</w>
ar bi
sè che-cheveux</w>
inv itations</w>
f un
de z-vous</w>
voudr ais</w>
blanc s</w>
S I</w>
Cr ème</w>
L ab
pollu tion</w>
inspec tions</w>
pa re</w>
L ég
per tes</w>
montr ons</w>
er o
ssu re</w>
Th aï
requ ér
ri t</w>
journ al</w>
A E
L as</w>
déli cieux</w>
p antalon</w>
ins ec
ajou tez</w>
mot o</w>
as tr
ér ance</w>
res semble</w>
cro is
Ou v
Mo bile</w>
cau ser</w>
a omi</w>
Mar ques</w>
mo dér
N ature</w>
ré chauff
al arme</w>
B ay
s ér
Sol eil</w>
sec tions</w>
bl eu
V ers
audi ence</w>
sc én
fen se</w>
dem eu
Fre in</w>
sensi ble</w>
mag az
i o</w>
répu tation</w>
Gu erre</w>
tr ac
chal eur
è vre</w>
pr atiquement</w>
re joint</w>
cr oire</w>
b eurre</w>
a e</w>
Sci ences</w>
F as
verrou illage</w>
é en</w>
publi c
if i</w>
déc ouvert</w>
F S</w>
A k
str e
Sal ons</w>
ro i</w>
compos ée</w>
appropri és</w>
Grou p</w>
fraî che</w>
char bon</w>
gouvernement ales</w>
form és</w>
R ock
ré comp
Bi envenue</w>
t op
od eur</w>
dess ins</w>
diffi culté</w>
cellu laire</w>
ar th
ver ts</w>
l au
Jo seph</w>
inst ance</w>
aig re</w>
itu de</w>
proch ains</w>
st éro
mer ci</w>
cam ion</w>
t aches</w>
go w</w>
établi e</w>
sol s</w>
cour tes</w>
intégr ité</w>
in demn
Mer ce
adhé sion</w>
tari f</w>
négoci ation</w>
l er
aisse z-
expliqu é</w>
L and
S N
d ation</w>
Joh n
Au to</w>
bus te</w>
V el
thérap ie</w>
ig h</w>
pro cur
lev é</w>
E li
g âteau</w>
P LA
i Pad</w>
cam p</w>
D G
Paci fique</w>
B ER
D ec
bre fs</w>
bles sures</w>
itali en</w>
Amster dam</w>
électr om
H un
ni ère</w>
qu artz</w>
inter ventions</w>
h t
ch ances</w>
présent ées</w>
er to</w>
domes tiques</w>
et .com</w>
déclar ations</w>
consid ère</w>
compati bilité</w>
N ap
pil otes</w>
ot eur</w>
cer cle</w>
Ini ti
week- end</w>
ag enc
lux u
K y
univers ités</w>
Mét al</w>
intellectu elle</w>
D al
ali ers</w>
séqu ence</w>
ven ti
Pl at
B erg
gr ille</w>
ay s</w>
R y
.co. uk</w>
ray ons</w>
St ock</w>
qu ants</w>
confér ences</w>
n ourr
Tré sor</w>
fourni ra</w>
aï que</w>
transpar ence</w>
bri de</w>
7 50</w>
pu iss
tis me</w>
rapp elle</w>
recommand ation</w>
gag né</w>
t ants</w>
spir itu
tin a</w>
acqu érir</w>
Pap ier</w>
ré flexion</w>
c eux-ci</w>
S co
ro vi
M ah
ce .com</w>
Moy en-
ti endra</w>
Car oline</w>
réparti tion</w>
par venir</w>
fi e</w>
Oc ca
mi ques</w>
indi ce</w>
bactéri es</w>
T RI
Équip ements</w>
es poir</w>
ak a</w>
situ ées</w>
ex empl
oi vent</w>
appliqu ent</w>
promen ade</w>
f -
Dis poni
extrém ités</w>
met tons</w>
A W
par ent</w>
cré ée</w>
ten nis</w>
Neu f</w>
s ond
po ches</w>
f aux</w>
An ciens</w>
d .</w>
che wan</w>
Mos cou</w>
E qui
b aies</w>
inv ite</w>
D am
par cs</w>
J ardin</w>
É cr
améli ore</w>
u les</w>
plant ation</w>
compr ise</w>
eu m</w>
arr ang
ten sions</w>
Techn ologies</w>
modu les</w>
signific ative</w>
éch anger</w>
smart phone</w>
demand eur</w>
An ni
tourn er</w>
accu s
Appl ication</w>
re connaître</w>
progressi vement</w>
suppl ément</w>
ag n
perspec tive</w>
end a</w>
A S</w>
S mit
Rou manie</w>
tou cher</w>
f isc
syn thèse</w>
dou bles</w>
ab o</w>
référ ences</w>
classi fication</w>
I C</w>
voi le</w>
Ex cell
av a</w>
ém atiques</w>
détaill ées</w>
réus si
provo que</w>
ext érieures</w>
arrê té</w>
sauv er</w>
k en
ai dent</w>
éventu ellement</w>
com parti
al bu
S D
résult ant</w>
professionn elles</w>
T T</w>
201 7-0
Déclar ation</w>
institu t</w>
g ence</w>
J os
w in
propos ée</w>
adap tateur</w>
I M
is ra
ré tro
Tos hi
Saskat chewan</w>
bi ologiques</w>
N R
aéri ennes</w>
Po ss
Il lu
évi dence</w>
Ni ce</w>
dépl oy
othérap ie</w>
G PS</w>
ten ues</w>
r accor
navi res</w>
sol eill
H ill</w>
atten tes</w>
ac ou
ir r
bor ds</w>
P â
appuy ez</w>
h el
J ack
ur a</w>
ad or
U N</w>
r are</w>
form ée</w>
A tt
2 20
non- système</w>
exer cer</w>
entret en
propor tion</w>
gal erie</w>
ay e</w>
é par
ajou tée</w>
v en</w>
enti ne</w>
voul ais</w>
visi bles</w>
O P
ser re</w>
tu er</w>
Actu alités</w>
profon de</w>
ak er</w>
cou teau</w>
tou ches</w>
s- clés</w>
chu te</w>
Mo re</w>
R og
L anc
périodi ques</w>
con cr
D ot
it are</w>
d j
Ch ez</w>
1 19.
sus pen
M ass
R iv
sou ligne</w>
Cool blue</w>
c is
régim es</w>
8 6
sup érieures</w>
pu n
applic able</w>
Compati bilité</w>
acqu is</w>
Inscri t</w>
0 1
d entelle</w>
Jé sus</w>
mem brane</w>
MO RE
f .com</w>
satis faire</w>
E au</w>
fin alement</w>
conseill é</w>
N A</w>
B .</w>
mar ron</w>
, 00</w>
At lantique</w>
A ma
E ri
2, 5</w>
sensi bles</w>
no w
pu ri
F F
4 x
mu tu
CA S</w>
AP K</w>
tradi tionnels</w>
ch ons</w>
âg és</w>
ss el
lis ation</w>
r ares</w>
associ ées</w>
P ic
conduc teurs</w>
dé passe</w>
regard ez</w>
converti r</w>
Thaï lande</w>
Al pes</w>
si èges</w>
h on
uni forme</w>
ré actions</w>
B L
d al
er ai</w>
hô te</w>
crist al</w>
H E
aér on
g ère</w>
bas sin</w>
Hau te-
ac o</w>
Autom atique</w>
Di ff
z e
ch ester</w>
permet tr
tu bes</w>
S el
le z-vous</w>
démocr atie</w>
personn aliser</w>
associ ations</w>
parall èle</w>
gar dez</w>
contr act
Les quelles</w>
P anneau</w>
v este</w>
18 .
cam ping</w>
pr ête</w>
in é
V A
H aut</w>
mét hy
aven ture</w>
al ph
en soleill
l ap
Rem ar
ons- nous</w>
n aux</w>
logi ques</w>
décr ite</w>
B it
Ar m
re trouver</w>
car ré</w>
bi a</w>
économ iser</w>
servi ettes</w>
déc ouvrez</w>
Toshi ba</w>
Tempér ature</w>
I C
enti f</w>
Cad eaux</w>
r l</w>
her be</w>
médi a</w>
awe i</w>
Dan emark</w>
infec tions</w>
fédér aux</w>
mes u
analy ses</w>
tu e</w>
effectu és</w>
adap tés</w>
éco logique</w>
destin ations</w>
sold ats</w>
dési r</w>
as sique</w>
Pl aqu
t ake
tr y</w>
ray on</w>
termin al</w>
posi tifs</w>
V ac
ari um</w>
potenti els</w>
V él
proc ès</w>
aiss er</w>
indi quent</w>
plac ements</w>
vall ée</w>
compl éter</w>
Lou er</w>
gar çons</w>
activ es</w>
im pul
considér er</w>
Fin lande</w>
Dani el</w>
L oire</w>
rempl i</w>
Cor por
CH F</w>
expan sion</w>
agri cult
nécess airement</w>
l les</w>
enn eté</w>
tab ac</w>
ex posé</w>
M ail
Î le-
Ar ts</w>
élec tion</w>
vén ements</w>
15 .
G ir
or eill
ordin ateurs</w>
d ette</w>
198 9</w>
fa x</w>
to wn</w>
lég i
atel iers</w>
Par ti</w>
t am
sexu elle</w>
refu se</w>
lumin euse</w>
éthy l
handicap ées</w>
des quels</w>
doig ts</w>
ai t-elle</w>
dur ables</w>
l à-
candid at</w>
oph ie</w>
ét onn
no yau</w>
En registr
banc aire</w>
tot alité</w>
W hi
Pou dre</w>
L en
inter val
di os</w>
cas ser
ré p
consom mer</w>
G are</w>
W I
il ier</w>
produc tivité</w>
le ader</w>
Av ant
Moyen- Orient</w>
suffis ante</w>
fant astique</w>
ins pi
S cho
N -
tempor aire</w>
pl om
dégr ad
bur y</w>
tom ates</w>
J E
co ins</w>
ch en</w>
ap pe</w>
inter dit</w>
amb ass
organis ée</w>
bron ze</w>
sk i
oc y
pens é</w>
b alises</w>
Bret agne</w>
sépar ément</w>
proven ance</w>
cré ative</w>
Peti te</w>
éché ant</w>
pré voir</w>
sau ce</w>
contrô les</w>
M auri
chal et</w>
ér és</w>
r ar
For ce</w>
plain tes</w>
B ell
Wester n</w>
sup érieurs</w>
C ri
propos és</w>
fond é</w>
achet és</w>
ist a</w>
Stand ard</w>
z éro</w>
nég lig
organ iques</w>
val id
on d</w>
g an</w>
hau ts</w>
b i</w>
conten us</w>
constitu er</w>
H -
appropri ées</w>
men ées</w>
fi che</w>
ri ches</w>
h 30</w>
ser ies</w>
Toy ota</w>
gu i
incen die</w>
h aut
R ock</w>
6 4.
or th
so dium</w>
glis e</w>
Bl ack
chir urgi
parti s</w>
P ME</w>
Gr av
clô ture</w>
E .</w>
sou tient</w>
altern ative</w>
libr ement</w>
ch ères</w>
L ic
Distr ibu
Mich el</w>
détec ter</w>
Jus tice</w>
s pr
com pac
è vement</w>
coff re-fort</w>
diver si
take MORE
takeMORE .net</w>
aménag ement</w>
4 50</w>
st ar
LI ZAR
artis tique</w>
3 2.
un a</w>
intéress é</w>
ericgo wn</w>
install és</w>
bloc s</w>
Ré frigér
réper cussions</w>
conn aît</w>
lo r</w>
vend eur</w>
sin on</w>
cer tification</w>
A .
J an</w>
Ch aî
fr ont</w>
LIZAR TE</w>
tex ture</w>
contribu é</w>
L ev
Flix bus</w>
sou tenu</w>
pu its</w>
caractéris ée</w>
V I</w>
in e
ex cur
st ar</w>
Bo w
ment aire</w>
6 9
L aser</w>
comman der</w>
Hong rie</w>
Fil tre</w>
ti ble</w>
dur abilité</w>
for ts</w>
distric t</w>
Occa sion</w>
es e</w>
coup é</w>
j o</w>
Hu awei</w>
2019-0 5-
sym path
J .</w>
de venue</w>
met tent</w>
brill ant</w>
enregistr és</w>
qu alités</w>
Ex press</w>
Pê che</w>
suiv ent</w>
entraî ne</w>
R hô
F I</w>
numér os</w>
G or
cl e
ent end</w>
am ine</w>
H onda</w>
Déc oration</w>
p ique</w>
ess eurs</w>
en e</w>
D eu
. no</w>
charg eur</w>
m s
4 -0
éc art</w>
i gne</w>
dépu té</w>
ajou t</w>
v ais
dé poser</w>
N o</w>
h o</w>
cu tan
Xi aomi</w>
lle tin</w>
O m
publi ées</w>
gi o</w>
ent ez</w>
P re
Ajou tez</w>
in hi
obten ez</w>
génér aux</w>
Ac tion</w>
h ier</w>
fi abilité</w>
Cal cul</w>
Tu be</w>
B B
g y
g c
Cin éma</w>
Br and</w>
sû re</w>
seu il</w>
affir mé</w>
requ ise</w>
Royaume- uni</w>
me di
it eurs</w>
si er</w>
par k</w>
matri cul
bl er</w>
Ch e
én um
inclu ant</w>
Div ision</w>
not é</w>
cas que</w>
Lav al</w>
f lo
donn era</w>
Dé fense</w>
Ling erie</w>
cour rier</w>
blo g</w>
géo graphique</w>
fac tur
wor ld
tabl ette</w>
f oli
bi n</w>
b ass
Syst em</w>
maj eure</w>
indi cateur</w>
assembl age</w>
ill é</w>
propos ées</w>
Por t
étiqu ettes</w>
excell ence</w>
V an
Dri ver</w>
exist ants</w>
vi tr
V EN
Des tin
5 8
engag é</w>
Cl assique</w>
h an</w>
ét e
En voyer</w>
hos pit
Super mark
réuss ite</w>
pu r
exécu ter</w>
N at
Chauff age</w>
gar s</w>
sé v
impl ique</w>
N a
ép ic
o eil</w>
individu el</w>
appar tenant</w>
intéress és</w>
P U
matis ation</w>
Eur o</w>
inconvéni ents</w>
s aine</w>
préci eux</w>
mor ceau</w>
l une</w>
des crip
Fr u
v intage</w>
ré sul
attr actions</w>
obten ue</w>
rémun ération</w>
c ali
su pr
j on
sélectionn és</w>
att aques</w>
pol i</w>
liné aire</w>
empê che</w>
amo vi
Inst all
fer rovi
U X</w>
cav ité</w>
achet ons</w>
F err
réserv es</w>
ajust ement</w>
cré dits</w>
Ph armac
car bon
zz a</w>
Haï ti</w>
5 9
puis qu</w>
gr en
Al g
sub ventions</w>
impermé able</w>
appel ant</w>
ste in</w>
V illage</w>
s .org</w>
h in
recher cher</w>
latér ale</w>
B ot
Trans ports</w>
fonctionn alité</w>
ati n</w>
Bo x</w>
ec t
Affi chage</w>
Bou te
val oir</w>
olo gue</w>
répon du</w>
F un
parlement aire</w>
occu per</w>
fu tu
A sh
env eloppe</w>
suscepti ble</w>
affec te</w>
En tre</w>
d eur</w>
occa sions</w>
Vi e
h as
Em ball
T F
contribu ent</w>
C P</w>
cap teurs</w>
ét ats</w>
F it
2018-10 -
indépend ants</w>
constat é</w>
der a</w>
considér és</w>
por tion</w>
Lav e-
Journ ée</w>
tr ad
tex tes</w>
ob tient</w>
e able</w>
T op
des -
ges tionnaires</w>
M ini
e v</w>
doc tor
K er
0 7
etwor ld
1 30
1 -0
p n
f oi</w>
ent ou
fémin in</w>
météor ologiques</w>
d ement</w>
b b
Chal et</w>
poly val
Syst ems</w>
A h</w>
cri mes</w>
Mon tre</w>
Génér al</w>
sens ation</w>
étan che</w>
manifest ations</w>
Li eu</w>
st or
P RE
17 0</w>
oli ve</w>
céré monie</w>
circul aire</w>
Est- il</w>
dem ment</w>
im matricul
écou ter</w>
appar aître</w>
Com batt
ongl et</w>
Pro fil</w>
etworld guide</w>
Supermark etworldguide</w>
P ot
communi qué</w>
pro vient</w>
h abil
bar res</w>
spectac le</w>
di z
S um
fais ceau</w>
ro bes</w>
sty lo</w>
introdu it</w>
gi n</w>
Col or
constru ite</w>
arr y</w>
Yam aha</w>
comprim és</w>
C M</w>
trans vers
sub i</w>
sav on</w>
indé sir
h r
ol isme</w>
gam e</w>
O ther</w>
end ri
S ouv
Fil m</w>
IN C</w>
trans former</w>
n d
dri que</w>
cat as
é prouv
ab sol
plan che</w>
T ech</w>
R S</w>
A venue</w>
multi -
c ouvre</w>
M az
G lob
ométr ique</w>
log ie</w>
dipl ô
cab ine</w>
ai mé</w>
tribu naux</w>
og ènes</w>
St ati
L ivre</w>
préc ises</w>
for ums</w>
Con ception</w>
fer mée</w>
B a
tatou age</w>
es thé
chap eau</w>
ca se</w>
vari able</w>
souhai tent</w>
bo ard</w>
vieil lissement</w>
l ot
au gu
et t</w>
Ob jec
exclusi vement</w>
sau na</w>
au me</w>
M P</w>
Centr al</w>
re prises</w>
perspec tives</w>
Ch ef</w>
w ar
Ri o</w>
H ai
D .</w>
Com pan
ni er</w>
é dez-vous</w>
mo s
envis ag
o ffice</w>
lè vement</w>
pi x
Fon d</w>
Ham ilton</w>
ari a</w>
P P</w>
dimen sionn
récol te</w>
fémin ine</w>
re d
pom me</w>
bénéfici e</w>
décri re</w>
ventil ateur</w>
Poi ds</w>
Poss édez-vous</w>
su le</w>
co se</w>
civi l</w>
N aissance</w>
CO M</w>
a trices</w>
h n
Se ign
Al p
soulign er</w>
V W</w>
résu mé</w>
oc tr
merveill eux</w>
Mar ron</w>
provinci aux</w>
our t</w>
secr et</w>
et és</w>
dipl ôme</w>
massi f</w>
k -
gal van
qu e-
Sh er
8 7
M ar</w>
mo re</w>
M ess
sépar ée</w>
plaqu é</w>
accep table</w>
alo gues</w>
écr iture</w>
dépu tés</w>
bran che</w>
Com men
préfér ences</w>
considér ation</w>
personnalis ée</w>
habitu de</w>
terr ains</w>
cré és</w>
termin er</w>
10 5</w>
fem elle</w>
L ec
P el
retourn er</w>
a .org</w>
Ste ph
w al
divis és</w>
env elopp
d ans
Héberg ement</w>
om bre</w>
isra éli
consult atif</w>
p ti
no c
arri vent</w>
AN CE</w>
meu r
cor de</w>
com positions</w>
B A</w>
individu els</w>
collec tive</w>
M é
mainten ance</w>
analy ser</w>
Sto re</w>
tac tile</w>
nu ances</w>
r in
ssi s</w>
défin ie</w>
cli quant</w>
T el
Combatt ants</w>
donn és</w>
res tre
in verse</w>
at tirer</w>
annul ation</w>
Stratég ie</w>
Love pik</w>
B all
Tr adu
anten ne</w>
tu yaux</w>
Whi rl
Equi p
D euxième</w>
influ enc
act ez</w>
W -
sépar é</w>
oc s</w>
Am éric
G B</w>
admissi bles</w>
mon tée</w>
ati vité</w>
Res ort</w>
c ouvert</w>
Cro atie</w>
Boî tier</w>
équ itable</w>
cultur els</w>
é vo
fin ances</w>
Musi c</w>
amélior ations</w>
S UR</w>
Dri ve</w>
nom in
G as
10 4.
re pose</w>
US D</w>
To m</w>
is té</w>
8 9
m aire</w>
d an</w>
Bas é</w>
sch éma</w>
ner veux</w>
Mar c</w>
éth ique</w>
séri eux</w>
exist ent</w>
cu it</w>
Peu t</w>
recru tement</w>
chin oise</w>
R .
P il
0, 5</w>
compéti tion</w>
S on
198 8</w>
g ènes</w>
ass ister</w>
Whirl pool</w>
S F
É cri
pau se</w>
mi gnon</w>
après- midi</w>
em bar
i al</w>
co des</w>
bri dge</w>
in ser
A B</w>
l age</w>
enn u
c m
Adap tateur</w>
fran co
Mag asin</w>
se ille</w>
pass ent</w>
Pré sid
plong ée</w>
Ir an</w>
gi daire</w>
Vi etn
lead ership</w>
eng ager</w>
C off
ré tr
ma x</w>
brev ets</w>
av ière</w>
loc alisation</w>
Auto chtones</w>
co ck
se e</w>
as .com</w>
in ets</w>
v ence</w>
écou lement</w>
vois ins</w>
exig ence</w>
opér ateur</w>
ang les</w>
al é
S D</w>
isol é</w>
exc ès</w>
Bi g</w>
st atistique</w>
favor able</w>
J ack</w>
ti ges</w>
mâ le</w>
té moins</w>
di es</w>
dis ant</w>
el ier</w>
el as</w>
CH E
le dit</w>
génér er</w>
ag erie</w>
gratu ites</w>
mur al</w>
fau dra</w>
dét ente</w>
béné vo
T hi
bran ches</w>
p son</w>
Pl ace</w>
24 0</w>
l entement</w>
cro chet</w>
ac ée</w>
6 4
S qu
é ph
n euro
aider ont</w>
Penn syl
particuli ères</w>
ti c
exist antes</w>
itali enne</w>
cr ain
POR T</w>
environnement aux</w>
Ch er</w>
mix te</w>
com ités</w>
c ave</w>
bl eue</w>
sensi bilité</w>
atte ints</w>
Pay sage</w>
v .com</w>
dériv és</w>
génér ateur</w>
0 4
Fabric ants</w>
vr aie</w>
acc essoire</w>
st atique</w>
dépl oi
Télé vision</w>
téléph ones</w>
aiss ez</w>
affir me</w>
ul ation</w>
Pro jec
A mé
environnement ales</w>
ling erie</w>
fi le</w>
contempor aine</w>
ca te</w>
f li
Mar ine</w>
issu e</w>
gu é</w>
catas troph
É E</w>
som bre</w>
pass e
ob s
com pression</w>
C ouverture</w>
jo ints</w>
connaiss ent</w>
co tis
K E
st ad
g han
maj eur</w>
go û
ten tion</w>
ambi ante</w>
adop tée</w>
Bus iness</w>
fonctionn el</w>
T a
S pi
Pré c
3 -0
inter rup
A si
angl aise</w>
P atr
exper t</w>
el .com</w>
K on
hau tes</w>
A TION</w>
y st
venti lation</w>
op er</w>
distribu teur</w>
J oy
éc u</w>
serv ant</w>
meu bl
Ou tre</w>
sup ports</w>
Bul gar
ges tionnaire</w>
fais ait</w>
en sembles</w>
Sh e
re y</w>
fourn iture</w>
Pl age</w>
entr ant</w>
es- ci</w>
dro gues</w>
accor der</w>
j er
bat aille</w>
O x
réc entes</w>
ch eurs</w>
bi o</w>
Pi er
Anti -
g en</w>
T aux</w>
S B
Mar s</w>
fi ant</w>
g s
B ad</w>
gouvernement aux</w>
en voi
al th</w>
re f
dro gue</w>
sauve garde</w>
co ol</w>
ma ï
L it</w>
w ard</w>
for tes</w>
intellig ent</w>
continu ent</w>
az z</w>
appu ie</w>
H all</w>
Bo isson</w>
ch a</w>
opin ions</w>
V inc
Tap is</w>
Graph ique</w>
c ouverte</w>
Wi Fi</w>
Agri culture</w>
pré limin
bo ok
10 2</w>
Fi che</w>
Techn ology</w>
préserv er</w>
fon te</w>
f al
G lo
Bu dg
tr e-
tionn ellement</w>
pré co
x x
ép ais</w>
dér ou
rac ine</w>
aux -
panor amique</w>
recu eilli
cosmé tique</w>
in gue</w>
Seign eur</w>
Mo ts</w>
met tez</w>
M ed
B ain</w>
vol uti
laiss ant</w>
assur é</w>
envoi e-t-il</w>
ag ro
graphi es</w>
dot é</w>
T hé
vic time</w>
CO M
N iv
L IS
I ll
ag on
lu bri
T M</w>
pauv res</w>
modifi ée</w>
P .</w>
Ob tenir</w>
3 .</w>
tan gulaire</w>
dé passer</w>
détaill é</w>
civ ils</w>
prot ège</w>
RO U
présid ente</w>
G las
l s
dé ment</w>
h aut-par
ex primer</w>
S ab
limit ées</w>
is ateur</w>
cou liss
Re ad</w>
pron on
col lier</w>
M ax
m ill
g ants</w>
G il
par ois</w>
it o</w>
or ce</w>
T Y</w>
p d
M ouv
For ces</w>
ar om
in ées</w>
Ob tenez</w>
F A</w>
Administr ation</w>
D re
intér esse</w>
ch es
Ani maux</w>
confir mé</w>
po ivre</w>
pay é</w>
ot y
haut ement</w>
J um
CO MM
pr o</w>
spécifi cations</w>
igh ts</w>
coû tent</w>
n ing</w>
chrom e</w>
Vi a</w>
R .</w>
d res</w>
EN T</w>
qui ème</w>
empr e
ven du</w>
no tification</w>
av ou
équili br
at o
20 -
Jo se
techn ologique</w>
confir mer</w>
Ri vi
P aul
m m
car touche</w>
agricult eurs</w>
es cale</w>
ass orti
ob e</w>
Mic ro</w>
Ch ac
Bu y</w>
investi r</w>
cylin dre</w>
ci gar
lis me</w>
ch ré
b et
A A</w>
R iver</w>
combus tion</w>
Fin ances</w>
è tent</w>
spaci euse</w>
ray onnement</w>
Rich ard</w>
br ale</w>
ar c</w>
mar in</w>
eff acer</w>
19 80</w>
ap k</w>
vin yle</w>
w h
ent end
circu its</w>
exprim é</w>
atte ign
J on
pens ent</w>
K ing
Cli matisation</w>
combin é</w>
S af
Né anmoins</w>
tex tile</w>
suffis ant</w>
Nouvelle- Écosse</w>
Illu stration</w>
pro fond</w>
w a</w>
tradi tion</w>
ouvr ages</w>
enseign ements</w>
P un
rel ever</w>
dor é</w>
long s</w>
B M</w>
ét end</w>
grav ité</w>
gar y</w>
vic toire</w>
J i
Expl or
fraî ch
Su b
sous- sol</w>
jam be</w>
arrière- plan</w>
mén age</w>
maï s</w>
bou tiques</w>
V este</w>
l .com</w>
fac ult
sty les</w>
O ffici
absor ption</w>
5 mm</w>
accél érer</w>
manu elle</w>
Cl ass
présid ence</w>
qu es-
G S
C lou
sec ours</w>
hy giène</w>
G es
Bo ok
ch êne</w>
M arg
Bat terie</w>
privil égi
S n
An na</w>
2 10</w>
198 7</w>
ver rez</w>
indi quée</w>
restric tions</w>
indispens able</w>
dét ent
dis ques</w>
con joint</w>
h ai</w>
confidenti alité</w>
C LA
travaill ait</w>
confir me</w>
ca p</w>
in ti
fondament aux</w>
m ad
b is</w>
val idité</w>
ph ases</w>
- bracelet</w>
g s</w>
00 0
in .com</w>
em porter</w>
fil i
minim ale</w>
2 30</w>
ap tis
ter res
fix ée</w>
Com pl
remar quer</w>
jou ent</w>
chem ise</w>
cat h
vais seaux</w>
import ations</w>
color é</w>
Ser ver</w>
19 0</w>
por tug
Lis bonne</w>
fond ation</w>
favor is</w>
Par cs</w>
s ain</w>
Ho st
z y
maîtr ise</w>
P eu</w>
Ét ant</w>
four rure</w>
l ateur</w>
MP 3</w>
pi t</w>
complè tes</w>
appro ches</w>
pl ur
opportun ités</w>
contrô l
auton ome</w>
Amé li
syn chron
is que</w>
gi le</w>
mil le</w>
facil ité</w>
réguli er</w>
en voi</w>
c ils</w>
art éri
Mar k</w>
v écu</w>
direc trice</w>
bru t</w>
s n
Sk i</w>
ver b
Z one</w>
sec s</w>
m ans</w>
gé nie</w>
rang ée</w>
dé livr
O U
Con ver
syst ém
H eures</w>
C ar</w>
ett ez</w>
16 2.
con s</w>
M is
E conom
arr on
diam ant</w>
e il
k k
décl are</w>
Mar ina</w>
im ent</w>
st an
h eur</w>
í a</w>
ch ez-vous</w>
T ok
Bos ch</w>
parti ellement</w>
décor atif</w>
transfér er</w>
industri elles</w>
de bout</w>
ay on</w>
anti bio
él ande</w>
établi s</w>
var ie</w>
Con formément</w>
parti tions</w>
par ts</w>
ber ge</w>
ar ch</w>
Bu reaux</w>
14 .
séri es</w>
reç oivent</w>
commu tateur</w>
erg ie</w>
concentr er</w>
Smit h</w>
E v
fu tures</w>
ext érieurs</w>
attend ent</w>
L ad
fac tu
In don
Remar que</w>
R um
I no
Anni versaire</w>
port eurs</w>
ez- nous</w>
dis poser</w>
- d</w>
vél os</w>
destin ées</w>
cho c</w>
Vi de
d ants</w>
M ain</w>
éd ent</w>
clas ses</w>
s ées</w>
cons entement</w>
L ac</w>
Terr ain</w>
Sour ce</w>
pe intures</w>
rom antique</w>
cu ir
Lond on</w>
198 5</w>
r .com</w>
anci ennes</w>
pl aign
engr ais</w>
particip ant</w>
avanc ées</w>
p shire</w>
Pol ar
Cal gary</w>
.p l</w>
satis fait</w>
An ge
im pu
H aw
pr ie</w>
R U
Conn ex
o z</w>
cook ies</w>
res sor
lam pes</w>
Vidé os</w>
isc ines</w>
ab eth</w>
Mar tin
zh ou</w>
pour suite</w>
in k
in aires</w>
réc ent</w>
in ez</w>
exer ce</w>
aéri en</w>
am s</w>
long itu
fi ers</w>
épi ces</w>
0 8
2 ème</w>
Disponi ble</w>
devr ait-elle</w>
ak h
ven d</w>
so le</w>
Sén at</w>
simult anément</w>
lo w
syn thé
mém or
B LE</w>
produ ite</w>
garanti t</w>
Annon ces</w>
télé commande</w>
b ack</w>
K at
démar che</w>
terror isme</w>
déten tion</w>
X VI
convers ation</w>
Constru ction</w>
5 4
trans mis</w>
cou ture</w>
qu al
futu rs</w>
Ant oni
var ier</w>
Char te</w>
élég ante</w>
Ven ise</w>
cou ssin</w>
ai rie</w>
ci ties</w>
longitu din
calcul er</w>
Compan y</w>
personn age</w>
figu rant</w>
su sc
personnalis és</w>
fu ture</w>
commod ités</w>
Jac ques</w>
Dig ital</w>
mo indre</w>
j eter</w>
inter nau
dess inée</w>
Mouv ement</w>
voul ait</w>
F lu
y s</w>
k re
techn ologiques</w>
t a
Re trouvez</w>
dét ecteur</w>
télé communications</w>
fl ash</w>
Por te</w>
2. 5</w>
tour istes</w>
è mement</w>
P es
spécialis ée</w>
ri deaux</w>
p .
sou dure</w>
Lon gueur</w>
Can on</w>
casser ole</w>
ai dé</w>
exist ant</w>
cu ri
ence intes</w>
décr its</w>
contrain tes</w>
trans actions</w>
re production</w>
fourn itures</w>
aigu ille</w>
Z e
esti mé</w>
- 7
lu re</w>
ad joint</w>
Tab ac</w>
c enti
Communi cations</w>
essi n</w>
aigu ë</w>
er ia</w>
P oign
Bulgar ie</w>
j onc
S P</w>
di esel</w>
S en
en ver
ré ellement</w>
res source</w>
st éri
pe aux</w>
QU ES</w>
hab ill
s atu
aur ais</w>
ai des</w>
hor loge</w>
- sur-
Franç ois</w>
te d</w>
pu ce</w>
F our</w>
Ca pac
deman dées</w>
Cour onne</w>
B ang
ni a</w>
encour ag
p v
in e-
f eux</w>
M C
w all</w>
u .com</w>
ch o</w>
aux quelles</w>
n as
cit aires</w>
voul u</w>
bour se</w>
Corpor ation</w>
esti n</w>
annu aire</w>
Appu yez</w>
ép is
anc a</w>
Su ites</w>
tru ction</w>
ch ocs</w>
Idé al</w>
mu qu
intitu lé</w>
hist oires</w>
d ay
G T
t al</w>
form ent</w>
tr onic</w>
Su jets</w>
tradi tionnelles</w>
oi ent</w>
Trai tement</w>
tiss é</w>
réserv é</w>
Industr ie</w>
Contac ter</w>
il ité</w>
ordin aires</w>
r as
permettr ont</w>
B RI
olo gues</w>
ty pique</w>
proté ine</w>
cuill ères</w>
W ill
Prin ce</w>
co qu
human itaire</w>
E U</w>
B il
exam ens</w>
0 6
G C</w>
provinci al</w>
Budg et</w>
Flor ence</w>
Chris t</w>
indi cation</w>
univers itaire</w>
asse oir</w>
S L
éd iteur</w>
onn ements</w>
W o
correc te</w>
signal er</w>
p p</w>
c ite</w>
sé ances</w>
Muni ch</w>
ét al
b ad
S mart</w>
y n</w>
Dr oit</w>
adolesc ents</w>
Willi am</w>
inten se</w>
Î les</w>
h éritage</w>
eni rs</w>
eg o</w>
d a
UN E</w>
latér ales</w>
attribu ts</w>
H A
habit at</w>
g és</w>
ul té</w>
lic ences</w>
b om
écr ite</w>
D av
oi r-
g r</w>
c el</w>
Su d-
journ alistes</w>
e tière</w>
connex ions</w>
ch at
cel aine</w>
pour tant</w>
initi al</w>
re group
syndi cats</w>
cal cium</w>
U -
sc ell
gar de-
végét ale</w>
tou x</w>
arriv ez</w>
Ap p</w>
élabor é</w>
auto coll
H av
á n</w>
g il
Z i
dépend ance</w>
Str as
D IS
syn thétique</w>
T rou
PI B</w>
jur y</w>
ju pe</w>
Sh op
8 .com</w>
tax es</w>
D C
considér able</w>
p ic
manu ellement</w>
is lam
ti t
Be ige</w>
travaill ant</w>
collec tions</w>
établi es</w>
équival ent</w>
min i-
pou ce</w>
H igh
trai tées</w>
poli s</w>
is t</w>
Ex am
s ale</w>
résid entiel</w>
non- fumeurs</w>
conclu re</w>
rend ent</w>
po table</w>
plas tiques</w>
H il
garanti ss
accor dée</w>
Spéci fications</w>
van ie</w>
ray ures</w>
o f
fourniss ant</w>
posi tionnement</w>
fran ch
correspon dent</w>
p el</w>
cré atif</w>
z ar
N atu
.com. br</w>
é no
g enti
HD MI</w>
T ch
1. 6</w>
3 1
end or
instru ction</w>
am oureux</w>
ci ers</w>
avanc é</w>
accep te</w>
Bu d
ossi er</w>
obten tion</w>
con tres</w>
Méd iterran
Mot s-clés</w>
Col lec
cuir -bracelet</w>
pal ette</w>
au ts</w>
Cer tifi
S TE
Ann exe</w>
sal u
Sy rie</w>
J ér
É conom
publi citaires</w>
it h</w>
Figu re</w>
pouss er</w>
f oyer</w>
Pro vence</w>
Phili ppe</w>
An ne</w>
O K</w>
entr ev
douc eur</w>
éd rale</w>
compati bles</w>
c ill
Tot al</w>
s v
pi ano</w>
vo itu
ré tro</w>
r hu
16 0.
nég atif</w>
T el</w>
Pu erto</w>
O pér
Appliqu er</w>
indépend ance</w>
dirig é</w>
céré ales</w>
w e</w>
cos tume</w>
ac cidents</w>
multi pl
Di pl
Mot o</w>
reconn aît</w>
Com pos
es thétique</w>
dy s
I ra
D P
sh are</w>
av ère</w>
ag i
Pl ac
L ong
ro u</w>
décor er</w>
complém entaires</w>
chen ette</w>
Ch â
em e</w>
K le
K ey
Col ombie</w>
si s</w>
C it
24 .
i es
chirurg ie</w>
bat teries</w>
souhai tez-vous</w>
am ateurs</w>
Matéri au</w>
pos t-
tab leaux</w>
ez- les</w>
Produc t</w>
p h</w>
it ale</w>
t en</w>
verti cale</w>
bénéfici ent</w>
15 -
po mp
extr ême</w>
J our</w>
Emball age</w>
bu il
m ées</w>
thé orie</w>
célè bres</w>
enti tés</w>
enni es</w>
Phili pp
mal ade</w>
m û
vulnér ables</w>
V il
Terr asse</w>
198 6</w>
confor mes</w>
bour ge
He y
or k
Meill eures</w>
re trouve</w>
err a</w>
pas sion</w>
Re f</w>
LE CT
u tion</w>
domes tique</w>
sus pec
g ent</w>
magni fiques</w>
A ca
Tempér atures</w>
T ai
escal ier</w>
déc ennies</w>
Lu xe</w>
Lim ited</w>
Dou che</w>
tu ber
pi les</w>
im m
en cad
agré ables</w>
étab lit</w>
enn ement</w>
G h
è ses</w>
A D</w>
2 17.
d ames</w>
ti ème</w>
ers .com</w>
entr ez</w>
rén ées</w>
personn ages</w>
fer mer</w>
c end
antal ons</w>
ai a</w>
ro buste</w>
pl ay
C as</w>
ém is</w>
2018-10 -0
mu le</w>
cy c
ES T</w>
S li
constitu ée</w>
adap tées</w>
Prom o
élé v
Por te-
mé tier</w>
conn ues</w>
3 3.
autor isée</w>
Stras bourg</w>
Chris tian</w>
ouver tures</w>
et y</w>
Au di</w>
z er</w>
avanc ée</w>
tu é</w>
t- ils</w>
prépar és</w>
re porter</w>
hydro gène</w>
fai r</w>
évi dent</w>
rar ement</w>
A n</w>
A lib
pi g
caract ères</w>
ani a</w>
di min
projec teur</w>
dé gag
en de</w>
corro sion</w>
Ch ic
roul ant</w>
V ision</w>
V eg
B en</w>
all ai
visi bilité</w>
ver nis</w>
t oires</w>
roy ale</w>
Su cc
Pu issance</w>
des truction</w>
S ex
possè dent</w>
dr ait</w>
B is
Él ément</w>
compar er</w>
Bill ets</w>
s aisir</w>
at s
sécur isé</w>
q .com</w>
ag issant</w>
C au
v ing
jou et</w>
Li br
Bi en-être</w>
sol aires</w>
Pa trimoine</w>
ü n
individu elles</w>
eter in
cap e</w>
an on
pr endra</w>
Trouv é</w>
hér os</w>
bal le</w>
sais onni
Espa ce</w>
CR TC</w>
amus ant</w>
vers ement</w>
p ée</w>
Li fe</w>
superfici e</w>
arab e</w>
G ants</w>
0, 00</w>
ym n
r et</w>
bil atér
Cot on</w>
visu el</w>
renouv ellement</w>
cli quer</w>
Réserv ations</w>
recu eillir</w>
Cas till
2- 3</w>
p inc
concern ées</w>
mor ts</w>
périph érique</w>
M am
u zzi</w>
A ven
eur -
Ann ée</w>
cherch ent</w>
En ter
chari ot</w>
cer a</w>
b rée</w>
ent a</w>
in clin
ex posés</w>
Mar y
sén ateurs</w>
con cevoir</w>
18 5.
s el
Par tag
élè ve</w>
t ester</w>
auton omie</w>
Wh it
ais ance</w>
conver tisseur</w>
B E</w>
Contr ôle</w>
cor don</w>
pertin ents</w>
C ES
O f</w>
k ir
blan ches</w>
Jus te</w>
rénov é</w>
P le
Ni col
L ecteur</w>
- même</w>
mo tion</w>
Boute ille</w>
dipl om
m en</w>
B oul
O k
sal aires</w>
pen sions</w>
ot ech
mar ins</w>
fi ables</w>
Bou cles</w>
mol é
N etwor
o p</w>
dé charge</w>
0 5
éthyl ène</w>
exac te</w>
doig t</w>
V illes</w>
indépend amment</w>
é tions</w>
ent- ils</w>
M e</w>
h l
méd iterran
coût eux</w>
vari ations</w>
pres cr
vol et</w>
vis ée</w>
an te-
L ite</w>
Î le</w>
plac és</w>
aff ili
z o</w>
ti re</w>
Z -
répar ations</w>
Vo il
Ré union</w>
w ell
sol vant</w>
charg és</w>
Réfrigér ateur</w>
Wat er
Vou lez-vous</w>
r inc
né anmoins</w>
cour ante</w>
Empl oi</w>
trans action</w>
expl ic
Recher chez</w>
pro p
détermin e</w>
RE S
pu zzle</w>
extr action</w>
Int érieur</w>
Ê tre</w>
J as
prononc er</w>
G ab
proc esseur</w>
effec tivement</w>
Caf é</w>
vit esses</w>
ingéni erie</w>
R eli
i tinér
év èn
st ensi
Par ten
th y
son ore</w>
présent ations</w>
écou te</w>
tr ons</w>
pac k</w>
15 4.
ri a</w>
n ylon</w>
pal ais</w>
Télé commande</w>
Par t
lè tes</w>
flor al</w>
du quel</w>
and y</w>
phil os
n oirs</w>
infr action</w>
exécu tées</w>
Terr it
x ième</w>
Suiv ant</w>
Alg érie</w>
ret te</w>
m ass
co lore</w>
Trans port</w>
ajust er</w>
Ar r
Fabri quer</w>
cin quième</w>
F L
Cul ture</w>
entrepren eurs</w>
L om
po int
D essin</w>
rê ves</w>
représent ée</w>
tr ier</w>
er aient</w>
ch ats</w>
H ill
em a</w>
al ier</w>
Alib ab
obten ues</w>
Col lier</w>
f eld</w>
R S
alis ées</w>
M .
co que</w>
U K</w>
ra fraîch
déf auts</w>
Pi èce</w>
H AR
G RC</w>
chau ds</w>
gi ques</w>
com pact</w>
Pennsyl vanie</w>
sy non
Nouv el</w>
ter ri
r ag
par ent
Ac tivité</w>
sou lev
- 2500</w>
natu rellement</w>
Hou sse</w>
enti té</w>
C en
B ottes</w>
10 ,
Pom pe</w>
S auv
Ter re-
K M</w>
souhai table</w>
génér ations</w>
C i-
Ph il
Prot o
v é</w>
Vi olet</w>
ir o</w>
Voil à</w>
V O</w>
trai tée</w>
ti cs</w>
produc teur</w>
ver res</w>
cy ber
ar c
man ge
compar ative</w>
M T
Pér ou</w>
Parti es</w>
Mar seille</w>
déc al
A str
L .</w>
cour onne</w>
Mém orial</w>
réglement aires</w>
bi r
fin es</w>
Im mo</w>
O lym
Ed mon
D yn
titu des</w>
Jou er</w>
reç us</w>
pal estini
P antalon</w>
on i</w>
50 -
sauv age</w>
o que</w>
Spe ci
bag ages</w>
Ar c
P ai
lac unes</w>
er es</w>
L .
candid ature</w>
neu fs</w>
ci bles</w>
automo biles</w>
attr ap
7 8
si ère</w>
K az
opér ateurs</w>
infec ti
20 9.
È RE</w>
rec ouv
ell i</w>
at h</w>
excep tionnelle</w>
supr ême</w>
révél é</w>
restaur er</w>
défin it</w>
Chem ise</w>
mus ées</w>
déploi ement</w>
Vi enne</w>
épau le</w>
str ati
mur ale</w>
chauff ée</w>
sh ampo
e .org</w>
ath lètes</w>
r ts</w>
fai bl
dou lour
pa tron
gout te</w>
observ é</w>
x y</w>
qu eue</w>
th em
Apart ment</w>
ré formes</w>
ig an</w>
c ez</w>
V ari
tr au
c alement</w>
bour ses</w>
V e
I voire</w>
mili eux</w>
inter action</w>
Meu bles</w>
v ec
stad t</w>
f ast</w>
cou pl
trav er
Z h
av ant-
Univers ity</w>
t- on</w>
vend us</w>
Vietn am</w>
scol aires</w>
M an</w>
administr atives</w>
K O
k en</w>
appréci é</w>
amovi ble</w>
cor po
dé du
mén ages</w>
ad mi
ad mission</w>
Tradu ction</w>
j oie</w>
inter pr
mauv aises</w>
en z</w>
d entaire</w>
ar de</w>
fréqu ences</w>
1. 1</w>
partici pe</w>
Un ité</w>
Cou tu</w>
é do
ver té
ter ait</w>
sui vie</w>
lo y
accompagn é</w>
di n</w>
val ide</w>
al titude</w>
R id
Cam p
n ag
mu sul
Pl astique</w>
ev ille</w>
diminu er</w>
con serve</w>
an ce-
CO U
Nap les</w>
y e
rem placé</w>
extr a-
loc k</w>
stock er</w>
est ation</w>
endr ait</w>
Indon ésie</w>
Fre e</w>
émet teur</w>
défil er</w>
ci on</w>
prim aires</w>
k u</w>
T it
Con grès</w>
requ ises</w>
préfér ée</w>
Ne ws</w>
pa le</w>
contin ent</w>
vari ables</w>
no ci
bro y
Fon ction</w>
étudi é</w>
hi o</w>
Sh ang
iss an</w>
Qu oi</w>
artéri elle</w>
sili cium</w>
gr ains</w>
B ande</w>
engag és</w>
Publi é</w>
tro -
port ail</w>
an derie</w>
t z
ent hou
per turb
ultr as
f ans</w>
Af ghan
m yn
bi envenue</w>
Ach eté</w>
développ és</w>
IS E</w>
dé mon
W A</w>
ap porté</w>
buff et</w>
allem ande</w>
op tiques</w>
W all
ent o</w>
G AR
nécess itent</w>
aux ili
E dition</w>
qu ar
EL LE</w>
souv enirs</w>
app ell
int érieurs</w>
human ité</w>
assur ant</w>
dé lin
chron ographe</w>
re poser</w>
sou d
servi ette</w>
23 6.
rem is</w>
démar rez</w>
Plaqu ettes</w>
In nov
ni pe
Charg eur</w>
compl ications</w>
P ak
l ourd</w>
Col um
uni vers</w>
200 .
t ait</w>
Champi onn
C ologne</w>
sk y</w>
Dow n
m ware</w>
D in
évalu é</w>
profon dément</w>
instant an
Nor th
pa st
L abr
ar ou
abr i</w>
échapp ement</w>
gi es</w>
Bro wn</w>
bob ine</w>
O D
fréqu emment</w>
r ad
consac ré</w>
bénéfici aires</w>
re passer</w>
dou leurs</w>
F leurs</w>
or ale</w>
tradu it</w>
co ts</w>
alog ique</w>
municipal ité</w>
Li ber
provis oire</w>
m ant</w>
entr é</w>
bi enf
Bas se-
j oy
év acu
vis ent</w>
r ite</w>
là- bas</w>
Ach at</w>
éth ane</w>
im men
Ca p</w>
rel ève</w>
gor ith
T ele
5 3
scri p
mont ants</w>
Capac ité</w>
é si
rou te
ock ey</w>
pays ages</w>
Pers onnes</w>
m ons</w>
O ber
pru dence</w>
0 9
syn drome</w>
ett i</w>
an che</w>
affec ter</w>
L ine</w>
vis a</w>
mon iteur</w>
Lam pes</w>
ff e</w>
P et
z inc</w>
sal ade</w>
dét éri
il y</w>
cl ari
per s</w>
os .com</w>
en ses</w>
baign ade</w>
gar n
it ées</w>
b ic
po lar
coiff ure</w>
Mar y</w>
Le e</w>
vill as</w>
rur ales</w>
y l</w>
occup é</w>
ell y</w>
améric aines</w>
ot o</w>
budg étaire</w>
ol o</w>
recev ons</w>
L ag
pen di
p é</w>
Cré er</w>
qu arti
ni ck
viol et</w>
tranqu ill
commerci alisation</w>
étrang ère</w>
ter n</w>
vice- président</w>
grand -
mol écu
remerci er</w>
Cab inet</w>
ver n
K ur
fac ture</w>
attén u
ab str
Ré f</w>
Az ur</w>
tax i</w>
ap port</w>
û te</w>
car reaux</w>
Tour isme</w>
jo inte</w>
To il
per ç
Docu ments</w>
Ch y
iss ements</w>
vr ac</w>
it -
gu itare</w>
in habitu
Arg entine</w>
eth nique</w>
cl ou
Pr ague</w>
OC DE</w>
Ch auss
pê ches</w>
au dit</w>
Seu lement</w>
tu mes</w>
trans porter</w>
particip ent</w>
onn aire</w>
Toul ouse</w>
Pro vinci
4 0.
param ètre</w>
arm ées</w>
Gro s</w>
étro itement</w>
Con sul
10 4</w>
offici ellement</w>
ad jac
Consult ation</w>
cor ruption</w>
AB S</w>
ér ée</w>
téléph onique</w>
im pac
oo m</w>
lè ve</w>
sub stitu
rup ture</w>
montr ant</w>
V ER</w>
uni or</w>
pit aux</w>
install ée</w>
comb att
R ES</w>
c n
B N
e- pain</w>
lu cr
in ond
S lo
NR K</w>
ét oile</w>
né er
au trement</w>
volu mes</w>
ab is</w>
G all
ing er</w>
pa daire</w>
assembl ée</w>
cu reur</w>
K G</w>
Ju li
i er
et on</w>
envis ager</w>
a pour</w>
In v
F F</w>
Vol k
I L
C arr
30 00</w>
a ç
hum eur</w>
Ren ault</w>
Entr ée</w>
p H</w>
bi om
Cal endrier</w>
oign ons</w>
régu lation</w>
médi cales</w>
fr ères</w>
stock s</w>
quel ques-
lym ph
accor dé</w>
1 200</w>
et fair</w>
y ou
sur vie</w>
désign é</w>
crist aux</w>
con venu</w>
P ack
T es
fourniss ons</w>
Z élande</w>
v as</w>
res sembl
favor ise</w>
déf endre</w>
ét endre</w>
équ ité</w>
sé cher</w>
cy cl
A h
19 70</w>
correc tion</w>
convi vi
bro ch
Dim en
mondi ales</w>
appliqu ées</w>
.n l</w>
tu tori
m atu
yr .no</w>
w ich</w>
ch s</w>
Ch aise</w>
in car
jug ement</w>
explo iter</w>
6 50</w>
isi ble</w>
f an</w>
impl ant
F en
vis és</w>
pens ée</w>
o w</w>
myn etfair</w>
convainc u</w>
Étu des</w>
re vient</w>
produc tions</w>
par a
ométr ie</w>
au str
Edmon ton</w>
Derni ers</w>
mar qué</w>
coff re</w>
as tron
ow n</w>
g et</w>
Zu rich</w>
Dé solé</w>
en .com</w>
Philipp ines</w>
s ant</w>
kit chenette</w>
Gre en
pé di
in corpor
blu re</w>
complex ité</w>
Réserv ation</w>
P end
P .
Liv res</w>
In géni
ev a</w>
op port
it ants</w>
robo t</w>
G ER</w>
transfer ts</w>
ni g
Classi c</w>
enti n</w>
Com press
su isse</w>
rem ettre</w>
tri c</w>
t aine</w>
sau rez</w>
o ver
S ti
Antoni o</w>
Afghan istan</w>
rur al</w>
Vac ances</w>
Flor ida</w>
3. 0</w>
s eurs</w>
qu is</w>
mor t
at or
Propri été</w>
3, 5</w>
terr asses</w>
consci ent</w>
Dom in
chi c</w>
S ection</w>
F il</w>
gc .ca</w>
É cou
tém oin</w>
mondi aux</w>
O hio</w>
N issan</w>
Sing apour</w>
stensi les</w>
quali fiés</w>
ou l</w>
dimin ue</w>
In s
C um
7 9
admissi ble</w>
Br on
stric tement</w>
préco ce</w>
le vier</w>
amélior ée</w>
filtr age</w>
am ples</w>
C G
réglement aire</w>
tro l</w>
sid a</w>
Pro grammes</w>
Cam éra</w>
Ré per
ar .com</w>
ad em
cock t
om iques</w>
déci de</w>
cô ne</w>
ou e</w>
g ain</w>
2019-0 5-0
quarti ers</w>
mentionn és</w>
er ine</w>
Mon di
b arrière</w>
Consult ez</w>
flexi bilité</w>
S un</w>
Vall ey</w>
C N</w>
Aéro ports</w>
continu era</w>
arr ête</w>
Écr an</w>
m èn
inscri vez-vous</w>
ins pir
er b
anti cip
A P</w>
s oph
Win nipe
Lo ve</w>
dress ing</w>
Mus eum</w>
D it
Car aï
Ch rom
it ectu
M D</w>
pouv aient</w>
G H
Entre prises</w>
D IN
fabri quer</w>
Com pa
ro ck</w>
enthou si
amélior é</w>
mér ite</w>
f aune</w>
W is
Cor rec
ti fier</w>
posi tives</w>
chois ie</w>
P RI
Con stitution</w>
Qu eb
visu elle</w>
pa pe</w>
comprim é</w>
bon heur</w>
Se con
Mar k
gén étique</w>
13 -
fi dè
Souv ent</w>
sol v
intéress ante</w>
Qu ant</w>
G em
sanc tions</w>
co pe</w>
Yu kon</w>
D oc
con viennent</w>
L C</w>
équip és</w>
ti gi
ér as</w>
Él éments</w>
co t</w>
at titude</w>
Ill inois</w>
Fran k
B est</w>
fer ont</w>
ed a</w>
u tér
A ide</w>
pharmaceu tiques</w>
con com
Sup pl
gi on</w>
su mé</w>
reli é</w>
h ex
am ent</w>
fati gue</w>
brou ill
Ré du
ac on</w>
pour suit</w>
s o</w>
7 6
al gorith
ann ex
rou bles</w>
r â
identi ques</w>
prof it
lég ers</w>
i i</w>
ax es</w>
For mation</w>
su bi
B avière</w>
adres ses</w>
L ang
Con cep
univers elle</w>
passe port</w>
insec tes</w>
détent eurs</w>
chois is</w>
Vo itures</w>
actu alité</w>
Suiv ez</w>
kre is</w>
termin ée</w>
TA N</w>
É gypte</w>
wit h</w>
p per</w>
F P</w>
sond age</w>
salari és</w>
ectu eux</w>
cuis inière</w>
Nouv eaux</w>
Pro ven
g .
esti mation</w>
Labr ador</w>
Cam er
on ale</w>
e te</w>
chau des</w>
Ci- dessous</w>
un g</w>
ma trice</w>
Vie w</w>
Matéri aux</w>
re prise</w>
pn eu</w>
mic ro</w>
administr ateur</w>
dé pression</w>
couver ts</w>
Enf ant</w>
ü r
recomman dée</w>
dédi é</w>
Ax ess</w>
l on</w>
Deu ts
com battre</w>
Royau me</w>
métab olisme</w>
int ement</w>
ch ère</w>
par fum
on du
hô pitaux</w>
comparti ment</w>
PR O</w>
g ée</w>
all é</w>
ob é
li tion</w>
w ide</w>
15 00</w>
st age</w>
cré ativité</w>
é oli
rece vr
form ats</w>
pl ay</w>
c ant
sé cu
V endre</w>
sur pris</w>
cont ourn
administr atif</w>
éri eu
mon étaire</w>
connaiss ez</w>
D O</w>
sû reté</w>
M ai</w>
Cap teur</w>
sauv ages</w>
in sul
X P</w>
T H</w>
ver a</w>
ampou les</w>
O S
rec tangulaire</w>
Si ège</w>
amb ou</w>
Comman de</w>
pi le</w>
fonctionn elle</w>
1. 2</w>
pneu matique</w>
métho d
ess aie</w>
dol lar</w>
Mon t-
yl ène</w>
Résid ence</w>
parlement aires</w>
cell es-ci</w>
asi le</w>
tr action</w>
sur f</w>
bl ess
électro de</w>
Pr ès</w>
12 ,
stimul er</w>
ri que</w>
rigi de</w>
jo lie</w>
fonctionn ent</w>
adi s</w>
nuclé aires</w>
h es</w>
es h</w>
climatis é</w>
ass ist
vari antes</w>
EL S</w>
meu blé</w>
tr aces</w>
dé coll
car rel
c teur</w>
Winnipe g</w>
st one</w>
internau te</w>
excep tionnel</w>
en h
as y
Gen er
1 15</w>
estim ations</w>
S pec
Franc isco</w>
sou dage</w>
Alber t</w>
pa les</w>
di r
arab es</w>
mal heureusement</w>
con ventions</w>
vis es</w>
R appel
R ac
Mont pel
seu les</w>
n oires</w>
vill ages</w>
faç ade</w>
commenc ez</w>
Mem bres</w>
pist on</w>
ex -
autorou te</w>
comb iner</w>
au d</w>
aff ron
C lo
Trans fer
mar ge</w>
re van
6 2.
5 2
por tera</w>
modifi ant</w>
intéress ants</w>
cou ples</w>
16 V</w>
Partag ez</w>
béné fice</w>
az ote</w>
passi onn
Al bu
ap proxim
D el</w>
ois eau</w>
journ aux</w>
o h
dépend ent</w>
amb our</w>
achet eurs</w>
S AN
H ard
fin ement</w>
es tr
Ê tes-vous</w>
diver tissement</w>
Roul ements</w>
revan che</w>
il er</w>
extra ordinaire</w>
espér ons</w>
confir mation</w>
c re</w>
ren contres</w>
immun itaire</w>
all s</w>
D ossier</w>
fraî ches</w>
an y</w>
IN TER
prob abilité</w>
T enn
ges tions</w>
ent ée</w>
prescri t</w>
viv ants</w>
ferrovi aire</w>
Ad ri
vis é</w>
Alli ance</w>
Écri re</w>
inten si
ajou tant</w>
Actu ellement</w>
g our
abs ent</w>
Ph o
B ob
œu f</w>
sépar és</w>
li ve</w>
identi que</w>
In c.</w>
W el
30 -
mus culaire</w>
appuy ant</w>
ac tionn
diag ram
ON E</w>
L é
J VC</w>
Chy pre</w>
P av
N ex
ner v
refl ète</w>
cu lin</w>
Derni ère</w>
éch ec</w>
religi on</w>
spécialis ées</w>
bl age</w>
Du rée</w>
insuffis ance</w>
corrig er</w>
G NE</w>
représent er</w>
immédi ate</w>
Dur ant</w>
mé trique</w>
con gé</w>
achet eur</w>
E tu
É qu
ne w</w>
int érieures</w>
Co oper</w>
K in
1 A</w>
consomm ateur</w>
all ong
ach ev
fu ge</w>
La w</w>
ér ez</w>
Déc ès</w>
gonfl able</w>
h ard
P G</w>
l -
P AN
K om
sub s
compos ante</w>
Cas t
concentr ations</w>
parti tion</w>
an y
E E</w>
Man ches</w>
201 6-0
fu ite</w>
B onne</w>
é mul
ali a</w>
LA N</w>
D H
is ons</w>
L IN
our i</w>
de vises</w>
us ines</w>
tur é</w>
sembl ables</w>
S ON
onn e-
déten us</w>
vag ues</w>
S è
Volk sw
Pu isque</w>
souhai té</w>
To wn</w>
Ges tionnaire</w>
20 8.
utilis ons</w>
financ er</w>
P ère</w>
enregistr ée</w>
fix és</w>
Re al</w>
Or din
Caraï bes</w>
i tions</w>
albu m</w>
St an
Mach ines</w>
G au
Cor ps</w>
voul oir</w>
val or
t aire</w>
publi és</w>
partag é</w>
F T</w>
seg ment</w>
P M</w>
r ay</w>
en lev
cour be</w>
TI C</w>
Chic ago</w>
lav abo</w>
châ ssis</w>
inqui ét
cour amment</w>
s p
c esse</w>
sembl able</w>
ren om
M É
acou stique</w>
indésir ables</w>
heur euse</w>
e le</w>
al cal
Ag ent</w>
bi en
plur alité</w>
p anc
annu els</w>
H a
Con t
Ali mentation</w>
end er</w>
c l</w>
am bo
prof ils</w>
L TD</w>
r ace</w>
Ex t
compéti tivité</w>
poign ées</w>
ok e</w>
ni k</w>
AD A</w>
bi z</w>
ar o</w>
conjo intement</w>
érieu rement</w>
ob us</w>
inscr its</w>
3 20</w>
viol ations</w>
B un
av es</w>
Di esel</w>
Pos ez</w>
Mad ame</w>
n m</w>
cer titude</w>
c .
P ass
Ju an</w>
Scho ol</w>
bu ts</w>
30 4</w>
ser vir
inter diction</w>
fis cale</w>
T ag</w>
Li b
Initi ative</w>
ro ses</w>
pro lon
Ham bourg</w>
Ch ili</w>
eni x</w>
Lo t</w>
Gard en</w>
souff le</w>
éris on</w>
lenti lle</w>
achet ez</w>
tran ches</w>
s ing
pol it
crit ère</w>
re .com</w>
correspond ance</w>
Sou th
arch itectu
1. 5</w>
cop t
recycl age</w>
mélang eur</w>
Ken ya</w>
co r</w>
bouill ante</w>
Volksw agen</w>
Im mobilier</w>
po ts</w>
mas ter</w>
inform atiques</w>
u d
Méditerran ée</w>
tu aire</w>
senti ments</w>
m el
sup pose</w>
cré ant</w>
compl ément</w>
in ég
dé coul
S mart
7 4
T PU</w>
tourn ée</w>
béné fices</w>
Po pul
w in</w>
di -
con sécu
ci ment</w>
su n
pa ci
Au gu
éni que</w>
immobil iers</w>
Chev eux</w>
pa gnes</w>
const ater</w>
Al ph
résul te</w>
le .com</w>
l end
go gne</w>
pos ez</w>
optimis er</w>
9 1.
10 6</w>
v s</w>
t z</w>
gouvern eur</w>
ent entes</w>
ampo n</w>
K or
rich esse</w>
Gol d</w>
É glise</w>
nav ette</w>
bil les</w>
ampou le</w>
Nor man
san itaires</w>
infr arou
ant a</w>
remarqu able</w>
personn alité</w>
fin ir</w>
abord able</w>
si um</w>
program mé</w>
chev aux</w>
cal ories</w>
A I</w>
p ation</w>
inter rom
mag ique</w>
f es
dé montré</w>
p i</w>
c ac
inv entaire</w>
m ez</w>
198 4</w>
jon ction</w>
es té</w>
cir cons
to -
sorti es</w>
environn ements</w>
es .
K an
at on</w>
P T</w>
préfér és</w>
déc o</w>
Boî tes</w>
poly mères</w>
mp ique</w>
douc ement</w>
K enn
éris ation</w>
mat elas</w>
Por tefeuille</w>
ré volution</w>
im position</w>
d able</w>
Condi tions</w>
étag ères</w>
grand ement</w>
éro l</w>
fi ées</w>
R ent
protég é</w>
s pon
inser tion</w>
enti els</w>
nour rir</w>
demand eurs</w>
pati o</w>
D ro
An vers</w>
famili al</w>
Mauri ce</w>
C IS
ish i</w>
per çu</w>
color ation</w>
m as</w>
travaill ez</w>
lucr atif</w>
vol ant</w>
sépar ées</w>
mou rir</w>
min es</w>
législ atives</w>
mas culin</w>
adéqu ate</w>
ign es</w>
ci s</w>
t v</w>
rév èle</w>
port ez</w>
in ventions</w>
gly c
ch ant
pharmaceu tique</w>
eng age</w>
am o</w>
b ottes</w>
S H</w>
préc iser</w>
cam p
Fre der
direc teurs</w>
administr ative</w>
HO TEL
van ne</w>
com té</w>
atten du</w>
M es</w>
dem i</w>
R ab
comport ent</w>
V estes</w>
sign er</w>
per a</w>
Man ager</w>
12 3</w>
M ettez</w>
prépar ations</w>
op e</w>
moul age</w>
danger euses</w>
chau ssure</w>
Pl aza</w>
j oli</w>
in tu
eux i
quali fié</w>
du res</w>
AD N</w>
pro pi
Alibab a.com</w>
manif este</w>
illustr é</w>
avantag eusement</w>
transpar ente</w>
Re gardez</w>
O ce
s cr
fédér ales</w>
trim ents</w>
do sage</w>
syst ématique</w>
cro issante</w>
sav eur</w>
as tu
vérifi ez</w>
manifest ation</w>
t ations</w>
do ses</w>
conten eur</w>
St atu
In g
si a</w>
dr ain
O t
G az
V end
Hey pik</w>
. ch</w>
Réper toire</w>
diminu é</w>
vo ler</w>
log istique</w>
S ol</w>
vin gt
Sy l
Gen e
C arm
h ée</w>
pré ven
T ermin
tranqu ille</w>
aff ai
A K
intellig ente</w>
afric ains</w>
n u</w>
respir atoires</w>
Jeu ne</w>
continu é</w>
Cel u
s h</w>
res -
figu rent</w>
bu anderie</w>
pl âtre</w>
hi ques</w>
c iter</w>
berg es</w>
tt gar
spec tre</w>
f lement</w>
TI ON
Appar eils</w>
men ac
Ob serv
F ils</w>
iss ait</w>
Évalu ation</w>
religi eux</w>
progr ession</w>
ou lière</w>
Coun ty</w>
Arch itec
man teau</w>
Proto cole</w>
F ro
simul ation</w>
onlin e.com</w>
accu sé</w>
Cal cul
sup porter</w>
sou pl
lit re</w>
c aisse</w>
Ch o
AR D</w>
plas ma</w>
inflammat oires</w>
dr o</w>
ins piration</w>
con soli
at i</w>
Fre e
verti cal</w>
exclu sion</w>
gu érison</w>
centr ales</w>
propa gation</w>
sû rement</w>
drap eau</w>
Moun tain</w>
b enz
2 -0
Jose ph
sug gestions</w>
rob inet</w>
n es
appar eil
- N
DI RE
vin aigre</w>
all ou
ajou tés</w>
affi ché</w>
M un
gouvernement ale</w>
Ch inois</w>
éc ar
Hen ry</w>
es que</w>
P ul
Ar th
l ands</w>
en cieux</w>
blan ch
antibio tiques</w>
cylin drique</w>
dé montrer</w>
minim ales</w>
di en</w>
res pi
pil ot
bou chon</w>
Fai r
os t</w>
cr oit</w>
compr esseur</w>
acqu it
horizont ale</w>
appel és</w>
Gross iste</w>
vari ation</w>
excessi ve</w>
em an</w>
J apon
Ex écu
1. 0</w>
répon dants</w>
im mu
défin ies</w>
Commen cez</w>
reli és</w>
b en
om a</w>
argu ments</w>
É ducation</w>
n œu
col onnes</w>
appréci er</w>
Lit tle</w>
2019-0 1-
P V
C ER
inv itation</w>
L ettre</w>
Por table</w>
OM S</w>
hum ides</w>
f èrent</w>
diz aines</w>
compos antes</w>
activ é</w>
organis ationn
he alth
Me dia</w>
I -
im a</w>
Lin col
re voir</w>
por celaine</w>
gr ain</w>
D on</w>
Sho p</w>
Man agement</w>
po n</w>
dé posée</w>
bu n
Liv e</w>
CO VI
reç ues</w>
man ières</w>
Diff ér
D éb
solid arité</w>
zi p</w>
s z
pâ tes</w>
Destin ations</w>
de vis</w>
Tu yau</w>
oign on</w>
mis sionn
encour age</w>
arm ant</w>
Don ald</w>
mam an</w>
Clou d</w>
Sk y
at é</w>
W E
M au
conc essionn
Fabric ant</w>
gh am</w>
ac ti
a sion</w>
ard o</w>
prot ecteur</w>
portug ais</w>
po iv
fi a</w>
A did
ni r</w>
déf avor
b ec</w>
v ague</w>
V eterin
15 ,
1 12</w>
m -
b j
es- vous</w>
pén ale</w>
am ie</w>
T RE
h en</w>
bloc age</w>
M y</w>
souv enir</w>
enqu ê
affec té</w>
Pro ch
Cad ran</w>
Fi re
Comm erci
14 7</w>
sub vention</w>
Ex per
univers itaires</w>
P ure</w>
D P</w>
télé viseur</w>
Vis ite</w>
30 .
utilis ations</w>
J -
U sine</w>
pré voy
plac ée</w>
réserv és</w>
indivi du</w>
hém atiques</w>
e- de-
r al</w>
mo de.com</w>
S Q
Rég i
pulvéris ation</w>
ap portées</w>
zi o</w>
T N
N am
rénov ation</w>
il isation</w>
Réc its</w>
Po ints</w>
20 .
V IS
5 1
lu res</w>
di ri
Le g
- à-
P I</w>
N un
Pê ches</w>
3 30</w>
vois inage</w>
ti g
path ologie</w>
grav ure</w>
po ll
évi demment</w>
9 00
prolong ée</w>
h a
Queb ec</w>
u ment</w>
souff rant</w>
trans ist
Scot t</w>
Ran donnée</w>
É vénements</w>
tatou ages</w>
ampl eur</w>
Su péri
Dis positif</w>
recomman dés</w>
véri fié</w>
tr ol
Win d
um p</w>
déc édé</w>
filtr ation</w>
N atur
ser ons</w>
ign or
1. 4</w>
opérationn el</w>
lav e</w>
D RO
O B
201 9-
mo dé
am ar
él u</w>
vis ées</w>
fau drait</w>
Nouvelle- Zélande</w>
individu ellement</w>
illu stre</w>
cour ts</w>
Adid as</w>
lam es</w>
dom mage</w>
St or
bo x
lumin osité</w>
f ab
construc teur</w>
T ON</w>
ss on</w>
Stu ttgar
é pon
ro s</w>
regar de</w>
bi odi
ati c</w>
world wide</w>
pe pti
aéron ef</w>
Sol utions</w>
re tenue</w>
interrup teur</w>
exempl aires</w>
Con cer
è des</w>
f ou</w>
clai rage</w>
Gr and
Jou ets</w>
Col le
tox iques</w>
ren due</w>
CH I
spo t.com</w>
dev aient</w>
Con somm
B ak
chim ie</w>
Cat alogue</w>
im pré
articul ations</w>
p t
inst aur
Mag ni
péti tion</w>
col ère</w>
anim ation</w>
Pal ais</w>
paragrap hes</w>
emp il
Pl ani
7 00
onn ette</w>
lig ht</w>
es su
em placements</w>
constitu tion</w>
cher a</w>
ies worldwide</w>
caus é</w>
Pharmac iesworldwide</w>
C EN
Lam padaire</w>
Lt d.</w>
t ante</w>
T ourn
ou gh</w>
mati ques</w>
inconvéni ent</w>
L ong</w>
Orig in
no eu
inter venir</w>
J et</w>
R A</w>
F AC
Car tes</w>
plom b</w>
g a
Im primer</w>
min eurs</w>
Mot or
A le
z er
tu m</w>
Shang hai</w>
th or
re diriger</w>
Pr inc
qual it
fou le</w>
tex tiles</w>
W O
Sim on</w>
10 3</w>
prof itez</w>
rem ède</w>
activ ation</w>
Un ited</w>
Déc ision</w>
Con st
B .
y on</w>
vi de
inflammat oire</w>
D ak
Analy se</w>
9 8
visit mode.com</w>
2. 1</w>
Ino xy
gr ade</w>
copi es</w>
onni ers</w>
occa sionn
aler te</w>
s essions</w>
offici els</w>
Cl aude</w>
dé coupe</w>
T ay
G on
F ab
res p
mar k</w>
larg es</w>
j ou</w>
ap i
HOTEL .com</w>
A- HOTEL.com</w>
lit hi
co .com</w>
Cou ssin</w>
10 8</w>
comm ém
ci ation</w>
judici aires</w>
Inoxy dable</w>
précéd ents</w>
o ing</w>
no tifi
he b
Pl aque</w>
IR ES</w>
s d
chauff er</w>
ac adé
Ex tr
G T</w>
dispos é</w>
cat ho
quit té</w>
aigu illes</w>
Qu es
j ung
L and</w>
milli ard</w>
terror istes</w>
ö r
rési de</w>
gran ul
M O</w>
ving t</w>
9 4
mus cle</w>
ation .com</w>
Can ap
ol d</w>
exam ine</w>
n el</w>
R as
L ex
S à
Franc fort</w>
artifici elle</w>
im pôts</w>
Off re</w>
Dol lar</w>
Cr ist
is s</w>
qu eur</w>
œu rs</w>
we en</w>
municipal ités</w>
interval le</w>
accompagn er</w>
Com position</w>
s inc
42 mm</w>
9 6
to s</w>
cro issant</w>
s aign
H K
R C
reti ré</w>
lave- linge</w>
Sà rl</w>
dom ad
G é
ouv rage</w>
appr en
nég atifs</w>
PP T</w>
B urg
ver tes</w>
famili ales</w>
ju ges</w>
em ain</w>
const ant</w>
refus er</w>
cr eux</w>
S igni
A E</w>
délégu és</w>
path ie</w>
m aille</w>
pe di
p ent
man qu
Y el
T wit
- 1</w>
magné sium</w>
inci dent</w>
AN D</w>
remerci e</w>
Espa gnol</w>
B AR
4 .</w>
thérapeu tique</w>
Deuts che</w>
diff er
appliqu és</w>
T ol
ment he</w>
atte intes</w>
arch é
B et
2 8.
int estin</w>
ari ans
S ac
H ow
Fer n
. jp</w>
t êtes</w>
sécur itaire</w>
son de</w>
h and
déc isi
ag ran
Glob al</w>
bouill on</w>
Prés entation</w>
G EN
sex y</w>
mal veill
d ense</w>
cou pa
vi ce</w>
ram en
ori a</w>
sal ons</w>
nég ative</w>
in oubli
and er</w>
L us
nu its</w>
demand ez</w>
tou chant</w>
Z an
Expl orer</w>
lec teurs</w>
eu s</w>
acel ets</w>
g ains</w>
TV A</w>
ss ins</w>
on t
ur ban
oi x-
- 8
pens ées</w>
ev o</w>
pu reté</w>
Br an
réguli ers</w>
ouv rent</w>
ch ou</w>
D ame</w>
dé pôts</w>
comm entez</w>
exac t</w>
G .</w>
certifi és</w>
arians guide</w>
Veterin ariansguide</w>
U TI
r ail</w>
ol é
n s
publi er</w>
tim ité</w>
Sal les</w>
B rig
termin e</w>
Mo ham
H U
mot or
mas cul
e f
Personn el</w>
Hab itu
Flor ide</w>
E ver
l ance</w>
ex piration</w>
P N</w>
molé culaire</w>
W om
ess ee</w>
dis cr
dil u
demand ent</w>
P hu
z en</w>
si ves</w>
introdu ire</w>
Ch u
cath édrale</w>
R F</w>
sur monter</w>
siè cles</w>
opport un</w>
Tunis ie</w>
cht one</w>
car ottes</w>
M and
Cam ion</w>
p iscines</w>
d ec
bri ques</w>
i quement</w>
F lo
noc tur
c ess
PL US</w>
Cir cuits</w>
ab onnés</w>
Proven ce-
ent er
bre f</w>
accep tables</w>
conform er</w>
cataly seur</w>
lend emain</w>
entrepr is</w>
artisan at</w>
assi um</w>
al er</w>
accumul ation</w>
cou ps</w>
opérationn elle</w>
A o
spectac ulaire</w>
gri ppe</w>
compos er</w>
soul ager</w>
Py rénées</w>
Coll ège</w>
s aisons</w>
bas ses</w>
détru ire</w>
19 8.
mentionn ées</w>
harmon ie</w>
a f</w>
Mo z
ex press
dou bl
Ul tra</w>
Stati stiques</w>
c b
W oo
t ain
réussi r</w>
engag ée</w>
Ju illet</w>
tur qu
en co
b al</w>
ach em
2. 2</w>
enregistr ées</w>
UR E</w>
lati ne</w>
ang a</w>
titu laires</w>
B au
pon dér
MER CE
Man chester</w>
MP I</w>
parti elle</w>
fondament al</w>
do r</w>
lev age</w>
expériment és</w>
concentr é</w>
po lon
considér ées</w>
mo is-
expl oration</w>
anc y</w>
G M</w>
pros pér
b its</w>
Stuttgar t</w>
concep ts</w>
conç ues</w>
bon us</w>
photo graphies</w>
fri gidaire</w>
M T</w>
B lou
w c</w>
SI ON</w>
li on</w>
ar gile</w>
Som met</w>
M ont</w>
9 7
3 ème</w>
verté brale</w>
oeu fs</w>
lé sions</w>
esc ence</w>
ag grav
mort alité</w>
du dit</w>
c t
amen er</w>
L yn
ô tre</w>
Lumin aire</w>
émo tions</w>
r établissement</w>
T ari
D ER
re connue</w>
ho f</w>
V in</w>
N oire</w>
conc ili
comp teur</w>
v ain</w>
opti mal</w>
entour é</w>
bénévo les</w>
0 3
garanti es</w>
faill ite</w>
erg y</w>
L ight</w>
H onor
50 00</w>
T UI
Tenn essee</w>
L ed</w>
Fr ank</w>
14 ,
vi c</w>
Jer sey</w>
12 3
jou ant</w>
déli ci
a ï</w>
stér éo</w>
grill e-pain</w>
des sert</w>
St atistique</w>
Gran de-
is ter
J un
1 11</w>
. blog
lo cu
Con serv
pass ée</w>
í n</w>
qu éb
fai m</w>
Lave- vaisselle</w>
Ju in</w>
su cr
magaz ine</w>
N ar
e i</w>
Li qui
CA DE
dé pit</w>
inv est
Fac ile</w>
D ANS</w>
gr aisses</w>
ai t-il</w>
sangu ins</w>
l ines</w>
heb domad
spati ale</w>
C ér
élarg ir</w>
z i</w>
pén al</w>
nouv ellement</w>
littér ature</w>
H it
onn ée</w>
n ette</w>
E AU</w>
k t
crimin el</w>
administr ations</w>
h ect
cann abis</w>
Répon se</w>
for age</w>
bor ne</w>
IN S</w>
sou mise</w>
pass ez</w>
n ant</w>
m ex
entraî né</w>
Log o</w>
plu ies</w>
Chev ro
sc and
patron yme</w>
al i</w>
Y O
P it
M ap
E di
pass és</w>
pê cheurs</w>
inclu sion</w>
Saint- Laurent</w>
S oli
li ons</w>
comprom is</w>
1 1,
bil an</w>
S oin</w>
compens ation</w>
Pl ay</w>
Déc or
Pour tant</w>
q i
préoccup ation</w>
as ka</w>
S ach
Allem and</w>
Alexand er</w>
0, 0</w>
Sy m
gn y</w>
chauff eur</w>
Provinci a</w>
Communi cation</w>
fi du
bli n</w>
En core</w>
Can ad
C av
Bu t
élector ale</w>
mois- ci</w>
flor aison</w>
Y ork
le çons</w>
fér ences</w>
célébr er</w>
Al l</w>
icô nes</w>
crip tions</w>
rou tières</w>
Ange les</w>
t ampon</w>
Océ ans</w>
écr ans</w>
H igh</w>
port ables</w>
dé p
bou le</w>
assur ance-
ass ise</w>
Pom pes</w>
ul time</w>
s els</w>
ba ï</w>
D- 19</w>
tr aî
sol lic
pren antes</w>
cr eu
at terr
Rou te</w>
m érit
annon cer</w>
Pho enix</w>
sè ches</w>
ex ten
F L</w>
tremp é</w>
rou tier</w>
ajou tées</w>
Rhô ne-
Patr ick</w>
pourr ais</w>
anc eux</w>
facil ite</w>
ex hau
Sh ell</w>
cons en
capit aux</w>
ti ré</w>
shi rts</w>
ex o
H S</w>
épa isse</w>
san itaire</w>
préc ède</w>
avantag eux</w>
O eu
D EN
si bilité</w>
multi média</w>
gu er
f an
ci re</w>
st at</w>
P O</w>
é enne</w>
trouv ons</w>
B ague</w>
dic al</w>
COVI D-19</w>
An gel
é- lit</w>
pres tige</w>
Signi fication</w>
Miss ouri</w>
d ers</w>
articul ation</w>
s pl
pré judi
pens ais</w>
autom atiques</w>
V al</w>
T R</w>
s we
por c</w>
is si
Men ace</w>
et o</w>
ca che</w>
Or dre</w>
glis ser</w>
configu rer</w>
b org</w>
al iné
W ord</w>
Com té</w>
rem orque</w>
pré pare</w>
rapp el</w>
off ri
cr oix</w>
Se a</w>
As sur
Vir gin
O ak
B and
us agé</w>
combus tible</w>
Bat eau</w>
tal on</w>
so vi
rés ister</w>
dyn amiques</w>
Wat ch</w>
u t
hau sen</w>
contr aste</w>
chem ins</w>
D res
po in
ester shire</w>
T oile</w>
H Y
AU LT</w>
cour ses</w>
L aissez</w>
oreill er</w>
install ez</w>
Envir on</w>
sé du
sec rets</w>
contam ination</w>
pro fil
En seign
AR C</w>
v ed
ser rage</w>
manipul ation</w>
con gel
G ig
for d
ell er</w>
ap t
acc réd
Mary land</w>
volont aire</w>
mal l</w>
hom mage</w>
Ch ron
t ambour</w>
B L</w>
A LI
ad el
fond ateur</w>
S port
Europé enne</w>
éd ez</w>
dispar u</w>
d ai
an xi
par e-
p c</w>
fédér ation</w>
k a
sympath ique</w>
pres tigi
cour antes</w>
Pr endre</w>
os cill
minor ités</w>
enz a</w>
In vesti
2 e</w>
auto chtone</w>
vo cation</w>
otech n
de m</w>
a- t-elle</w>
0 2
trou ille</w>
stér one</w>
refus é</w>
14 5</w>
t asses</w>
const ate</w>
25 5.
S G
N an
Ch in
13 5</w>
H .</w>
enseign ant</w>
Ver y
V ista</w>
T W
Du baï</w>
représent és</w>
pot assium</w>
F ant
export ateurs</w>
Tr an
cam pagnes</w>
asi s</w>
Cru z</w>
sec tori
6 3
J azz</w>
Bon jour</w>
o va</w>
. us</w>
signal é</w>
las h</w>
espa gno
découl ant</w>
Habitu ellement</w>
Moun t</w>
H oli
G abri
Commun ity</w>
f lore</w>
dig it
compa gne</w>
chau di
décor atifs</w>
dou ze</w>
V r
É S</w>
si l</w>
prati quer</w>
afric ain</w>
C V
éco logiques</w>
T rem
dé formation</w>
alph ab
util ité</w>
Chevro let</w>
AN G
c y</w>
R ay</w>
CH A
p air</w>
ju i
attend ez</w>
Cou leurs</w>
Des ign
al t
D a
u a</w>
cr ayon</w>
Journ al</w>
E le
rap proch
pouv ais</w>
fr anc
écr as
nouve au-
en nie</w>
équi page</w>
main -d</w>
ju gé</w>
am ide</w>
H iver</w>
acc our
Dr .</w>
el in</w>
ax ée</w>
Sci ence</w>
L Y
K I
Elec tric</w>
uni es</w>
ré alise</w>
él ém
L em
ré jou
ru sses</w>
g ang
Qu atre</w>
Niv eau</w>
immun ité</w>
Ag ences</w>
tabl ettes</w>
k ay
Eli z
Corn wall</w>
gas tron
accessi bilité</w>
vers ée</w>
1- 2</w>
bur n</w>
Nettoy age</w>
M ission</w>
Utilis er</w>
S truc
R un
H endri
étiqu etage</w>
p ente</w>
développ ée</w>
Alp es-
anti corps</w>
P neu
F auteuil</w>
prélimin aire</w>
fil et</w>
Ré sumé</w>
PN G</w>
XI X
Étu i</w>
j on</w>
g et
In tel</w>
sauv etage</w>
plac ez</w>
An th
h ari
ban nière</w>
voitu rage</w>
ai d</w>
An der
stéro ïdes</w>
Oc tobre</w>
N antes</w>
édi e</w>
eu ils</w>
cop ique</w>
ré els</w>
en contre</w>
H ay
H ali
vi d
cour onne-
b ambou</w>
Stu dios</w>
élég ance</w>
spaci euses</w>
itanni ques</w>
dis cré
ali z
par k
main tenu</w>
hém or
V enti
OM C</w>
I bi
s tes</w>
po ils</w>
is exe</w>
s ouver
rem porté</w>
fl èche</w>
défici t</w>
connec tés</w>
assu jet
ex pressions</w>
Tr ain</w>
fer mement</w>
Val ence</w>
A lex</w>
x i</w>
p aires</w>
ino x</w>
accél ération</w>
M R
latér al</w>
Virgin ie</w>
arch ives</w>
accompagn ée</w>
19 ,
réc ents</w>
pol aire</w>
A gr
17 ,
lo ween</w>
s és</w>
hab itation</w>
differ ent</w>
accompl ir</w>
Montpel lier</w>
Con vient</w>
v .
techni ciens</w>
contr airement</w>
Con sid
ê tement</w>
ck er</w>
biodi versité</w>
L abor
vis see</w>
fi èvre</w>
c atégor
couronne- vissee</w>
ti a</w>
Sécur itaire</w>
dér ap
K A</w>
Del ta</w>
co effici
arm oires</w>
O ld</w>
nu triments</w>
M i</w>
vi endra</w>
libér er</w>
impac ts</w>
cam éras</w>
b u</w>
augment ent</w>
ai man
ré at</w>
tiss és</w>
iss ariat</w>
cl au
cl aires</w>
Sin on</w>
pri ère</w>
19 60</w>
hol m</w>
des -B
co voiturage</w>
T ax
Si erra</w>
é preuve</w>
Ur gence</w>
T itre</w>
pu issante</w>
lour ds</w>
abor der</w>
Mich igan</w>
gen ou</w>
exclu sif</w>
el and</w>
L O</w>
temp le</w>
H eure</w>
médi cin
co ï
assur ent</w>
perman ence</w>
14 0
ob s</w>
compl ets</w>
O re
m aill
collabor ateurs</w>
For me</w>
Ch an
k on
dispos és</w>
qu art</w>
chauss ettes</w>
us ées</w>
infr actions</w>
F leur</w>
CO 2</w>
serv eurs</w>
per ception</w>
He alth</w>
cit ations</w>
î t</w>
ser rure</w>
ca cher</w>
Ed it
T Y
S éri
ur ine</w>
T est</w>
O MPI</w>
virtu elle</w>
bo r</w>
Dit es-
25 .
fr action</w>
T ailles</w>
P aqu
tranquill ité</w>
pa quets</w>
avou és</w>
Transfer t</w>
Cour t</w>
In u
v i</w>
complém entaire</w>
ang .com</w>
pomp es</w>
pen ses</w>
k W</w>
imag iner</w>
épau les</w>
te x</w>
ay ons</w>
Bour gogne</w>
16 ,
no tion</w>
fur ent</w>
Muni ci
Jord an</w>
Ad am</w>
ch anti
caus ée</w>
ic aine</w>
Japon ais</w>
pe ign
Squ are</w>
3 8.
authenti que</w>
Tend ance</w>
S pl
them es</w>
shop ping</w>
reg ions</w>
succ essi
fl euve</w>
co co</w>
pl ate</w>
per tur
é puis
rédu isant</w>
Multi -
8 4
crois ière</w>
Publi cations</w>
I G
turqu oise</w>
protég ées</w>
con grès</w>
12 2</w>
Cal ais</w>
sain t</w>
W ifi</w>
Produc ts</w>
K ol
contrô lée</w>
calcul s</w>
auto car</w>
Tok yo</w>
F ur
2 7.
Outi l</w>
oeu vres</w>
dé bou
MEN TS</w>
Autor ité</w>
198 2</w>
han ol</w>
financ é</w>
rel ais</w>
man quez</w>
abil isation</w>
Mir oir</w>
ou n</w>
déb ats</w>
O T
v écu
organ ise</w>
approfon die</w>
Au di
e di
Poign ée</w>
fas cin
V oga</w>
C o</w>
t ag</w>
has ard</w>
gr ève</w>
g ymn
budg étaires</w>
G y
én ergies</w>
cré ées</w>
collabor er</w>
X S</w>
réd action</w>
produ ites</w>
Steph en</w>
K Y
IR SC</w>
m c
Inf o</w>
200 0
H os
Very Voga</w>
13 ,
réfléch ir</w>
pouss ée</w>
o b</w>
jac uzzi</w>
diagram me</w>
command é</w>
S CH
y ork</w>
tourn ant</w>
F ête</w>
Sep tembre</w>
accr u</w>
réalis te</w>
renseign ement</w>
cli gn
VO L
P T
w ick</w>
y a
év apor
sou mises</w>
er i</w>
E volution</w>
B S</w>
ti quement</w>
ti cité</w>
remar qué</w>
pou sse</w>
pa isible</w>
dé g
Br ad
7 4.
ann er</w>
Le on
Bud ap
re qui
S K</w>
land aise</w>
E ther
Bah n</w>
pa tri
neu tre</w>
L ot
K el
end ement</w>
banc aires</w>
S lov
R empl
B ai
ég ales</w>
ord res</w>
ch ass
quotidi ens</w>
infrarou ge</w>
entr em
avanc er</w>
I ON</w>
peu pl
Install ation</w>
japon aise</w>
in augu
J av
16 0
souff rent</w>
organis és</w>
Situ ée</w>
renouvel ables</w>
.co. il</w>
rédu ctions</w>
S p
Ré par
Commun autés</w>
5 50</w>
collec ter</w>
as -
subst anti
Déc embre</w>
tur ation</w>
r ond
us al
is o
sémin aire</w>
clu bs</w>
sur prise</w>
su les</w>
s che</w>
labor atoires</w>
habitu des</w>
12 8</w>
lenti lles</w>
ex traits</w>
ci o</w>
Jan vier</w>
re vê
de venus</w>
calcul ée</w>
ar y
T ak
ét ée</w>
Fon ctions</w>
adop tées</w>
FOR D</w>
Ao ût</w>
20 5</w>
l l</w>
fin ance</w>
Techn ologie</w>
I dées</w>
18 0
coll ine</w>
T ir
Pak istan</w>
po le</w>
pay ante</w>
chlor ure</w>
K W</w>
travaill eur</w>
sud- ouest</w>
renforc é</w>
organis ées</w>
obstac le</w>
lég ères</w>
compos ite</w>
aqu euse</w>
Mét éo
propos ant</w>
p l</w>
Sil ver</w>
identi fié</w>
Sou dan</w>
cr ises</w>
ampli ficateur</w>
H C</w>
é triques</w>
Que en</w>
élev age</w>
cy cles</w>
Chaî ne</w>
to stérone</w>
Mit sub
C oin</w>
déplac ements</w>
guid age</w>
AR T</w>
ro p</w>
We gow</w>
prouv er</w>
man quer</w>
sangu in</w>
i b
RO N
pati ence</w>
ck s</w>
Pl aya</w>
18 ,
res piration</w>
as i</w>
N C</w>
trouv ée</w>
végét ales</w>
ab u
sou p
ser ré</w>
correspond ante</w>
O T</w>
Ex ig
En quête</w>
devi endra</w>
ann i</w>
Class ement</w>
Car touche</w>
B y
vi trage</w>
ser ai</w>
m out
gl acée</w>
décr et</w>
trou pes</w>
citoy en</w>
hé sion</w>
Op el</w>
ré ver
- 9
comport ements</w>
Rum bo</w>
Budap est</w>
tent ative</w>
Phu ket</w>
res tant</w>
intermédi aires</w>
lingu istique</w>
es cent</w>
dispos ons</w>
Tech ni
T emps</w>
Dimen sions</w>
D ell</w>
ré sident</w>
T AN
Twit ter</w>
B oy
dé sert</w>
dou ard</w>
tr ace</w>
T L
Geor gia</w>
mat hématiques</w>
chron iques</w>
6 6.
s ag
L LE
22 ,
ti rez</w>
s an</w>
im poser</w>
Bu lletin</w>
atmosph érique</w>
Ren aissance</w>
ér ées</w>
immen se</w>
D ER</w>
3. 1</w>
t enter</w>
concurr ents</w>
ens eur</w>
mesu rée</w>
Power Point</w>
l ez</w>
F IN
A lumin
t ob
héli copt
e ons</w>
M R</w>
norm ales</w>
ex cu
an esthé
aim ant</w>
vis ité</w>
ingéni eurs</w>
éri a</w>
z ir
rév eil</w>
pla fonds</w>
ouv rant</w>
exclu sive</w>
S AR
C eux</w>
s ab
DI N</w>
abr ite</w>
Op ti
est- elle</w>
TO R</w>
Par am
Cré ation</w>
tu bu
rap porte</w>
oubli é</w>
Fri ed
en voie</w>
coll er</w>
ac né</w>
tit ane</w>
r accour
exist ante</w>
co s</w>
S TI
Bir min
refroi dis
fondament ale</w>
dou anes</w>
Tend ances</w>
em pris
Ven ez</w>
A 4</w>
vis eurs</w>
quit tent</w>
ré initi
iss antes</w>
h ill</w>
ag issent</w>
Ira k</w>
M ai
if t</w>
SV G</w>
NO IR</w>
senti ers</w>
main tient</w>
f ro
ar b
P ur
Mitsub ishi</w>
pâ tis
ennem is</w>
Vol vo</w>
Connec teurs</w>
Arab ie</w>
s qu
F res
uti n</w>
contrain te</w>
bouilli r</w>
Christ oph
Appar eil</w>
regard ant</w>
Vis itez</w>
F lash</w>
C élébr
éduc atives</w>
scén ario</w>
sau mon</w>
hum idi
act us</w>
Go od
L as
An to
sk a</w>
re d</w>
hi re</w>
arbi tr
tr ie</w>
ro om</w>
re ins</w>
Vill as</w>
k ins</w>
chol est
cam ions</w>
refroi dir</w>
environnement al</w>
aspir ateur</w>
ant érieure</w>
an gulaire</w>
id er</w>
201 7-
ti bles</w>
arri ères</w>
ent err
R enseignements</w>
D roits</w>
sem elle</w>
b é
ral enti
color és</w>
bon bons</w>
étag ère</w>
Al -
Ét ab
n a
m ager</w>
bas és</w>
an alogique</w>
Préc édent</w>
CAN ADA</w>
st and</w>
mél anges</w>
inf os</w>
ag i</w>
H R</w>
el er</w>
cô tière</w>
O TAN</w>
j un
gn e-
20 ,
t ech</w>
pr e
ch a
At tention</w>
1- 1</w>
E D</w>
tir oirs</w>
st an</w>
inquiét ez</w>
spor tives</w>
extrê mes</w>
ec s</w>
D entelle</w>
tin g.com</w>
pist age</w>
sol de</w>
Ch ur
sangu ine</w>
as piration</w>
an alogues</w>
No tre-
m ie</w>
W A
considér ant</w>
ad eur</w>
Li ban</w>
ass ass
matéri els</w>
cre ts</w>
ad ou
Sus pension</w>
Mes ures</w>
Aca démie</w>
raccor dement</w>
appu i
No va</w>
Mi ke</w>
lead ers</w>
k et
attach é</w>
clo s</w>
Di ego</w>
élimin e</w>
soph is
P D</w>
Mal l</w>
F ille</w>
ultr a-
our ne</w>
enn ant</w>
distribu teurs</w>
ac compagne</w>
J ets</w>
20 1</w>
2 1,
méd aille</w>
ér ise</w>
y s
é vier</w>
t ale</w>
ref us</w>
or i</w>
sac ri
p aill
oy ers</w>
fin itions</w>
an cr
Norman die</w>
sav oir-
Am bass
E lis
vis -à-
am ont</w>
Ibi za</w>
donn ez</w>
Rappel ez-vous</w>
Dét ermin
Compress eurs</w>
tour ne</w>
protég és</w>
itinér aires</w>
com be</w>
av al</w>
N ur
3 60
trans porteur</w>
dou blure</w>
di er</w>
Pl as
vis-à- vis</w>
diam ants</w>
TUR E</w>
ov er</w>
guid er</w>
Fr ais</w>
bles sure</w>
divul gation</w>
administr ateurs</w>
d ine</w>
A im
st om
ru brique</w>
formul aires</w>
e ption</w>
cohér ente</w>
So ft
A ur
Mon aco</w>
3 80</w>
198 3</w>
t w
ri des</w>
un der
ci ca
TA L</w>
intéress antes</w>
intég rées</w>
c es
at lantique</w>
E P</w>
Ch ris</w>
É limin
inf érieurs</w>
re prendre</w>
préc au
progr esser</w>
ell é</w>
SA N</w>
Re al
Dé s
Du blin</w>
matern elle</w>
Innov ation</w>
ré voluti
docu ment
audi o
amend ement</w>
v al</w>
caract érise</w>
bu l</w>
1. 8</w>
ni tr
P ent
1 .com</w>
R on
AN NU
res truc
cré di
S ili
Jo e</w>
Gu inée</w>
rot or</w>
innov ations</w>
d ney</w>
H aut-
net tement</w>
desc end
p ng</w>
com porter</w>
erg on
NO UV
v om
P ouv
Chang ement</w>
Bab y</w>
prop ylène</w>
Loc ations</w>
us h
cuis iner</w>
citoy enneté</w>
Gar de</w>
D ata</w>
coll ège</w>
All ez</w>
ré pan
it .com</w>
br a</w>
rend ant</w>
distin ction</w>
sug gère</w>
pl eu
Gr am
IN ES</w>
ul tra</w>
occup ation</w>
F .</w>
éch ou
entreten u</w>
attribu tion</w>
Per for
consen sus</w>
empre inte</w>
al tér
Im pression</w>
4 G</w>
prior itaires</w>
dr ôle</w>
T D
Me di
ho p</w>
ab onnement</w>
REN AULT</w>
Ob jet</w>
8 -0
sex es</w>
im mer
ex .</w>
combatt ants</w>
24 ,
0, 1</w>
attr action</w>
Feu ille</w>
pouss es</w>
hydrat ation</w>
attaqu er</w>
bro ss
M aître</w>
u xe</w>
U p</w>
Rh én
PA C</w>
12 V</w>
formul ation</w>
charg eable</w>
ang o</w>
Merce des-B
Hen ri</w>
lo yer</w>
intéress ées</w>
ai mer</w>
Hor aires</w>
tradi tions</w>
muqu euse</w>
Mercedes-B enz</w>
is eur</w>
aliné a</w>
ai les</w>
2. 3</w>
198 1</w>
provinci ale</w>
enc astr
re jet
Fr on
savoir- faire</w>
favor ables</w>
B aign
tél es
11 1.
pr in
musi cale</w>
l aissez-
har c
op ie</w>
de z-
Sou nd</w>
bl ack
annu elles</w>
Nord- Ouest</w>
C Y
subi r</w>
rési du
ré acteur</w>
prépar ée</w>
pend entif</w>
Gol den</w>
D ir
ali en</w>
récomp ense</w>
reconn us</w>
certifi é</w>
ach t</w>
aban donner</w>
im pose</w>
hom e</w>
conseill ers</w>
gér é</w>
Mes ure</w>
IN T</w>
ér ant</w>
marqu age</w>
Ch at</w>
ergi ques</w>
ER S</w>
Comm issaire</w>
wor k
poli ciers</w>
dégrad ation</w>
déc ro
cap ill
ven tre</w>
m ier</w>
fum er</w>
décid eurs</w>
25 ,
16 5</w>
franç aises</w>
f asse</w>
caf etière</w>
Pr ise</w>
E A</w>
Ar n
Appl ique</w>
1 15
transfér é</w>
prouv é</w>
syndi cat</w>
l â
C F</w>
respec te</w>
nord- ouest</w>
di ges
Derni er</w>
Ap pro
hormon es</w>
or ts</w>
im migrants</w>
endom mager</w>
en di
av eu
exig ent</w>
dess iner</w>
ed .com</w>
d et</w>
co tt
Z o
trou ble</w>
200 4-
électrom ag
ur éthane</w>
ez- moi</w>
distin guer</w>
accor de</w>
symbo les</w>
pa g
he ad</w>
fon dées</w>
am mon
AS FC</w>
ver y</w>
préc isé</w>
hi a</w>
Industr ies</w>
sév ère</w>
se .com</w>
ass ain
Succ ès</w>
Grande- Bretagne</w>
vol ati
ter ne</w>
immatricul ée</w>
enti elles</w>
dot ée</w>
centi mètres</w>
initi alement</w>
annon c
B onn
permet trait</w>
comp il
SER VI
bénéfici aire</w>
K E</w>
m ay
Entr ez</w>
pr inc
Com bin
sa ou
relev é</w>
vé nie</w>
imprim ée</w>
g ing
rent able</w>
f all
décor ative</w>
anti oxyd
l as</w>
bul lition</w>
parti cul
S EN
répét ées</w>
cap ture</w>
Cath erine</w>
galvan isé</w>
pit tor
ar ôme</w>
Eliz abeth</w>
r ine</w>
entr ent</w>
V R</w>
Sal v
S L</w>
M Hz</w>
bus tes</w>
so ja</w>
hi on</w>
gon flement</w>
chiff on</w>
orient ations</w>
TR AN
mas ques</w>
entrem ise</w>
devr ais</w>
correspon dre</w>
cin ém
hou ette</w>
al e
Toil ettes</w>
pe in
chauff é</w>
indi qués</w>
N -</w>
sé cher
démar ré</w>
F ait</w>
épou se</w>
W ood
T on
C ord
2 30
éco systèmes</w>
satell ites</w>
g agne</w>
g ad
Th èmes</w>
Apart ments</w>
dém énag
Im ag
9 25</w>
ett es-
é bullition</w>
y oga</w>
hydro xy
h auss
cam pus</w>
bor ough</w>
F E</w>
B ains</w>
plan ter</w>
hormon e</w>
ru gu
d as</w>
Mag asins</w>
décor é</w>
Hali fax</w>
Fal un</w>
s .</w>
occident ale</w>
dis pers
ch ettes</w>
Colum bia</w>
profon des</w>
neu tr
gu re</w>
fix es</w>
7 3
Sur face</w>
S ecteur</w>
2 16.
tal ents</w>
Tr ump</w>
a e
Gr ands</w>
D ay</w>
mon sieur</w>
cr u</w>
arro sage</w>
ili a</w>
St ate</w>
M L
L ak
meur tre</w>
and re</w>
A dul
excell entes</w>
F is
diffus er</w>
L aissez-
quotidi ennes</w>
pul mon
grou p.com</w>
chois issant</w>
V AL
Ar ri
rem èdes</w>
ment al</w>
cr oient</w>
2 60</w>
sup porte</w>
reli ée</w>
Res pon
Pri v
Ph y
Nicol as</w>
Mas que</w>
observ ée</w>
maxim al</w>
concern é</w>
2 15</w>
AR I
résid us</w>
as ter</w>
ab ou
Dis ney</w>
se z-vous</w>
offer tes</w>
Ouv rir</w>
utilis able</w>
Ri en</w>
K ids</w>
val ve</w>
idé alement</w>
Ar rière</w>
satis faits</w>
atten due</w>
Slo vénie</w>
panc ré
g ées</w>
fondament ales</w>
ay .com</w>
R ang
b ac
èg re</w>
vac cin</w>
pertin ence</w>
band oulière</w>
allég ations</w>
R av
nom mée</w>
em po
it alie</w>
haut-par leur</w>
ai dons</w>
synthé tiques</w>
législ ative</w>
crimin alité</w>
an ine</w>
Br and
sais ie</w>
j eté</w>
B arr
nord- est</w>
1 16</w>
volont aires</w>
ca des</w>
combin ée</w>
c s
M ME</w>
Fit ness</w>
dé libér
commu tation</w>
Pi x
envoy és</w>
Île- de-
excur sions</w>
céré br
e er
cou dre</w>
Th ème</w>
. .
constru ites</w>
H and
F évrier</w>
ll er</w>
g i</w>
con sole</w>
al le</w>
ren force</w>
pv d-
di arr
V ie</w>
W ay
É ch
issu es</w>
inv it
conn ais</w>
ali tion</w>
Cont actez</w>
tis h</w>
réserv ations</w>
You ng</w>
Or ches
H auteur</w>
Contac t</w>
moy ennant</w>
mini bar</w>
k am
hy bride</w>
aî tra</w>
att endant</w>
V iv
Fi x
Colle ge</w>
Den is</w>
f oc
transvers ale</w>
to do
récomp enses</w>
fau te</w>
distin gue</w>
an om
Mi di-
Autom ne</w>
mir ats</w>
men tion</w>
cu lose</w>
agr am</w>
t au
dic tions</w>
Bu ff
10 7.
euxi èmement</w>
Pos sibilité</w>
électr oly
pers ist
pap illon</w>
S ah
combin aisons</w>
Trav aux</w>
tol érance</w>
program m
g rec
mal ades</w>
cu mul
b arr
3 4.
è les</w>
l ais
jau nes</w>
é min
quotidi ennement</w>
prof itant</w>
accueill i</w>
Trai té</w>
M aqu
John son</w>
ob ti
is serie</w>
g ab
d ar</w>
T as
MA X</w>
ant érieur</w>
Vic e-
Parti cip
sal eté</w>
Ce inture</w>
gar anti</w>
deman der
certifi cats</w>
T PS</w>
MAN U
E P
trans fron
H at
w oo
Cr oix</w>
Bu il
rend us</w>
ili ers</w>
b at</w>
Bre ak
connec teurs</w>
d h
lo int
k id
gu és</w>
cré ent</w>
ré agir</w>
recev rez</w>
r aine</w>
philos ophie</w>
gl om
tran che</w>
S id
Répon dre</w>
élec tri
tox ique</w>
Secon de</w>
Mail lots</w>
Jér usal
Prem i
L arg
satis fais
l ées</w>
5 4.
fis cales</w>
Pres s</w>
- s
P eau</w>
Cop enh
192. 64.
i ens</w>
fabri quées</w>
adres sé</w>
ven ues</w>
12 1</w>
sculp ture</w>
gé ométrique</w>
A br
end ez-vous</w>
Tatou eurs</w>
Jack son</w>
pi c</w>
no i</w>
l acs</w>
eu blement</w>
conten eurs</w>
cli cs</w>
Médi a</w>
Chac un</w>
Av ril</w>
énerg étiques</w>
mag ie</w>
M K
vo lt
perfec tionnement</w>
im pos
fit ness</w>
Mi ami</w>
po l</w>
pac k
chaleur eux</w>
E g
por tions</w>
p ins</w>
pro pul
pos session</w>
origin aux</w>
faibl esse</w>
dév ou
d b
Pe ar
G éor
Cre ek</w>
land kreis</w>
it i</w>
débu tants</w>
sav ais</w>
qu ad
Lu d
Chang ements</w>
Blo gue</w>
B RA
f ente</w>
répon dant</w>
l eu
échapp er</w>
ho des</w>
gu idée</w>
entrepren eur</w>
man te</w>
dé pistage</w>
TE D</w>
Re tirer</w>
div orce</w>
S anti
rec ouvert</w>
po is</w>
yst al</w>
t ôle</w>
fi quement</w>
ci ère</w>
IS A</w>
val able</w>
l am</w>
al location</w>
lon gu
dis till
dis per
Cu ba</w>
om br
nu ire</w>
impliqu és</w>
dési gne</w>
célébr ation</w>
compr ends</w>
ch armant</w>
au dit
ai d
Vél o</w>
ton er</w>
ed o</w>
Fru its</w>
an as</w>
T issus</w>
Architec ture</w>
cy clo
Méd ec
s .info</w>
cor ré
rénov ée</w>
recomman der</w>
am er</w>
journ ées</w>
identifi és</w>
J im
déli cat
Com mu
ét end
islam ique</w>
harc èlement</w>
Mar ché</w>
C isco</w>
40 -
pi quement</w>
g au
Cré ez</w>
C res
ay er</w>
lu m</w>
PA S
utér us</w>
déc ennie</w>
Res id
N .
Con tenu</w>
sélectionn ée</w>
parl ons</w>
tur er</w>
per le</w>
indi quées</w>
fa te</w>
bi blioth
Qu anti
Por sche</w>
cit y</w>
Gar age</w>
. be</w>
sû rs</w>
dé chir
attrap er</w>
217. 160.
p ez</w>
our euse</w>
Indi ens</w>
mac ro
harmon i
bul les</w>
Contr ô
Ath ènes</w>
tr i</w>
tin es</w>
l adi
accep tation</w>
Appl ications</w>
nu ages</w>
fr aude</w>
Li ège</w>
concessionn aire</w>
affi chent</w>
étr ange</w>
H A</w>
d ar
administr atifs</w>
O U</w>
Magni fique</w>
s onn
raisonn ables</w>
hyper tension</w>
F U
vend eurs</w>
ul er</w>
lour de</w>
Ra f</w>
s ar
inter active</w>
T ig
po lis
i OS</w>
L M</w>
vers ez</w>
rempl ie</w>
attribu é</w>
Promo tion</w>
provinci ales</w>
can e</w>
Tur bo</w>
pro jection</w>
gu ent</w>
ç onn
pertin ente</w>
pai rs</w>
l ant</w>
err on
électro des</w>
ennem i</w>
c f
L I</w>
Al ban
ép il
f êtes</w>
S z
O ver
In form
F au
bi bli
é clair</w>
ri deau</w>
FR AN
tom ate</w>
er rez</w>
Condi tionné</w>
S ites</w>
COMP TES</w>
orient ale</w>
e .info</w>
bi ologie</w>
u stensiles</w>
récep teurs</w>
k ok</w>
demi- heure</w>
Le w
co lis</w>
G ag
DE L</w>
munici pal</w>
aqu atique</w>
sem estre</w>
B ig
Ni k
F ol
CADE AUX</w>
étiqu ettes-
k m
annul er</w>
enthousi as
C L</w>
instant anément</w>
ar elle</w>
Tan z
Hy dr
at ed</w>
Indi ana</w>
Del uxe</w>
10 7</w>
pro li
Tou rs</w>
ér one</w>
hé pati
20 4</w>
Po si
A pr
o ises</w>
affec tés</w>
l an</w>
I stan
al o</w>
étiquettes- énergie</w>
sou ches</w>
Rap ports</w>
étu i</w>
ré ti
livr er</w>
lim itation</w>
combin és</w>
Holi day</w>
Gard ez</w>
F RE
oth er
compt abilité</w>
collè gue</w>
affec tation</w>
Projec t</w>
Lon gue</w>
y og
par quet</w>
A 1</w>
qu in</w>
ill o</w>
M U
sau ter</w>
s dale</w>
el é</w>
com mode</w>
Dor é</w>
2018 -
W ell
Soci ety</w>
D B
addi tifs</w>
G ou
am in
Sén égal</w>
FA O</w>
zon a</w>
c estershire</w>
Sur veill
R N
Glas gow</w>
Car rée</w>
17 5</w>
laiss és</w>
conjo inte</w>
cohér ence</w>
ach i</w>
Conn ecteur</w>
reli ef</w>
inclu ses</w>
Canadi ennes</w>
Bro ok
puiss ants</w>
ac cident
on s.com</w>
canap é-lit</w>
neu ves</w>
men ant</w>
ANNU ELS</w>
dyn am
ah am</w>
York shire</w>
K I</w>
G ame</w>
ren voy
imag erie</w>
défini tive</w>
bas ées</w>
Au g
optimis ées</w>
ac tionnaires</w>
Pr int
O me
Ext érieur</w>
i z</w>
bou e</w>
PA R</w>
H eur
g lut
déploy és</w>
déc ouvri
chang ent</w>
amend ements</w>
Hum an</w>
D M
14 -
tiss ements</w>
esc aliers</w>
I d
trop i
nu lle</w>
Su g
Jos é</w>
A sc
sem is</w>
D i</w>
u se</w>
Andre w</w>
rel â
13 2</w>
tu eux</w>
col ec
ban c</w>
Fac ulté</w>
re père</w>
oli que</w>
k es</w>
journ aliste</w>
béné fique</w>
TE MENT</w>
P atin
Co que</w>
entrepr endre</w>
embr ayage</w>
t as</w>
jum eaux</w>
c ités</w>
aqu ie</w>
PA S</w>
Nov embre</w>
tou chées</w>
s me</w>
cro ître</w>
préjudi ce</w>
ov as
gas tro-
an or
man ce</w>
conclu t</w>
ag itation</w>
absol ue</w>
. it</w>
évacu ation</w>
sto m</w>
con sin</w>
caf és</w>
sav oureux</w>
concili ation</w>
br and
Entre prise</w>
m ed</w>
câ blage</w>
Présid ente</w>
Istan bul</w>
glis sière</w>
ô ne</w>
u me</w>
pl us
C an</w>
23 ,
seg ments</w>
one fs</w>
compac te</w>
acier-inoxydable- bracelet</w>
sexu elles</w>
potenti ellement</w>
ge m</w>
f allait</w>
bor dure</w>
ari enne</w>
ex i
cli c</w>
Personn alisation</w>
K m</w>
Al i</w>
nég atives</w>
ouvr ables</w>
doctor at</w>
Dis que</w>
impul sion</w>
3 10</w>
visu alisation</w>
rhu me</w>
inf érieures</w>
ell es-
avanc ement</w>
In fr
s œur</w>
im pren
drap s</w>
and ez</w>
v apor
j al
blo quer</w>
y an</w>
calcul é</w>
Vinc ent</w>
vo tes</w>
qu er
in ette</w>
Wis consin</w>
Prom oteur</w>
Eri c</w>
to se</w>
simpl icité</w>
PE L</w>
H ON
12 4</w>
relev ant</w>
E i
C Ô
10 3.
bar a</w>
ay -
Br un</w>
s ains</w>
int end
- 1
nan a
att le</w>
Str etta</w>
Offici el</w>
s- de-
An ci
rou ler</w>
oli ques</w>
centr i
192.64. 119.
sud- est</w>
périph ériques</w>
effec tif</w>
Rob er
Dot é</w>
loc alité</w>
hect ares</w>
bâti r</w>
Olym piques</w>
in the</w>
concer ts</w>
tali ers</w>
apparti ennent</w>
résist ante</w>
enti ellement</w>
Ti me</w>
Ch ari
rem édi
maj eurs</w>
hu i
ap p</w>
vol ets</w>
ré elles</w>
I TE</w>
f re</w>
co hésion</w>
modern isation</w>
épon ge</w>
cholest érol</w>
acét ate</w>
Inscri vez</w>
Ing rédi
F ace</w>
lav é</w>
endu it</w>
moi -même</w>
imprim és</w>
Poly ester</w>
C ay
popul arité</w>
ni ères</w>
P é
Dé mar
super vision</w>
rinc er</w>
dé non
ball on</w>
Z ag
F el
Cas que</w>
s pe
ma te</w>
at ar</w>
S oi
Pol o</w>
L ille</w>
En ergy</w>
voy eur</w>
tou chés</w>
clign ot
O R</w>
12 5
visu els</w>
rou g
pour suiv
minér ale</w>
met tra</w>
Joh annes</w>
tempor airement</w>
noctur ne</w>
développ ements</w>
di gn
c ine</w>
Host el</w>
B and</w>
demeu rent</w>
En glis
201 6-
référ enc
d ente</w>
com bler</w>
Ste ve</w>
M ettre</w>
sou mission</w>
gr o</w>
Bo b</w>
www. nana
www.nana 10.
www.nana10. Play
www.nana10.Play DG
www.nana10.PlayDG ame
www.nana10.PlayDGame .co.il</w>
régu lar
rig ation</w>
an n</w>
Hal loween</w>
R ain
M ère</w>
rot atif</w>
is .com</w>
min g</w>
int ègre</w>
cur seur</w>
Compa gni
par celle</w>
g os
ex pul
collec tif</w>
accompl i</w>
Ur bain</w>
G el</w>
phénom ènes</w>
L L</w>
Pend entif</w>
D W
D B</w>
tru c</w>
détermin és</w>
b ers</w>
a .info</w>
Utilis é</w>
B ank</w>
pour suites</w>
plac ard</w>
h op
alis ations</w>
tor ture</w>
p esti
ch estre</w>
K a
. eu</w>
recu eill
pli ant</w>
latér aux</w>
assu rée</w>
aill er</w>
Ch il
d al</w>
ck y</w>
ath an</w>
I denti
10 9</w>
rang ées</w>
pan démie</w>
im pér
w ifi</w>
réparti s</w>
b é</w>
ob serve</w>
ñ a</w>
s m
respir atoire</w>
p ées</w>
Mo tif</w>
z y</w>
intitu lée</w>
ins érer</w>
condi tionné</w>
ab domin
1 17</w>
énonc é</w>
tox i
th on</w>
inclu se</w>
Gar çon</w>
tomb é</w>
te inte</w>
Sex y</w>
Géor gie</w>
F ull</w>
o do
Tu rin</w>
C RO
flam me</w>
200 7-
discipl inaire</w>
e- sous-
carbon ate</w>
F ER
Char l
reç ue</w>
navig ateurs</w>
attén uer</w>
aqu atiques</w>
ré pl
lai tiers</w>
attr ay
IS ON</w>
spor tifs</w>
re tenir</w>
o dor
le çon</w>
jou ées</w>
imag ination</w>
class és</w>
ber ry</w>
Lan gu
Is ab
fisc al</w>
allerg ique</w>
SM S</w>
Off rant</w>
L eurs</w>
Con trol</w>
Bang kok</w>
par d</w>
aî tres</w>
con centre</w>
DIRE CTION</w>
D .
Con çu</w>
CN C</w>
As pir
re cord</w>
b ans</w>
Sco tt
Lo dge</w>
Com pu
ci le</w>
3. 5</w>
pd f</w>
aver tissement</w>
anci ers</w>
Arth ur</w>
ex ag
avanc és</w>
dispar ition</w>
Fon c
inci dents</w>
Po d</w>
C ann
ter dam</w>
S M</w>
oblig atoires</w>
e i
dj an</w>
S ter
Bit coin</w>
18 -
vibr ations</w>
19 50</w>
w all
vois in</w>
fum eur</w>
dis sou
Plat eau</w>
T T
adap te</w>
EN Z</w>
ult érieure</w>
lingu istiques</w>
er ais</w>
atti re</w>
Tay lor</w>
G om
F P
AP I</w>
roy al</w>
Pier re-
spor tive</w>
Op en</w>
. biz</w>
mé tro
cour r
Acc essoire</w>
isol ant</w>
im porté</w>
fant aisie</w>
colec cion</w>
TE CH
Mal te</w>
rais ins</w>
7 2
1. 3</w>
secr étariat</w>
pay és</w>
oxyd ation</w>
li es</w>
br un
M ay</w>
Gar anti
vi ves</w>
sou ci</w>
mo des
configu r
J ones</w>
B ed</w>
fréqu ente</w>
SQ L</w>
P RÉ
Exam en</w>
É clairage</w>
trai tant</w>
ingéni eur</w>
h ockey</w>
b ell</w>
H F</w>
t oir</w>
per d</w>
couv rant</w>
ami tié</w>
a a</w>
G P</w>
excell ents</w>
désign és</w>
chauff e</w>
ser p
enci a</w>
vari ent</w>
législ atif</w>
b ack
admissi bilité</w>
cotis ations</w>
todo coleccion</w>
ex posée</w>
accro issement</w>
Thé âtre</w>
Int égr
un d</w>
Nouve auté</w>
Mac édo
LE T</w>
offer te</w>
do m</w>
Cor ner</w>
terres tre</w>
coqu ille</w>
Ro ch
2019-05- 14</w>
synon yme</w>
extra- urbaine</w>
ex pedi
bâ ton</w>
brill ante</w>
ao .com</w>
Rot terdam</w>
B y</w>
d re
V IP</w>
ph are</w>
and o</w>
A gu
.com. cn</w>
souff r
diri ge</w>
ad .com</w>
Jeu n
F oun
Cham pagne</w>
tiss eurs</w>
r ak
ad dition</w>
K il
K as
F alls</w>
poly m
197 9</w>
débu ts</w>
Tou jours</w>
MA N</w>
L T
protég ée</w>
form ées</w>
Com pét
re courir</w>
D a</w>
B LA
du reté</w>
Territ oires</w>
préserv ation</w>
mélang é</w>
mon uments</w>
compens er</w>
aut euils</w>
Geor ges</w>
trau matis
sé ch
pro active</w>
aî nés</w>
Voy ager</w>
vas culaire</w>
pénétr ation</w>
att ache</w>
29 ,
20 2</w>
us inage</w>
op posé</w>
en cl
Tr ad
S ant</w>
2018-09- 18</w>
tes tostérone</w>
sco pe</w>
gr adu
franco phones</w>
e du
Rel ations</w>
Avant ages</w>
us ag
fis sures</w>
dot ées</w>
adop te</w>
Bern ard</w>
wor th</w>
TO U
B RO
rou tine</w>
prospér ité</w>
feu ill
cruci ales</w>
constitu ant</w>
Ac cidents</w>
énonc és</w>
plate formes</w>
on o</w>
o bl
25 -
sil encieux</w>
médi év
lis ses</w>
horizont al</w>
h av
oi gne</w>
V .</w>
N euve</w>
Connex ion</w>
C TEUR</w>
si xième</w>
qu ettes</w>
pren ons</w>
molécu les</w>
j our
inter actions</w>
en lèvement</w>
adéqu at</w>
B ologne</w>
consac rée</w>
min ces</w>
Industr i
mari é</w>
8 3
ti an
comp tent</w>
F LE
Cr ystal</w>
économ isez</w>
us tr
rou ille</w>
glu cides</w>
dérou le</w>
K ris
Br oth
tr embl
rou teur</w>
exig er</w>
A man
ssel dorf</w>
pér il</w>
al k
Vi ol
Networ k</w>
Dét ail</w>
Alumin ium</w>
ther miques</w>
rappel é</w>
p ton</w>
hu a</w>
T ête</w>
1 14</w>
expl ication</w>
G el
tré sor
fr ance</w>
H as
Ch el
C B</w>
Arm oire</w>
mi rac
lic enci
dé bar
duc teur</w>
car rée</w>
ad esh</w>
soupl esse</w>
in hal
requér ant</w>
liber tés</w>
Ligh ting</w>
LA S</w>
L itu
impren able</w>
arm és</w>
Sc ène</w>
Kit chen
En gin
route km</w>
Moy en</w>
D ü
Cap e</w>
Ama zon</w>
tu rée</w>
ré f</w>
re construction</w>
U L</w>
Jérusal em</w>
At elier</w>
él ite</w>
ur y</w>
R H</w>
travaill ons</w>
sensibil iser</w>
ps d</w>
déf end
dé mange
algorith me</w>
W it
Be y
d av
allu mage</w>
Vél os</w>
V ot
Docu ment</w>
vi enne</w>
env ah
Sho w</w>
tis ation</w>
discipl ine</w>
anim ale</w>
an ique</w>
Produ ction</w>
ren for
lég al</w>
direc tionnelle</w>
de dans</w>
g m
Rec ev
R T
quanti t
ez- la</w>
Di vers</w>
tiss age</w>
p ères</w>
chev el
ai ries</w>
tal ons</w>
prof esseurs</w>
pist olet</w>
distribu é</w>
W .</w>
Ac ry
A lic
sili ce</w>
ji ang</w>
ac le</w>
pix els</w>
in k</w>
ash i</w>
E pson</w>
vi f</w>
ic aux</w>
Mal i</w>
mu re</w>
command ant</w>
Reli gion</w>
Sy dney</w>
ch r
C annes</w>
200 6-
pe indre</w>
comm issions</w>
Pi zza</w>
éduc atif</w>
i ze</w>
ai .com</w>
ag issait</w>
D ég
ar rest
Am endement</w>
u kr
li eu
vacc ination</w>
tes té</w>
sci e</w>
pat tes</w>
fr appe</w>
ans as</w>
ai gne</w>
Qu artier</w>
pré fèrent</w>
B T
2 70</w>
f oyers</w>
cô tes</w>
aér onefs</w>
préal ablement</w>
pro spec
gr osse</w>
excur sion</w>
compliqu é</w>
Veg as</w>
Orches tra</w>
J U
Comm issariat</w>
sens ations</w>
re vêtements</w>
intellig ence</w>
ass é</w>
ass isté</w>
abond ance</w>
échantill onnage</w>
shop .com</w>
magné tiques</w>
cardi ovas
at .com</w>
Mo ins</w>
z en
mobil isation</w>
te k</w>
sty lo
pro cureur</w>
min ière</w>
gn ac</w>
c z</w>
éc ois</w>
sécher esse</w>
n ement</w>
Se cur
Sar ah</w>
ê nes</w>
u -
onn ées</w>
TR A</w>
tr ag
ov ale</w>
0 1.
tionn ée</w>
poly éthylène</w>
li p
gagn ant</w>
diarr hée</w>
personnalis ées</w>
désign ation</w>
b onn
hydr ate</w>
étr oit</w>
maxim ales</w>
S ag
sexu els</w>
bo ite</w>
avi ation</w>
Not ez</w>
dét erg
ca chés</w>
217.160. 0.
u k
L S
Cit oy
éclai r
au berge</w>
am id
Cab ine</w>
danger euse</w>
acqu errez</w>
Ré solution</w>
Nom s</w>
témoign age</w>
sou scri
rés on
périph érie</w>
fr ac
ari os</w>
L F</w>
BO U
1, 2</w>
v e-
suspen du</w>
lev ure</w>
b aptis
pass ées</w>
s b
o x</w>
il lumin
ca pot</w>
36 5</w>
pour vue</w>
mar quée</w>
d f
Tr in
é s
iss ants</w>
fon taine</w>
es a</w>
bal ance</w>
Ren forc
M écan
onni er</w>
minim aliste</w>
con jonc
au tique</w>
sor ti</w>
rédu its</w>
détec té</w>
con cert
B V</w>
s ap
eu ri
bou gie</w>
B T</w>
éti ez</w>
opérationn els</w>
Santi ago</w>
sus p
ca .com</w>
é ine</w>
tur a</w>
pou dr
fl otte</w>
d ame</w>
ac a</w>
si rop</w>
pr ends</w>
adres sée</w>
te inture</w>
kil o
prononc é</w>
drain age</w>
dédi ée</w>
o ï
discu té</w>
MO D</w>
év it
respec tifs</w>
oly mpique</w>
l ite</w>
cr ê
bouilli e</w>
SE URS</w>
man chon</w>
in vo
in er
5 x
16 -
ér able</w>
for um
du mp
atténu ation</w>
ét ern
o lig
met al
ci l</w>
Ten nis</w>
S mall</w>
Canadi an</w>
modu laire</w>
Z oo</w>
Alic ante</w>
r entrer</w>
qu asi
av ut</w>
Rog er</w>
Chrom e</w>
ing er
N y
Joseph -
ur bains</w>
ac trice</w>
Compati ble</w>
2 80</w>
rem ous</w>
c z
approuv és</w>
ad i</w>
M X
Es prit</w>
tal ent</w>
ing o</w>
Mét hode</w>
1 14
tou t-
expedi e-sous-
expedie-sous- 24h</w>
Y e
well .com</w>
nick el</w>
is a</w>
ambi ti
S am</w>
Prépar ation</w>
dang ers</w>
s- montres-
perman ents</w>
af a</w>
L D</w>
restric tion</w>
partag ée</w>
paras ites</w>
délin quants</w>
R P</w>
sex uel</w>
développ ent</w>
Su l
Ques tions</w>
Merce des</w>
télé charg
mari times</w>
affec tent</w>
SS E</w>
Nouve autés</w>
termin ant</w>
rab ais</w>
orig ines</w>
cu bes</w>
compét ente</w>
néer landais</w>
MP O</w>
L il
conf iture</w>
C lin
Bro ad
B ill</w>
ar e
vo ter</w>
ressor tiss
divis ée</w>
coupa ble</w>
Tax i</w>
F ly
É RI
T é
pourri ons</w>
S UR
Régi me</w>
Bal ade</w>
ca ché</w>
Objec tif</w>
us t</w>
soci o-
enver gure</w>
dériv é</w>
N az
è ches</w>
sou pape</w>
eu f</w>
L D
K its</w>
oi es</w>
al au
Wil son</w>
I D
Bi o
l oire</w>
immédi at</w>
diplô més</w>
cre v
Di ver
D y
24 0
ul gation</w>
tari faire</w>
annul aire</w>
E gypte</w>
d .
3 50
énonc ées</w>
h -
ford shire</w>
d ème</w>
J unior</w>
Itali en</w>
Englis h</w>
Andr é</w>
gâ teaux</w>
9 50</w>
f œ
us h</w>
considér ables</w>
Y ou</w>
é man
exac titude</w>
dé place</w>
W ater</w>
Chap itre</w>
5 .</w>
ir rigation</w>
fant as
bal ayage</w>
R im
E Z</w>
Bo ok</w>
27 ,
ér u
pers écu
ber land</w>
Cour se</w>
p tions</w>
monn aies</w>
V ec
ot t</w>
Résult at</w>
Lor raine</w>
lo cal
Fabri qué</w>
3 1.
énor mes</w>
tionn és</w>
enterr é</w>
valid ation</w>
ques tionnaire</w>
k ets</w>
dé tient</w>
dé mi
Poli ce</w>
E ar
prest ataire</w>
m ets</w>
j ob
e arch</w>
diffus é</w>
cad ran</w>
adres ser</w>
hou sse</w>
gu érir</w>
rus tique</w>
recouv rement</w>
ad s</w>
Ad obe</w>
traver se</w>
sil ence</w>
mar ines</w>
manu factu
Recher chez-vous</w>
cu b
concurr entiel</w>
autor iser</w>
accompagn ement</w>
sépar er</w>
atterr issage</w>
Y a
V es
laqu é</w>
j p
formul er</w>
ent i</w>
du rs</w>
compét entes</w>
P M
Con verti
ph as
géni al</w>
ass ais
compt oir</w>
Fr ont</w>
Ether net</w>
impré gn
dégu ster</w>
d son</w>
champi onn
Blan che</w>
d entaires</w>
T PS
G RE
simpli fier</w>
pré matu
poly uréthane</w>
per dez</w>
direc tes</w>
color ée</w>
ph e</w>
CÔ TÉ</w>
Am er
élas ticité</w>
k ey</w>
envoy ée</w>
sucr é</w>
n t
commod ité</w>
ci r</w>
Ome ga</w>
crimin els</w>
N ev
E ducation</w>
CA N</w>
C ob
spectac les</w>
Ex cel</w>
2 9.
shampo oing</w>
parl ent</w>
g le</w>
fi ère</w>
el ia</w>
O -
d og
élec teurs</w>
simult an
s atin</w>
rencontr ez</w>
re b</w>
gl as</w>
J O</w>
compos ent</w>
LI MI
26 ,
sovi étique</w>
Marg ar
FI D</w>
209. 200.
anti ques</w>
ab e</w>
L C
K ent</w>
J im</w>
D G</w>
qu ante</w>
préci euses</w>
distribu er</w>
progressi ve</w>
b our</w>
b au
sec ou
nau tiques</w>
dit -
cor on
and ro
Se bas
Cos mé
personn ellement</w>
far deau</w>
arti stiques</w>
Inst agram</w>
Ar rê
g em
c age</w>
Kar ls
B ack
régl é</w>
hom ogène</w>
bro ok</w>
Mal aisie</w>
pvd- boitier</w>
fre inage</w>
CA D</w>
st .com</w>
cherch eur</w>
D euxièmement</w>
ther n</w>
pers on
p is
40 mm</w>
remédi er</w>
optimis ation</w>
ma h</w>
lim ités</w>
lap in</w>
d res
E co
13 9</w>
viv ez</w>
emb au
attach er</w>
sur vivre</w>
sous- jac
autor isées</w>
D at
thérapeu tiques</w>
handi cap</w>
spéci alités</w>
sti c</w>
manu cure</w>
209.200. 154.
parall èles</w>
i enne</w>
enc y</w>
en sement</w>
Servi ettes</w>
t ache</w>
sch ém
pour suivi</w>
gu ez</w>
cap sule</w>
Sim ple</w>
Pa tri
sav eurs</w>
k el
explor ez</w>
rapp ell
déli v
autor isations</w>
Bo ston</w>
Spr ings</w>
ul c
tuber culose</w>
tr esse</w>
pl atine</w>
P ens
J A
w an
K aw
Cli ent</w>
cam ps</w>
Analy ste</w>
ong le</w>
im péri
h u</w>
P PORT</w>
vi erge</w>
quali fication</w>
V a</w>
Améric ains</w>
co c
am inés</w>
tum eur</w>
h alog
fol k
contrac té</w>
Con figu
luxu eux</w>
k el</w>
h er</w>
augment ant</w>
alim ent
hari cots</w>
vécu e</w>
Be ij
-B ENZ</w>
ukr ain
par aly
b oy
2018-09- 26</w>
ant o</w>
X XL</w>
Birmin gham</w>
ég yp
pl ais
ici de</w>
D RE</w>
t ardi
cap uche</w>
B og
fix ées</w>
dou ces</w>
E mil
tr am
M om
C is
B rem
vingt -
phr ase</w>
ach èvement</w>
M onn
200 5-
li f
handicap és</w>
du rer</w>
N O</w>
sy ri
dé voil
tempor aires</w>
se a</w>
roul ements</w>
b résili
align ement</w>
af e</w>
Resto Quebec</w>
Bro sse</w>
év ille</w>
énum érés</w>
per pendi
le y
Plac ez</w>
Len ovo</w>
rem or
ambass ade</w>
St and</w>
Mari o</w>
Temp le</w>
4 20</w>
négoci er</w>
em ble</w>
assain issement</w>
ans om
X E</w>
3 d</w>
présent ons</w>
modé lisation</w>
dr am
K ay
E F
f auss
DES -BENZ</w>
n ers</w>
mon te</w>
fau sse</w>
anc ement</w>
concr ètes</w>
ch .com</w>
b os
amus er</w>
Slov aquie</w>
LE R</w>
15 5</w>
pin ce</w>
mé tiers</w>
bour ne</w>
b ais
régl ages</w>
ab e
pour vu</w>
pa pa</w>
modifi és</w>
m ale</w>
di ques</w>
Dev on</w>
Arc tique</w>
path ogènes</w>
K im</w>
sympt ôme</w>
AV ANT</w>
trans mises</w>
capit aine</w>
Fr anci
Ch ir
Appro visionnement</w>
ins onor
ingrédi ent</w>
fri re</w>
Val eur</w>
2 25</w>
w -
car to
G lou
so ft
rè gne</w>
recueilli es</w>
cul ation</w>
acc alau
D rap
12 6</w>
ho v
bel ge</w>
G AN
propor tions</w>
mor ale</w>
inf lation</w>
e cu
comb ine</w>
chaudi ère</w>
po res</w>
détermin ées</w>
anç ailles</w>
MERCE DES-BENZ</w>
A GE</w>
162. 255.
u chon</w>
av er</w>
L ai
B AS
u ez</w>
lumin euses</w>
j j
vel ours</w>
recommand ent</w>
pl éni
opérationn elles</w>
lt on</w>
P ont</w>
B B</w>
pi res</w>
per dent</w>
immu no
expérim enté</w>
Ingrédi ents</w>
For est</w>
19 00</w>
â ne</w>
inspir é</w>
id o</w>
dé penser</w>
assu mer</w>
Tou ch</w>
trans formé</w>
mensu elle</w>
bu c
br itanniques</w>
T .</w>
architec te</w>
Institu te</w>
s l
Red mi</w>
2 .com</w>
souhai tée</w>
cap sules</w>
assi ette</w>
2018-10-0 3</w>
um a</w>
relev és</w>
i ce</w>
glu cose</w>
F ood</w>
E V
lev ée</w>
gi bles</w>
B om
3. 2</w>
W D</w>
T .
E X</w>
én ager</w>
re ine</w>
nu age</w>
met trons</w>
aut obus</w>
Chois ir</w>
re al
cor des</w>
Pos t</w>
Po p</w>
Litu anie</w>
Bow ling</w>
bro che</w>
TV C-
R CA</w>
Er n
éco système</w>
ser ais</w>
RE CH
9 3
sé ché</w>
et te-
en se
docu mentaire</w>
MA TI
E LECT
2. 4</w>
r établir</w>
conserv ateur</w>
appar ten
Her z
lég ales</w>
génér é</w>
chrom é</w>
X X</w>
Per les</w>
Karls ru
ensi ble</w>
démon stration</w>
configu ré</w>
bl ou
b en</w>
ett o</w>
bi en-
arriv és</w>
Prof essionn
4x 4</w>
s am
po p</w>
estim ée</w>
S POR
sou tiennent</w>
rén ale</w>
bro derie</w>
b -
approuv e</w>
Ser bie</w>
Tanz anie</w>
R IS
re pos
V ers</w>
Quanti té</w>
Oce an</w>
Not es</w>
For mul
D D
pon ctu
merveill euse</w>
rent abilité</w>
mag n
hydro carbu
compl été</w>
éventu els</w>
tr oit</w>
pré fère</w>
espagno le</w>
élarg issement</w>
détru it</w>
doc teur</w>
Pâ ques</w>
Ari zona</w>
rej eté</w>
m ai
k om
dirig ée</w>
attr ayant</w>
N ancy</w>
S pot</w>
Am bi
réserv oirs</w>
fi br
condi tionnement</w>
Championn ats</w>
climatis ées</w>
cellu laires</w>
car a</w>
lanc ée</w>
verre- du-
verre-du- fond</w>
part agent</w>
e ables</w>
chim ent</w>
P ir
H aut-par
23 2</w>
2 -01</w>
gén érique</w>
Seu le</w>
H ob
Ed ward</w>
st ades</w>
or .com</w>
honn ête</w>
contrô lé</w>
p ans
impl ém
continu ité</w>
cas ino</w>
accalau réat</w>
Cas ino</w>
tum eurs</w>
ser ts</w>
just ement</w>
essi e</w>
ec o</w>
connec tée</w>
197 8</w>
É n
til ité</w>
stand ards</w>
biblioth èques</w>
S ir
R ic
sul fate</w>
bet ter
W er
re cul</w>
im meubles</w>
différ emment</w>
Nav ig
Fourn itures</w>
vacc ins</w>
pru dent</w>
quelques- uns</w>
lég ale</w>
209.200.154. 54</w>
religi euses</w>
all ergies</w>
Fr om
ri ers</w>
ex u
In terr
M ES</w>
En ti
port atif</w>
at t</w>
vi gno
proli fér
ir ont</w>
confron tés</w>
k ia</w>
ass istant</w>
Distribu teur</w>
développ eurs</w>
allai tement</w>
al lis
B LE
isol ement</w>
fac tures</w>
coun ty</w>
catastroph es</w>
Sh ro
solu ble</w>
pertin ent</w>
m Ah</w>
coor donn
cli er</w>
budg ets</w>
Macédo ine</w>
3 7.
sco oter</w>
octr oi</w>
frapp é</w>
.com. au</w>
transform ateur</w>
thy ro
strati fié</w>
bal les</w>
séqu ences</w>
or di
bienf aisance</w>
amp ton</w>
Vot ez</w>
Mati ère</w>
N el
4 1
3- 4</w>
wor k</w>
psych ologique</w>
produ it
dot és</w>
bu se</w>
av ir
T 2</w>
pi ét
on ia</w>
c d
végét ation</w>
ex porté</w>
Sand ales</w>
Ess ence</w>
lithi um</w>
délivr ance</w>
Ox ford</w>
au n
ab ore</w>
mensu el</w>
in gu
dirig eant</w>
appar u</w>
cont ex
Shi rt</w>
K no
s ville</w>
GRA TUI
y g
amen é</w>
actu alisation</w>
N et</w>
K ath
IC s</w>
C ass
ch air</w>
bu lletin</w>
TE L</w>
Beij ing</w>
jer sey</w>
hori zon</w>
ex posées</w>
PC B</w>
Cro ss</w>
né o
endr ons</w>
Pu zzle</w>
CA TION</w>
équ itation</w>
échang eur</w>
t v
is ier</w>
â ges</w>
rec y
commen çant</w>
by e</w>
all ergiques</w>
S hu
Mas ter
24 -
2 A</w>
fonctionn els</w>
cass é</w>
Ex trait</w>
Coun try</w>
Au teur</w>
4, 5</w>
162.255. 119.
pouv ez-vous</w>
explo sion</w>
Bri tish</w>
équili brée</w>
souff re</w>
gé ant</w>
Z en
Nun avut</w>
fréqu entes</w>
ag og
émerg ence</w>
descrip tif</w>
indi c
pli able</w>
nouve autés</w>
fabri quée</w>
du plex</w>
N OR
Dé finition</w>
tur c</w>
in timité</w>
e in</w>
appuy é</w>
V as
N on-
endommag é</w>
arth rite</w>
ansom ware</w>
W y
Sou tien</w>
E M
éd ois</w>
coor donner</w>
T ren
S SI
in capacité</w>
consci ents</w>
G at
proto coles</w>
détéri oration</w>
Car los</w>
o on</w>
ill ons</w>
approuv ée</w>
urb aines</w>
pou pée</w>
pas ser
ens eurs</w>
thi opie</w>
V ig
Cad eau</w>
Al z
dé livré</w>
cutan ée</w>
T exte</w>
Log ement</w>
supprim é</w>
i an</w>
habitu elle</w>
gen oux</w>
dump ing</w>
Con tempor
sou fre</w>
imprim able</w>
dé montre</w>
do wn
Sè che-cheveux</w>
Sili cone</w>
Man teaux</w>
r ai
consid èrent</w>
auxili aire</w>
Ar d
Ai d</w>
2 6.
procur er</w>
part ent</w>
harmon isation</w>
ak ers</w>
C rem
Am or
requér ante</w>
b ret
augment ée</w>
anon yme</w>
Pal ace</w>
Autom atic</w>
ori fice</w>
hi ér
Em pire</w>
tubu laire</w>
tr ente</w>
gén étiques</w>
cou pes</w>
Ru ban</w>
Prof essi
ty piques</w>
sol uti
par courir</w>
A perçu</w>
fab ul
do or</w>
Acry lique</w>
immobil ière</w>
em berg</w>
e ber
all ée</w>
P antalons</w>
cont our</w>
Shro pshire</w>
Li aisons</w>
m ens</w>
autocoll ants</w>
TI E</w>
s r
R oc
SU V</w>
t endre</w>
pos tu
diges tif</w>
poign et</w>
int ox
défici ence</w>
F ish
3 9.
tr onique</w>
it ar
d v
cher ché</w>
adhér ence</w>
Se ine</w>
élev er</w>
tour noi</w>
er son</w>
Gene alogie</w>
Dan se</w>
prolon ger</w>
dési re</w>
ax é</w>
argu ment</w>
aliz ed</w>
Y -
f j
différ enci
can ad
ar ov
res tera</w>
ap portent</w>
Diam ond</w>
19 20</w>
human itaires</w>
S mo
Bo ard
B el</w>
réguli ères</w>
obs cur
accou chement</w>
Perfor mance</w>
P op
infirmi ères</w>
anxi été</w>
musul mans</w>
flu ides</w>
1 18</w>
dom ini
at em
aur ons</w>
at ographie</w>
H arry</w>
reg istres</w>
ol ym
fon dre</w>
exhau s
ann y</w>
Mar ket</w>
Imprim é</w>
Bi ble</w>
trans porteurs</w>
pronon ciation</w>
iss a</w>
invest i</w>
Rad well</w>
ging embre</w>
fi ançailles</w>
eth niques</w>
Du plex</w>
Ay ant</w>
è tement</w>
pé tr
Quel que</w>
Cap it
on ger</w>
Modi fier</w>
Mc G
ré unis</w>
nom més</w>
motiv ation</w>
inst ances</w>
Vol ume</w>
Investi ss
es tri
ch y</w>
Dites- nous</w>
Chaî nes</w>
Castill e-et-
d t</w>
S tri
13 1</w>
scr utin</w>
So fia</w>
Scott sdale</w>
CH AR
s port
m ed
cr aft</w>
mentionn er</w>
Paqu et</w>
Gener al</w>
C lav
tradu ire</w>
réuni r</w>
n ess
m ég
Ph ase</w>
Mon te</w>
Cin q</w>
n ett
dis si
con ique</w>
Te am</w>
dispos ez</w>
Explor ant</w>
ap péti
O C</w>
I X</w>
éc ré
décor ations</w>
Rad well.com</w>
Bo issons</w>
30 ,
Spéci aliste</w>
é pu
O v
L V
oo t</w>
bless és</w>
L ati
Gen re</w>
G P
Al am
trans mise</w>
at omes</w>
aiss é</w>
Mondi ale</w>
Ch ance</w>
signific atif</w>
Vic tor</w>
B D</w>
2 1.
sh e
pré val
port ait</w>
o .
norm alisation</w>
L i</w>
B R</w>
20 6</w>
199 .
évolu er</w>
o sa</w>
main tenue</w>
financ és</w>
Excell ent</w>
pel li
ar ités</w>
ab att
notari aux</w>
l és</w>
Ann uler</w>
vérifi cations</w>
rur ale</w>
j oign
indi qu
brouill ard</w>
réuni t</w>
p è
o z
cour age</w>
pou mons</w>
my th
m ec</w>
al p
R V
N ag
4 K</w>
champi gnon</w>
He w
renforc ée</w>
exc éd
Vide o</w>
Riv e-
P long
Chauss ettes</w>
déclar er</w>
T IN
Po in
H ER
MIN I</w>
trouver a</w>
effec tive</w>
asi atiques</w>
l em
dou ane</w>
équival ente</w>
hypo thèse</w>
S TO
D ic
Conse iller</w>
Ch im
18 5</w>
É di
s eau</w>
nat ation</w>
exclu re</w>
Ap p
san ne</w>
mor te</w>
indépend antes</w>
Al ab
public ités</w>
para pluie</w>
flexi bles</w>
esti mer</w>
cont est
cons ist
océ ans</w>
cac ao</w>
re pris</w>
perfec tionner</w>
oty pe</w>
f le</w>
extr a</w>
dési ré</w>
M ant
prom is</w>
o il
enz ymes</w>
dé couper</w>
cré ez</w>
L ap
Bal con</w>
k ov
br as
Res earch</w>
Honor ables</w>
vas tes</w>
réus sie</w>
mas ter
li aisons</w>
coup ées</w>
TPS GC</w>
Bag ues</w>
my stéri
démange aisons</w>
F ou
or données</w>
minim iser</w>
import és</w>
occup ent</w>
Un isexe</w>
Trans parent</w>
voil à</w>
m aîtres</w>
prê ter</w>
Wor k
Or lé
Atl anti
6 x
For mat</w>
F er</w>
scén arios</w>
allerg ie</w>
1000 -2500</w>
nag eur</w>
n t</w>
g ê
Répar ation</w>
A ar
str um
souhai tons</w>
appréci ation</w>
Hy giène</w>
de vise</w>
con vo
ï ne</w>
É g
sé chées</w>
fi ches</w>
T TE</w>
Dipl ômes</w>
pénétr er</w>
Nation ale</w>
GI E</w>
ur al</w>
sem ences</w>
p e-
fer r
fem elles</w>
condam né</w>
Mati ères</w>
19 75</w>
ré ac
fr et</w>
fond ement</w>
B eau</w>
territori aux</w>
par rain
deman dée</w>
M embre</w>
Lou ise</w>
si ers</w>
elec tronic</w>
ang el
Alexand re</w>
- 2</w>
tri ple</w>
shi p</w>
dés infec
b ai</w>
Sur tout</w>
Pan ier</w>
partag és</w>
commém or
color ées</w>
ban k</w>
Popul aire</w>
4 5.
ill y</w>
chu tes</w>
Pas -de-
Jeun esse</w>
Es cape</w>
infecti euses</w>
ar ômes</w>
13 6</w>
ven ait</w>
trouv ant</w>
consul té</w>
T o</w>
RI QUE</w>
Afri c
ä r
ko v</w>
G R</w>
vie w
mor ph
concep teurs</w>
J ard
E mer
In fin
C aisse</w>
fréqu ent</w>
dés agréable</w>
pesti cides</w>
cons istant</w>
as aki</w>
T 1</w>
Pr êts</w>
t ablement</w>
ang zhou</w>
Struc ture</w>
F S
Centr o</w>
he im
dé solé</w>
Lin ge</w>
ém ail</w>
re jet</w>
intér im
ill ère</w>
f oul
û ment</w>
p m</w>
en com
dé gâ
Règ les</w>
P oul
Elec trol
super bes</w>
pinc eau</w>
m it</w>
E .
14 4</w>
vis er</w>
tou ché</w>
réper tori
r it
r at
Re pas</w>
2 10
- 111.
t s-
mo s</w>
l en
gastro- intestin
L É
impliqu ant</w>
Gre y</w>
S ri</w>
4 10</w>
18 00</w>
princ esse</w>
ou sie</w>
affir mer</w>
D ess
vers és</w>
distinc ts</w>
G ö
synchron isation</w>
ministéri el</w>
ch ain</w>
V u
IS O
Ali ments</w>
r avis</w>
ost éo
auton omes</w>
B EL
pla çant</w>
cis eaux</w>
S it
E cole</w>
A Z
pris onniers</w>
gas p
appéti t</w>
Gal erie</w>
Diam ètre</w>
éri es</w>
tion .com</w>
appar emment</w>
ai le</w>
L à</w>
sécur isée</w>
mot os</w>
eff on
Gu ill
vi ez</w>
transist or</w>
t enté</w>
ren voi</w>
en- ligne</w>
compar ativement</w>
ved ette</w>
blan chiment</w>
hé mo
gé om
bor nes</w>
E y
CE F</w>
B I</w>
fr aises</w>
estiv als</w>
ad e
ac o
R w
C are</w>
3 e</w>
one er</w>
k istan</w>
anti dérap
V ecteur</w>
L ignes</w>
œ dème</w>
stabil isation</w>
mâ ch
all er-
C LI
fl éch
zu ki</w>
méthod ologie</w>
et ée</w>
Z im
Ca pri
18 2</w>
gr ue</w>
bar oque</w>
I M</w>
Canap é</w>
19 5.
pou le</w>
cré ateurs</w>
circons cription</w>
an ab
Ac tiv
viv ons</w>
Pe dro</w>
uni formément</w>
re passage</w>
ll s</w>
gy m</w>
bal e
amen de</w>
Stock holm</w>
pens ons</w>
hy bri
garde- robe</w>
ang lo
ac res</w>
X T</w>
UTI LIS
mâ les</w>
détaill és</w>
Eff et</w>
te .com</w>
incroy ables</w>
ath l
ag an</w>
T X</w>
A bi
reli ées</w>
i x</w>
gouvernement al</w>
fre d</w>
Ven ez
H oo
B éné
t étr
al pin
R oi</w>
N ET</w>
Ap prenez</w>
A voir</w>
der land</w>
1 13</w>
si ze</w>
possé dant</w>
ti er
man g
b ê
admi rer</w>
di ants</w>
Mus ées</w>
Baign oire</w>
A LE</w>
3 5.
. cn</w>
li pi
inform és</w>
cruci al</w>
S ak
Personn alisé</w>
O PEL</w>
H ur
1 19
réver sible</w>
m all
compar able</w>
T ony</w>
él us</w>
col i</w>
atis ation</w>
S ão</w>
C arri
w el
sil houette</w>
prot èg
forc é</w>
L ett
u rie</w>
institu tionnels</w>
arg enté</w>
an der
Y ves</w>
B AN
men stru
cont actez</w>
WI FI</w>
quin ze</w>
iss ée</w>
gre c</w>
You Tube</w>
Dec ker</w>
s entier</w>
démar re</w>
E ll
ro w</w>
mi ers</w>
Im mobil
Concep t</w>
épar gne</w>
don ateurs</w>
ca m</w>
U s
tox ines</w>
ri ères</w>
co gni
bénéfici é</w>
an gu
â gé</w>
26 4</w>
répét er</w>
per ia</w>
kay ak</w>
consac rer</w>
Ali ce</w>
A 3</w>
jus tifier</w>
R D</w>
Mar co</w>
8, 4</w>
prim ordi
mar quer</w>
av éré</w>
Can ton</w>
my st
inoubli able</w>
innov antes</w>
bron ch
ation -
PI È
par adis</w>
gu el</w>
garn iture</w>
f en</w>
Vis u
I .
Fo x</w>
im posées</w>
hebdomad aire</w>
fraî cheur</w>
ent on</w>
affi chés</w>
Saint- Jean-
Pal m</w>
D od
évèn ements</w>
visu ellement</w>
nécess itant</w>
intellig ents</w>
contr adi
Réc eption</w>
trim oni
st agi
m r
ar bor
men és</w>
j k</w>
é ens</w>
D T</w>
8 50</w>
- H
cré atives</w>
N IS
Fer meture</w>
An d</w>
st ages</w>
ron des</w>
psy cho
l ess</w>
accompl is</w>
Trem bl
T HO
Re gi
sent ent</w>
refl ètent</w>
en dur
agro alimentaire</w>
Ch ina</w>
t abilité</w>
sk aya</w>
pré su
ori enter</w>
fol k</w>
fi er
Ru ss
Rou ss
Joy eux</w>
Bri dge</w>
em ens</w>
F eli
bét ail</w>
C RE
év ité</w>
s avait</w>
bi k
Speci alized</w>
C ard</w>
P EN
sou terr
noeu d</w>
mem bran
N ation</w>
J ane</w>
CN W</w>
éri en</w>
spécifi é</w>
[...]
