#version: 0.2
d e</w>
e n
c i
o s</w>
e r
a r
e s</w>
e s
c o
a s</w>
a n
i n
a d
l a</w>
e l</w>
e n</w>
en t
a l
o r
ó n</w>
t i
o n
q u
r e
t r
ci ón</w>
d i
p r
u n
a m
i c
o r</w>
i d
p ar
a l</w>
a r</w>
s i
s t
qu e</w>
e c
l os</w>
e m
a c
a ción</w>
e l
d el</w>
es t
a t
co n
u r
o t
o l
par a</w>
a b
s e</w>
ci on
c u
co m
ent e</w>
ad o</w>
e r</w>
l as</w>
i l
i m
an t
u n</w>
d o</w>
i t
u e
pr o
co n</w>
p l
a d</w>
b r
a s
un a</w>
o m
v i
p er
e t
e g
u c
a n</w>
t o</w>
a p
s u
ent o</w>
í a</w>
a j
p or</w>
g r
ar i
l o</w>
i s
t er
m e
b i
cion es</w>
o n</w>
i z
o s
e x
d es
o d
b l
u l
ti v
u s
or m
ad os</w>
ad a</w>
ci a</w>
al es</w>
c h
a g
d e
id ad</w>
ti c
E l</w>
á s</w>
p or
r i
u t
f i
l u
ent r
qu ot
quot ;</w>
& quot;</w>
br e</w>
n o</w>
i ento</w>
a ñ
f orm
p o
or es</w>
pr es
i a</w>
p ue
e d
r es
p u
ant e</w>
s o
t a</w>
ic a</w>
L a</w>
p i
a v
2 0
p re
l i
t u
di s
c ar
er a</w>
t e</w>
a ciones</w>
d a</w>
p o</w>
l e</w>
& #
ic o</w>
e j
g u
id o</w>
m in
E st
com o</w>
r o
f er
m ás</w>
I n
er o</w>
en cia</w>
1 2
re c
ci o</w>
am bi
in a</w>
a y
v er
a z
ad or</w>
an do</w>
m an
g o</w>
t en
ur a</w>
ent es</w>
i r
am ente</w>
di c
p e
f ic
co r
t os</w>
o c
s u</w>
o b
es tr
a ci
po si
é s</w>
ari o</w>
d uc
l e
d ad</w>
12 4
124 ;</w>
&# 124;</w>
i v
m u
m i
con tr
si ón</w>
am iento</w>
i o</w>
qu i
in ter
s er
ad es</w>
A l
i st
ue v
me di
pue de</w>
g t
f u
ad as</w>
er c
i g
al iz
ti en
n e
m o</w>
c l
c al
ti l
gt ;</w>
& gt;</w>
e ñ
p a
s eg
E n</w>
U n
h a</w>
ant es</w>
f r
al m
é n</w>
aj e</w>
i ón</w>
ec t
h a
d os</w>
P ar
p on
u m
g en
so bre</w>
on es</w>
o tr
id a</w>
ent a</w>
C om
co l
m en
0 0</w>
er i
c es
ent os</w>
v en
o ci
re g
bl e</w>
ab le</w>
st a</w>
o g
á n</w>
es ti
in g
tiv o</w>
m ar
o l</w>
20 1
i r</w>
c o</w>
er r
L os</w>
ambi én</w>
pro duc
C on
E S</w>
por t
o p
T r
or a</w>
est á</w>
ar r
o do</w>
z a</w>
n a</w>
s ol
in c
an o</w>
an s
b u
c as
a cion
C h
at os</w>
pr im
id os</w>
fi ci
est a</w>
u d
ec h
an a</w>
e p
f in
e v
re l
alm ente</w>
a ut
me j
si st
p ol
t od
d en</w>
o v
el es</w>
em pl
o j
an ti
en s
s on</w>
en ci
s on
n i
E s
in t
et a</w>
ag u
ari os</w>
t ambién</w>
tic o</w>
cu l
c re
ó n
form ación</w>
tr o</w>
con t
ci p
D es
. .</w>
á n
v e
C o
em a</w>
H ot
n uev
c erc
tien e</w>
añ o</w>
est e</w>
A n
R e
de b
en d
ab r
a f
f un
í cu
o f
entr e</w>
a ti
tic a</w>
in o</w>
l l
par ti
ar es</w>
. ..</w>
c ap
c r
tr ans
l í
u til
at o</w>
r o</w>
qu il
s e
an d
aj o</w>
ec ción</w>
í s
i n</w>
des de</w>
ci os</w>
D e</w>
tr i
util iz
ap os
apos ;</w>
& apos;</w>
uc ción</w>
s al
m iento</w>
pu est
id ades</w>
d ur
t as</w>
b ar
g a</w>
m il
in g</w>
h ab
su s</w>
ar m
c am
es p
h ac
é r
g ar</w>
s tr
c ri
d o
P r
a tiv
inc lu
ad ores</w>
h u
ic ación</w>
í as</w>
ul t
us o</w>
A r
ch e</w>
d u
1 0</w>
d et
pr in
C ol
s er</w>
en do</w>
per son
u er
i ci
ú n</w>
l in
c a</w>
em po</w>
u estr
1 0
e f
L as</w>
a si
m is
entr o</w>
u di
ic os</w>
ad i
e di
l es</w>
m od
su per
an cia</w>
pe ci
di rec
Par a</w>
par t
form a</w>
uc h
e d</w>
er ía</w>
ir e</w>
it e</w>
el ec
pue den</w>
j o</w>
i or</w>
or i
Est ados</w>
ec to</w>
agu a</w>
f l
g an
h i
m a</w>
E n
x im
er es</w>
G r
ar se</w>
m on
el o</w>
re aliz
p as
h or
empl o</w>
a se</w>
P re
m at
u b
a st
añ os</w>
P or</w>
d em
si n</w>
ces o</w>
v al
ec es
in formación</w>
am p
é c
em ente</w>
or ía</w>
arr ol
s ec
an c
ver s
ac tiv
ser vi
at eg
tr ab
20 0
1 9
n acion
pre cio</w>
D e
E R
m ay
prin cip
sist ema</w>
cion ario</w>
n eces
a pl
al ta</w>
D i
en a</w>
an os</w>
b er
en di
otr os</w>
ic as</w>
bi er
in dic
T i
pu er
is tr
l an
S t
ti empo</w>
d as</w>
es peci
am a</w>
re ci
com pr
un to</w>
am i
on a</w>
it o</w>
t odo</w>
pr ot
d er
M ar
l o
ing l
2 0</w>
ap a</w>
C u
tic as</w>
m un
p ul
t em
ar á</w>
par te</w>
t ur
com pl
er os</w>
n uestr
A c
dis posi
t ura</w>
t or</w>
ej emplo</w>
A L
v id
d atos</w>
f on
h o
S u
&# 9
p añ
il idad</w>
h ot
e o</w>
gen er
am os</w>
om bre</w>
i s</w>
u dad</w>
un t
A N
á s
m é
at u
l ar
S e</w>
c ambi
tod os</w>
P ro
tr at
dur ante</w>
p os</w>
u al</w>
u g
ven ción</w>
0 0
des arrol
c el
á g
un o</w>
a qu
ad ucción</w>
C O
á m
a pro
a y</w>
est ab
H O
quil er</w>
i fic
of rec
fu er
n eg
á ci
tr os</w>
5 0</w>
D E</w>
a h
es o</w>
s i</w>
Un idos</w>
er g
inclu y
al g
ari a</w>
ac ción</w>
N uev
n o
ne a</w>
m o
é s
ar d
o per
pres ión</w>
gu i
o y
az o</w>
u ción</w>
F r
os a</w>
aj a</w>
a ire</w>
com un
al l
u st
vi aje</w>
per o</w>
e b
mu j
ed ad</w>
I N
p od
com b
f or
al la</w>
cal idad</w>
om br
pro por
ci n
eñ o</w>
al i
est án</w>
L E
ech o</w>
m á
di fer
c a
v ent
im os</w>
d on
ar on</w>
a k
b a</w>
it a</w>
l ti
em os</w>
enci as</w>
a ur
ect or</w>
e a</w>
gr u
men os</w>
l im
C ar
tic os</w>
u su
c ab
il l
co m</w>
Hot el</w>
í n
m uch
si s</w>
posi ción</w>
r u
n os</w>
en contr
er o
en o</w>
ol og
Hot eles</w>
á l
c ada</w>
bl es</w>
ut a</w>
res ult
o x
puest o</w>
por te</w>
ateg oría</w>
propor cion
ant o</w>
ág ina</w>
A R
pres ent
ll eg
mu estr
In ter
cerc a</w>
u d</w>
h an</w>
pu és</w>
ni ñ
m pl
e qui
P l
. com</w>
le v
con di
em br
an ci
mat eri
im port
y a</w>
at ur
v ol
ten er</w>
m et
fi g
R E
g l
ci udad</w>
s ti
ú lti
e t</w>
at ura</w>
C I
G u
ac tu
ue go</w>
al qui
seg ur
c an
t or
id as</w>
e za</w>
tr av
k m</w>
im iento</w>
E x
in d
us tr
en cu
al idad</w>
m ot
du ci
ac to</w>
as a</w>
e z
pro gr
aj es</w>
mu y</w>
ón imos</w>
v esti
d r
cu er
c entr
fu e</w>
Q u
ci na</w>
m ero</w>
C or
di st
f lu
in vención</w>
i on
ti po</w>
amp ;</w>
& amp;</w>
ri g
cu ando</w>
produc tos</w>
1 2</w>
pro pi
mej or</w>
ar t
et as</w>
ha sta</w>
dis pon
am ento</w>
3 0</w>
nacion al</w>
lí nea</w>
min istr
v er</w>
si tu
r á
or d
g os</w>
T O
t o
est udi
cu alqui
c ur
ú s
Tr aducción</w>
il la</w>
R es
em as</w>
N o</w>
S i</w>
m m</w>
t om
n iv
pres ente</w>
T R
í o</w>
ícu lo</w>
si g
hac er</w>
c ó
m os</w>
B r
l oc
t ar
aut om
t el
re cu
tiv os</w>
si gui
V i
trav és</w>
ob j
h er
v enta</w>
v ari
ac ter
D E
ofrec e</w>
g ar
puer to</w>
d ía</w>
aci as</w>
al oj
s ó
as í</w>
disposi tivo</w>
ti l</w>
os o</w>
co st
medi o</w>
princip al</w>
c li
de ci
az a</w>
per atura</w>
seg un
nuev o</w>
i ones</w>
encu entr
A D
ci al</w>
si ones</w>
sti tu
il i
contr ol</w>
s o</w>
v a</w>
1 .
co che</w>
b o
s a</w>
l ado</w>
D ic
iz ación</w>
b ol
si mil
cont in
p ant
me tros</w>
i cio</w>
st al
est aur
p a</w>
et o</w>
I m
ac uer
v o</w>
j a</w>
ec u
tien en</w>
or ia</w>
a par
M on
ul ar</w>
em bre</w>
I C
er min
pol í
á c
f abr
seg ún</w>
s eñ
n ú
cion al</w>
con oci
t ar</w>
gr an</w>
is mo</w>
an as</w>
et e</w>
em pres
t ec
hab it
cri p
v ac
ú bl
í s</w>
v el
M an
car gar</w>
trab ajo</w>
C i
or gan
il lo</w>
res p
desarrol lo</w>
T o
d es</w>
apro xim
s ab
r uta</w>
ci ud
e br
H o
or io</w>
ad r
a um
pl azo</w>
U n</w>
f am
ad amente</w>
lu gar</w>
s em
A m
person as</w>
pro y
ex per
a u
m erc
mis mo</w>
olog ía</w>
may or</w>
in as</w>
dem ás</w>
E l
al u
S an</w>
ej o</w>
Est e</w>
man era</w>
ue los</w>
1 5</w>
D is
segur idad</w>
fer encia</w>
servi cios</w>
v u
cerc anos</w>
é n
produc to</w>
m ó
f ico</w>
ay a</w>
ó g
or t
muestr a</w>
S o
el em
li bre</w>
us ti
acuer do</w>
ic aciones</w>
1 00</w>
des pués</w>
an g
pro ceso</w>
c er
de p
m e</w>
E N
ó r
it al</w>
z o</w>
tr es</w>
con s
medi ante</w>
re a</w>
t anto</w>
pe qu
éc tr
E ur
f il
man o</w>
és -
in form
ci miento</w>
ombr es</w>
muj eres</w>
t am
posi ble</w>
unt y</w>
ori os</w>
í n</w>
w e
Dic cionario</w>
l lev
os tr
p el
don de</w>
al im
ut os</w>
P P
res pon
det ermin
cap aci
ex tr
t al</w>
eg r
cas a</w>
ant eri
S er
elec tr
ú n
in ónimos</w>
er e</w>
un os</w>
a tr
ec tos</w>
ís es</w>
me z
c anti
t u</w>
Nuev a</w>
er on</w>
al quiler</w>
A S
ad ora</w>
dispon i
p an
de fin
su b
A d
ero puerto</w>
ha y</w>
es a</w>
b ase</w>
j unto</w>
cas o</w>
cor to</w>
v e</w>
h id
ó m
pant alla</w>
ch es</w>
T od
er as</w>
pro c
an ia</w>
U S
ativ a</w>
an co</w>
ingl és</w>
niñ os</w>
M u
d or</w>
ve z</w>
con str
ch iv
estr uc
col or</w>
con ten
vi si
con su
A demás</w>
v ida</w>
ech os</w>
ist a</w>
i ción</w>
Ch ina</w>
b ur
en erg
p al
contin u
P er
est ar</w>
os as</w>
b ajo</w>
ab les</w>
A s
ant a</w>
iv indic
encuentr a</w>
Un a</w>
qu ina</w>
at a</w>
el lo</w>
f es
L e
deb e</w>
d el
dic cionario</w>
tem peratura</w>
lin s</w>
3 ;</w>
&#9 3;</w>
1 ;</w>
&#9 1;</w>
el éctr
cul ar</w>
dic ción</w>
em bar
L A
f ot
cualqui er</w>
T E
B ar
á mar
b ot
pro bl
otr as</w>
Col lins</w>
M in
av e</w>
re ivindic
a gr
mej ores</w>
difer entes</w>
vi l</w>
mun do</w>
ed a</w>
á r
t al
am pl
ingl és-
est ado</w>
materi al</w>
ah ora</w>
lu z</w>
C on</w>
h e</w>
super fici
m ol
per m
cu m
err ami
S al
ac e</w>
t es</w>
pre cios</w>
ag en</w>
B u
er al</w>
un idad</w>
2 .
n atur
mi embr
L i
nuev a</w>
P uer
Es pañ
g as</w>
E S
dis eño</w>
éc n
servi cio</w>
p ot
W i
elec cion
é fon
uc ciones</w>
Co unty</w>
car acter
contr a</w>
c entro</w>
hot eles</w>
u l</w>
par ación</w>
f ica</w>
s os</w>
C am
tr as</w>
err a</w>
t re
P o
ti o</w>
prim er</w>
pr iv
di fic
5 0
D I
a vi
vi sión</w>
niv el</w>
M é
B o
d ades</w>
gru po</w>
Pre dicción</w>
en de</w>
vel oci
val or</w>
a m</w>
d entro</w>
c ep
t ores</w>
G o
b ilidad</w>
nú mero</w>
tiv a</w>
in ación</w>
L u
fig ur
m ov
ent al</w>
prim era</w>
canti dad</w>
pre fer
trat amiento</w>
a z</w>
b as
m ant
ati s</w>
1 6
ciud ades</w>
i vers
ab or
ar chiv
mej or
S h
4 0</w>
esp ec
un as</w>
est o</w>
A P
ad era</w>
arm acias</w>
201 8</w>
V I
fabr ic
res id
e con
pa íses</w>
LE D</w>
U N
M a
en z
í an</w>
m apa</w>
in stal
1 1</w>
at e</w>
1 8
g o
an da</w>
it ar</w>
a la</w>
ue gos</w>
aproxim adamente</w>
i gu
ci r
en c
t écn
pa ís</w>
j un
e ti
tod as</w>
ñ o</w>
crip ción</w>
ag o</w>
2 4</w>
cuer po</w>
ch o</w>
an d</w>
ne t</w>
t ér
f ac
ent ación</w>
tec n
ve ed
t ot
m ul
e la</w>
sol o</w>
aloj amiento</w>
pr e</w>
on e</w>
on g
2 5</w>
ver sión</w>
ter r
est os</w>
produc ción</w>
fun cion
so ci
rá p
E s</w>
n orm
hot el</w>
z ona</w>
od uc
seg u
com er
S eg
a -
ar e</w>
is tro</w>
st as</w>
pi r
ho y</w>
car ga</w>
ch a</w>
trab aj
f áci
C as
T ambién</w>
cu enta</w>
m odo</w>
in str
In icio</w>
m as</w>
o gr
ad ministr
P al
in al</w>
om a</w>
m ic
usu ario</w>
A ut
ó l
a tivo</w>
pod r
F l
en fer
N e
3 0
ser v
pu esta</w>
con ex
pl an
b o</w>
part amento</w>
esti ón</w>
O N
i e</w>
ag n
gr atu
tr as
b e</w>
otr o</w>
ámar a</w>
li sis</w>
O r
hac e</w>
O R
pro ces
ís ticas</w>
ac ceso</w>
ti r
C ó
com pon
result ados</w>
proc edi
h e
a i
ur o</w>
ay ud
d ías</w>
éfon o</w>
op a</w>
or g
ac ero</w>
s eleccion
d ar</w>
T V</w>
ex ter
M ej
á tico</w>
do cum
ent emente</w>
M ás</w>
v in
c é
vi er
min utos</w>
mon t
sig ni
Españ a</w>
entr as</w>
ac e
ec ha</w>
1 6</w>
B ol
puest os</w>
ad ecu
con duc
A C
C an
p ágina</w>
a t</w>
hu man
t amente</w>
N i
r estaur
S i
or ig
el l
c ategoría</w>
o pe
h ist
Est a</w>
ot a</w>
b at
ox id
vesti g
Al quiler</w>
c lu
19 9
p eso</w>
1 4</w>
á fico</w>
s an
B e
bi en</w>
t er</w>
á lisis</w>
ec e</w>
fi r
p úbl
i d</w>
en da</w>
hor as</w>
L I
el la</w>
1 5
gr an
esp añ
ol óg
apl icación</w>
H on
gen es</w>
Di rec
lleg ar</w>
pr ue
v il
m i</w>
o cu
só lo</w>
ent as</w>
Pr oduc
incluy e</w>
nuestr a</w>
un d
p es
C ategoría</w>
ap oy
C al
import ante</w>
duci r</w>
ac en
ter a</w>
energ ía</w>
id er
p aci
se a</w>
p is
gr atis</w>
R o
ac h
com p
com pañ
aci on</w>
V er
in f
si l
ist as</w>
m ar</w>
gener al</w>
tam año</w>
cé lu
espec í
P ágina</w>
om in
B i
cion ado</w>
n ombre</w>
i sión</w>
rel acion
6 0</w>
equi po</w>
capaci dad</w>
superfici e</w>
si mpl
mant en
ha cia</w>
sec u
obj e
di g
d est
t ab
b al
cr it
cal i
embar go</w>
P i
aliz ación</w>
u da</w>
ez as</w>
ú s</w>
e fici
re d</w>
Mu j
S U
h ora</w>
201 7</w>
enfer me
di a</w>
o fer
0 ,
G en
mez c
V enta</w>
u s</w>
li g
o -
c ar</w>
A B
super ior</w>
re de
Des cargar</w>
m a
b us
co ches</w>
in ici
o k
contr ol
comb usti
tr en</w>
aqu í</w>
st o</w>
h echo</w>
p en
r a</w>
1 8</w>
bier no</w>
in ar</w>
n e</w>
O b
j ug
M ic
N eg
vi sta</w>
S a
li sta</w>
c m</w>
L A</w>
car re
pequ eñ
id e
o fici
m ec
An d
p ap
pro fes
dist ancia</w>
1 3
M o
ícu los</w>
S in</w>
ed ades</w>
a tro</w>
oper ación</w>
u se</w>
int egr
l av
aut ob
D el</w>
B l
br a</w>
co cina</w>
al rede
me tro</w>
Al em
I s
neg ro</w>
b on
ex pl
bl o
ec es</w>
es e</w>
mi entras</w>
V al
an im
conex ión</w>
i t</w>
veloci dad</w>
0 00</w>
j u
lan d</w>
cambi o</w>
ent ar</w>
im pl
ami entos</w>
ari as</w>
ol ución</w>
dis eñ
Ser vi
P ue
O S</w>
parti cip
tri bu
much os</w>
a co
S HO
erc a</w>
si a</w>
u m</w>
in vestig
ac a</w>
encontr ar</w>
lar go</w>
h errami
A l</w>
progr ama</w>
ar a</w>
a x
perm ite</w>
sol ución</w>
p unto</w>
in e</w>
A S</w>
1 4
M un
mé dic
re qui
estab le
im agen</w>
ag a</w>
E m
s ido</w>
P R
z ar</w>
M i
R el
P ol
in di
pas o</w>
m ostr
U C
T I
sal ida</w>
alm acen
f recu
or o</w>
Tod os</w>
am entos</w>
s el
x ico</w>
parti r</w>
r a
sal ud</w>
pi o</w>
e ur
ve h
res ist
usu arios</w>
p un
er n
cont acto</w>
t ales</w>
on c
bl anco</w>
am as</w>
pro veed
or k</w>
estruc tura</w>
m l</w>
aj ust
merc ado</w>
est as</w>
re present
P h
mot or</w>
R u
otr a</w>
ex tre
al to</w>
es es</w>
res er
abr as</w>
R eg
má quina</w>
con ect
cu lo</w>
ed es</w>
ic e</w>
ag e</w>
8 0</w>
tér min
F i</w>
realiz ación</w>
A b
co s
w are</w>
d in
i er
cu bier
1 3</w>
ri o</w>
apl ic
fi n</w>
pi eza</w>
á tica</w>
cion ales</w>
mezc la</w>
der echos</w>
ex ist
1 7
c at
ti do</w>
et es</w>
nacion ales</w>
an za</w>
ll am
b año</w>
O tras</w>
situ ado</w>
n av
C re
organ iz
muj er</w>
H u
pu bl
i p
s h
fic ación</w>
2 1</w>
el eg
V uelos</w>
h ombres</w>
it ali
ific ación</w>
s inónimos</w>
u ales</w>
inter ior</w>
b re
en v
con tiene</w>
in cl
condi ciones</w>
Nuev o</w>
form ul
qu eda</w>
3 .
í m
simil ares</w>
ne as</w>
l eg
oc k</w>
o o
vi s
M edi
i f
con figur
t e
lin e</w>
mil l
qu é</w>
j eta</w>
áci do</w>
a condi
célu las</w>
k il
ces orios</w>
V er</w>
prot ección</w>
I I</w>
id ent
is l
fin anci
combusti ble</w>
Mé xico</w>
ace ite</w>
su l
man ual</w>
j uego</w>
d en
ativ as</w>
ac ciones</w>
ad em
ci on</w>
españ ol</w>
it y</w>
miembr os</w>
compr ende</w>
princip ales</w>
segun do</w>
Com o</w>
el los</w>
des e
ac h</w>
us a</w>
In formación</w>
b ar</w>
sigui ente</w>
Có mo</w>
T el
Con s
or as</w>
por que</w>
el im
T ri
1 ,
si tio</w>
d er</w>
inter nacional</w>
prim ir</w>
M od
mé todo</w>
medi os</w>
nuestr o</w>
proy ecto</w>
ac o</w>
esti lo</w>
A M
fun ción</w>
C l
gen o</w>
r os
simil ar</w>
ob tener</w>
di al</w>
em pre</w>
ab ri
Pre cio</w>
pro p
ab a</w>
A L</w>
con oc
com puesto</w>
m adera</w>
electr ón
Est ado</w>
lí qu
S I
pi el</w>
d orm
c os</w>
T en
econ óm
es per
activ idades</w>
sist emas</w>
es cu
anc e</w>
un g</w>
fon do</w>
cam po</w>
we b</w>
ard ín</w>
b ol</w>
f av
b or
ec er</w>
Fr ancia</w>
rec ur
U E</w>
probl emas</w>
le y</w>
A p
az ón</w>
cu al</w>
in tr
e los</w>
habit aciones</w>
us ar</w>
signi fic
F armacias</w>
art ículo</w>
or te</w>
m ús
st er</w>
pl ás
ion al</w>
ó metros</w>
ap t
es t</w>
us tri
atu ajes</w>
en f
fig ura</w>
ar án</w>
b eb
conten ido</w>
rel ación</w>
m om
sigui entes</w>
cap a</w>
vac aciones</w>
c h</w>
it os</w>
elem ento</w>
pre par
di go</w>
utiliz a</w>
archiv o</w>
i ble</w>
P or
as oci
tecn ología</w>
tot al</w>
a eropuerto</w>
and es</w>
S ol
ay uda</w>
qu es</w>
ti r</w>
trans porte</w>
ac erca</w>
acion al</w>
ci er
direc ción</w>
re t
pa qu
O fer
ustr ia</w>
acondi cionado</w>
5 00</w>
resp ecto</w>
reg ión</w>
cons ider
N o
on g</w>
pel ícu
C entro</w>
US B</w>
ar d</w>
t ex
procedi miento</w>
an z
el l</w>
E R</w>
bat ería</w>
su st
2 4
Gr an</w>
an g</w>
A T
vi aj
ser ie</w>
constr ucción</w>
ter min
ri es
mi entos</w>
il las</w>
prue ba</w>
di vers
Neg ro</w>
t on</w>
i as</w>
os os</w>
D A</w>
2 2</w>
om e</w>
cu mpl
ac k</w>
men s
di o</w>
d ec
es c
v eces</w>
in oxid
C H
t ej
com pro
ens or</w>
uc ha</w>
Alem ania</w>
pap el</w>
en l
et er
pr ó
j os</w>
no che</w>
fáci l</w>
deci r</w>
mejor ar</w>
parti cular</w>
deb ido</w>
ic amente</w>
ó p
Co che</w>
incluy en</w>
ús queda</w>
end er</w>
D o
ro id</w>
vi r
reivindic ación</w>
y e</w>
per i
kil ómetros</w>
á ticos</w>
c ámara</w>
pr ác
mod elo</w>
po st
os p
enci al</w>
Com isión</w>
re duc
dep endi
cl eta</w>
exper i
I L
et os</w>
b om
ed uc
un que</w>
ic ado</w>
utiliz ar</w>
ad io</w>
mill ones</w>
ci d
S ec
si empre</w>
flu jo</w>
b en
0 .
em p
á til</w>
In gl
activ idad</w>
mi sión</w>
pa cio</w>
end as</w>
Qu é</w>
car g
cu atro</w>
incl uso</w>
g e</w>
s p
il ia</w>
T ur
est ación</w>
gru pos</w>
ati on</w>
Ar t
t an</w>
l am
a w
có mo</w>
n ov
adi cional</w>
segun da</w>
bot ón</w>
Ti empo</w>
tel éfono</w>
ev alu
fam ili
l ar</w>
cali ente</w>
M ot
di do</w>
pre ci
so f
proporcion a</w>
con ven
alrede dor</w>
Cu ando</w>
lo go</w>
ar te</w>
á rea</w>
1 7</w>
con junto</w>
er s</w>
elem entos</w>
con centr
it ación</w>
hid r
bar ato</w>
s ent
l at
par ed</w>
u r</w>
dis tribu
fic os</w>
min io</w>
on al</w>
n ing
v arios</w>
com posición</w>
port es</w>
empres a</w>
ativ amente</w>
ac tos</w>
des cu
obje tivo</w>
C N
y o</w>
pol i
Des cripción</w>
ér ica</w>
nuev os</w>
Inter net</w>
entr ada</w>
ust ed</w>
sol ici
l es
per í
M P
indi vid
H E
ong it
empres as</w>
ex pres
Com pr
es os</w>
m em
autob ús</w>
cor por
al ter
az ul</w>
carre tera</w>
c able</w>
b as</w>
br ica</w>
cor respon
S am
continu ación</w>
er ic
t í
t in
C r
s or
ef ecto</w>
má xim
m al
estudi o</w>
ativ os</w>
gratu ita</w>
do ble</w>
J o
Y ork</w>
fin al</w>
bl emente</w>
E j
e -
re un
adem ás</w>
m ente</w>
li ber
so porte</w>
un id
gu e</w>
ac u
alg unas</w>
inter és</w>
c er</w>
m it
i endo</w>
M at
C at
li br
Wi Fi</w>
part es</w>
per mi
mom ento</w>
mod er
20 0</w>
un idades</w>
c as</w>
alg unos</w>
c aja</w>
p er</w>
C asa</w>
h ombre</w>
Mej or</w>
much o</w>
ám para</w>
tr aducción</w>
instr ucciones</w>
s ección</w>
I tal
Un ivers
mic ro
ó s
And roid</w>
U E
nav eg
t on
A z
sol u
iz ado</w>
f aci
en es</w>
pi ezas</w>
Im primir</w>
gr andes</w>
Ó N</w>
e ci
g adas</w>
v í
es pacio</w>
ol f</w>
in os</w>
A eropuerto</w>
il o</w>
defin ición</w>
M us
im a</w>
al ám
1 9</w>
bi r</w>
lo gr
ci as</w>
r adi
itali ano</w>
ser á</w>
anteri or</w>
im á
fr ut
est rel
ens a</w>
ogr af
result ado</w>
mis ma</w>
ob serv
ab ier
R E</w>
ac k
p at
tic amente</w>
person al</w>
re o</w>
endi miento</w>
S e
materi ales</w>
r an
po co</w>
en ción</w>
o f</w>
er ia</w>
201 9</w>
prot e
rec ep
añ a</w>
igu al</w>
aliz ado</w>
po pul
U S</w>
re com
aut or
al quil
bar atos</w>
en os</w>
deb en</w>
vier no</w>
e fic
f al
cre cimiento</w>
cab o</w>
ver ano</w>
adr e</w>
orm ente</w>
im pres
P C</w>
j uegos</w>
l ongit
j ardín</w>
docum ento</w>
2 5
neg oci
en as</w>
F i
I S
H ab
ti pos</w>
R ec
ur as</w>
con ver
Puer to</w>
N ombre</w>
m as
4 .
Con tr
bu ena</w>
mul ti
frecu encia</w>
fu ente</w>
pa tr
O R</w>
compon entes</w>
M á
proporcion ar</w>
pres enta</w>
iz a</w>
apoy o</w>
k a</w>
el ig
pe ti
1 -
form as</w>
der echo</w>
inoxid able</w>
propi edad</w>
re f
P a
G al
Ital ia</w>
s en
Eur opa</w>
g i
um en</w>
g estión</w>
mó vil</w>
at a
il ustr
A N</w>
cost o</w>
en t</w>
Z ap
ar ti
Gen eral</w>
b aja</w>
prin ci
st al</w>
imá genes</w>
com enz
m es</w>
est án
Re ino</w>
3 D</w>
4 0
empl e
medi das</w>
T E</w>
fu era</w>
m eses</w>
pue des</w>
vi stas</w>
nuestr os</w>
c ad
mús ica</w>
D V
recur sos</w>
pró xim
F or
on ia</w>
é l
disponi bles</w>
v ál
di jo</w>
re acción</w>
r e</w>
onc es</w>
er ación</w>
Des pués</w>
in fer
cli entes</w>
F ig
especi al</w>
po bl
ind ustri
de cor
s ur
especi almente</w>
cubier ta</w>
ific ar</w>
S inónimos</w>
l á
ab ilidad</w>
cre ar</w>
tu d</w>
Est o</w>
as eg
C D</w>
Cons ejo</w>
og ar</w>
investig ación</w>
aliz ar</w>
P u
as p
mu er
d omin
ent ales</w>
f arm
s ep
7 0</w>
alu minio</w>
B U
mod a</w>
ad apt
su fici
disponi ble</w>
us ando</w>
P is
a cia</w>
b arr
realiz ar</w>
reg istr
lim it
en e</w>
priv ado</w>
an álisis</w>
SU PP
ent arios</w>
tod a</w>
com par
human os</w>
se par
caracter ísticas</w>
F ot
no vi
re ferencia</w>
líqu ido</w>
M ad
aj as</w>
pl ant
tar jeta</w>
cas os</w>
T A</w>
perí odo</w>
ser vid
ec tiv
Eur ope
des cri
sem ana</w>
ex ten
ed or</w>
puest as</w>
é u
Produc tos</w>
di á
fi cio</w>
almacen amiento</w>
ri ente</w>
Ci udad</w>
mo dific
g ast
a il
dur ación</w>
pl aya</w>
Hon da</w>
fun d
per me
di ci
as es</w>
ad ura</w>
k e</w>
a i</w>
só l
gar anti
ru p
gran de</w>
ub icación</w>
reg ul
9 0</w>
DE AL
am in
ar o</w>
o j</w>
R estaur
fl ex
uc le
a u</w>
at orio</w>
c af
L o
a udi
resist encia</w>
ocu p
cu ero</w>
much as</w>
situ ación</w>
H e
mod elos</w>
e z</w>
ej os</w>
car bon
proveed ores</w>
compl et
t atuajes</w>
d ol
u do</w>
ect ores</w>
veh ículo</w>
b an
v uelos</w>
H ay</w>
ambi ente</w>
P en
cel ebr
direc tamente</w>
bi a</w>
B lan
A hora</w>
i bu
cal or</w>
señ al</w>
ti embre</w>
ir a</w>
p int
ej a</w>
apl icaciones</w>
G e
H er
vu el
cambi ar</w>
on as</w>
anci as</w>
eti qu
S ch
neces ario</w>
cam a</w>
P e
fr anc
secu encia</w>
estab l
con fi
ofer ta</w>
equi p
N aciones</w>
P an
experi encia</w>
í l
enferme dad</w>
inform e</w>
re m
3 2</w>
ig h
o port
CO N
s ex
F u
r ot
may oría</w>
propi edades</w>
6 0
Pr ot
compl eto</w>
tr o
vi ol
De fin
person a</w>
m us
r .</w>
ab l
dorm it
pa ti
cu ar
ord en
pi e</w>
Un ido</w>
dic e</w>
gr e</w>
ig os</w>
Muj er</w>
A -
nuev as</w>
si to</w>
om as</w>
og ados</w>
lu jo</w>
C ap
fun ciones</w>
tem por
ef acción</w>
met al</w>
201 6</w>
cli c</w>
w w
plás tico</w>
st en
Un idas</w>
ec a</w>
lu g
P ant
ti fic
tr a</w>
pul gadas</w>
3 5</w>
exter ior</w>
últi mos</w>
2 ,
ind ustria</w>
natur al</w>
comun icación</w>
S anta</w>
abr a</w>
de j
w s</w>
E L</w>
el as</w>
f ut
mec an
s ung</w>
tur as</w>
tu bre</w>
8 0
incluy endo</w>
P ero</w>
des cargar</w>
res puesta</w>
gu ía</w>
i blemente</w>
fuer on</w>
medi da</w>
ro pa</w>
mem oria</w>
ad op
con o</w>
di bu
niv eles</w>
b ás
r endimiento</w>
paci entes</w>
fam ilia</w>
fi ere</w>
compl eta</w>
contr ibu
2 8</w>
faci l
disposi tivos</w>
v oc
I D</w>
el ev
cualqui era</w>
direc ciones</w>
R O
re as</w>
in alám
al les</w>
ac ep
g n
ries go</w>
fi l</w>
di da</w>
fuer te</w>
D ur
t ware</w>
N uestr
b úsqueda</w>
com puestos</w>
J u
V ol
ac es</w>
H ol
L O
pres id
o z</w>
consu l
a er
uc es</w>
2 6</w>
5 .
oj es</w>
o la</w>
in stitu
al o</w>
v it
ej ec
b os</w>
Es peci
ac tivo</w>
é tica</w>
prot eg
im p
compr ar</w>
r om
in y
T he</w>
re ducir</w>
orig inal</w>
tr áfico</w>
al go</w>
t ación</w>
B at
O n
o y</w>
G ar
at ención</w>
Pal abras</w>
B as
tr an
es iv
lug ares</w>
comb in
ar ía</w>
p ens
puer ta</w>
ec ta</w>
Defin ición</w>
od ón</w>
A ire</w>
Inter nacional</w>
lu m
el i
di cho</w>
n as</w>
pre vi
fr ente</w>
pelícu la</w>
W in
i l</w>
des pl
cin co</w>
emp los</w>
Ingl és</w>
ob ten
ant ónimos</w>
a pr
as t</w>
P S</w>
U b
ref rig
tu bo</w>
m agn
vid rio</w>
en vi
g e
qu it
so cial</w>
am ar
P as
utiliz ado</w>
A U
T or
AP K</w>
Al oj
estrel las</w>
ay o</w>
alter n
infer ior</w>
M il
T em
vari as</w>
al e
segu ir</w>
qu ím
re co
vin cia</w>
din ero</w>
cas i</w>
N av
hu és
G re
om ía</w>
port átil</w>
de o</w>
adi cionales</w>
vent ana</w>
á brica</w>
Tr ad
i c</w>
al em
re al</w>
fuer z
N acional</w>
in es</w>
T h
mar ca</w>
Sam sung</w>
or no</w>
pod er</w>
eléctr ico</w>
Al ta</w>
cost os</w>
fabric antes</w>
2 3</w>
et apa</w>
2 -
int elig
S E
car a</w>
mar co</w>
qu er
man os</w>
ro jo</w>
M al
C ha
fot os</w>
bi ci
públ ico</w>
consu mo</w>
restaur antes</w>
et c</w>
extre mo</w>
vi vi
medi a</w>
per f
J uegos</w>
g ente</w>
dig ital</w>
M AN
paqu ete</w>
til es</w>
in ten
mil las</w>
ab ajo</w>
mov imiento</w>
Go bierno</w>
di rig
ul ares</w>
constr u
M E
br as</w>
ej e</w>
El ec
al can
O p
fir m
o bl
Gu ía</w>
C ambi
técn ica</w>
probl ema</w>
CI ÓN</w>
W e
pis cina</w>
b e
P M
s ino</w>
C E
c án
ef ectos</w>
B us
d ores</w>
or al</w>
centr al</w>
lleg ada</w>
M apa</w>
an t</w>
L on
Cam is
san gre</w>
w n</w>
estudi antes</w>
R i
están dar</w>
min istro</w>
podr ía</w>
est aciones</w>
H D</w>
simpl emente</w>
progr amas</w>
hist oria</w>
Pro gr
Servi cios</w>
20 20</w>
M e
v as</w>
ex cel
Al g
vil es</w>
administr ación</w>
ion ales</w>
un ivers
dici embre</w>
ap as</w>
col ores</w>
pequ eño</w>
cl ave</w>
Puer tas</w>
gu ard
úbl ica</w>
ícu las</w>
fr on
alim entación</w>
G l
er se</w>
r en
4 5</w>
é tico</w>
R ep
estable ci
f e</w>
op in
qu e
R A
reivindic aciones</w>
t an
er io</w>
es s</w>
z ado</w>
fr ica</w>
d ado</w>
qui er
av es</w>
pro b
gr ado</w>
ic h
per man
herrami enta</w>
ot e</w>
sep tiembre</w>
En tr
proy ectos</w>
Est udi
Des cu
actu al</w>
pl aca</w>
polí tica</w>
h oj
gl ob
s es
gu a</w>
i ores</w>
201 5</w>
un ta</w>
n ia</w>
C ab
vu la</w>
hab ía</w>
s ector</w>
it é</w>
Mon t
ul io</w>
i m</w>
cambi os</w>
re mot
pot encia</w>
d or
Tr ans
términ os</w>
hor arios</w>
ayud ar</w>
st ock</w>
D er
obj eto</w>
p ag
jun io</w>
C ali
S O
cu id
i di
n i</w>
S ist
é l</w>
miembr o</w>
ál culo</w>
merc ados</w>
T O</w>
B er
di entes</w>
pol vo</w>
go bierno</w>
el las</w>
ut as</w>
enci ales</w>
2 7</w>
est er
di f
aseg ur
posi ciones</w>
Ru sia</w>
oper aciones</w>
n u
perme able</w>
loc al</w>
cor rec
R I
relacion ados</w>
oc tubre</w>
pobl ación</w>
in t</w>
ograf ía</w>
af ect
adecu ado</w>
re cor
qu í</w>
tu gu
s ín
s k
D el
P reg
recom end
mé todos</w>
dic o</w>
reg istro</w>
b il
est ad
pres encia</w>
aum ento</w>
p edes</w>
terr aza</w>
or e</w>
A part
anteri ormente</w>
Ti endas</w>
ar lo</w>
Gr u
c ed
ne o</w>
novi embre</w>
ver de</w>
Ac cesorios</w>
c err
de f
Pue de</w>
vi su
pun tos</w>
B al
compañ ía</w>
h ogar</w>
l ámpara</w>
hués pedes</w>
M A
F in
m ín
intr od
enl ace</w>
ant ía</w>
franc és</w>
Ti po</w>
ag ente</w>
in vierno</w>
neces idad</w>
ó x
g al
it es</w>
sof tware</w>
con stitu
inter nacionales</w>
T ER
C osas</w>
fuer za</w>
ben efici
e x</w>
ef ec
J ap
formul ario</w>
ter ap
E qui
i os</w>
min ación</w>
val ores</w>
habit ación</w>
am igos</w>
PP IN
recu per
Univers idad</w>
fabric ante</w>
ís tica</w>
de por
c e</w>
em i
ac cion
as h
in dependi
servid or</w>
Muj eres</w>
b ill
S on
S u</w>
p os
eléctr ica</w>
ós tico</w>
men udo</w>
ent onces</w>
mis o</w>
2 6
Fig ura</w>
prefer iblemente</w>
f ábrica</w>
M O
em pe
m ut
có digo</w>
su s
c .</w>
4 8</w>
3 1</w>
f ís
l uego</w>
el le
fi j
ac t
hid ro
n ucle
il u
un ci
herrami entas</w>
utiliz ando</w>
un i
últi pl
s at
si tos</w>
eur ope
e y</w>
ot h</w>
educ ación</w>
o di
longit ud</w>
í ci
com parti
D S
iz ar</w>
enferme dades</w>
tex to</w>
RE C
ect ura</w>
pr on
Servi cio</w>
A g
mens aje</w>
ne um
al eza</w>
Aloj amiento</w>
f ase</w>
t s</w>
ti on</w>
f armacias</w>
O tros</w>
b ido</w>
D et
Mus eo</w>
E C
D C</w>
err o</w>
im presión</w>
Seg ún</w>
il los</w>
s om
Su per
lí neas</w>
V illa</w>
ch i
comer ci
oj o</w>
pas ado</w>
m uev
Az ul</w>
C entr
an j
archiv os</w>
b aj
K Y
d an</w>
in mun
m an</w>
di l
m g</w>
pl anta</w>
Col or</w>
mu la</w>
S AL
mó du
comun idad</w>
so sten
con st
a isl
at as</w>
al ia</w>
ec ciones</w>
Rep ública</w>
op ción</w>
pue b
cor te</w>
si gue</w>
p elo</w>
ec o</w>
por t</w>
Pr im
ráp ido</w>
profes ional</w>
ú til</w>
trans misión</w>
P AR
comb inación</w>
C aja</w>
o cio</w>
L in
dis frut
ofer tas</w>
fi bra</w>
médic o</w>
é p
pul s
Par k</w>
loc ales</w>
carbon o</w>
ag o
lar ga</w>
mar zo</w>
ad oras</w>
Ub icación</w>
su j
F il
am eric
T ar
pre g
op ciones</w>
og le</w>
alim entos</w>
f echa</w>
p e</w>
Des de</w>
com paración</w>
am bl
Res ult
eter in
ti cias</w>
O N</w>
der iv
í na</w>
p ur
i de</w>
pal abra</w>
a sist
cal ent
paci ente</w>
ent reg
comer cial</w>
án ica</w>
An álisis</w>
O c
or ías</w>
vi a</w>
im o</w>
g en</w>
h ol
ati s
s í</w>
fil tro</w>
J uego</w>
ún ico</w>
fu sión</w>
d ens
p s</w>
parti cul
neces idades</w>
S P
vil le</w>
pan el</w>
E N</w>
cad ena</w>
T err
neces it
cerc anas</w>
re fiere</w>
v ot
fav or
A t
exper im
O fici
ri d</w>
tr on
3 00</w>
sel ección</w>
a ún</w>
si endo</w>
com pati
b y</w>
em ent
p h
p ér
g el
A ir
tej ido</w>
a partamento</w>
Ab ogados</w>
br ico</w>
ú a</w>
pro mo
conoci miento</w>
dec lar
im i
cont actos</w>
bu en</w>
Go ogle</w>
O rig
ag reg
naveg ador</w>
men or</w>
in s
restaur ante</w>
al las</w>
cos as</w>
funcion amiento</w>
gar antía</w>
I r
al e</w>
negoci os</w>
me dic
manten er</w>
u to</w>
post eri
cl ase</w>
H ome</w>
til las</w>
compr a</w>
p ing</w>
electrón ico</w>
B en
tu s</w>
h osp
vol umen</w>
tor io</w>
por tugu
M I
F un
v an</w>
m últipl
alg odón</w>
g ir
activ os</w>
r ue
import antes</w>
L CD</w>
in fr
Be ach</w>
M as
a part
Am érica</w>
inter es
cor azón</w>
on line</w>
proces os</w>
in fl
C A
Tel éfono</w>
P resid
com ún</w>
Blan co</w>
ac el
gen i
ej emplos</w>
presid ente</w>
com i
l uces</w>
instal ación</w>
cab eza</w>
pres u
le o</w>
l abor
e os</w>
T ec
organiz aciones</w>
C ity</w>
a unque</w>
3 -
j ulio</w>
arm ente</w>
cr ito</w>
L í
instr um
pro fun
u ci
s ala</w>
2 8
ú r
st e
Result ados</w>
gt on</w>
conoci do</w>
do se</w>
P ort
cor riente</w>
ti s</w>
U R
duc ha</w>
d oc
tu lo</w>
ám ica</w>
re duci
términ o</w>
unid s</w>
Seg ur
ha m</w>
á reas</w>
M or
A pl
B año</w>
últi ma</w>
conoc er</w>
ue to
C O</w>
her m
T ab
mez cl
Com ité</w>
in corpor
Direc ción</w>
ber g</w>
configur ación</w>
at es</w>
S T
os otros</w>
od a</w>
pequeñ a</w>
P U</w>
T am
col oc
ueto oth</w>
il e</w>
0 1</w>
pi os</w>
án ico</w>
c ent
Zap atos</w>
ó geno</w>
z onas</w>
us es</w>
k ing</w>
S ud
er ías</w>
f res
am ina</w>
an ca</w>
ampl i
as h</w>
Mad rid</w>
ñ a</w>
201 4</w>
ec en</w>
estable cimiento</w>
ca us
B ur
aloj amientos</w>
L o</w>
et c.</w>
elle za</w>
con cep
F I
ñ os</w>
pro duci
iz o</w>
res olución</w>
compon ente</w>
ex clu
Des arrol
a o</w>
t ado</w>
cli ente</w>
anim ales</w>
Mun dial</w>
ver si
Dis eño</w>
T e
d i</w>
C A</w>
ón ico</w>
apar ato</w>
o k</w>
gr áfico</w>
F on
or l
b anda</w>
l mente</w>
en ero</w>
DEAL S</w>
Ofer tas</w>
L UC
vál vula</w>
L e</w>
D A
s ensor</w>
car r
esp aci
Trad ucciones</w>
Art ículo</w>
art ículos</w>
Est os</w>
ten dr
ebr ero</w>
á b
mi gr
az as</w>
car t
is mos</w>
es ia</w>
fabr icación</w>
dis min
con form
n er
may o</w>
ti dos</w>
ó sito</w>
pl ata
vi ajes</w>
ráp ida</w>
Q U
pl ana</w>
f ór
av era</w>
Contr ol</w>
estr ateg
equi pos</w>
lim pieza</w>
ev itar</w>
Win do
el d</w>
guard ar</w>
tel e
Ti enda</w>
av eri
3 5
T H
ot as</w>
y l
DI REC
estab a</w>
gu ar</w>
g ama</w>
o co
co lum
añ ad
dr es</w>
m er
cán cer</w>
dis ol
V esti
P C
alim ent
un ca</w>
hab er</w>
refrig er
obl ig
Tem peratura</w>
err e</w>
fáci lmente</w>
a h</w>
or g</w>
bici cleta</w>
dist in
h í
7 0
L ista</w>
evalu ación</w>
natur aleza</w>
C ámara</w>
ac éu
env ío</w>
aum ent
t y</w>
er ales</w>
Ne w</w>
ón ica</w>
es is</w>
LUC KY
bol sa</w>
ab sor
s as</w>
T ex
soci ales</w>
ti m
o que</w>
cion almente</w>
Sa int
LUCKY DEALS</w>
v ía</w>
mun dial</w>
in nov
M A</w>
3 6</w>
pon e</w>
Jap ón</w>
niñ o</w>
g én
C lu
in gr
S oci
oc k
cur so</w>
estudi os</w>
en se</w>
com ida</w>
Ofer ta</w>
ac cesorios</w>
cir cu
p ar</w>
e e</w>
d om
si li
200 9</w>
H errami
Ho y</w>
ak e</w>
can al</w>
Gru po</w>
Lu z</w>
Bar cel
ru s</w>
Mej ores</w>
a de</w>
m esa</w>
par á
Sist ema</w>
S k
g er</w>
bom ba</w>
án gu
compro miso</w>
determin ar</w>
t ác
V en
il l</w>
Windo ws</w>
tom ar</w>
averi guar</w>
A W
g -
ir se</w>
Lon dres</w>
organ ización</w>
St re
cre e</w>
inclu ir</w>
cu ales</w>
manten imiento</w>
es crit
Segur idad</w>
N orte</w>
fav or</w>
di ente</w>
t h
pr i
10 0
4 -
realiz a</w>
H ar
a in</w>
di men
cl asi
R F
uc k
i on</w>
ag entes</w>
Ph one</w>
C er
on da</w>
t i</w>
F re
polí ticas</w>
aco pl
ici dad</w>
R opa</w>
si on</w>
G B</w>
C álculo</w>
últi mo</w>
H ombres</w>
Or gan
col or
6 .
cu adr
ampl ia</w>
ex port
g as
r adio</w>
ori al</w>
PM Y</w>
áci dos</w>
w it
SHO PMY</w>
in ado</w>
vi amente</w>
aum entar</w>
farm acéu
DE L</w>
2 9</w>
fil tr
procedi mientos</w>
vi v
remot o</w>
20 00</w>
n er</w>
it ales</w>
7 .
M et
ac r
bur g</w>
man ga</w>
mar c
5 -
solu ciones</w>
su ministro</w>
cor t
eg o</w>
f en
LA R</w>
Bl uetooth</w>
vari edad</w>
f az</w>
i al</w>
P ul
caf é</w>
ch ino</w>
N or
om o</w>
es as</w>
ven es</w>
uch o</w>
y n
p il
u e</w>
ic h</w>
st ed</w>
á logo</w>
Man ual</w>
soci edad</w>
abri l</w>
Sal ud</w>
er á</w>
Fl or
respon sab
portugu és</w>
mat eria</w>
. org</w>
ri s</w>
bu eno</w>
ue bles</w>
un ión</w>
ent í
gr ab
F ed
C a
l en
autom ó
ciud ad
do sis</w>
fot o</w>
pro ducir</w>
L im
3 ,
P res
desarrol l
E ti
T H</w>
Su r</w>
Barcel ona</w>
Cu ero</w>
al l</w>
201 0</w>
Jo h
er ci
n osotros</w>
ó venes</w>
í r
Br asi
R S</w>
t bol</w>
é g
201 3</w>
n ada</w>
excel ente</w>
tr ato</w>
Co sta</w>
complet amente</w>
di cha</w>
s int
men t</w>
t he</w>
g an</w>
av ía</w>
P ro</w>
sem anas</w>
ten d
of t</w>
im permeable</w>
cu ello</w>
s uc
su ministr
sol d
Europe a</w>
oo d</w>
F orm
C alidad</w>
eg a</w>
us ados</w>
v ic
min i</w>
ol ina</w>
autom ático</w>
ic k</w>
actu aliz
qu ed
iz quier
o u
polí mero</w>
ad h
Un ión</w>
s ch
Má quina</w>
sab er</w>
7 5</w>
máxim o</w>
am bre</w>
pal abras</w>
6 5</w>
fut uro</w>
n um
per fil</w>
3 4</w>
in e
con sist
ex presión</w>
ter as</w>
fer encias</w>
si ción</w>
and és</w>
f ebrero</w>
s atis
reduc ción</w>
ev e</w>
in ales</w>
óx ido</w>
ú tbol</w>
in ser
col ección</w>
Con t
pl e</w>
As í</w>
se is</w>
hist ór
Mat eri
pue da</w>
a hor
vi g
dest ac
si on
alem án</w>
dif íci
O f
UN I
m ento</w>
an ual</w>
apro b
re fl
E di
in icio</w>
e tr
E r
A y
201 2</w>
M erc
m ol</w>
autom ática</w>
S r.</w>
pol ic
m eros</w>
Estudi os</w>
Nav idad</w>
gr af
sufici ente</w>
d ól
hab il
prim eros</w>
l amento</w>
posi bilidad</w>
o m</w>
P lan
ed r
vu elo</w>
co operación</w>
pl an</w>
em en
s al</w>
especi fic
hu mano</w>
co dific
ten sión</w>
Dur ante</w>
ad ero</w>
p ia</w>
gener ación</w>
distribu ción</w>
J er
r ido</w>
ay uno</w>
cul tur
am o</w>
A br
I P
A ustr
s -
A partamento</w>
LI ER</w>
sol ar</w>
qu ía</w>
W HO
U sted</w>
norm as</w>
di r</w>
tab la</w>
pon er</w>
det alles</w>
anti gu
plant as</w>
3 3</w>
su stitu
j as</w>
in medi
N ort
vesti do</w>
s .com</w>
P ap
gr acias</w>
g el</w>
es qu
En v
cu los</w>
Fr an
SUPP LIER</w>
A I
ad el
asi gn
CN SUPPLIER</w>
pa z</w>
ad ro</w>
g ado</w>
j óvenes</w>
Saint -
des ea</w>
h aci
beb é</w>
prác tica</w>
al co
llev ar</w>
G ol
Min i</w>
part ículas</w>
Qu i
in st
comp et
Compr ar</w>
múltipl es</w>
inalám brico</w>
ac ces
requi ere</w>
In dia</w>
simpl e</w>
j oy
jun tos</w>
enc e</w>
pér dida</w>
decor ación</w>
é x
B an
di ó</w>
H a
ún ica</w>
apro pi
dis co</w>
pl ata</w>
abl emente</w>
an illo</w>
9 5</w>
trans par
4 00</w>
SHO P</w>
b en</w>
ofici na</w>
P el
pro vincia</w>
direc to</w>
é st
De portes</w>
ad ul
P E
princip almente</w>
concentr ación</w>
Clu b</w>
módu lo</w>
t asa</w>
bus c
iz ador</w>
al ones</w>
19 8
tr ic
fr ag
si r
cl or
ab an</w>
id amente</w>
comun es</w>
S M
C -
A bier
for nia</w>
diá metro</w>
tiv as</w>
realiz aciones</w>
reg alo</w>
5 5</w>
tr a
er an</w>
b un
W il
on io</w>
flu ido</w>
in o
WHO LE
WHOLE SAL
des cripción</w>
u almente</w>
or ación</w>
cam is
activ a</w>
in hi
form ar</w>
reser v
Can ad
aliz ador</w>
L at
cul tura</w>
man i
ici pio</w>
id ores</w>
det ect
Di os</w>
as es
vac ío</w>
gener almente</w>
r od
gratu ito</w>
ángu lo</w>
C D
inter na</w>
m ica</w>
difer ente</w>
M B
difer encia</w>
pre ocup
señ ales</w>
fór mula</w>
ur al</w>
aproxim ada</w>
P O
di agn
m ent
ot o</w>
V ir
ax y</w>
g ent
col abor
ning una</w>
industri al</w>
ter c
m ite</w>
Canad á</w>
9 0
c av
h aga</w>
él ite</w>
ev olución</w>
se t</w>
re empl
b elleza</w>
di ch
er en</w>
garanti zar</w>
mej ora</w>
B ro
i Phone</w>
ex cep
instal aciones</w>
H D
am e</w>
Cali fornia</w>
so la</w>
ago sto</w>
G AN
docum entos</w>
asist encia</w>
oc ur
sól ido</w>
eri os</w>
k g</w>
un es</w>
cre ación</w>
especí ficos</w>
as c
fr ic
rup tor</w>
PR IC
R ico</w>
anteri ores</w>
ti os</w>
a c</w>
ca la</w>
M os
Ac tiv
B el
v ul
trans ferencia</w>
HO TE
9 9</w>
un tas</w>
intelig ente</w>
Ge org
B re
p ago</w>
200 8</w>
i br
ig n
cl ás
elim inar</w>
neces ita</w>
C ri
ci entí
Com pre</w>
h om
seleccion ar</w>
m or
Ch ar
ocu pa</w>
D u
ro dil
Presid ente</w>
on das</w>
proveed or</w>
olog ías</w>
ex pan
ilu minación</w>
fac tores</w>
í geno</w>
Eti qu
técn icas</w>
Brasi l</w>
k i</w>
C E</w>
en -
Desarrol lo</w>
til la</w>
ci c
mov er</w>
le t</w>
cu esti
rel oj</w>
ti ó</w>
llev a</w>
ide al</w>
segur o</w>
P I
descri be</w>
vi rus</w>
abr e</w>
cam ino</w>
u p</w>
especí fic
201 1</w>
A unque</w>
L t
D ig
pre paración</w>
C ada</w>
Austr alia</w>
4 2</w>
On line</w>
In n</w>
M e</w>
est u
edi ficio</w>
sec und
tr ay
posi tivo</w>
ac tor</w>
m ir
ti lo</w>
ur b
z ap
H ombre</w>
pl ac
so l</w>
sen si
9 .
n unca</w>
especi ales</w>
puer tos</w>
veloci dades</w>
añ adi
muestr an</w>
TO RE</w>
despl az
for d</w>
Q ue
et s</w>
par ece</w>
cas as</w>
t ema</w>
confi anza</w>
cri stal</w>
cu ch
es cri
anc os</w>
ar quit
e qu
orig en</w>
v ap
l ic
dormit orio</w>
empl eo</w>
prote ína</w>
e til
Col om
cal le</w>
inc rem
íl ico</w>
em erg
ay os</w>
inter faz</w>
Env ío</w>
av anz
signi fica</w>
b ab
s ens
A G
o h
r uso</w>
e as</w>
S -
profes ionales</w>
particip ación</w>
es -
tod avía</w>
p s
j ur
co sa</w>
P unto</w>
in ver
bl i
r at
B M
3 8</w>
inter val
v ector</w>
C oci
bur go</w>
plata forma</w>
reun ión</w>
éx ito</w>
Gal axy</w>
Par cial</w>
Res er
h ig
i ente</w>
c ón</w>
encontr ará</w>
t el</w>
Pro veed
P D
ut h</w>
so bre
es cal
det ección</w>
Restaur antes</w>
iz ada</w>
por ción</w>
ti erra</w>
cal efacción</w>
ví deo</w>
L ist
tien da</w>
L av
proces amiento</w>
ori as</w>
requi sitos</w>
2 7
j ust
or den</w>
ech e</w>
i gr
re ch
n es</w>
ol í
m ac
ue ño</w>
mín imo</w>
T end
re presenta</w>
com entarios</w>
B I
m adre</w>
1 50</w>
AD OR</w>
in gton</w>
c amiento</w>
direc ta</w>
V ent
ning ún</w>
pro voc
audi o</w>
ar ri
cr im
ay as</w>
v as
haci endo</w>
veh ículos</w>
import ancia</w>
establ ecer</w>
men cion
cap as</w>
ológ ico</w>
ist erio</w>
ub icaciones</w>
Ofici na</w>
det all
presu puesto</w>
T atu
princi pios</w>
extr anj
ateg orías</w>
mis mos</w>
Ch i
C ur
it as</w>
gu erra</w>
natur ales</w>
P lu
A R</w>
n aci
fund am
r ol
S eñ
it u
eleg ir</w>
pequeñ os</w>
trat a</w>
del ant
L Y</w>
f a</w>
a k</w>
e w</w>
J os
r os</w>
añ era</w>
pi ente</w>
Par ís</w>
ex am
C R
ajust e</w>
popul ar</w>
tom a</w>
viaj eros</w>
in flu
200 7</w>
V ic
progr am
reser va</w>
od os</w>
Pr in
fici os</w>
neg ocio</w>
al c
N E
gast e</w>
dol or</w>
descu ento</w>
Par que</w>
su el
princi pio</w>
secu encias</w>
sent ido</w>
D r
P L
e quil
divers os</w>
o t</w>
I P</w>
w er</w>
al tura</w>
últi mas</w>
TE R</w>
imp acto</w>
h el
ur e</w>
in i</w>
tu al</w>
escu ela</w>
s w
popul ares</w>
ic al</w>
tri z</w>
prim ero</w>
ambl ea</w>
comer cio</w>
3 8
4 8
A C</w>
v eterin
T a
P V
D O</w>
asp ecto</w>
tab l
R os
oci cleta</w>
su elo</w>
determin ado</w>
L ov
bi ó</w>
tic al</w>
En cu
vent il
arm a</w>
T S</w>
autor idades</w>
cont ex
Gr an
f alta</w>
U s
f f
inglés- italiano</w>
fl ic
r á</w>
oport unidad</w>
mon it
iny ección</w>
encuentr an</w>
can ales</w>
H z</w>
lá ser</w>
enf ri
ob st
Abier tas</w>
Bu en</w>
obje tivos</w>
Ob viamente</w>
Est as</w>
promo ción</w>
L a
sat élite</w>
ul ación</w>
ab er
ejec ut
AB S</w>
bi en
Produc to</w>
cl ín
re ten
co re
ológ icos</w>
t ad</w>
dem ostr
publ ic
Ad ministr
trabaj adores</w>
an s</w>
m entos</w>
nu tri
cerc ano</w>
cel ular</w>
ológ ica</w>
mont aje</w>
é di
Com par
perm it
h al
am en
id or</w>
S í</w>
re vesti
Tatu adores</w>
Progr ama</w>
h emos</w>
comun icaciones</w>
d w
sig lo</w>
econ omía</w>
form e</w>
pen sión</w>
hi erro</w>
visi t
comenz ar</w>
L E</w>
ti ma</w>
adr es</w>
g er
opin iones</w>
PAR A</w>
ord in
u o</w>
200 5</w>
mostr ar</w>
pequeñ as</w>
cuer pos</w>
cr u
ed ra</w>
el abor
colum na</w>
H y
S D</w>
V ector</w>
particul armente</w>
trans mi
z ación</w>
es enciales</w>
mecan ismo</w>
Pl aya</w>
H am
K ar
bus car</w>
C af
acep t
for tal
norm al</w>
Rel ojes</w>
dor f</w>
institu ciones</w>
v ente</w>
Ac ero</w>
In d
W h
ident ific
w .
unt ar</w>
n am
C ru
ot o
máxim a</w>
g ol
j etas</w>
Coci na</w>
ent orno</w>
deci sión</w>
deb ajo</w>
u os</w>
en fr
or nos</w>
mar cas</w>
end er
logr ar</w>
sal ón</w>
efic az</w>
pol im
re des</w>
hoj a</w>
trabaj ar</w>
F ac
it s</w>
pro medio</w>
form ato</w>
aj eros</w>
me dad</w>
ex ac
qu eo</w>
Co .</w>
J e
pes ar</w>
muer te</w>
h on
G ro
a fi
exper tos</w>
ens ayo</w>
aci Ã</w>
medi as</w>
atur as</w>
con serv
cap ital</w>
ar ro
re tir
le y
agu as</w>
S eri
tác til</w>
cab ello</w>
H i
cor reo</w>
económ ico</w>
á p
glob al</w>
i bilidad</w>
agu e</w>
relacion adas</w>
des gaste</w>
fuerz os</w>
Mic ros
HOTE L
reci bir</w>
i es</w>
12 0</w>
Ho use</w>
ult ura</w>
dispon e</w>
L O</w>
com edor</w>
aliz ada</w>
Per son
orden ador</w>
R ojo</w>
tu b
bor de</w>
Herrami entas</w>
k er</w>
produc e</w>
200 6</w>
h t
priv ada</w>
pl as
ap k</w>
E t
ej erci
HE AL
indic a</w>
rel aciones</w>
S il
Ar m
L ar
B ot
ue tes</w>
entreg a</w>
m ico</w>
ig les
m uebles</w>
i ó</w>
su r</w>
pel igr
obj etos</w>
de dic
autob uses</w>
Á frica</w>
Tur quía</w>
cor re
6 00</w>
utiliz an</w>
dól ares</w>
m embr
int age</w>
M ul
T -
ci erre</w>
cr í
ic ante</w>
utiliz ación</w>
tom as</w>
per ten
C U
P N
S A</w>
AU TO
1 1
3 7</w>
HEAL TH</w>
pueb lo</w>
r az
con cre
in v
o unid
Có digo</w>
con tienen</w>
g olf</w>
An tes</w>
4 5
extr a
Con sul
C amp
asi o</w>
al idades</w>
aci dad</w>
br imiento</w>
O s
án dose</w>
moder no</w>
se y</w>
Tri p
señ al
e cimiento</w>
aut o
sil lo</w>
b ast
deb ería</w>
de portes</w>
reg iones</w>
recep tor</w>
ab le
TR UE
técn ico</w>
pas os</w>
An ti
ectiv amente</w>
Aut om
TRUE HEALTH</w>
a in
compr en
it aria</w>
Materi al</w>
Rel oj</w>
ub icado</w>
ur g
R en
ej as</w>
muestr as</w>
as tr
OR GAN
l ab
terr it
públ ica</w>
circu ito</w>
Colom bia</w>
O l
Centr al</w>
aliz ados</w>
ven ir</w>
Pre mi
prue bas</w>
ww w.
preci sión</w>
M I</w>
nuestr as</w>
I má
B O
car b
si tios</w>
cor rea</w>
BU Y</w>
Imá genes</w>
com peti
ten emos</w>
IC S
ai l</w>
R utas</w>
es fuerzos</w>
cuid ado</w>
re don
h i</w>
ti t
su ave</w>
añ ana</w>
control ador</w>
List ado</w>
t esis</w>
d l
e ar</w>
des ayuno</w>
adi ción</w>
í os</w>
an cho</w>
ón de</w>
estruc tur
añ as</w>
es pu
oo k</w>
in versión</w>
qu inas</w>
N ov
ofrec en</w>
B eb
De partamento</w>
qui ere</w>
b acter
SUPP LY</w>
w ay</w>
sust anci
DIREC T
tr op
hac en</w>
4 4</w>
F abr
ue la</w>
es ión</w>
estab ilidad</w>
R em
loc alidad</w>
F am
a compañ
3 6
arr a</w>
con clu
RE M</w>
B om
individ uales</w>
con flic
DIRECT SUPPLY</w>
re í
Ju an</w>
ati onal</w>
1 10</w>
t av
h aya</w>
al ista</w>
pl ano</w>
HOTEL .com</w>
A- HOTEL.com</w>
des carga</w>
re quer
E duc
M ar</w>
br ill
e ado</w>
tiv idad</w>
e k</w>
ac et
p d
it ed</w>
Aut or</w>
sal v
parti do</w>
si m
Aut ob
cul ación</w>
leg isl
difíci l</w>
ju gar</w>
PR O
Min isterio</w>
qu ir
efici encia</w>
ORGAN ICS
ORGANICS SHOP</w>
ov en</w>
s ac
Cambi ar</w>
g in
compl ejo</w>
Descu ento</w>
- S
á ticamente</w>
us ado</w>
as as</w>
divers as</w>
agr ad
un tos</w>
at oria</w>
es cala</w>
y en</w>
enf oque</w>
M uch
apart amentos</w>
asp ectos</w>
vis or</w>
Li bre</w>
P at
Q UE</w>
M ari
os cur
pint ura</w>
H or
Hon g</w>
ic k
des c
men ú</w>
ech as</w>
ir á</w>
sab e</w>
CO R
comerci ales</w>
et ado</w>
cier to</w>
bill etes</w>
medi ción</w>
lan z
de -
TO REM</w>
AW TOREM</w>
I A</w>
ár bol</w>
We b</w>
h izo</w>
S y
rel ojes</w>
é ster</w>
cap az</w>
fu entes</w>
en zo</w>
As amblea</w>
com posiciones</w>
produc tor</w>
am or</w>
cl ar
di vi
P E</w>
ti dor</w>
ráp idamente</w>
ac ab
Tod as</w>
CI ON
am bos</w>
imi entos</w>
impl em
prim avera</w>
arm as</w>
tr ast
lim pi
Cal efacción</w>
re gr
I Z
dormit orios</w>
independi ente</w>
eñ a</w>
geni ería</w>
C ir
2 9
vent as</w>
usti cia</w>
disfrut ar</w>
tu m
fl ores</w>
K ong</w>
Tam año</w>
T HE
dismin u
A h</w>
R ob
R om
trat ar</w>
Es cu
cl aro</w>
ín as</w>
tempor ada</w>
proteg er</w>
fuer zo</w>
centr os</w>
au to</w>
diseñ ado</w>
ciudad anos</w>
et era</w>
J oy
adecu ada</w>
an i
izquier da</w>
par que</w>
alrede dores</w>
Ar gent
J ug
w ood</w>
D ucha</w>
In str
ci dad</w>
t é</w>
2 50</w>
pr ol
o col
blo que</w>
us os</w>
k it</w>
n ombres</w>
ced er</w>
men es</w>
ER S</w>
G PS</w>
Bat ería</w>
abier to</w>
A sia</w>
CO M
con a</w>
o u</w>
est er</w>
pre mi
K it</w>
alco h
Nuestr a</w>
pa is
v an
H an
tu vo</w>
estad ounid
min a</w>
Tex as</w>
00 0
Fot os</w>
til lo</w>
exist e</w>
br es</w>
adh esiv
d ro
A si
ent an</w>
médic os</w>
co bre</w>
iz on
cl ima</w>
Co ches</w>
prepar ar</w>
fon dos</w>
vid eo</w>
bier ta</w>
tr ad
G olf</w>
esper a</w>
200 4</w>
A quí</w>
cir c
Ni ños</w>
QU I
entr a</w>
ci ento</w>
atr acciones</w>
solici tud</w>
W at
ret ario</w>
ing s</w>
o z
oto ño</w>
ten ga</w>
Al im
permi tir</w>
des crito</w>
D os</w>
col óg
R oma</w>
gr á
Ej emplo</w>
al le</w>
Micros oft</w>
es co
m 2</w>
S p
eleg ante</w>
h em
bas ado</w>
consu m
neum áticos</w>
Pant alla</w>
vent ajas</w>
arri ba</w>
res ol
cri stal
st er
endi do</w>
M is
patr ón</w>
visi ta</w>
N atur
I II</w>
tí p
prefer entemente</w>
termin al</w>
M AR
tar de</w>
T A
son ido</w>
200 3</w>
muev a</w>
v ar
se an</w>
CO N</w>
contex to</w>
cu anto</w>
i -
Re al</w>
escu elas</w>
refriger ante</w>
f is
esti m
inter net</w>
ub ic
Cha qu
gr is</w>
E con
8 .
Mod a</w>
t h</w>
U r
T oy
C HO
THE X</w>
car go</w>
entr en
m añana</w>
polic ía</w>
avi ón</w>
co in</w>
cic lo</w>
desarrol lar</w>
4 6</w>
So ur
conoci dos</w>
prote ínas</w>
tí tulo</w>
económ ica</w>
S of
ar an
a is
dibu jos</w>
6 2</w>
ex posición</w>
Lt d</w>
des tr
etiqu eta</w>
control ar</w>
recuper ación</w>
univers al</w>
disposi ción</w>
exclu si
id ea</w>
tor ia</w>
s en</w>
e or
conduc tor</w>
mont aña</w>
E X
inc reí
cl etas</w>
man uales</w>
on s</w>
cer tific
pará metros</w>
ca usa</w>
expres a</w>
Mun icipio</w>
ale ación</w>
5 2</w>
Es p
tor n
3 2
un idos</w>
d é
or t</w>
Preg untar</w>
un d</w>
cre ci
E E
v os</w>
ug ía</w>
a x</w>
ci l
viol encia</w>
hu medad</w>
tien do</w>
posteri or</w>
m asa</w>
comp ut
Pro pi
S C
t echo</w>
tot almente</w>
Tec n
To k
i a
des l
aliz adas</w>
estruc turas</w>
sh ire</w>
en g
interval o</w>
actu almente</w>
di ario</w>
tr adicional</w>
f era</w>
idi omas</w>
TR A
aqu ellos</w>
gr ados</w>
H ist
C ub
ú car</w>
amar illo</w>
sín tomas</w>
e y
an ch
ec tiva</w>
á ticas</w>
e pi
Est ad
v ino</w>
igu al
P atr
mi l</w>
en s</w>
aplic ar</w>
Der echos</w>
inform es</w>
Equi po</w>
anti l</w>
an al
eg et
oc a</w>
correspon diente</w>
igh t</w>
S ab
cu estión</w>
G A</w>
ver ificar</w>
sul f
Ci ud
r af
iv a</w>
j er
6 -
infl am
V A</w>
Res id
pue dan</w>
Entr e</w>
ev entos</w>
id ación</w>
famili as</w>
cor d
Ver de</w>
D S</w>
al ambre</w>
b uc
ER O</w>
M i</w>
z ada</w>
estrateg ia</w>
amin o
ex tien
M ag
co la</w>
alquil eres</w>
S im
ver d
fir ma</w>
pelícu las</w>
est acion
medic amentos</w>
l er</w>
en za</w>
qui en</w>
mó viles</w>
N ú
o w
pri or
mi n</w>
benefici os</w>
at or</w>
6 4</w>
inter medias</w>
Em pres
W al
he im</w>
equil ibr
res ina</w>
4 1</w>
desarrol lado</w>
is ti
ar emos</w>
4 ,
Un i
l og
cuesti ones</w>
ci encia</w>
SHO PPIN
r osa</w>
re p
Bas ado</w>
ir o</w>
propi o</w>
especí fica</w>
autom ati
etiqu etas</w>
ám b
ar t</w>
vi eron</w>
ru mano</w>
pro mover</w>
ofici al</w>
cer ebr
En erg
SHOPPIN G
D ec
dest ino</w>
barr a</w>
reci ente</w>
an unci
ue ga</w>
pl eg
prác ticas</w>
im onio</w>
m os
oj os</w>
ci cl
bast ante</w>
Ho st
C ro
I C</w>
bli ot
cl im
M ap
T er
blo queo</w>
adul tos</w>
G U
T e</w>
g eles</w>
cu la</w>
inclu ido</w>
SHOPPING BUY</w>
lat eral</w>
Direc torio</w>
l t
ev id
M arr
rel ativamente</w>
b er</w>
Son y</w>
Camis eta</w>
n orte</w>
n g</w>
2. 0</w>
édi to</w>
é ter</w>
trans vers
carg ador</w>
inici al</w>
pe ed</w>
i cono</w>
automó vil</w>
ñ as</w>
10 00</w>
ri st
M AS
án icos</w>
ag on
f ár
an e</w>
T C</w>
re alidad</w>
h o</w>
Z ona</w>
concep to</w>
em o
individ ual</w>
h orm
Alg unos</w>
ar y</w>
a us
po cos</w>
G estión</w>
Pu bl
dep end
L U
li n</w>
puer tas</w>
equ iv
M ay
d ul
di ana</w>
5 5
fuerz as</w>
W est</w>
cri sis</w>
ogr á
tecn ologías</w>
Su per</w>
prop ia</w>
pd f</w>
r esto</w>
Est á</w>
it aciones</w>
el ección</w>
In stitu
D on
bal aje</w>
cu adro</w>
gu st
ing en</w>
Cu bierta</w>
P -
ofici nas</w>
t ol
M c
pod emos</w>
dorm ir</w>
P AL
diagn óstico</w>
l eche</w>
PPIN G</w>
3 7
carre teras</w>
Argent ina</w>
ás tico</w>
B anco</w>
tras ero</w>
may ores</w>
flu or
m atr
D ól
é reo</w>
deb er
permit en</w>
R ed
apr endi
b os
Com entarios</w>
h t</w>
b ord
C ast
alc ance</w>
ob ili
viaj ar</w>
vap or</w>
ES HO
Stre et</w>
des empe
in aria</w>
X -
Elec tron
ofrec er</w>
S ho
N O</w>
A gua</w>
met ál
10 .
llam ada</w>
B or
PRIC ESHO
PRICESHO PPING</w>
ri l</w>
BM W</w>
apar camiento</w>
a per
domin io</w>
const ante</w>
emerg encia</w>
G er
cor ta</w>
X L</w>
ís tico</w>
D -
mod os</w>
M S</w>
ar ás</w>
C ent
p eg
D istr
norm almente</w>
az os</w>
Pa íses</w>
cam ping</w>
met eor
3 9</w>
De cor
ch u
reci piente</w>
l y</w>
infr a
Ch ile</w>
ci to</w>
Dól ar</w>
bu s</w>
os amente</w>
n y</w>
cr om
efic acia</w>
f os
2 2
propi et
ci lin
cuar to</w>
per aturas</w>
g ica</w>
RF Q</w>
BU Y
G R
No ticias</w>
bun al</w>
AB R
cam pañ
dic a</w>
est é</w>
O ro</w>
anti cuerpo</w>
consist e</w>
E L
ast e</w>
inter ruptor</w>
M S
P od
s .
sold adura</w>
pre vención</w>
tr aje</w>
TO R</w>
re lig
is la</w>
r on
gr ad
DV D</w>
i bles</w>
em ento</w>
tien es</w>
Organ ización</w>
Toy ota</w>
U l
liber tad</w>
f el
M ó
Sour cin
PP ERS</w>
Tar jeta</w>
Le y</w>
CHO PPERS</w>
BUY CHOPPERS</w>
Sourcin g-
ti ficación</w>
l ucha</w>
ren ov
pe tr
d í
p adres</w>
S and
ig a</w>
et te</w>
compr ender</w>
abier ta</w>
sec re
pas ar</w>
jug ador</w>
aum enta</w>
des crit
in i
cons id
S mar
mens ajes</w>
at al</w>
S ur
p H</w>
PV C</w>
rá ul
con versión</w>
ter rá
p m</w>
t ela</w>
cid entes</w>
R osa</w>
200 1</w>
ombr o</w>
ne y</w>
AD O</w>
v eget
mit ad</w>
dem anda</w>
dis per
particip antes</w>
agu j
der echa</w>
e h
introd uci
sus pensión</w>
IL LAR</w>
So porte</w>
V ill
flex ible</w>
af as</w>
fu m
ícu la</w>
su str
id es</w>
b and
I F
alg una</w>
dis tr
ic ar</w>
direc tor</w>
am b
ev ento</w>
gui en</w>
car p
num er
pis o</w>
compañ ías</w>
pi edra</w>
anim al</w>
se o</w>
ar le</w>
ap ell
sust ancias</w>
p adre</w>
To p</w>
ent ado</w>
M ol
Ne w
4 3</w>
M ostr
tele visión</w>
reduc e</w>
resist ente</w>
Plu s</w>
ing re
pl ur
ág inas</w>
con secuencia</w>
E lim
F o
pue do</w>
W ash
Bol sa</w>
Tr at
ist án</w>
vol unt
r ío</w>
Im agen</w>
Dig ital</w>
sil v
con seguir</w>
core ano</w>
ec as</w>
B ar</w>
b oda</w>
ces a</w>
utiliz amos</w>
des per
tendr á</w>
AD N</w>
re almente</w>
por ta</w>
diá logo</w>
Pis cina</w>
ens eñ
G i
Ac ceso</w>
og ado</w>
az úcar</w>
ap on
S an
í cono</w>
ti sta</w>
f or</w>
An im
En t
or ar</w>
famili ar</w>
5 00
tem as</w>
Ac tu
200 2</w>
dl l</w>
conoci da</w>
A ir</w>
inf ección</w>
az ar</w>
revesti miento</w>
trans port
Educ ación</w>
D R
ten ía</w>
inclu idos</w>
it ario</w>
T im
Su iza</w>
visi tar</w>
v en</w>
dur as</w>
MAN ILLAR</w>
dis cu
Mod elo</w>
Cat álogo</w>
- P
aut os</w>
ca t</w>
próxim o</w>
asegur ar</w>
5 4</w>
fi bras</w>
20 21</w>
S E</w>
po ca</w>
de porte</w>
w n
proporcion an</w>
comun idades</w>
ci vil</w>
b ach</w>
U til
alcoh ol</w>
segu imiento</w>
Co in</w>
lin e
l it
Ar te</w>
G O
N O
h as</w>
P alm
ad qui
hor izon
k o</w>
con os</w>
fin ales</w>
M M</w>
pol aco</w>
in ete</w>
ad y
Car acter
Ciud ades</w>
di ez</w>
ma estr
B ajo</w>
7 2</w>
T atuajes</w>
ic s</w>
S w
est ás</w>
tiv al</w>
proc ed
n es
present ación</w>
ox ígeno</w>
S pr
figur as</w>
de ja</w>
Terr aza</w>
mol é
ac ceder</w>
desl iz
libr o</w>
ex ig
bi ción</w>
í gen
Vi aje</w>
pi st
R adio</w>
Al l
Es tilo</w>
emple ados</w>
B ay</w>
envi ar</w>
e u</w>
D omin
el le</w>
ten ido</w>
par adas</w>
tras era</w>
é ticas</w>
fun cional</w>
j oven</w>
Am eric
nú c
Est ás</w>
anti cuerpos</w>
adapt ador</w>
vi sto</w>
moder na</w>
f útbol</w>
f emen
D ía</w>
Fr anci
C .</w>
hor no</w>
Cru z</w>
ér cito</w>
í da</w>
Tr abajo</w>
en g</w>
w orl
tien das</w>
fac tor</w>
fr an
Est ación</w>
vi vo</w>
Hab itación</w>
7 -
mot ocicleta</w>
z z
é ticos</w>
eli z</w>
S tu
2 20</w>
Cas as</w>
z as</w>
ser án</w>
C C
fin es</w>
A mpl
lí n
tar jetas</w>
rue da</w>
human a</w>
CN C</w>
in vers
hi jo</w>
om i</w>
resp ectivamente</w>
of reci
transpar ente</w>
oco lo</w>
terap ia</w>
blo que
podr á</w>
es cap
n ess</w>
v oz</w>
sustanci almente</w>
V id
B ah
C uer
DV DS
h er</w>
l and
DVDS TORE</w>
we i</w>
r ad
col g
M ac
ilustr ación</w>
err y</w>
disol vente</w>
ov er</w>
Fon do</w>
dens idad</w>
Ver sión</w>
p ár
P A</w>
autom áticamente</w>
or ado</w>
pr estaciones</w>
8 00</w>
espu ma</w>
lt ;</w>
& lt;</w>
conoc e</w>
en ado</w>
dem asi
TR AD
og a</w>
s t</w>
cur sos</w>
R od
organ ismos</w>
pas a</w>
P ot
pr ensa</w>
A ñ
re z</w>
So bre</w>
p ura</w>
tin ta</w>
al os</w>
liber ación</w>
di ab
e do</w>
ter o</w>
z aje</w>
L ES</w>
Wash ington</w>
s áb
Map s</w>
Es crit
s a
r azón</w>
Car olina</w>
elim inación</w>
a ero
tem peraturas</w>
L ámpara</w>
vi st
vent aja</w>
caracter izado</w>
per sp
aran ja</w>
pi er
fr uta</w>
b ancos</w>
no ticias</w>
ac tar</w>
P int
fi eld</w>
aisl amiento</w>
epi k</w>
p endi
6 8</w>
posi bles</w>
l ados</w>
im n
l ente</w>
Re d</w>
oport unidades</w>
B os
Un ited</w>
instal ar</w>
est ados</w>
C li
Flor ida</w>
o car
Bu ena</w>
ás cara</w>
oj a</w>
integr ación</w>
3 9
c edi
ingr esos</w>
hid rául
perf ecto</w>
s an</w>
ri a</w>
ul l</w>
zap atos</w>
aj os</w>
má quinas</w>
B it
ub e</w>
j e
ic ulares</w>
Joh n</w>
Pl aza</w>
in -
anz as</w>
conduc ción</w>
ar nos</w>
gén ero</w>
8 5</w>
d ent
oc tur
ses ión</w>
sosten ible</w>
con ector</w>
hoj as</w>
Is ra
condi ción</w>
res pir
at ación</w>
am á</w>
HO N
8 -
Ci encias</w>
j e</w>
ó leo</w>
par as</w>
cid ental</w>
pot encial</w>
o v</w>
ad ol
ámar as</w>
ses iones</w>
cam pos</w>
Mar ca</w>
D en
er n</w>
De bido</w>
edi ción</w>
MAS TER</w>
s co</w>
é tr
Det alles</w>
UC CIÓN</w>
Sa int</w>
C able</w>
mi s</w>
Com er
Pro fes
pu es</w>
terap éu
rue das</w>
si ete</w>
disponi bilidad</w>
D I</w>
cu b
compet encia</w>
cier tos</w>
ajust able</w>
dep ende</w>
recep ción</w>
cuer do</w>
Al m
com .
ép tido</w>
jun ta</w>
añadi ó</w>
5 6</w>
am i</w>
in ta</w>
ap or
ví c
Mul ti
efici ente</w>
hab l
s peed</w>
mil es</w>
k et
con vier
eb ook</w>
Á r
Pro y
signific ado</w>
P on
re y</w>
a cio</w>
ef e</w>
m all
Re ci
est oy</w>
anti -
ser ía</w>
f o</w>
ci fr
V ista</w>
in sp
ambi os</w>
con gel
hi elo</w>
di das</w>
B úsqueda</w>
vuel ta</w>
C um
ur t</w>
vig il
P U
inter cambio</w>
bal cón</w>
M P</w>
próxim os</w>
Com pon
ti mas</w>
sec o</w>
o cul
us an</w>
eg io</w>
ejec ución</w>
M y
T U
del eg
Nú mero</w>
a ul
A V
edi ficios</w>
I l
arm e</w>
Pl ata</w>
T om
célu la</w>
c es</w>
responsab ilidad</w>
A ud
ar reg
est able</w>
B on
i cip
ad ir</w>
t aje</w>
ber nam
or istas</w>
Pant alones</w>
cin ta</w>
ti da</w>
e de</w>
re d
satis fac
quím ica</w>
circ un
vol ver</w>
colabor ación</w>
Cont acto</w>
Isra el</w>
k s</w>
ver dad</w>
D r.</w>
Su ites</w>
óp tica</w>
bol so</w>
f ol
ú tiles</w>
I gl
A li
r ó
a wei</w>
t ador</w>
j apon
G I
dic os</w>
deci siones</w>
opin ión</w>
membr ana</w>
í z</w>
Estad ísticas</w>
w er
m obili
gu bernam
fic ar</w>
DEAL MASTER</w>
er amente</w>
f it
T X</w>
médic a</w>
En c
longit ud
S itu
podr ían</w>
F al
h ar
St e
id ge</w>
f i</w>
altern ativa</w>
canti dades</w>
et apas</w>
p áginas</w>
IC O</w>
an ía</w>
s in
brill ante</w>
Com un
Sec retario</w>
enci ma</w>
s ím
bier nos</w>
asi s</w>
U U</w>
conform idad</w>
Dis positivo</w>
M IN
reci entemente</w>
Tel e
dest in
transvers al</w>
ter cer</w>
c eb
por cent
t ari
V istas</w>
Sec ador</w>
N et
Pro vincia</w>
r it
f ant
m b
. la</w>
encontr ados</w>
B lo
exam en</w>
Mostr ar</w>
fís ica</w>
D em
eléctr icas</w>
fr enos</w>
Ob tener</w>
P eso</w>
C H</w>
S ant
Gr acias</w>
profun di
Á n
ni tr
E E</w>
B R
y -
AUTO M
s able</w>
fr eno</w>
di am
c an</w>
enci l
ang e</w>
plur alidad</w>
escrit orio</w>
Cor ea</w>
pro puesta</w>
ic ultura</w>
Ex cel
co unty</w>
Bu eno</w>
tr enes</w>
me til
L oc
H aga</w>
res puestas</w>
det en
D in
l ago</w>
form ado</w>
Europe o</w>
le d</w>
g ida</w>
recu brimiento</w>
5 1</w>
sol amente</w>
eñ as</w>
s ombr
at orios</w>
llev ó</w>
t ap
S A
su m
ue te</w>
mec ánica</w>
I E
tec lado</w>
mil itar</w>
t en</w>
N ev
ver tical</w>
v illa</w>
rel oj
L ake</w>
neces aria</w>
Lov epik</w>
encontr ado</w>
r se</w>
aliz a</w>
person alizado</w>
ni eve</w>
descu br
asi ento</w>
Hab itaciones</w>
B añera</w>
gu sta</w>
tan que</w>
ag s</w>
e m</w>
h uev
su puesto</w>
com port
bab .la</w>
Art ículos</w>
Ap ple</w>
on i
exter na</w>
Gr atis</w>
Institu to</w>
u ti
M ur
6 6</w>
bol o</w>
o cho</w>
Mon it
P ed
ens o</w>
Activ idades</w>
t apa</w>
ác ter</w>
ar idad</w>
im puls
er te</w>
ampl io</w>
L AN
col es</w>
ar ter
eg as</w>
aer olí
oscur o</w>
consid era</w>
I M
conect ado</w>
facil itar</w>
F R
ru ido</w>
S RS</w>
TRAD UCCIÓN</w>
m al</w>
contr ario</w>
A par
O E
antigu o</w>
f ri
a tillas</w>
ám paras</w>
apl ica</w>
x i</w>
neces arios</w>
B ill
dich os</w>
pres entes</w>
T ech
P au
Con ferencia</w>
p si
cre ado</w>
re paración</w>
anc es</w>
enl aces</w>
Ap p</w>
as ti
ide z</w>
n ot
i z</w>
Orig inal</w>
PAL ABR
con mut
co t
cumpl imiento</w>
tray ecto</w>
er lo</w>
a g</w>
instrum entos</w>
busc ando</w>
C el
fr ío</w>
An ton
C os
ran go</w>
ne ur
in vit
tor no</w>
ov o</w>
am or
Hu awei</w>
en orm
B aja</w>
Man ag
ti mo</w>
ov a</w>
A seo</w>
Jer sey</w>
t ora</w>
niñ as</w>
Jos é</w>
IC A</w>
des af
re lev
PALABR AS</w>
To ur
an ol</w>
man d
all á</w>
M en
ar i</w>
aper tura</w>
6 1</w>
ender ismo</w>
b ob
Pr om
instrum ento</w>
exten sión</w>
C lar
A udi
at erra</w>
car ne</w>
aprendi zaje</w>
bl anca</w>
id ado</w>
ch aqu
ht t
di lu
Pap el</w>
9 9
actu ales</w>
D a
P ri
vi ene</w>
ilustr a</w>
mar r
an un
cr édito</w>
A soci
Apl icación</w>
ific ador</w>
acopl amiento</w>
t ada</w>
ambi ental</w>
e p</w>
K i
S t</w>
reg ional</w>
0 2</w>
cumpl ir</w>
is a</w>
asi a</w>
T o</w>
inter eses</w>
esp es
det alle</w>
utiliz ados</w>
W est
c ado</w>
Tecn ología</w>
Hu manos</w>
em ia</w>
H osp
qui eres</w>
bi o
S ub
H I</w>
dem oc
compati ble</w>
calent amiento</w>
C ari
man gu
fi esta</w>
D O
Res ort</w>
F und
situ ada</w>
QUI ER
Medi o</w>
J am
al f
ha us
establ ece</w>
Wi -
par edes</w>
m ur
vi ew</w>
Mic ro
el ación</w>
I gu
4 7</w>
al de
asoci ados</w>
m el
gan os</w>
Administr ación</w>
í do</w>
k et</w>
di dos</w>
acion ales</w>
sir ve</w>
al istas</w>
cul tivo</w>
est amos</w>
gener ar</w>
int est
man tiene</w>
vi o</w>
Vir gin
Franci sco</w>
T odo</w>
mol ec
Bol etos</w>
ia omi</w>
0 5</w>
alcan zar</w>
Vi si
m aqu
7 5
z ca</w>
g ada</w>
sub cat</w>
pre venir</w>
br azo</w>
conven iente</w>
ej ecu
reloj es-
IZ QUIER
si c</w>
inter no</w>
L l
3 00
in ci
Si tio</w>
a b</w>
hab ían</w>
demasi ado</w>
Ingl aterra</w>
par al
facil it
exist entes</w>
al guien</w>
lo w</w>
car ácter</w>
adecu ados</w>
inf antil</w>
se paración</w>
Ro ad</w>
electrón icos</w>
U no</w>
Virgin ia</w>
Con vención</w>
l ectura</w>
plan es</w>
EN TO</w>
In vierno</w>
radi ación</w>
pro xim
7 4</w>
per for
ac um
. dll</w>
tri b
P A
B lu
ten go</w>
t le</w>
int as</w>
r í
bliot eca</w>
di eron</w>
g al</w>
al tos</w>
B -
famili ares</w>
P es
f ed
t op
Com pl
ho u</w>
aber tura</w>
a ir
y s</w>
comun ic
im en
end ario</w>
E M
cultur al</w>
continu a</w>
Proveed ores</w>
J un
Compr a</w>
clás ico</w>
res tric
F ar
n ota</w>
Al to</w>
an dia</w>
y ó</w>
arquit ectura</w>
sili cona</w>
tej idos</w>
s encil
an és</w>
o bras</w>
at amente</w>
reci b
ro c
seg ura</w>
Gr and</w>
especi es</w>
pais aje</w>
clasi ficación</w>
HON DA</w>
mall era</w>
f as</w>
Igl esia</w>
rot ación</w>
parti dos</w>
electrón ica</w>
co tas</w>
ach o</w>
ident ificar</w>
plac as</w>
fl or</w>
av a</w>
L -
a p</w>
us arse</w>
B ajos</w>
ul ta</w>
Z el
al um
err or</w>
i k
cu entas</w>
llam ado</w>
Lo u
ries gos</w>
l lu
Pis os</w>
sustr ato</w>
equiv al
es encial</w>
D avi
Wi- Fi</w>
extien de</w>
o d</w>
V el
di eta</w>
B ici
w ork</w>
E v
TRA DE</w>
4 9</w>
e años</w>
ma triz</w>
gr i
ap ia</w>
bom b
m alla</w>
Por tu
E g
lu min
D ist
S S</w>
infra estructura</w>
peti ción</w>
c ál
ern as</w>
A Z
comparti do</w>
Tr as
VI C</w>
eur o
ve cin
so dio</w>
Y o</w>
super mercados</w>
m Ah</w>
d ro</w>
In t
bas ada</w>
ejerci cio</w>
reun iones</w>
Encu entra</w>
h ard
5 8</w>
c ero</w>
cam as</w>
PD F</w>
d eres</w>
peri odo</w>
con vir
financi era</w>
cl ases</w>
G ris</w>
disposi ciones</w>
Apart ment</w>
o bra</w>
- inglés</w>
6 7</w>
dibu j
cer ámica</w>
Ph arm
M el
superfici es</w>
acel eración</w>
jur í
M U
co ord
K r
Elim inar</w>
Com unidad</w>
Tab la</w>
For d</w>
labor atorio</w>
gar o</w>
pro bar</w>
co pia</w>
signific ativamente</w>
di ver
TO R
Univers al</w>
re fer
L OS</w>
núc leo</w>
ami go</w>
á neo</w>
Restaur ante</w>
O ut
Mé dico</w>
campañ a</w>
ob ern
Per ú</w>
hab lar</w>
lav ado</w>
dific ult
c al</w>
S ó
hig i
gr asa</w>
5 3</w>
il eg
ll ama</w>
limit ada</w>
UNI TRADE</w>
Prot ección</w>
S ing
cab ez
ident ificación</w>
u x</w>
A f
D C
ín dice</w>
increí ble</w>
S un
H P</w>
vot ando</w>
permi tir
ér coles</w>
conect adas</w>
reg ionales</w>
Pol í
tar eas</w>
et er</w>
C lim
ili p
if i</w>
vi ento</w>
segun dos</w>
especí fico</w>
realiz ado</w>
i enda</w>
in ven
n or
s ueño</w>
IZQUIER DA</w>
Tend encias</w>
elim in
esp ect
baj os</w>
Ti ene</w>
ámb ito</w>
cu yo</w>
B ay
estableci do</w>
- de-
mol de</w>
aerolí neas</w>
w o
elec tri
ti n</w>
inter pre
K E
W orl
rec lam
den omin
B ir
Gl ob
Prin cip
chi la</w>
cu las</w>
op tim
obst ante</w>
n octur
bot ella</w>
tr ás</w>
u la</w>
gu ar
oc asi
htt p</w>
bás icas</w>
G ri
Aud i</w>
f om
dep ósito</w>
Neg oci
o tipo</w>
t all
represent antes</w>
6 3</w>
go biernos</w>
á nea</w>
Nort h</w>
ad eras</w>
proces ador</w>
E d
B ul
Escrit orio</w>
pes ca</w>
S ol</w>
apro v
Pue des</w>
L en
v s</w>
dur o</w>
vi br
innov ación</w>
prop ósito</w>
De ut
S V
il ización</w>
Pr ue
Trip .com</w>
Fot o</w>
Y a</w>
O tro</w>
p ed
au x
Mos c
M ex
N a
peri ó
Con str
distr ito</w>
áp su
R ío</w>
Portu gal</w>
posi bil
clu b</w>
Vesti do</w>
co -
éfon os</w>
h abr
Decor ación</w>
T F
present ar</w>
ér ico</w>
ci elo</w>
distin tos</w>
Cent er</w>
terc era</w>
A cuerdo</w>
st on</w>
á frica</w>
per ro</w>
Ver ano</w>
f ast</w>
es col
em balaje</w>
S pa</w>
reduci da</w>
h am
err as</w>
, 5</w>
7 50</w>
ast er</w>
F uer
D AN
Sal v
empres ari
quil la</w>
P in
monit or
americ ana</w>
w ifi</w>
H I
í fico</w>
G O</w>
Mi embr
ór ganos</w>
can ciones</w>
estr at
fic ado</w>
j udi
man if
recor rido</w>
Pi ezas</w>
respon sable</w>
ten is</w>
ag it
má r
constru ir</w>
lí der</w>
A J
Vesti dos</w>
il le</w>
o w</w>
tr adicionales</w>
P S
mar tes</w>
alg ún</w>
én ico</w>
com odi
tu bos</w>
H el
imn asio</w>
ide as</w>
necesit an</w>
lí deres</w>
ul tras
fon o</w>
Sec re
Met al</w>
Mosc ú</w>
s ectores</w>
cubier to</w>
recomend aciones</w>
reser vas</w>
to p</w>
pis os</w>
Rec ambios</w>
próxim a</w>
determin ada</w>
adel ante</w>
reg ular</w>
vivi r</w>
aut or</w>
europe o</w>
J ardín</w>
Seri e</w>
. 0
h ombro</w>
ar la</w>
migr ación</w>
evalu ar</w>
n ing</w>
S eleccion
abri r</w>
po bre
og os</w>
herm osa</w>
T al</w>
S om
re fu
libr es</w>
Si gui
e an</w>
silv ania</w>
solici t
N u
pas ajeros</w>
detall ada</w>
dis crim
mil it
divers idad</w>
L iv
nú meros</w>
M ez
asi le
car ta</w>
b anco</w>
com prim
ic ar
paqu etes</w>
re for
Lu jo</w>
hi per
í amos</w>
T ot
im en</w>
su fr
M ir
od ucción</w>
C L
vol taje</w>
Ind ustri
. 000</w>
b od
re conocimiento</w>
pi sta</w>
pár raf
requi eren</w>
is h</w>
C ic
9 8</w>
pueb los</w>
clor uro</w>
Is land</w>
expan sión</w>
on o</w>
il es</w>
gu en</w>
acu osa</w>
os t</w>
esp ejo</w>
con firm
alquil ar</w>
inmedi atamente</w>
d añ
bo la</w>
dependi endo</w>
conver tir
alcan z
T ub
C ategorías</w>
territ orio</w>
par ci
Sud áfrica</w>
inc e</w>
al p
Elec tr
as pir
Li br
actu alización</w>
ab ord
pobre za</w>
reci entes</w>
A vi
Inter n
b or</w>
enci almente</w>
ten iendo</w>
escu ch
mecan ismos</w>
com er</w>
C C</w>
fum adores</w>
ol es</w>
b años</w>
an o
199 9</w>
dimen siones</w>
s é</w>
m ag
c anc
Ú lti
H al
Can ales</w>
depor tista</w>
Ch al
an o-
visit antes</w>
hi jos</w>
ab e</w>
P RE
I V</w>
In c</w>
d on</w>
P ad</w>
di agr
cilin dro</w>
con siguiente</w>
S ig
G S
en en</w>
T I</w>
p ec
Pen silvania</w>
cont actar</w>
ho use</w>
a fric
seleccion ado</w>
mi de</w>
estrat ég
pu ente</w>
e .
tend encias</w>
um p</w>
A v
gu í
So uth</w>
indic aciones</w>
hidr ógeno</w>
Cub a</w>
re za</w>
O F
bar co</w>
estadounid ense</w>
con dens
ch e
di arias</w>
d éc
h echos</w>
a ir</w>
CI VIC</w>
an es</w>
accion amiento</w>
t én</w>
dis pens
cos mé
P aqu
marr ón</w>
H en
lí n</w>
Só lo</w>
Negoci os</w>
dw ide</w>
igual dad</w>
Fac ebook</w>
experi encias</w>
específic as</w>
d u</w>
industri ales</w>
p ic
ne u
T re
as eo</w>
formul ación</w>
s elec
e .com</w>
Ent onces</w>
co sta</w>
al ine
resid uos</w>
r y</w>
cas ual</w>
Jug uetes</w>
can di
ar ena</w>
a ug
i x</w>
comp ens
Especi al</w>
s ales</w>
blo ques</w>
Ten emos</w>
result ante</w>
m er</w>
h in
ne os</w>
estr e</w>
dis puesto</w>
p ico</w>
Ar chiv
A gr
pi es</w>
Añ adir</w>
all í</w>
E -
reserv ar</w>
Lí nea</w>
caracter ística</w>
L an
d am</w>
trans form
resp al
4 7
cier tas</w>
j usticia</w>
C op
C AR
pro hi
Fed eral</w>
cat alizador</w>
ari amente</w>
Caracter ísticas</w>
At l
car casa</w>
ec os</w>
for t</w>
men ores</w>
Dist ancia</w>
S anti
Georg ia</w>
chu fe</w>
R C</w>
O to
cu án
qui ero</w>
J es
cu ya</w>
og ía</w>
A ur
m ari
es pir
depend encia</w>
com pres
cu br
histór ico</w>
vi endo</w>
av i</w>
difer encias</w>
carr era</w>
y endo</w>
polí meros</w>
F A
ul i
L ug
dis par
F -
dis olución</w>
cion amiento</w>
tur b
o este</w>
defin e</w>
L eg
lig ero</w>
Es tr
vi ar</w>
cuer da</w>
quím icos</w>
o sis</w>
comenz ó</w>
eléctr icos</w>
cal ificación</w>
Energ ía</w>
Col egio</w>
re vel
Qu e</w>
impres ora</w>
acel er
tar ea</w>
exist en</w>
0 3</w>
conoci mientos</w>
10 80</w>
Ac ción</w>
present an</w>
S ue
vivi enda</w>
W o
ún garo</w>
er s
es fuerzo</w>
G mb
M L</w>
L y
Escu ela</w>
arti fici
mar cha</w>
económ icos</w>
re par
cal cul
mar av
t ú</w>
D ri
es el</w>
Ad apt
per tin
capaci dades</w>
un t</w>
g esti
AS I
prefer ida</w>
específic amente</w>
bi enes</w>
T an
TR Y</w>
1 50
Is la</w>
A uto</w>
indic ador</w>
fij ación</w>
com ando</w>
compren den</w>
segu ido</w>
mus eos</w>
ley es</w>
efec tu
lan da</w>
al tas</w>
min i
hor aria</w>
S ar
T ai
L T
si mul
micro ondas</w>
g oma</w>
Pre fer
qu in
ori entación</w>
ori ent
3 60</w>
Per fil</w>
perman ente</w>
ti tud</w>
sec ado</w>
F ER
contr ato</w>
Ex ter
chaqu eta</w>
z i
pa st
F echa</w>
san guí
vol uc
pre cip
T ail
im ag
crit erios</w>
lu j
Par lamento</w>
sex ual</w>
d año</w>
cin e</w>
ól ica</w>
acet ato</w>
bol es</w>
gast os</w>
Alem án</w>
ter mo
an alizar</w>
declar ación</w>
reci be</w>
in vent
f re
polim er
9 6</w>
ot er
Dis eñ
americ ano</w>
Mi entras</w>
E ast</w>
Pl ace</w>
in s</w>
Is las</w>
ingre dientes</w>
im pul
implem entación</w>
detect ar</w>
ent re
h um
inhi b
super iores</w>
F li
o st
ver siones</w>
agr í
gr av
a e</w>
o dio</w>
l unes</w>
al arma</w>
preocup ación</w>
sec ciones</w>
ó metro</w>
Po st
Lí neas</w>
T ér
í tulo</w>
E U
c ámaras</w>
Mar ía</w>
modific ar</w>
amino ácidos</w>
9 2</w>
entren amiento</w>
il eno</w>
t -
Ex pl
u p
1 20
D UC
in voluc
Sal ón</w>
neces arias</w>
gener ador</w>
in geniería</w>
ectiv as</w>
legisl ación</w>
rel aj
Cu idado</w>
pl ay</w>
prot ector</w>
N -
ebr a</w>
tran sición</w>
V O</w>
com presión</w>
L it
quir úr
do si
car di
som eti
compati bilidad</w>
exter no</w>
I T
g lu
ü n
Oto ño</w>
Anton io</w>
Ho t</w>
ist e</w>
ha i</w>
Mot or</w>
Gmb H</w>
M T
trans fer
onc e</w>
conduc to</w>
camis eta</w>
em pos</w>
Chaqu eta</w>
Nuestr o</w>
ton el
aero puertos</w>
Reser va</w>
S C</w>
cuar zo</w>
DA D</w>
at em
suj eto</w>
Su elo</w>
min im
vari antes</w>
inici ativa</w>
resol ver</w>
W ar
asoci ación</w>
N orm
gan ó</w>
desper tador</w>
L C</w>
du da</w>
co ber
ph one</w>
porcent aje</w>
C ar</w>
rel ativa</w>
A ño</w>
ológ icas</w>
aer on
R F</w>
LO TH
s k</w>
f uego</w>
extre m
El éctr
di aria</w>
ex hi
Car g
CO UN
end ente</w>
plan ificación</w>
vent aj
c ápsu
Pharm aci
egr ad
é ase</w>
mis mas</w>
Propi edades</w>
O h
LOTH ES</w>
met ab
comport amiento</w>
WHOLESAL EC
WHOLESALEC LOTHES</w>
St ar</w>
tu des</w>
mon eda</w>
Autob ús</w>
lan dia</w>
molec ular</w>
worl dwide</w>
Tech n
on ía</w>
fic as</w>
gener ales</w>
ca ucho</w>
el s</w>
o si
Ir landa</w>
compar ar</w>
registr ado</w>
a sión</w>
altern ativamente</w>
Soci al</w>
sust ancia</w>
es worldwide</w>
aj illas</w>
Pharmaci esworldwide</w>
preg untas</w>
L is
7 00</w>
joy ería</w>
Direc tor</w>
tav oz</w>
rel l
Fam ilia</w>
utiliz arse</w>
hosp itales</w>
ég imen</w>
A ustria</w>
In stal
su pl
financi eros</w>
Con ven
hi p
am inas</w>
Cuer po</w>
S tr
mi ércoles</w>
estrateg ias</w>
apoy ar</w>
ner vi
beb idas</w>
H ill</w>
cor ro
p es</w>
ens ayos</w>
ak i</w>
F OR
M esa</w>
Ó VI
Ag encia</w>
sal ud
l ote</w>
Tri bunal</w>
ic ales</w>
hab la</w>
as o</w>
s ho
adi cionalmente</w>
ab ogado</w>
fron tal</w>
uck y</w>
preg unta</w>
R iv
p ut
l y
aprov ech
encontr ó</w>
agreg ar</w>
ri r</w>
2 3
m í</w>
hosp ital</w>
anim ados</w>
ang ular</w>
víc timas</w>
ed as</w>
ic es</w>
oci n
es io</w>
To allas</w>
dese ada</w>
COUN TRY</w>
l ot
Fran k
tub ería</w>
Gre cia</w>
ob a</w>
correspon dientes</w>
ar é</w>
estab an</w>
4 G</w>
equip ada</w>
agu ja</w>
cre a</w>
G ir
vuel ve</w>
s mo</w>
Par te</w>
Bi en
óm ico</w>
om étr
seleccion e</w>
N I
Con junto</w>
h úngaro</w>
Sigui ente</w>
s inc
consul ta</w>
est re
Mar ina</w>
5 9</w>
enc ant
al ity</w>
torn illo</w>
Worl d</w>
satis f
con sol
CI ON</w>
bol sillo</w>
K en
Ac e
Santi ago</w>
in duc
Ex pres
7 8</w>
pleg able</w>
inten s
B ri
Lat ina</w>
D ol
LA S</w>
DAN CE
é m
av ajillas</w>
DANCE COUNTRY</w>
ific ado</w>
ró fono</w>
añad ir</w>
absor ción</w>
re vis
sens ores</w>
Bus car</w>
7 1</w>
efec tivo</w>
ÓVI LES</w>
c ant
regr es
se e</w>
VI H</w>
vigil ancia</w>
D ónde</w>
I lu
V E
publ icación</w>
persp ectiva</w>
Cari be</w>
h en</w>
ám ico</w>
bol sas</w>
bi r
AUTOM ÓVILES</w>
3. 0</w>
re tr
a firm
av ent
Al ex
it ud</w>
introd ucción</w>
S ensor</w>
R ol
electri cidad</w>
im as</w>
r as</w>
bu enas</w>
al cal
pr o</w>
determin a</w>
ari s</w>
Fu ente</w>
7 6</w>
v intage</w>
ã o</w>
hi er
R am
mas cul
T ags</w>
cir ugía</w>
Est able
ident idad</w>
Intern ational</w>
P ER
ed ores</w>
ens es</w>
impres ion
ran ura</w>
em ent</w>
libr os</w>
or y</w>
ev it
b aco
re carg
de trás</w>
form an</w>
expl ic
em ul
A ven
est ará</w>
S em
E MP
produc tores</w>
6 8
so port
dom és
Preg untas</w>
ís ticos</w>
joy as</w>
b asa</w>
l ider
integr ado</w>
pe d</w>
uestr a</w>
- B
Much os</w>
Fr on
espaci os</w>
ar co</w>
G am
U so</w>
re visión</w>
co p
u ino</w>
bas es</w>
Der echo</w>
r égimen</w>
J unta</w>
tend encia</w>
mas cotas</w>
pan eles</w>
so y</w>
Por t</w>
A gu
ter n
pun ta</w>
l ad
I T</w>
des ign
capaci tación</w>
pu s</w>
espes or</w>
Cam po</w>
ue z</w>
S ala</w>
a is</w>
U V</w>
direc tos</w>
or n
di endo</w>
ex o</w>
vit amina</w>
bus ca</w>
Par king</w>
res ulta</w>
T op
activ ación</w>
alm oh
an i</w>
vier nes</w>
e um</w>
M C
V il
In tel
etil eno</w>
Li ber
sex y</w>
habil idades</w>
igles ia</w>
dig itales</w>
al d</w>
aguj ero</w>
profundi dad</w>
trast ornos</w>
tem pr
separ ado</w>
z e</w>
cid ente</w>
In vestig
cultur ales</w>
Zap atillas</w>
9 00
u el
funcion a</w>
ch ado</w>
sim ult
person ales</w>
equilibr io</w>
cre o</w>
al tamente</w>
Fed eración</w>
Orig inales</w>
er no</w>
R oy
pi stas</w>
EN T
apar ición</w>
S S
tér mica</w>
Man ga</w>
Pue b
ampli amente</w>
se de</w>
ún icamente</w>
eti lo</w>
T ro
reempl azo</w>
fos f
V ar
un e</w>
Asoci ación</w>
financi ación</w>
cav idad</w>
situ aciones</w>
u ación</w>
gu ías</w>
mot ores</w>
De al</w>
inter cambi
en ar</w>
cost e</w>
Port átil</w>
g arr
Im presión</w>
conect ar</w>
ve za</w>
ad t</w>
dej ar</w>
i j
relig i
. eu</w>
f ases</w>
ver se</w>
lí mite</w>
br it
L G</w>
b ajas</w>
conflic to</w>
A A</w>
edr al</w>
or aciones</w>
F útbol</w>
- 1</w>
T u
Tr as</w>
desplaz amiento</w>
g et</w>
inalám brica</w>
pul ver
r ural</w>
V eterin
pag ar</w>
adol esc
ofrec emos</w>
Progr amas</w>
Ilu minación</w>
es quí</w>
com partir</w>
ver t
1 30</w>
refrig eración</w>
reci bido</w>
ventil ador</w>
cart ucho</w>
bien estar</w>
5 7</w>
ec t</w>
M it
inven cion</w>
á tom
investig adores</w>
H T
L og
defin i
f t</w>
lab or</w>
H om
poli éster</w>
d ura</w>
A u
COM O</w>
adi e</w>
F er
M ál
B A</w>
5 ,
cober tura</w>
iz ados</w>
gr if
M er
8 8
petr óleo</w>
diagr ama</w>
ü r
vin cul
h echa</w>
Par tes</w>
l ing</w>
H un
deriv ados</w>
particip ar</w>
m ad
Bol sas</w>
b is
embar azo</w>
acept able</w>
u ciones</w>
inclu ida</w>
dese ado</w>
ograf ías</w>
ex amin
diab etes</w>
0 4</w>
Pe qu
Pel ículas</w>
si t
b es</w>
Zel anda</w>
F C</w>
em pu
viaj an</w>
M ant
D ev
ur i</w>
ás tica</w>
on ar</w>
c rec
er y</w>
Pan el</w>
X X
tel éfonos</w>
PN G</w>
li tio</w>
ro ja</w>
g obern
D ef
esti mul
t atu
ok ing</w>
con vers
t a
CH O</w>
certific ado</w>
Distr ito</w>
y land</w>
ej ército</w>
10 2</w>
r i</w>
T al
Po int</w>
reg las</w>
gubernam entales</w>
K T
B ang
fer ro
patr ocin
j efe</w>
A utos</w>
E cu
c ategorías</w>
trabaj ando</w>
Má ster</w>
r es</w>
lat ón</w>
Bu s</w>
ag os</w>
funcion arios</w>
so br
ti empos</w>
l andés</w>
7 7</w>
raz ones</w>
tar ía</w>
control es</w>
Compar ar</w>
clasi fic
res tr
F A</w>
it arios</w>
U cr
I ll
qu em
0 9</w>
urb ano</w>
de os</w>
compr as</w>
B ase</w>
G -
ambi entales</w>
A mar
um a</w>
ajust ar</w>
Mál aga</w>
just o</w>
R ot
am bas</w>
plas ma</w>
For t</w>
ect ora</w>
extr acción</w>
D oc
en gran
Techn olog
ab ogados</w>
úr pura</w>
ac tores</w>
F es
asoci ado</w>
Pis o</w>
vul ner
def ensa</w>
adop t
Reg lamento</w>
naveg ación</w>
ti gu
ch en</w>
per a</w>
tari fas</w>
v ías</w>
á tiles</w>
br ind
tr im
br asile
Tail andia</w>
Vi vi
m am
sec a</w>
pre ced
Tri avi</w>
C arr
AI RE</w>
don esia</w>
g li
ográ fica</w>
cion ar</w>
O pen
Fre e</w>
inter vención</w>
ak a</w>
vent anas</w>
M C</w>
met ales</w>
F M</w>
p p
escap e</w>
con tener</w>
bás icos</w>
ent i
comi enza</w>
h r
idi oma</w>
line al</w>
Lu x
á l</w>
IN A</w>
estr ic
K e
or ca</w>
m apas</w>
n ombr
Uni versi
M ús
cab les</w>
l uch
fr ía</w>
descrit os</w>
N A
registr os</w>
10 00
Asi mismo</w>
g ases</w>
Ven ez
Tér min
pro du
fres co</w>
maqu inaria</w>
agrad able</w>
ár boles</w>
org ánico</w>
públ icas</w>
ste in</w>
medic amento</w>
D ep
P ic
Col ección</w>
fundam ental</w>
comput adora</w>
Al quil
Y o
farm acia</w>
O ri
ata que</w>
H il
Apl icaciones</w>
públ icos</w>
dismin ución</w>
199 8</w>
- 2
T abl
indic adores</w>
8 2</w>
mis or</w>
P op
n aranja</w>
Pl an</w>
Hosp ital</w>
Bar atas</w>
Alm acen
ó gen
g ü
S et</w>
involuc r
is on</w>
tonel adas</w>
Españ ol</w>
ap reci
edr as</w>
o wn</w>
ak fast</w>
ind ígen
gr os
ali as</w>
rat ón</w>
de dor</w>
ar los</w>
con ferencia</w>
Cor te</w>
K u
ben e
expl ot
fr ac
fi eren</w>
and ería</w>
Ch ic
mostr ado</w>
0 8</w>
ab es</w>
posibil idades</w>
ap ort
Mar co</w>
eur os</w>
ca usar</w>
ha z</w>
m aco</w>
V eh
pant alones</w>
Cic l
al s</w>
igles ias</w>
Rob er
án icas</w>
pod er
muev e</w>
ment s</w>
Equi p
dist intas</w>
Davi d</w>
Bl ack</w>
ch as</w>
párraf o</w>
én dose</w>
herm oso</w>
cr ita</w>
pol ip
ch ica</w>
HD MI</w>
propor ción</w>
publ icidad</w>
asi sti
vari able</w>
mani pul
A le
pr ac
arti sta</w>
migr antes</w>
3 3
uev es</w>
us ada</w>
conven cionales</w>
baco a</w>
H ace</w>
cam in
pat ente</w>
e i</w>
Cor rea</w>
9 -
Air port</w>
Ucr ania</w>
ay an</w>
at orias</w>
ven ido</w>
per ros</w>
crom at
ci t
Fund ación</w>
ambi en</w>
visu al</w>
am inación</w>
for o</w>
ri qu
cal cio</w>
ins pir
B S</w>
A just
cir culación</w>
Lug ares</w>
des crip
C ad
óp tico</w>
Términ os</w>
apr ender</w>
aut én
18 0</w>
x i
tel ef
y s
marav ill
COR D</w>
Mot or
W or
fár maco</w>
M -
car bur
on -
Ej ecu
refl ej
Prue ba</w>
Lu is</w>
4 00
cab al
posi tivos</w>
cre ma</w>
D ar
W ester
Gu erra</w>
dich as</w>
it ado</w>
re tro</w>
seleccion a</w>
h ici
pron óstico</w>
Ma x</w>
t ario</w>
X iaomi</w>
jug adores</w>
Compon ent
produc en</w>
enfri amiento</w>
már mol</w>
dro gas</w>
beb ida</w>
cam p
pe di
jug uete</w>
pre ten
Manag er</w>
ul tr
medi cina</w>
V ER
cre mallera</w>
w at
I O</w>
aj ero</w>
8 8</w>
cl av
0, 5</w>
Do ble</w>
influ encia</w>
AC CORD</w>
l ov
1, 5</w>
Cri stal</w>
apar ece</w>
horizon tal</w>
si guen</w>
apar eci
embr a</w>
b ul
sel lado</w>
Carg ador</w>
d arse</w>
ahor ro</w>
n m</w>
. pdf</w>
li qu
lic encia</w>
Smar t</w>
est éreo</w>
A CIÓN</w>
aus encia</w>
Puer ta</w>
0 6</w>
it z</w>
L uc
M em
anti gua</w>
acuer dos</w>
ady ac
con cur
mezc las</w>
Ti erra</w>
om etr
obten ido</w>
B ud
6 5
l aje</w>
inici ativas</w>
recom ienda</w>
V intage</w>
trabaj os</w>
su d
i conos</w>
O m
tatu aje</w>
ero -
cientí ficos</w>
ír it
6 00
T V
ci en</w>
D ER
ab ar
az go</w>
convier te</w>
gan ar</w>
0 7</w>
conver tidor</w>
Pan amá</w>
mó s
Ped ro</w>
ari z
propiet ario</w>
l ejos</w>
polí ticos</w>
C erca</w>
conex iones</w>
mov ilidad</w>
Ch r
indic ado</w>
Al ber
estab il
N A</w>
er -
In clu
inglés- francés</w>
gr aves</w>
clar amente</w>
pl at
St ates</w>
barr as</w>
D res
efec tiva</w>
gar aje</w>
I t
carp eta</w>
cost es</w>
ay s</w>
j i
Tr ab
intens idad</w>
En l
cin tura</w>
con secuencias</w>
a ud
Cu ar
4 2
Mús ica</w>
Paqu ete</w>
d años</w>
Gu atem
G RE
IN G</w>
estacion amiento</w>
ak er</w>
S T</w>
Estable cimiento</w>
4 x
fl ot
automó viles</w>
vi ó</w>
polí tico</w>
reci én</w>
T unes</w>
1 10
plan tilla</w>
con ces
Tr ump</w>
Cicl ismo</w>
r est
milit ares</w>
H emos</w>
ic ana</w>
col ogía</w>
k i
D atos</w>
v amos</w>
p in
LA TER
Cambi os</w>
niñ a</w>
Joy as</w>
conten idos</w>
6 ,
vers a</w>
s che</w>
filtr ación</w>
sab or</w>
Wi fi</w>
pro puestas</w>
alum nos</w>
m mol</w>
bo ard</w>
g ación</w>
Es o</w>
to wn</w>
Un idad</w>
destac ados</w>
nuev e</w>
si vo</w>
r ayos</w>
servid ores</w>
Il ustr
7 3</w>
W E
Proveed or</w>
v oy</w>
Com b
refu gi
delant era</w>
In tel</w>
6 9</w>
qui era</w>
B ed</w>
Fil tro</w>
and er</w>
resid encia</w>
i encia</w>
ad uras</w>
wit h</w>
delant ero</w>
r um
M T</w>
ay er</w>
ocol ate</w>
b ella</w>
fin almente</w>
determin ación</w>
destr u
cont aminación</w>
R uta</w>
Guatem ala</w>
N ota</w>
a .</w>
R ich
prot ocolo</w>
ú an</w>
sem illas</w>
ar an</w>
V ac
qu ería</w>
limit ado</w>
L ic
visu alización</w>
am on
ec k
Salv ador</w>
AC HI</w>
in ario</w>
TO S</w>
D ell</w>
pl atos</w>
acr ílico</w>
is as</w>
M es
S .
tur ismo</w>
Val ent
Ma estr
lig eramente</w>
ri ó</w>
tu ber
z hou</w>
represent an</w>
Pint ura</w>
Es co
M ed
ó graf
Ni ke</w>
i Tunes</w>
españ ol
ant as</w>
H ogar</w>
R ica</w>
Ber lín</w>
reten ción</w>
consum idores</w>
en carg
vu las</w>
am a
Pen al</w>
Clim a</w>
co ti
F O
rup ción</w>
enorm e</w>
af ecta</w>
conduc tores</w>
utiliz ada</w>
s atur
cul ares</w>
LATER AL</w>
llu via</w>
clim ático</w>
co j
nitr ógeno</w>
cerebr o</w>
ép tidos</w>
adhesiv o</w>
C PU</w>
corre os</w>
c í
Miembr os</w>
conver tido</w>
autom áticos</w>
d -
am ida</w>
í es</w>
t est
pron to</w>
l or
Tele visión</w>
on ado</w>
Cer tific
g ab
re mol
al ber
H ill
c el</w>
ap u
uti que</w>
sím bolo</w>
r ut
1 40</w>
t aza</w>
B ret
4 9
D iv
conduc e</w>
magn ético</w>
resid uo</w>
europe a</w>
2 50
Mar yland</w>
, 000</w>
jug ando</w>
O H</w>
R ue
mont añas</w>
colg ante</w>
r ar</w>
represent ante</w>
K ing</w>
Fun da</w>
frut as</w>
S en
inclu idas</w>
est ancia</w>
viv en</w>
Blu e</w>
bas ados</w>
i entes</w>
ic antes</w>
is co</w>
St .</w>
Sing ap
Án geles</w>
In f
mós fera</w>
s or</w>
G E</w>
cumpl eaños</w>
co las</w>
Etiqu etado</w>
B ad
car gas</w>
u t</w>
bar rio</w>
i eron</w>
pe dir</w>
Fes tival</w>
ens ores</w>
as s
yl on</w>
8 6</w>
ch eco</w>
cerr ado</w>
Col um
d ares</w>
fil tros</w>
CI A</w>
B arr
U U
Arm ario</w>
confi able</w>
exist ente</w>
t asas</w>
sól ida</w>
recarg able</w>
re tro
b ail
en o
ec cion</w>
prim eras</w>
it arias</w>
J ord
L or
tam años</w>
c ement
aul t</w>
Instr ucciones</w>
al da</w>
X I
sal ir</w>
l ana</w>
Cor por
prob ablemente</w>
j ard
domin go</w>
r utas</w>
Vol k
H id
creci ente</w>
Alim entos</w>
b its</w>
de partamento</w>
elec ciones</w>
diseñ ador</w>
grá ficos</w>
ab and
insp ección</w>
R adi
re ti
ar om
H ig
M E</w>
B ab
previ amente</w>
Val encia</w>
Tr es</w>
gen cias</w>
Man u
Es cri
Ma p</w>
publ icado</w>
marc ado</w>
Cas o</w>
re productor</w>
Nev era</w>
par cial</w>
mis os</w>
G in
b ack</w>
re mos</w>
am bu
Sol o</w>
actu alidad</w>
bacter ias</w>
tér mico</w>
habit antes</w>
um br
In tr
hac erlo</w>
ent ender</w>
anc as</w>
Nor uega</w>
gr eso</w>
S ev
m ort
mu ñ
l ut
raz on
fic e</w>
indic an</w>
Tod a</w>
In forme</w>
haus en</w>
Min i
labor al</w>
a é
12 5</w>
ha el</w>
inver siones</w>
aqu es</w>
ten gan</w>
O riente</w>
V it
apell ido</w>
fi que</w>
a .com</w>
satisfac er</w>
administr ar</w>
B E
cor on
esc en
ing ü
Am bi
SU V</w>
realiz ó</w>
Beb idas</w>
vi enen</w>
reg alos</w>
cu anti
absor b
z u
diseñ ada</w>
resp et
Stu dio</w>
un ido</w>
arti stas</w>
Fl ash</w>
H a</w>
S ep
En contr
a .
có modo</w>
at l
Fu e</w>
trans formación</w>
pro ve
pu di
Im pres
pint ado</w>
fi ja</w>
dibu jo</w>
H C
re vol
CON DI
c c</w>
A T</w>
és- inglés</w>
re actor</w>
Gen er
id s</w>
represent ación</w>
seleccion ados</w>
uc k</w>
eb la</w>
org ánicos</w>
re accion
financi ero</w>
r ati
est én</w>
ER A</w>
O x
ol vid
ur ales</w>
g ota</w>
Ar t</w>
is h
ven dido</w>
- l
ec h</w>
prob able</w>
I de
v éase</w>
TR O
Bol so</w>
O tra</w>
M id
con ducir</w>
alm ac
co oper
ax ial</w>
Cas ual</w>
A di
Intel ig
S ant</w>
h ú
Camis etas</w>
alquil o</w>
in sul
Venez uela</w>
d ing</w>
Sue cia</w>
extr a</w>
di vul
T it
AP ACHI</w>
parci almente</w>
O ne
c et
con f
len gu
Bit coin</w>
Pi el</w>
Gran de</w>
ser va</w>
extre mos</w>
Tour s</w>
Mi ami</w>
Ci vil</w>
V E</w>
ic ular</w>
ex ces
car dí
ti tan
ofici ales</w>
ace ites</w>
in mobili
hol andés</w>
Ac adem
h ex
L abor
16 0</w>
írit u</w>
si ble</w>
conoci das</w>
farmacéu tica</w>
euro pa
tri p
coord inación</w>
ar g
apar ecen</w>
org ánica</w>
Cu án
pi de</w>
F L</w>
F e
S el
Po wer</w>
P OR
conven cional</w>
ster dam</w>
reci cl
O ver
B a
contr as
ac ad
V an</w>
ut e</w>
bi blioteca</w>
inf o</w>
sex o</w>
CONDI CION
hard ware</w>
Tok en</w>
ide ales</w>
re forma</w>
graf ía</w>
fil es</w>
contr a
C S
ol in
on ales</w>
Con n
Fr eno</w>
garanti za</w>
reci bió</w>
perf ecta</w>
Pol onia</w>
Do wn
aux ili
k en
as s</w>
st e</w>
Pes ca</w>
7 8
conflic tos</w>
Sh ang
U AL</w>
at mósfera</w>
bill ete</w>
Sh ar
g io</w>
9 00</w>
tiv amente</w>
1. 5</w>
segur os</w>
al er
Alg odón</w>
7 9</w>
fen ó
Etiqu etas</w>
pon en</w>
aur iculares</w>
ci pl
europa .eu</w>
L es</w>
ro b
sín tesis</w>
medi r</w>
viv encia</w>
as co</w>
qui enes</w>
V W</w>
V an
correspon de</w>
ás ico</w>
cir cular</w>
em entos</w>
desempe ñ
nutri ción</w>
rodil lo</w>
c álculo</w>
Apart ments</w>
pl ayas</w>
Igu ana</w>
cer veza</w>
Ha sta</w>
estr és</w>
S ell</w>
vir tual</w>
n y
terr or
parti da</w>
concre to</w>
Z h
ad ap
co pi
emi siones</w>
al ismo</w>
- K
id ay</w>
ic s.com</w>
In donesia</w>
0, 1</w>
luj oso</w>
Medi a</w>
v ect
apropi ado</w>
defin ido</w>
Cali ente</w>
con ecta</w>
están dares</w>
2 20
B él
Oh io</w>
técn icos</w>
fam oso</w>
ais lado</w>
vir tud</w>
deb ate</w>
discrim inación</w>
. ...</w>
Prim avera</w>
L aw
Pro cedi
Instr um
Abr ir</w>
er na</w>
Br us
n ube</w>
v ín
Con stitu
diseñ os</w>
sw agen</w>
carb ón</w>
ó ticos</w>
equip ado</w>
Par tido</w>
electr odo</w>
Comer cio</w>
caus as</w>
m ult
Apart amentos</w>
ig n</w>
Deut sch
s enderismo</w>
organ ismo</w>
Eg ip
añ ade</w>
OE M</w>
199 7</w>
á culo</w>
M ano</w>
Electron ics.com</w>
produci do</w>
Much as</w>
Sourcing- Electronics.com</w>
cambi a</w>
t esti
correc to</w>
Inter ior</w>
br illo</w>
longitud inal</w>
B od
exper to</w>
Ag reg
ant emente</w>
esti r
mul til
corpor al</w>
especific aciones</w>
col lar</w>
A ten
Of rec
Dec lar
visi ble</w>
t ax
suc esiv
mi x
w ell</w>
terr eno</w>
leg al</w>
V O
fi br
elev ada</w>
pa tio</w>
Excel ente</w>
ón icos</w>
su al</w>
dul ce</w>
d ando</w>
sufici entemente</w>
s pa</w>
consul tar</w>
an aliz
M aria</w>
prim aria</w>
O h</w>
trat amientos</w>
resid entes</w>
comodi dad</w>
Bél gica</w>
circun st
fundam entales</w>
uni forme</w>
u k
bob ina</w>
Ej emplos</w>
fi la</w>
re peti
é ro
ori ficio</w>
0 -
d egrad
Car los</w>
hú me
integr al</w>
N os</w>
impl ica</w>
or it
endi entes</w>
lat erales</w>
az ul
C AL
in er
g ano</w>
ent idades</w>
3 50</w>
t ambien</w>
ne amente</w>
impl ement
Su ite</w>
molé culas</w>
afi ro</w>
anch ura</w>
ant ena</w>
ag encias</w>
particul ares</w>
ch ester</w>
C V</w>
uc hac
MP 3</w>
inici ar</w>
C ros
Audi o</w>
A CONDICION
A lu
Volk swagen</w>
Ilustr ación</w>
depor tivo</w>
inform ó</w>
as os</w>
am érica</w>
Vic toria</w>
económ icas</w>
rel ativas</w>
co cin
especi alizados</w>
m ia</w>
le er</w>
St ation</w>
ci entos</w>
export ación</w>
cri st
bat erías</w>
econ om
Natur al</w>
lá mina</w>
Deutsch land</w>
ig e</w>
AT ER
iv o</w>
itali ano-
exist encia</w>
signific ativa</w>
sem i
pes cado</w>
par eja</w>
p an</w>
ket ing</w>
mus eo</w>
entr ar</w>
flex ión</w>
o ción</w>
A qu
o p</w>
codific ación</w>
cap aces</w>
señ or</w>
10 -
ol e
sor pr
sec ador</w>
Singap ur</w>
intelig entes</w>
Polí tica</w>
fortal ecer</w>
err ores</w>
atr ás</w>
italiano- inglés</w>
b ut
S on</w>
art es
Tor re</w>
p uro</w>
Hist oria</w>
able -
cam ión</w>
B L
ur os</w>
ectiv idad</w>
an n
di visión</w>
Val oraciones</w>
O per
vid or</w>
5 mm</w>
J ack
seg mento</w>
h ilo</w>
extranj ero</w>
est an</w>
convir tió</w>
acab ado</w>
S ra</w>
reco pil
gr ave</w>
i eg
actualiz aciones</w>
interes ante</w>
aqu ellas</w>
demostr ado</w>
Et her
constru ido</w>
9 4</w>
constitu ye</w>
líqu idos</w>
correc ta</w>
P ir
Sol ar</w>
Le er</w>
pi ensa</w>
reco gida</w>
r as
l ina</w>
rat ones</w>
agr icultura</w>
meteor ológicos</w>
flex ibilidad</w>
O ne</w>
G or
tir a</w>
redon do</w>
V í
equival ente</w>
t oc
ex ceso</w>
ayud ará</w>
uc h</w>
sur -
pl en
e k
ES T
at aques</w>
ut t
Bill etes</w>
oo m</w>
adecu adas</w>
3 d</w>
plan ificar</w>
cl ara</w>
Monit or</w>
cal endario</w>
señal ó</w>
bacter i
P P</w>
estrel la</w>
Wester n</w>
oper ativo</w>
amar ca</w>
export aciones</w>
Ampl i
In alám
óm eros</w>
Re ferencias</w>
defin ir</w>
4 6
As untos</w>
l is
10 1</w>
ocur re</w>
lav adora</w>
R -
jug uetes</w>
S K
terrá neo</w>
compl ement
Contr ol
. europa.eu</w>
cu y
S ha
u a</w>
dis cipl
program ación</w>
Industri al</w>
S H
2 1
oper ador</w>
d err
ec tivo</w>
Empres as</w>
Component s.com</w>
É l</w>
mun di
orig in
qu el</w>
quil laje</w>
tol er
fu mar</w>
Seg un
S W
sab es</w>
Mic hael</w>
embr ague</w>
ac ero-
Cre o</w>
b el
si onal</w>
t ox
inglés- español</w>
indígen as</w>
ACONDICION ADOR</w>
amp a</w>
bás ica</w>
bo x</w>
P az</w>
fi si
si va</w>
L and
aprob ación</w>
R ock</w>
7 ,
grif o</w>
B A
puls era</w>
ol ig
g am
c s</w>
Stre et
Ch rist
ab o</w>
RA M</w>
fr acción</w>
activ as</w>
inoxid able-
empresari al</w>
módu los</w>
Fr ance</w>
desliz ante</w>
uc tor</w>
de z</w>
prol ong
st os</w>
Est oy</w>
c ír
co pio</w>
Proy ecto</w>
deb erá</w>
impres o</w>
ah í</w>
acero- inoxidable-
bur bu
om bi
g afas</w>
huev os</w>
ér icas</w>
A po
t n
co l</w>
T P</w>
re acciones</w>
R ev
Cor e</w>
Pue do</w>
co c
Re paración</w>
Ac ces
Autob uses</w>
con ci
8 4</w>
S D
re vi
entr adas</w>
asc ensor</w>
C M
deber ían</w>
D un
Nuestr os</w>
super visión</w>
fir mar</w>
dist al</w>
configur ar</w>
lav andería</w>
tabl ero</w>
d ónde</w>
pur ific
- relojes-
es h</w>
visi tas</w>
f eliz</w>
Con ver
f f</w>
on ic</w>
neg ra</w>
regul ación</w>
pl ic
corro sión</w>
C in
mont ado</w>
N is
Ser ver</w>
Car t
relacion ada</w>
car ril</w>
em por
El eg
199 6</w>
j ueves</w>
V I</w>
oter apia</w>
ases in
re producción</w>
O k
det ector</w>
ov as
perten ece</w>
K ir
arro z</w>
od ge</w>
ac er</w>
L uces</w>
correc tamente</w>
noctur na</w>
F ilip
encontr arás</w>
m ental</w>
ar do</w>
M all
ug h</w>
Com ida</w>
V ál
AD A</w>
previ sto</w>
ton o</w>
M ill
con juntos</w>
ent idad</w>
man u
orig inales</w>
IS O</w>
Egip to</w>
as er</w>
pl azas</w>
v ectores</w>
U N</w>
cul tiv
ac ta</w>
cuid ad
Pr on
Bici cletas</w>
arr astr
9 1</w>
dosi ficación</w>
comi enzo</w>
i x
án tico</w>
n odo</w>
Pri v
S P</w>
a tribu
man ej
T ermin
extr acto</w>
ens ambl
Señ or</w>
Fr anc
N U
k y</w>
M igu
bo oking</w>
K o
cin tur
St ock</w>
present ado</w>
E T</w>
K y
compres or</w>
ti go</w>
imen ea</w>
8 1</w>
Adapt ador</w>
il idades</w>
frecu entes</w>
Bo x</w>
S qu
Ac cidentes</w>
ino is</w>
ven ciones</w>
it arra</w>
ou t</w>
ob tiene</w>
aw a</w>
premi o</w>
lanz amiento</w>
inf ecciones</w>
M ob
at e
y an</w>
M Hz</w>
trab aja</w>
6 50</w>
tr ico</w>
ol la</w>
quirúr g
enseñ anza</w>
ra cia</w>
extrem adamente</w>
Roy al</w>
u mi
autor idad</w>
bu m</w>
Rec ep
V ES
ul e</w>
especi e</w>
Int egr
di fusión</w>
L uego</w>
C R</w>
abier tas</w>
T he
d s</w>
tex tura</w>
mic rófono</w>
Ill inois</w>
T y
reser ve</w>
glu cosa</w>
Min istro</w>
mit es</w>
cromat ografía</w>
s and
de fici
ó mero</w>
Al tern
L á
E LE
B il
S us
su gi
P ac
aut ent
B rem
pun tu
A k
g re
oxid able</w>
a hu
tempor al</w>
en den</w>
r onda</w>
Wil li
Alquil eres</w>
sinc ron
tit ular</w>
lit er
S cot
I R</w>
pertin entes</w>
conserv ación</w>
arter ial</w>
Ni ñas</w>
inser ción</w>
bl an
Ecu ador</w>
UU .</w>
W anda</w>
qui la</w>
ser ies</w>
s indic
gen era</w>
Po wer
Vent il
trat ados</w>
l adr
Veterin arios</w>
camis a</w>
les iones</w>
peligr o</w>
In cl
ól ico</w>
lin f
t s
Sourcing- Components.com</w>
secund aria</w>
ca ída</w>
introduci r</w>
min erales</w>
igh ts</w>
propi os</w>
O li
F oro</w>
pi g
propi as</w>
T ol
b añera</w>
su sp
B C</w>
s ell
b et
enc aje</w>
b oca</w>
C lín
óm ica</w>
mezcl ador</w>
Tai w
neum ático</w>
sensi bilidad</w>
s h</w>
C opa</w>
pal est
jun tas</w>
fís ico</w>
e co
amen aza</w>
at ar</w>
introd u
at ina</w>
pag os</w>
Col l
lleg a</w>
oc o</w>
Trans porte</w>
I N</w>
199 5</w>
Im permeable</w>
comp acto</w>
neu tr
op cional</w>
grab ación</w>
descri ben</w>
rodil los</w>
Mun icip
n adie</w>
t un
pen etr
A Z</w>
Merc edes</w>
llam adas</w>
activ ar</w>
u elo</w>
mol de
espaci al</w>
In oxidable</w>
ini cia</w>
continu o</w>
s íl
i ti
H -
rí g
qu eso</w>
Expres s</w>
F el
us h</w>
Pre cios</w>
Com i
To ur</w>
excep to</w>
Am az
In geniería</w>
tor re</w>
lleg an</w>
Gre en</w>
L ed</w>
V -
e v</w>
á neamente</w>
Re f</w>
observ ados</w>
inc endi
EN TE</w>
Ten nes
4 3
col ecciones</w>
me x
ó sitos</w>
l ámparas</w>
farmacéu ticamente</w>
ci ales</w>
aeron aves</w>
di gos</w>
S ex
hi ja</w>
10 4</w>
im puestos</w>
present ó</w>
min uto</w>
Ex per
Migu el</w>
cont empor
actu ar</w>
est atal</w>
Gar den</w>
l óg
Bu enos</w>
pan y</w>
desc ans
p ng</w>
D ro
Seleccion e</w>
Tennes see</w>
ju icio</w>
aliment aria</w>
p ac
K ö
R ock
Ten go</w>
cre ativo</w>
Mil án</w>
sól idos</w>
J i
fot ografía</w>
M B</w>
m y</w>
Si erra</w>
lí mites</w>
hí gado</w>
Hol iday</w>
industri as</w>
chi p</w>
m p
ci Ã</w>
ar gu
m ap
ab ón</w>
convertir se</w>
japon és</w>
prac tic
gr amos</w>
al ej
perf ect
9 7</w>
Ru man
pil oto</w>
v ar</w>
concur rido</w>
od s.
pos ee</w>
priv acidad</w>
S anto</w>
vari ables</w>
Al icante</w>
al -
su ite</w>
O bras</w>
iz adas</w>
es crito</w>
m áscara</w>
vit aminas</w>
vi era</w>
prior idad</w>
Pas o</w>
sáb ado</w>
g imnasio</w>
M ov
o o</w>
Reci entemente</w>
ent reten
esp osa</w>
b anc
carb ox
en ix</w>
continu ar</w>
bo a</w>
Vi aj
mov imientos</w>
Mó du
f echas</w>
gal ería</w>
J an
Investig ación</w>
Vill age</w>
V amos</w>
N UE
án d
anunci ó</w>
Blan ca</w>
consider ar</w>
D an
com ent
E f
DI Y</w>
Georg e</w>
Descu entos</w>
CO MP
1. 6</w>
rec t
V eri
vid e
ra í
Of fice</w>
Wo od
Glob al</w>
G afas</w>
en io</w>
podr án</w>
C M</w>
as untos</w>
garanti z
inf ect
naci miento</w>
TR I
tr ica</w>
op e</w>
un .org</w>
du al</w>
refugi ados</w>
Ni k
Especi alizadas</w>
Em ir
dificult ades</w>
9 3</w>
D orm
de dores</w>
europe os</w>
el -
vesti dos</w>
urg on
ju go</w>
añad ido</w>
inter nos</w>
Chic ago</w>
ci sión</w>
adop ción</w>
Op in
Da Wanda</w>
modific ación</w>
N ing
ón icas</w>
L ite</w>
El la</w>
calent ador</w>
form ada</w>
comb ati
MAN UAL</w>
mac os</w>
ci do</w>
pl aza</w>
diam ante</w>
Americ an</w>
des p
n í
d ueño</w>
E D
alg orit
dem and
C arm
Street Map</w>
Alu minio</w>
K ing
Di ego</w>
Premi um</w>
T os
L am
re ales</w>
S um
t oría</w>
lu br
F ri
Open StreetMap</w>
S port
r é
n ación</w>
responsab les</w>
bi o</w>
Le ón</w>
fi jo</w>
Ph ili
ve la</w>
artifici al</w>
C B
Fabr icante</w>
ir án</w>
sil la</w>
A M</w>
li o</w>
inter acción</w>
adop tar</w>
Con greso</w>
r ent
An illo</w>
Enc aje</w>
ON U</w>
favor itos</w>
D om
Princip ales</w>
ul ador</w>
moder nos</w>
C le
bo t</w>
compl ejos</w>
Wh ite</w>
permitir á</w>
con jug
Procedi miento</w>
des cubierto</w>
barr era</w>
ab sol
embar az
F I</w>
L IN
bici cletas</w>
d ale</w>
inclu sión</w>
nucle ico</w>
port ador</w>
configur ado</w>
exac ta</w>
ec k</w>
ser es</w>
mit en</w>
t ados</w>
Actu almente</w>
s eda</w>
Con ex
conten edor</w>
d ot
Ace ite</w>
Pau l</w>
acces s-
funcion alidad</w>
30 4</w>
Reser ve</w>
ul osa</w>
llev ado</w>
ú menes</w>
est at
lev ant
W all
M O</w>
independi entemente</w>
M ah
veterin arios</w>
Fl ores</w>
S ER
Mu y</w>
cal les</w>
tric es</w>
Host ales</w>
posi tiva</w>
d access-
ods. un.org</w>
daccess- ods.un.org</w>
M adera</w>
fron tera</w>
i Pad</w>
ventil ación</w>
199 4</w>
12 .
independi entes</w>
fl ash</w>
r aci
sal idas</w>
ci garr
man go</w>
Herrami enta</w>
circunst ancias</w>
p í
agit ó</w>
Cal le</w>
vari ar</w>
min as</w>
pr ést
posteri ormente</w>
lin es</w>
est rech
1. 0</w>
mo tivo</w>
l ob
resp eto</w>
t ing</w>
et ería</w>
Bre akfast</w>
cor tos</w>
Super mercados</w>
Res ist
Gu ad
fluor esc
es quina</w>
Amar illo</w>
hac erse</w>
G ay</w>
b ano</w>
ch ocolate</w>
h ará</w>
Incl uso</w>
Fi g</w>
M ün
sulf ato</w>
í fer
J A</w>
i fer
pol lo</w>
matr imonio</w>
Con oc
fl oral</w>
combusti ón</w>
femen ino</w>
ós ticos</w>
típ icamente</w>
síl ice</w>
ex it
R a
son da</w>
nucle ar</w>
C AM
aj onia</w>
expl ica</w>
t ob
f e
acompañ ada</w>
inter iores</w>
2. 5</w>
dr ome</w>
ol it
N eces
tu vieron</w>
estad ísticas</w>
N ot
e cológ
p éptido</w>
LA N</w>
l ent
Mal l</w>
cont amin
contribu ir</w>
c en
c ajas</w>
escri bir</w>
escol ar</w>
tras lado</w>
Mar bella</w>
rell eno</w>
r osas</w>
est atu
M az
2, 5</w>
Direc tiva</w>
Fig uras</w>
cu al
caf etera</w>
in ess</w>
Val ley</w>
Filip inas</w>
Com probar</w>
ul l
pe dido</w>
F is
im primir</w>
combin ado</w>
man ejo</w>
n am</w>
des vi
ch al
sof á</w>
intr oduc
cat álogo</w>
Beb é</w>
5 8
uc e</w>
In di
c ena</w>
Host el</w>
Q uer
J usticia</w>
Seri es</w>
mat e</w>
preced entes</w>
so cios</w>
ógraf o</w>
pres er
tr y</w>
Agreg ar</w>
I S</w>
S I</w>
Su s</w>
superfici al</w>
ab str
4 4
ombr a</w>
import ación</w>
Oc cidental</w>
solu ble</w>
cor ri
cion a</w>
vist azo</w>
ti erras</w>
l et
concentr aciones</w>
con sta</w>
cas co</w>
deleg ación</w>
Pal acio</w>
negoci aciones</w>
avanz ada</w>
ü s
cel da</w>
3 G</w>
as hi
oblig aciones</w>
cr ónica</w>
bu enos</w>
color ido</w>
titan io</w>
Gal ería</w>
lin k</w>
fár macos</w>
co inci
vin ilo</w>
Fabr icantes</w>
gr ía</w>
I ra
Sist emas</w>
exac tamente</w>
terc eros</w>
hí dr
J ack</w>
C P</w>
N ational</w>
n -
car as</w>
d .</w>
en aje</w>
Comun icación</w>
cat al
P AS
met od
suj e
Con figur
Bret aña</w>
env ía</w>
Val le</w>
AN T
o us</w>
Her m
ver ificación</w>
Mal asia</w>
h all
re r</w>
Constr ucción</w>
quier en</w>
F ern
produc tividad</w>
necesit as</w>
inc ap
WHOLESAL E
O P
j unt
trans misor</w>
posi cion</w>
en chufe</w>
ati c</w>
. info</w>
ind i</w>
Ma c</w>
adolesc entes</w>
Re f
K at
En fer
grav edad</w>
Ap k</w>
lig ht</w>
An un
contin úa</w>
ne z</w>
extranj eros</w>
Fin landia</w>
Bom ba</w>
pará metro</w>
TE CHO</w>
p ena</w>
f -
So ut
Mé todo</w>
sens ación</w>
prop ileno</w>
desaf íos</w>
Tur ismo</w>
her encia</w>
tray ect
cuadr ado</w>
avent ura</w>
disper sión</w>
Par ed</w>
cep illo</w>
IF I</w>
D ort
in c</w>
habit ualmente</w>
car tas</w>
trabaj an</w>
magn esio</w>
patr ones</w>
bier on</w>
em is
Enl aces</w>
logr o</w>
numer osos</w>
il ar</w>
molé cula</w>
Mar tin</w>
trat ado</w>
Al am
hu mo</w>
Cor t
bo quilla</w>
especi alistas</w>
per files</w>
co g
ans as</w>
cuadr ados</w>
termin ales</w>
a sta</w>
An g
m entación</w>
h ada</w>
Entr adas</w>
pres ion
s mar
l ector</w>
Compar e</w>
ayud an</w>
Marr ón</w>
esc ena</w>
Gr andes</w>
qui én</w>
ag encia</w>
te atro</w>
perman ecer</w>
m asi
judi cial</w>
V egas</w>
T F</w>
Dort mun
p ad
G E
usti n</w>
cor r
or f</w>
transmi tir</w>
á culos</w>
ma íz</w>
do bles</w>
po ol</w>
1. 4</w>
Lar ga</w>
C ES
par ada</w>
hi p</w>
Pres u
ll enado</w>
Fi bra</w>
abr isas</w>
bos que</w>
elev ación</w>
pist ón</w>
Declar ación</w>
arreg lo</w>
esqu ema</w>
R U
bene ficio</w>
f urt</w>
I di
Situ ado</w>
ic ano</w>
ur y</w>
SV G</w>
ér icos</w>
T w
P endientes</w>
Inter ruptor</w>
ol u
T es
cier ta</w>
fuer tes</w>
p úrpura</w>
Cu ello</w>
i fica</w>
mar ino</w>
Fin anci
en vol
em ática</w>
no tific
re tras
pur ificación</w>
conect ados</w>
f ina</w>
recep tores</w>
H e</w>
higi énico</w>
est amp
pre determinado</w>
2 40</w>
inst ant
A P</w>
plan eta</w>
00 1</w>
prot ectora</w>
bur y</w>
ag ón</w>
Cap acidad</w>
ó tidos</w>
apell idos</w>
elabor ación</w>
w olf</w>
doc tores</w>
almacen ar</w>
I bi
equip aje</w>
por ciones</w>
Cr y
ant i</w>
Des carga</w>
l act
S n
su ero</w>
mec ánico</w>
5 7
pl eno</w>
metab ol
Patr ón</w>
Secre taría</w>
- relojes</w>
inflam ación</w>
te oría</w>
p est
cul pa</w>
ant ígeno</w>
man eras</w>
fun dido</w>
dese able</w>
prol ifer
C entre</w>
Prefer iblemente</w>
we en</w>
Re y</w>
y r
funcion ales</w>
N ok
Gro up</w>
fun da</w>
S impl
M ON
endi endo</w>
op cionalmente</w>
grab ado</w>
Ch am
ést e</w>
uc a</w>
r urales</w>
ec tivos</w>
B and
C ant
cerr ada</w>
o ver
bien ven
d era</w>
átom os</w>
D ado</w>
F eliz</w>
B otas</w>
r ía</w>
N iv
Al f
mon um
Cre ma</w>
Pl at
D M
Super ior</w>
cu t
comb ina</w>
sili os</w>
C K</w>
ori ales</w>
St ar
é poca</w>
j eron</w>
3 4
in cid
encu entro</w>
sk i</w>
ac as</w>
contras eña</w>
pron unci
P ak
Chaqu etas</w>
y entes</w>
pot enci
oy a</w>
Bar atos</w>
Ch amp
bar ata</w>
PU ER
cali entes</w>
materi as</w>
g or
Lin k</w>
cad enas</w>
salud able</w>
DV R</w>
ch ina</w>
al i</w>
er t
impl ic
St utt
monit or</w>
i que</w>
per der</w>
man a</w>
fac tur
Hun gría</w>
vis cos
mín ima</w>
O t
a tico</w>
Re tro</w>
di os</w>
bord es</w>
ag on</w>
pi z</w>
A .</w>
ej es</w>
b ah
cap it
Form a</w>
de uda</w>
M agn
D ub
Cre ek</w>
iny ect
prop ag
C anc
trib utos</w>
h os</w>
Mon te</w>
mol deo</w>
oci tos</w>
env ej
R S
re fuerzo</w>
ll eno</w>
O S
ul ado</w>
v or
gas olin
aj u
cur va</w>
constr uc
R he
est ando</w>
tu los</w>
et h</w>
Din amarca</w>
vari edades</w>
secund arios</w>
Gin ebra</w>
Air es</w>
9 25</w>
determin ados</w>
bot ellas</w>
h ayan</w>
institu ción</w>
F res
arti cul
ac ti
P R</w>
u ret
di fica</w>
enfr ent
veterin ario</w>
Vid eo</w>
per ia</w>
Pen siones</w>
rit mo</w>
on y</w>
amor tigu
instal ado</w>
P O</w>
ten ían</w>
5 6
mi dific
perfor ación</w>
Seg uro</w>
co pa</w>
B ern
pi n</w>
c ajeros</w>
profes or</w>
men cionado</w>
ad ic
din ámica</w>
R GB</w>
compren sión</w>
y ente</w>
Que darse</w>
del ante</w>
cumpl e</w>
In diana</w>
Est amos</w>
It ali
di ble</w>
estadounid enses</w>
direc torio</w>
P ho
h at
muer zo</w>
le -
bi t</w>
W is
contribu ción</w>
Joh n
Top s</w>
Profes ional</w>
podr ás</w>
combin aciones</w>
rot or</w>
cement erios</w>
Estudi o</w>
lín dr
W eb
cer tificación</w>
vi ejo</w>
Nis san</w>
Ir án</w>
increm ento</w>
l una</w>
V all
progr eso</w>
D ani
pl om
DE R</w>
g ig
recur so</w>
cr omo</w>
sk y</w>
j ar
W IFI</w>
B est</w>
previ a</w>
g ato</w>
alm a</w>
N C</w>
des til
pan or
ste m</w>
c ac
an si
prefer ido</w>
C AS
vid as</w>
super vivencia</w>
relev antes</w>
ex p
ob e</w>
ci viles</w>
Alg unas</w>
ama ha</w>
cart ón</w>
A pr
ps d</w>
IE Z
I g
M aur
Cu alqui
h éro
conver tir</w>
prepar ado</w>
i se</w>
at er
H 2
inglés- ruso</w>
asoci ada</w>
E pis
Cir ugía</w>
Caf é</w>
conform e</w>
elim ina</w>
PRIC E</w>
maestr o</w>
Ser v
co ordin
no w
mi st
me d
gab inete</w>
abord ar</w>
Dri ve</w>
compro me
Cons ejos</w>
per if
ci líndr
Col ores</w>
c ast
po bres</w>
Ac ep
ol as</w>
recuper ar</w>
clín ica</w>
Archiv os</w>
cel ulares</w>
O O
cu entan</w>
ér g
Sev illa</w>
Joy ería</w>
us or</w>
pi entes</w>
US A</w>
c ede</w>
US D</w>
ab ia</w>
P aris</w>
mangu era</w>
R A</w>
Tr en</w>
reg la</w>
entreten imiento</w>
cat éter</w>
ne v
G ast
OF FER
- 1
afect an</w>
E val
S PRICE</w>
OFFER SPRICE</w>
obten idos</w>
esp íritu</w>
mun icip
G B
re -
eri fe</w>
de posi
polip éptido</w>
Palm a</w>
dent istas</w>
lin do</w>
pi edras</w>
S Q
evid encia</w>
Ejecu tivo</w>
tab las</w>
person alizada</w>
Micro ondas</w>
D or
St an
apar atos</w>
Ampli ación</w>
extr u
Reg ión</w>
grá fica</w>
K it
ch er</w>
z afiro</w>
mostr ará</w>
tran quil
integr idad</w>
difer enci
elev ado</w>
tr acto</w>
Publ icado</w>
Ad visor</w>
hor ario</w>
priv ados</w>
int ent
uch e</w>
cons ej
libr erías</w>
expl orar</w>
b an</w>
J AZ
6 4
Cor ona</w>
P ack</w>
re vista</w>
ch i</w>
Nok ia</w>
Academ ia</w>
cin as</w>
exten dido</w>
o ol</w>
men o</w>
T PU</w>
Vel oci
Ex tre
S at
ur ación</w>
h eb
Technolog y</w>
sat el
do bl
respon der</w>
celebr ación</w>
con ferencias</w>
fit ness</w>
distribu idores</w>
í ble</w>
or amiento</w>
E mpl
re to</w>
Bl ack
micro bi
cu bre</w>
TOR Y</w>
Lis boa</w>
có digos</w>
10 6</w>
e ar
Mall orca</w>
em isión</w>
u ecos</w>
raí ces</w>
2 10</w>
rel ativo</w>
m ucha</w>
complet ar</w>
Di bu
preg unt
r ub
8 9</w>
H U
h ep
an al</w>
To wn</w>
u an</w>
tab aco</w>
trip wolf</w>
JAZ Z</w>
pul m
C lo
ok e</w>
Over view</w>
l a
relacion ado</w>
Sol ici
esper ar</w>
I D
vect orial</w>
dirig ida</w>
I -
EE .
im án</w>
A cerca</w>
financi eras</w>
lim pia</w>
bas adas</w>
Presu puesto</w>
C int
F ull</w>
us as</w>
H um
Brem en</w>
impl ant
C y
dese e</w>
an que</w>
le e</w>
M ayo</w>
Do cum
emple ado</w>
l i</w>
ell ón</w>
St ore</w>
asign ación</w>
MAR KE
cre en</w>
restric ciones</w>
Li bra</w>
band as</w>
G on
investig aciones</w>
Es per
hidrául ico</w>
ex ci
mo chila</w>
Le e</w>
administr ador</w>
cal cular</w>
ov e</w>
T u</w>
En ter
Conven io</w>
mand ato</w>
col on
z os</w>
O B
n á
a gru
UN ES
U L
al ent
autén tico</w>
res orte</w>
K -
Le ip
Soci edad</w>
v es</w>
bás ico</w>
b ares</w>
Riv er</w>
Vi et
descubr ir</w>
tr acción</w>
pir able</w>
üs sel
excel entes</w>
l ando</w>
al tavoz</w>
man z
AS T
lig era</w>
Pl anta</w>
ev apor
ampli ar</w>
fin o</w>
is o
M ens
perfect amente</w>
quím ico</w>
oc é
f ar
e u
Vid rio</w>
at i</w>
univers idad</w>
et anol</w>
on ato</w>
det eri
sal e</w>
S TE
a tributos</w>
au x</w>
til idad</w>
8 7</w>
conoc en</w>
cali br
ag as</w>
pec ab
cont ar</w>
am ante</w>
li m</w>
vál vulas</w>
viscos idad</w>
G RA
hu bi
G N
log otipo</w>
Vi ew</w>
dis puestos</w>
vir tu
re versa</w>
mic ros
i k</w>
Intelig ente</w>
visu alizar</w>
fi a</w>
Fon dos</w>
or idad</w>
lav avajillas</w>
pecab ezas</w>
cap tura</w>
RE N
li stas</w>
L ab
st ers</w>
antigu os</w>
Marr uecos</w>
p .
dic as</w>
par es</w>
S hi
M ach
gasolin eras</w>
Gol d</w>
insul ina</w>
s dorf</w>
dist ancias</w>
mo tivos</w>
ambu l</w>
D ual</w>
automati c</w>
Tr av
F err
P hot
D üssel
mon edas</w>
I B
o .</w>
bot ones</w>
Jam es</w>
adqui sición</w>
reduci do</w>
ac lar
v entes</w>
J ef
k in</w>
eri r</w>
Us ado</w>
P unta</w>
s ello</w>
dimen sión</w>
fic aciones</w>
F it
interes ados</w>
p iz
limpi ar</w>
despl eg
e cia</w>
Vi ena</w>
Reg alo</w>
K h
re al
f o
cintur ón</w>
EMP IEZ
ap enas</w>
No che</w>
sig nos</w>
Bal cón</w>
Z A</w>
diseñ ados</w>
ul tra</w>
as sic</w>
EMPIEZ AN</w>
mon oc
gir o</w>
Por que</w>
pr estar</w>
lider azgo</w>
N et</w>
izquier do</w>
du la</w>
RF ID</w>
res umen</w>
S af
oper adores</w>
al o
P ad
dr á</w>
Prim era</w>
dirig ido</w>
terror ismo</w>
di ción</w>
T ác
ó tico</w>
a cor
Prom oción</w>
Con cep
Bi g</w>
Mo unt</w>
ro om</w>
Equi pos</w>
numer osas</w>
estructur al</w>
in geni
t ac
funcion ar</w>
Cur so</w>
Trat amiento</w>
magn ética</w>
Tub o</w>
8 3</w>
8 00
ll ave</w>
reempl az
em pr
Ten erife</w>
Mil itar</w>
pre determinada</w>
di suel
V EN
ten si
oc es</w>
j usti
Net work</w>
nacion alidad</w>
Ber lin</w>
bom bas</w>
carr eras</w>
m s</w>
anun cios</w>
mon ol
199 0</w>
tr atos</w>
satisf acción</w>
In form
el ástico</w>
có p
patrocin ado</w>
des eo</w>
pre v
oc cidental</w>
llam ar</w>
c i</w>
fer as</w>
déc ada</w>
actu alizado</w>
cul tivos</w>
fin landés</w>
Col or
Est ambul</w>
empe z
horm ig
col ch
propiet arios</w>
id en</w>
cu s</w>
S port</w>
signific ativo</w>
port átiles</w>
destr ucción</w>
indic ar</w>
H amp
p .</w>
Gu antes</w>
gr asos</w>
ud as</w>
Trip Advisor</w>
Pr oducción</w>
is ra
descrit as</w>
sensi ble</w>
tur ístico</w>
bo los</w>
De porte</w>
f ur
ubic ada</w>
bo ur
Brus elas</w>
fis cal</w>
id én
descu entos</w>
pa sta</w>
Cap e</w>
Dis pon
f ro
cap tur
p u</w>
Qui ero</w>
o gen
bi l</w>
avi era</w>
viol ación</w>
dist as</w>
re torno</w>
verd adero</w>
dedic ado</w>
DIREC TORY</w>
car tera</w>
t amp
UNES CO</w>
A condi
quím icas</w>
proporcion ando</w>
Bol sos</w>
acr il
Bom b
empl ado</w>
WHOLESALE DIRECTORY</w>
C ep
Fi esta</w>
yl ing</w>
ejecu tivo</w>
experim ent
ra íz</w>
parti ci
Valent ín</w>
Restaur ant</w>
r in
deci dió</w>
Spr ings</w>
hon or</w>
ál bum</w>
buc le</w>
A D</w>
enz ima</w>
So y</w>
pe p
ad mi
S pa
Í A</w>
s osp
ól ogos</w>
us h
Squ are</w>
integr ada</w>
Emir atos</w>
priv adas</w>
Ár abes</w>
di óxido</w>
her mano</w>
prim as</w>
fes tival</w>
In st
in cu
umbr al</w>
n otas</w>
efic aces</w>
D est
som os</w>
estudi ante</w>
und ai</w>
m L</w>
español -inglés</w>
Mis so
F E
Ven ecia</w>
SI M</w>
h one</w>
F ir
ilu min
llev an</w>
is t</w>
Cab o</w>
pu r</w>
solici tudes</w>
jard ines</w>
Medi cina</w>
suje ción</w>
int elec
de x</w>
val i
norm ales</w>
a ustr
ej erc
ometr ía</w>
Gran ada</w>
De be</w>
6 6
compati bles</w>
ban deja</w>
regul armente</w>
Cambi o</w>
cabez al</w>
Si empre</w>
unt ain</w>
realiz acion</w>
Mó vil</w>
formul aciones</w>
Prot ector</w>
exam inar</w>
K al
ut er</w>
consul tas</w>
ejecut ar</w>
contr aste</w>
est óm
expl oración</w>
es pon
u vo</w>
vas os</w>
Por to</w>
ob tén</w>
profun do</w>
Con ector</w>
qu iz
e w
Si ria</w>
Trat ado</w>
bat alla</w>
apropi ada</w>
ASI AN
sufici entes</w>
inten ción</w>
CH A</w>
- L
MARKE TS</w>
hu eco</w>
dis capacidad</w>
brasile ño</w>
repar ar</w>
pre vista</w>
band era</w>
ang zhou</w>
Cro acia</w>
Z ar
t ard
cons ci
Pl ástico</w>
ASIAN MARKETS</w>
Smar t
eleg ido</w>
su pone</w>
Pol ic
transpar encia</w>
cur v
an ivers
Pl aca</w>
ij ing</w>
plata formas</w>
igh t
P M</w>
in adecuado</w>
ó logo</w>
ar ían</w>
mi el</w>
ic t</w>
S eb
G én
li e</w>
T as
Pho enix</w>
d ental</w>
7 7
regul ador</w>
vi n</w>
energ éticas</w>
av o</w>
TR O</w>
Te atro</w>
Ne um
in k
bar bacoa</w>
Bar ato</w>
es ía</w>
as ado</w>
G as
cap ucha</w>
Or den
lo ween</w>
b ack
proced entes</w>
p echo</w>
ed entes</w>
Hy undai</w>
el e</w>
señ oras</w>
viol aciones</w>
Mob ile</w>
1 1.
Mot ocicleta</w>
Ch eca</w>
sist encia</w>
TR AS
cr isti
ad er</w>
k s
P ur
fam osa</w>
mar í
á st
R ub
di esel</w>
realiz an</w>
ór gano</w>
pl ex</w>
Pac ífico</w>
isra el
infr arro
Y amaha</w>
Premi o</w>
les s</w>
. net</w>
Cas ino</w>
R an
C oj
en ca</w>
mejor as</w>
Bol i
Distr ict</w>
d ri
apoy a</w>
lleg ó</w>
10 5</w>
Col orado</w>
ll ena</w>
refl eja</w>
resid encial</w>
estóm ago</w>
O ber
L ight</w>
F emen
peri o
j ud
am s</w>
habil itación</w>
R at
Veloci dad</w>
Char les</w>
esti los</w>
Col g
M EN
trayect oria</w>
ministr os</w>
k ok</w>
Situ ación</w>
determin adas</w>
Ho la</w>
r ico</w>
j i</w>
liqu idación</w>
Col onia</w>
12 V</w>
hidr ó
en car
domin ios</w>
posi cionamiento</w>
ing a</w>
mic ro</w>
in te</w>
bord ado</w>
2. 0
Ni ño</w>
tr om
sit úa</w>
in cub
hí br
preci so</w>
Ul tra</w>
om er
suj etos</w>
L ámparas</w>
Shang hai</w>
mun icipio</w>
mejor ado</w>
lengu aje</w>
Dis tribu
M .</w>
em paqu
lim pio</w>
act úa</w>
democ racia</w>
m es
gen uino</w>
Mas s
tam bor</w>
N Y</w>
veget ales</w>
re puesto</w>
gr ano</w>
hig an</w>
tub ular</w>
expl o
seg mentos</w>
bi n</w>
M D
ob serva</w>
em in
fenó meno</w>
des crita</w>
V o
br icas</w>
Em baj
preci sa</w>
acero-inoxidable- caja</w>
a cont
1 A</w>
OR ES</w>
si de</w>
implem entar</w>
Entr ada</w>
apar iencia</w>
s y
polimer ización</w>
b it
X i
Misso uri</w>
Constitu ción</w>
in dependencia</w>
Mant en
gal van
espec tro</w>
L ago</w>
G all
activ ado</w>
D H
ed ero</w>
franc és-inglés</w>
Frank furt</w>
Dorm it
tum or</w>
realiz ada</w>
AL E</w>
univers idades</w>
fant as
pod ía</w>
h og
M ec
Mic higan</w>
ch in
amen azas</w>
profun da</w>
m uchac
bi rá</w>
v amente</w>
X peria</w>
H aw
Lon don</w>
Cab ello</w>
inglés- polaco</w>
leg ales</w>
G S</w>
p et
p osa</w>
Viet nam</w>
ue bl
adapt ación</w>
aut ores</w>
C ot
A fric
iz an</w>
gros or</w>
si ento</w>
ton os</w>
apart ado</w>
im porta</w>
contr ast
Hon duras</w>
secund ario</w>
k ini</w>
SM D</w>
Mun do</w>
democ rá
an -
bol as</w>
afect ar</w>
ver á</w>
trop olit
nucle ares</w>
mas aje</w>
Rec ur
an dos</w>
S F
Sep tiembre</w>
Po sición</w>
ic ult
con ciencia</w>
li tros</w>
S in
mon d</w>
ej empl
e ada</w>
A cr
sust an
Prot ocolo</w>
Gu ard
su ma</w>
Bus iness</w>
á rez</w>
ec tion</w>
d y</w>
os cil
Wat ch</w>
per dido</w>
an illos</w>
A V</w>
in und
199 3</w>
escen ario</w>
rodil la</w>
En viar</w>
L S</w>
Dem oc
super ar</w>
Epis odio</w>
conect ada</w>
M ira</w>
Centr os</w>
cabal lo</w>
I R
bal l</w>
of f</w>
il ación</w>
ro bot</w>
Ro se</w>
Be ijing</w>
conmut ación</w>
cír culo</w>
observ aciones</w>
M uebles</w>
p á
am antes</w>
B ob
ver des</w>
W ol
lam ent
ad illa</w>
líqu ida</w>
WHOLESAL E</w>
vivi endas</w>
al erg
w or
B is
Econ omía</w>
ut ación</w>
N ig
re combin
intelig encia</w>
d ada</w>
ver duras</w>
ok .info</w>
monol ok.info</w>
pal anca</w>
G EN
mon t</w>
DER E
loc alizado</w>
avi a</w>
proy ector</w>
Inalám brico</w>
B ut
Reg ional</w>
we ar</w>
tuber ías</w>
electr odos</w>
deriv ado</w>
u x
Mo chila</w>
plen amente</w>
impres cin
individ uos</w>
ar as</w>
fl or
uret ano</w>
res c
min eral</w>
un irse</w>
Elec tri
excep ción</w>
Ben z</w>
.0 4.
1 12</w>
realiz adas</w>
P un
Alim entación</w>
S R
d eg
cuidad osamente</w>
dis puesta</w>
tamp ón</w>
Re present
án dol
EU R</w>
tendr án</w>
ac ús
cientí fica</w>
Liv e</w>
So sten
aseg ura</w>
V in
energ ética</w>
B et
Mar cos</w>
satel ital</w>
D re
escuch ar</w>
jug ó</w>
sol ares</w>
1. 8</w>
l ia</w>
os idad</w>
t emplo</w>
intest inal</w>
cab ina</w>
c era</w>
colum nas</w>
anivers ario</w>
mill ón</w>
DE N
Ch el
S .</w>
arr e</w>
man n</w>
lam ar</w>
hu eso</w>
4 50</w>
P T
4x 4</w>
Franc és</w>
estre cha</w>
coloc ar</w>
sil los</w>
Sand alias</w>
Ventil ador</w>
Bo utique</w>
e c</w>
Re ferencia</w>
Ci encia</w>
restr ing
17 0</w>
Mez cl
P eter
cal ific
con es</w>
Fli x
Al b
c ura</w>
M ak
w a</w>
h indi</w>
cons ejos</w>
aprob ado</w>
Ar tes</w>
norm a</w>
ch ain</w>
Mic ro</w>
é tn
env ase</w>
ch or
h en
L aur
ent s</w>
vic e
eci do</w>
B loc
A G</w>
modific aciones</w>
br uto</w>
bi om
cel ulosa</w>
A 1</w>
m acho</w>
E ast
j am
An dr
é mico</w>
ingr es
K am
redon da</w>
contr atos</w>
h áb
explot ación</w>
ex e</w>
k ey</w>
Veh ículos</w>
pot ente</w>
asoci adas</w>
agrí cola</w>
señ ora</w>
PL C</w>
P os
In ici
us t</w>
bi endo</w>
es encialmente</w>
Cu ál</w>
UN A</w>
gust aría</w>
realiz ados</w>
l ast
muñ eca</w>
C ór
reci ben</w>
pot asio</w>
asi mismo</w>
su ger
10 8</w>
tic s</w>
dej ó</w>
const antemente</w>
preci s
in aug
servi r</w>
li st
electr om
Rue da</w>
suministr ar</w>
enz imas</w>
.04. 2018</w>
ch imenea</w>
k en</w>
UR A</w>
nervi oso</w>
bienven ida</w>
el ar</w>
control ada</w>
Reg istro</w>
neg ativo</w>
A F
al b
inglés- checo</w>
sili cio</w>
comb inar</w>
R io</w>
D a</w>
Est rel
estudi ar</w>
Bang kok</w>
sín drome</w>
SI DA</w>
trast orno</w>
paral elo</w>
n ab
G h
Sof tware</w>
aprovech ar</w>
ip e</w>
ad vers
impresion ante</w>
plan chado</w>
observ ar</w>
di n</w>
f er</w>
co h
trav es</w>
k in
R et
vac una</w>
Lav adora</w>
tur istas</w>
st em
frag mentos</w>
atr a
pér didas</w>
u v
pí x
ól icos</w>
medi o
Comer cial</w>
modific ado</w>
L ev
pas eo</w>
Hill s</w>
an exo</w>
r ara</w>
R aci
H orno</w>
hi los</w>
esper anza</w>
Módu lo</w>
in duci
Re productor</w>
solici tar</w>
Universi ty</w>
tum ores</w>
clín icos</w>
p uso</w>
as equi
Descu bre</w>
Boli via</w>
CON DUC
de presión</w>
T ir
LI VES
ari z</w>
PC B</w>
ven der</w>
A h
He al
Gu est</w>
- H
C T
seleccion ada</w>
man gas</w>
LIVES TORE</w>
Ten is</w>
é mica</w>
pro pone</w>
Por sche</w>
Pr aga</w>
suj et
vecin os</w>
en h
enc anto</w>
Almacen amiento</w>
ri os</w>
habl ando</w>
comprim ido</w>
Len ovo</w>
E G
Al mo
clás ica</w>
Com pany</w>
dig it
im posible</w>
PN U
P eter</w>
simult áneamente</w>
Taiw án</w>
Propi edad</w>
det ención</w>
TH AN</w>
inten si
del gada</w>
Ch ev
pendi entes</w>
ativ e</w>
correspon den</w>
Res eñas</w>
re conoce</w>
To m</w>
pen siones</w>
al ar
difíci les</w>
C P
ni ebla</w>
i ano</w>
an cl
H arr
GRE ATER
p éptidos</w>
n et
GREATER THAN</w>
pro v
so pl
Res puestas</w>
Gr ab
15 .
Mot o</w>
observ ación</w>
Mar t
PC R</w>
fosf ato</w>
to allas</w>
onc esto</w>
Prim er</w>
filtr ado</w>
c aza</w>
adi tivos</w>
no ches</w>
Br and
5 2
organiz ar</w>
Preg unta</w>
Sex y</w>
á les</w>
contribu ciones</w>
aco g
í metro</w>
in da</w>
h y
8 ,
B elleza</w>
F lo
P ab
de do</w>
13 .
L R</w>
bas tidor</w>
huev o</w>
naci do</w>
favor ito</w>
ad esh</w>
preten de</w>
cas tillo</w>
Domin icana</w>
G T
compl ej
cli p</w>
su br
re fin
is las</w>
h embra</w>
at en
cosmé ticos</w>
L ima</w>
D ir
asoci aciones</w>
Pl ay</w>
pas ó</w>
crip t</w>
h echas</w>
ori ental</w>
medi dor</w>
estu vo</w>
Gu ar
merc anc
ti ble</w>
neces ariamente</w>
9 ,
compl icaciones</w>
amb ú</w>
un try</w>
min ut
H oja</w>
re j
exter iores</w>
S N
alm id
Lim pieza</w>
gan cho</w>
M enos</w>
M ER
es fera</w>
pens ar</w>
pi ez
Intr oducción</w>
ad ar</w>
incid encia</w>
util ice</w>
W ind
qu et</w>
AR N</w>
pre ferencia</w>
pres ti
at ac
Cu enta</w>
C err
e f</w>
pobl aciones</w>
candi d
super vis
compro b
k ar
é sta</w>
veget al</w>
Idi omas</w>
mencion ados</w>
util idad</w>
IN TER
ester ol</w>
recor d
tall er</w>
re activo</w>
Encontr ar</w>
Tr in
T ac
Mus eum</w>
a fin
activ amente</w>
o ur</w>
utiliz adas</w>
ag re
sigui ó</w>
coloc ación</w>
pos e
exter nos</w>
Cor n
p ó
prác ticamente</w>
Ibi za</w>
Segun da</w>
tr ama</w>
ocasi ones</w>
L leg
Cas tillo</w>
st and
7 00
2. 2</w>
óp tima</w>
mi siones</w>
diver tido</w>
met anol</w>
Di visión</w>
t ano</w>
ieg ue</w>
combati r</w>
Flor encia</w>
Ay uda</w>
inver n
avi ones</w>
if t</w>
cubr ir</w>
dom ici
1 .</w>
Bul g
enz hen</w>
ampl ificador</w>
est adio</w>
an fi
ap ado</w>
dem uestra</w>
bos ques</w>
cuch illo</w>
En g
mol es</w>
plás ticos</w>
Pul gadas</w>
- subcat</w>
sal as</w>
L ucky</w>
o ur
part ícula</w>
Plan cha</w>
mam ífer
Camis as</w>
ob tuvo</w>
Equip amiento</w>
vesti r</w>
iv os</w>
c én
par ejas</w>
N á
p eces</w>
imprescin dible</w>
ag itación</w>
pi dió</w>
ex cur
Aut o
ol o</w>
G el</w>
ue ños</w>
pu reza</w>
cápsu las</w>
Esco cia</w>
adapt ado</w>
1. 2</w>
Carm en</w>
n ylon</w>
comi enz
ógen os</w>
mi edo</w>
actu alizar</w>
Am er
pe z</w>
ing er</w>
human idad</w>
W it
E F</w>
sal en</w>
cam pe
ha us</w>
L ang
patr imonio</w>
ol iva</w>
grad u
T EN
Rober t</w>
wit ter</w>
w i
novi a</w>
ver tic
plás tica</w>
mostr ada</w>
r ica</w>
hosp it
com end
ve a</w>
faci al</w>
uni versi
dis cre
S pl
Ren ault</w>
Cl assic</w>
Fin almente</w>
G Hz</w>
dispon en</w>
múltipl e</w>
y es</w>
aguj eros</w>
X X</w>
D N
es feras</w>
ú l
beb és</w>
uc ía</w>
Pop ular</w>
Bus ca</w>
indic ó</w>
fom entar</w>
w al
P iz
ativ idad</w>
desempe ño</w>
A B</w>
at erales</w>
trad ucciones</w>
rel ativos</w>
medi ados</w>
expl or
D U
vas o</w>
L P</w>
z inc</w>
sencil la</w>
Compr ado</w>
cerr ar</w>
femen ina</w>
su la</w>
tri bunal</w>
estat ales</w>
ac ho
cardi ovas
part amentos</w>
hi po
edi t
Par ti
con dado</w>
til l
qu en</w>
or s</w>
Opin iones</w>
Jes ús</w>
mús culos</w>
v aría</w>
Tr áfico</w>
H igh
Ay ú
ad ería</w>
d oba</w>
circu itos</w>
cor d</w>
D .</w>
fres ca</w>
J .</w>
flu idos</w>
S O</w>
1 30
et ta</w>
direc cional</w>
P N</w>
respal do</w>
lav ó</w>
Encu entre</w>
avanz ado</w>
ferro vi
c ari
K ent
loc alización</w>
adh esión</w>
dis cos</w>
Electron ics</w>
Chal et</w>
Exter iores</w>
J ulio</w>
alem án
or r
Bay ern</w>
gar t</w>
P LA
te x</w>
engran aje</w>
H ard
ob viamente</w>
Ob tén</w>
con tigo</w>
m ama</w>
Rel aciones</w>
f as
Ch ino</w>
suministr os</w>
Mic hel
trans acciones</w>
in sec
ö r
inter medio</w>
c á
H S</w>
mod ernas</w>
Aur iculares</w>
re li
marc ador</w>
multi pl
Pol i
sum erg
Fr anco</w>
histór ica</w>
Hig h</w>
pon erse</w>
Bo ok
Com pañ
afect ados</w>
Kö l
u ñas</w>
constitu yen</w>
ti c</w>
s era</w>
dibuj ado</w>
av ance</w>
su g
h il
Sh enzhen</w>
sti t
Des ign</w>
cicl ismo</w>
y n</w>
comun icado</w>
B B
St ate</w>
Últi mo</w>
pe or</w>
Tok io</w>
Altern ativamente</w>
at ed</w>
bl ancos</w>
CO L
lin gton</w>
apu estas</w>
tr it
mom entos</w>
cal cula</w>
Domin go</w>
u si
av anas</w>
pul mon
Niv el</w>
present ados</w>
mus cular</w>
adecu adamente</w>
realiz arse</w>
hici eron</w>
op ol
cápsu la</w>
contribu ye</w>
Ob je
Bien venido</w>
hidro x
bomb illa</w>
Mar zo</w>
Qui eres</w>
m ando</w>
ep is
J al
Sof á</w>
Nuev as</w>
en d</w>
B un
vac acional</w>
vi ve</w>
añadi eron</w>
frag mento</w>
K aw
D i</w>
Anun cios</w>
at eral</w>
H all</w>
E .</w>
b s</w>
pulver ización</w>
enc endido</w>
ac re
sigui endo</w>
l ác
am uebl
envej ecimiento</w>
compar ará</w>
inglés- húngaro</w>
it iner
u z
can ción</w>
S ri</w>
Sig ni
junt amente</w>
in jer
bas ándose</w>
lim itar</w>
docum entación</w>
ca ud
sosten ibilidad</w>
su fri
impul so</w>
T N
ad quir
br azos</w>
Rec lamar</w>
inter rum
And al
UN IC
aber turas</w>
cr on
ar las</w>
az al
C ultura</w>
ro l</w>
dic es</w>
Nuev os</w>
altern ativas</w>
li sto</w>
ev ap
mundi ales</w>
ti das</w>
Pal ace</w>
reclam arlo</w>
AN A</w>
A K
famili ariz
Bulg aria</w>
L una</w>
L ong</w>
cor rupción</w>
Motor ola</w>
Ambi ente</w>
t ún
vig or</w>
0 8
st ar</w>
G il
ec cion
inv ento</w>
multi media</w>
an cha</w>
minut e.com</w>
anti oxid
deb emos</w>
bloque ar</w>
zi g</w>
D M</w>
c t
volunt ad</w>
last minute.com</w>
Div or
ac cidente</w>
cristal -de-
permi tiendo</w>
cristal-de- zafiro</w>
re cuerda</w>
alcan za</w>
enfer m
fl echa</w>
déc adas</w>
ven didos</w>
ti on
Qui én</w>
B ad</w>
aplic ado</w>
B og
deci r
T wo
30 00</w>
Trab aj
Cualqui er</w>
mar ina</w>
ti dores</w>
Co ur
Stutt gart</w>
Hal loween</w>
7 20</w>
concep tos</w>
tensi o
199 2</w>
g ase</w>
e amiento</w>
c aj
per cep
lav a</w>
si mo</w>
alemán -inglés</w>
con sola</w>
rel ess</w>
busc an</w>
j ese</w>
c ár
rec re
habr á</w>
cor tar</w>
B ord
l ac
cart el</w>
De b
tom ó</w>
me t</w>
Util ice</w>
hog ares</w>
h an
Resid encial</w>
zz i</w>
Bi en</w>
R oja</w>
S ili
Oc tubre</w>
hormig ón</w>
con sin</w>
ad or
G as</w>
ot org
gan ado</w>
é is
ár abe</w>
ab dom
K in
oxid ación</w>
as unto</w>
Cat edral</w>
anal óg
ok ies</w>
mejor ada</w>
sol id
Camis a</w>
ser as</w>
1 200</w>
ál ogos</w>
cer em
Car ta</w>
I n</w>
hier ba</w>
ec erá</w>
coloc a</w>
w ar
só dico</w>
o ch
2 30</w>
o ído</w>
Wis consin</w>
l entes</w>
v ag
Seb asti
incorpor ado</w>
av ances</w>
ó tica</w>
Andal ucía</w>
gri ego</w>
all y</w>
u re
resist entes</w>
Serv ice</w>
to ur</w>
lleg ado</w>
G ab
Ne ws</w>
C á
nav idad</w>
en um
n ort
mot o</w>
S pe
E T
l s</w>
Con tin
prev é</w>
ro ad
Gr ado</w>
Pak istán</w>
consider ado</w>
Hu man
consum idor</w>
R us
al egr
Vol vo</w>
id er</w>
asi entos</w>
agrí colas</w>
com puesta</w>
caracter iza</w>
M aqu
Cur sos</w>
U L</w>
ON G</w>
terapéu tico</w>
B erg
as tres</w>
CO 2</w>
veterin aria</w>
gl ut
ast er
V ari
roc ería</w>
algorit mo</w>
Mar cas</w>
prim a</w>
vert encia</w>
per las</w>
bor do</w>
One Two
razon able</w>
inmedi ato</w>
T écn
tr adición</w>
con v
am ino</w>
represent ado</w>
vuel to</w>
b al</w>
extra ordin
le x</w>
pl anos</w>
ip hone</w>
Br it
K on
mem or
S av
T witter</w>
ep id
n as
Tar jetas</w>
metál ico</w>
N unca</w>
C ama</w>
tabl eta</w>
V is
trim estre</w>
0. 000</w>
Op ciones</w>
sa una</w>
id ina</w>
ap ag
rec to</w>
den os</w>
S mit
5 9
españ ola</w>
h eter
Aloj amientos</w>
Car ga</w>
H aci
C ult
exhi bición</w>
R O</w>
Etiqu eta</w>
sil enci
desarrol la</w>
Ether net</w>
Lou is</w>
zu ki</w>
contr ola</w>
ch amp
p cs</w>
re du
d res
m .</w>
I z
I G
qu imi
Inclu ye</w>
gu antes</w>
3 20</w>
Fl or</w>
exclusi vamente</w>
id al</w>
mangu ito</w>
ad u
s ing
j abón</w>
As c
Ej ército</w>
Dis frut
Mu sic</w>
col esterol</w>
OneTwo Trip.com</w>
person alidad</w>
is ex</w>
ati ons</w>
er b
ic óp
Recur sos</w>
é is</w>
di vis
separ ados</w>
for t
Sh ell</w>
ma quillaje</w>
induc ción</w>
fi t</w>
d ará</w>
anun cio</w>
Tab aco</w>
IL -
impl ante</w>
bal d
Mo d</w>
ran uras</w>
institu cional</w>
estableci dos</w>
C uch
estructur ales</w>
ho p</w>
mu elle</w>
candi datos</w>
Gre en
al muerzo</w>
fel ici
r endi
Escri bir</w>
nev era</w>
ge ométr
d arlo</w>
fis c
24 0
mostr ó</w>
c emento</w>
C N</w>
no tificación</w>
c e
TR AN
aument ando</w>
terrá nea</w>
Veri ficar</w>
B oda</w>
m ala</w>
Ar k
k u
T AM
ern idad</w>
r ap
A vent
iz aciones</w>
F ort
ór ico</w>
ri ñ
b añ
re conocido</w>
CONDUC TOR</w>
Re empl
sint ético</w>
om et
W D</w>
i cios</w>
cre ativa</w>
vent ud</w>
con secu
prim ario</w>
val e</w>
Ayú denos</w>
ec ci
centr ales</w>
llev ará</w>
anti cip
U ru
Op el</w>
Fot ografía</w>
le tras</w>
fran cesa</w>
V R</w>
No vi
turb ina</w>
m ira</w>
Ne u
Diseñ ador</w>
muer to</w>
R af
Eléctr ica</w>
S hor
Tend ances</w>
L T</w>
e iro</w>
cet ines</w>
P eg
astr e</w>
cifr as</w>
K ey
integr ados</w>
A 4</w>
V ida</w>
Ly on</w>
d anés</w>
pu do</w>
provoc ar</w>
B N
éis bol</w>
ad y</w>
l interna</w>
mus ical</w>
- -</w>
n om
Consul ta</w>
on to</w>
p ad</w>
bar cos</w>
n s
Man i
ci ta</w>
is hi</w>
hidro carbur
min g
fron ter
Ori ental</w>
edi a</w>
con den
midific ador</w>
empe zar</w>
ier to</w>
AT A</w>
Pot encia</w>
Gol den</w>
facil idad</w>
In dic
N aranja</w>
Dortmun d</w>
lam inado</w>
at err
Vi la</w>
LI Z
Vál vula</w>
t y
obten ida</w>
Com posición</w>
hu bo</w>
tot alidad</w>
hidrául ica</w>
Apar camiento</w>
Un idades</w>
tabl etas</w>
recu bier
i er</w>
ar bi
Ar iz
perm ita</w>
E au</w>
t es
reco g
H av
sold ados</w>
Ob serv
requi sito</w>
americ anos</w>
po tr
Col lar</w>
ón -
vin os</w>
bus cas</w>
celebr ó</w>
seg un</w>
trat ando</w>
equip adas</w>
proporcion ará</w>
O T
proporcion ado</w>
org e</w>
jur is
bar atas</w>
S ección</w>
soport ar</w>
SQ L</w>
ent ornos</w>
ori ficios</w>
C EN
op at
cientí fico</w>
smar t
Con dado</w>
fu ga</w>
as onic</w>
0 6
exp ect
conten gan</w>
con junta</w>
organiz ado</w>
bre ve</w>
Pol o</w>
tri go</w>
í p
aqu eros</w>
at s</w>
in vesti
aplic an</w>
oc asión</w>
em áticas</w>
Econ ómico</w>
per cu
cuán to</w>
ev a</w>
- N
compro bar</w>
t ut
escri bió</w>
dól ar</w>
medi ciones</w>
S l
mort alidad</w>
Cl ase</w>
DERE CHA</w>
sím bolos</w>
br idge</w>
mov il
J ar
dic en</w>
Pro ven
her ente</w>
especific ar</w>
st re
señ ala</w>
esp alda</w>
carbon ato</w>
In nov
pl uma</w>
T ay
l la</w>
Resid ence</w>
mar keting</w>
bun ales</w>
invit ados</w>
prolifer ación</w>
y le</w>
M isión</w>
CH IN
re activos</w>
facil ita</w>
encu esta</w>
VI II</w>
S enderismo</w>
Mex ico</w>
agr icult
puntu ación</w>
C S</w>
s co
L ag
ro bo</w>
Pron óstico</w>
C aza</w>
qued as</w>
con si
adhesiv a</w>
mon o
c ro
S oc
qu eta</w>
uni form
con juntamente</w>
sig no</w>
plan tillas</w>
tele comunicaciones</w>
fed eral</w>
correc ción</w>
Cum pl
SO LAR</w>
ill ado</w>
B ER
cul turas</w>
discu sión</w>
F R</w>
acep tar</w>
Colum bia</w>
vibr ación</w>
def ecto</w>
all s</w>
an ular</w>
am ist
tempr ana</w>
ti eron</w>
manipul ación</w>
disminu ir</w>
VI I</w>
og én
ter ía</w>
cu bo</w>
cuch ar
reco ger</w>
poli etileno</w>
Al t
em e</w>
br once</w>
Tec lado</w>
tras lad
vic toria</w>
ín cip
presu puest
des ech
húme do</w>
prob abilidad</w>
Visi ta</w>
aplic able</w>
par ques</w>
el ect
br om
H C</w>
ven dedores</w>
F air
guar dia</w>
acces ible</w>
pro vin
f eld</w>
ir t</w>
posteri ores</w>
otr iz</w>
z -
iz ante</w>
il er</w>
pr isión</w>
An geles</w>
configur aciones</w>
MU J
y eron</w>
gratu itos</w>
MB A</w>
declar aciones</w>
cál ido</w>
v i</w>
mo tiv
S AN</w>
tor y</w>
del gado</w>
Bo ok</w>
verd adera</w>
T us</w>
den es</w>
Recep ción</w>
Ser vic
refriger ador</w>
pro medios</w>
cambi ado</w>
perí odos</w>
torn illos</w>
ma xim
tri tis</w>
au la</w>
ur ban
as aki</w>
prior idades</w>
Aut ocar
alde as</w>
ingü e</w>
defin ida</w>
Ol d</w>
fric ción</w>
Reg alos</w>
proy ección</w>
Divor cios</w>
Mod erno</w>
acept ables</w>
com isión</w>
cam inar</w>
metabol ismo</w>
Ar ti
ev ent
5 V</w>
w ard</w>
mi go</w>
ter ci
CC TV</w>
reempl azar</w>
V ia</w>
it í</w>
pre -
ent imiento</w>
dimen sional</w>
infer iores</w>
mezcl ado</w>
. 1</w>
d um
ún mente</w>
ob b</w>
proteg e</w>
at h</w>
SM S</w>
Sab es</w>
est í
Polic ía</w>
W C</w>
alim ento</w>
Law y
rec etas</w>
com andos</w>
com eti
trans cripción</w>
Res pon
AL ES</w>
ver y</w>
Lim pi
B y</w>
20 -
fr e</w>
h ur
H T</w>
fu me</w>
flu jos</w>
s ed
lim ón</w>
ard s</w>
5 3
j av
S un</w>
prin cesa</w>
y m
con sigue</w>
aer os
land s</w>
a firma</w>
qu ita</w>
almid ón</w>
í metros</w>
ú per</w>
ult ad</w>
ab und
lar gos</w>
des -
des a</w>
disminu ye</w>
marc adores</w>
escrit ura</w>
az amiento</w>
F í
6 7
T ej
Tab let</w>
mont ón</w>
intelec tual</w>
evid ente</w>
observ ó</w>
he im
X P</w>
ju ven
Ofici al</w>
pul ido</w>
Cuar to</w>
B rig
g otas</w>
anti bi
12 -
vari ante</w>
su erte</w>
Cam pe
pist ola</w>
ac he</w>
gas olina</w>
f ax</w>
au s</w>
H TC</w>
fís icas</w>
des pues</w>
buc eo</w>
habit ual</w>
C AN
Ban k</w>
tur ística</w>
Ariz ona</w>
ases oramiento</w>
zz le</w>
ot es</w>
gol pe
Bah ía</w>
Nig eria</w>
proxim al</w>
Tor n
5 4
2 A</w>
re conocer</w>
nov er</w>
espec tr
espir it
M ore</w>
Ju árez</w>
almac én</w>
Th omas</w>
Cre ar</w>
GS M</w>
S EN
o posición</w>
AB O
sustitu ción</w>
simpl es</w>
a ia</w>
codific ador</w>
visi te</w>
figur an</w>
V illas</w>
os of
Estr ateg
Pu ente</w>
Ar abia</w>
ahor rar</w>
te tr
control ado</w>
r án</w>
diagn os
dependi ente</w>
Ex cel</w>
ajust es</w>
Han nover</w>
Con duc
espect ac
adyac entes</w>
pant allas</w>
interpre tación</w>
or ista</w>
Dani el</w>
di plom
Autocar avanas</w>
unt amiento</w>
pl ena</w>
nutri entes</w>
Pa is
cord ón</w>
end orf</w>
Pau lo</w>
k h
pl ica</w>
Medi ante</w>
urb ana</w>
manej ar</w>
aé rea</w>
W el
Dur ación</w>
k er
Pan asonic</w>
L M</w>
pl omo</w>
en cabez
Que en</w>
és ped</w>
e ira</w>
aut ón
Tot ales</w>
k ir
On tario</w>
F ol
Rem oto</w>
V a
ev ita</w>
H at
il im
vari aciones</w>
dr enaje</w>
vac acionales</w>
rep utación</w>
cam iones</w>
Á rea</w>
CI D
C anti
F ór
comparti da</w>
WE GO
agu da</w>
TV C-
R .
WEGO SHOP</w>
mult i</w>
qui si
s ucción</w>
di versión</w>
cr uc
6 9
P ay
K az
consul te</w>
compro misos</w>
Res umen</w>
t ó</w>
aument ado</w>
desarroll ados</w>
Can on</w>
st one</w>
Merc ado</w>
F ábrica</w>
Kent ucky</w>
pi ernas</w>
increm entar</w>
autom atico</w>
incendi os</w>
igu ales</w>
S ci
Lin col
trans mite</w>
iz ando</w>
Com pres
om as
ar oma</w>
ant os</w>
interes antes</w>
cic los</w>
S ombr
inter nas</w>
del ici
E se</w>
A ustin</w>
Mov imiento</w>
frecu encias</w>
inhi bición</w>
alcanz ó</w>
neg ativa</w>
hubi era</w>
Pro ces
o ques</w>
L anz
u los</w>
ac le</w>
si ze</w>
L odge</w>
poli uretano</w>
gu ay</w>
extre ma</w>
a ís
G an
consider able</w>
caracter izada</w>
particip an</w>
l ej
f ati
tav oces</w>
0 9
ar les</w>
Ox ford</w>
resp ectivos</w>
requer ida</w>
com idas</w>
igu almente</w>
acum ul
H echo</w>
Pro por
Leip zig</w>
C and
Bici cleta</w>
O ak
pe ores</w>
j ado</w>
pen al</w>
Me dic
consider an</w>
or ización</w>
disol ventes</w>
R og
ug e
premi os</w>
pi la</w>
F ant
conclu sión</w>
y oga</w>
incorpor a</w>
declar ó</w>
bah ía</w>
B uc
len gua</w>
G ard
gesti onar</w>
om i
g ira</w>
rec eta</w>
M adre</w>
E ri
o ut
fer ia</w>
ot er</w>
inhib idor</w>
experim entos</w>
abier tos</w>
Aven ue</w>
arquit ect
for z
sh i</w>
H F</w>
eci mientos</w>
ap p
Pue den</w>
com únmente</w>
corri entes</w>
refor zar</w>
or ina</w>
Jord an</w>
N at
im pedir</w>
Ta g</w>
g ay</w>
z an
ón gase</w>
ert ys</w>
Su zuki</w>
Adi cionalmente</w>
Lawy ertys</w>
LT D</w>
psi cológ
abr az
Mot os</w>
Eleg ante</w>
po t</w>
contrast an</w>
bor r
ag an</w>
Má sters</w>
reaccion ar</w>
au de</w>
tom ando</w>
caracter es</w>
P G</w>
Air lines</w>
m ág
sec ó</w>
Ex ist
Car re
ocup ación</w>
L D
Düssel dorf</w>
esper ando</w>
am ar</w>
Pel ícula</w>
L ak
ór denes</w>
Pul sera</w>
señ alización</w>
re tos</w>
e al</w>
Sal ida</w>
si s
lim itación</w>
cuar ta</w>
conclu siones</w>
L .</w>
H A</w>
Mini bar</w>
Af gan
Edi tor</w>
Anti gu
ent ero</w>
MUJ ER</w>
L iga</w>
previ o</w>
Al ab
b y
k e
Is l
Extre me</w>
z o
au ti
v o
col ombi
adi ense</w>
asi ficación</w>
Con tenido</w>
trat e</w>
océ ano</w>
Mo untain</w>
Re comend
fi abilidad</w>
P I</w>
m M</w>
Mot ores</w>
sencil lo</w>
invers a</w>
ú l</w>
k u</w>
Esp ejo</w>
termin ó</w>
AG U
AB LE</w>
Cu atro</w>
á geno</w>
vulner ables</w>
0 4
direc trices</w>
po cas</w>
resid uales</w>
acum ulación</w>
progr esiv
individ uo</w>
AN O</w>
az z</w>
intercambi ador</w>
person alizados</w>
C TR
gir atorio</w>
sugi ere</w>
T S
es .com</w>
interval os</w>
I conos</w>
K im</w>
Bab y</w>
N ar
fin as</w>
Nov a</w>
diseñ adores</w>
L ig
efectu ar</w>
í fica</w>
Hil ton</w>
Wi reless</w>
P elo</w>
T ela</w>
autor ización</w>
Apo yo</w>
si p
Co untry</w>
conect arse</w>
Can al</w>
Ti enes</w>
De por
V e
requer ido</w>
Com put
celebr ar</w>
b ao</w>
R ecu
C ER
in mer
mon tar</w>
gr asas</w>
vari ación</w>
el u
gast o</w>
as ent
es idad</w>
mecan izado</w>
var illa</w>
at er</w>
K lin
provoc ando</w>
T Y</w>
ám icas</w>
m en</w>
cel das</w>
cre ó</w>
e ales</w>
Novi embre</w>
Ind ustria</w>
Ch il
din ámico</w>
automati zación</w>
Cor azón</w>
excep cional</w>
Eval uación</w>
Rhe in
conect ores</w>
Flix bus</w>
Or lando</w>
part en</w>
domici lio</w>
A st
as ka</w>
Lan ka</w>
us ó</w>
av an
B aviera</w>
trans pirable</w>
sustan tivo</w>
Mon ter
ub er
M ult
el and</w>
glob ales</w>
fi las</w>
crí tica</w>
pat entes</w>
J uli
adop tado</w>
o ugh</w>
fi able</w>
al ón</w>
les ión</w>
C AP
mascul ino</w>
West fal
Tor onto</w>
Am sterdam</w>
ní quel</w>
car bo
lá piz</w>
T ales</w>
pre fiere</w>
Vi ol
Her vidor</w>
ni e</w>
b ambú</w>
Pol vo</w>
Fí jese</w>
consider ablemente</w>
May or</w>
c ú
del itos</w>
T ítulo</w>
at om
acu oso</w>
Q UE
Fun ción</w>
art es</w>
sustitu ido</w>
bi ológica</w>
Gru pos</w>
Bo ston</w>
int ento</w>
F aci
oblig ación</w>
And re
od om
in ada</w>
dest inos</w>
Sout h
sint on
fortal ecimiento</w>
il y</w>
Cons ider
re port
re cuer
aprob ó</w>
vac un
vi al</w>
depor tivos</w>
lim ita</w>
sur g
Tur bo</w>
K os
n ar
partici par
Especi ficaciones</w>
pl um
ant ec
cl aves</w>
habr ía</w>
Raci ng</w>
cuy os</w>
Ví deo</w>
uge ot</w>
prác tico</w>
Est án
produci dos</w>
ho st
pot able</w>
S ão</w>
sombr ero</w>
t adas</w>
con duci
har ina</w>
Afgan istán</w>
enti ende</w>
Uru guay</w>
7 4
Cri sto</w>
ejecut ará</w>
Re ina</w>
Su pre
ultras on
CO M</w>
mod ular</w>
depor tiva</w>
b era</w>
Á m
pol i</w>
el ado</w>
pre visión</w>
en gi
Re ad</w>
aplic ada</w>
ap orte</w>
Ca ída</w>
ingre diente</w>
Sy stem</w>
vid eos</w>
R un
4. 0</w>
pro puesto</w>
G L
re habilitación</w>
Po stal</w>
pas ando</w>
histór icos</w>
ús quedas</w>
S ea</w>
comun itaria</w>
inmedi ata</w>
gu sto</w>
Ru pia</w>
s am
Gon z
utiliz ó</w>
ad misión</w>
et ts</w>
Os cur
d ón</w>
limit aciones</w>
Di esel</w>
f aro</w>
As h
bol sos</w>
agon ista</w>
Cum bre</w>
Ev entos</w>
Com pati
bur g-
tod ocol
todocol eccion</w>
hip ping</w>
car rocería</w>
K n
restric ción</w>
e bre</w>
it er
b enz
diseñ ar</w>
tor neo</w>
osof ía</w>
os -
autent icación</w>
hidr at
L TE</w>
Des ayuno</w>
indic ación</w>
E p
posi blemente</w>
tur ísticas</w>
D ak
Al p
reci bieron</w>
i ba</w>
r estos</w>
familiariz arse</w>
acu zzi</w>
si quiera</w>
Cad ena</w>
descrip ciones</w>
resid ual</w>
com ité</w>
n ariz</w>
inter media</w>
pas ada</w>
Du bl
sucesiv amente</w>
AR DS</w>
proxim idad</w>
heb illa</w>
o x</w>
complej idad</w>
Pab lo</w>
íncip e</w>
ter s</w>
In cre
3. 5</w>
acho ques</w>
c le</w>
inhib idores</w>
st ed
degrad ación</w>
D am
reg adero</w>
det erg
inf ecci
Es a</w>
endi da</w>
U su
Bas h
An t
inst ancia</w>
5 x
inglés- chino</w>
brit ánico</w>
LE R</w>
mercanc ías</w>
vi tro</w>
val le</w>
acces orio</w>
Signi ficado</w>
10 3</w>
Cat al
fron teras</w>
Corpor ation</w>
ri endo</w>
recomend adas</w>
n aciones</w>
Man chester</w>
atr activo</w>
t int
per miso</w>
aceler ar</w>
AM I
199 1</w>
fal z</w>
i i</w>
etiqu etado</w>
Eléctr ico</w>
Person al</w>
ren al</w>
Per man
ach us
bon ato</w>
in migrantes</w>
ci no</w>
Som os</w>
Mod elos</w>
Cri st
Wh it
tom ado</w>
Pl ata
f oc
T on
Phili ps</w>
m n</w>
cor e</w>
s ar
re ferencias</w>
J E</w>
Asc ensor</w>
Sho w</w>
gi ó</w>
S L</w>
Ma in</w>
Dub ai</w>
pro mueve</w>
estableci ó</w>
Autom atic</w>
1 15
S TR
Clar o</w>
Cu st
uck land</w>
z can</w>
ed s</w>
pl ato</w>
plan cha</w>
cap ítulo</w>
gl ic
St adt</w>
end u
U K</w>
P it
Mur cia</w>
Fór mula</w>
cuesti on
AR IO</w>
ocur r
esc án
pr est
S ob
est one</w>
Empres a</w>
restaur ar</w>
Col leg
r ast
Maestr ía</w>
san ciones</w>
abri go</w>
Pe tr
Jun io</w>
Pe ugeot</w>
ac er
Señ ora</w>
tí tulos</w>
of en
concentr ó</w>
efici entes</w>
u j
men sual</w>
sion ado</w>
oco los</w>
li bre
an í</w>
To uch</w>
R áp
G imnasio</w>
regr eso</w>
Pod emos</w>
1. 1</w>
hi br
dic lor
inglés- alemán</w>
toler ancia</w>
ari zación</w>
re formas</w>
Ide al</w>
Vol ver</w>
car ro</w>
don antes</w>
deten er</w>
Sch ool</w>
bl ancas</w>
for est
Del gado</w>
án -
2. 4</w>
ti a</w>
Mass achus
cilin dr
ati zación</w>
G T</w>
SAL E</w>
M AN</w>
Cór doba</w>
ac triz</w>
3, 5</w>
map .com</w>
D IN
Ex tran
Cap it
Em balaje</w>
ach i</w>
án sito</w>
st yling</w>
sol ub
Pl ay
R ap
relig ión</w>
ofreci endo</w>
af a</w>
M aster</w>
R ad
ff et</w>
Ira q</w>
2 .</w>
on map.com</w>
rom pecabezas</w>
road onmap.com</w>
S her
ámb itos</w>
l echo</w>
8 9
Ref rig
vol úmenes</w>
l ona</w>
adyac ente</w>
transfer ir</w>
C F
Ar c
provoc a</w>
D entro</w>
dis mo</w>
en cargo</w>
Wat er
ch il
is tir</w>
envi ado</w>
deber án</w>
12 8</w>
gratu itas</w>
separ ada</w>
manif est
form atos</w>
conces ion
actualiz adas</w>
www. roadonmap.com</w>
L L</w>
Mu ñ
gener ado</w>
J O
pot enciales</w>
op elo</w>
F og
Amer ica</w>
k its</w>
com para</w>
res uel
in ea</w>
Canti dad</w>
prefer ible</w>
1. 6
farmacéu ticas</w>
Medi terráneo</w>
as umi
re is</w>
Extran j
p ent
hin ch
sub ishi</w>
afect adas</w>
ad eros</w>
F RE
compro met
St ep
pro met
celebr ada</w>
ent ador</w>
T AS</w>
S AN
ad sor
decor ativo</w>
CION ES</w>
adel ant
ez ca</w>
st adt</w>
tran quila</w>
Super fici
tur ísticos</w>
grad ualmente</w>
mo uth</w>
Ab ogado</w>
Re trato</w>
k t</w>
fir me</w>
fic amente</w>
gru eso</w>
re ún
tur co</w>
signific ados</w>
Def ensa</w>
descu brimiento</w>
Alab ama</w>
de partamentos</w>
he ad</w>
desaf ío</w>
L V
res e</w>
higi ene</w>
Á N</w>
Clín ica</w>
señal ar</w>
TVC- Mall</w>
ar que
Oc ean</w>
mar cos</w>
ráp idos</w>
introduc e</w>
Bi blioteca</w>
human as</w>
Bir ming
em baj
og é
M W</w>
r ayas</w>
id ar</w>
p -
lo t</w>
especific ado</w>
D al
Servic es</w>
fot ografías</w>
ampli ación</w>
L and</w>
proces ar</w>
retir ada</w>
w e</w>
ig -
contin ental</w>
sufici encia</w>
coment ario</w>
20 2</w>
nuev amente</w>
conten ía</w>
inf ancia</w>
eur -l
separ adas</w>
pri se</w>
condens ador</w>
có moda</w>
Massachus etts</w>
ex .europa.eu</w>
eur-l ex.europa.eu</w>
L om
i ber
cubier tas</w>
sab en</w>
odom és
AS ALE</w>
Dis ney</w>
fut uros</w>
fati ga</w>
Mot el</w>
f a
Lic enci
Al tavoz</w>
CHIN ASALE</w>
e j</w>
J U
Sud adera</w>
pap er</w>
cul p
crist ales</w>
ogr áfico</w>
embaraz adas</w>
M X</w>
S Y
impuls ar</w>
D on</w>
hist orias</w>
in fusión</w>
Bo ul
E X</w>
PAS AJ
resp ecta</w>
M IC
K G</w>
inglés- holandés</w>
lar gas</w>
im pu
col ágeno</w>
UNIC EF</w>
con voc
C T</w>
ill ar</w>
D orado</w>
seleccion adas</w>
co polímero</w>
os .</w>
fer til
certific ados</w>
ant elación</w>
sobr es
H KT
reci miento</w>
des ierto</w>
contr at
Mé dicos</w>
Exist en</w>
w all</w>
ot or
aplic arse</w>
Compañ ía</w>
re pl
jav anés</w>
um b
ag enda</w>
Instal aciones</w>
g all
pi rá
ac án</w>
P ública</w>
I ber
En chufe</w>
pier na</w>
perio distas</w>
reivindic acion</w>
clu bes</w>
U p
flu ye</w>
HKT DC</w>
ent end
co ag
o .
ac ético</w>
IL LO</w>
Sk y
im puesto</w>
Por tugu
adqui rir</w>
L et
Wi FI</w>
Re co
Ob j
in migración</w>
Es quí</w>
e po
ust edes</w>
Termin al</w>
TI C</w>
br i
co difica</w>
pirá mide</w>
es can
ejerci cios</w>
br inda</w>
Bro ok
ust on</w>
for os</w>
econom ías</w>
T un
ago za</w>
Ale ación</w>
mec ánicos</w>
B anda</w>
gl án
adapt arse</w>
territ orios</w>
alcan zado</w>
Z TE</w>
afric ano</w>
est arán</w>
dis curso</w>
celebr a</w>
perió dico</w>
L i</w>
termin ar</w>
cor ona</w>
1 14</w>
V ide
Pa ís</w>
urgon etas</w>
ultras ónico</w>
re produc
gir ar</w>
oper ar</w>
o ide</w>
infl able</w>
mal o</w>
cr os
sal iendo</w>
Ar quit
A men
rect angular</w>
d arle</w>
dí g
Últi ma</w>
o se</w>
auxili ar</w>
a un</w>
br on
ad en
relev ante</w>
dist ante</w>
pulmon ar</w>
mu sul
trans duc
E F
sombr a</w>
restaur ación</w>
recor dar</w>
ac cidentes</w>
A 3</w>
r ay</w>
Pueb lo</w>
des astres</w>
Fot ografías</w>
inici almente</w>
arr anque</w>
el ástica</w>
Ofrec e</w>
mi ti
ol or</w>
50 00</w>
am p</w>
inter ferencia</w>
reli eve</w>
hu a</w>
im e</w>
c ela</w>
Expl or
re puestos</w>
He ights</w>
tr ajes</w>
A uckland</w>
caud al</w>
adul to</w>
ec ía</w>
T ú</w>
cat edral</w>
C án
alu ña</w>
absorb ente</w>
0 1
ABO ARDS</w>
permi tido</w>
J ur
actualiz ada</w>
pendi ente</w>
W O</w>
um e</w>
Bo w
est ero
incorpor ación</w>
tab ilidad</w>
en cap
sal sa</w>
neg ativos</w>
ap p</w>
adi ciones</w>
0 7
Pequ eño</w>
ól icas</w>
metál icos</w>
M an</w>
Lit tle</w>
emul sión</w>
poli propileno</w>
tri bunales</w>
of f
r icos</w>
gr anos</w>
ami l</w>
1, 2</w>
visi on</w>
g s
membr anas</w>
D J</w>
14 .
ic ada</w>
hidr atos</w>
M G</w>
tic k</w>
invers ores</w>
pre vent
ov ol
stem s</w>
compens ación</w>
vín culos</w>
tall eres</w>
C AS</w>
S wit
quirúrg ico</w>
pre val
h y</w>
Cat aluña</w>
mi r</w>
as ma</w>
co r</w>
asesin ato</w>
z oom</w>
dest inado</w>
a cord
H unt
gran ja</w>
Cha in</w>
Ni ed
pol ar</w>
A cu
man ualmente</w>
t óx
m m
12 2</w>
p la</w>
beb er</w>
secre to</w>
Cir cu
metál ica</w>
de dos</w>
lo ok</w>
PASAJ ERO</w>
cer do</w>
á str
esti ma</w>
cir cul
Materi ales</w>
t orios</w>
exclusi vo</w>
ol s</w>
Orig en</w>
Bro wn</w>
recib ida</w>
ur n
v ást
S ajonia</w>
Mar tin
A I</w>
at inas</w>
E li
ch inos</w>
M and
at her</w>
S ul
antigu as</w>
sint eti
conten edores</w>
Don ald</w>
neg ros</w>
extien den</w>
im prim
fabric ado</w>
ex posiciones</w>
8 5
Mit subishi</w>
ap ol
inmun e</w>
compl em
preocup aciones</w>
A na</w>
tiv e</w>
in hal
Zar agoza</w>
l uc
agr a</w>
qu ete</w>
eg ios</w>
di fun
Lt d.</w>
Colleg e</w>
uc o</w>
vier te</w>
i si
du reza</w>
G F
ca de</w>
Gl as
S co
Mont aje</w>
héro e</w>
Oscur o</w>
entre vista</w>
E cha</w>
hier bas</w>
el ast
car gos</w>
Electr ónica</w>
sex uales</w>
Sud aderas</w>
PR O</w>
suministr a</w>
b ox
DI N</w>
- R
o a</w>
emo cion
K or
Soci ales</w>
. exe</w>
cion ador</w>
Gen uino</w>
simul ación</w>
Li fe</w>
az ado</w>
J efe</w>
h ome</w>
hidr omas
B arra</w>
agru p
en mi
w in
cu esta</w>
E V
cerem onia</w>
form al</w>
c ay
enfr enta</w>
ic en</w>
ad mite</w>
RO M</w>
S 8</w>
Configur ación</w>
expres ar</w>
fic ha</w>
En tre
Consul te</w>
estableci da</w>
ci encias</w>
consider ación</w>
bot as</w>
Bot ella</w>
H B
píx eles</w>
res eñas</w>
ob str
glob o</w>
hac es</w>
A AA</w>
l aser</w>
hu esos</w>
Tác til</w>
publ icaciones</w>
ten siones</w>
fabric ar</w>
produ jo</w>
ax i
pron ósticos</w>
frecu entemente</w>
escal eras</w>
austr ali
er án</w>
Lav avajillas</w>
J im
increm ent
con cierto</w>
ob esidad</w>
I I
imi enta</w>
h is
abar ca</w>
i b
ro bu
em ático</w>
actu ación</w>
obst áculos</w>
19 0</w>
Co operación</w>
vi eja</w>
P AN
despl iegue</w>
des carg
exclusi va</w>
rech ace</w>
r on</w>
mar gen</w>
on ucle
án tica</w>
aument ó</w>
T ap
af t</w>
cerebr al</w>
sil las</w>
aler ta</w>
ly wood</w>
continu amente</w>
B ack
v ej
hidr atación</w>
orden adas</w>
judi ciales</w>
may oristas</w>
her idas</w>
en burg</w>
ti mos</w>
sincron ización</w>
hidromas aje</w>
es .</w>
Can ada</w>
P il
C ul
U t
Ma x
man tienen</w>
u fl
lóg ica</w>
pre cur
re flexión</w>
tr ánsito</w>
co li
copi as</w>
arm ario</w>
In fr
16 V</w>
bu lo</w>
acont ecimientos</w>
fij ado</w>
6 000</w>
p and
H Y
ex cav
inc ent
ab ast
pens amiento</w>
sanguí neo</w>
rol et</w>
Tec h</w>
E 27</w>
ati o</w>
cuadr os</w>
proporcion ada</w>
az u
sub si
I OS</w>
dirig e</w>
enf oc
Están dar</w>
on omía</w>
W -
H ER
perten ecen</w>
pint uras</w>
ub es</w>
s es</w>
T T</w>
I cono</w>
in arios</w>
flex ibles</w>
prést amos</w>
divul gación</w>
Estr uc
inglés- rumano</w>
sensi bles</w>
Con go</w>
p ido</w>
ensambl aje</w>
err ero</w>
mús culo</w>
ban k</w>
pol in
Mar k</w>
agricult ores</w>
v aya</w>
S OR</w>
pon iendo</w>
inc r
ro ca</w>
luch ar</w>
M eg
cas ino</w>
ati z
priv ileg
amar illa</w>
Bu il
Out let</w>
espir al</w>
hist orial</w>
P adre</w>
cóp ica</w>
S or
Conex ión</w>
N ep
per sist
pre para</w>
experim ento</w>
br o
F U
Orden ador</w>
B ell
pro visi
p v
import aciones</w>
R 1</w>
Can aria</w>
det ecta</w>
TI ON</w>
cerc ana</w>
an ot
oper a</w>
Com mun
M K
b ps</w>
L LO</w>
Son ido</w>
SP OR
am onio</w>
L D</w>
AP I</w>
an uales</w>
po cil
Bord ado</w>
Bat erías</w>
Dormit orio</w>
íl ica</w>
F áci
J O</w>
gr o
Abr igos</w>
logr ado</w>
Bil bao</w>
1 15</w>
ser io</w>
fut uras</w>
gen ética</w>
dor ado</w>
Dis positivos</w>
sosp ech
ad ing</w>
visi bilidad</w>
ci ru
meteor ológica</w>
remot a</w>
ad vertencia</w>
Chev rolet</w>
il ton</w>
C l</w>
invern adero</w>
supl emento</w>
peg amento</w>
m esas</w>
ac t</w>
arreg los</w>
AD ES</w>
V iv
col ector</w>
fro m</w>
extru sión</w>
t ail
d anza</w>
Sol d
P aci
dep ósitos</w>
il -
compon e</w>
P B
empl ea</w>
am en</w>
Di amante</w>
Sh e
Agr icultura</w>
asc endente</w>
Estrateg ia</w>
s ueños</w>
rup tores</w>
termin ado</w>
Fron tera</w>
Tr aje</w>
av en
Jack son</w>
so ber
Ho uston</w>
alde hí
firm ado</w>
extr ajo</w>
avanz adas</w>
A ri
5 A</w>
ch oque</w>
re trato</w>
ag lut
eri di
D inar</w>
magn itud</w>
retir ar</w>
maestr os</w>
L lev
og lob
RI O</w>
roc k</w>
o tipos</w>
I dent
pag able</w>
B ox
inform ar</w>
Per f
B IL
ec te</w>
Ajust e</w>
S 7</w>
test amentos</w>
ac os</w>
ni c</w>
gubernam ental</w>
electr o
cre ando</w>
g atos</w>
P úbl
Le on
az ones</w>
maravill oso</w>
S ir
e ólica</w>
Palm as</w>
Je an</w>
ho f</w>
í dos</w>
sus cep
di et
Con di
Birming ham</w>
Lu gar</w>
Libr os</w>
aur icular</w>
S cript</w>
afirm ó</w>
pro motor</w>
apropi ados</w>
J ul
sec retario</w>
crec er</w>
vi s</w>
and roid</w>
B en</w>
gan ador</w>
Con oci
Del hi</w>
Sud án</w>
insec tos</w>
P ast
por favor</w>
destin ados</w>
m ail</w>
cost ura</w>
metod ología</w>
Us ados</w>
ó sea</w>
super mercado</w>
educ ativo</w>
ux e</w>
aci do</w>
o ste
vot os</w>
de vol
ac cion</w>
env asado</w>
dé bil</w>
arti culación</w>
Pueb la</w>
FA O</w>
europe as</w>
SE Q</w>
In gr
vín culo</w>
ent era</w>
deteri oro</w>
be ige</w>
tex til</w>
penetr ación</w>
inter venciones</w>
par l
mó metro</w>
a f</w>
Lar go</w>
Jer us
pro vienen</w>
cons entimiento</w>
B AR
aju sta</w>
aplic ables</w>
- 2</w>
00 00
Lim ited</w>
an go</w>
M alta</w>
Cán cer</w>
Certific ado</w>
FI FA</w>
fal da</w>
AD OS</w>
vecin as</w>
oj i</w>
estratég ica</w>
Caf e</w>
car os</w>
C ala</w>
le z</w>
Br un
qu ema</w>
to que</w>
pr estación</w>
negoci ación</w>
Y O
h adas</w>
ch icas</w>
Ch ap
salv aje</w>
CA D</w>
Chr isti
16 .
U p</w>
u las</w>
empu j
ort h</w>
Pal abra</w>
Pro b
bail e</w>
Ex cur
en riqu
im pre
aline ación</w>
produci da</w>
f air</w>
a el</w>
elabor ar</w>
y ac
at ori
A gencias</w>
ut en
plac er</w>
pul so</w>
pa sión</w>
con migo</w>
agon izada</w>
Caf etería</w>
tr ag
asti cidad</w>
cal dera</w>
pre lim
cur r
de formación</w>
Ch e
N ag
per s</w>
renov ación</w>
ell i</w>
M uestra</w>
Peter s
Do u
Democ rá
monitor eo</w>
í tica</w>
nucle ótidos</w>
expl icar</w>
tic e</w>
is es</w>
b all
minim izar</w>
tor ado</w>
id get</w>
comb ate</w>
premi um</w>
G ame</w>
FR AN
bi s</w>
dedic ada</w>
apor ta</w>
equip amiento</w>
E mil
clín ico</w>
perman ece</w>
r aza</w>
v ast
encu entre</w>
gr úa</w>
ag ot
sir ven</w>
Ad obe</w>
oci an
gas tro
rig ht</w>
perten eci
pre dic
or i</w>
cuar tos</w>
liter atura</w>
mic amente</w>
an tiles</w>
cuch illa</w>
concentr ado</w>
comienz an</w>
ar s</w>
ap est</w>
ufl aje</w>
dem uestr
May oristas</w>
1 16</w>
b erry</w>
P T</w>
0 2
diam antes</w>
TI S</w>
Aven ida</w>
demostr ar</w>
contin ente</w>
ancl aje</w>
An n
gén eros</w>
E P</w>
Or acle</w>
eb o</w>
in usu
st ata</w>
divis as</w>
Re unión</w>
distin gu
in forma</w>
Fli p</w>
L LC</w>
obten ción</w>
hel icóp
bas ura</w>
P eri
D ay</w>
iz antes</w>
C I</w>
tr e</w>
cons enso</w>
G em
-P falz</w>
z e
Fl oral</w>
ch apa</w>
act úan</w>
Aten as</w>
c ati
Bot ón</w>
vást ago</w>
electrom agn
tempr ano</w>
del ito</w>
ot t</w>
us adas</w>
o ides</w>
per io</w>
Pal m</w>
F arm
50 -
on i</w>
Ruman ía</w>
persp ectivas</w>
no ti
dis fruta</w>
so cio</w>
CO U
C o</w>
af e
P an</w>
As es
revol ución</w>
PNU D</w>
di je</w>
conci li
or í
sur f</w>
Rhein land
empresari ales</w>
ai t</w>
incorpor ar</w>
qu í
optim izar</w>
co u
riqu eza</w>
dest aca</w>
arm ados</w>
D OS</w>
cerr adura</w>
centr a</w>
Rheinland -Pfalz</w>
fij ar</w>
Nort h
L ong
dici endo</w>
i an</w>
a ine</w>
V GA</w>
ch it
Gar c
odomés ticos</w>
P y
aeros ol</w>
L ongit
lent amente</w>
crí tico</w>
sh eng</w>
mec ánicas</w>
T ú
t he
ro jas</w>
reduci endo</w>
con d
C .
soci edades</w>
avan zar</w>
Eur o</w>
j uega</w>
hidr ato</w>
wat er</w>
t z</w>
Hol anda</w>
os copio</w>
fl ora</w>
deb es</w>
Sil ver</w>
gu itarra</w>
gran el</w>
ack er</w>
H ay
I L</w>
t emplado</w>
De cisión</w>
Cab eza</w>
re conoci
estimul ación</w>
J en
ni k</w>
cap e</w>
el les</w>
Bud apest</w>
pres a</w>
ést eres</w>
si les</w>
labor ales</w>
eleg antes</w>
radi al</w>
explo sión</w>
mejor ando</w>
E qu
encontr amos</w>
ud es</w>
sk aya</w>
gr án
explic ó</w>
port al</w>
cor reg
K W</w>
ab il
trans acción</w>
O lí
Alex ander</w>
ma x</w>
op ía</w>
NUE VO</w>
Oc e
multil ingüe</w>
Cu entas</w>
Autom ático</w>
A CION</w>
Cros s
a ico</w>
Manu el</w>
separ ador</w>
li ci
típ ico</w>
A str
pl us</w>
Mar ket</w>
endi ó</w>
as -
Char lot
S illa</w>
Acondi cionado</w>
person ajes</w>
al eg
quil lo</w>
al tar</w>
mari posa</w>
it at</w>
ingr eso</w>
N ex
cu a</w>
7 6
u k</w>
prot ocolos</w>
Alem án-
r usa</w>
Jan eiro</w>
cent ri
s et
quer emos</w>
Pal est
V 6</w>
ansi edad</w>
T ob
Cop enh
res on
cur ado</w>
A co
em burgo</w>
mani fi
ant ías</w>
multi función</w>
her mana</w>
ar gent
par quet</w>
R ay
Stan ley</w>
solu bles</w>
á menes</w>
Superfici e</w>
deb il
XI X</w>
separ ar</w>
Fuer za</w>
volunt arios</w>
Z e
con segu
U ten
tam poco</w>
cu st
w an</w>
fam osos</w>
Un ion</w>
T T
expect ativas</w>
compl etos</w>
regul ares</w>
S emi
defin en</w>
Det ector</w>
. Net</w>
jurí dica</w>
OE A</w>
J ava</w>
V ig
tin ción</w>
car o</w>
ber t</w>
hidro xi
B all
convers aciones</w>
caus ado</w>
w ick</w>
n is
con oz
Viaj ando</w>
Car bon
ort un
0, 2</w>
comerci alización</w>
T ul
E ra</w>
B EN
CI O</w>
ai d</w>
Portugu és</w>
b a
Cu adr
cont empl
dur abilidad</w>
b oc
Prefer entemente</w>
c n
fal lo</w>
F P
Simpl e</w>
Mex ic
medi do</w>
in trav
pp i</w>
Glas go
B y
Activ idad</w>
iz adores</w>
cort ina</w>
end an</w>
vol ante</w>
diagnos tic
constru ida</w>
Pres ión</w>
adopt adas</w>
aument an</w>
pon es</w>
Mon tre
ob tienen</w>
Hab ana</w>
agreg ó</w>
Est er
ir ía</w>
prepar ados</w>
Cint ur
Produc t</w>
Americ ana</w>
m ach
rec ta</w>
lo ven
h all</w>
bour ne</w>
N icar
br icos</w>
aliz adores</w>
bi ke</w>
Gast os</w>
Disfrut e</w>
pi on
Ar n
Ar co</w>
acre di
dig es
Dres den</w>
Certific ados</w>
descans o</w>
cuanti t
l ech
inform ado</w>
asegur arse</w>
itiner ario</w>
Ham ilton</w>
r ami
Enter prise</w>
her manos</w>
B ak
estab les</w>
h ambre</w>
F ut
human itaria</w>
abstr acto</w>
met odo</w>
Spr ing</w>
Perman ente</w>
Anim al</w>
ro uter</w>
Ná pol
ven di
h l
deci dir</w>
T W
rol lo</w>
n to</w>
estamp ado</w>
V arios</w>
Es cal
tap ón</w>
tax i</w>
Longit ud</w>
si ga</w>
li s</w>
ch ar
M L
Patr imonio</w>
Br idge</w>
de m</w>
mod ern
ge ográfica</w>
edi tor</w>
EE UU</w>
Ú n
do m</w>
bo ok</w>
. es</w>
en rol
ent almente</w>
ali viar</w>
Represent ante</w>
di metil
SI ÓN</w>
Labor al</w>
Com puesto</w>
educ ativos</w>
bur g
pa tri
az mente</w>
sted t</w>
tr aum
s uelos</w>
F aro</w>
Ca iro</w>
Cos play</w>
V ino</w>
terr oristas</w>
min ería</w>
Ám sterdam</w>
Fern ando</w>
Bu f
hidr óxido</w>
ós foro</w>
distribu idor</w>
Smit h</w>
lic encias</w>
mon et
denomin ado</w>
A .
escal ada</w>
con fort</w>
ven dedor</w>
er mo</w>
T anz
prove er</w>
control adores</w>
á bricas</w>
gan ch
to st
2 x
c ésped</w>
sanguí neos</w>
Del ta</w>
PUER TA</w>
Loc al</w>
tra e</w>
congel ador</w>
K a
3 3.
responsab ilidades</w>
herm osas</w>
A U</w>
s l
ox i
R y
Pr ensa</w>
ci tas</w>
me tilo</w>
K le
óp timo</w>
af il
ac aba</w>
disper s
P .</w>
M aj
s ville</w>
propag ación</w>
H ombro</w>
loc alizar</w>
ileg al</w>
- D
ó tido</w>
fir mar
AP P</w>
corre r</w>
emple ar</w>
Garc ía</w>
ch ero</w>
f et
K O
Gu itarra</w>
visi bles</w>
calibr ación</w>
Hor arios</w>
dirig ir</w>
Fáci l</w>
mir ar</w>
con ectividad</w>
hués ped</w>
ny .Net</w>
Bash ny.Net</w>
universi t
ing .com</w>
ti ro
è re</w>
solu to</w>
resol uciones</w>
purific ó</w>
cru z
EE. UU.</w>
is s</w>
recombin ante</w>
comun itario</w>
St or
u elas</w>
per ci
p idos</w>
interes adas</w>
ó cr
cam ar
afin idad</w>
8 6
l ah
escán er</w>
met al
dificult ad</w>
Tú nez</w>
Mar y</w>
cion ados</w>
Mod ule</w>
equil la</w>
B in
3 10</w>
par king</w>
T ak
et y</w>
den un
St and
Or le
Nápol es</w>
s ép
TF T</w>
eg ip
ti ro</w>
tún el</w>
prefer encias</w>
H eb
ang i
rej illa</w>
Municip ality</w>
Libr o</w>
remol que</w>
palest inos</w>
Z i
S ensores</w>
cil la</w>
ab uso</w>
Fam ili
sáb ados</w>
2. 4
ul ina</w>
en ne</w>
C isco</w>
inmun o
progr esos</w>
Su ministros</w>
expres ó</w>
An illos</w>
m ás
logr os</w>
tor as</w>
infrarro jos</w>
P om
s y</w>
cog ni
plant e
Su ave</w>
Seg u
cab le
inici ales</w>
ad miten</w>
pes ado</w>
Ki ev</w>
azu fre</w>
L ente</w>
qu im
ali vio</w>
V ectores</w>
ém icos</w>
favor able</w>
Es pacio</w>
quiz ás</w>
co br
a éreo</w>
mur ió</w>
int er</w>
de d
ip s</w>
asign ar</w>
co sec
mir ando</w>
tot ales</w>
D ici
ver ific
ocu s</w>
fisc ales</w>
colg antes</w>
Pro ceso</w>
orn ill
caus ada</w>
bol sillos</w>
pe tir</w>
el asticidad</w>
ati sta</w>
qu itar</w>
dispon er</w>
W A</w>
ri ego</w>
sen al</w>
vac a</w>
id el
pró stata</w>
op er</w>
Vivi endas</w>
Prim ero</w>
ológ icamente</w>
contribu yen</w>
em potr
cu ál</w>
Amaz on</w>
di vor
AN TE</w>
sec os</w>
intest ino</w>
fi c</w>
des apareci
ú plex</w>
L ot
pl ante</w>
hidro gen
cosec ha</w>
chor ro</w>
Mont aña</w>
ú rese</w>
or ales</w>
n odos</w>
ne o
Pro v
resp ectivas</w>
fin anzas</w>
En ví
ov ina</w>
Vi sión</w>
suel en</w>
vir al</w>
médic as</w>
administr a</w>
Herm osa</w>
F ashi
ún icos</w>
extra er</w>
Cumpl eaños</w>
A E
15 00</w>
PRO DUC
M odo</w>
D allas</w>
ti bles</w>
S erg
Nav eg
f érica</w>
exter nas</w>
filtr ó</w>
J a
Cap ital</w>
p unt
S we
c asi
identific ador</w>
burbu jas</w>
Guad al
ge ometría</w>
H acer</w>
Gr ados</w>
anim ación</w>
acep tación</w>
so ja</w>
in cidentes</w>
prefer idas</w>
en ju
ampl ificación</w>
past el</w>
Nicar agua</w>
r illa</w>
dep enden</w>
P edi
po p</w>
D imen
Secre t</w>
combusti bles</w>
TR A</w>
est ante</w>
i fique</w>
tr icos</w>
quil las</w>
b eta</w>
acu áticos</w>
Mün chen</w>
pu si
Ex peri
B ed
Tas k</w>
inmun idad</w>
anti deslizante</w>
agreg a</w>
Re puestos</w>
T AL</w>
E le
den om
Lov e</w>
X ML</w>
transport ador</w>
S ent
prohi bición</w>
li enzo</w>
17 .
á metro</w>
azul es</w>
cre atividad</w>
IN O</w>
R on
C inta</w>
A go
conmut ador</w>
concesion arios</w>
K ol
Caf etera</w>
oper ativos</w>
subr ay
díg itos</w>
b on</w>
re flex
efic azmente</w>
auto pistas</w>
post -
instr ucción</w>
Produc tor</w>
pa Ã</w>
pot encialmente</w>
estacion ales</w>
N º</w>
N egr
alf ombra</w>
fu l</w>
Del uxe</w>
A c</w>
campañ as</w>
Desarrol l
Al pes</w>
desvi ación</w>
M D</w>
t orm
eñ os</w>
engran ajes</w>
f ull</w>
í tico</w>
N ord
mo queta</w>
en berg</w>
vac unas</w>
Vac aciones</w>
brill antes</w>
ut amente</w>
Köl n</w>
18 .
t ando</w>
r or</w>
ing ham</w>
East ern</w>
Apar ato</w>
ag ü
Uten silios</w>
Camp ing</w>
ev olu
sac ri
termin a</w>
san itaria</w>
ejec uta</w>
pa la</w>
ubic ados</w>
def ectos</w>
ar ela</w>
G y
Archiv o</w>
S lim</w>
C ard
B I</w>
g h
A gen
el ga</w>
ch ico</w>
at u</w>
Dici embre</w>
D ong
w all
her n</w>
pres iones</w>
flot ante</w>
b i</w>
m A</w>
Gro ve</w>
M ario</w>
contr atación</w>
pest aña</w>
Down town</w>
Ch in
proced ente</w>
om e
des pr
present ada</w>
cr udo</w>
Des p
Monit ores</w>
F L
prefer ente</w>
C ay
Jap on
M y</w>
20 4</w>
disfrut e</w>
Inter faz</w>
libre mente</w>
Soc cer
rub los</w>
CO S</w>
p imienta</w>
sig las</w>
P .
Cre ativo</w>
con ciertos</w>
Hol lywood</w>
Dir ham</w>
pis cinas</w>
v ital</w>
as i</w>
combin ada</w>
Alam y</w>
fac turas</w>
enfr entan</w>
car gue</w>
Consul tar</w>
Bro ad
ro jos</w>
competi tivo</w>
Je ep</w>
multi funcional</w>
bu ffet</w>
PE T</w>
De al
e uro</w>
vert ebr
nav al</w>
n s</w>
B LE</w>
cifr ado</w>
re zas</w>
re percu
20 1</w>
Españ ola</w>
n on</w>
- T
ci da</w>
organiz ada</w>
7 9
S r
I d
3 50
5. 5</w>
Sport s</w>
sul fon
To ul
per pendi
en camin
D ata</w>
in to</w>
S ed
Clo ud</w>
in suficiencia</w>
S ach
antibi óticos</w>
víc tima</w>
K il
sensi bil
4 000</w>
vendi mia</w>
em bl
raf t</w>
Ho stal</w>
Avent ura</w>
h .</w>
cardí aca</w>
esqu el
16 0
realiz aron</w>
burbu ja</w>
gr adi
facilit arnos</w>
oper ativa</w>
horm ona</w>
especi fica</w>
P si
p pm</w>
di e</w>
Kaw asaki</w>
visu ales</w>
198 9</w>
at mos
In s
at on</w>
is tic
Ph il
ME DI
pró tesis</w>
Ad el
c m
per misos</w>
ch asis</w>
ch en
precip itación</w>
org ánicas</w>
2 30
situ ados</w>
profes ores</w>
i go</w>
có mod
almoh ada</w>
1 11</w>
desc endente</w>
Cal endario</w>
pi ens
m amá</w>
Qu iz
acep ta</w>
ul tima</w>
Ark ansas</w>
fís icos</w>
comodi dades</w>
H2 H</w>
p g</w>
m ore</w>
galvan izado</w>
R AD
A x
R 2</w>
B .</w>
pro visto</w>
le tra</w>
pue das</w>
prepar aciones</w>
ac titud</w>
Im port
dif usor</w>
tex tiles</w>
cam pus</w>
no w</w>
x iaomi</w>
n io</w>
1 200
agon istas</w>
tra er</w>
A dem
aglut in
Nu tri
óm icos</w>
p om
m eg
aj e
Especi ficación</w>
sec uestr
C RE
stand .com</w>
W om
N iza</w>
Abr il</w>
3 A</w>
Soccer stand.com</w>
Sili cona</w>
presti gi
O IT</w>
se ver
ángu los</w>
con ejo</w>
dist or
J in
g em
audi toría</w>
Control ador</w>
Reempl azo</w>
P av
F lu
ín sula</w>
estim ular</w>
Tod ay</w>
Compon entes</w>
articul aciones</w>
L um
reci pientes</w>
K ur
Colg ante</w>
ri stal
Form as</w>
Á l
cal entar</w>
AL EM
Publ icidad</w>
plum as</w>
su per</w>
ar k</w>
Gu angzhou</w>
ax aca</w>
Rich ard</w>
crim en</w>
Her z
omet ano</w>
enf oques</w>
UR L</w>
X i</w>
con firmar</w>
d ney</w>
Radi os</w>
Lincol n</w>
gan ancia</w>
An na</w>
funcion an</w>
equival entes</w>
Lin ux</w>
S elección</w>
G F</w>
fun dición</w>
L es
Fun das</w>
su izo</w>
extr actos</w>
co ta</w>
Rec uer
Cu adro</w>
gas e
mezcl ar</w>
ier en</w>
of il
P ó
emo cional</w>
B ag
her ida</w>
ampl ias</w>
Sy stems</w>
Ob ama</w>
K I
sem illa</w>
escal era</w>
co ordenadas</w>
P erro</w>
T D
l ag
recu encia</w>
comprim idos</w>
pes c
apar ecer</w>
revis ar</w>
Lo go</w>
tran si
Mezcl ador</w>
P ens
T ES</w>
celebr ará</w>
Me tropolit
Jerus al
Bi ke</w>
Ex port
tir as</w>
ch icos</w>
b éisbol</w>
ar rojo</w>
sub yac
con son
conduc ta</w>
P H</w>
Gr á
reserv ados</w>
inglés- finlandés</w>
Sho p</w>
F e</w>
Ajust able</w>
mencion adas</w>
di r
Per chero</w>
An al
re construcción</w>
D ul
der s</w>
g ot
édi tos</w>
t alla</w>
fin alidad</w>
financi amiento</w>
ALEM ÁN</w>
tan ques</w>
ter es</w>
Cl asificación</w>
o vi
rad icales</w>
neg ras</w>
mostr aron</w>
Lux ury</w>
Gu an
c d</w>
Joh an
Pro j
Glasgo w</w>
terr azas</w>
permi tió</w>
exclu sión</w>
descri bir</w>
recomend ación</w>
hu midificador</w>
aldehí do</w>
sig los</w>
univers o</w>
m aci
par k</w>
c ón
H and
fre e
es mal
Lat ino
estrech amente</w>
excel encia</w>
dispens ador</w>
OO O</w>
liber ar</w>
compl eja</w>
n atación</w>
ent usi
proy ect
ar tritis</w>
N ote</w>
ná u
S yn
P ist
c esta</w>
Con st
fáci les</w>
Al -
tom on
evap oración</w>
2 32</w>
E dw
Gu inea</w>
micro organismos</w>
sec ución</w>
in etes</w>
Al cal
Anti -
res t</w>
Post eri
J orge</w>
tej ida</w>
pes ada</w>
Po si
ventaj oso</w>
ti me</w>
ll en
fund ador</w>
agu jas</w>
24 h</w>
L lam
Cu áles</w>
realiz ará</w>
especi alista</w>
es clav
Willi am</w>
Co st
posi tivas</w>
hi pot
R .</w>
si vos</w>
MT B</w>
Jerusal én</w>
Her encia</w>
apar abrisas</w>
Es lov
fran ces
am an
T at
mani ja</w>
int on</w>
R J
sab emos</w>
s ev
urg encia</w>
integr ar</w>
Par agu
horm onas</w>
endi eron</w>
almac ena</w>
Atl anta</w>
ofici almente</w>
i é</w>
Mis sis
Ay untamiento</w>
un en</w>
compet encias</w>
reduc en</w>
vil las</w>
tri pul
public ó</w>
A ve</w>
l or</w>
a -</w>
7 2
Maz da</w>
F T</w>
asisti r</w>
C ine</w>
particip ado</w>
H it
9 6
lah oma</w>
Edi ción</w>
cristal -
b oro</w>
as y</w>
ter os</w>
Y oga</w>
ladr illo</w>
inter fer
avi ol
Trin idad</w>
re flujo</w>
mon str
In v
Hi erro</w>
o cular</w>
invers or</w>
acu ático</w>
preser v
jurí dico</w>
ju dic
bor ough</w>
di sip
bo ur</w>
5 50</w>
par achoques</w>
Orle ans</w>
Ar ro
tien den</w>
so vi
defin idos</w>
apropi adas</w>
et on</w>
investi gar</w>
COU PE</w>
ob tur
person aje</w>
li er</w>
rod eado</w>
S B
pl ace</w>
em at
col i</w>
bod y</w>
Vent ana</w>
ó f
pulm ón</w>
p icos</w>
ady uv
par ecen</w>
Sant os</w>
Ok lahoma</w>
F alls</w>
H ub
conf id
ust o</w>
r ay
llev aron</w>
b ic
h incap
azal ete</w>
cocin ar</w>
Jam a
Dis co</w>
MA X</w>
so portes</w>
cristal- trasero</w>
I phone</w>
ap osi
and ro
configur ada</w>
b ito</w>
an orm
res inas</w>
conduc tividad</w>
H .
Heal th</w>
consol idación</w>
Qu ad</w>
Hen ry</w>
9 8
inver tir</w>
ch work</w>
ún icas</w>
m adres</w>
mat ar</w>
comenz ando</w>
audi encia</w>
rel len
fut ura</w>
K om
asign ado</w>
administr ativa</w>
col ectivo</w>
E U</w>
cal orías</w>
Princip al</w>
HC l</w>
p c</w>
i OS</w>
Con serv
18 0
Empres ari
Instal ación</w>
pais ajes</w>
mus icales</w>
antec edentes</w>
cer eales</w>
gener aciones</w>
arm on
Manag ement</w>
Bar bacoa</w>
inici ó</w>
cubier tos</w>
mini bar</w>
arbi tr
T all
h á
R ancho</w>
ni s</w>
k el</w>
F .</w>
u u
isi ana</w>
vas cular</w>
naveg ar</w>
ha t</w>
An ter
Pais aje</w>
form ando</w>
col ectiva</w>
H o</w>
A sistencia</w>
h et
w in</w>
w a
ai y
mascul ina</w>
Pr omo</w>
prefer idos</w>
nab is</w>
edi tar</w>
ac ár
Bom bas</w>
resc ate</w>
B O</w>
rest antes</w>
Plata forma</w>
3 .</w>
l m</w>
í das</w>
par to</w>
12 4</w>
Gu ay
iz ó</w>
solid aridad</w>
pa se</w>
Prov ince</w>
E ver
trit ur
eng li
Z o
un ir</w>
pon go</w>
l s
hac er
bar a</w>
ur ch</w>
pe c</w>
n an</w>
inser tar</w>
blo g</w>
alber ga</w>
Ob tenga</w>
gl uc
Natur aleza</w>
ser i
n ave</w>
cre an</w>
F AST
Canc ún</w>
A tr
log ística</w>
Ci tro
hot el
n ubes</w>
Er es</w>
K an
3 1
Tem por
Ser bia</w>
incr ust
cabal los</w>
asequi ble</w>
e des-
t l
sof istic
rom per</w>
L C
ch ange</w>
ocur rir</w>
fic h
regres ando</w>
po dido</w>
S ON
Et apa</w>
ug as</w>
In sp
Res olución</w>
Am éricas</w>
bon ito</w>
P OR</w>
restr e</w>
g est
dol or
lav abo</w>
F IN
Bus c
inhi bir</w>
A frica</w>
gu es</w>
E LI
del incu
adop ta</w>
be c</w>
Tr en
vál idos</w>
convers ación</w>
L LA</w>
amp ton</w>
ER O
val oración</w>
iz os</w>
N S
refl ect
oper an</w>
aqu ia</w>
naci ó</w>
V oy</w>
P H
mas as</w>
lanz ó</w>
itali ana</w>
PI B</w>
Amen aza</w>
P 2
pro s
Autom ó
z en</w>
mal ayo</w>
fant ástica</w>
D é
A 2</w>
rig idez</w>
cigarr illos</w>
tien de</w>
uci r</w>
tom ate</w>
par am
con ia</w>
avanz ados</w>
al ada</w>
J as
estim ado</w>
dese os</w>
ific adores</w>
A puestas</w>
consider arse</w>
B AS
Ro om</w>
Mult i</w>
0 5
ést os</w>
hincap ié</w>
ab soluto</w>
si ente</w>
manif estaciones</w>
S int
depor tivas</w>
In fin
24 V</w>
O axaca</w>
u ario</w>
Em br
inter n
Ch ica</w>
invent ario</w>
-2 500</w>
i ang</w>
Fil ter</w>
f an
pro ven
ac erc
Di pl
prop il
M am
tac ón</w>
Bad en-
pul sión</w>
p as</w>
re alista</w>
acril ato</w>
C lin
G ig
Lat ón</w>
Compr ando</w>
Bu y</w>
desliz amiento</w>
Deal Extreme</w>
8 mm</w>
fil osofía</w>
ub a</w>
Im ag
Almo hada</w>
Y el
contempor áneo</w>
cab all
muer tos</w>
renov ables</w>
St ella</w>
e ando</w>
mor ales</w>
Democrá tica</w>
s úper</w>
lan zado</w>
mar ido</w>
edi tada</w>
Bog ot
su ites</w>
Merc edes-
it ada</w>
co okies</w>
Pre par
Resist ente</w>
coc ción</w>
pas an</w>
des empleo</w>
Fal un</w>
g s</w>
candid ato</w>
pres ion</w>
j aro</w>
co dr
10 ,
recu br
pati tis</w>
cumpl en</w>
ros ca</w>
AP AR
Jug uete</w>
Op en</w>
Incre íble</w>
pol ici
llev ada</w>
s .</w>
p eta</w>
Mo z
bu f
aband on
TER MIN
alf ab
ó N</w>
Bal i</w>
ve inte</w>
re e</w>
Tras lado</w>
Tot al</w>
Al ambre</w>
ven de</w>
fr acciones</w>
D B
eri e</w>
ú e</w>
L S
K er
ME J
mostr ados</w>
ur s</w>
Jos ep
AC E</w>
oj as</w>
me dades</w>
competi tividad</w>
avi rus</w>
G abri
1 18</w>
az za</w>
j or
ins atur
est ática</w>
espirit ual</w>
centr ado</w>
adi tivo</w>
Fin anzas</w>
canc elación</w>
Inter nacionales</w>
su av
r .
az ol</w>
ol e</w>
e h</w>
G MT</w>
tari fa</w>
S ín
tur e</w>
te os</w>
d al
L yn
8 50</w>
trabaj ado</w>
as k
Ruman ia</w>
Jo e</w>
Ch em
con cer
P é
hiper tensión</w>
sufr en</w>
én dol
rom ántico</w>
N E</w>
sil ic
multi -
pr és</w>
L ine</w>
tex tos</w>
V ea</w>
Prot agonizada</w>
inglés- portugués</w>
co eficiente</w>
ás ica</w>
ell y</w>
estratég ico</w>
Ar ena</w>
cons ejo</w>
A er
demand as</w>
afect ado</w>
aisl ante</w>
IC E</w>
18 650</w>
T DI</w>
r enta</w>
Bogot á</w>
loc k</w>
absol utamente</w>
I E</w>
Dic ho</w>
quin to</w>
muer tes</w>
Ha ití</w>
5 G</w>
Me tro</w>
exig e</w>
Manten imiento</w>
L F</w>
pol o</w>
ap il
si ve</w>
N H
n ano
esper ado</w>
centri fu
modific ada</w>
diseñ adas</w>
con cedi
suel e</w>
qu ido</w>
ax is</w>
Car tera</w>
Or ange</w>
L LE
AN D</w>
A um
John son</w>
D ash</w>
g y</w>
l ap
r ama</w>
ug h
J unto</w>
import ar</w>
brind ar</w>
gig ante</w>
in fin
t eñ
Y O</w>
o i</w>
d an
Mar s
M ega</w>
Femen ino</w>
monum entos</w>
cal ab
dic amente</w>
mar k</w>
f ósforo</w>
Paragu ay</w>
dese an</w>
Cl ásico</w>
pod amos</w>
eci ó</w>
so porta</w>
cer as</w>
T M</w>
me tr
Eur ope</w>
signific ativas</w>
un ge</w>
dul ces</w>
W O
Má quinas</w>
en cio</w>
s pr
D yn
estableci mientos</w>
escol ares</w>
estim ación</w>
Res puesta</w>
Fl ex
infra estructuras</w>
ju ventud</w>
divi de</w>
S et
10 80
s os
T anto</w>
en al</w>
Cal zado</w>
par che</w>
l ento</w>
Sal as</w>
l ino</w>
en em
C av
domés tico</w>
Br ad
determin ó</w>
contamin antes</w>
coloc ado</w>
R G
4 50
co co</w>
a com
FAST SALE</w>
tom an</w>
compl emento</w>
por os</w>
in cidente</w>
pal acio</w>
Tr an
alem ana</w>
japon esa</w>
V AL
Enfer medades</w>
mex icano</w>
t ent
infl ación</w>
exces iva</w>
on do</w>
2 a</w>
su ci
est on</w>
Veh ículo</w>
virtu ales</w>
r atas</w>
chin o-
ef ect
po bre</w>
ac udi
nes ota</w>
end o
cuy as</w>
m yn
hidrocarbur os</w>
crit erio</w>
pol is</w>
có r
Jal isco</w>
Est ocol
AC K</w>
v a
5. 0</w>
mix to</w>
Se úl</w>
si Ã</w>
A mi
Gar anti
recicl aje</w>
Direc ciones</w>
introduci do</w>
ingeni eros</w>
est reo</w>
VE LO
per la</w>
energ ético</w>
rec lut
acopl ado</w>
P acto</w>
B art
1. 0.
chi las</w>
registr ados</w>
Del ant
AD AS</w>
bal oncesto</w>
1, 6</w>
w ich</w>
ang el
alde a</w>
top e</w>
ev acu
psi co
V inc
Ban gl
CH E</w>
frecu ente</w>
Pre ci
M R
DE LAN
N i</w>
Su p
nucle icos</w>
iz e</w>
uch os</w>
ad i</w>
E dad</w>
limpi ador</w>
ester e
mat erna</w>
sent ir</w>
proteg ido</w>
Con su
ed onia</w>
ester lina</w>
b ach
O MC</w>
rod ea</w>
bliot ecas</w>
an ías</w>
C ajas</w>
T UR
demuestr an</w>
13 2</w>
Cre mallera</w>
30 -
pe didos</w>
CO VI
pe dia</w>
ám icos</w>
fu gas</w>
cre ada</w>
Fog ones</w>
o ti
terci opelo</w>
ju z
Dispon ible</w>
h os
Pu zzle</w>
J ard
Cor ner</w>
ati on
fr uto</w>
dé fici
M aker</w>
Fac ultad</w>
Dubl ín</w>
llev ando</w>
ri e</w>
circ und
muev en</w>
capaci tados</w>
inmer sión</w>
h d</w>
M ún
U se</w>
prob ado</w>
L ex
Edi m
env ases</w>
K E</w>
ap unt
10 7</w>
divi dir</w>
ayud arte</w>
Min nesota</w>
Book ing.com</w>
banc aria</w>
He ad</w>
re fi
col ocar
permit an</w>
y ang</w>
myn et
az z
Pas tillas</w>
ow a</w>
camp amento</w>
mynet fair</w>
gir atoria</w>
Gri fo</w>
á d
ot or</w>
m eta</w>
agr esiv
Con ectores</w>
grán ulos</w>
deci dido</w>
experim entar</w>
hi ba</w>
sáb anas</w>
e on</w>
dig n
Cuán do</w>
im itación</w>
ocu par
innov adoras</w>
Ham burg</w>
cre di
alg uno</w>
O 2</w>
y p
- V</w>
monoc l
publ ici
necesit amos</w>
f ábricas</w>
B T</w>
ros cada</w>
p alm
Ar gel
inalám bricos</w>
O reg
Wor d</w>
Ofrec emos</w>
G a
alco hol
Fo x</w>
Cr édito</w>
fac tura</w>
aqu etas</w>
hu ella</w>
j o
1. 3</w>
k .com</w>
po zo</w>
com posicion</w>
Cep illo</w>
É S</w>
TO N</w>
Pre visión</w>
s un
estableci das</w>
er da</w>
Min istr
B RI
Hard ware</w>
farm a
de la</w>
ir r
V uelo</w>
recomend amos</w>
et ín</w>
el ería</w>
Exper tos</w>
dese ados</w>
am ig
entreg ar</w>
k reis</w>
consci ente</w>
F or</w>
en ia</w>
GRA TIS</w>
trop ical</w>
m uro</w>
c ach
sep a</w>
des echos</w>
15 -
cop ter</w>
percep ción</w>
ag onal</w>
pudi era</w>
crí ticas</w>
Centr o
O L</w>
gas tron
radi ador</w>
Tr ast
Cli p</w>
S é</w>
W all</w>
A sus</w>
bi z</w>
estric tamente</w>
someti do</w>
aís o</w>
AUTO WHOLESALE</w>
com a</w>
afect ada</w>
fi ebre</w>
Rel acion
Mercedes- Benz</w>
ins cripción</w>
Montre al</w>
T B</w>
Sa una</w>
Tim es</w>
Re cord
Anim ales</w>
2 60</w>
S 6</w>
mu era</w>
T etera</w>
Pl eg
su ales</w>
Tabl ets</w>
odi sta</w>
difer encial</w>
abri ó</w>
Cast le</w>
Ago sto</w>
dibuj ada</w>
pu entes</w>
ombr as</w>
3 20
t ori
br ida</w>
particip ó</w>
ol i</w>
c la</w>
F ocus</w>
prepar arse</w>
pat ología</w>
i ciones</w>
f regadero</w>
O C
P ep
per óxido</w>
k W</w>
Bar rio</w>
1, 0</w>
Con tabilidad</w>
mont ada</w>
empu je</w>
del iber
Adem as</w>
Tr enes</w>
Cuán to</w>
re em
atra er</w>
Pre paración</w>
mant uvo</w>
iz as</w>
du pl
ag arre</w>
mon ómero</w>
ciru j
form ados</w>
represent ar</w>
doc tor</w>
avi er</w>
V U</w>
desarroll adores</w>
Edim burgo</w>
P ag
Ab u</w>
hídr ico</w>
artifici ales</w>
Bo la</w>
Aut oridad</w>
Y or
m id
do la</w>
crí menes</w>
D P</w>
fom ento</w>
I sab
í e</w>
er ing</w>
zap atillas</w>
bas an</w>
e ína</w>
Harr y</w>
DELAN TER
urban ización</w>
ab eth</w>
I ES</w>
destil ación</w>
min g</w>
calent ó</w>
compr ue
c k
Tr ajes</w>
O cé
Pas cua</w>
S pan
detall ado</w>
ca m</w>
Tim e</w>
domin ante</w>
átom o</w>
tr adiciones</w>
Tod avía</w>
L .
aliz aciones</w>
Almacen ar</w>
clar idad</w>
G ot
0, 0
íl icos</w>
bi kini</w>
reci nto</w>
12 3</w>
n it
Ex iste</w>
pu la</w>
clín icas</w>
Raf ael</w>
O MS</w>
revol u
mon ómeros</w>
itu ania</w>
Pro hi
nom inal</w>
competi tivos</w>
Excel entes</w>
escri ba</w>
ef ectivamente</w>
W and
V aqueros</w>
CI CR</w>
Lí bano</w>
signific ativos</w>
lev adura</w>
conven ientes</w>
gar antías</w>
Citro en</w>
Val e</w>
Re alizado</w>
G o</w>
h el</w>
diclor ometano</w>
re os</w>
destac ó</w>
2 D</w>
ví deos</w>
destac ar</w>
dej ando</w>
Chi ang</w>
ráp idas</w>
br and
AS A</w>
cardiovas cular</w>
X S</w>
B ail
ul ada</w>
inform acion</w>
especi alizada</w>
evalu aciones</w>
añad en</w>
ot ec
mont able</w>
gan ancias</w>
re mi
aloj arse</w>
cali enta</w>
R ab
ográ ficas</w>
B asi
vertic ales</w>
u i</w>
T R</w>
Cor ta</w>
As soci
manz ana</w>
Esp ec
A didas</w>
anti r
manten iendo</w>
sur gen</w>
Ent reg
ogr ama</w>
gru esa</w>
trans ferencias</w>
segu irá</w>
re ino</w>
Bos ch</w>
fl ota</w>
N um
DI ES
suc edi
B oy
salv ar</w>
centr í
V C</w>
ger ente</w>
bl ia</w>
mon o</w>
Bur deos</w>
at t</w>
especi alizado</w>
VI D
inter nacion
dis puestas</w>
Jo se</w>
IN E</w>
cable ado</w>
cl oro</w>
post al</w>
ag l
P et
especi ficación</w>
ar ina</w>
For est</w>
mamífer o</w>
amino ácido</w>
Technolog ies</w>
encontr aron</w>
P atio</w>
mar car</w>
enfri ó</w>
compr adores</w>
5 1
hist ori
e au</w>
par cela</w>
mar in
Par ece</w>
cardí aco</w>
I M</w>
T ema</w>
injer to</w>
conduc tos</w>
Ad ul
emerg entes</w>
Pi erre</w>
increí bles</w>
L M
si ppi</w>
Cu enca</w>
Pas eo</w>
Ad ri
pr ens
1. 000</w>
vál ido</w>
bald osa</w>
tri ple</w>
po de</w>
j ef
M alla</w>
J ac
Po d</w>
L ó
ö n
person alizar</w>
expres s</w>
cu t</w>
chino- inglés</w>
a frag
quirúr gica</w>
aisl ados</w>
especi as</w>
K ansas</w>
Mens aje</w>
Den ver</w>
P eti
R over</w>
impresion antes</w>
asist ente</w>
Conoc e</w>
mostr ando</w>
f all
ati tis</w>
ar cilla</w>
10. 1</w>
it h</w>
uev a</w>
medi ano</w>
Al arma</w>
Vall adol
S igu
Gol fo</w>
Qu inta</w>
Fr ente</w>
elabor ado</w>
E MB
o puesto</w>
UN CI
ati os</w>
ll enar</w>
fel icidad</w>
P in</w>
noctur no</w>
jer inga</w>
encarg ado</w>
intrav en
Ta b</w>
s b</w>
identific ado</w>
Electri c</w>
G AR
mu estreo</w>
mal l</w>
m y
k ee</w>
hom ogé
Pant alón</w>
Missis sippi</w>
In dex</w>
u lo</w>
mod ulación</w>
Di amon
hin estone</w>
as ol</w>
D .
ef ectividad</w>
con fort
Refrig er
Estocol mo</w>
Arquit ectura</w>
ASI ENTO</w>
produc ciones</w>
M ár
inform aciones</w>
llev arse</w>
in aje</w>
exac titud</w>
ific ada</w>
L ight
in seguridad</w>
di jeron</w>
P SD</w>
autom otriz</w>
DIES EL</w>
Ár bol</w>
s hip</w>
MAN O</w>
K A</w>
re fieren</w>
D av
é e</w>
b ed</w>
ning uno</w>
ul ette</w>
Det alle</w>
sal vo</w>
destin adas</w>
Y ou
mov ilización</w>
tr ión</w>
especi alizadas</w>
- M
ej uelas</w>
coj inete</w>
af ili
Bangl adesh</w>
ps hipping</w>
tranquil o</w>
i um</w>
perman entes</w>
amen az
ilustr an</w>
Phot o</w>
An der
w eb
r íos</w>
2 B</w>
Desarroll ador</w>
form ular</w>
L ap
direc tiva</w>
ambi o</w>
is er</w>
an álogos</w>
J et</w>
plás m
optim ización</w>
gener ada</w>
un ar</w>
is ocian
Al z
v al</w>
bo utique</w>
1, 3</w>
An ten
S ól
Es sen</w>
13 5</w>
Gam es</w>
Co u
int entar</w>
es encia</w>
cuadr ada</w>
ter ri
dé bito</w>
p en</w>
an at
qued an</w>
Ho us
B RE</w>
bi os</w>
19 .
ú mina</w>
Acces s</w>
lá minas</w>
realiz ando</w>
H ip
Ju gar</w>
d le</w>
y er</w>
iny ector</w>
Prin cesa</w>
6. 0</w>
bor n</w>
típ ica</w>
cr éditos</w>
H ô
afric anos</w>
me d</w>
P W
Le w
refor z
pres ur
Trans par
DE S
olig onucle
lar on</w>
dig estión</w>
v imos</w>
mod alidades</w>
aw ay</w>
0 3
euro parl
asi g
ultr aviol
enum er
ol d</w>
mé dula</w>
europarl .europa.eu</w>
D AS</w>
al ér
mobili ario</w>
Lux emburgo</w>
un der
prepar ó</w>
tr enz
ventaj osa</w>
mas car
Spa in</w>
Pu esto</w>
ayud as</w>
PR ON
F urgonetas</w>
s hor
Tor res</w>
Fu era</w>
empaqu etado</w>
P F</w>
medi ev
mir as</w>
sent imientos</w>
bu ques</w>
Am or</w>
fil e</w>
Li enzo</w>
he patitis</w>
Pas s
hosp ed
bal ance</w>
anc y</w>
V es
Medi os</w>
Bo b</w>
descri bió</w>
el ef
tor tura</w>
ás ticos</w>
Ex tr
Be ige</w>
Extranj eria</w>
k ins</w>
car se</w>
Impres ora</w>
mencion ada</w>
gradi ente</w>
Escu elas</w>
pap á</w>
Aten ción</w>
ex ámenes</w>
z h
MO TOR</w>
trad uctor</w>
frag ancia</w>
7 50
suc ede</w>
and ante</w>
abr asi
z io</w>
V lad
á neos</w>
s ha
mul tic
cuid ados</w>
198 8</w>
pand emia</w>
1. 5
re vistas</w>
cifr a</w>
Car d</w>
re vela</w>
R ent
A ún</w>
Vi sion</w>
Dis co
Ed ge</w>
i ris</w>
aliz ó</w>
Sch w
I OR</w>
HT ML</w>
Est atal</w>
represent ada</w>
produci rse</w>
bol etos</w>
T arr
afric ana</w>
ock ey</w>
celebr ado</w>
D ay
ti es</w>
le os</w>
Argel ia</w>
exten der</w>
engli col</w>
K ids</w>
4 k</w>
R uso</w>
sus cripción</w>
plat ino</w>
á neas</w>
transform ador</w>
sub -
mu cosa</w>
T emplo</w>
Ri viera</w>
k ara</w>
X 5</w>
Fil tros</w>
agn e</w>
marí timo</w>
experim entado</w>
ac us
Jama ica</w>
D ent
s ant
M N</w>
poder oso</w>
di arios</w>
S L
Di vers
Constr u
í pode</w>
T AL
Mil enio</w>
elect oral</w>
Scot land</w>
H az</w>
tempor izador</w>
re versi
clás icos</w>
Valladol id</w>
P D</w>
pi ano</w>
ad s</w>
T Y
Monter rey</w>
ester ilización</w>
Nep al</w>
3 16
transport ar</w>
Nik on</w>
9 5
Ch i</w>
Alex and
re qu
radi o
Far m</w>
tom e</w>
innov ador</w>
im pide</w>
comput adoras</w>
vi sa</w>
pig mento</w>
direc tas</w>
Par k
man chas</w>
X box</w>
s ect
municip al</w>
in dia</w>
cal zado</w>
W ür
estir eno</w>
H R
Chi pre</w>
pre fieren</w>
domés tica</w>
C ámaras</w>
ocup ado</w>
herm osos</w>
Mún ich</w>
g om
de d</w>
re ina</w>
abdom inal</w>
- sur-
lá tex</w>
4 K</w>
gu lo</w>
3 65</w>
cort inas</w>
canc er
ad o
orient ada</w>
neces ito</w>
dil la</w>
cilindr os</w>
Vi ajes</w>
AT ICO</w>
uten silios</w>
convier ten</w>
cas cada</w>
GI S</w>
ampl itud</w>
imp actos</w>
Ma i</w>
doc e</w>
comenz aron</w>
Est atu
impu rezas</w>
Pó ster</w>
X R
Afric ana</w>
electr odomésticos</w>
we iler</w>
Bomb illa</w>
molde ado</w>
des n
Itali ano</w>
r u</w>
j ue
H as
F it</w>
ci vil
Tol edo</w>
T erc
reti cul
cur ar</w>
bu que</w>
Conoc er</w>
cr áneo</w>
Vent anas</w>
P ent
Rel ator</w>
esti bles</w>
public ar</w>
av en</w>
O u
F ebrero</w>
E .
ti sh</w>
j eras</w>
conces ión</w>
Cintur ón</w>
m enta</w>
R onda</w>
cut ánea</w>
War s</w>
Bar b
cruc ero</w>
K B</w>
A hor
e ados</w>
re an
fu mes</w>
tir se</w>
s burg</w>
escrit or</w>
soci o
mit ente</w>
es cas
di as</w>
compet entes</w>
Dibu jos</w>
min ist
man y</w>
Innov ación</w>
cru z</w>
Vivi enda</w>
B S
son idos</w>
Un ids</w>
Tanz ania</w>
lici tación</w>
cu p
bi bli
Palest ina</w>
result antes</w>
congel ación</w>
L ind
I gn
num ero</w>
Se at
l enta</w>
Pequ eña</w>
cin tas</w>
cou ver</w>
p acto</w>
cam ion
al am
B ub
1, 8</w>
O jos</w>
rest ante</w>
com it
per fume</w>
don esio</w>
at h
H A
an aliza</w>
r amo</w>
Sosten ible</w>
1, 4</w>
quil ibr
Sa udi
recur r
avi ación</w>
org ull
gobern anza</w>
bar on</w>
inc a</w>
sustanci al</w>
ur ity</w>
ot os</w>
om s</w>
leg í
cab e</w>
descu bre</w>
ch back</w>
export adores</w>
cor relación</w>
ELE CTR
cort ador</w>
a a</w>
Cry p
ferro carril</w>
A 6</w>
f ó
Pul seras</w>
Grá ficos</w>
ain s</w>
il íci
fres cos</w>
ígen os</w>
prést amo</w>
Distribu ción</w>
M áscara</w>
pes os</w>
ro g
te ór
es ca</w>
sal iente</w>
L agos</w>
ú as</w>
se qu
simul ador</w>
si tu</w>
mant equilla</w>
destac ado</w>
áb amos</w>
ro ble</w>
ep í
ac ha</w>
inv itación</w>
espaci ales</w>
aj ara</w>
D- 19</w>
cigarr illo</w>
ci ca
Pa tri
In y
peri al</w>
ock et</w>
fici al</w>
b ecas</w>
an est
mol ino</w>
12 6</w>
bl ock
Embaj ada</w>
ell er</w>
Lou isiana</w>
K I</w>
tecn ológica</w>
compr endido</w>
C ob
esper an</w>
coj ín</w>
Ex ten
incub ación</w>
clor o
Van couver</w>
L AR
ro w</w>
el s
car am
carr iles</w>
re tar
compl ejas</w>
X I</w>
li p</w>
ejerc er</w>
P ista</w>
Hamp shire</w>
3. 1</w>
em ite</w>
an ismo</w>
Ning ún</w>
trop as</w>
8 7
6 n</w>
logr a</w>
Entr en
COVI D-19</w>
mo verse</w>
ab i</w>
im porte</w>
d c
H AR
3 30</w>
y o
previ stos</w>
a w</w>
Hid algo</w>
is o</w>
fr utos</w>
lo w
hon gos</w>
it i</w>
W he
o par
e ur</w>
Di ámetro</w>
Car a</w>
decor ativa</w>
T C
1 a</w>
pes ados</w>
i g</w>
concre tas</w>
fer mentación</w>
Dr agon</w>
infr arrojo</w>
asi lo</w>
án dez</w>
b ag</w>
- 5
sosten ibles</w>
ré cord</w>
fi el
di aposi
4 80</w>
Sebasti án</w>
D IC
urgon eta</w>
ingres ar</w>
agreg ado</w>
Toul o
envol tura</w>
Gu est
respon dió</w>
I ON
Form ación</w>
m icos</w>
cont orno</w>
Mar k
Saudi ta</w>
M ate</w>
fas cin
un ida</w>
expres an</w>
cab ec
Pre vención</w>
vacun ación</w>
medi cin
di ar
comparti mento</w>
farmacéu ticos</w>
Obje tivos</w>
relaj ación</w>
ev al
clasific aciones</w>
interes ado</w>
incl inación</w>
c and
12 1</w>
r usos</w>
ing esta</w>
man es</w>
at ch</w>
j uez</w>
c ana</w>
Josep h</w>
confirm ación</w>
Min i-
t azas</w>
mos aico</w>
acu ario</w>
extranj era</w>
altern ativo</w>
ok a</w>
fac el
perió dicos</w>
ur gente</w>
innov adores</w>
dor f-
Fit ness</w>
es h
PRON UNCI
popul aridad</w>
od oro</w>
linf ocitos</w>
Cr im
re fr
ev ille</w>
b um
RE LA
car e</w>
particip a</w>
T aza</w>
dimen sion
H Z</w>
10 9</w>
obl ast</w>
Tos hiba</w>
ox i</w>
glic er
al tavoces</w>
Aut ón
solub ilidad</w>
ci erra</w>
al as</w>
on e
cant ante</w>
PRONUNCI ACIÓN</w>
King dom</w>
mostr amos</w>
tem berg</w>
1, 1</w>
n ór
sal ina</w>
d ay</w>
Al i</w>
os h
re col
c ans
M 2</w>
J E
Copenh ague</w>
uu .</w>
Campe onato</w>
men str
Fran k</w>
ríg ido</w>
manten erse</w>
dispon emos</w>
Us ando</w>
Consider ando</w>
m oral</w>
ici na</w>
deb ates</w>
e .</w>
f ili
deb ía</w>
CA M</w>
s n
20 5</w>
it en</w>
identific an</w>
in suficiente</w>
ahor ra</w>
H .</w>
observ ado</w>
ahu a</w>
TE C</w>
eri as</w>
carg ado</w>
defini ciones</w>
Energ y</w>
inform ático</w>
c k</w>
Miembr o</w>
rech az
chal eco</w>
amortigu ador</w>
Es loven
X in
Tabl ero</w>
facel ift</w>
bomb eo</w>
al lo</w>
establ ecen</w>
X T</w>
cep a</w>
a cost
endi dos</w>
disfrut ando</w>
Vi sual</w>
opat ía</w>
Nev ada</w>
re generación</w>
K l
sal muera</w>
- G
Estruc tura</w>
IM VU</w>
F S
Peters burgo</w>
Hu b</w>
met as</w>
z er</w>
Océ ano</w>
alcal de</w>
Bi o
Maqu inaria</w>
pronunci ación</w>
inaug ur
in muebles</w>
direc cion</w>
IL LA</w>
Com fort</w>
tol u
er ti
D J
G ales</w>
K IT</w>
El los</w>
super a</w>
SO N</w>
A bajo</w>
N Y
arm arios</w>
Gu errero</w>
- en-
sol vente</w>
limit an</w>
e. uu.</w>
pres i
deriv an</w>
loc alidades</w>
barr eras</w>
vot ación</w>
cál culos</w>
Cos mé
des ventajas</w>
cont ador</w>
al érg
O Ac</w>
Bos nia</w>
5. 000</w>
H es
ac y</w>
B an</w>
k ie</w>
experim ental</w>
autor izado</w>
disol vió</w>
E P
Condi ciones</w>
histór icas</w>
estu fa</w>
consider ando</w>
HOTE L</w>
Ló pez</w>
Hon or</w>
En s
Cry stal</w>
Con ten
qu ince</w>
mar inos</w>
M .
ográ ficos</w>
I v
si bles</w>
Estrel las</w>
Bal l</w>
có modos</w>
X 1</w>
T el</w>
bi e</w>
equip ados</w>
Pi x
anfi trión</w>
12 5
Ef ecto</w>
Doc tor</w>
2 80</w>
El iz
Co bre</w>
elig e</w>
g st
T AN
dur able</w>
on t</w>
10 ,000</w>
farmacéu tico</w>
am er
Rob ot</w>
Gard ens</w>
esco pio</w>
y eso</w>
Mon um
Guadal ajara</w>
Cust om</w>
ped al</w>
err ad
Í n
aspir ación</w>
arrastr ando</w>
í cl
PO LA
col chado</w>
arr os</w>
des enc
afrag ma</w>
Seat tle</w>
tax is</w>
solicit antes</w>
Bol sillo</w>
respon de</w>
Wat er</w>
Pr ác
olog y</w>
n ell</w>
J on
Edi tion</w>
fund amente</w>
do or</w>
des astre</w>
en rut
M Á
trib ut
cilíndr ica</w>
bir án</w>
D 2</w>
2 x</w>
. ....</w>
se x</w>
Est abl
R idge</w>
é teres</w>
4 A</w>
o ster
lumin oso</w>
combin an</w>
Bi blia</w>
tom ates</w>
gol pe</w>
dej ado</w>
y ar
helicóp tero</w>
h and
carbo hidratos</w>
Scot t</w>
impre gn
t age</w>
hel ado</w>
den unci
segu ida</w>
pros per
sab ía</w>
at ender</w>
a oke</w>
terapéu ticos</w>
cul osis</w>
im perme
Cult ural</w>
í aco</w>
K m</w>
D T</w>
Poli éster</w>
O -
4 WD</w>
constitu ido</w>
Eslov aquia</w>
pens ando</w>
g reg
Explor er</w>
vej iga</w>
mac ro
k el
obten erse</w>
L em
mu las</w>
Resist encia</w>
0, 05</w>
un id</w>
ultraviol eta</w>
S SD</w>
k shire</w>
Ru e</w>
Br ill
p año</w>
Atl ántico</w>
tele visor</w>
israel í</w>
eli ja</w>
carp etas</w>
G .</w>
quimi oterapia</w>
practic ar</w>
polip éptidos</w>
advers os</w>
Piz za</w>
Conex iones</w>
correspon d
H ir
s ajonia</w>
S am</w>
preser var</w>
C apa</w>
Tras ero</w>
A lum
ovol ta
arquit ecto</w>
10. 000</w>
ad illas</w>
ident ifica</w>
crí ticos</w>
origin almente</w>
hu i</w>
Charlot te</w>
Ad h
Enví e</w>
An d</w>
1. 4
norm ativa</w>
fantas ía</w>
Rue das</w>
ue ta</w>
P úrpura</w>
fabric ados</w>
b ico</w>
ant or
y u
f emin
Mi ke</w>
I MP
son das</w>
gan da</w>
C AB
lubr icante</w>
in dispens
ejempl ar</w>
Instrum ents</w>
1 B</w>
j an</w>
impres a</w>
1 16
const antes</w>
a fron
I V
g ados</w>
polin ucle
Or den</w>
Desp eje</w>
cep as</w>
ai k
ug e</w>
col ina</w>
ob o</w>
TRAS ERO</w>
fres cas</w>
hig h</w>
U TI
220 V</w>
Cin co</w>
su bir</w>
Smart phone</w>
public ada</w>
inf antiles</w>
micros copio</w>
der as</w>
condens ación</w>
Tay lor</w>
POLA CO</w>
fer r
d B</w>
Usu ario</w>
tit ulado</w>
Fi at</w>
E ll
F AR
petr ol
In ver
to -
Li ver
burg h</w>
aut oc
Pr ince</w>
E D</w>
Al li
W .</w>
B uck
aterr iz
deleg aciones</w>
consist ente</w>
B rist
D ES</w>
st h</w>
Est e
ü t
rech azo</w>
nov edad</w>
expl osi
bab a.com</w>
gu r</w>
trans formar</w>
longitud es</w>
K ia</w>
19 80</w>
habil itar</w>
dro ga</w>
bi bliotecas</w>
Bus cas</w>
cel ulas</w>
w ig-
H an</w>
U M</w>
L H</w>
2. 1</w>
atr ap
eg ovina</w>
To wer</w>
Posteri ormente</w>
Pe ar
can adiense</w>
ag er</w>
not able</w>
j ub
farma cológ
camin ando</w>
Diamon d</w>
Maestr o</w>
M ando</w>
instant ánea</w>
ici pios</w>
ad emas</w>
am anca</w>
sig nia</w>
ah id
sal to</w>
é ticamente</w>
W ell
p av
ec ti
cat alizadores</w>
SP A</w>
respir ación</w>
firm emente</w>
art ístico</w>
se di
cre er</w>
Red mi</w>
0, 01</w>
k -
HD D</w>
vuel va</w>
2 12</w>
cel ana</w>
ran ken
emis or</w>
L ituania</w>
mu s</w>
fic ada</w>
200 0
N el
AUTOM ATICO</w>
telef onía</w>
m on</w>
P OS</w>
A j
po l</w>
ot ér
aut o-
g on
cru cial</w>
con qui
complet ado</w>
ori entado</w>
Que bec</w>
Al l</w>
comunic arse</w>
A ber
col egas</w>
trabaj ador</w>
tab a</w>
inform ática</w>
agr ado</w>
As pir
ent en</w>
to alla</w>
pre dicción</w>
prepar ada</w>
fund ación</w>
nas al</w>
r pm</w>
acad émico</w>
C ables</w>
expl icación</w>
Mem oria</w>
Ali baba.com</w>
t temberg</w>
Fabr icación</w>
Cli ente</w>
r amas</w>
gui ado</w>
ag ar</w>
Christi an</w>
ti er</w>
inc h</w>
sint ética</w>
Mar ino</w>
IN MO
M ist
G aza</w>
secre tos</w>
salud ables</w>
registr ar</w>
R oc
c y
S le
S G
ven a</w>
P IN
regres ar</w>
plant ea</w>
g i</w>
M AC
sug ieren</w>
Est adio</w>
ayud arle</w>
H PLC</w>
Cap ucha</w>
cur vas</w>
com posi
N AV
combin ados</w>
mens ajero</w>
iz acion</w>
ectiv e</w>
Port land</w>
A isl
inici ado</w>
viv os</w>
ad copter</w>
sinton izador</w>
Tren es.com</w>
A KT
12 ,
Ad vent
od in
pro f
institu cionales</w>
ceb olla</w>
Carbon o</w>
E co
r ug
int enta</w>
deterg ente</w>
comp acta</w>
h eli
espect áculo</w>
6 3
mod alidad</w>
ion e</w>
almoh adilla</w>
maravill osa</w>
S ak
Ma quillaje</w>
di versi
cl er</w>
apareci ó</w>
Gonz á
vice presidente</w>
cont emp
con siguió</w>
sol dado</w>
ol ef
Ti pos</w>
tecn ológico</w>
rec aud
par ecer</w>
Pin k</w>
gener an</w>
compr ador</w>
pro fundamente</w>
es cultura</w>
dej e</w>
20 6</w>
J uega</w>
sig n
h ost</w>
busc ador</w>
bi ológico</w>
G AL
Deut sche</w>
O n</w>
solici ta</w>
revel ó</w>
Don de</w>
person alizadas</w>
R endimiento</w>
destru ir</w>
At las</w>
rad ar</w>
Pi ano</w>
B E</w>
trop icales</w>
ri eron</w>
c -
uc ran
participar on</w>
J ones</w>
S pi
ogr ap
NE GR
L P
Cha tro
bás icamente</w>
Norm almente</w>
ort s</w>
arr end
Chatro ulette</w>
óx idos</w>
S 2</w>
X XL</w>
artes anía</w>
t arse</w>
P ari
C at</w>
les wig-
Al ej
contemp la</w>
Pi azza</w>
pi ñ
Et OAc</w>
Municip al</w>
tec la</w>
rast re
K S</w>
tras plante</w>
T ube</w>
Licenci atura</w>
ly n</w>
cre es</w>
Iber ia</w>
Dep endiendo</w>
her mé
compet ente</w>
bot e</w>
arm onía</w>
sac ar</w>
present aron</w>
preci osas</w>
LO G
ast erio</w>
ver ifique</w>
Tej ido</w>
Mi gr
Mar gar
n ig
Hô tel</w>
retras o</w>
cum bre</w>
carr ito</w>
as tron
as .</w>
almacen ados</w>
tensio activo</w>
elev ados</w>
Asi ento</w>
híbr ido</w>
desarroll ada</w>
conven ciones</w>
Pleg able</w>
us b</w>
err ó
I r</w>
adap tar</w>
Down lo
ri f
lam in
D L</w>
T 2</w>
CA JA</w>
piz za</w>
em per
cor reas</w>
bl uetooth</w>
FOR D</w>
DI S
result ar</w>
Pi edra</w>
1. 0
ver s</w>
u g</w>
En ero</w>
BIL DER</w>
2, 4</w>
défici t</w>
qued arse</w>
pul se</w>
amist ad</w>
DE SC
Compati ble</w>
vol vió</w>
M 3</w>
hab ido</w>
destin ada</w>
Ca p</w>
no -
concre tamente</w>
fic ados</w>
Ni col
Liber tad</w>
sal arios</w>
labor atorios</w>
ill er</w>
ca e</w>
H RS</w>
peligr oso</w>
color ante</w>
an ni</w>
IB M</w>
aut y</w>
LU Z</w>
trat an</w>
cristal ina</w>
antioxid antes</w>
cí cl
Solici ta</w>
fal le
Co ol</w>
pulm ones</w>
mencion ar</w>
colch ón</w>
Lu min
Pi edras</w>
AKT BILDER</w>
Re visión</w>
Mont ana</w>
Fuer zas</w>
Ll ave</w>
ul lo</w>
Progr am
Abr igo</w>
confirm ó</w>
ang er</w>
ant ígenos</w>
ur io</w>
Out look</w>
Cros s</w>
ent er
energ ías</w>
R h
in tu
Exter ior</w>
tob illo</w>
t ó
ley enda</w>
hat tan</w>
desarroll ando</w>
12 8
individ ualmente</w>
a consej
AC NU
D W
orden ada</w>
uc os</w>
domés ticos</w>
crec e</w>
S now
p óngase</w>
Rec arg
Br once</w>
agu do</w>
investig ador</w>
J aco
por tero</w>
deriv a</w>
Chi apas</w>
m ural</w>
implant ación</w>
dirig idas</w>
aj illa</w>
T 1</w>
V ENT
Mel bourne</w>
tri ángulo</w>
1 x</w>
mini atura</w>
eci dos</w>
manten ido</w>
Gol d
an y</w>
H oras</w>
- 0
recubier to</w>
of t
er t</w>
cont abilidad</w>
pro me
ens ay
ín dices</w>
ing -
minim alista</w>
can nabis</w>
Plan tilla</w>
j ar</w>
Chr ome</w>
Vic ente</w>
O f</w>
W ay
ém bolo</w>
val or
tr in
of re
colombi ano</w>
Lá ser</w>
G A
tri dimensional</w>
re iter
Val oración</w>
lot es</w>
b enc
Bri tish</w>
U ganda</w>
K ey</w>
eléctr icamente</w>
B AN
b ayas</w>
neg ativas</w>
lav ar</w>
avi so</w>
Herz egovina</w>
Car casa</w>
gran ito</w>
ci ma</w>
sho w</w>
direc tora</w>
conven iencia</w>
caj ón</w>
Ar men
caus an</w>
b ati
Di ferencia</w>
fed er
enl az
Al go</w>
salv agu
precis amente</w>
4 20</w>
CAS A</w>
dur adera</w>
Ali anza</w>
dirig idos</w>
comun itarios</w>
Terr it
Ham burgo</w>
6 2
pat as</w>
auto pista</w>
de vuelve</w>
continu idad</w>
20 mm</w>
ru z</w>
pon ga</w>
d a
aqu i</w>
Ci erre</w>
C UE
Est éreo</w>
d v
Om ega</w>
apag ado</w>
F 1</w>
entr ó</w>
australi ano</w>
aci ón
Mic rófono</w>
ve o</w>
tox icidad</w>
enz im
Ch â
Nor dr
tor sión</w>
termin ación</w>
der se</w>
rec ambio</w>
ranken haus</w>
H S
estab ilización</w>
Presid encia</w>
N ylon</w>
I a</w>
tal ento</w>
carbox ílico</w>
cuán do</w>
ci das</w>
u ter
A ERO
C V
orden adores</w>
s ka</w>
he in-
Mar ri
Westfal en</w>
Os aka</w>
ileg ales</w>
Mas cul
cub ano</w>
an ga</w>
C e
20 x
cab ezas</w>
perif érica</w>
fluoresc encia</w>
absol uta</w>
Pint ado</w>
20 .
libr as</w>
oz ono</w>
emi go</w>
sindic atos</w>
estu p
Re bajas</w>
Con tiene</w>
14 0
uc tu
emple os</w>
T 6</w>
AR N
Prin ci
enc y</w>
H az
inter rupción</w>
Acr ílico</w>
Ma ine</w>
Est án</w>
FI G</w>
A X
1. 8
conjug ado</w>
Pl ayer</w>
É ste</w>
p ack</w>
envi ó</w>
caf etería</w>
S olución</w>
reti ro</w>
fís icamente</w>
Sant ander</w>
ó tesis</w>
trabaj ó</w>
Ji ang
c adera</w>
tel es
dañ ar</w>
pá jaro</w>
W u
c tel</w>
tum oral</w>
fot ovolta
aci miento</w>
Rod amientos</w>
Man gu
Dro pshipping</w>
form ance</w>
rig or
Pres entación</w>
IP 65</w>
Produc ts</w>
Com partir</w>
Al guien</w>
ter m
mu m</w>
gener adores</w>
R. L</w>
inmobili aria</w>
elev adas</w>
testi gos</w>
qu el
et -
app y</w>
ap ps</w>
I l</w>
Án gel</w>
Z -
Nov edad</w>
Entreg a</w>
2. 2
su ici
st and</w>
Sy dney</w>
form adas</w>
apr i
Person as</w>
Cal entador</w>
se para</w>
pertin ente</w>
Pan adería</w>
q ing</w>
ing e</w>
et own</w>
pi el-
defici encia</w>
Di agn
manten ga</w>
próxim as</w>
Prin ces
Mo ham
IS O
et ario</w>
san eamiento</w>
com parten</w>
registr ó</w>
dign idad</w>
R 3</w>
Co ch
Cas tro</w>
nutri cional</w>
i cia</w>
espectac ular</w>
Cam p</w>
col aje</w>
ast as</w>
amb ul
z ón</w>
n eto</w>
Guest house</w>
SI ON</w>
reun ió</w>
recib idos</w>
pusi eron</w>
R d</w>
L ucha</w>
Ex change</w>
Gir l</w>
su aves</w>
estero ides</w>
V endi
suci edad</w>
sub ida</w>
smart phone</w>
Nordr hein-
resid enciales</w>
ciudad anía</w>
La ud
D X</w>
Cas h</w>
B AL
AR A</w>
id g
Pe k
H ern
Nordrhein- Westfalen</w>
iv as</w>
eridi onal</w>
aco ge</w>
Instrum entos</w>
E J
Cas i</w>
on ados</w>
p age</w>
gr aso</w>
accion ador</w>
ab ilidades</w>
CI AL</w>
an om
cambi ando</w>
4 10</w>
ex puesto</w>
Un isex</w>
S ets</w>
f em
S ter
hu r</w>
h un
Har bor</w>
Esloven ia</w>
x y</w>
sh irt</w>
D R</w>
30 2</w>
an ales</w>
T .</w>
Pis a</w>
at inado</w>
real ice</w>
e tro</w>
atr acción</w>
Fashi on</w>
sorpr endente</w>
ro cas</w>
col l
Fl at</w>
es cl
R R</w>
ó s</w>
Ap ps</w>
ber os</w>
est and
d ama</w>
Har ley</w>
D eja</w>
lab ios</w>
inv ita</w>
mol des</w>
h -
car on</w>
ar ote</w>
mag ia</w>
Sof ía</w>
Qu ar
Gonzá lez</w>
iv e</w>
dr am
Tre e</w>
exit osa</w>
gén ica</w>
im anes</w>
Can arias</w>
Plan ificación</w>
religi osas</w>
ed rez</w>
án imo</w>
g asa</w>
Oc asi
Bloc k
k ov</w>
portugu és-inglés</w>
cor azones</w>
9 7
excur siones</w>
urb anas</w>
suel ta</w>
és- Alemán</w>
t ades</w>
ro ci
az ol
o idal</w>
emen s</w>
Z oom</w>
bu los</w>
cam uflaje</w>
od y</w>
emo ciones</w>
peligr osos</w>
Est ate</w>
proces ado</w>
rec l
proces adores</w>
b oya</w>
re colección</w>
os aur
hu ahua</w>
hi s</w>
R ain
0, 3</w>
pre mat
aliment icios</w>
Po p</w>
N y
42 mm</w>
ran king</w>
ester il
k ers</w>
uc as</w>
m ío</w>
ent endimiento</w>
expl íci
escri be</w>
enfri ar</w>
bi ológicos</w>
desp acho</w>
p x</w>
oscur idad</w>
TO P</w>
pier das</w>
men suales</w>
erb aiy
crip tomon
có pico</w>
C F</w>
26 4</w>
A 5</w>
blan que
Olí mp
Hor izon
pes qu
piel- correa</w>
at ario</w>
Fun ciones</w>
w ays</w>
ambi a</w>
H R</w>
5 10</w>
Brist ol</w>
exces ivo</w>
empres arios</w>
B LA
w ait</w>
solicit ante</w>
ex pone</w>
conten ida</w>
Vic e
Ver ona</w>
terc ero</w>
cual it
abraz adera</w>
mi o</w>
em áticamente</w>
actu ador</w>
Ch ris</w>
int entos</w>
mejor an</w>
dem n
el or
D í
hac emos</w>
y i</w>
continu ó</w>
Man hattan</w>
pol is
conduc en</w>
brit ánica</w>
d ata</w>
c ateg
P apa</w>
r un
P Y
recib idas</w>
polic ar
val idación</w>
N in
n oci
oc r
t apas</w>
auxili ares</w>
198 6</w>
relaj arse</w>
inter acciones</w>
ag ena</w>
re bel
F E</w>
reduc ciones</w>
O T</w>
sel los</w>
pod ían</w>
en emigo</w>
administr adores</w>
a fuera</w>
bal ón</w>
vuel ven</w>
lu s</w>
f alla</w>
E C</w>
in gu
gro und</w>
discu tir</w>
qu ea</w>
defini tivamente</w>
Alej and
S TA</w>
Ad ol
ne ar</w>
U RE
fr enado</w>
enem igos</w>
Y an
Trav el</w>
P le
ón imo</w>
H as</w>
manifi esto</w>
S tri
nombr ado</w>
israel íes</w>
E du
pose en</w>
So vi
desempeñ ar</w>
V oz</w>
Sk y</w>
Gre at</w>
j acuzzi</w>
escu do</w>
G P</w>
ventaj osamente</w>
ed ul
N H</w>
pa sillo</w>
mor ir</w>
supervis ar</w>
e e.uu.</w>
man as</w>
anti gü
proporcion ados</w>
m icas</w>
con curso</w>
denomin ada</w>
pest añas</w>
carp inter
1 x
tr ilo</w>
bomb illas</w>
CON TRO
i Pod</w>
bl ind
Vendi mia</w>
pr eno</w>
so c
I owa</w>
C it
recomend ado</w>
di afragma</w>
bi op
J azz</w>
sobr en
hab ilidad</w>
antor cha</w>
Po bl
c ase</w>
hom ogen
cid entales</w>
registr adas</w>
ciudad ano</w>
sab ores</w>
limit ados</w>
R H</w>
Fed er
di vid
B T
Mon cler</w>
pl ay
ch at</w>
Relacion ados</w>
pr esta</w>
3 80</w>
efec tivos</w>
cu enca</w>
emple adores</w>
acús tica</w>
port adora</w>
al ice</w>
Lleg ada</w>
Di f
satur ada</w>
gol pes</w>
em en</w>
Is landia</w>
inc ón</w>
Mi k
F IL
ilustr ado</w>
T apa</w>
Ken n
prolong ada</w>
e ber
Pr íncipe</w>
E A</w>
transduc tor</w>
bl ack</w>
Parti cip
Z im
transpar entes</w>
bil es</w>
Ñ O</w>
Ol ym
Mil l</w>
di j
w h
sen -
llam ados</w>
hu elga</w>
enci ación</w>
casi lla</w>
M org
termo st
concili ación</w>
endi das</w>
digit alizador</w>
Clín icas</w>
x en
G M</w>
SE C</w>
pon a</w>
fr aude</w>
O K</w>
vi abilidad</w>
detect ado</w>
AMI ENTO</w>
sh are</w>
provisi onal</w>
pi x
e i
vot o</w>
gr acia</w>
ero sis</w>
comerci almente</w>
cin cuenta</w>
j aula</w>
em an</w>
aliment icio</w>
deb ilidad</w>
ub ica</w>
tr aer
Dak ota</w>
óp ticos</w>
desarroll an</w>
Ma ison</w>
B LAN
Ale x</w>
end encia</w>
encontr aremos</w>
é simo</w>
Conoci miento</w>
bil aterales</w>
Guad alu
deb ida</w>
anunci ado</w>
6 50
mot or
o í
bus que</w>
po int</w>
ed y</w>
ali anza</w>
Neg ocio</w>
t óp
diar rea</w>
Bo ur
Sk oda</w>
Coll ares</w>
Cas co</w>
ej iang</w>
V ega</w>
li fe</w>
diges tivo</w>
Cuar zo</w>
pon der
var ían</w>
of er</w>
prove e</w>
plac ebo</w>
at or
Administr ador</w>
secre ción</w>
mil ímetros</w>
Ch ic</w>
rad ical</w>
po wer
ad ver
g entes</w>
pur ificador</w>
af ortun
abri a</w>
cu alidades</w>
T her
Inf antil</w>
organiz ados</w>
atribu to</w>
prop ósitos</w>
fluoresc ente</w>
espu m
sopl ado</w>
o br
et t</w>
An ne</w>
sent ado</w>
fi jos</w>
est antes</w>
conten ga</w>
pr ice</w>
is -
peri odista</w>
descri birá</w>
Hom e
as so</w>
provin cias</w>
present aciones</w>
comenz ado</w>
O ye</w>
til los</w>
I .
s abr
logr ó</w>
if f
bum es</w>
An kara</w>
Com paración</w>
Marr ak
Cal cetines</w>
h ect
des afi
tom ada</w>
fed erales</w>
parti ción</w>
Rod ríg
K its</w>
13 6</w>
mi erda</w>
Recarg able</w>
198 7</w>
ubic arse</w>
Se at</w>
z an</w>
tec a</w>
ret ard
compañ eros</w>
activ e</w>
su presión</w>
f asis</w>
V or
cac ao</w>
epis odio</w>
pos t</w>
encap sul
Toulo use</w>
Premi er</w>
rent able</w>
engi bre</w>
Cart agena</w>
a tilidad</w>
voc ales</w>
tendr ía</w>
fl echas</w>
Ri es
aplic ando</w>
Lanz arote</w>
fic ción</w>
f oco</w>
Saint e-
mun icipios</w>
inund ación</w>
Edi ficio</w>
c una</w>
Kaz aj
solu cionar</w>
rel é</w>
CE O</w>
Aco pl
tel as</w>
asumi r</w>
H ur
ir l
Lag una</w>
Bol onia</w>
os ci
don g</w>
TERMIN AN</w>
Em er
E vol
deriv adas</w>
ur ía</w>
aqu el</w>
Ay ud
ex puls
Est onia</w>
Mars ella</w>
N er
á usu
religi osa</w>
z en
tar o</w>
champ ú</w>
D RO
on ne</w>
máxim as</w>
d op
Cas tilla</w>
B 1</w>
B ás
noti cia</w>
esc enas</w>
prelim inar</w>
per si
Co urt</w>
escas ez</w>
go od</w>
Ital y</w>
B B</w>
ven d
f os</w>
Cr isti
Adh esiv
dej as</w>
emple an</w>
lig ando</w>
it ter</w>
ayud arán</w>
natur almente</w>
S M</w>
Es cape</w>
im on
gi eron</w>
ab ol
hidr ol
ex puestos</w>
Phili p</w>
y al</w>
fuer t
gan ando</w>
def ender</w>
Wür ttemberg</w>
sem i-
eno ide</w>
Ros ario</w>
fin alización</w>
3 x
ani a-
P hu
tr am
Do ug
tempor ales</w>
inc erti
reduc tor</w>
M uer
F ro
hex ano</w>
aur o</w>
SI STE
ver ificado</w>
inser ta</w>
ex haus
discrim in
au -
block chain</w>
fi estas</w>
Mar e</w>
LIZ ADOR</w>
incerti dum
tec las</w>
rean ud
dec enas</w>
consi sti
EE. UU</w>
testi mon
Tos cana</w>
P err
impres oras</w>
DH L</w>
lí pidos</w>
habit uales</w>
encant ador</w>
ayud arnos</w>
rut ina</w>
desc enso</w>
adap ta</w>
Sól ido</w>
ind er</w>
Tur ín</w>
L oo
lat ino
fot o
col ap
bom bar
CE E</w>
Port able</w>
min orías</w>
ultrason ido</w>
s alm
f ace</w>
ahor r
privileg i
Z agre
Te am</w>
desarroll ó</w>
Eliz abeth</w>
pol iv
cas quillo</w>
Gh ana</w>
alg as</w>
Commun ity</w>
2 G</w>
aprob ada</w>
W y
Mi x
supl ementos</w>
line ales</w>
emi tida</w>
Ger many</w>
núc leos</w>
ém icas</w>
par abrisas</w>
s ar</w>
Guadalu pe</w>
declar ado</w>
Ku wait</w>
bloque ado</w>
si ll
per u
U TC</w>
ar n
perpendi cular</w>
deci de</w>
bi ología</w>
Di ario</w>
Armen ia</w>
t echos</w>
o h</w>
T alla</w>
produci endo</w>
PE G</w>
AR T</w>
pr ud
Z en
Baden- Württemberg</w>
pre d
h z</w>
M AL
vulner abilidad</w>
ac ar
dirig entes</w>
c añ
Marri ott</w>
su it</w>
A O
ax ia</w>
N .</w>
H err
fi e</w>
di z</w>
metál icas</w>
in donesio</w>
ilustr aciones</w>
ex acto</w>
al ur
acces ibles</w>
Econ ómica</w>
4 33</w>
St ef
f ans</w>
Sold adura</w>
Activ e</w>
coag ulación</w>
Liver pool</w>
novi o</w>
incluy a</w>
vol ar</w>
ocul to</w>
Par adi
ob tuvieron</w>
ant enas</w>
anc h</w>
ná us
fil amento</w>
amuebl ado</w>
Fer ro
remot os</w>
proporcion e</w>
pro fil
pro pan
des arme</w>
Gri ego</w>
Ár abe</w>
Sa o</w>
trat ada</w>
monum ento</w>
inglés- danés</w>
ME I</w>
Z ur
Ma in
ál ico</w>
st own</w>
MER CE
compl etas</w>
color antes</w>
art er</w>
Cre ación</w>
ll antas</w>
k w</w>
estatu a</w>
A ero
sól idas</w>
eco sistemas</w>
K un
sent encia</w>
des ig
V PN</w>
NEGR O</w>
én fasis</w>
De tro
fuert emente</w>
Jef fer
Ar cade</w>
pre vistas</w>
consej ero</w>
sec ret
gu an</w>
S 3</w>
D B</w>
Sch leswig-
Post Script</w>
MI ENTO</w>
Det ermin
l an</w>
Compl eto</w>
naci dos</w>
Sil va</w>
Proy ectos</w>
proporcion ó</w>
gr ipe</w>
extr año</w>
al etas</w>
M bps</w>
sil encio</w>
P BS</w>
Ó p
vi e</w>
urb anos</w>
firmar on</w>
in oc
empl azamiento</w>
Vir gen</w>
I X</w>
ud í</w>
re b
financi ar</w>
codr ilo</w>
yl v
ad hi
M aster
P ar</w>
1. 9</w>
1, 7</w>
tur ca</w>
etiqu et
Estrel la</w>
B ru
Z am
Ub icado</w>
2, 0</w>
k t
igual ar</w>
Rodríg uez</w>
Ver ac
abast ecimiento</w>
lan za</w>
sustitu ir</w>
odi os</w>
espon ja</w>
Tit ular</w>
C Y
1 1-
Sigu e</w>
vertebr al</w>
medio ambiental</w>
masi va</w>
av er
h ill</w>
dres s</w>
Jord ania</w>
enorm es</w>
Go od
F ood</w>
ch ar</w>
in demn
v emos</w>
s ch</w>
li tro</w>
ab ul
Form ato</w>
Enc anto</w>
E M</w>
as um
renov able</w>
Es paci
tal adro</w>
Chi huahua</w>
pod eres</w>
invit ado</w>
C ed
pig mentos</w>
eri al</w>
po ol
p l</w>
deten idos</w>
contr acción</w>
F F
decor ativos</w>
ac ristal
pro vista</w>
il ares</w>
ar quía</w>
Qu ím
o dia</w>
k k
distribu ir</w>
at in
t aciones</w>
pi las</w>
ill y</w>
g a
anti microbi
Gar aje</w>
Cre ative</w>
is po</w>
g ástr
ad her
An tec
Chal eco</w>
1 13
bot s</w>
Cam ino</w>
Yo ung</w>
Hamp ton</w>
vist e</w>
defin idas</w>
Kos ovo</w>
c az
ch ips</w>
U M
H O</w>
ev o</w>
ad eramente</w>
u alidad</w>
rot ura</w>
ep it
ás ticas</w>
escal as</w>
Dis fruta</w>
par rilla</w>
Jun ior</w>
L lav
extra e</w>
Zagre b</w>
Sal amanca</w>
G ato</w>
conect an</w>
Proj ect</w>
Ampl ificador</w>
pul gada</w>
pl anas</w>
inv asi
Vesti r</w>
llam ó</w>
propor ciones</w>
lic enci
Autón oma</w>
sec cion</w>
ros s</w>
public ados</w>
ejecu tivos</w>
H P
cr ónicas</w>
KY BUY</w>
DIN KYBUY</w>
terapéu tica</w>
n adar</w>
estí mu
Mart ín</w>
L Í
Dig it
reún e</w>
fac es</w>
lan zar</w>
háb itos</w>
vir ales</w>
Oper aciones</w>
u ar</w>
d s
estim aciones</w>
Arc GIS</w>
od on
con firma</w>
R AN
crip ciones</w>
VI P</w>
Al aska</w>
reci bo</w>
ofreci do</w>
Champ ú</w>
val idez</w>
St one</w>
Sim on</w>
Cer ámica</w>
80 2.
Lom bar
Car e</w>
X 2</w>
Car ne</w>
increm enta</w>
acom od
especi fici
Col ecciones</w>
B ell</w>
sol eado</w>
distin to</w>
bob inas</w>
bio diversidad</w>
am able</w>
Embr ague</w>
trav es
redu jo</w>
[...]
