</S>
the
,
.
of
and
to
in
a
is
&quot;
&apos;
for
that
The
with
on
s
are
as
be
)
(
you
or
it
by
from
:
I
an
have
was
-
at
not
this
can
will
has
your
which
we
/
their
In
one
all
more
?
they
also
It
t
but
our
its
about
he
other
who
his
time
This
been
said
people
were
than
may
A
do
new
We
when
use
there
if
out
most
first
so
such
had
1
only
into
what
them
;
any
us
up
world
would
years
these
-@@
no
&#124;
like
used
two
some
You
For
If
2
my
...
many
–
information
work
through
between
very
over
&gt;
should
un@@
where
make
her
%
re@@
after
way
life
how
year
well
He
system
because
just
3
need
in@@
!
those
get
know
me
could
day
—
New
ed
now
data
same
even
&amp;
able
made
m
being
ing
see
&#93;
&#91;
different
must
part
best
help
United
good
There
take
And
then
But
re
water
5
each
4
S@@
want
she
10
s@@
during
To
es
They
G@@
E@@
ers
including
important
›
without
before
find
What
T@@
country
B@@
him
As
i
H@@
right
P@@
N@@
high
K@@
de
don
number
much
States
children
God
EN
within
place
F@@
both
man
using
own
under
M@@
R@@
process
When
body
while
D@@
free
end
three
human
L@@
around
against
o
A@@
company
countries
city
services
order
possible
d@@
p@@
C@@
example
business
development
health
last
19@@
ate
does
b@@
$
e@@
go
women
y
back
support
power
products
k@@
area
every
control
change
great
al
h@@
think
er
6
ation
n@@
service
al@@
W@@
found
according
c@@
y@@
less
since
C
ve
still
set
provide
t@@
With
state
another
government
based
case
family
long
social
dis@@
price
‘
always
quality
age
group
public
f@@
million
form
All
international
available
How
O@@
person
home
access
7
J@@
means
i@@
en@@
ted
known
here
days
level
name
European
second
present
am
20
8
small
did
going
an@@
I@@
energy
better
say
m@@
come
On
market
V@@
least
These
today
experience
g@@
That
However
China
things
per
o@@
become
car
called
study
ated
US
down
following
d
times
e
love
30
er@@
never
on@@
American
often
l@@
point
food
product
w@@
ts
12
treatment
next
something
large
give
rights
r@@
light
ch@@
working
English
few
future
One
law
others
security
too
design
th@@
a@@
+
At
type
de@@
ly
several
include
risk
en
research
Z@@
air
im@@
Hotel
ar@@
ll
15
addition
technology
men
World
z@@
located
production
says
among
U@@
results
team
already
companies
device
km
ine
main
together
Home
100
having
ating
el@@
ans
B
really
9
create
care
n
percent
or@@
value
local
line
After
By
economic
off
near
u@@
Y@@
So
global
International
Our
areas
needs
live
increase
50
conditions
x
natural
Europe
fact
State
v@@
until
result
online
look
due
history
full
side
room
U.S.
offers
America
ab@@
common
am@@
money
might
child
personal
national
little
course
making
view
project
specific
j@@
invention
blood
heart
lot
offer
shall
members
as@@
hours
away
old
necessary
house
four
sh@@
City
certain
D
open
Re@@
University
show
em@@
position
is@@
President
material
period
months
systems
past
at@@
real
ting
further
problems
game
b
growth
report
why
community
amount
feel
space
users
oil
She
management
current
National
ap@@
4@@
S
di@@
le@@
ic@@
es@@
industry
ist
2018
ad@@
activities
related
region
11
political
u
X@@
start
given
g
program
ro@@
especially
similar
sp@@
believe
provided
told
18@@
financial
again
ever
ism
San
disease
ability
action
e-@@
provides
Women
thing
content
temperature
k
it@@
non-@@
Hotels
cannot
list
tions
st@@
various
ac@@
special
cases
words
added
3@@
range
whether
pressure
ates
ar
play
cause
major
low
weight
living
levels
field
put
particular
Spain
general
young
network
user
keep
His
five
week
6@@
Other
problem
No
top
5@@
cities
site
above
book
25
2017
T
death
building
ag@@
pro@@
key
South
later
con@@
activity
red
taken
private
hand
High
continue
changes
school
ic
early
role
includes
ent
L
als
third
led
Mexico
left
art
ol@@
op@@
ings
USA
contact
York
step
land
understand
test
makes
7@@
.@@
website
Free
cells
students
route
groups
ies
ant
24
environment
minutes
designed
Spanish
ia
improve
M
el
cost
page
total
solution
war
terms
plan
method
Al@@
ti@@
done
8@@
education
Car
account
ensure
medical
14
seen
ago
Black
TV
son
single
According
across
size
music
Your
hotels
In@@
18
tr@@
interest
patients
far
night
,000
Some
enough
Do
hotel
16
along
travel
pre@@
40
comes
*
member
media
Now
whole
County
series
rate
policy
parts
skin
os
2@@
once
everything
France
clear
head
te@@
close
P
An
effect
allow
ations
sale
translation
almost
Best
Con@@
cancer
surface
application
protection
required
sure
taking
nature
ec@@
higher
»
map
nearby
created
O
os@@
speed
let
effective
North
R
woman
trip
et
ex@@
lives
society
customers
situation
F
film
easy
13
physical
co@@
center
knowledge
face
Jesus
developed
features
h
legal
strong
military
ways
fully
shown
Germany
location
E
Ch@@
be@@
works
property
took
individual
training
doing
call
visit
allows
effects
9@@
My
dictionary
resources
Council
lead
inter@@
population
EU
friends
century
performance
shows
source
Price
ur@@
Mar@@
month
model
came
tion
looking
share
claim
held
true
kind
event
ter
move
considered
potential
X
white
res@@
From
il@@
however
id@@
oc@@
More
l
active
Today
x@@
won
itself
sub@@
While
impact
road
costs
mind
got
received
Commission
try
directly
over@@
trade
learn
video
White
reduce
machine
types
term
either
Israel
usually
likely
yet
ance
French
May
ity
lower
described
um@@
recent
bl@@
force
Church
reason
largest
read
Is
significant
front
gas
ed@@
image
big
stay
Internet
ous
hard
General
us@@
ian
2016
thought
outside
meet
Trump
issues
became
upon
leading
c
17
develop
modern
difficult
run
La
simply
pay
longer
complete
N
materials
le
end@@
uses
didn
popular
doesn
ul@@
story
idea
Sh@@
nothing
est
loss
Collins
average
throughout
Union
matter
bring
om@@
receive
structure
rest
language
needed
safety
rental
return
digital
software
increased
someone
address
qu@@
associated
ors
decision
additional
began
per@@
original
word
tell
ment
Chinese
mobile
measures
les
p
Google
Many
2015
search
category
ri@@
stop
themselves
ally
color
black
projects
half
question
2019
equipment
culture
Dictionary
bed
simple
town
acid
though
forms
economy
events
meeting
June
relationship
president
House
Most
se@@
fl@@
prices
date
takes
statement
accommodation
greater
function
ons
responsible
pl@@
organization
tic
version
prevent
opportunity
°
LED
operation
climate
table
unique
particularly
pain
li@@
G
Africa
studies
Russia
for@@
therefore
ology
peace
Q@@
Air
respect
cell
60
essential
Christ
September
below
V
via
born
lines
computer
party
beautiful
protect
March
sense
six
se
reach
response
ot@@
devices
prediction
22
subject
ator
professional
office
analysis
ness
Center
choose
--
anything
train
benefits
entire
act
Sale
established
ob@@
final
sector
brain
games
file
Airport
direct
Health
job
billion
short
ph@@
started
bus
built
phone
21
October
fuel
workers
Information
Light
points
Of
self-@@
1@@
published
tive
mean
Ar@@
German
Since
500
Pro@@
December
included
weeks
purpose
coming
class
capital
everyone
involved
distance
sea
capacity
lost
build
Why
practice
actually
ir@@
attention
article
rather
enjoy
Earth
connection
solutions
July
ence
states
cl@@
Men
places
lo@@
news
Park
movement
John
II
presence
unit
et@@
ones
Short-term
ite
An@@
elements
Russian
technical
turn
hope
learning
card
parents
vehicle
whose
forces
asked
went
ver@@
king
style
November
•
During
safe
19
th
police
10@@
mm
focus
flow
base
official
z
evidence
standard
ask
section
People
communication
20@@
rooms
ical
save
connected
construction
positive
January
buy
reported
wide
basis
Group
applications
2014
mon@@
Car@@
K
inside
supply
towards
currently
ne@@
Committee
board
agreement
daily
ig@@
od@@
Nations
methods
Th@@
investment
ie
operations
central
London
Security
Although
ary
patient
moment
W
ter@@
organizations
efforts
limited
deal
leave
developing
Category
traditional
normal
perfect
produced
basic
message
y-@@
requirements
beginning
former
drive
Italy
opening
symptoms
stage
appropriate
success
um
issue
healthy
ad
ins
ful
April
mother
up@@
authorities
tools
processes
actions
mis@@
ks
complex
condition
man@@
caused
expected
par@@
record
ing@@
0@@
behind
rules
Translation
wherein
contains
En@@
under@@
a-@@
Water
approach
getting
violence
yourself
wanted
bi@@
cultural
foreign
variety
drug
ics
ton
produce
Tattoo
St@@
ra@@
models
completely
r
environmental
options
ators
ten
plant
growing
achieve
father
families
providing
Day
ists
we@@
release
Red
car@@
thus
British
soon
factors
easily
anti-@@
parties
carried
cover
23
res
Republic
serious
East
Japan
ens
First
guide
values
screen
ep@@
Buy
2013
gu@@
approximately
questions
season
la
vi@@
individuals
200
Lord
War
trying
2012
ent@@
forward
no@@
90
Services
understanding
customer
although
released
properties
ha@@
ise
link
science
attack
avoid
talk
80
Quality
Latin
miles
facilities
28
heat
goal
mission
Download
ying
ut@@
ds
leaders
bad
ants
ion
mer@@
Department
steel
starting
India
UK
Here
truth
quickly
programs
fight
Government
Italian
0
ice
2010
the@@
damage
text
Not
previous
apply
26
star
written
El
wall
der
reality
School
helps
request
require
option
brand
species
compared
Then
De@@
dec@@
cars
platform
church
sent
ker
17@@
policies
remain
ship
powerful
Even
Member
station
Canada
alone
formed
West
ah
ren@@
Central
researchers
ak@@
storage
Ex@@
Also
multiple
store
consumption
images
f
announced
Products
Because
himself
direction
Top
Bar@@
follow
steps
Human
freedom
layer
else
collection
sometimes
ana
administration
claims
lack
out@@
Development
.com
ma@@
mar@@
Blue
relevant
consider
laws
useful
animals
crisis
av@@
Business
2020
br@@
allowed
sales
#
tool
commercial
box
California
strategy
institutions
hair
details
Are
70
degree
Co@@
15@@
plans
components
Ad@@
communities
skills
Great
nation
equal
promote
2009
doctor
Service
pool
2011
web
reaction
U
generally
quite
summer
Ne@@
rates
composition
exercise
manual
code
ties
selected
Mr.
tics
commitment
February
Le@@
aw@@
Android
Can
gives
fire
highly
August
generation
ents
cr@@
Office
famous
paper
Article
saying
flight
airport
processing
remains
cm
determine
hands
difference
diseases
Paris
existing
isn
begin
Power
Di@@
si@@
ou@@
player
late
ized
weather
str@@
review
maximum
markets
staff
bit
Beach
35
Cheap
demand
beyond
meaning
Am@@
il
16@@
thousands
credit
applied
worked
saw
in-@@
embodiment
exchange
highest
he@@
responsibility
ke
ered
choice
internal
benefit
opportunities
su@@
recently
eyes
Bank
green
annual
tax
ina
standards
importance
Facebook
memory
gl@@
happy
successful
Open
accordance
probably
liquid
download
sleep
Museum
27
ground
anyone
citizens
2008
rich
latest
Dr.
hold
Kingdom
operating
Sp@@
Each
wrote
cent
director
ard
trans@@
element
System
me@@
PC
H
technologies
ling
combination
add
sustainable
bank
reasons
Ac@@
com@@
send
faith
ality
og@@
requires
religious
fall
portion
transfer
vision
metal
causes
employees
nearly
obtained
flights
ay
electric
Christian
independent
marketing
perform
leader
instead
court
scientific
defined
transport
wood
v
RE@@
Be@@
continued
creating
button
Party
del
diet
3D
synonyms
immediately
glass
increasing
bo@@
seems
centre
sports
ideas
o-@@
plants
sexual
document
ge
cor@@
ge@@
brought
died
press
sources
Gu@@
«
check
Sch@@
Washington
12@@
maintain
ages
books
affected
serve
st
ty
USB
Definition
walk
ev@@
charge
decided
ering
enter
baby
battery
display
reports
ass@@
Institute
poor
Mon@@
ready
31
mass
t-@@
appear
suitable
mo@@
strength
grow
bar
becomes
ically
comp@@
sk@@
directions
prepared
regional
Set
Children
Mc@@
Online
0.@@
functions
influence
Brazil
wh@@
reference
ments
sal@@
progress
ize
wants
friend
ta@@
primary
remember
Two
regarding
challenges
co-@@
creation
id
industrial
views
war@@
era
rec@@
preferably
Puerto
sound
See
pe@@
chemical
Windows
critical
reduced
ang@@
goods
cooperation
killed
drugs
island
Don
signal
affect
mental
internet
answer
status
Therefore
sites
majority
giving
players
app
floor
Let
blue
1.@@
changed
door
gave
protein
morning
campaign
thinking
earth
sex
Law
def@@
hour
band
seven
cut
tes
anti@@
eat
animal
worldwide
effort
re-@@
goes
Per@@
uc@@
Social
Qu@@
Par@@
planet
aid
WiFi
implementation
Who
min@@
Se@@
etc.
object
29
carry
excellent
00
e.g.
ten@@
AC@@
schools
€
carbon
ol
14@@
ish
Once
documents
Homepage
32
identify
happen
1,@@
Design
sign
reached
King
placed
ste@@
ale
character
paid
phase
2007
Australia
payment
photos
ill@@
Court
w
Good
Dis@@
ati@@
UN
containing
nuclear
interests
fish
resistance
io
therapy
rise
Rights
Man@@
civil
print
ure
compound
gr@@
determined
advanced
concept
contain
View
Asia
playing
career
officials
birth
mixture
ma
é@@
ud@@
Use
conflict
garden
win
Apple
procedure
negative
prior
ke@@
Hot
possibility
shared
ters
treated
insurance
48
IN@@
Thus
Where
advantage
Research
Santa
Control
met
traffic
hot
chance
presented
offered
Iran
Management
shape
profile
balance
2000
port
els
select
persons
ley
Minister
purposes
path
Me@@
widely
ring
apartment
Another
die
Its
frequency
ded
referred
committed
Product
ding
Un@@
Y
please
attacks
Cor@@
practices
300
income
est@@
distribution
Christmas
ide
locations
delivery
purchase
regions
followed
Barcelona
agent
window
worth
heard
length
13@@
Madrid
email
performed
Los
kitchen
rent
businesses
po@@
ging
partners
la@@
_
obtain
Ab@@
Col@@
automatic
tic@@
decisions
beach
Leather
author
journey
ked
volume
Games
fluid
huge
server
to@@
piece
happened
solar
Steel
resolution
Art
etc
speak
ideal
fast
Machine
2-@@
background
external
files
plastic
knew
Food
minimum
programme
race
istic
Just
im
if@@
overall
units
expression
core
target
fear
context
writing
45
engine
Ma@@
Tr@@
dem@@
aware
al-@@
gold
sw@@
stand
Cars
kids
des@@
ative
deep
running
girl
rule
voice
eye
vehicles
aries
Ro@@
sc@@
ancient
reg@@
experiences
efficiency
lose
ade
arch@@
hom@@
spread
2006
inc@@
planning
ats
ial
Color
occur
continues
wrong
Part
dead
student
Western
ended
ms
iting
stress
manner
Inter@@
AS@@
ends
Global
Data
experts
Pharmacies
assistance
interested
wife
numbers
track
innovation
rel@@
Get
solid
El@@
ang
holiday
felt
ah@@
5-@@
OF
izing
played
Public
ber
er-@@
ml
named
post
wish
ths
Before
on-@@
duration
principles
Convention
double
manufacturers
Green
Bi@@
fat
agency
Samsung
ised
driving
changing
tour
separate
ka
imp@@
spiritual
justice
chain
contract
thanks
aspects
ged
zone
te
scale
treat
combined
ines
networks
clients
30@@
Every
appears
d-@@
stone
biggest
sky
Weather
identified
partner
cold
Travel
kilometers
challenge
ov@@
dog
electronic
reading
wear
covered
inner
Well
comfortable
risks
capable
feature
Com@@
sun
African
goals
border
Flights
2005
ry
Things
alternative
Bl@@
infrastructure
Paul
her@@
restaurants
eight
af@@
sur@@
bodies
Pl@@
moving
He@@
watch
®
News
toward
accept
extremely
David
Description
motor
authority
write
arrival
recommended
interesting
ST@@
Street
earlier
ai
CO@@
and@@
az@@
scientists
Year
ns
Board
picture
urban
long-term
discovered
efficient
selection
ain
aircraft
1-@@
exist
opened
Long
measure
micro@@
Holy
controlled
cre@@
Only
competition
note
component
regard
feeling
governments
trust
Digital
clean
mg
ological
dedicated
3-@@
iz@@
ls
offering
techniques
title
tri@@
surgery
ner
wor@@
restaurant
definition
HD
Br@@
behavior
signs
sl@@
tests
ey
browser
happens
federal
Microsoft
super@@
Sal@@
linked
Company
acts
ra
existence
characteristics
ib@@
regular
dark
procedures
Life
movie
Korea
nor
Cal@@
couple
pre-@@
decades
den@@
seem
larger
Association
forced
St.
36
Case
ub@@
high-@@
AN@@
Her@@
Fashion
clearly
Big
acy
75
List
Technology
weapons
spend
Japanese
40@@
previously
noted
bu@@
objects
emergency
whom
hear
Honda
adults
camera
Outdoor
Friday
depending
Type
agree
waste
ach@@
ane
non@@
Music
showed
compounds
bar@@
finally
del@@
Find
intelligence
banks
Please
ves
claimed
origin
Phone
ably
budget
concerned
jobs
reduction
cur@@
Man
passed
focused
remove
Monday
manage
infection
Sunday
coffee
recognized
identity
maintenance
agents
participants
heating
cheap
ano
ant@@
greatest
foods
knows
girls
removed
closed
secure
break
Turkey
signed
4-@@
block
mainly
Science
increases
ino
ay@@
ess
seek
intended
spirit
threat
Master
theory
Room
victims
sold
ug@@
click
relations
housing
supported
female
beauty
gain
becoming
park
formation
Or@@
Bo@@
Congress
calls
ization
tissue
Sea
organic
alization
stock
millions
Medical
Ministry
significantly
Americans
conditioning
improved
US@@
wind
DE@@
fun
conference
AL@@
Electric
funds
bathroom
leadership
names
achieved
initial
comprises
ran@@
channel
turned
talking
humans
Similar
SE@@
pass
limit
historical
factor
cycle
=
despite
Pre@@
aim
domestic
iPhone
framework
session
ch
Community
amp@@
33
ze
examples
Sports
participation
dangerous
spent
professionals
ger
radio
alism
Middle
allowing
round
tor@@
consumers
Rental
England
Offer
contribute
confidence
50@@
buildings
stated
letter
24@@
expect
medicine
2004
served
hospital
ari@@
exactly
Director
fundamental
sts
sugar
s-@@
Cuba
ously
severe
Mal@@
sol@@
innovative
C.
agreed
all@@
enable
ery
ars
Mo@@
tically
parking
ip@@
resulting
Guide
Texas
year-old
Assembly
crime
ver
Watch
ash
34
Luxury
ile
Jewish
ourselves
ak
Wall
languages
dr@@
adopted
description
ca@@
creative
ast
manufacturer
col@@
represents
Min@@
items
manufacturing
ser@@
figure
fin@@
raise
ys@@
,@@
Mini
-based
establish
Island
dry
approved
400
launched
tor
Synonyms
Rome
testing
completed
AT@@
investigation
explained
Syria
moved
Obama
Check
Their
stars
monitoring
equipped
ica
lived
Have
evolution
acc@@
experienced
circumstances
joint
fr@@
ow@@
album
integrated
Im@@
Such
Road
recovery
relatively
2003
Time
gets
visitors
ther@@
introduced
task
estimated
reducing
De
failure
fit
ets
ier
owner
hit
fields
inch
older
objective
principle
easier
armed
alized
IC@@
anc@@
Over
setting
ID
clinical
diabetes
Gold
Education
numerous
helping
criminal
Special
host
UN@@
street
é
suffering
sample
winter
myself
tical
gender
Centre
connect
television
APK
real@@
concentration
middle
About
poverty
links
observed
ven@@
dream
work@@
employment
nations
ore
25@@
AD@@
Station
ures
tree
Colombia
Search
hum@@
sen@@
Q
Family
lights
Costa
transmission
believed
AM@@
correct
touch
proposed
specifically
wasn
Z
Foundation
agencies
2.@@
providers
participate
da
typically
95
concern
virus
raised
Mor@@
preferred
houses
Print
leads
founded
cable
oral
au
desired
our@@
hundreds
proper
join
Game
sell
fruit
privacy
relationships
Pr@@
ign@@
expressed
Bus
ational
territory
filter
Israeli
ind@@
firm
mode
truly
tion@@
appearance
Book
issued
client
ear@@
spring
protected
meters
photo
ya
Next
ill
vis@@
tried
Club
contacts
strategic
mentioned
conducted
marriage
Lu@@
Energy
User
aged
ide@@
driver
alcohol
Har@@
recorded
Portuguese
fair
om
Camera
contained
icon
ular
THE
DC
ist@@
cul@@
helped
Those
ess@@
42
plane
LE@@
und@@
post@@
Plus
advance
Accessories
We@@
fans
universe
frame
feet
tu@@
desire
ur
unless
begins
38
homes
dose
rep@@
Web
except
secret
Bible
Argentina
au@@
teaching
debt
fashion
enti@@
two-@@
represent
DNA
Change
ely
discover
Mobile
Cover
fresh
berg
Organization
Li@@
Cl@@
IP
SP@@
Catholic
off@@
ot
bra@@
teams
religion
pieces
pages
Father
decide
Based
colors
song
Stock
Florida
Iraq
launch
terrace
ong@@
Tuesday
ising
ions
2001
reviews
smaller
antonyms
Spirit
currency
Yes
River
trial
bre@@
edge
obviously
Battery
AC
organized
ong
aren
ler
database
37
eating
consumer
constant
permanent
improving
stories
architecture
sets
province
leaving
accounts
Korean
learned
Any
atmosphere
arms
election
increasingly
net
Program
i.e.
Te@@
ately
55
situations
Located
occurs
Both
positions
daughter
ses
Venezuela
concerns
panel
pres@@
guarantee
perhaps
otherwise
receiving
amounts
As@@
deliver
por@@
ingly
Card
Contact
messages
AR@@
instance
ell
looks
Su@@
opinion
depends
stations
drink
automatically
SA
educational
plate
ening
ish@@
60@@
Hol@@
mil@@
so@@
installation
Be
kept
cri@@
lies
upper
square
Studies
gift
pregnancy
master
eg@@
recognize
extra
Act
adding
exposure
ai@@
ast@@
Thursday
guest
Garden
strategies
effectively
Analysis
Box
Lake
hon@@
executive
collaboration
wait
pen@@
28@@
J
departure
ens@@
respond
consequences
acting
fine
ins@@
ination
ate@@
Parts
attempt
soul
confirmed
Real
ences
Rico
accepted
yl@@
ances
Summer
doctors
ref@@
stability
44
appeared
milk
Wireless
Wednesday
match
impossible
2002
communications
indicated
structures
output
Villa
remote
ach
minute
consists
ee
ard@@
differences
00@@
Doors
Bay
tube
ahead
Val@@
artist
returned
99
installed
one-@@
Bur@@
A-@@
Ph@@
MO@@
Conference
factory
explain
directed
practical
Pro
chief
managed
medium
abuse
comprising
humanity
ta
tur@@
Federal
vote
mechanism
Note
chosen
ash@@
....
boy
enc@@
friendly
ame
di
Michael
pa@@
walls
sufficient
stored
heavy
finding
ick@@
sion
Ste@@
emotional
Er@@
records
Size
AP@@
preparation
looked
generated
immune
assets
SC@@
Em@@
conduct
35@@
Star
comm@@
Sa@@
Private
Bag
advertising
Make
reliable
ou
cooling
regulations
wine
cer@@
Map
Angeles
Chile
Protection
electrical
Arab
Results
prepare
ire
multi-@@
iv@@
ids
Jews
advice
Network
revealed
injury
applicable
dollars
ber@@
interior
ris@@
selling
150
are@@
salt
RO@@
For@@
tional
ble
ball
Shoes
Deals
articles
med
ir
atory
Ver@@
supporting
ada
Old
Like
bottom
aspect
relative
Deal
causing
Will
kinds
att@@
kill
thereof
SO@@
cy@@
fighting
AL
SI@@
Code
load
extent
forecast
historic
Series
sharing
Vector
igh@@
Figure
Mexican
iron
format
Palestinian
tend
comprehensive
bag
assembly
Or
outdoor
shop
showing
loved
recognition
fac@@
struggle
pol@@
gen@@
corresponding
ac
corporate
entry
cloud
Despite
artists
legislation
club
muscle
Winter
65
detailed
valve
CEO
faster
Silver
electricity
stable
characters
an-@@
sch@@
ne
formula
shot
Egypt
south
Love
village
James
married
ined
ished
ys
regime
forming
courses
understood
psych@@
engineering
improvement
wards
ky
ve@@
detail
27@@
Stainless
ently
Last
Ros@@
favorite
battle
generate
Word
thousand
sequence
democracy
Pal@@
der@@
FIG
male
leaves
seeing
Oh
Ben@@
air@@
operate
Support
competitive
kers
Parliament
recommend
ara
Agreement
3.@@
ides
illegal
speaking
interface
Apartment
Hong
cards
integration
Her
defense
CH@@
26@@
ell@@
instructions
fi@@
HIV
Caribbean
S-@@
university
monitor
awareness
emissions
registered
prevention
interview
measured
Grand
39
initiative
mark
tickets
Full
pattern
Kong
Under
funding
destination
Society
my@@
collected
hundred
Executive
Safety
Brand
smart
certainly
forest
height
definitely
gone
facing
north
George
bro@@
Bel@@
youth
Royal
III
equ@@
ca
powers
guests
LI@@
fer@@
waiting
bacteria
conventional
Point
fiber
army
tim@@
sensor
vitamin
offices
walking
gra@@
cross
fixed
Name
hor@@
owners
46
bur@@
brings
ME@@
provisions
Roman
Ba@@
tro@@
Shops
perspective
inf@@
forget
tea
sensitive
vel@@
husband
Project
divided
notice
ending
breakfast
hand@@
prison
Peter
ES
tors
poly@@
Saint
Discount
Policy
well-@@
2,@@
joined
fourth
Greek
nine
assessment
expensive
ford
low-@@
ru@@
Ge@@
Economic
Universal
back@@
filled
Smart
Daily
actual
residents
scene
Style
indicate
channels
keeping
willing
aging
6.@@
suit
repair
sides
expansion
Three
har@@
aff@@
600
district
chronic
row
luxury
ama
listed
cookies
speech
Reg@@
ships
Read
supports
figures
emb@@
q@@
bone
Trans@@
sectors
visible
suggest
41
doubt
conf@@
provider
ini
ute
relation
Ber@@
Image
tradition
EN@@
encourage
cleaning
Galaxy
ust@@
Saturday
particles
sport
Trade
brother
strengthen
inv@@
Ask
rock
Gr@@
assist
objectives
Furthermore
tasks
explore
collect
package
tism
6-@@
aimed
suppliers
multi@@
Secretary
seeking
Natural
pri@@
express
holding
LCD
Bal@@
cap@@
temperatures
Video
Po@@
immediate
iness
producing
can@@
vo@@
ion@@
Table
swimming
ency
mouth
DI@@
accessible
orders
Through
90@@
Action
Cable
Fl@@
trading
Indian
labor
standing
Sun
T-@@
embodiments
Low
Twitter
​
Port
ming
TE@@
controls
Lo@@
shipping
refers
fo@@
satellite
Ass@@
properly
Lamp
follows
notes
massive
matters
Mac@@
depression
arm
Accommodation
tw@@
43
Britain
Metal
radiation
Sk@@
trees
bedroom
Screen
Super
Agency
estate
surrounding
Oil
functional
academic
entered
mountain
kg
finished
Ag@@
shopping
La@@
quarter
Christians
audience
200@@
cash
Islamic
machines
District
Hair
eventually
spec@@
ER@@
Second
Ap@@
aims
Justice
co
tested
FI@@
ce
Mary
iti@@
ci@@
genetic
ING
tly
ily
plus
ours
biological
men@@
No@@
ba@@
feed
RI@@
IT
Tri@@
Take
substances
CE@@
Without
Model
enhance
foot
rentals
elled
failed
lie
sel@@
lin@@
sec@@
exposed
Wal@@
wonderful
teachers
doors
do@@
em
80@@
thoughts
TR@@
copy
Pacific
100@@
bal@@
warm
Cup
compliance
concerning
immigration
acids
Modern
Bathroom
ition
treatments
ches
solve
ola
senior
moral
yl
routes
planned
extended
52
Las
Sub@@
Holiday
oxygen
furniture
ious
Go@@
Cas@@
dogs
realize
closely
ax@@
Gal@@
owned
extreme
mechanical
transition
4.@@
OR@@
contrast
ect
wireless
tourism
remaining
classes
CN@@
Body
che@@
TO@@
Ireland
WE@@
Amazon
Finally
coast
decade
Netherlands
vital
Among
handle
Regulation
Pope
cen@@
liver
films
History
representative
fore@@
Juan
declared
CI@@
covers
ene
adult
meetings
pump
Moreover
Gen@@
update
Army
zed
priority
hy@@
Small
dialogue
flexible
brands
valuable
coverage
Donald
Bluetooth
arm@@
revolution
pretty
ase
ement
land@@
isation
fund
tal@@
Golf
Vi@@
starts
·
visual
Tra@@
consistent
promoting
circuit
70@@
spending
bs
continuous
IT@@
streets
manager
instruments
accurate
couldn
amazing
Soviet
substance
implement
ung
Press
ese
seat
criteria
7-@@
websites
represented
accident
mid@@
diameter
rural
accompanied
IN
hearing
Restaurants
investors
facts
representatives
Dress
mor@@
Du@@
proposal
ned
LO@@
meat
ving
Glass
Mad@@
Berlin
1999
onic
universal
spaces
characterized
Kids
suffer
Waterproof
Large
ord@@
occurred
ps
bil@@
mal@@
sup@@
Manual
department
gre@@
Sometimes
worse
Switzerland
limits
Shower
Hu@@
Night
CA
worst
comfort
availability
onto
centers
river
met@@
AB@@
whatever
elling
suggests
7.@@
Instead
pharmacies
47
findings
breast
Portable
C-@@
technique
Sha@@
College
hire
X-@@
ests
U.@@
football
extensive
menu
union
domain
AP
informed
leg@@
NE@@
Francisco
recommendations
na
gene
Greece
of@@
Site
..
outer
booking
printing
instrument
ium
commonly
ech@@
Mr
marked
welcome
agreements
normally
moon
intermediate
west
partnership
Auto
edition
Cr@@
soft
programmes
Academy
Moscow
expert
comments
rare
5.@@
meant
virtual
Foreign
Mer@@
metres
lets
66
Industrial
cutting
disorders
Saudi
Baby
nearest
Ham@@
beings
pr@@
Res@@
Up
proof
stages
ight
equivalent
bul@@
arrived
vast
signals
Fre@@
movements
lighting
regularly
á@@
advantages
promotion
discuss
theme
bringing
sheet
comparison
typical
Sol@@
foundation
crimes
listen
Prime
ture
attractions
evil
feelings
ori@@
audio
Website
consent
agricultural
serves
IS@@
involves
S.@@
ann@@
videos
Nearby
quick
Head
module
ón
opposition
wealth
elections
za
tells
facilitate
pi@@
remained
amed
install
ads
guidelines
hole
ni@@
haven
Mediterranean
proud
Peru
osis
olog@@
VI@@
taught
twice
percentage
ingredients
evaluation
drawn
mostly
ville
Cap@@
LE
Civil
drop
technological
ities
Square
ament
transportation
threats
Spring
ff@@
120
pressed
ive
49
apparatus
sa
classic
Administration
ik@@
vers@@
expand
Previous
professor
Radio
Bre@@
calling
teeth
ues
Photo
scope
delivered
charges
ue
Plan
constantly
ani
Islands
bridge
songs
ney
go@@
soil
AN
Bar
inal
neuro@@
ich@@
landscape
Le
yellow
Kit
exists
liber@@
©
reform
essed
closer
slow
profit
ona
destruction
54
Work
aling
container
payments
PO@@
chamber
configuration
At@@
driven
ays
switch
Back
phones
eless
pair
wouldn
LUCKYDEALS
en-@@
post-@@
diversity
dynamic
AI@@
tourist
Wh@@
false
Bu@@
tures
reasonable
buying
museum
char@@
mine
degrees
ratio
Plastic
Space
Access
Original
Using
Mil@@
contribution
diagnosis
realized
exclusive
survey
vary
Prices
ticket
ater@@
ond@@
bas@@
successfully
peoples
unable
studied
implemented
appointed
1.5
A.
compl@@
MA
Is@@
Net@@
Times
southern
institution
Professional
mining
opposite
Tur@@
Pe@@
add@@
finance
Dec@@
explains
kn@@
head@@
ades
Jerusalem
Saint-@@
Gl@@
cast
ado
Calculation
cal@@
charged
85
mechanisms
magnetic
educ@@
down@@
thr@@
symbol
ace
ata
teach
Police
pregnant
decrease
frequently
Tools
ox@@
visited
broken
slightly
paragraph
ll@@
discussion
Sam@@
ER
45@@
detection
primarily
Thanks
Show
Does
mixed
enables
Gre@@
industries
le-@@
humanitarian
categories
SHOPMY
36@@
establishment
polymer
affects
dates
association
ony
MS
League
seconds
ongoing
entirely
fe@@
resource
lawyer
indigenous
infections
deaths
i-@@
Can@@
ing-@@
maybe
Solar
Ukraine
rapid
wheel
conversion
debate
un
01
sort
D-@@
inspired
teacher
respectively
Area
BO@@
democratic
thank
communicate
disorder
Sur@@
specified
lock
requested
graph
diverse
ulation
Add
jo@@
-up
transformation
pos@@
ory
250
so-called
Super@@
politics
western
plays
axis
TI@@
northern
vulnerable
56
nice
NO@@
carrying
51
Force
situated
eng@@
samples
administrative
approximate
800
covering
creates
behalf
ow
ened
define
stores
demands
ick
makers
Brown
mi@@
ologist
reflect
Ed@@
Robert
abilities
Valley
derived
ports
dollar
translations
PS
Pol@@
boat
opinions
Air@@
flat
connections
secondary
periods
8.@@
Did
ensuring
shoes
intervention
sen
serving
herein
broad
shower
pure
29@@
Front
Automatic
anxiety
Fr@@
cont@@
itation
teen
apps
Zealand
tile
inate
obligations
replaced
error
destroyed
flowers
personnel
duty
proph@@
registration
sem@@
replace
consciousness
ual
S.
binding
ain@@
leather
patterns
grown
pictures
Co.
du@@
writer
carefully
Ser@@
granted
Images
Mag@@
Turkish
Fund
Ta@@
AG@@
stops
pal@@
Mount
neck
powder
SS
motion
rapidly
anger
fell
crucial
oph@@
minister
62
ita
ho@@
Standard
ha
input
stream
bedrooms
Ram@@
officer
elected
tis@@
joy
9.@@
answers
asking
independence
drinking
belief
capabilities
Queen
wing
angle
platforms
silver
hal@@
amino
hel@@
AND
proteins
discussed
Climate
approval
Care
Personal
Remote
Jo@@
ises
Cuban
terminal
judge
centuries
happiness
Cre@@
attached
ft
oid
www.@@
fa@@
ena
potentially
law@@
updated
SE
72
64
concrete
indicates
worry
mod@@
self
53
discrimination
izes
ums
Shipping
labour
mer
Casual
danger
imag@@
Line
dress
hidden
ospel
coating
holds
adequate
Rec@@
Report
describe
Fe@@
Mel@@
churches
\
38@@
initiatives
exciting
Bitcoin
fil@@
Muslim
Yet
1998
soldiers
ous@@
prove
trends
artificial
trend
illness
isolated
substantially
yn@@
fle@@
enemy
Do@@
CD@@
Kitchen
absence
suffered
Double
Ke@@
happening
column
refugees
fan
regulation
~
Eastern
fishing
computers
Syrian
ied
Genuine
Kar@@
regardless
packaging
command
contemporary
discovery
raw
tank
Pen@@
investments
fre@@
ulate
Motorcycle
layers
lands
pose
Sport
laser
taste
marine
Market
founder
DE
thereby
58
ians
novel
ov
authors
counter@@
loan
Ca@@
noise
bright
combat
Sleeve
Inn
Touch
largely
nation@@
evening
ear
mid-@@
ere
app@@
intellectual
amine
ges
respective
afraid
missing
injection
hood
pra@@
believes
ocean
distributed
gers
thermal
AT
cos@@
kes
commun@@
stainless
Sony
unknown
fill
Jud@@
density
ordered
Play
Ford
Panel
grade
Chicago
prayer
sil@@
CNSUPPLIER
relating
victory
Terms
th-@@
terrorism
extension
ki
necessarily
vector
carrier
Material
lawyers
arrested
blog
entity
ja
hur@@
lit@@
wedding
weekend
putting
ple@@
award
CE
8-@@
SD
pick
Festival
Ob@@
Young
possibly
native
incredible
TO
draw
roll
Portugal
anywhere
ography
dev@@
lamp
transactions
Cha@@
arian
Sy@@
effectiveness
modified
IC
rain
San@@
EC
county
Media
Cur@@
m2
stands
bor@@
fied
spot
ath@@
ust
settings
collective
ful@@
Right
ST
measurement
dreams
maintained
accessories
maintaining
ping
ning
Manager
Heart
drawing
honor
arr@@
parameters
Place
officers
voc@@
top@@
studio
ment@@
suggested
engage
que
familiar
rated
pay@@
Martin
chemicals
BE@@
extend
division
telling
akes
agriculture
ath
zero
operational
oo@@
concluded
tips
college
cop@@
cas@@
Mark
exhibition
voltage
GPS
injuries
mic
introduction
troops
temporary
employed
→
refer
Gar@@
Location
telephone
ease
hol@@
Tickets
promise
organisations
enn@@
Hall
tionally
Inc
pop@@
wave
absolutely
bound
gi@@
spoke
St
form@@
enforcement
11@@
Click
Cotton
Peace
PA
processed
east
pur@@
vacation
Ger@@
Del@@
Hor@@
harm
clothing
rating
stronger
reporting
bath
Carolina
missions
eliminate
towns
Brazilian
fy
Financial
lec@@
reaching
Hospital
provision
MP@@
Federation
Due
ther
presentation
deals
violent
passengers
P-@@
embr@@
movies
D.
DO@@
aluminum
Following
Cam@@
DS
MI@@
í@@
stopped
survival
F-@@
talks
ordinary
tons
shops
alive
saving
MA@@
victim
voting
specialized
2.0
Pa@@
losing
ishing
knowing
facility
grew
export
clothes
residence
ester
depend
ams
Coffee
Municipality
ites
pharmaceutical
Golden
BMW
muscles
10-@@
conscious
removal
submitted
negotiations
low@@
Ter@@
bio@@
Bro@@
FOR
regulatory
imagine
alist
advis@@
tire
sun@@
versions
iled
killing
ink
Film
latter
checking
item
acted
engaged
sections
acceptable
committee
illa
fabric
ward
Go
Democratic
k-@@
brake
Palace
wire
library
deb@@
Lawyers
Key
roads
sodium
log@@
Toilet
PE@@
drivers
ura
productivity
optical
painting
employee
protecting
hardware
bel@@
organisation
winning
Tal@@
tives
index
mix
emerging
Sw@@
survive
trac@@
trained
corruption
Canadian
philosophy
Es@@
Cross
300@@
Dem@@
eds
dependent
revenue
overcome
eth@@
financing
rac@@
valid
abroad
apartments
Package
identification
healthcare
involving
Iron
War@@
inten@@
Working
three-@@
Display
destroy
statements
Charles
SA@@
TH@@
entertainment
ine@@
ders
ble@@
ose
lifestyle
Constitution
SC
saved
visiting
Tro@@
Train
taxes
license
lots
expectations
holder
CR@@
ultimately
Virginia
ack@@
Pan@@
formal
Mother
ote
Mos@@
cle@@
finish
min
dom@@
dance
Aluminum
gonna
long@@
dy
mL
sessions
star@@
seemed
Which
entering
AS
j
No.
parent
healing
passion
Chief
apart
recording
Example
consideration
Town
straight
pollution
naturally
integrity
beaches
transferred
beneficial
to-@@
Photos
neither
Mat@@
Pi@@
Son
Award
hospitals
entitled
detected
composed
treating
ew
label
inform
Miami
replacement
The@@
incident
transparent
emotions
Address
ards
201@@
oun@@
arrive
produces
bill
subjects
seriously
capture
structural
ands
ABS
shaped
sters
shift
deeply
Number
1000
Sweden
awarded
Pres@@
ut
AR
harmful
resistant
equality
Polish
ices
hyper@@
comply
terrorist
E-@@
interaction
yes
Cycling
totally
detect
ep
val@@
brothers
Restaurant
sending
decline
Bas@@
SU@@
ew@@
1997
ministry
separated
Short
originally
cour@@
BC
arranged
tin
cotton
relief
gar@@
ero
Author
med@@
zz@@
productive
requests
obvious
draft
sing
Hel@@
reduces
paying
Maria
phenomenon
Heating
actively
Str@@
agenda
any@@
inflammation
Bra@@
Directive
environments
generations
yer
psychological
accidents
Wi-Fi
entrance
defend
personality
sin@@
expertise
universities
Look
CL@@
dro@@
Professor
ners
conversation
escape
sti@@
Poland
runs
bars
dic@@
Thomas
ap
ron
Living
push
ric@@
AM
golf
sounds
long-@@
therapeutic
Dutch
continuing
mountains
compare
agg@@
reverse
indeed
ush@@
AD
cultures
cup
designs
Cy@@
uni@@
2.5
mobility
heritage
Rio
dia
SM@@
uters
presents
new@@
Help
blocks
Tor@@
marks
Panama
cu@@
supplies
57
entities
ears
warning
murder
Mu@@
lif@@
Arts
relates
ologists
usual
loc@@
sustainability
Mountain
Ir@@
ental
boys
letters
Ocean
pun@@
ham
proven
topic
DA
Gi@@
sitting
publication
actor
organs
Prince
part@@
thin
feels
ek
Tw@@
convenient
So@@
tomorrow
set@@
considering
Gift
accused
Ear@@
let@@
Nor@@
vessels
ped
waters
Rom@@
invest
fly
adapted
subsequent
celebrate
medication
gun
sn@@
faces
contributions
rap@@
excited
musical
Building
Systems
explo@@
Empire
all-@@
Forum
viewed
Ni@@
bomb@@
sit
Switch
intense
laboratory
pan@@
corner
.org
Tour
read@@
pipe
actors
ala
Tool
disaster
reactions
faced
stomach
Georgia
strongly
lic@@
ases
childhood
IV
Div@@
1996
sanctions
scr@@
Used
Being
Budget
attend
preventing
comprise
weak
depth
TA
Students
Four
sive
forth
schedule
greatly
32@@
evol@@
eled
dimensions
colour
compositions
aj@@
Female
Affairs
applies
stor@@
ching
ula
dig@@
Toyota
farmers
hydrogen
Vintage
110
preparing
kingdom
TS
Northern
stein
ali@@
medicines
visits
ome
ty@@
waves
sy@@
strike
700
ore@@
nutrition
transmitted
quiet
flexibility
rising
Beijing
ok@@
protective
syndrome
anniversary
Rob@@
manufacture
ella
sin
Al
miss
ack
ots
cra@@
ster@@
ign
contrary
ole
perfectly
acquired
3,@@
ce@@
Mi@@
Ltd
absolute
falls
riv@@
breaking
New@@
targets
Afghanistan
boost
concepts
watching
Medicine
ela
connecting
none
Hand
cat
dining
Asian
tumor
smoking
forever
Main
attractive
functioning
reputation
lowest
exact
younger
Jersey
ster
hard@@
tioned
1995
Equipment
9-@@
count
Nature
22@@
legally
vegetables
Beauty
Tre@@
rear
adoption
98
compatible
Additionally
tar@@
euros
Team
rely
ored
IS
Wholesale
oma
amb@@
administered
Huawei
excess
heads
Op@@
parallel
sister
wild
wooden
gro@@
Don@@
legitimate
promised
literature
Supreme
61
birds
RC
PP@@
vaccine
finds
68
Bol@@
renewable
fruits
ette
performing
conclusion
invited
ature
sought
eries
Further
bear
exp@@
PC@@
guy
assigned
bing
1,000
ification
controller
55@@
genes
Removal
Bed
ich
Francis
CO
Version
ires
sting
des
Whether
Application
but@@
Flat
revol@@
thro@@
Live
root
outcome
supposed
pt
returns
statistics
William
monthly
peaceful
attitude
contracts
candidate
medications
surrounded
emo@@
Hill
ups
ops
HE@@
populations
describes
compensation
damaged
tations
windows
choices
managing
48@@
printed
turns
temple
trials
stand@@
lions
ey@@
ifying
slowly
confirm
ff
1994
hearts
sees
CT@@
Child
lasting
optim@@
restrictions
updates
extraordinary
NASA
assi@@
turning
demonstrate
essing
Ra@@
Watches
scheduled
dust
Ri@@
B-@@
Islam
rose
den
ved
Directory
oldest
sa@@
Country
alize
Woman
nom@@
Fer@@
pH
Girls
ched
Having
register
assess
My@@
aming
2021
migration
arts
possibilities
magazine
Start
economies
fifth
ico
ider
Antonio
ros@@
displayed
prefer
trouble
blo@@
ski
chapter
producer
chair
enterprise
moments
Order
vacuum
passing
migrants
Quantity
Moon
cool
producers
63
000
flows
meter
antibody
RS
Vis@@
Maybe
oo
Gra@@
graduate
difficulties
appeal
talent
Everything
molecular
stra@@
Rock
Engineering
kit
Pennsylvania
Any@@
giant
vation
islands
separation
Store
HO@@
nar@@
contents
Lar@@
transaction
restore
inhabitants
Storage
intensity
ified
solvent
demonstrated
gel
Southern
applying
roots
Luc@@
DVD
dest@@
approaches
nervous
magic
Lady
washing
mel@@
wa@@
Speed
fewer
ton@@
Province
Guest
Related
score
™
gener@@
raising
moves
hab@@
infected
injured
copper
plenty
adds
ul
fail
evaluate
dies
Value
ban
lens
well-being
Unfortunately
eas@@
shares
eu@@
topics
TRUEHEALTH
Austria
Arabia
aded
delay
festival
servers
vice
kil@@
transit
Dual
coun@@
ger@@
occupies
seeds
75@@
everyday
ail
UR@@
pilot
Bath
iss@@
Met@@
Within
canc@@
squ@@
addressed
camp
clock
IP@@
sta@@
Land
guidance
Tim@@
quantity
39@@
ym@@
programming
adventure
mention
hyp@@
sick
aut@@
RA@@
mi
lake
Czech
ure@@
sor@@
20th
museums
Compare
iding
apk
adi@@
Charger
complicated
vertical
careful
Pink
Cab@@
Page
bol@@
bigger
gradually
ager
conservation
substantial
molecules
hurt
expanded
Singapore
representation
proposals
operated
submit
yp@@
intake
Mas@@
laid
usage
Apartments
Australian
obligation
prote@@
gal@@
achieving
Coin
operator
immigrants
Software
bottle
sign@@
Factory
Dr@@
Joseph
improvements
rer
Electronic
CD
supplier
dinner
journalists
banking
DIRECTSUPPLY
colleagues
closing
tech
Bab@@
grace
newspaper
illustration
ü@@
targeted
Player
spir@@
tif@@
angel@@
surprise
Casa
hate
Disney
Euro@@
pleasure
soci@@
A-HOTEL.com
mail
favor
Bike
initially
On@@
cuisine
matic
bot@@
heaven
prof@@
Bor@@
operators
ro
fol@@
bought
suspension
wisdom
ORGANICSSHOP
37@@
&lt;
concentrated
92
keys
burn
pat@@
Revolution
involve
opens
ink@@
Dark
Yellow
Total
dealing
Av@@
hi@@
radi@@
attended
gap
attempts
App
roles
icity
Programme
imposed
cho@@
Pakistan
Everyone
Tags
oring
Vol@@
custom
Non-@@
Learn
Sand@@
artistic
divine
Rev@@
Maps
Lights
everywhere
Me
SD@@
lim@@
Terrace
handling
helpful
warranty
Rica
eggs
Wood
Max
Sun@@
Vietnam
qualified
Temple
legs
Mir@@
receives
merely
AWTOREM
Industry
Comp@@
surgical
L-@@
Mus@@
Customer
mit@@
Kn@@
syn@@
recover
lin
toxic
Flash
Wil@@
losses
Hom@@
difficulty
Smith
violations
unity
st-@@
IF@@
Fi@@
ually
courage
disk
tra@@
water@@
ius
Lee
expresses
flower
repeated
Atlantic
ida
officially
aqueous
villa
adapt
tre@@
resort
Santiago
Bon@@
mur@@
doctr@@
1990
gay
representing
measuring
strengthening
stem
Filter
Treatment
Situated
settlement
Van
Remember
Thailand
itis
requirement
thers
fees
certificate
Meanwhile
Privacy
deep@@
comment
1st
Por@@
Defense
Ang@@
collabor@@
mounted
passage
intelligent
traveling
CON@@
not@@
Houses
Cities
dried
Belgium
essentially
fying
Direct
Single
cholesterol
participating
configured
Pat@@
hydro@@
150@@
ake
ner@@
sub-@@
adopt
ceremony
Cancer
ban@@
yr@@
ements
FL
frequent
AI
firms
pointed
powered
tel
resulted
tourists
afternoon
satisfaction
Suppliers
96
farm
mutual
borders
calculated
Bill
Anti@@
int
experiment
ba
ation@@
ip
lay
vessel
candidates
Fire
Mur@@
seeks
Drive
inated
PL@@
usion
Local
transparency
person@@
MM
wallpaper
clo@@
studying
fee
reveal
habits
establishing
sm@@
Des@@
Should
lion
consci@@
ao
MP
Guatemala
Jordan
VE@@
teen@@
gate
Daniel
remin@@
ultimate
nutrients
Review
10,000
Treaty
ited
participated
ligh@@
Sciences
IA
AIDS
lying
engagement
eligible
Fac@@
Several
balanced
juice
Military
tone
Regional
expenses
courts
Richard
herself
67
rid
impacts
Bags
PR@@
Way
lis@@
Creative
itch@@
Third
Gaza
diagnosed
fatty
past@@
Sil@@
aya
presidential
Device
revolutionary
Iranian
returning
household
Classic
GO@@
protocol
Door
Better
Cu@@
Keep
engines
floors
empty
holes
dignity
after@@
Hal@@
HI@@
wr@@
Bush
bike
strange
Kur@@
Ha@@
airlines
G-@@
snow
minor
worker
competent
Motor
THEX
surfaces
Though
portfolio
sand
excessive
outstanding
ride
loans
designated
cream
conflicts
Computer
tissues
Resort
personally
HP
consisting
bearing
gs
asset
ethnic
default
Little
itors
estimate
Collection
Muslims
impressive
aches
whereas
interpretation
comparing
implementing
lah
audi@@
Over@@
savings
Mari@@
IM@@
flying
pace
bes
Details
oning
indicators
citizen
meal
assume
ly@@
charging
rice
allies
organize
exclusively
LA
Section
mill@@
intention
smoke
developments
Traffic
membrane
Norway
focuses
logo
aching
02
believ@@
Environmental
visa
rubber
Olympic
Region
functionality
Swiss
gained
suddenly
flag
Journal
maker
PR
oils
thickness
occupied
spl@@
Wedding
guys
ko
paint
coordination
sensors
Tom
1992
ries
calcium
precisely
ashes
falling
posted
ining
NEW
eration
rh@@
sim@@
opposed
certification
10.@@
weak@@
aud@@
sizes
mirror
headquarters
aring
violation
estimates
ny
roc@@
cheapest
Jack
hos@@
purchased
attorney
airports
Arch@@
insulin
residential
seed
caught
suicide
Autumn
cel@@
tax@@
hu@@
reserves
glucose
alleged
OS
lists
addresses
predic@@
1993
enormous
Green@@
correctly
Tower
ON
May@@
Perhaps
belong
Spare
exception
achievement
activated
eda
unusual
ira
eastern
enter@@
cooking
BR@@
Age
passenger
viol@@
pic@@
tennis
ights
Rear
principal
tablet
ran
segment
ham@@
Johnson
Navy
underlying
Round
reservation
operates
enemies
Parties
behaviour
permission
Walking
Indonesia
partial
Football
71
Thank
Dar@@
PVC
porters
Training
José
cognitive
aves
searching
500@@
stones
Char@@
crew
globe
tation
Led
Near
hero
Distance
authorized
calendar
es-@@
execution
Plaza
Audio
repl@@
crow@@
ight@@
tex@@
gri@@
inj@@
extract
designer
SS@@
aro
Studio
solidarity
23@@
Anti-@@
illed
width
affordable
choosing
exercises
resolve
prov@@
cheaper
59
wonder
Spa
J.
accuracy
everybody
Ban@@
ost@@
roof
Carlos
manuals
warned
reflected
Fin@@
eller
Salvador
Yeah
tower
ef@@
Ru@@
routine
GDP
inte@@
examination
Jewelry
Activities
drinks
sing@@
Ecuador
wi@@
Division
asts
alities
conqu@@
Ho@@
van
continent
Rose
creativity
aled
transform
Test@@
tle
acquisition
´
ank@@
Clothing
pray
Sar@@
ancy
lift
000@@
tra
Between
dep@@
sy
Shop
fraud
enterprises
beliefs
antibodies
Post
Fort
fantastic
ame@@
shooting
va
critic@@
witness
bags
appointment
determining
password
CH
ora
responsibilities
ible
ols
eternal
Girl
vitamins
ae
03
panels
exceed
ail@@
cameras
smartphone
Star@@
ar-@@
complications
Dominican
Diego
Mod@@
tis
tification
burg
lip@@
Ti@@
widespread
outcomes
ili@@
simultaneously
76
iny
machinery
run@@
stat@@
Kim
Popular
itu@@
77
occasion
spoken
resin
88
guided
cure
neighborhood
PDF
Sensor
74
Ring
disrup@@
Bridge
SHOPPINGBUY
truck
fellow
tol@@
ump@@
celebration
enhanced
tropical
trains
Cop@@
Med@@
á
listening
sed
campaigns
Custom
Server
constructed
fire@@
peak
indicator
Senate
introduce
incorporated
gling
Kr@@
dist@@
Tokyo
esh
pers@@
kin
Grey
Solid
calories
Select
Tar@@
circulation
@
DA@@
filed
ó@@
optimal
comman@@
accounting
ownership
determination
oven
Brake
Si@@
prime
din@@
Mars
governance
washed
managers
Orange
19th
errors
CC@@
Communication
trafficking
pet
Unit
affecting
ISO
contributed
exports
Exchange
forests
verse
shirt
prim@@
hi
fu@@
yed
Wi@@
Ur@@
Declaration
yield
CA@@
Leg@@
ben@@
pm
Scotland
tension
UNESCO
pe
scheme
Study
appreciate
judicial
atic
icate
82
Ju@@
ret@@
Crystal
Protocol
SH@@
PU
120@@
orientation
judgment
mas@@
ici@@
stuff
focusing
variable
holy
Romanian
dil@@
traditions
PRICESHOPPING
ari
mice
ater
Ak@@
BA
sof@@
encouraged
tered
worthy
atten@@
first-@@
arrest
meets
belt
dish
alongside
high-quality
acceptance
grand@@
Jos@@
mystery
retail
heated
ential
interact
tracking
Examples
uring
ome@@
brown
yers
Manufacturers
investigate
Indeed
Louis
adverse
ö@@
mortality
combine
hormone
78
dimension
earn
ruling
exceptional
she@@
bird
analyze
dental
developers
brief
Mac
trib@@
captured
modify
ensures
doses
societies
electr@@
ix
grounds
surveillance
bones
belongs
inst@@
cy
Ul@@
sanc@@
begun
essi@@
Sim@@
uted
agon
400@@
institutional
mistake
Opens
maps
ker@@
grant
challenging
impl@@
Lighting
involvement
sweet
sons
80s
acking
Audi
ify
pu@@
honest
Ol@@
Palestinians
arrangement
missed
Very
IO@@
EX@@
characteristic
lessons
Sustainable
MS@@
YouTube
Hollywood
equally
e-mail
guarantees
art@@
precision
Production
minds
Clinton
Philippines
Easy
throw
ON@@
superior
err@@
Culture
generating
Jacket
Dr
storm
Unlike
ranging
intr@@
pack
BUYCHOPPERS
organ
acute
q
radical
decoration
acked
instruc@@
Sem@@
at-@@
cardiovascular
wearing
beat
1991
reserve
preserve
DRIVE
wake
executed
plurality
painful
spokesman
tens
gifts
Authority
arrangements
1.2
linear
Cer@@
birthday
Would
poses
home@@
inflation
enabling
Holder
ax
milit@@
Corporation
controlling
celebrated
consultation
concert
mini
break@@
I-@@
coin
elegant
guides
play@@
Statistics
adjust
spectrum
Vatican
ez@@
Nice
coach
Library
English-Italian
Sc@@
earned
newly
threatened
NO
centres
int@@
explanation
du
burning
je@@
Cloud
apped
vic@@
circle
tablets
social@@
manufactured
ender
refused
Rep@@
physically
Rent
360
occupation
tables
desk
expec@@
wid@@
obesity
Boston
babies
Taiwan
Currently
dioxide
pets
Americas
Rem@@
medi@@
-to-@@
hear@@
ato
ress
uck@@
Property
enjoyed
reflection
skilled
cuts
04
affairs
86
Intel
permit
ung@@
bo
responses
classified
balcony
ading
batteries
expanding
inclusion
AU@@
graphic
ils
territories
Luis
considerable
Secretary-General
Henry
worship
nings
ulated
Suites
N-@@
stick
ith
weapon
apparent
Hum@@
reflects
PM@@
beds
lunch
substrate
Gulf
Valencia
nor@@
compact
singer
keeps
Ep@@
nerve
winner
Meeting
well-known
compete
feeding
rejected
denied
mented
ren
enabled
VI
de-@@
Ko@@
ude
grams
V-@@
synthetic
mac@@
refuse
dating
skill
preceding
ito
USD
aps
Technical
ken
hist@@
Fil@@
announcement
sum@@
itting
Geneva
supplied
Cape
satisfied
overwhel@@
serv@@
Out
oriented
Egyptian
hopes
Welcome
static
ship@@
Tourism
Test
entr@@
Breakfast
CO2
ote@@
discussions
resid@@
fix
sole
nec@@
thy
Cruz
TX
gam@@
Content
ached
UV
ographic
copies
FO@@
spac@@
yesterday
Han@@
Construction
gathered
sle@@
Cold
Far@@
breathing
inspection
Parking
publicly
attract
OR
feedback
94
Five
eling
reaches
certified
iPad
atter@@
bands
pursue
lining
guard
fiscal
cong@@
branch
sus@@
journal
TE
izer
Commercial
Express
93
urgent
69
Official
atched
Vision
Male
Student
Death
wal@@
Red@@
Class
sentence
chart
mes
09
Nov@@
teenth
sight
Alzheimer
Christianity
puts
tele@@
97
template
Off@@
readers
Environment
BS
leg
Limited
funded
Made
Awards
ti
Cel@@
nu@@
regarded
s.@@
Az@@
joining
heim
alists
Vegas
IR@@
semi-@@
05
aire
examine
mat@@
TER
processor
net@@
Castle
aqu@@
CNC
vol@@
collections
los
Gas
promises
portions
ae@@
reforms
globally
surprised
rotation
Sl@@
labels
awards
confident
Soft
permitted
Cultural
acquire
warming
130
mig@@
precise
ate-@@
limitations
ranking
experiments
Sat@@
episode
Sab@@
adjustment
essence
73
absorption
reader
Source
tip
rich@@
partially
uro
Coast
sacred
ication
Prize
ales
0.5
promotes
tem@@
Out@@
Supplier
passes
reliability
mineral
mad
pin
án
barrier
Heritage
GA
91
tivity
GB
Desk
perception
sensitivity
Rel@@
Chain
ethical
Ball
sum
extends
itch
civilians
Users
disabilities
Carbon
literally
pil@@
Visit
ware
rail
defeat
Denmark
bread
busy
emphasis
Members
shell
inspiration
proportion
rid@@
spectacular
clubs
supplements
mu@@
lifetime
mag@@
rescue
profits
deeper
specialists
logic
disclosed
responded
documentation
dre@@
customs
Trends
camping
Shirt
observe
ograph@@
catalyst
mothers
Come
tobacco
Money
convinced
Dollar
ured
beer
meals
Jackson
exc@@
prisoners
ern@@
GR@@
rup@@
genuine
Call
Adapter
cannabis
don@@
Latest
loaded
moderate
tiny
Monitor
engineers
patent
08
12V
prominent
dishes
Finance
chose
ingen
influenced
strict
DVDSTORE
converted
Play@@
odi@@
shouldn
ces
mistakes
bling
displays
tough
blind
fitness
Brussels
silence
discipline
ented
mouse
broad@@
Stone
ials
aggressive
stroke
bond
Os@@
che
duties
experiencing
cut@@
Amsterdam
owing
affir@@
M-@@
iling
asser@@
terrible
uality
distant
Temperature
ila
4,@@
thi@@
ed-@@
adjacent
strug@@
pharmacy
surroundings
Poly@@
To@@
specialist
Vice
noticed
Adam
Loc@@
ea@@
Changes
sponsored
Lou@@
distinct
m-@@
abortion
breaks
hide
neutr@@
protests
ent-@@
minerals
improves
positioned
trips
shaft
ye
viral
reception
Ohio
horse
emp@@
integral
Sen@@
Degree
filling
compatibility
collapse
fed
swe@@
47@@
Mar
pione@@
sacrifice
acceleration
kidney
ables
FC
sex@@
faithful
Side
pleased
Mol@@
mysterious
Mission
Swedish
CIA
Given
destinations
tract
sible
identifying
mar
tively
12-@@
wise
06
seal
Route
Cathedral
alarm
parks
array
smooth
Pri@@
exit
reveals
restricted
god
calm
tured
84
afford
navigation
memories
catch
virtually
ie@@
sequences
dropped
Wire
modern@@
broke
manip@@
Stand
constitutional
alli@@
70s
igh
750
fairly
premium
1.4
ix@@
1.6
ga@@
ox
plates
Learning
lung
sad
precious
blockchain
vent@@
closure
deposit
Step
Cro@@
oxide
constitute
shr@@
fleet
unemployment
wars
watches
styles
Pack
inary
tain
ws
Marketing
eng
Buenos
ga
illustrated
autumn
freely
adjusted
Harry
nose
detention
Chairman
consume
adhesive
conce@@
arise
cryp@@
filters
E.
priorities
argument
shock
Paper
tom@@
Milan
modes
tica
Still
Capital
physics
Laser
esis
Toys
180
prop@@
pressing
hunger
Below
internationally
neg@@
ison
hem@@
seasonal
interactive
ald
osa
ington
M.
Nothing
continuously
regulated
GE
atives
transformed
Companies
uk@@
NATO
proved
Aires
loves
harmony
vs
ñ@@
OK
logical
1989
07
sens@@
fel@@
counter
mann
posts
Innovation
Electronics
oes
tened
welfare
Reviews
torture
PE
DR@@
Sexy
athletes
stressed
ought
rays
ATION
Create
aker
Quick
formulation
PRO@@
classical
stood
jo
painted
Hy@@
commission
ories
pink
plasma
Ash@@
eta
bran@@
sym@@
eing
Dog
Victoria
Vienna
Flight
four-@@
protest
prosec@@
Finland
Republican
identical
WHO
ection
enting
jurisdiction
Equ@@
photography
Gro@@
portable
ä@@
Fast
commitments
backed
Link
vit@@
quar@@
guaranteed
step@@
verify
completion
tru@@
metabolism
succeed
dated
foam
qualities
Reserve
Under@@
monetary
sions
ass
liability
Process
Cle@@
Has
900
Bedroom
orange
cher
Xiaomi
horizontal
81
Ay@@
egg
sheets
mixing
unk
Win@@
consumed
seats
Blood
Common
employer
eland
grid
Travelers
Safe
phot@@
3.5
wider
Never
ea
delivering
femin@@
SI
speaks
flu@@
Na@@
CB@@
UL@@
DEALMASTER
itary
viruses
itable
Sound
Sec@@
civilization
removing
FE@@
Formula
prec@@
Comments
ground@@
talked
BI@@
Hon@@
unprecedented
summit
les@@
health@@
tering
olive
burden
stri@@
planets
ri
diplomatic
decreased
reads
aters
stakeholders
shoulder
elsewhere
gen
wishes
zones
barriers
Pic@@
contributing
crops
shar@@
Black@@
Core
specifications
spots
united
Men@@
hasn
Bolivia
couples
Satellite
GE@@
eable
Associ@@
subsequently
exploitation
pcs
import
Naz@@
End
legacy
otic
roughly
ques
inations
600@@
franch@@
entally
romantic
Putin
prevents
umb@@
Hungary
Features
clim@@
Fiber
supplement
Enjoy
12.@@
hop@@
nobody
-w@@
Ideal
mobil@@
greenhouse
79
promising
implications
SP
sorry
profound
ided
Researchers
anymore
tioning
Happy
crystal
variants
researcher
mon
ati
eral
Maryland
dispute
boards
Summit
thinks
ud
somebody
encounter
mere
author@@
ark
popularity
suspended
complexity
fulness
el-@@
Chapter
disability
asks
ession
remarkable
alloy
relax
Alliance
pul@@
enders
tag
defence
itz
annually
outs
Categories
by@@
mort@@
metals
dri@@
lear@@
arding
CC
or-@@
Dam@@
ecosystem
titles
fold
MB@@
Animal
solely
Micro@@
Shanghai
marijuana
LG
dominant
headed
FA
zing
Illinois
une
connector
observations
reli@@
bab.la
phases
automated
ishes
Palestine
split
Lin@@
BM@@
phil@@
demanding
full-@@
Lace
red@@
Future
flo@@
nic@@
progressive
ometer
glory
Replacement
Until
ills
dramatic
Wars
urine
locked
Youth
Instagram
commit
Years
cap
Ga@@
Others
fibers
opol@@
followers
politicians
SRS
particle
combines
basically
desert
Lovepik
Ren@@
attacked
isted
Coun@@
ousness
Card@@
chest
moisture
capability
ood
Pap@@
THAT
chocolate
Together
HONDA
identi@@
She@@
sk
computing
modules
guess
Morocco
integrate
od
Vill@@
Neck
idi@@
Usa
develops
ex
eded
auto
measurements
prize
membership
Playa
excellence
Pur@@
Interior
subjected
ugh
140
sleeve
ort
preferences
TRANSLATION
A.@@
coins
garage
hell
Scrip@@
obtaining
deserve
scar@@
forum
WORDS
ased
varieties
dition
atch@@
guilty
interpre@@
cylinder
admitted
bin@@
narrow
enzyme
concentrations
65@@
hosts
mood
class@@
chances
Credit
bit@@
electro@@
rarely
Diamond
pull
significance
pers
org@@
elderly
Current
gear
wash
aga
Movies
Dun@@
Skin
apping
Kh@@
veter@@
0.1
laugh@@
usted
Marine
recru@@
activation
Level
emerged
complaint
itions
West@@
massage
Pot@@
oll@@
ía
Virgin
Jer@@
oids
60s
mentation
3.0
Freedom
ruled
hormones
68@@
Mand@@
uniform
21st
mad@@
Later
scientist
cross-@@
outlet
consequence
graphics
eding
cellular
2nd
arti@@
89
Columbia
boxes
tolerance
tia
codes
Hand@@
plot
RF
human@@
Battle
repeatedly
nitrogen
Decoration
ab
oke
Early
retain
coal
Pedro
Foun@@
Mis@@
proceedings
disclosure
broadcast
withdrawal
oration
debut
euro
interactions
och@@
perfec@@
designers
super
keyboard
Besides
craft
Venezuelan
analyzed
nan@@
NI@@
chains
respiratory
cord
harder
Emergency
Clothes
Gallery
advances
ere@@
delegation
aug@@
acqu@@
dra@@
è@@
Malaysia
alised
Flower
gallery
Know
promoted
acks
steam
Wor@@
sleeping
astic
tries
ter-@@
Module
Dor@@
tion-@@
oppon@@
mir@@
mask
abol@@
enjoying
inclusive
Painting
Rooms
Platform
whenever
priv@@
AIR
100,000
meditation
TC
Cath@@
frustr@@
Sin@@
itor
AV@@
somewhat
obe@@
Mike
jet
n-@@
abandoned
journalist
Programs
adaptation
texts
Advanced
smile
workshop
coastal
trigger
Village
priest
Sta@@
railway
ility
osity
ock
cement
com.@@
inches
invite
Questions
len@@
Performance
Forest
Bran@@
Printing
writers
kins
Fishing
fam@@
Masters
ader
port@@
temp@@
highlight
cli@@
hall
workplace
golden
Adjustable
Princess
Ah@@
rank
investing
DM@@
Steve
gran@@
Warranty
volunteers
asting
treaty
Commissioner
synthesis
99@@
vig@@
darkness
Colorado
cats
belonging
oul@@
astro@@
PD@@
underground
cau@@
Kal@@
exerc@@
han
minim@@
arity
1.1
supermarkets
efficiently
wan@@
examined
sudden
beam
capit@@
friendship
arthritis
toys
considers
colon@@
ulating
architectural
dying
aria
viewing
success@@
safely
Inch
ingredient
spe@@
dness
ague
locking
independently
incidence
Lim@@
Ev@@
Mid@@
Lev@@
PP
terror
GmbH
ME
ques@@
gases
cheese
LU@@
L.
asylum
scenes
black@@
Laptop
placing
extending
realistic
Christ@@
atoms
contributes
symbols
autonomous
associations
techn@@
respected
Pas@@
chloride
Cos@@
penalty
Dep@@
upcoming
87
souls
existed
83
FM
Intelligence
sovereignty
ial@@
eous
fig@@
needle
aces
eti@@
350
20-@@
33@@
stro@@
Beautiful
Ly@@
0-@@
Agriculture
lers
activists
prestigious
observation
ez
elite
Apps
wet
spokes@@
secre@@
employers
Jones
Haw@@
Sierra
Sm@@
fought
airline
rad@@
thick
special@@
sophisticated
fallen
declaration
Date
indicating
gather
repeat
Scott
heavily
somewhere
Volkswagen
ugg@@
Honduras
cent@@
encies
ace@@
publish@@
disc
tired
optional
profiles
nit@@
chemistry
half-@@
wai@@
ly-@@
Dal@@
vent
flash
gardens
harmon@@
tran@@
Universe
encing
cycles
160
coupled
Multi@@
tracks
Properties
bad@@
featured
posed
Supply
ulations
Pon@@
mankind
van@@
WITH
addressing
proximity
ador
Course
mature
bathrooms
bicycle
observ@@
Tours
agu@@
RFQ
Political
sey
Dresses
trav@@
aph@@
anning
deliber@@
shut
Water@@
civilian
fur@@
Gran@@
Arizona
BU@@
extr@@
Al-@@
agers
condem@@
assault
ceiling
grateful
consensus
Shoulder
ef
referring
dissolved
capitalism
osex@@
CAR@@
Lam@@
closest
ver-@@
izations
strip
FR@@
pop
writes
criticism
interference
fav@@
fal@@
Band
IL@@
renowned
lier
bal
Doctor
Nevertheless
Veterinary
Mont@@
tail
screening
cing
gravity
voted
requiring
Lebanon
Alexander
CM
ine-@@
Irish
FBI
ption
photographs
molecule
actress
scenario
printer
exploration
Venice
legislative
imports
honey
oa
Isra@@
rey
deployment
indoor
²
cavity
bach
circular
pris@@
attributes
op
Fel@@
pleasant
tible
ram
tie
cyber@@
apparently
occas@@
editor
discharge
aten
missile
act@@
RAM
fuels
recognised
custom@@
coat
predict
Camp@@
Applications
life-@@
dom
assistant
regards
eline
academ@@
secretary
Romania
statistical
prohibited
matrix
Commun@@
inserted
bishop
log
Wheel
Lower
convert
N.
Mah@@
Fran@@
í
Michigan
rings
mass@@
LL@@
ig
pathy
Making
.dll
hen@@
utionary
ician
88@@
tournament
wond@@
God@@
1.8
imagination
Transport
Getting
weekly
votes
scores
corporations
good@@
campus
Labor
oms
incredibly
chairman
polic@@
third-party
fired
ackers
ave
single-@@
varied
Pin@@
breath
invasion
wheels
http
Bern@@
Miguel
real-time
Manufacturer
tier
num@@
ashed
kind@@
Officer
Send
Cell
resident
sustained
twenty
pro-@@
ual@@
econom@@
racing
lodging
Colombian
Chrome
facial
organisms
Fox
worlds
File
namely
ā@@
reviewed
alert
erous
tiv@@
Tree
Engine
drops
uph@@
fare
occurring
extracted
bleeding
kets
cope
coated
Merc@@
aw
vegetable
short@@
drying
summary
arities
threatening
Chi@@
transmit
indication
evaluated
DC@@
protects
ston
Depending
Pressure
sisters
chi@@
ante
lob@@
EE@@
surprising
tours
foot@@
suite
Legal
physician
heav@@
mos@@
entrepreneurs
asing
tot@@
authentic
inger
doc@@
Spec@@
villages
nam@@
250@@
bases
Recently
Investment
highlights
cin@@
intensive
negl@@
Experience
EL@@
uting
Was
alternatives
ova
Claim
punishment
UNITRADE
2,000
dict@@
lar@@
Prevention
desirable
list@@
ced
Stop
FDA
unlikely
five-@@
neighboring
Fort@@
ani@@
classification
bonds
carries
dy@@
unlike
pounds
determines
Annex
earthquake
inos
una
erg@@
Chris
experimental
son@@
publish
signature
Slim
workshops
crazy
consult
Words
loving
Discover
fate
NA
mandate
damages
Basic
tape
fraction
tend@@
tooth
Web@@
Dubai
Bit@@
ush
veness
departments
ouse
deficiency
fulfill
IR
yoga
eased
positioning
Jose
supervis@@
zer
jus@@
constitution
investigations
Guard
dozens
Frame
with@@
FIFA
regulate
Additional
Hairdryer
complaints
rative
inflammatory
Hitler
lows
strain
desper@@
connects
kid
MAR@@
Cut
Channels
instant
references
deemed
devoted
sho@@
Lat@@
rul@@
magnesium
collecting
Joe
Down
automation
hosting
Channel
Iraqi
minority
olic
Airlines
mechanics
21@@
tumors
economics
tab@@
wholesale
Tea
Communist
Pra@@
Frank
commands
anda
antly
Emirates
mold
theories
encouraging
5,@@
Arab@@
tes@@
preserved
unc@@
Toy
nutritional
30-@@
alling
municipality
suspected
tain@@
bra
refugee
differently
buried
conclusions
gaming
Florence
initiated
Index
ardi@@
weren
rolling
grows
theoretical
travelers
ete
short-term
royal
hydraulic
liked
voluntary
interventions
defines
sized
Scientists
Think
boo@@
assumed
ori
etal
Field
highlighted
Language
hosted
occup@@
follow-up
Len@@
possession
accelerate
dietary
fever
immun@@
ister
avi@@
neutral
und
1.3
ID@@
AG
Facilities
ained
Ladies
pedi@@
Much
unexpected
answered
Strategy
hybrid
Commerce
roller
Ice
compression
2.2
stance
relate
Main@@
flav@@
125
ipp@@
Pattern
fusion
1.0
Upon
gods
schedules
Designer
divorce
Norwegian
chat
Adv@@
restoration
Could
dosage
copyright
Try
pocket
Libya
branches
sharp
fault
iTunes
diagnostic
Mass
aband@@
signing
cat@@
loading
Alarm
Forces
discount
bet
Creator
tends
id-@@
guitar
electronics
prescribed
evolved
zation
council
SIS
purchases
broader
speakers
night@@
erc@@
rot@@
Camping
SL@@
Tom@@
Ven@@
mild
logistics
AA
anthro@@
hot@@
lab
fiction
Him@@
recur@@
resolved
thir@@
imaging
Sell
oth
connectivity
Sel@@
associate
R.
prosperity
SK@@
timely
robust
Similarly
secrets
equity
Pool
robot
78@@
meaningful
infl@@
fears
fatigue
1990s
Often
ecological
Tab@@
prohib@@
digestive
staying
biology
Long@@
ough@@
mist@@
CPU
landing
fish@@
lucky
Fu@@
ither
Tam@@
Den@@
Choose
relatives
trig@@
5,000
diplom@@
utors
ested
distur@@
ushing
induced
sportsman
bin
NOT
leisure
Movement
recovered
mo
generator
ital
Patients
chip
SUV
XL
documentary
corresponds
Labour
strictly
suspect
prog@@
uncertainty
sixth
Houston
oud
eness
cam@@
wind@@
Base
argued
translated
VA
fran@@
B.
reb@@
Tel@@
receptor
Edition
Always
ik
appe@@
102
Up@@
ump
Pump
popul@@
sciences
Ms.
Resources
and-@@
forgotten
GU@@
ç@@
Simple
suits
4G
receiver
Wifi
Tem@@
restored
ó
antibiotics
tec@@
bon@@
iOS
CIVIC
Pu@@
Tag
pride
H-@@
worried
Premium
Economy
LA@@
High-@@
blocked
Cleaning
planes
vis
Marina
Ben
gathering
theater
mmol
bour@@
achievements
Face
Entertainment
Gol@@
quantities
crude
blade
publications
Phil@@
likes
crash
buyers
Democrats
citizenship
attempted
desktop
probe
sacrif@@
minimize
li
accomplished
Week
ES@@
philosoph@@
-time
acknowledge
tattoo
DIY
Fa@@
angry
alliance
the-@@
Sant
CARS
purchasing
bury
efs
innocent
conc@@
cabinet
shapes
grave
fats
terrorists
EC@@
react
til@@
qual@@
EUR
cred@@
alia
All@@
buses
Planning
jud@@
Vo@@
TER@@
separately
ED
pointing
acetate
coll@@
holidays
galaxy
screw
threshold
Shell
800@@
coalition
themes
prevented
structured
wound
Shopping
Massachusetts
ú@@
1980
Hey
Da@@
rist@@
Retro
mol@@
march
segments
premi@@
ambitious
bits
paintings
Dell
assass@@
gray
Linux
bomb
ki@@
tig@@
featuring
obstacles
seasons
et-@@
Conditions
reward
evident
profession
ín
Nike
chem@@
judges
etic
Organ@@
1988
distances
crowd
lovers
Pants
lips
Pul@@
press@@
edi@@
wages
strikes
variations
ives
instruction
sportswoman
biodiversity
flu
Nigeria
ilit@@
Again
Cost
automotive
comple@@
gains
convenience
cons@@
aside
adjustable
utility
shortly
camps
conservative
Istanbul
101
Wine
inning
Want
Internal
Follow
specify
laptop
corn
Translations
drama
unions
papers
Lens
Aqu@@
Cooperation
extraction
containers
Bad
estone
yard
riding
yours
drawings
ciples
displaced
D.@@
34@@
mp@@
isolation
packages
matches
perceived
pap@@
h-@@
tied
Secret
varies
Mens
purified
blood@@
£
Ka@@
distr@@
contin@@
Upper
bacterial
deny
stimulate
Avenue
ally-@@
occasions
Bureau
mond
brush
teaches
hill
ria
escal@@
bilateral
Articles
okay
Bicycle
drives
Top@@
Cla@@
W.
Immigration
True
ight-@@
twelve
transl@@
dol@@
deployed
voices
intim@@
icks
decision-making
Tell
variables
minimal
fastest
saturated
confirmation
races
phrase
Bil@@
beg@@
IMF
wage
utes
elle
partly
Sher@@
ceramic
folder
rig@@
Spe@@
Secretariat
ared
modification
Insurance
Land@@
allegations
Less
Form
retirement
parliament
VE
Bob
stirred
LEFT-HAND
mers
salts
mus@@
Joint
exploring
endants
Television
texture
weakness
disposal
explosion
delete
rection
arch
engaging
Lib@@
R-@@
boats
Jan
rational
founding
erate
religions
ima
high@@
Magic
conducting
boundaries
rol
consistently
Sudan
MB
Vehicle
trusted
Solutions
Tablet
HD@@
shoot
fossil
attraction
tremendous
geographical
awa
affili@@
transfers
enters
Countries
iced
MC@@
nucleic
architect
had@@
Mercedes
declined
loop
ethyl
Catalogue
aspir@@
ank
tops
Alloy
erup@@
scal@@
Attorney
Telephone
borne
autom@@
cancers
random
Lisbon
secured
expense
Close
1000@@
differ
Ultra
reactor
ju@@
twee@@
ayed
creatures
string
sends
Ann@@
castle
CP@@
path@@
symbol@@
render
acr@@
lix
ami
anic
objec@@
CT
rest@@
Plug
ounce
Pil@@
Captain
consecutive
15-@@
icing
si
visibility
smell
Knowledge
utions
comparable
fundam@@
Weight
psychology
spare
Sales
Disease
incidents
urged
cruise
wild@@
Controller
Sri
satisfy
potassium
icons
disabled
Psych@@
ts@@
grain
documented
inequality
absorbed
iconic
avoiding
volumes
disappeared
dual
speaker
combining
Tips
EM@@
clinic
Theatre
ult
ionally
Tennessee
settled
deadly
rum@@
Write
pup@@
Catalonia
yan
Mayor
methodology
Syn@@
lasts
Sav@@
bert
best@@
allergic
schol@@
fitted
enh@@
invested
ods
lesson
suff@@
1986
sake
age@@
Cat
node
orbit
ulous
Background
maintains
ows
tendency
Pet
isc@@
nesses
systematic
ict
crop
nights
Alternatively
possess
motivation
Cit@@
ret
tab
audit
combinations
shor@@
mom
eption
consulting
thetic
cited
Toronto
porter
2030
Belt
Del
Pharmaciesworldwide
prescription
emails
desc@@
SIDE
bel
grand
oon
constitutes
yst@@
instances
masses
mut@@
Enterprise
spa
cum@@
Preferably
welding
FP
respond@@
theft
was@@
residue
Promo
argue
wealth@@
5G
anna
imported
pushed
Truth
web@@
Kir@@
Williams
inaug@@
ATM
PM
engineer
chi
motiv@@
tial
ICE
importantly
speeds
fires
insulation
generates
microwave
suc@@
Sum@@
Capacity
calculate
WHOLESALECLOTHES
chron@@
jacket
jewelry
Places
Tech
Almost
somehow
renewed
Arabic
clouds
Books
itual
cooled
announce
ifies
Soci@@
enz@@
finger
Maj@@
illo
ille
oting
HDMI
pain@@
nm
Oxford
fri@@
yo
unt
Dol@@
s.
stayed
icated
LY
arriving
testimony
defining
impose
aka
Guests
extinc@@
owns
ALL
Sir
Fol@@
AK@@
coordinated
upgrade
Beg@@
tonight
initi@@
league
luck
impression
Gam@@
Traditional
ji
reproductive
arded
lounge
implies
Ret@@
Haiti
vaccines
Inf@@
neys
behaviors
Heat
Port@@
Scientific
prostate
Indiana
Jan@@
accoun@@
atching
struck
Vil@@
Nissan
diesel
Hop@@
algorithm
enzymes
casino
Dom@@
Nazi
Manchester
neighbors
correc@@
exterior
arming
toilet
ardian
Bri@@
Hard
colorful
mates
ains
DANCECOUNTRY
rehabilitation
PAR@@
blame
lan@@
kin@@
Stadium
asthma
checks
Andrew
tubes
Account
edly
confusion
partnerships
rivers
jump
activate
ems
crossing
Aer@@
DI
rod
WIFI
simpl@@
Clear
Kat@@
influences
fication
teachings
motor@@
year-@@
offensive
Chair
claiming
Vel@@
foster
Dragon
Phoenix
kilometres
competitors
ING@@
catastro@@
fake
zo
scrip@@
shadow
networking
lungs
ranked
tray
icked
Message
Heaven
Wallet
cry
investig@@
amongst
Jam@@
silent
cryptocurrency
longitudinal
Refrigerator
Gold@@
Repair
Havana
innovations
protec@@
Cour@@
municipal
retro@@
Elizabeth
onia
Dead
tery
limiting
Charter
hence
chicken
capitalist
notification
Matthew
verification
ania
Nokia
Swimming
K-@@
filtered
uals
GM
aci@@
racial
enhancing
termination
origins
ite@@
Strap
frag@@
sion@@
owed
script
bid
qui@@
meth@@
termin@@
Argentine
pot
aer@@
circum@@
alled
Racing
1987
metabolic
Left
personalized
ek@@
grass
heal
imperi@@
defects
fir@@
oted
scre@@
3rd
Looking
nationality
Suite
heroes
frozen
wheat
ni
immigrant
LS
pad
Speaker
hat@@
dad
TH
colonial
witnesses
troub@@
Ty@@
incorporate
dium
Pop@@
sealing
glasses
Var@@
Pad
pen
hun@@
invitation
idents
External
Strip
pel@@
Ze@@
decorative
undertaken
Accordingly
magnificent
dimensional
FAO
underst@@
Rubber
Croatia
1985
Fan
solving
plan@@
Pass@@
phen@@
vers
abstract
customized
Uni@@
Bachelor
Active
tiles
hub
enced
rows
Hungarian
tel@@
predicted
tant
welcomed
sta
ips
best-@@
Establishment
electrode
composite
dominated
stairs
Century
CF@@
Available
Wall@@
ug
Abu
coupling
aus@@
addiction
ailed
Towels
este@@
streaming
analyzing
pin@@
PA@@
unnecessary
tre
tap
Colors
conversations
ener
second-@@
Ron@@
influential
notic@@
targeting
entary
Tennis
tox@@
interviews
eric
Cri@@
Truck
edit
Throughout
rob@@
escap@@
PU@@
liberty
filtration
holders
phenomena
hair@@
thesis
nesty
virtu@@
Criminal
és
mandatory
ray
Drug
supporters
plug
anes
over-@@
ilt
consist
Gran
com
alien
eo
um-@@
alkyl
Ki@@
14.@@
Sing@@
tou@@
lab@@
tanks
spray
Sup@@
fron@@
disposed
pushing
conjunction
z-@@
diagram
recommendation
appreciated
attracted
open@@
humidity
Rather
treas@@
necessity
Major
Li
conspir@@
influ@@
episodes
tility
Edward
stunning
assessed
lamps
cinema
Yoga
Meg@@
Drop
intensi@@
Taking
DU@@
Trust
criminals
eting
walked
lat@@
antenna
Eye
drugstores
show@@
Hiking
Xi
Days
Stra@@
picked
magical
Selling
Technologies
Bat@@
overview
motivated
formats
Vitamin
dramatically
Canvas
Je@@
heading
à
Lima
charity
Give
valued
locate
Mirror
Rap@@
currencies
supervision
amp
overnight
avoided
tight
Pay@@
jail
esh@@
Nicaragua
Hence
duct
calculation
six@@
funny
Pos@@
Magnetic
buyer
insight
attributed
Six
recycling
invented
anticip@@
DO
Tax
reportedly
Hen@@
Indi@@
Organic
NS@@
Risk
governmental
regation
Sep@@
deduc@@
ota
Specialized
hypo@@
Paulo
erts
mounting
Jim
ignore
Fair
Bos@@
GH@@
--@@
venture
readily
BL@@
outbreak
Keyboard
Ori@@
colored
SN@@
champion
dozen
PNG
By@@
Stereo
organ@@
worn
domin@@
gy
clicking
ont@@
hunting
Championship
lady
Frankfurt
Communications
banned
curve
hardly
accurately
jour@@
governing
lion@@
Fit
Prague
magnitude
Furniture
Micro
laundry
Sor@@
ry@@
acknowledged
Multi
quantum
math
Urban
stretch
slot
Athens
Different
palace
Gener@@
Brass
safer
Stephen
enly
Wales
nel
knee
Taylor
220
cc
13.@@
Fish
KE@@
publishing
a.@@
consuming
ode
Wit@@
aments
Vic@@
German@@
rape
proceed
variation
disasters
dog@@
WTO
iro
3d
Inside
lig@@
uck
SEO
soccer
Ky@@
Log@@
reject
survivors
temporarily
Mem@@
omb@@
Figures
quoted
Prote@@
carriers
medieval
tragedy
cargo
bulk
batt@@
Rub@@
bers
empire
disappear
Warm
Work@@
Munich
leaf
ans@@
amin@@
converter
Yemen
Alicante
controversial
Running
Seven
commerce
severity
detained
devastating
18th
legend
K.
shed
Kenya
eks
atri@@
deficit
ranges
cartoon
esty
preliminary
Recent
aki
checked
Gay
Uruguay
ministers
Tu@@
Offers
ok
tac@@
blend
blocking
organised
tariffs
iter
aked
ele
ION
Doc@@
parameter
peptide
jec@@
FL@@
Rab@@
Purple
Sol
voters
Nic@@
dimin@@
by-@@
amenities
Philadelphia
UNICEF
BBC
than@@
aving
sat
efficacy
mot@@
preparations
directors
hr@@
Wooden
double-@@
tify
Ku@@
valley
trillion
individually
elastic
notion
Silicone
3,000
fingers
Former
lu@@
buffer
emission
defeated
ethics
Crim@@
ck
trauma
Gray
North@@
Coc@@
cartridge
advise
Clock
downtown
Ukrainian
organizational
distinction
ighted
Sky
U.
tex
demonstrates
Bec@@
of-@@
Harvard
ois
cann@@
attending
lowing
anim@@
Hay@@
displacement
jury
rests
Danish
spacious
Imag@@
Der@@
ody
Missouri
emia
advised
Triavi
chairs
resses
paths
sufficiently
Amazing
alter
arer
joints
ffs
bottles
ilia
mesh
stronom@@
arguments
toy
ibility
lap@@
predetermined
breach
Tube
monitored
permits
Whatever
tan@@
Pocket
mission@@
Tran@@
Window
110@@
recommends
barely
Generally
ames
elevated
Nobel
IBM
atal
retention
specially
H.
anybody
Surgery
×
busiest
`@@
stake
Castro
Block
favorable
Wind
Bul@@
rides
bri@@
ecosystems
god@@
Son@@
drew
fits
dar@@
gover@@
viable
proc@@
foundations
Around
gym
Cul@@
conferences
Overview
oh
territorial
iction
icians
ros
FA@@
Wel@@
screens
ancest@@
wherever
Xbox
Bet@@
arc@@
Deep
rack
winners
inspir@@
happ@@
cru@@
executives
combustion
hygiene
Cheapest
aken
1080P
Hi@@
absorb
Workers
Self-@@
cosmetic
Item
toler@@
Memory
governed
PS@@
Off
mate
Driving
Abraham
diver@@
zinc
admit
perce@@
taining
Fitness
Ele@@
inventory
fascinating
reserved
open-@@
info
accommodate
recognizes
pped
Wa@@
alizing
elimination
favour
alisation
mortgage
exchanges
vill@@
seller
Pom@@
scand@@
Voice
lifting
loads
Hebrew
Maker
Fle@@
shelter
aking
Elegant
Microwave
Along
custody
stolen
cir@@
1984
deposits
spreading
designing
Arm@@
Casino
dial
MO
interven@@
dge
construct
44@@
Ker@@
encourages
Pel@@
interfere
inhab@@
ket@@
Europe@@
CS@@
intent
applicant
Transfer
edges
handed
MT@@
Nar@@
Magn@@
anch@@
alk@@
affec@@
spinal
overseas
surgeon
tful
distinguish
eping
twenty-@@
WW@@
thirds
Travel@@
survived
withdraw
uro@@
cit@@
travelling
liberal
Repub@@
CU@@
struc@@
oni
Multi-@@
sel
stric@@
ux
concentrate
Sam
acknowled@@
Ari@@
lawful
Brexit
investigating
console
dly
LIKE
Tank
excluded
ogenic
oming
otted
delivers
eman
endor@@
tual
subscription
Story
shots
sphere
nuts
verified
dairy
distinguished
Sn@@
esses
competitiveness
mines
Floor
propose
titled
Title
insert
wounded
sealed
anne
Rechargeable
PI@@
itive
wines
Copper
Sac@@
Aff@@
-related
Lan@@
Def@@
farming
Arrival
Flo@@
grey
Porto
104
crown
Mul@@
sequ@@
buttons
MP3
profitable
sid@@
governor
traveled
slide
Dan@@
ii
chaos
illustrates
Works
gol@@
Initiative
acet@@
decides
abnormal
build@@
Manuel
permanently
Cong@@
Ci@@
probability
remedy
Ciudad
64@@
Gil@@
NT@@
confron@@
dings
ores
Plate
Rules
Non@@
disclose
Valentine
oner
boss
ecraft
ede
PT@@
tags
pursuant
therapies
attitudes
vac@@
ool
ali
Conditioning
coinc@@
protocols
gross
kel
aesthetic
sunlight
U-@@
book@@
infrared
conclude
ido
ric
filing
lessly
ED@@
aviation
cooperate
operative
AB
legendary
motorcycle
EL
arily
Congo
organism
Russi@@
iva
awa@@
Pad@@
Housing
ball@@
Net
owadays
off-@@
Inv@@
Cra@@
Links
accomplish
1979
versus
revenues
iser
less@@
ACCORD
beloved
tensions
degradation
fasc@@
Chilean
UE@@
meg@@
Medic@@
inspire
Tagged
portal
authorization
Open@@
row@@
hoping
age-@@
polymers
Governments
check@@
ply
-P@@
maxim@@
addic@@
air-conditioned
borrow@@
selecting
introducing
acker
py
implant
Barack
Resolution
refer@@
Dry
performances
Seat
smartphones
Marvel
tionary
50s
large-scale
Boy
dynamics
diamond
Orig@@
Mesh
VW
corrosion
adolescents
Cat@@
invisible
spite
Ambassador
TF
Courses
appearing
surg@@
F.
decorated
Vin@@
lun@@
dear
aired
justified
ound@@
ogy
Physical
qualify
Snow
circul@@
Floral
placement
Fore@@
discounts
Emperor
Shar@@
e.@@
Every@@
Expl@@
Connector
grants
guns
singing
P.
waterproof
slavery
Prior
fighters
Chamber
aligned
rant
petrol
4th
seven@@
urge
rub@@
exhibit
embar@@
Ali
tackle
magn@@
mean@@
enthusi@@
infectious
Simon
sou@@
licensed
Liv@@
presenting
Boys
Euro
optimize
iest
Need
ares
modifications
stocks
aur@@
High@@
asp@@
DS@@
sovereign
lo
peripheral
toiletries
Operation
vin@@
NY
blow
disciplinary
1982
persecution
Fabric
ego
columns
Mach@@
Plant
LGB@@
Che@@
wildlife
rocks
loyalty
Marbella
recogn@@
Head@@
Hispanic
preservation
harassment
backup
radius
innov@@
hat
premises
RA
arising
adap@@
farms
coup
switching
warm@@
psycho@@
Hills
ze@@
socialist
frames
scan
15.@@
Not@@
formally
ift
ema
Au@@
gang
Fine
need@@
GO
50-@@
altered
Proph@@
marking
1970
embedded
deser@@
quanti@@
atro@@
soap
thread
Pent@@
households
intimate
LC
atively
Ve@@
Hun@@
cancel
non
directory
Nu@@
ution@@
donor
shorter
XX@@
Cartoon
resist
Developer
Lincoln
Events
is-@@
Likewise
entation
spective
orious
seventh
Adventure
youn@@
durable
spo@@
Fo@@
win@@
Zone
aggression
shield
norms
l-@@
zy
exam
camp@@
ello
Bir@@
gest
burned
Export
Cho@@
depend@@
eliminated
solved
top-@@
kidn@@
Hire
ologically
Laboratory
stre@@
Especially
Schools
Indoor
6,@@
editing
ayer
shore
Orlando
cancellation
dor@@
Vit@@
pending
utilized
eliminating
bills
Wallpaper
illing
persistent
lon@@
classroom
passport
Architecture
fluor@@
musicians
Token
omas
poster
lam@@
Volvo
credits
ull
Bulgaria
Growth
Framework
heart@@
missiles
WO@@
ias
sad@@
M.@@
practically
limitation
Kennedy
accompl@@
Dou@@
Bottle
confused
plug@@
Investig@@
epidemic
complementary
tunnel
Wilson
unlimited
Integrated
tongue
utable
tling
tha
Fri@@
gaining
endeav@@
medicinal
ji@@
kill@@
2.4
wn
firmly
Pay
strongest
prolonged
fortunate
aster@@
OEM
Dig@@
key@@
clos@@
emic
oper@@
Lyn@@
correction
Porsche
gun@@
oned
informal
16.@@
ho
infant
Faith
repe@@
pulled
flowing
insights
Representative
Friends
relaxation
testi@@
ika
trace
accepting
Pendant
HU@@
VER@@
resolutions
Direc@@
fertility
infinite
Avoid
Powder
visitor
Planet
surely
pec@@
colours
contest
admission
Ale@@
inating
Alex
Range
photographer
mul@@
iler
electoral
delayed
pairs
endless
46@@
suited
ont
shine
CM@@
sav@@
sentenced
GT@@
maj@@
countless
autonomy
Washing
marry
Against
mile
MD
trucks
Kon@@
honour
remind
stuck
vir@@
ether
theatre
apple
brilliant
accumulation
iter@@
-S@@
RNA
knife
maritime
energies
conception
tears
Governor
QU@@
fulfilled
cake
Manhattan
domains
civil@@
workforce
soluble
Vir@@
Pun@@
profession@@
catalogue
ority
dys@@
exhaust
instantly
pulse
portrait
Antarc@@
angel
vised
María
pas@@
Fal@@
betting
one@@
Cap
nodes
450
inking
ux@@
Springs
Mountains
Packaging
wa
References
investigated
locks
tribute
ishment
Pure
HB@@
reproduction
anyway
clarity
san@@
iat@@
sexually
decent
Tony
vibration
charger
persu@@
patri@@
investor
authentication
Remove
informa@@
toxins
58@@
visions
Beyond
bay
tious
Episode
Austin
Cambridge
Chin@@
oured
CBD
tin@@
Consumer
pa
Wood@@
coordinate
Bay@@
industri@@
provinces
divid@@
1945
floating
Les
Button
chemotherapy
Cub@@
varying
aying
lov@@
Advertising
analytics
arians
Vacuum
Us
Fir@@
ral
ported
assure
robots
Colorful
Estate
Retail
Eli@@
notably
tun@@
Nintendo
clean@@
enberg
peri@@
Ji@@
Hamburg
bir@@
onal
Printed
inter-@@
199@@
recipient
Deputy
1967
irs
None
Eric
Jean
antine
Wat@@
Educational
Cute
timing
adapter
OP@@
mos
inspec@@
whilst
Decision
fails
Save
disp@@
ache
photograph@@
aced
vo
iner
BA@@
virtue
Task
NGOs
Corporate
complement
proliferation
vulnerability
Backpack
yal
Independent
Hostel
obs@@
Peninsula
inlet
Spir@@
allegedly
assembled
cigarettes
fut@@
relieve
refu@@
Tol@@
Suc@@
itorial
Pearl
insufficient
Creek
dial@@
dible
prints
Materials
casting
performs
Clinical
Angel
Ten
cence
Relations
attempting
fra@@
Songs
rats
found@@
ounded
developer
onom@@
bled
cab@@
thyroid
responding
immunity
Thai
B.@@
Halloween
Chemical
cycl@@
Mario
distribute
derivatives
ighty
dependence
Dallas
cables
stimulation
170
invasive
oz
Delta
renal
cultiv@@
Kam@@
nut
Non
yn
alignment
Kin@@
Atlanta
factories
Arctic
Annual
ticism
Edge
delicious
anticipated
ener@@
Kas@@
Senior
no-@@
ke-@@
school@@
.pdf
Embassy
formations
comprised
Economics
intend
traditionally
ranks
lia
TU@@
pyramid
receipt
privilege
hungry
alike
suggesting
É@@
high-speed
Tenerife
Late
bladder
Linen
Fab@@
justify
Produc@@
Born
mayor
considerably
tent
oca@@
passionate
launching
inherent
serum
Decor
insi@@
Hill@@
Charging
ativity
Albert
centr@@
migrant
Joh@@
Motion
pressive
fragments
utilization
throat
distal
margin
nal
shut@@
extre@@
APACHI
Key@@
demanded
Philip
Gor@@
strive
defin@@
Iguana
earliest
compromise
2.1
thirty
C.@@
detector
projected
remedies
lot@@
iff
var@@
Sydney
novel@@
ped@@
hip
algia
Tak@@
divide
endant
touched
purity
SQL
PER@@
MHz
Prim@@
Handle
Final
planted
mathematical
demonstration
bitcoin
3G
ET
judg@@
lenses
Bracelet
Protector
reply
monuments
slave
purification
negotiate
Cafe
Return
Co-@@
Boots
Cooking
sofa
Flat-screen
mixtures
venue
expects
1983
Cream
eth
fi
steady
collaborative
interpreted
ron@@
Horse
merch@@
ough
wounds
ch-@@
rejection
cultivation
PhD
packed
mathematics
uma
Consequently
Bishop
doub@@
Easter
notable
220V
contradic@@
oceans
infants
NT
lor@@
Ancient
Dublin
trust@@
Goals
Terminal
privileged
abdominal
Py@@
murdered
Stay
conviction
Granada
plastics
Farm
centered
asis
18-@@
zh@@
attachment
Wisconsin
PRE@@
fatal
diets
Icon
Sou@@
exemplary
Various
Chap@@
Operations
Oli@@
continental
expressing
onate
Ell@@
convicted
hired
appro@@
ress@@
searches
inevitable
SW@@
Bow@@
settle
creator
coding
roses
Yan@@
ense
Malaga
FOR@@
vacc@@
AZ
blin@@
onies
pression
Afric@@
Oscar
Jobs
Kevin
Protective
myth@@
contr@@
atom
suggestions
49@@
Thir@@
Mallorca
Bio@@
dialog
drum
Rod@@
ims
travels
Higher
undertake
declare
releases
pipes
usions
lav@@
Gate
COM
smallest
aster
Desktop
GS@@
decreases
Ach@@
On-line
receptors
arrives
cha
charming
fibro@@
revised
undergo
Catalan
vid@@
Ken@@
dense
poli@@
57@@
onian
seg@@
appetite
Gardens
Kor@@
installations
bi
Cen@@
taxi
dangers
nes
intestinal
opt
winds
dictator@@
vin
time-@@
grades
Radi@@
Lab
Dev@@
Bot@@
130@@
capsule
MD@@
promp@@
Experts
aluminium
traders
striking
variant
scenarios
condemned
ees
deleted
ild@@
olo
steering
Good@@
Aud@@
world@@
Bell
replacing
Rot@@
assay
AW@@
acre
substituted
sci@@
breed
elev@@
coil
lovely
ounding
Records
dementia
catheter
cross@@
palm
salary
Birthday
graduates
blog@@
inging
nur@@
dressing
Palma
mb@@
ignored
landscapes
confidential
backs
Lewis
assured
tative
Carmen
talented
destructive
refined
sam@@
cep@@
Consul@@
Adobe
ole@@
fluids
ais
harvest
appliances
collaborate
hanging
Ric@@
photograph
Pipe
tian
recall
Okay
Centro
te-@@
cess@@
predictable
databases
Something
amid
subcat
rew@@
Dining
precau@@
snow@@
16th
promotional
exem@@
beverage
Ig@@
electromagnetic
Unless
Wide
Ontario
Focus
Back@@
encryption
atomic
advocate
poetry
prospects
oxy@@
vintage
Talk
hib@@
Illustration
Driver
consistency
silicone
-term
Permanent
propaganda
acles
fiable
seiz@@
denti@@
Valve
alleg@@
horses
1981
Il@@
ex-@@
Nutrition
disputes
ij@@
notify
Excellent
Someone
Certificate
fai@@
remembered
tonnes
scored
power@@
glad
Camp
FF@@
Techn@@
anonymous
quote
Nobody
VO@@
1975
56@@
completing
Diesel
Grande
idal
icial
Wang
pools
tragic
decisive
soldier
surveys
public@@
illnesses
Hyundai
Ibiza
balls
Mode
ugh@@
experim@@
beneath
organizing
usive
4.0
locally
Routes
Oc@@
Renault
Pow@@
onset
ional
Ceramic
Qatar
mainstream
Pictures
advantageous
urg@@
5th
mem@@
statue
retired
Sourcing-Electronics.com
renewal
Soccer
Ball@@
convention
albums
Strategic
far@@
sink
s.com
Fig
Perfect
-1
Quartz
arly
disciplines
kh@@
Rad@@
champ@@
105
abundance
counts
Hub@@
recognise
bet@@
Virtual
las
world-@@
ventilation
quest
emphasized
state-@@
Cham@@
orph@@
STE@@
univers@@
L.@@
MM@@
1973
earnings
presidency
corp@@
non-profit
chlor@@
106
ann
esting
700@@
eli@@
unfortunately
Broad@@
EP
Indigenous
Mill@@
Near@@
Introduction
gest@@
systemic
Clean
Salv@@
Anti
emerge
rigid
Via
frequencies
­
Dance
starring
7,@@
Adult
announ@@
maximize
besides
contro@@
optionally
casual
20,000
sus
DH@@
sword
cell@@
advertis@@
Electrical
yang
Neuro@@
ume
Deutschland
rever@@
accordingly
ente
manually
viewers
tendencies
timately
RV
ward@@
film@@
spirits
bey
Ry@@
elevator
UR
Song
Downtown
fighter
devil
Overall
ow-@@
shuttle
sto@@
ethanol
mic@@
17.@@
swelling
killer
whereby
isting
analysts
lithium
lateral
Dur@@
iev@@
Miss
Alabama
failing
exclusion
Piece
trapped
insects
flat-screen
Bangkok
acher
LD@@
vendors
preference
Davis
cast@@
ester@@
progression
erable
oh@@
sh
analyst
Palm
eigh@@
crossed
Supermarkets
physic@@
Buddha
thrown
Clearance
emergence
agon@@
paste
design@@
pressures
Malta
telecommunications
tum@@
sustain
pred@@
distinctive
gle
restriction
phy
testosterone
Orleans
ometric
inely
shareholders
daughters
ety
Reading
till
Ray@@
Directions
relaxing
pension
jointly
literary
breathe
Season
accessed
VPN
consum@@
preventive
fixtures
Half
Anna
pp@@
1978
Wardrobe
Tops
5mm
sia
matched
Ow@@
miracle
fantasy
convince
handled
Shirts
realization
interfer@@
competing
notified
akers
pilgr@@
Fund@@
orous
São
Usually
FO
loose
valves
Arthur
meas@@
11.@@
Fernando
ired
vaccination
exported
antioxidant
Too
marble
Mes@@
FT
contamination
Client
Acc@@
Sev@@
patience
pursuit
insul@@
hn
ury
four@@
berry
tap@@
istr@@
pit
physiological
Assistant
Power@@
hoped
schemes
legisl@@
Stal@@
you@@
cluster
competence
libraries
Crown
rian
repeti@@
ean
Tan@@
carn@@
aver@@
Patri@@
Hope
Lite
TB
omes
ava
Optical
commented
pro
Ah
Allen
spect
deputy
enses
appreciation
kne@@
az
Reference
17th
Complete
curriculum
wins
carbohydrates
Brian
referendum
packing
longest
Miller
tender
Iceland
sand@@
Question
districts
ennial
Rock@@
journal@@
poss@@
instrum@@
4.5
proportion@@
uncture
Method
expressions
ander
acti@@
anian
citement
lex@@
icious
hospit@@
SR@@
pav@@
Lanka
Ticket
nex@@
ia@@
Greg@@
vari@@
HS
igned
ural
prejudice
earning
bridges
hall@@
analyses
Phot@@
injected
ock@@
lid
water-@@
Mit@@
slip
1968
fro@@
iller
pharmac@@
pag@@
Studios
subsidiary
validity
enjoys
ration
210
Islam@@
Stars
vascular
circles
likelihood
nominated
Doctors
VR
Length
304
dryer
CONDITIONER
gene@@
CV
Tobacco
built-in
racism
sheep
ambassador
silica
Metro
Flowers
newspapers
Bour@@
AU
Border
aper
nt
volunteer
Reas@@
42@@
Cairo
flora
ACE
Suitable
corners
WA
Visual
pharmaceutically
salon
Liber@@
1976
FREE
edited
atric
Hydro@@
them@@
passive
physicians
colon
certainty
restrial
flavor
Tesla
que@@
assisted
Java
exhibitions
acrylic
folding
patch
Stage
18.@@
damaging
evolving
Rentals
Ray
Duke
day@@
112
GN@@
pole
severely
ILO
pon@@
Rate
Parents
oug@@
slight
additives
Evaluations
settlements
offset
phic
PD
substitute
transmitter
pled@@
favourite
recipe
compressed
respec@@
reconstruction
animation
LES
itarian
UE
piano
ech
atch
Hamilton
Seoul
Sets
cloth
PCS
iles
Intelligent
witnessed
Seattle
accountability
near@@
Mart@@
otes
oz@@
politic@@
cabin
hil@@
eted
Boat
hypertension
SMS
Lab@@
Ten@@
Phase
expenditure
tam@@
P.@@
bubble
ruins
induc@@
Word@@
indirect
ancer
MAN@@
cave
Sky@@
radar
vez
divisions
memor@@
letting
Voltage
beverages
SIM
tains
rises
NY@@
generous
Mic@@
beans
zen@@
piston
archaeological
Function
Photography
strap
finishing
right-@@
ocked
hepatitis
Essential
curious
purple
det@@
iz
textile
arrow
lemon
incentives
malware
Sheet
thoroughly
establishes
Analy@@
simulation
charm
Ot@@
Lind@@
MIN@@
Natur@@
essors
discomfort
PH@@
allocated
algorithms
Visa
six-@@
uss@@
continuity
sdorf
1969
pants
Deposit
angles
heater
cou@@
Share
MW
Kab@@
Delhi
LM
IoT
nour@@
Connect
dedication
adi
4K
240
FR
smar@@
Violence
Shared
15th
BB@@
dop@@
24-hour
serial
Jehovah
friction
gang@@
correspond
Clinic
saf@@
lasted
}
con
igence
describing
Bangladesh
Lif@@
Gear
eck
neur
ind
thal
stopping
strengthened
ment-@@
comb@@
investigators
Ski
plain
commander
atmospheric
walks
{
DP
melting
aca
Customers
view@@
Blo@@
nozzle
Andre@@
tall
001
succeeded
hits
liable
Sex
Sarah
Van@@
cigarette
pan
oses
Messenger
CI
Canon
Ref
Armed
ert
panic
reaffir@@
rying
Bun@@
Kentucky
Rh@@
evaluating
Waist
pes
administrator
Eb@@
polyester
Ther@@
IG@@
Logo
chromatography
posi@@
flood
forma@@
ergy
iliation
flow@@
physi@@
rif@@
pricing
Hus@@
Transportation
grains
phr@@
stays
dentists
Cyprus
willingness
Lock
noting
bears
tale
Hole
Marble
hollow
excav@@
aia
Theater
discover@@
NA@@
ident
ook
Hat
5.5
individ@@
reservoir
abundant
MT
hiding
Inter-American
oria
argu@@
cookie
championship
hiking
Sah@@
subsidi@@
ails
immer@@
baseball
formers
vibrant
opi@@
subtle
Cool
denom@@
concerts
Pep@@
ones@@
pumps
fortune
polar
forums
Benefits
pills
Miles
conceived
Bou@@
Ryan
ice-@@
wings
Explore
gut
rencies
RF@@
Tim
projection
ve-@@
interpret
accor@@
direc@@
Stan@@
Hab@@
commemor@@
atis@@
orth@@
Apart
Seville
quit
cyclo@@
itate
relevance
Compact
Hem@@
practitioners
Tit@@
Obviously
ATE
fill@@
Sourcing-Components.com
dirty
ão
South@@
tory
chips
lan
RFID
shel@@
agn@@
Olympics
Dra@@
Santo
navigate
Gall@@
Guinea
mill
predec@@
retained
pping
Seller
transported
selective
guards
Patrick
analytical
oic
financi@@
TI
Dream
Fuel
donors
ator@@
Gender
cleaner
Sterling
petition
recalled
Organisation
Signal
Esp@@
uk
applicants
acon
gratitude
fer
nerves
ults
horror
Am
eze
prevalence
Cookies
Clar@@
108
ubs
prev@@
Gh@@
Identi@@
expe@@
funeral
Peruvian
ivers
exceeds
stadium
destroying
esa
Bloom@@
delays
bis@@
Vladimir
900@@
categor@@
threaten
anx@@
Cav@@
Patent
Socket
cardi@@
LT@@
Lav@@
Form@@
identifies
allergies
ic-@@
screen@@
Gifts
uster
2.3
rival
Imperial
Ever@@
Ox@@
discretion
ighter
turbine
paral@@
perpet@@
behavioral
rout@@
doubts
p.@@
layout
basketball
phy@@
capacities
Anne
Types
utilize
moun@@
recession
harsh
plac@@
counted
oxidation
tide
50,000
Principal
geographic
Plan@@
fast@@
planting
veget@@
raises
G.
celebrating
belong@@
DV@@
Files
vul@@
Editor
brutal
na@@
oli
cruc@@
Superb
agrees
momentum
umped
adul@@
cycling
illi@@
differenti@@
accompanying
battles
manipulation
mAh
reconciliation
Whit@@
cardiac
Languages
ET@@
Pcs
TA@@
Set@@
Post@@
Boeing
lover
ua
festivals
deserves
izable
Finnish
Democracy
rhythm
INE
Coll@@
discre@@
ei
graduated
thorough
STR@@
Nelson
improper
16-@@
multipl@@
stress@@
ican
genre
tune
Emer@@
meanings
sweet@@
Aut@@
Snow@@
crises
occurrence
survi@@
contaminated
max
deadline
reinforced
dorf
neurons
treasure
Inc.
Heavy
Revol@@
Morgan
antigen
EP@@
Batman
tance
Balcony
negotiation
Sain@@
methyl
Cash
accessing
careers
Hostels
triggered
labeled
IB@@
Metropolitan
66@@
Ober@@
slow@@
detecting
Coat
tigh@@
micro-@@
tactics
Purchase
Petersburg
packet
berries
facilitating
Zipper
1960
3.1
encoding
Shel@@
axes
Yah@@
Nevada
Bremen
accompany
zer@@
CS
polypeptide
Hunting
Tru@@
storing
employ
OpenStreetMap
ven
formerly
tear
Suit
Oregon
transplant
TON
stead@@
monopol@@
365
Mak@@
Orthodox
anners
ML
Supplies
purely
Sleep
gaps
Speaking
eners
bud@@
Promotion
chess
Care@@
trailer
rotating
asa
ancies
puzzle
Delivery
delicate
cemeteries
77@@
decentr@@
installing
unwanted
JO@@
1.7
Multiple
Agenda
android
furnished
LL
percep@@
Excel
1974
mits
breeding
unacceptable
comedy
Turn
DER
Consider
1972
vely
faculty
Listen
Thom@@
Zh@@
sperm
abuses
Groups
Respon@@
activist
nest
Mixer
backing
IOS
API
luxurious
failures
Understanding
Da
considerations
mys@@
Clutch
Fourth
separ@@
templates
otherapy
tit@@
pher@@
patents
restrict
Jac@@
ampl@@
deck
Residence
ambi@@
Kansas
specification
placebo
reas@@
thre@@
contacted
Lead
ymous
Rou@@
Judge
Contemporary
Ali@@
allocation
Nation
Saf@@
rotor
dead@@
noble
insertion
0.2
satellites
August@@
sensation
Ein@@
assurance
phosphate
Minnesota
Wild
Eve
veterinarians
road@@
aforementioned
diving
bod@@
Oracle
toc@@
dancing
train@@
sculpture
uter@@
pot@@
yle
eld
idation
tocur@@
Hyper@@
educate
oded
Lenovo
satis@@
bun@@
terminals
fifty
ple
Update
ario
Alb@@
e-based
sis
rations
oblig@@
MANUAL
nursing
evid@@
rence
prone
intuitive
recipes
Stockholm
weigh@@
capsules
freedoms
cro@@
contem@@
Iber@@
Janeiro
releasing
DN@@
von
lowering
devast@@
execute
poll@@
Memorial
mount
TripAdvisor
aser
collagen
fort
offerings
25-@@
olig@@
material@@
-H@@
1977
stry
reflecting
Lucky
Bowl
Nav@@
rie
fies
ugs
Clo@@
onin
pir@@
prioriti@@
crip@@
spar@@
draws
App@@
program@@
builds
je
tedly
Treasury
sorship
Premier
oss
highway
influenza
AV
real-@@
Centers
pays
DVR
resol@@
premature
Population
temples
traits
issu@@
hausen
outlined
Earrings
.1
nine@@
rocket
explaining
symbolic
inherited
anon@@
AF
planetary
ett
etern@@
Cir@@
Bulb
Otherwise
yd
commercially
Buddhist
vinyl
indirectly
ressing
forcing
Artificial
erness
TY
fores@@
FS
Monitoring
yuan
HC@@
Ethiopia
corrupt
Eng@@
Certain
municipalities
antioxidants
confirms
fitting
ê@@
solo
prot@@
hazardous
full-time
ICO
penis
digestion
Alaska
appearances
hex@@
Motor@@
ui
interval
sed@@
certificates
Sul@@
mation
atches
LLC
ultra-@@
Montreal
MC
Anthony
Vista
violated
leverage
RGB
defenders
Mot@@
stupid
emphasize
manages
Homes
bed@@
NG
flame
usable
Jun@@
daccess-ods.un.org
span
Jeff
GS
oss@@
declar@@
diluted
bureauc@@
Fall
simplicity
Acrylic
sliding
silicon
Silk
perspectives
Lac@@
urs
economically
Directors
adjustments
Rich@@
outlook
24V
Fortun@@
peso
light-@@
lingu@@
Magazine
mutations
warehouse
symptom
Squ@@
thor@@
Elec@@
translate
persi@@
Tel
Pen
Ped@@
CDC
Hawaii
continents
safeguard
DaWanda
sellers
arma
Self
assing
undoubtedly
approaching
lit
multilateral
hiring
discussing
hen
gh@@
sional
Strong
py@@
ram@@
Ministers
X-ray
Hydraulic
Edinburgh
nurse
inability
oin
Nova
Boutique
neighbor
child@@
SVG
Mechanical
att
Fun@@
Typically
periodic
Polyester
Copenhagen
spatial
costly
CK@@
asp
lic
relaxed
explos@@
24-@@
bankruptcy
bles
get@@
mont
basin
block@@
router
recycled
hectares
supermarket
cow@@
ity-@@
Af@@
vel
A1
consul@@
Sweet
rent@@
cher@@
ensive
Luxembourg
formulations
Folding
ration@@
NBA
publ@@
Dental
liqu@@
VII
architects
Dav@@
angu@@
Letter
bonus
Nepal
Mask
TC@@
rescu@@
wick
inher@@
OAS
compan@@
challenged
Request
1971
viscosity
obliged
chol@@
Printer
nie
elec@@
umps
sustain@@
swim
entially
transforming
sorts
explicitly
overweight
10th
arises
GT
dealt
absent
11-@@
fun@@
Specifically
habitat
Roll
ocks
Pes@@
ardo
Mess@@
shade
vial
monitors
asia
Punta
Basque
5V
quartz
monument
LOR@@
unve@@
ken@@
resear@@
queen
Summary
inge
duc@@
cs
consultations
concentr@@
Ltd.
Trip.com
Options
artic@@
newer
Hur@@
Cutting
strengths
Qual@@
tern@@
Bea@@
Asi@@
sain@@
ación
approve
Est@@
compressor
igning
counsel
Tex@@
coconut
14th
Independence
Guitar
cam
counter-@@
susceptible
Jin@@
1.
vicinity
calculations
masters
Healthy
helicopter
aires
1A
Statement
Franc@@
Falls
RS@@
Surface
Stanley
trics
travellers
twin
Railway
irrigation
acle
hua
ér@@
bold
Benjamin
formulated
veins
butter
Austrian
Fair@@
But@@
streams
donation
elect
scared
hypothesis
woven
pipeline
da@@
amide
Domin@@
eff@@
participant
boarding
feld
line@@
Deb@@
och
originated
Charlie
Southeast
OL
cook
rail@@
Designed
tell@@
contrac@@
team@@
emy
las@@
PV@@
rat
stating
Vent@@
slet@@
embassy
inter
implants
beta
demonstrations
KE
fea@@
Hurricane
Motorola
invo@@
0.0@@
submission
quantitative
Jup@@
Interface
reactive
accepts
stence
52@@
distributors
ulates
Lyon
SV@@
Veterinarians
oe
ART
Effect
IL
licenses
e-commerce
Principles
surname
COMP@@
enthusiasm
Nuclear
Human@@
collectively
Mark@@
Picture
amendment
Cook
volatile
elf
gan
certif@@
320
Oct
Beat@@
accumulated
cooperative
Detroit
AZ@@
kno@@
Hilton
ultrasound
fru@@
pound
lakes
constructive
shelf
lighter
Kelly
vian
peas@@
offshore
ethylene
tones
whis@@
practiced
gar
Average
quarters
passi@@
messaging
Cabinet
facilitates
Soon
Roger
Position
caring
Wol@@
Catal@@
Afghan
hang
penetration
band@@
Employment
TED
adoles@@
exceptions
Mississippi
Institu@@
tioner
Manufacturing
penalties
actic
corporation
Lad@@
icit
ERS
anga
rive
Ana
trim@@
pursuing
Thous@@
Put
Greater
cured
Advisory
demographic
melt
Styling
Canal
habit@@
hills
integrating
Lang@@
Millennium
Louisiana
HR
geometry
CCTV
altitude
collar
time@@
tiz@@
Serbia
state@@
Jean-@@
Built
COR@@
metallic
steroids
Holland
pitch
Grade
cute
500,000
poet
socially
brightness
CP
sits
clip
925
GI@@
steal
Murcia
Impact
mentally
definitions
Resistance
anned
carb@@
Survey
utor
brief@@
ape
Lead@@
amaz@@
non-governmental
rendered
fibre
linking
reck@@
titanium
po
ule
stere@@
iously
Pierre
dragon
Ps
Explorer
MI
rally
menting
assessments
Jacob
strains
atin
minorities
Maya
narrow@@
associ@@
F1
reservations
Myanmar
Fro@@
Celebr@@
circuits
ONE
iper
kidneys
toxicity
advocates
iors
Animals
mitting
Occup@@
well@@
Agent
Ax@@
counsel@@
Jorge
zi
nail
use@@
Dre@@
indispensable
Concer@@
pig@@
specialised
T.
fifteen
reasonably
pillars
initiate
Nam@@
etta
conditional
listing
14-@@
unified
Situation
zi@@
WH@@
Salt
Hard@@
ña
Const@@
SH
insecurity
XP
dysfunction
commerci@@
entre@@
Recovery
OECD
ange
presentations
maturity
Gram@@
crypto
Lodge
conserv@@
proposes
multic@@
Players
GL@@
accelerated
Co
stic@@
adv@@
Fried@@
classi@@
Staff
fragment
cylindrical
Nik@@
equation
olds
SY@@
Arn@@
Shape
tled
Gloves
YOU
eres
Yor@@
Ethernet
Liquid
Cali@@
gland
malicious
intact
cart
etheless
Aid
ounds
dale
Franklin
positively
NC
Necklace
neighborhoods
tified
Ce@@
UM
Decorative
seized
ellor
Sugar
Navigation
torque
Senator
climb
Starting
explosive
Generation
IL-@@
�
License
ogram
dic
caffeine
Analytics
communicating
cript
compartment
accommodations
modest
vil
makeup
clou@@
hesitate
expressly
histor@@
authorised
configure
intervals
Som@@
ulent
asted
gloves
URL
excuse
Observatory
Nylon
illustrate
therapist
tec
thy@@
Bud@@
itated
alyp@@
Sus@@
Paraguay
Defence
drilling
metro
globalization
Certified
bandwidth
reve@@
securities
evacu@@
encountered
Lov@@
crystals
deterior@@
preme
Businesses
Jackets
HT@@
Saving
Wind@@
horizon
leng@@
cups
gum
practicing
manifest
batch
reductions
contractors
booked
attribute
ladies
Instruments
credibility
Helpful
Ton@@
footprint
Muham@@
characterised
Aluminium
explan@@
refrigerator
contractual
seas
iner@@
parliamentary
Conserv@@
optimization
jazz
Leadership
owe
slaugh@@
Ful@@
financed
environmentally
reversible
recognizing
aim@@
ag
Bah@@
magazines
livestock
advancing
bookstores
ios
ocking
fix@@
bowl
Womens
Historical
ör@@
anchor
aul
1.9
ightly
Brothers
mixer
Mun@@
OH
Converter
fragile
animated
undermine
anti-inflammatory
membranes
tailored
ketplace
Agu@@
mutation
UNI@@
anes@@
Practice
lined
Run
nationals
Representatives
Lic@@
phosph@@
Od@@
Matt
prac@@
Opera
Lift
Satur@@
durability
gall@@
slip@@
natur@@
Optim@@
spine
monster
mal
moder@@
13th
One@@
Bin@@
tico
Bruce
discrim@@
67@@
advocacy
trail
compet@@
drought
Assistance
inadequate
fair@@
Event
Dec
boundary
7.5
diarrhea
3.2
umed
Profile
sal
dess
loses
usa
lord
TPU
dub@@
ambient
odes
DJ
hem
internally
Ms
ique
TT@@
ught
Stre@@
briefly
RE
regulating
tour@@
Wave
elli
Ds
towers
Activity
2000@@
Vacation
middle-@@
OL@@
retailers
lacking
herbs
sound@@
cend
Oklahoma
geo@@
towels
estr@@
prob@@
Birmingham
ateral
T-shirt
invites
sanitation
scanning
inhibitors
ICT
irregular
girlfriend
axial
85@@
shoe
acres
Icons
Rapporteur
Far
gambling
ond
emphas@@
micros@@
Sud@@
NH@@
regener@@
arteries
ée
Job
Models
boots
cerem@@
deploy
Standards
culmin@@
MBA
Nov
esters
mentary
W-@@
interrupted
resilience
Canary
rain@@
Les@@
Sebastian
spr@@
constituted
Lie@@
trap
sement
mes@@
osphere
confidentiality
summar@@
umes
Di
inquiry
chan@@
gotten
ysis
balances
catalog
Aviation
bab@@
ications
lean
metric
grow@@
Amend@@
stit@@
icide
Bavaria
realities
Native
icking
macro@@
cosmetics
Tactical
230
clay
adjusting
sburg
Electro@@
unauthorized
roof@@
Princ@@
historically
-watches
accessibility
Christopher
ild
LTE
intends
Renaissance
pockets
Notice
Mouse
icker
Past@@
lip
cia
creators
Monte
Kris@@
Stuttgart
coli
concludes
Movie
Blade
Liberty
ples
correlation
Exhibition
itations
bec@@
oda
acne
unforgettable
Aven@@
-watches-@@
bre
Answers
cellulose
surnames
counting
forbidden
cocaine
stimul@@
expl@@
tubular
aws
peti@@
psd
Fruit
peace@@
fast-@@
anas
Meter
comic
Naples
endang@@
Sign@@
Worldwide
Nick
Medicare
appropriately
consequently
vs.
menstrual
inally
striv@@
OFFERSPRICE
lead@@
mise
boasts
Transparent
LD
Andr@@
explicit
musician
HA@@
arbitrary
Blu@@
clarify
ife
plas@@
prototype
explored
vitro
therein
astronau@@
Thr@@
Gir@@
Components
ICA
Flexible
clar@@
ushed
rolled
Flip
violate
Mrs.
chro@@
Pablo
English-Russian
diversi@@
Ferrari
sar@@
minors
mare
recruitment
profitability
balloon
Poster
ologic
Xperia
Participants
admir@@
Actually
dissemination
Competition
resume
Serv@@
stronomy
estrogen
ells
orb@@
Heights
-B@@
Corps
automobile
wool
iki
Dresden
ev
adequately
bronze
HTC
remarks
recreational
modeling
dissem@@
exist@@
Tehran
males
Gates
PCB
canal
30,000
pow@@
Yamaha
Assessment
torate
mix@@
WhatsApp
Hil@@
volcano
amps
Dic@@
Effects
restra@@
Medi@@
maternal
tees
Mom@@
exec@@
polyethylene
china
sporting
dressed
affiliated
Gun@@
RT
communicated
Precision
León
artery
visualize
Budapest
oto
ady
adver@@
12th
juris@@
Gun
derivative
Thermal
itinerary
ilized
microphone
burst
JAZZ
Portrait
short-@@
Mall
T-Shirt
MAN
SO
boot
tail@@
gradual
lou@@
quot@@
43@@
Gs
Ide@@
19.@@
mach@@
pac@@
Lost
foreigners
Enter
goo@@
surprisingly
Exp@@
Customs
Marri@@
wash@@
1964
in-depth
exha@@
laying
Covenant
II@@
Cisco
inhibit
Loose
females
conformity
Tou@@
omer@@
breakdown
Crime
ules
generic
versatile
Sir@@
Important
electrics
business@@
Dan
cot@@
binary
Hardware
Bill@@
countryside
proce@@
7th
Jane
Response
6th
Pass
Finding
compos@@
Gy@@
adopting
Gab@@
definitive
Hob@@
40-@@
inity
crystalline
Prof@@
Compatible
sentences
Lau@@
Jet
1965
offline
enny
master@@
guiding
hes@@
forestation
finest
inappropriate
optimized
Plat@@
liquids
Connec@@
amendments
infusion
itter
CN
cad@@
marker
Cast@@
margin@@
ected
alcoholic
Puzzle
hunt
Algeria
exotic
Bapti@@
aine
basket
interrup@@
Ads
grip
volcanic
velocity
consultant
Jamaica
Eur@@
gem@@
Soc@@
Brush
transmitting
auction
methyl@@
Except
hormonal
luggage
Nag@@
Wear
fts
laboratories
fic@@
athlete
dian
Cases
ordin@@
satisfactory
govern@@
BEGIN
Really
nationwide
browse
Agricultural
Rings
orig@@
Nap@@
lem
95@@
tang@@
assessing
Nan@@
sir
mas
Mining
constraints
Sandals
captain
Howard
expose
accounted
bye
genetically
diagnose
Vehicles
Num@@
60-@@
IX
welcomes
metabol@@
doms
KO@@
rounded
GP
harm@@
inks
bite
viewer
umph
indic@@
isms
turing
Release
september
tomy
hook
Denver
mons
contractor
103
reinforce
Theme
outlets
precipitation
aust@@
drone
itic
LP
tripwolf
watch@@
Leon@@
uri
agan
exhaus@@
preced@@
supple@@
nea
Shenzhen
stimulating
analog
Flow
digits
debit
anti
Text
Monetary
Beverage
Parkinson
Paradise
tiveness
myst@@
Sofa
scholarship
Alan
regulators
ei@@
2.0@@
-free
erv@@
isa
newest
Faucet
responds
gastrointestinal
Bell@@
responsive
pet@@
mercury
wells
processors
sunset
tro
high-level
electrodes
bos@@
eon
renew
hose
donations
potent
openings
temper@@
air-@@
enne
parall@@
traumatic
paras@@
sauna
refin@@
exploit
Degrees
Exercise
servants
chambers
som@@
stants
Chang@@
rea
threat@@
vegetation
ounced
Penal
sever@@
conver@@
Brain
kettle
SB@@
Psychology
deposited
onna
clam@@
650
negotiating
TP
uts
gig@@
attor@@
itan
leges
shipped
LAN@@
osing
Jes@@
Roc@@
rigorous
Comfort
115
Postal
halt
consolidation
bind
Link@@
banner
bell
abdomen
naked
deterioration
Circuit
ro-@@
H.@@
surve@@
Dogs
190
Baja
yeast
Brooklyn
underwater
shit
cathedral
Fresh
intestine
11th
Rosa
residual
disappearance
SET
portive
eighth
exacerb@@
Integr@@
bly
Breathable
reliev@@
paragraphs
colony
Affordable
Blockchain
3000
ost
Uganda
strateg@@
tak@@
Hindi
posting
Six@@
ador@@
embry@@
Fire@@
angi@@
Feb
downloaded
optimum
continuation
silk
magnet
Utah
flour
valu@@
enforce
poorest
iqu@@
essor
1950
outdoors
consolidated
ituality
parti@@
Azerbaijan
Pet@@
Feder@@
SER@@
Seating
Grace
acoustic
Hello
prud@@
Bayern
E.@@
preserving
Panasonic
Reports
orn
Short@@
spiral
cruel
Tunisia
Day@@
p.m.
pathway
Outlet
inas
paradise
repression
HER@@
dos@@
Depression
Ster@@
Kan@@
Conservation
Kings
Gel
hr
pub@@
Regular
Bear
kits
benz@@
deleg@@
reven@@
ABC
caf@@
Abstract
Bronze
se-@@
dresses
onically
Mi
incorporating
aco
rist
Relig@@
brick
Mig@@
Accounting
fixing
assignment
Buying
ratings
ogical
procurement
Baseball
Rule
Gym
Tun@@
defl@@
per-@@
arrange
Quebec
Cou@@
suction
-winning
guit@@
revi@@
jection
ferred
Bob@@
enrolled
rib@@
ologies
lifted
Dear
tles
athle@@
resting
genocide
construc@@
blank
ber-@@
scor@@
rab@@
bias
Residential
Melbourne
distor@@
Bus@@
sured
PCR
smo@@
amended
Featuring
shipment
WHOLESALEDIRECTORY
Persons
keted
hospitality
welcoming
bitter
gates
commissioned
Honor
pepper
Pain
olly
rez
encrypted
Rece@@
respects
Anderson
smug@@
securing
bou@@
nes@@
competitions
cans
ordering
user-@@
220@@
depicted
Regarding
Brow@@
Á@@
peculi@@
lace
Ban
starch
poker
Cs
exceeded
SMD
vapor
los@@
incorrect
carbonate
Rafael
13-@@
specialty
Clark
Tanzania
Nation@@
global@@
treaties
doubled
markers
Primary
Carter
december
xon
ation-@@
ub
induction
asses
disturb@@
vaginal
airing
Kiev
copes
instability
wax
sman
Kel@@
Desert
Loss
grandfather
Stran@@
naval
multimedia
unanim@@
Samuel
iving
Faculty
genome
ño
luc@@
Tap
stig@@
Partnership
allergy
bulb
200,000
propri@@
ree
ution
AE@@
Straight
Payment
arsen@@
fulfil
committees
bat@@
Hos@@
Detailed
reviewing
aromatic
Theory
boom
super-@@
20.@@
Jeep
analyse
HTML
Person
rible
tangible
stadt
gy@@
Lip@@
2.8
Gur@@
Ara@@
yards
aden@@
hang@@
october
Presid@@
ASIANMARKETS
Aviv
Soul
Ferr@@
Bilbao
Mental
it-@@
ø@@
hind@@
celebrations
lever
Mass@@
companion
Partners
Png
fulfilling
elt
uce
ontal
Shorts
ant-@@
VIII
populated
Alice
I.
RED
contacting
Creating
Ins@@
carpet
subsidies
radioactive
ADA
urinary
rough
Migration
pronounced
sunny
lys@@
eh
reminder
easiest
trick
Command
commodity
mono@@
humor
comprehen@@
Rog@@
free-@@
carriage
Sign
climbing
mark@@
Apply
acing
Distribution
appl@@
charts
dispersion
chapters
withstand
Bright
A4
LC@@
6.5
cooked
Race
zhou
argues
SEQ
emergencies
FT@@
ingu@@
portation
4x4
erad@@
ür@@
decree
downloading
brass
Extra
Hz
lymph@@
Socialist
eps
prompted
Closet
Silicon
ocy@@
deple@@
Special@@
conductive
expan@@
contrib@@
dos
sul@@
mist
institu@@
prosecution
Cin@@
barrel
u-@@
Bird
Partner
undergoing
departing
decreasing
winding
Mayo
Rav@@
Zero
uded
Tap@@
manifestation
Maintenance
1963
English-French
shortage
gasoline
admire
CHE@@
radicals
main@@
terraces
SAP
advisory
third-@@
geons
Gem@@
sulfate
extracts
Nordic
Municipal
Scottish
Bearing
ustice
Campaign
boyfriend
dam@@
Cher@@
Calle
1962
occupy
Circle
mn
fa
exclude
slog@@
VER
iber@@
Commit@@
pdf
Dest@@
Bron@@
zes
wallet
ano@@
opposing
Installation
Lines
reporter
Jason
gentle
fabrics
occupational
infer@@
gateway
residues
Aug
llar
uto
seekers
Fit@@
disruption
Venus
2A
enrich@@
endorf
Campo
hob@@
GB@@
antibiotic
glut@@
agr@@
Aar@@
Max@@
modular
penetr@@
1961
TES
shoulders
aders
Rail
Leave
WAS@@
rier
cover@@
olar
Track
itas
stent
bow
locals
mammals
Steven
inhibitor
Stu@@
ault
Keywords
convey
Administrative
lay@@
8,@@
rein@@
opathy
Douglas
Tow@@
lea@@
nausea
slower
programmed
ert@@
tability
delegates
Alc@@
Spo@@
ushes
negatively
Falun
Ground
market@@
Autonomous
beads
Leipzig
Symptoms
MAX
Rural
arez
pesticides
Managing
Walk
compens@@
agonist
spon@@
hand-@@
riors
JE@@
Creation
bus@@
Russell
Protect
Rand@@
alp@@
november
neighbourhood
obstacle
quir@@
Iowa
landmark
fills
Champions
unto
Marie
pixels
I.@@
arbitration
last@@
oman
Latino
Moto
Injection
2.7
AF@@
Philips
Brands
drag
biom@@
Cards
gn@@
0.3
Provincia
mitigate
defect
1200
fax
Lea@@
nevertheless
casing
pill
Vancouver
Arkansas
san
opera
poorly
avoid@@
labor@@
oscill@@
EX
UL
insp@@
jewels
Tib@@
regeneration
prison@@
distingu@@
tack@@
dictions
nails
wondering
broadband
assed
vomiting
Mam@@
merged
ird
Somalia
Kil@@
demonstrating
cross-border
sells
Persian
thic
98@@
Diabetes
ib
vy
liters
doctoral
additive
apti@@
condi@@
Cad@@
ardless
Moore
keywords
colonies
Lis@@
differential
nity
aiming
Aw@@
determin@@
technically
barrels
kes@@
solvents
Gabriel
Individual
yen
Hub
adventures
bow@@
114
advisable
revers@@
Walter
tos
APP
Automotive
Warsaw
ft@@
contrad@@
provo@@
EPA
unch
descriptions
lobby
GSM
Meaning
multinational
prosecutor
quad@@
opher
Mod
deliver@@
monolok.info
state-of-the-art
upload
hazards
Challenge
ICAL
Document
Mercury
mol
dawn
NE
debris
Prec@@
kel@@
indications
painter
mainland
coral
suppose
Ind@@
Clip
molding
bent
eria
Charlotte
attendance
undertaking
vivo
J.@@
kar@@
tas@@
Jeans
Scale
uh
Operating
fers
Ill@@
Pir@@
drop@@
lesser
sights
startup
optic
atures
trem@@
accredited
Outside
Producer
ern
anth@@
Historic
traction
rol@@
panoramic
Sad@@
AAA
a.m.
terrain
Spid@@
Vila
Big@@
setup
Handmade
intermedi@@
footage
republic
Friendly
aul@@
ptions
collision
Improv@@
Ott@@
promoter
UT
Barbara
4.2
peninsula
provincial
bes@@
oric
contracting
erly
expir@@
vas@@
pects
ailing
Santos
villas
uth
Healthcare
budgets
Haz@@
omb
rel
folk
laundering
methanol
poured
Zurich
Spray
stainless-steel-case
GD@@
ieve
Solution
King@@
launches
rolls
microorganisms
enjoyment
persec@@
notifications
PRO
Pac@@
Málaga
nasty
entries
burns
switches
kiss
sampling
logy
Rac@@
-2
inters
icky
ce-@@
English-Polish
imperative
Juli@@
Consum@@
bery
Provide
uous
WS
advancement
examining
ially
Cru@@
Marc
terminate
KG
WO
Om@@
Frank@@
Apk
suffers
cology
8th
rog@@
fted
cattle
Hero
p-@@
donated
Difference
Ja@@
Tum@@
Kate
illicit
day-to-day
Recon@@
SEAT
requesting
recipients
achers
122
cow
ECB
Output
Mort@@
54@@
English-@@
resilient
mapping
Cleaner
curved
POWER
cents
olf
rectangular
Khan
Mik@@
sab@@
hierarchy
Ultrasonic
160@@
auxiliary
stream@@
configurations
Leader
Gri@@
micro
iso@@
alternate
valuation
SHO@@
4.1
irritation
f-@@
Opel
stats
adhere
Neu@@
Rain
attracts
wives
itude
Pre-@@
Dishwasher
Medium
CIS
proceeds
Leon
ère
phere
Dim@@
exchanged
raz@@
Newest
incorporates
FF
Pop
requ@@
Pan
boy@@
warrant
17-@@
week@@
Jul@@
ill-@@
sensory
Liverpool
proximal
OB@@
ived
76@@
rem@@
sexy
anz@@
Pin
behavi@@
phe
exhibits
Cob@@
overlooking
ango
beau@@
Ceiling
aerial
transcription
lightweight
matching
highways
ı@@
Ever
focal
Ok@@
Rice
twentieth
Sorry
Projects
validation
2.6
canvas
atter
airfares
Bang@@
Changing
nutrient
Band@@
tires
eve
liner
uss
newborn
inheritance
ision
Clos@@
compu@@
feder@@
tal
Religious
cottage
Answer
neurological
ogue
erson
Rain@@
ingham
passwords
prince
celebrates
paradigm
V.
Cli@@
encomp@@
English-Czech
Bed@@
Trinity
Napole@@
Unique
retro
Therapy
Brother
Transi@@
Rover
tt@@
180@@
birth@@
rope
Civ@@
inputs
pillow
theastern
Household
pulmonary
incoming
Machinery
Potter
reconc@@
UNHCR
Galil@@
smokers
galleries
Purchased
destined
rainfall
ound
privileges
bee
ambigu@@
udes
compensate
avier
Det@@
scales
GREATERTHAN
stylish
Layer
Wolf@@
door@@
stly
neural
Maritime
agen
74@@
peror
Real@@
deriv@@
Andalusia
jan
suspicious
Jonathan
exhibited
qualification
earthqu@@
dispar@@
regulator
cler@@
Contr@@
otting
cleansing
emis@@
LIVESTORE
53@@
wellness
composer
pass@@
flooding
relies
stipul@@
detec@@
depic@@
quarter@@
Lit@@
wt
hoo@@
browsing
Cleveland
Vietnamese
Landscape
osp@@
Infrared
ingo
induce
Outlook
Gard@@
Testing
headaches
Phones
x-@@
Roma
Zen@@
glands
grandmother
fic
developmental
Petro@@
malaria
Eth@@
collapsed
Sco@@
Volume
128
Grant
chrome
rin@@
Harbor
rug@@
closures
onne
Massage
Andy
stirring
aba
Lowest
Recorder
Reader
nurses
Smoking
Jazz
piv@@
promotions
Costume
Et@@
Ama@@
fisheries
FRONT
pandemic
inn@@
Packing
lesions
oop
install@@
Attorneys
OD
Gaz@@
dt
encer
ty-@@
spra@@
stop@@
assumption
cros@@
-like
Chen
world-class
cervical
call@@
ps@@
Carl
atal@@
enever
elong
Roller
elines
3.3
Hot@@
renovated
drug@@
modities
forty
excluding
coordinator
VAT
Harris
Asked
Build
there@@
Solomon
Justin
eau
After@@
minent
Lawrence
waist
fund@@
atable
idity
2.
year@@
Resistant
lowship
Jimmy
periodically
aux
institute
approv@@
LAN
Oven
clinics
Milk
IV@@
Marco
UNDP
contexts
Chi
pseud@@
signaling
Regulations
Mounted
showcase
parad@@
Lum@@
cost-effective
Jr
ovo
martial
Baltimore
ket
peer
Pit@@
Guidelines
updating
Kyoto
arc
convic@@
underway
manifestations
traces
Indonesian
Path
peptides
lac@@
Cambodia
RES
unpleasant
destro@@
Recogn@@
exchanger
surge
forecasts
acu@@
saves
Auckland
Eau
German-@@
oy
Columbus
acquiring
Snap@@
US-@@
inhibition
tyres
Angel@@
Appe@@
unlock
arena
Kol@@
icop@@
retaining
nasal
aboard
ym
ska
isot@@
Join
drain
conventions
Lion
ados
dirt
springs
Bad@@
rhy@@
nov@@
scattered
Hund@@
Sustainability
08@@
demol@@
ş@@
clause
lish
AGE
Employ@@
skull
Roy@@
achment
lev@@
Armenia
dealer
bank@@
yields
Resource
exploited
encounters
electron
ilization
Optional
tus
-and-@@
imprison@@
subscribers
consisted
infin@@
350@@
suites
uterus
jungle
SM
lowered
Ghost
pick@@
tuary
manif@@
ROM
seating
Individ@@
wifi
atur@@
ressed
tar
itor@@
EM
end-@@
Discovery
subscri@@
restoring
96@@
Sticker
imposing
Child@@
BLACK
subur@@
virgin
BE
box@@
2B
monastery
boiling
restructuring
hop
Victor
LT
actuator
uca
projections
igns
disman@@
unemployed
plate@@
haz@@
compiled
aran
Screw
ICS
garlic
cho
Origin
Scr@@
poisoning
retriev@@
accum@@
Alto
observing
Evaluation
mud
enness
gard@@
vey
Ethereum
Pok@@
Nas@@
tlement
Eg@@
Person@@
5000
Audi@@
coronary
veterinary
estive
cles
Selection
Robot
Cooper
Kazakhstan
imprisonment
Pieces
pixel
Foods
ample
incomplete
adj@@
Drink
Junior
Ec@@
rounds
fireplace
Leo
-off
atories
ZTE
Riv@@
ogen
Grand@@
Steering
ure-@@
5.0
116
disadvantages
trademark
Isa@@
clin@@
cogn@@
idd@@
Belgian
Import
All-@@
amer
Hell
impaired
tricks
Fif@@
sville
seater
rush
Glasgow
1959
masks
Fam@@
erce
contracted
Reality
MR@@
Glasses
Corner
internation@@
Points
Thin
rell
inals
Damascus
Luggage
Warren
GHz
Pair
illy
casts
EEC
metast@@
extrem@@
telescope
advertisements
fines
Laura
hai
assign
Incre@@
erman
up-to-date
quin@@
tifying
nia
sweat
licensing
sque@@
kick
till@@
García
pig
Ross
similarly
ô@@
Jon@@
Immun@@
hydroxy@@
SL
Cass@@
Atlas
awesome
TS@@
expon@@
Bras@@
-R@@
furnace
reciproc@@
Happ@@
commis@@
obb
conveyor
opl@@
Diet
ratified
CAN@@
Duty
Lap@@
blades
aggregate
morph@@
economical
onds
CR
negotiated
chang@@
phins
weakened
manag@@
wires
perf@@
touching
Sci@@
genres
warran@@
treats
fting
tog@@
coordinates
FE
Graphics
Rare
preferable
kr@@
porous
Fur@@
ocation
Sites
Zoo
Wr@@
MK@@
lyrics
jects
Corn@@
Status
fessions
impairment
Enter@@
Mitsubishi
introduces
intu@@
REAR
essly
à@@
Wikipedia
inevitably
opath@@
Knight
Fav@@
sponsor
Comple@@
Kim@@
here@@
arose
headache
ital@@
reper@@
Wis@@
affinity
Lithuania
thes@@
Adap@@
query
nd
Specific
tooth@@
Fon@@
Hugo
calorie
enta
Lag@@
comparative
round@@
His@@
TT
atr@@
Universidad
Evening
injections
Grad@@
incre@@
recreation
cements
shake
ck@@
Lamps
Romantic
aning
selves
rememb@@
pressions
sur-@@
knoc@@
Authorities
Cardi@@
SON
pursued
Sneakers
coast@@
practi@@
advoc@@
Flu@@
Aug@@
ightening
own@@
abolic
Gaming
Yu@@
RU@@
confrontation
-in
Wid@@
Conf@@
directive
ogen@@
Sexual
Rud@@
aks
Compl@@
Flag
TOR@@
granting
2D
Chevrolet
pine
Deluxe
shifting
English-Hungarian
izers
mart@@
slots
coc@@
PB@@
tle@@
NG@@
subjective
prep@@
Markets
typ@@
Viol@@
Mail
partition
credi@@
alg@@
revision
est-@@
Highway
MG
1920
sibility
Lucas
PayPal
Communities
simultaneous
stimulates
eco-@@
jack
m.
Trains
joke
supplying
buffet
translator
Ho
azz@@
urable
Leonardo
Lor@@
Bak@@
RO
Lec@@
CK
yeah
recombinant
ariat
recovering
triple
lumin@@
arized
Digitizer
enhances
Suzuki
pyr@@
directing
left-@@
utilizing
Cruise
volun@@
Has@@
Hidden
freezing
Villas
AX@@
PET
constitu@@
illumin@@
incentive
PT
confined
imply
proportions
ort@@
dealers
pizza
prepares
Basin
editions
assuming
Dortmund
Hunter
Arena
pigs
edo
ozone
Connecticut
Expert
And@@
inorganic
versa
bathing
oot
firing
polymerization
Cow@@
SMEs
Organizations
roll@@
ashing
turally
Michel
engineered
observers
Surveillance
abor@@
searched
Embroidery
commit@@
rotary
wrapped
Protec@@
pathology
yl-@@
Compound
nets
basement
thly
intern@@
tos@@
Hai@@
Smart@@
Angle
complain@@
Mut@@
Automation
group@@
MON@@
mutually
qualifications
exceeding
Mill
Stor@@
inhal@@
Madison
bikes
Chall@@
high-end
oline
Polo
interim
Mercedes-Benz
Cameron
icy
repairs
sauce
convinc@@
lastminute.com
JU@@
Turbo
Wolf
DR
cage
genital
dam
interfaces
TN@@
aris
freeze
N.@@
dedic@@
Well@@
copic
establishments
Bali
115@@
EA
stal@@
Canaria
prisons
crimin@@
1500
recordings
mus
conductor
Tod@@
Processing
tractor
Low@@
Graham
Adults
mini-@@
vinegar
impunity
Frequency
shifts
ricane
game@@
Laundry
Trading
š@@
ML@@
jer@@
Dhabi
Parker
Marshall
regimes
man-@@
Proof
Complex
removes
Vincent
ku
subord@@
S8
sty@@
100-@@
Simply
comfor@@
111
Tren@@
inno@@
distri@@
bees
hemor@@
balancing
filtering
Extension
Some@@
Khal@@
bas
Moz@@
Welding
employs
flats
geometric
UAE
Armenian
CV@@
euro@@
Saxony
abduc@@
Published
ander@@
studios
diamonds
Cooling
nan
literacy
issuing
body@@
missible
bor
Scal@@
GI
movable
stant
Connection
opes
ucks
Effective
petroleum
wanna
bunch
Infrastructure
shirts
Farm@@
e-up
Customized
folded
Seg@@
Devices
Publish@@
empowerment
llec@@
ting-@@
ARE
Constitutional
dishwasher
Banks
pulling
linen
erie
shire
ista
rhe@@
Trinidad
resorts
Agencies
ais@@
joins
Brid@@
ph
event@@
Bass
Receiver
Ris@@
Say
rank@@
Carr@@
Night@@
9th
concep@@
Rotary
Updated
incl@@
inates
isol@@
gel@@
Gordon
idelity
boiler
Tul@@
Roman@@
Dro@@
iring
insist
pour
horn
elementary
9,@@
Whereas
Centr@@
neur@@
Vinyl
Alcohol
pathways
wed@@
infring@@
â
Kuwait
Divorces
knowled@@
solids
your@@
diabetic
trip@@
Superior
4.3
Beth@@
Jav@@
highlighting
Kosovo
visually
metropolitan
capita
stronomical
uation
Nom@@
compulsory
designation
MU@@
Videos
eh@@
drunk
irr@@
Peugeot
appropri@@
administrators
EG@@
backgrounds
urgy
nography
lime
Warning
López
voy
jets
OneTwoTrip.com
Tribunal
Tele@@
tories
ouses
psychiatric
tioners
separating
Brig@@
rim@@
Hampshire
impul@@
Garcia
Label
cal
motors
oscope
anomal@@
remainder
lock@@
135
farmer
DB@@
anal
july
PG
Dynamic
watches-@@
ZIP
epilep@@
premiere
WOR@@
memorable
quer@@
zen
lacks
ulator
counterparts
Offering
Ironing
Vertical
reacted
Networks
respecting
Trim
styling
LTD
unstable
tariff
ocr@@
Increase
corrected
06@@
Woods
Transmission
appeals
tv
standings
Jefferson
insect
Moving
â@@
ament@@
Calendar
asive
switched
Princip@@
nals
housed
Collar
bowel
Monte@@
picking
alleviate
fur
enburg
la-@@
wished
bian
penetrate
ffed
1.5@@
Families
Egyp@@
Twin
Drugs
coherent
index@@
Deleg@@
BER@@
annex@@
grinding
Riviera
rance
registry
Joan
LIN@@
bility
Integration
debates
cle
smiling
screws
us-@@
amounted
ylo@@
thful
ocular
phabet
deprived
Paul@@
bean
Sao
Sund@@
stretching
circulating
depriv@@
pation
credentials
CAS@@
Zaragoza
tee
communic@@
june
clearance
Telescope
stereo
drag@@
currents
Bis@@
It@@
DRIVER
Morales
blu@@
drill
differs
assumes
IE
urches
suspend
fence
cos
invent@@
rap
omo
Bosnia
align
59@@
ike
leys
swing
patio
legitimacy
NGO
multitude
stock@@
expectancy
CTION
Robin
augh@@
extensively
Stress
Blanca
y.@@
aste
ylon
sugars
Continental
romance
Vik@@
enty
iel
107
ensi@@
equitable
Compared
character@@
glue
boring
stamp
closet
Invest@@
Sant@@
HC
Cyber@@
202
zy@@
Yel@@
geography
Said
dive
gauge
sies
Soph@@
Gary
911
sapphire-glass
Experim@@
Bag@@
Cala
Iv@@
groove
coff@@
anta
Lud@@
proprietary
erals
fem@@
calibration
Eug@@
dou@@
feasible
navig@@
beneficiaries
edy
Att@@
POR@@
Adams
mim@@
Rick
omega-@@
Electr@@
anemia
refusal
drainage
69@@
norm
menopause
Glo@@
SAN
oversight
Silva
550
beside
estion
soup
ge-@@
én
GF
Tendances
irrit@@
prompt
as-@@
Castell@@
Basketball
mom@@
seminars
Oper@@
outline
cott
Evolution
Volunte@@
Kid@@
vide@@
descent
alkaline
A3
sar
Fifth
atitis
Sofia
photo@@
dest
Raj@@
artis@@
kW
XML
Hybrid
bom@@
Apollo
Call@@
Stick
lap
attach
erosion
Sak@@
perial
WC
antic
intolerance
elasticity
muscular
for-@@
prosper@@
Owner
swee@@
shaping
Continue
Trail
scratch
Week@@
Fun
Laws
LEDs
′
amar@@
Portland
withdrawn
lending
blockade
O-@@
rio
Toledo
likewise
Puebla
Jennifer
Synthetic
Cartagena
ylation
erated
Estab@@
2pcs
ale@@
nett
Gibraltar
Above
turn@@
cod@@
cleaned
YO@@
urgency
Nine
technicians
packs
cele@@
acetic
bid@@
digit@@
occ@@
You@@
elaborate
Preparation
brities
scanner
bubbles
neighbouring
surprises
beef
EV@@
blast
incorporation
Rum@@
vectors
Maximum
Cont@@
Nur@@
Dakota
Archives
Dash
mosque
successive
evaporated
chassis
25th
skaya
reds
Deutsche
flam@@
extra@@
altar
nickel
ints
Arm
anal@@
Eight
Ou@@
ara@@
Wayne
eleven
simpler
vein
tuberculosis
vre
reimbur@@
rites
listic
Dist@@
ün@@
inclined
Mohammed
Relation@@
high-tech
numb@@
fridge
ime
rectal
administering
Legend
Wake-up
big@@
touch@@
Newton
Sag@@
Ghana
porting
flash@@
stresses
reside
Dave
Hindu
oos
tomatoes
Zoom
Kit@@
72@@
Bren@@
alls
stimulus
Crisis
osev@@
Threat
Gas@@
acity
Ready
acquain@@
Gothic
Shield
potatoes
SAN@@
fog
strips
transferring
steroid
entrepreneurship
floral
Fid@@
stems
WOMEN
Politics
Projector
extensions
Dean
Vice-@@
amplifier
flange
Artworks
Adri@@
CF
Cologne
04@@
brut@@
Methods
ppm
Lopez
Played
Session
Oslo
tyre
sourcing
ulators
Slovakia
Non-smoking
Estonia
Cola
readings
Peoples
FD@@
Maine
Nuevo
disadvantage
OS@@
hostel
gla@@
initiation
stret@@
pneumonia
iga
R.@@
Sector
baseline
fetus
Terr@@
Woo@@
conceptual
Tot@@
gly@@
passages
Mexic@@
Kilometer
eri
Oaxaca
gently
Success
fas@@
Chal@@
surround
cultivated
specializes
simplify
Dad
fracture
Split
Down@@
ice@@
endorsed
enriched
ammonium
Acid
otypes
gin@@
TF@@
ographical
weights
decay
extingu@@
Decree
issa
Legisl@@
combating
on-site
utter
asm
Titanium
Lub@@
Beer
directional
soles
parental
Tiger
sided
Forex
airplane
Fron@@
vor@@
FAR@@
maneu@@
suppress
Thesaurus
TRAN@@
wills
CAT@@
peaks
prizes
2-3
gesture
CER@@
Sid@@
MAT@@
ulu
UC
consolidate
spectro@@
ATA
NET
zo@@
.net
connec@@
Belarus
Email
Kre@@
Certification
Charge
Teaching
onry
conditioned
devi@@
pillar
possesses
tric
benef@@
remotely
5.1
Fas@@
vulner@@
Improve
chn@@
adhesion
sulf@@
Prob@@
Pack@@
Jim@@
collector
Machines
produc@@
tril@@
christmas
Hours
asco
equilibrium
Rainbow
stu@@
favourable
FI
restric@@
fauna
elevation
Diving
amental
clues
ary-@@
Rican
Hi
flex@@
asion
systematically
triangle
Bosch
bloody
Grove
Brit@@
Sunglasses
Valle
analysed
asy
ask@@
Funny
ageing
Walker
crack
Juárez
uration
stack
soy
Applic@@
shelves
ecology
124
sailing
pins
unding
Dat@@
lex
tress
aperture
Industries
fermentation
start@@
Monster
competi@@
Gand@@
1.6@@
MENT
Ways
Portal
tastes
DM
uan
shadows
soda
Econom@@
Agr@@
uncle
fos@@
appointments
lik@@
lad@@
kan
inder
synerg@@
sculptures
vibr@@
hardness
Thor@@
qualitative
median
malnutrition
elegance
123
decom@@
curing
Candi@@
actu@@
helmet
Hollow
ultraviolet
Lebanese
quez
tenth
prohibition
ser
urges
Mom
lef@@
ousin
BT
RT@@
manifested
25.@@
shop@@
Baghdad
hemisphere
Paz
succession
pleas@@
cooler
closes
Prix
centric
radial
woods
sculp@@
oy@@
uba
Known
bug
Contracting
achi
Unisex
FIGS
Cam
Mathema@@
stitution
magne@@
normal@@
Düsseldorf
Torres
Colour
ropolis
Subject
Oliver
pip@@
interrog@@
predominantly
dye
Buddh@@
pigment
operatives
HA
Headset
Currency
surplus
Supple@@
bass
simplified
august
Kaz@@
125@@
jaw
herbal
dropping
tices
oro
fiers
Carm@@
oles@@
additionally
rd
Crow@@
strengthens
Chron@@
Forg@@
liquidity
tice
Minimum
apples
Balance
tz
attracting
m3
accid@@
Specifications
taxation
Microphone
pent@@
IO
Developing
Domestic
Concep@@
eras
Alternative
chill
recalls
e-to-@@
ras
O2
etr@@
conflic@@
Eyes
excep@@
niche
HPV
Devil
suggestion
ninth
spontaneous
230@@
cali@@
esoph@@
terminated
hl
though@@
machining
saint
Slovenia
kov@@
dissolution
organis@@
Anton@@
ege
AUTO
Kath@@
oster
utation
urgently
Bull
gas@@
Fra@@
downstream
handles
GMT
beli@@
mun@@
inges
Fog
Nep@@
eliminates
reflux
emulsion
gluc@@
anium
118
upward
Javier
wet@@
Infin@@
FTA
rim
weighing
Nad@@
ishable
udi@@
fibr@@
Bordeaux
Bang
BS@@
bot
encompasses
Jord@@
WEGOSHOP
emi@@
mess@@
hereinafter
Drawing
amped
inver@@
mid
antiv@@
princess
fungal
Salon
GEN@@
vering
Mind@@
Javanese
Art@@
Basilica
Emil@@
igo
fucking
amo
regist@@
LER
Pound
sco@@
Karl
Canyon
productions
aint
Poor
carcin@@
hl@@
bending
Nat@@
Xia@@
East@@
,000@@
PV
may@@
wel@@
extrac@@
freezer
fe
Michel@@
Ple@@
heights
Procedure
warmth
lane
observer
Chocolate
Motors
Banking
umbrella
accumulate
SF@@
aspiration
cha@@
Beads
10-minute
Antique
Eagle
thereafter
fibres
etings
Ed
enza
scholarships
.exe
ACK
Tab
snake
Cent@@
renew@@
Chur@@
Bod@@
Includes
tool@@
Register
mat
Vas@@
Maz@@
cel
fragrance
Smartphone
sail@@
Home@@
Lawyertys
XT
Kom@@
problematic
dialysis
floods
apa
biomass
polymeric
recep@@
illas
nicotine
SHI@@
LP@@
jecting
sten@@
methane
Baker
consec@@
Names
Parks
archive
chy
♪
hard-@@
reinforcing
Mega
tren@@
Settings
wishing
6.0
period@@
Z-@@
MRI
arbitr@@
celebr@@
tok@@
Entre@@
empir@@
Problems
CAS
lightning
Domingo
complexes
docum@@
emerg@@
ensured
seminar
renting
sterile
legends
distributor
ICRC
eton
fet@@
biopsy
Less@@
EB@@
downward
0.4
IONS
ANT
shi
Siemens
assisting
Butterfly
DOOR
Libyan
Cells
pois@@
ves@@
vagina
brid@@
essions
MEN@@
eva
syringe
absorbing
emphasizes
cleared
spam
bore
ogues
Notes
Montana
S7
ling@@
iti
Gib@@
isions
Diseases
mirrors
eder@@
Writing
seamless
AIN
Discounts
authenticity
Classical
cav@@
low-cost
customize
Interest
Din@@
mM
cils
Fe
perfume
converting
ope
aneously
WA@@
chestr@@
buff@@
ocra@@
icating
Glen@@
Applied
hus@@
ross
ultrasonic
paper@@
Add@@
tization
reset
450@@
adapting
Hear@@
lease
CAD
Flixbus
Motel
ento
Headlight
Beige
pumping
Zo@@
labeling
astr@@
ateur
low-income
ief
Broadway
Cancun
nucle@@
costume
abulary
Meet
king@@
NS
260
chlorine
Nicolas
Buck@@
precursor
stro
congress
850
tum
SUNROOF
Physics
poultry
telec@@
reflective
unchanged
ther-@@
Yam@@
marri@@
priced
veil
care@@
Lun@@
End@@
vi
Emo@@
Musical
iders
Get@@
emitted
Aus@@
132
Lem@@
Lot
northeast
zoom
nucleus
medal
Zap@@
traff@@
ancers
Pole
volatility
prer@@
Tourist
Tai@@
Fut@@
liter
R1
copolymer
Record
sedi@@
barbecue
Nancy
89@@
asty
4.4
cending
Darwin
sunami
KW
agre@@
Chapel
elig@@
Inner
LIGHT
february
jewel
Citi@@
sponsors
conduit
breastfeeding
sulfur
cription
sensing
Approximately
ticals
gt@@
Presidency
mediation
noun
sug@@
itely
dark@@
HS@@
sect
Correc@@
correspondence
refrigerant
divor@@
void
Wheels
dispersed
rubles
ioned
flags
esse
ashi
PAN@@
subscribe
side-@@
itative
avian
atin@@
havi@@
Bubble
Structure
surfing
Ath@@
icient
R2
dur@@
Abr@@
Alex@@
ghost
Julian
State@@
communal
Dani@@
Lane
BEST
keeper
Import@@
civic
incurred
Oral
MX
pc
URE
ipe
urated
foil
Coalition
Tester
Cryp@@
fif@@
collects
bei
immuno@@
regulates
Resp@@
synon@@
january
Continu@@
eyel@@
rad
three-dimensional
identifier
Fly
otype
rendering
24.@@
White@@
provisional
Sensors
Allied
109
abi
acidic
Brun@@
cocoa
BP
charter
detainees
infr@@
finishes
KS
iden
rains
Tropical
EU-@@
Marqu@@
Fiat
Palmas
Billy
broadly
Roberto
ovarian
Turk@@
Hannover
topical
Campus
utilis@@
packets
Chro@@
NP@@
essive
starred
leak
white@@
agement
correspond@@
AID
Cann@@
perpetr@@
Scre@@
evacuation
Philosophy
Initially
Increased
anos
aggage
homogen@@
hazard
Paso
Rich
DNS
flies
oque
Tech@@
memorial
cost-@@
ultural
spices
Disc
Guangzhou
Miss@@
coefficient
Ess@@
boutique
Wholesalers
PRI@@
Knife
Midd@@
mitigation
rior
ickness
CRE@@
Saturdays
140@@
defe@@
enjoy@@
310
monsters
Baltic
originating
borough
Refl@@
constra@@
heter@@
hap@@
ower
iPod
plated
0,@@
ressive
enna
flagship
confirming
sticks
ister@@
DAY
printers
wavelength
Pads
Jack@@
dispensing
fan@@
Alberto
Nord@@
Generator
lectures
ANA
catal@@
connectors
grass@@
Tac@@
Registration
chat@@
Artist
Santander
accelerating
conductivity
Handheld
patches
Jerry
token
finger@@
Opening
Torre
Hook
Chelsea
lact@@
VIP
polyurethane
expands
disposable
Coming
Wer@@
aggrav@@
HR@@
simil@@
artwork
businessman
Concept
peroxide
Johnny
superf@@
Shoe
abil@@
A2
snacks
deficiencies
Stadt
freight
hydroxide
su
tribun@@
1900
Infl@@
faction
Sur
ka@@
Catherine
imbalance
browsers
mediated
Jour@@
fluctuations
Heav@@
Nit@@
Push
Mé@@
121
aids
Mazda
will@@
oak
chandise
titude
stedt
inn
Rolling
anese
af
some@@
Argent@@
1-2
proportional
lation
smen
capturing
Secondly
disposition
chers
Written
rabbit
Signs
GP@@
Secure
sensations
electrically
ß@@
jar
stationary
Hind@@
controllers
anding
Skype
clusters
manship
tid@@
Spot
Cot@@
Match
Associate
Cand@@
aerobic
Hav@@
Sever@@
discharged
boxing
commissions
Will@@
plat@@
epidemi@@
bronch@@
esta
house@@
Birth
feeds
Mosque
ring@@
acceler@@
Trip
assemblies
Nicholas
USSR
swear
pler
yel@@
ott
Specification
elephant
SPA
icially
ADE
Hend@@
northwest
Makeup
aud
t.
Kia
ention
akh@@
Lisa
enfor@@
odor
Areas
fractions
wed
tomato
Cosmetic
posters
frameworks
alt
todocoleccion
Quad
blown
Ethics
coatings
asse
par
flavors
stove
gram@@
ler@@
shades
Lot@@
ussi@@
Rodriguez
Excellence
braking
Eff@@
Hep@@
buted
Script
beams
Normal
onau@@
carved
TION
ú
Collec@@
omer
Anniversary
ject
●
Sau@@
therm@@
Commonwealth
Goods
ferry
sensi@@
quotes
unification
han@@
packaged
marrow
annah
share@@
alerts
19-@@
census
Hoo@@
nandez
Candy
Xi@@
Duration
Documents
Ankara
Ny@@
shifted
plaque
haw@@
Cannes
utory
eco
bear@@
centralized
sively
og
Lithium
dupl@@
Morning
Bologna
Powered
Jewels
above-mentioned
Tracker
trails
Aj@@
Rip@@
Poll@@
−
lowers
grab
suppression
Tec@@
86@@
etown
antique
swim@@
Biology
assimil@@
wer@@
anksgiving
hydrated
Influ@@
answ@@
wee@@
opian
benchmark
Piano
conveniently
colle@@
String
embles
seas@@
MER@@
Tamil
3.6
avan
presses
tactical
ophobia
Kno@@
tational
SSL
Heater
Hooded
4000
dragging
Steph@@
Wes@@
aman
clutch
tut@@
330
tham
Rol@@
thereto
eship
Behind
Fixed
www.roadonmap.com
propylene
contracep@@
Kits
Pag@@
irates
iya
Fla@@
tness
Bahrain
intersection
raft
vens
standardized
Must
Put@@
discriminatory
Murray
orable
Bristol
Steam
pensions
belly
Abdul@@
Hose
Chil@@
announces
Teresa
retains
vendor
Rates
scenery
Zimbabwe
Transmitter
rotate
Dyn@@
pal
anced
Han
sils
unsaturated
energ@@
icles
Had@@
crane
outputs
blowing
param@@
Fantasy
Equality
earing
Picasso
Smoke
Swe@@
bon
enclosed
gan@@
reversed
Fail@@
Jew@@
vocational
Wait
elly
synthes@@
Wash
CHINASALE
DES
billing
±
750@@
ies@@
Nin@@
Gong
vert
edical
126
Cause
ideally
Tig@@
il-@@
cough
Presidential
congrat@@
Sport@@
fluorescent
ï@@
Alpha
Park@@
bolt
Tibetan
high-performance
Ma
mit
graduation
Id@@
Garage
aa
concessions
CY@@
Sequ@@
accred@@
projec@@
Expo
socio-economic
itching
trans
spin
Kis@@
Progress
microscope
bullet
southwest
reiter@@
Mix
essa
rot
photovoltaic
pulp
kov
LOS
header
Pizza
Directorate
Prep@@
Swimwear
Charm
seals
illumination
enlarged
Centres
Covers
Rib@@
Hour
ularly
omy
cock@@
Illumin@@
fertili@@
tub
Chand@@
Scandin@@
Diploma
Providers
Nail
atar
syste@@
Yang
Latvia
TVC-Mall
nas@@
Elements
Reduction
Instant
Monaco
Reduc@@
Mast@@
ALE@@
Cheaper
ext@@
slides
KA
Perry
Bash@@
neph@@
Unity
dim@@
rollers
preval@@
grapes
izophrenia
encia
Backup
differentiation
Bikini
ult@@
201
wors@@
XR@@
Tomorrow
240@@
Elastic
font
timetable
ighters
3.4
Dryer
Felipe
280
Tape
corpor@@
Belize
ny@@
bench
Implementation
Peter@@
iy@@
accommod@@
Tub@@
pati@@
chef
Fuj@@
Oak
isolate
Visitors
Instrument
Jur@@
Guadalajara
plun@@
Azure
southeast
eu
repar@@
posing
Hague
Differ@@
transnational
ieves
INTER@@
Jay
Kra@@
carbon@@
Italian-English
VGA
Vacc@@
HKTDC
Macedonia
renovation
V6
comfortably
Plants
Spl@@
multilingual
relay
licence
otal
abs
Nest@@
7.1
Kap@@
nod@@
Fight
uta
decor
Four@@
Piazza
0.00
Director-General
isi
Hip
sch
backdrop
Boo@@
Pedi@@
Victor@@
UT@@
subway
salad
CITY
parade
stellation
para
scalp
Aren@@
tough@@
rety
Pakistani
undesirable
methodologies
Margaret
ord
Kent
administer
ogly@@
pendant
facilitated
Ann
Lon@@
Canc@@
tended
undergone
essively
appliance
thromb@@
cubic
hammer
Hell@@
dem
Chiang
5A
Sahara
conditioner
Tile
consultants
urance
plies
integrates
escent
ht
idine
Angela
repeating
16V
deformation
margins
multidisciplinary
Dri@@
Pier@@
rupt
nos@@
secretion
Institution
averages
aldo
ahu@@
paren@@
Stella
English-Dutch
thal@@
princip@@
turbul@@
Sti@@
Passion
Particip@@
Michelle
jah
glycol
ministries
bamboo
dissolve
quet
negoti@@
Trend
bearings
Ranking
Eis@@
pist@@
Tut@@
Spring@@
Bond
salmon
Noise
Composition
mall
affor@@
México
curtain
ofthe
foli@@
ror
stagn@@
lipid
Recommended
Commander
Kay@@
resonance
Scar@@
mould
Normally
Paint
wide-@@
civ@@
DB
lod@@
dens@@
stretched
Amy
tural
recre@@
viously
function@@
caves
3.
epers
reac@@
Resorts
Workshop
logs
removable
aza
Olive
vival
gotta
ambul@@
reinforcement
sib@@
^
Hudson
foregoing
TEC
fiel@@
inventions
ipelago
Acqu@@
sulph@@
Llo@@
eur-lex.europa.eu
ence-@@
lymph
21-@@
spheres
amplification
quit@@
spark
204
AY@@
ograph
Zel@@
Emma
cemetery
cone
Jeff@@
Herzegovina
pancreas
photographic
Vall@@
mother@@
oly@@
amba
isters
versity
fetal
impurities
Logistics
Shi@@
hydr@@
Separ@@
Provider
decla@@
Phys@@
gram
0.8
seafood
Cell@@
ammonia
bride
Pie@@
blue@@
lively
10,@@
ABOARDS
Nev@@
crafts
Wea@@
autoimmune
Die
Rwanda
Responsibility
ooter
Pav@@
icia
Monument
Y-@@
outbound
monomer
Jewellery
employing
Already
AY
annular
uda
Cinema
Literature
Rod
Territory
organizers
shark
teor@@
alcohol@@
trad@@
diagnos@@
reagent
iable
grat@@
ago@@
other@@
disc@@
harness
Ant@@
enhancement
entrepreneur@@
cocktail
Ast@@
Citizens
evaporation
courtyard
Norman
reiterated
discs
chen
wrist
scienti@@
displaying
E27
iss
HY@@
Globe
Foam
Frequently
attained
manuel
DIN
theore@@
criterion
specializing
cross-sectional
elles
a.com
01@@
amination
coma
Recording
Two-@@
lag@@
anni@@
Jalisco
tod@@
Entry
gradient
ATP
tuning
elo
TB@@
Comfortable
Sig@@
coordinating
ime@@
PCs
UST
Interactive
livelihoods
accidental
temporal
anny
Este@@
Connectors
carbohydrate
Branch
flag@@
inviting
iano
xy
Heel
3A
ă@@
dividing
Ensure
Diana
ne-@@
locating
auto@@
Amplifier
calculating
Marseille
Exact
testim@@
broadcasting
Dialogue
glyc@@
stur@@
prescribe
Heads
urbanization
inferior
ICC
alpha
tournaments
agonal
lished
8mm
turbines
inexpensive
Aquarium
squares
Lunch
Diagnostic
Fis@@
tunnels
differentiated
fashionable
ARD
logging
delegations
Path@@
3M
Availability
Chronic
pronunciation
Leone
gastric
Caracas
GRE@@
rensic
NAT@@
lum@@
Install
vise
Osaka
ffle
nin@@
encour@@
Chat
safeguards
Coach
baking
79@@
skirt
aran@@
picturesque
pores
Released
etary
din
bie
CAP
IU@@
osteoporosis
life@@
Diversity
conform
Marcus
Ports
curves
bypass
ags
vibrations
Denim
Reform
175
Inspection
Coats
tera
Stewart
facade
pads
1200@@
absorbent
abad
Peso
sheng
FS@@
tag@@
seis@@
oste@@
am-@@
Krem@@
rently
note@@
mand@@
ol-@@
nominal
31@@
Harbour
adopts
inert
bonding
Celsius
Diff@@
Omega
Hold
etti
Author@@
bust@@
Histor@@
insomnia
GAR@@
Hass@@
grading
out-of-@@
vitality
Kerry
surrounds
platinum
1B
rod@@
DIA
Tampa
Maxim@@
dome
Chic@@
towel
Berg@@
sandy
potato
ership
socket
ACT
Bottom
ipes
99.@@
Registry
ival@@
ko@@
alth
demonstr@@
Biological
encoded
Monterrey
hn@@
glu@@
Nak@@
alter@@
candi@@
07@@
estim@@
aus
exporting
phosphorus
polypropylene
arium
Handbag
reduc@@
theses
g-@@
Sach@@
0.01
Multifunction
Vul@@
versely
bracelet
oxid@@
Shadow
amines
XS
mA
igu@@
trunk
Ital@@
Jar@@
Ner@@
arran@@
ogg@@
transitional
Detector
quen@@
Kos@@
Million
Heroes
Orchestra
INVENTION
0.6
Triple
Mob@@
SSD
authorisation
NU@@
gad@@
pedestrian
eway
disarmament
Airways
emble@@
Wildlife
jug@@
Defin@@
spectac@@
edema
umin@@
courtesy
emble
doll
diffusion
anie
intrinsic
CB
sidew@@
Fat@@
Eternal
transfer@@
Adidas
slope
270
tico@@
Poverty
Revenue
biotic
Guaranteed
ian@@
Ridge
erra
TD@@
Leisure
Turin
Slippers
campa@@
dot
timer
benefited
Angl@@
Hart@@
Considering
tan
Nikon
Hanging
follic@@
oping
Oh@@
Alm@@
heat-@@
pathogens
Bau@@
impulse
Raw
Termin@@
validate
124@@
Graphic
benefici@@
G20
pling
grocery
countr@@
culinary
Watch@@
co-operation
bulbs
pron@@
č@@
deer
Coral
sour@@
Edit
aren@@
uit
Carlo
PO
Mau@@
wol@@
rus
trajectory
apers
signatures
Pix@@
icy@@
RIGHT-HAND
Sure
north@@
generators
withstanding
Cz@@
cohesion
handmade
validated
Dipl@@
Pumps
thermoplastic
Wash@@
inspections
Simp@@
Master@@
rants
dosing
aton
representations
Dame
mechan@@
30th
Role
Syndrome
question@@
evity
hike
indicative
Drinking
Pharmaceutical
UPS
Income
AST
pencil
ulcers
nucleotide
G.@@
clips
TV@@
dex@@
audiovisual
bies
10.1
Websites
illon
Panam@@
Contract
cerebral
EU@@
Liberia
Prog@@
128@@
subscriber
refriger@@
TOP
Sens@@
Standing
tless
safe@@
FIN@@
stool
0.05
aquatic
amper
turnover
witz
SEN@@
Pyramid
Andrea
participates
ece
organise
archives
alla
ARS
ethyl@@
Pod@@
ili
320@@
aroma
fractures
Helsinki
schematic
Kid
algae
ensu@@
rollment
anesthesia
fres@@
Cycle
dez
oom
CL
ATOR
Hair@@
Minibar
Sea@@
auc@@
Andes
Gel@@
wig
Automobile
Moroccan
plating
muc@@
Gul@@
Reduce
VEN@@
2-
Buff@@
Kun@@
Verde
transi@@
prevailing
fon@@
portraits
Wake
avi
interconnected
w-@@
Zhang
rho@@
RR
hydration
ilation
utenant
extern@@
Views
Kl@@
jumping
Carpeted
AWS
rested
XI
etting
umption
OH@@
Guerrero
aline
ulsion
nylon
sanitary
urities
illes
Skiing
Mobility
questionnaire
pollutants
right@@
fostering
fabricated
converts
gor@@
consortium
RG@@
chapel
intravenous
perpetrators
Elite
oli@@
incompatible
medicament
phenyl
Foot
Flam@@
compliant
Axis
Extr@@
Sink
cept
isi@@
Light@@
Democr@@
Class@@
BAS@@
yrs
IES
oso
bachel@@
extrusion
belts
3.7
Batt@@
CAR
migrate
Il
wich
Descri@@
south@@
Rachel
Wild@@
Cabo
cellul@@
labs
ELECTR@@
stab@@
BTC
sport@@
Skull
29.@@
ometry
chin
Kle@@
float
Lob@@
exquisite
Betting
Quick@@
Las@@
Cameras
Headquarters
underneath
hands-@@
examines
infrastructures
otechnology
kon@@
English-German
Pittsburgh
color@@
eed
poles
ayan
asym@@
Córdoba
Berkeley
wolf
ometers
Río
second@@
Fully
needles
yon
Employees
wastewater
ril
entails
threads
handic@@
cartilage
isite
curtains
enclosure
vet
ignments
pered
Dum@@
Ble@@
Medina
Extreme
garbage
OPE@@
Vega
Lakes
Famous
ogenesis
dw@@
Julia
icio
bia
proxy
Corp
disable
unes
Breast
medium-sized
AO@@
pork
ng
Ib@@
wan
Silver@@
him@@
discipl@@
Zinc
under-@@
Linear
Shock
securely
COL@@
orgeous
asi
Cosplay
borg
mart
Jed@@
TL@@
reson@@
Copy
Scanner
simulator
Disk
Susan
APP@@
Pregnancy
Claims
Chiapas
inged
Program@@
Gla@@
CAL@@
Tok@@
guaranteeing
Lock@@
Hou@@
allo@@
modifying
eses
-subcat
Alexandria
icidal
cash@@
Fall@@
Rhe@@
masterpiece
strings
English-Romanian
Vest
resins
`s
intellig@@
Novelty
uz@@
immersed
Boulevard
MAC
rix
allow@@
Honey
utilities
hip@@
perpendicular
fried
Neigh@@
ankle
º
Period
Lorenzo
nik
beta-@@
Kum@@
distributing
Academic
carbox@@
corridor
Coordinator
coloring
bell@@
rick
ris
Albania
crushed
Tour@@
González
malignant
Craft
farm@@
deplo@@
-on
09@@
foreseen
AMP
neighb@@
Positive
nova
Vectors
Journal@@
Cool@@
bla@@
Naval
itz@@
fountain
iang
Frontera
restrictive
Meat
selectively
traveler
Meth@@
Iran@@
postal
thermo@@
Medal
enth
Diffuser
april
butions
Move
ammunition
Barry
ulative
Playing
Mali
Ey@@
Rid@@
pep@@
stra
activating
illustrations
dé@@
Same
consti@@
offences
Ex
5-minute
stain
Bow
appreci@@
Marriott
ritis
concer@@
Shin@@
Setting
Intellectual
Rescue
oxy
DT
Utility
photos@@
vid
Identity
TFT
fuc@@
eni
IB
offence
Wells
Clou@@
Arbit@@
originate
dehydration
gent
Delaware
Guill@@
undo
raid
cereals
engers
agues
pulsion
113
ruption
anime
adaptive
digit
volcan@@
moistur@@
Created
fungi
pest
atts
robo@@
ès
Cloth
microbial
volunte@@
formulas
Method@@
Liu
Blue@@
playground
Universities
degenerative
antes
Commons
accession
itively
Cylinder
perimeter
GH
Detail
Mog@@
Alfred
Calls
Dial
assays
agonists
ladder
MTB
Jas@@
Develop
administrations
Choice
ditions
exposing
struction
registering
cup@@
Eden
nal@@
gle@@
Tas@@
Indic@@
prestige
thematic
Map@@
Measures
sorted
hydrocarbon
Europa
enko
BT@@
Stand@@
BLUE
Rheinland-Pfalz
Croatian
Inflatable
synchron@@
Nigerian
Ideas
deviation
★
ratification
regimen
Boli@@
tattoos
wood@@
Aman@@
Month
Object
aerospace
andum
energy-@@
Labs
Input
KB
Prosecutor
ause
pedest@@
tifully
Wo@@
smoothly
adherence
sioner
ingual
8.5
dock
Angola
ulatory
Sho@@
eph@@
MSc
cracks
pupils
DON
Refugees
Hands
Humidifier
agogue
IPS
card@@
Law@@
herb
forestry
defective
omers
gender-@@
Blin@@
Contrac@@
ermen
Va@@
nutri@@
dress@@
ł@@
Survival
S2
Hir@@
02@@
English-Spanish
Suspension
Bashny.Net
molded
Museums
ichi
Storm
ë@@
wired
Steps
lava
mosaic
3000@@
excre@@
harvested
navy
self-catering
intestines
alo
Pain@@
soo@@
Durable
32-@@
colour@@
trays
sail
Stro@@
eto@@
urred
Detection
case-back-crystal
Sauna
TM
ielded
cil@@
jam@@
som
Coil
Avi@@
eus
advent@@
áz@@
Hall@@
Blog
2.5@@
dash@@
distinc@@
e.
folders
Router
ss@@
iph@@
eur
airs
vertically
creams
Sheikh
wholesalers
outskirts
frac@@
Telec@@
gov
modi@@
Cube
eases
detectors
chin@@
Mai
permissions
Guy
randomly
ifiers
Insp@@
Jaguar
-of-@@
Dream@@
stabil@@
Solidarity
usher
ginger
tempor@@
vap@@
protot@@
antimicrobial
Fred
2.9
Waste
worm
evo
tique
dB
Absol@@
Bamboo
leukemia
advantageously
Campbell
harmonious
izz@@
Marketplace
icle
hu
arrows
oscopic
pests
incubation
ionic
maid
Mov@@
bloc@@
Chemistry
Robinson
leuk@@
stabilize
terr@@
Yesterday
uch
Artists
Hidalgo
RH
Colonel
azole
Tommy
Fat
ettes
Mumbai
Fans
Sense
detects
SION
Carnival
sheim
DHL
Quito
Crazy
propag@@
pendix
Alps
USE
deter@@
Book@@
Crist@@
patented
cath@@
estic
Roy
5.2
Kah@@
conven@@
M3
Consid@@
deposition
ej@@
opia
Collective
IMP@@
au-@@
annex
oul
ylene
Birds
pie
Films
Allow
ferences
Dreams
Valladolid
amy
snack
Subsequently
sty
iri
Hip@@
propos@@
Growing
banana
In-@@
onics
soy@@
zoo
ove
lengths
Pages
Console
Graduate
backpack
AH
congestion
Trousers
pile
envelope
onde
abr@@
ancing
saline
redund@@
M2
Flashlight
Ultimate
Chip
pol
disper@@
imp
J-@@
KIT
tivities
Inst@@
Aurora
anatomy
aesthetics
Efficiency
brook
Avenida
iral
cumulative
wrap
parasites
Architec@@
partic@@
Anime
cafe
Bahamas
Foldable
flowering
aquarium
Jen@@
Pilot
mou@@
Hood
Franco
Ces@@
Socks
Rapid
Triangle
ophy@@
Lastly
Richmond
coronavirus
omi
isy
timber
jeans
S6
ilities
BAR@@
detrimental
Sweatshirt
Kamp@@
ulf@@
Cutter
distortion
textiles
Health@@
Requ@@
HAR@@
projector
detergent
hydrocarbons
Animation
ting@@
inhibiting
whe@@
Skirt
viability
potenti@@
cross-section
surf
mative
non-smoking
Fi
probes
Ran@@
28.@@
O.@@
Gene@@
industr@@
pneumatic
activ@@
shallow
Professionals
Moo@@
irus
placements
bend
μm
trainer
iodine
orally
aculture
accessory
burg@@
EF@@
Combined
PASSENGER
epi@@
shorts
Ship@@
TR
Cook@@
Yugoslavia
leakage
Rhinestone
Fed@@
ustom@@
skiing
rods
convergence
Inte@@
Pouch
insulating
cardboard
Selec@@
caps
DAC@@
vic
depicts
Count
rison
LO
ocar@@
degrad@@
downloads
←
AO
Kawasaki
Flats
BlackBerry
Rack
Tempered
inequalities
Ivan
Foc@@
Asp@@
fluctu@@
Bai@@
Plans
ference
puzzles
Moreno
Swimsuit
scroll
heel
pickup
outward
genic
Sicily
noon
tilities
STA
Chart
bull
Ink
Bernard
Doha
Simulator
adversely
routing
prin@@
Optic
candy
Letters
rented
inflatable
asha
Sleeveless
cows
iv
05@@
Raf@@
oka
Brandenburg
Hiro@@
3.8
stown
Tat@@
complex@@
fairy
ocytes
-1@@
Montgomery
surfactant
iphone
feed@@
butterfly
wi
polymer@@
Iberia
Barbecue
Alamy
slopes
Bry@@
Laun@@
English-Finnish
invoice
mattress
Drone
Ö@@
Seal
Smi@@
Relief
retrieve
Occas@@
Prepar@@
Rey
self-determination
AMD
tiers
Admir@@
144
baths
flux
pregn@@
hydrate
workflow
peacekeeping
agua
Toe
ratios
Coordination
substantive
assemble
Presentation
Essen
onda
Shows
ARM
Ear
cushion
acia
numerical
Bes@@
480
pies
Mt
Dod@@
ulture
Bac@@
380
tub@@
dex
ISS
Vari@@
Target
fertilizer
Accep@@
Frederick
bat
T.@@
Wh
upgraded
clave
Mat
Capitol
136
Natal@@
nem@@
145
Elena
abnormalities
degeneration
Pixel
ussions
Salamanca
zipper
Patchwork
Booking.com
Klein
footwear
specimens
plur@@
Bread
ummer
obstruc@@
rais@@
Stein@@
oscopy
F.@@
Sic@@
wheelchair
SK
Liter@@
biography
Pets
transverse
replication
ste
exempl@@
damn
trademarks
famili@@
87@@
merge
Lanzarote
detectable
iza
Earphone
centrally
substitution
rotational
forged
hour@@
inetic
Cay@@
SMA
Vallarta
halls
Basel
conduc@@
slim
SJ@@
Included
Database
Toshiba
clusion
Champion
depart

contraction
Ken
particulate
hierarch@@
Ricardo
angular
PLC
Administrator
tasting
Atl@@
Rancho
Shim@@
TRI@@
Bring
LF
AMA
c-@@
oval
BY
atitude
outre@@
Dome
70-@@
Tee
FP@@
h.
stained
mobilization
Offices
robotic
Arg@@
pathological
TDI
untreated
reti@@
protector
great@@
ylated
chemically
Biom@@
B1
earrings
cons
ay-@@
Iz@@
ACH
Schne@@
customary
pology
upstream
DT@@
Comprehensive
Rail@@
spaced
Providing
step-by-step
Clara
tants
Chev@@
Useful
ITY
Hoodies
rop@@
leaf@@
isely
wrinkles
Alpine
REN@@
Isle
pouring
TVs
Velvet
Rivera
Aircraft
omatic
endome@@
Eduardo
vik
tili@@
trophy
-de-@@
consultancy
var
CAM
90-@@
must@@
Engine@@
elongated
anza
Domain
cot
205
420
Tuesdays
Toulouse
VAC
Cog@@
yogurt
rement
Mongolia
hed@@
forth@@
sla@@
Pisa
Cross@@
Disabled
Orders
Aub@@
Numbers
hereby
Extended
tega
Ship
atra
thumb
Conflict
Humanitarian
reco@@
modulation
Invention
carboxylic
Soccerstand.com
pover@@
Units
progressively
Beng@@
gluten
Keys
cared
authorize
illustrating
ighting
One-@@
tium
Enrique
GERMAN
Slot
Inheritance
reacting
overlap
Denn@@
Pencil
BB
MV@@
Wednesdays
contemplated
imitation
queries
15-minute
perme@@
Confederation
transporting
pale
Mai@@
KING
CAP@@
wardly
fined
END
PI
Jessica
Cum@@
Knee
hamlets
Americ@@
0.7
punc@@
Powerful
Plain
filler
Senegal
distillation
Chem@@
Manila
Fur
dynam@@
usal
Dawn
stom@@
junior
FX
Duc@@
2x
etz@@
198@@
PS4
212
illuminated
messenger
superb
Drop@@
hp
filtrate
Flying
directs
Serge@@
Ted
magnets
ABLE
grouped
thms
Franc
Added
Gan@@
Causes
iac
psoriasis
ival
Carl@@
Reverse
Uh
YS
onder
Notebook
Femin@@
inactive
Weapons
Clin@@
gie
itus
Viv@@
BBQ
Dust
spont@@
Auto@@
Harrison
DF
bio-@@
ci
Rosario
Conversion
lee
quick@@
MH@@
copied
Jacques
Mbps
cafes
candle
mosquito
Quad@@
IACHR
environ@@
Measurement
Bulgarian
headphones
uries
buil@@
rams
Rodríguez
VC
equations
uga
COM@@
ION@@
Wy@@
Dead@@
Town@@
ipping
way@@
shells
mails
grape
Participation
dat@@
Shooting
Arms
statistically
Check@@
Boxing
Danny
mammal
Oxygen
oters
EURO@@
rpm
tric@@
mah
INA
Tin@@
claim@@
Diameter
Attractions
tranquility
Tag@@
ouch
Prison
Ralph
beginners
Host
UTC
clamp
zia
transplantation
imo
granite
MY
Lay@@
Show@@
22-@@
retina
altern@@
Tax@@
geon
Colonia
Buckle
Thick
ople
Alg@@
WE
embroidery
Sample
lio
candles
socks
Chad
Rue
inventive
selec@@
amping
Oakland
sufficiency
Combat
Wool
sap@@
tilla
Plated
Cec@@
chal@@
loos@@
Tang@@
Alv@@
UP
teles@@
Atom@@
Strasbourg
Mend@@
Advis@@
4.7
116@@
reuse
tick
HIV-@@
Lounge
DW@@
Corp.
IE@@
Adhesive
Wrist
tu
level@@
Patient
mint
Venezuel@@
binder
Develop@@
Appro@@
134
apse
Terrorism
23.@@
excursions
Run@@
Harley
brakes
PIN
framed
TCP
Pig@@
fant@@
Did@@
feasibility
loops
trag@@
rechargeable
Torch
bution
xi
breathtaking
datas@@
kl@@
preneur@@
WI@@
Goo@@
ART@@
revit@@
List@@
abe@@
E-mail
homogeneous
crafted
uria
Cave
itory
clinically
Crane
provoke
scenic
Hut@@
Identification
Redmi
Balearic
Flex@@
dispenser
Dong@@
soils
enic
anton
Batteries
owski
transmits
trim
Enh@@
COUPE
cas
Morris
Grill
urban@@
117
enary
embodied
haus
Guin@@
user@@
ifer
melanoma
harvesting
Pick
Borg@@
NOW
load@@
les-@@
genus
Provides
OOO
sterilization
gence
igs
unilateral
Johannesburg
intermit@@
therap@@
siveness
Coch@@
func@@
Qi
greeting
Eiffel
tary
Dy@@
bag@@
pancreatic
sion-@@
Helmet
206
butes
Bracelets
Uzbekistan
bac@@
start-up
ennium
Coron@@
implanted
Benz
tiger
Virus
preview
rogen
juices
eye@@
furn@@
Nacional
incubated
rah
h2h
calculator
Chihuahua
Kash@@
convened
oft
compar@@
Tail
Altern@@
tet
Contacts
r.
compre@@
monoclonal
replica
Elis@@
rejuven@@
Slip
presently
Lanc@@
4k
Feature
4WD
clone
Craw@@
engra@@
macro
arization
Actress
Wond@@
Sand
check-in
where@@
flooring
edic
Tox@@
xen@@
dermat@@
anders
separates
auth@@
agle
62@@
emitting
PH
Roof
climatic
toxin
variability
menus
collap@@
leton
weed
LH
PN@@
Cannabis
predictive
judiciary
shampoo
BN@@
-N@@
graft
Philippine
Option
alis
cutter
solid@@
heels
Beau@@
skeleton
Mozambique
DD
drums
Vera
Mec@@
DealExtreme
budgetary
Chalet
conversions
Feed
ton-@@
Shampoo
Symph@@
WHITE
pearl
lipos@@
Initi@@
tise
Michelin
shan
1.8@@
South-@@
Stones
Giv@@
postpon@@
113@@
yacht
detached
Soft@@
inian
а@@
alloys
nitro@@
Chuck
esia
Climbing
S3
hail
lumen
inoc@@
exert
eb@@
Bakery
3mm
Stickers
ellers
fluoride
Facial
Sources
spinning
650@@
ZA
Infinity
pane
Calcul@@
Speed@@
Tijuana
Multimedia
o.@@
LV@@
hep@@
asus
Flex
woo@@
French@@
Pine
tow@@
rik
Roses
Imple@@
Purpose
comparisons
compares
Citroen
lam
Dea@@
vered
regim@@
Forms
Km
uble
1800
incur@@
wiring
reci@@
EAN
XX
Tuscany
PF
Georgian
Ard@@
jar@@
fit@@
cran@@
iel@@
jun@@
å@@
Deck
Veracruz
Cheese
enty-@@
Electricity
Term
IVE
Manage
Tracking
bouquet
opping
dimethyl@@
regul@@
Mixed
expenditures
Café
thouse
-shaped
diction
centimeters
Opportunities
Landing
Q-@@
advertisement
eros
institutes
costumes
oxides
Resin
LY@@
operability
binds
Lux@@
tely
Bumper
Lucia
Peak
Giovanni
orca
resis@@
biotechnology
elabor@@
ORS
Proble@@
alterations
dit
notebook
TUR@@
ventric@@
bipolar
Sym@@
atization
chestra
cio
Bs
Seeds
iana
SCO@@
GC
Aroma
BI
scheduling
decor@@
loo@@
slurry
Governance
Bruno
Whole
periphery
Adding
chromos@@
Egg
tai
Fisher
Alberta
2.4G
iah
Platinum
ulin
Cusco
oxidative
tose
ifications
Sleeping
specifies
tibility
Element
Mate
Peri@@
mets
Linda
Horizon
SharePoint
mia
fingerprint
fat@@
Hydr@@
Institutions
cade
ulty
solubility
evenly
ITE
Andro@@
X5
dismis@@
7.0
ribbon
Roh@@
Gros@@
Alt@@
dumping
food@@
twist
Rabbit
improv@@
Disaster
thirty-@@
VO
uru
boro
Ave
vineyards
156
Box@@
collec@@
plots
Chicken
Haven
án@@
brine
301
catalysts
uptake
eleph@@
Observ@@
mens@@
Returns
Cris@@
aan
potency
town@@
Malay
anks
Fusion
eck@@
kie
teorological
ector
4A
tained
AK
expos@@
dang@@
Gad@@
ophthal@@
Compliance
Dil@@
Leaf
Quarter
vow@@
Guadalupe
Gren@@
Fib@@
Cov@@
icals
eira
phenol
permeable
Trial
Launch
plural
transp@@
18650
pots
triglycer@@
THE@@
Drum
bis
dual-@@
minimizing
Factor
ć
26.@@
How@@
Arcade
sack
SCO
attrib@@
bull@@
uch@@
Concentr@@
lla
envis@@
bonded
odic
Row@@
fruc@@
LM@@
Bogota
Fountain
gated
graph@@
gradu@@
Peg@@
endocrine
tightly
myel@@
raine
gentlemen
eper
Inc@@
Köln
contaminants
155
Process@@
Griff@@
discloses
pertaining
irregul@@
Exc@@
gir@@
hoods
facelift
Doll
compul@@
Ability
Horn
Edison
idges
shaking
Veter@@
Mitchell
pore
131
ulum
INE@@
cereal
gearbox
240V
Biden
HI
Issues
Vicente
forec@@
oce@@
syrup
etus
MAS@@
Voy@@
juvenile
Stock@@
Queensland
alternatively
Compressor
Voc@@
tening
Alp@@
blanket
moreover
executing
Verona
sky@@
Monica
Malaysian
Conn@@
sioning
ridge
corro@@
oil-@@
participatory
graphical
Hans
Firstly
5x@@
Abbey
Lak@@
necklace
yland
IOM
Clif@@
Discrimination
novelty
Us@@
Concrete
Hyp@@
avia
03@@
RN@@
hostels
Matrix
ion-@@
Escape
carot@@
Carrier
evaluations
onso
2mm
720P
Purse
Amber
shrink
pierc@@
uated
ystic
FU@@
Relax
Flood
POS
Mate@@
arterial
Antenna
collectors
A6
Priv@@
kir@@
plenary
Coated
Dir@@
Policies
Beds
agus
Firefox
metry
Madagascar
Advantages
zers
Montenegro
wy@@
anish
chez
coloured
Coin@@
Headphones
itant
enia
fascin@@
oth@@
oca
honey@@
atel
Giant
CAM@@
Attack
eared
Coupe
oti@@
rics
yarn
atorial
T2
decre@@
Fish@@
Bathing
breaker
Funds
anges
Lex@@
pros@@
R3
Chris@@
pedal
PBS
HOTEL
folds
sol
versatility
Tip
Finish
drafting
CEN@@
MINI
97@@
expired
Free@@
Rus@@
Claude
TIC
playback
ENT
latex
obstruction
pigments
FORD
optimizing
oirs
axle
small@@
anine
oi
Nairobi
142
modernization
Bit
orus
deletion
Scope
antigens
gro
Transit
ça
Modi@@
primer
C1
mm@@
rainy
Cut@@
Forming
surviv@@
american
Got@@
analys@@
28-@@
Museo
51@@
fabulous
oba
onion
SAS
authentic@@
endid
analy@@
Brief
Tir@@
denly
Transfers
Bank@@
UI
circumference
garment
Requirements
strong@@
engraving
Hunt
Valent@@
Hod@@
410
cus@@
HDD
childbirth
atom@@
pulses
Vinci
itten
Citizen
Personality
DRO@@
Nec@@
DESCRIPTION
Spanish-English
INT
Championships
Facility
constituent
replen@@
tor-@@
Ecol@@
emer@@
Upload
reflections
phas@@
cyclic
feat
poo@@
sson
Buffalo
vir
eradication
München
alle@@
Banco
indle
Í@@
NOTE
practic@@
Tay@@
ouring
cherry
pic
302
Zar@@
burner
elve
petro@@
milling
hd
hexane
visualization
fungus
Neg@@
troubles@@
eg
substrates
dra
Roll@@
catalytic
DIESEL
Pavilion
tances
v.
green@@
Shi
Bart@@
Chef
X1
Mrs
starter
epis@@
Bret@@
toe
Bolivarian
breath@@
Sacr@@
Hondur@@
front-@@
org
Quar@@
secretariat
multi
Simulation
Increasing
340
PSD
Chase
Palermo
Fred@@
umb
unic@@
inery
pasta
GHT
oblast
Album
gen-@@
wipe
dea@@
§
aler
miniature
ju
deal@@
Mic
Bracket
ingent
chester
arg@@
Lovely
community-@@
monomers
clusive
data-@@
Nebraska
Pub@@
6000
Sergio
ventil@@
sclerosis
mynetfair
reactors
gastronomy
Ad
Experi@@
Hop
adows
Fantastic
Resid@@
Val
Andean
tized
MAX@@
pedag@@
Protein
enco
oles
discrete
Bin
Monroe
uran
colo@@
Mystery
refrigeration
bacterium
keover
STD
north-@@
Possible
6s
Round@@
Gog@@
fier
foreign@@
icket
sevent@@
Bogotá
enges
Ó@@
abbrevi@@
Practical
AUTOWHOLESALE
Renewable
Newcastle
evapor@@
80-@@
sequent
Prado
randomized
114@@
Boxes
Emily
MIC@@
PL
Cup@@
Joy
Hampton
Andorra
Organizer
8.1
Ef@@
Laguna
Parli@@
stabilization
Minh
io@@
Refug@@
vapor@@
nment
mamm@@
Indicator
inga
Absor@@
Boy@@
lawn
Ethi@@
Zagreb
stimulated
bracket
......
WN
e.com
Bedrooms
echo
Cameroon
rit
addy
sour
hinge
minimalist
glow
Lig@@
synthesized
organiz@@
urea
Agents
Bug@@
cus
pi
Spr@@
Pach@@
EMC
BC@@
NR@@
ucoma
Oriental
wer
ook@@
Scan
Byr@@
yu
emit
0.9
tumour
DEL
Cushion
conj@@
Curtain
Was@@
vine
1600
Ignacio
165
152
beck
Bulbs
23-@@
biologically
gens
1.4@@
Winst@@
sberg
arin
ombies
Cats
Cauc@@
6.2
Panda
zir@@
ount
electrolyte
fu
sewing
dle
lu
Govern@@
examinations
Anim@@
4-
Practices
pean@@
170@@
pur
Cosmetics
Tire
Fighting
odynamic
Scot@@
inth
congenital
Striped
ucci
Particularly
istle
Design@@
Athle@@
tranqu@@
sequential
Safari
Monastery
ismo
Cerro
Reyn@@
disadvantaged
Con
Sound@@
Mendoza
bic@@
phal@@
Container
World@@
stringent
Physi@@
paints
tims
snap@@
gin
specificity
i.@@
Chrysler
gather@@
succe@@
lar
Miranda
138
counselor
irrespective
Signific@@
Rest
wald
Helen
ī@@
macroeconomic
discus@@
Virtu@@
Cons@@
estones
centi@@
iden@@
iment
Height
cylinders
login
Hein@@
Dafa
taxis
ioning
titis
Harv@@
Navar@@
emat@@
Cherry
RI
reserv@@
Riding
stiffness
adem@@
о@@
COVID-19
Opportun@@
zon
bile
Molecular
Sap@@
iche@@
reagents
overhead
﻿
mushrooms
mathema@@
EVA
flat@@
Dynamics
isition
HTTP
3-
yi
favorites
ironing
atcher
interruption
replaces
ller
anca
fen@@
Alejandro
Fos@@
Guatemal@@
quiry
Hat@@
minibar
Chan@@
saturation
bios@@
etto
ool@@
Reporting
estry
Telecommunications
stickers
incision
uli@@
isons
ALS
ten-@@
Beam
MacBook
chann@@
procedural
ffy
Energ@@
Ecuador@@
localized
yson
Bog@@
citrus
mote
vera
Drag@@
condensation
sequencing
Tobago
Nursing
ilian
distilled
zz
Rise
inventors
mediately
bricks
daylight
cozy
iver
T1
insoluble
Simpl@@
Schwar@@
ransomware
appar@@
Alexa
ticity
119
yright
small-scale
backbone
Secondary
solidi@@
Hôtel
Pillow
bron@@
thrust
marg@@
burg-@@
memb@@
smoked
Python
WD
cache
itt
ilight
weiler
led@@
RB@@
comb
Genoa
Lauderdale
t.@@
Jacuzzi
Classes
bler
allevi@@
Per
Austr@@
HCl
Isla
goti@@
Measuring
Schedule
QUE@@
fuck
infec@@
UV@@
LS@@
bicycles
constituents
huh
208
Governing
collo@@
KK
Deter@@
Barn@@
Exhaust
Menu
Sánchez
110V
Vs
27.@@
breast@@
scri@@
spherical
Opinion
ís
Shir@@
chromosome
6.1
Nueva
molten
Kha@@
Translator
Cord@@
screened
380@@
ks@@
spraying
SALE
ARA
red-@@
val
Consulting
rett
DP@@
Mare
ls@@
dispers@@
angled
Relay
Soap
Fig@@
HO
Trailer
duplex
Sonic
Alibaba
127
nightlife
Dinner
decorations
Isabel
Configuration
vacuo
fs
Arc
obic
Philippe
Leeds
analyzes
Schw@@
rella
hof
CLE@@
Pi
health-@@
arra
supplemented
225
emulsi@@
gon@@
asph@@
Aur@@
Tote
antibacterial
fashion@@
Cerv@@
Atlanti@@
GW
Mü@@
knit
rails
280@@
63@@
Loft
Buildings
Posted
μg
luminous
Fairy
polished
repository
Preferred
Plasma
put@@
Strength
antennas
alkali
cooperating
Maur@@
Norte
Wii
adle
CRI@@
grad@@
Extre@@
Educ@@
ergarten
Pneumatic
Cort@@
Unlimited
goat
ieties
herbic@@
ANCE
510
84@@
Westminster
KM
Oceania
fork
0.00@@
Agre@@
buckle
N1
resor@@
Haitian
Queens
Talking
sb
filename
Elli@@
oux
20mm
eur@@
pus
DF@@
activates
engages
amending
NB
Georg@@
boiled
DER@@
Mang@@
amen@@
rial
cavities
ieu
medic@@
Statute
Driv@@
Clear@@
rors
lite
guid@@
ocol@@
semiconductor
Collections
reliably
kness
fluorescence
meaning@@
south-@@
beige
dichloromethane
V8
consolid@@
factor@@
duplicate
SPEED
witn@@
pond
discarded
atti
otlight
pesos
Sovi@@
Comment
PSA
CAT
Magnet
listings
pestic@@
Covered
Wing
Dong
-out
rens
Gos@@
radio@@
Arc@@
soc@@
Civic
Flor@@
Classification
Won
analges@@
Suff@@
diploma
PLUS
fall@@
iped
lactose
retin@@
synchronization
Petr@@
H1
additions
Bella
Drying
pivot
Suits
biochemical
Flame
GER@@
decorate
ec
Rope
bucket
View@@
iches
Lodging
Attention
Supporting
2C
aic
apol@@
Exclusive
logos
usb
europarl.europa.eu
ocratic
atine
CAN
Comparative
Maison
buc@@
Monthly
amplitude
mucous
Guesthouse
Rotterdam
s-based
lifts
rheumatoid
erase
spin@@
Sunset
Benef@@
Actions
Yok@@
B2
recess
aining
freshwater
Nuremberg
Technological
Camouflage
inator
Accessory
transformer
Pension
Monter@@
HP@@
Beck@@
adher@@
Provincial
Functional
Lotus
Jun
amar
Vig@@
DV
cipl@@
mptomatic
Maxi
Rocky
Ek@@
ia-@@
Extract
princ@@
Lagos
Spanish-@@
A5
Parad@@
utensils
vency
cube
gement
Pharmac@@
Mou@@
rists
Titan
Present
emon
Yorkshire
Mine
Ré@@
Rat@@
RAN@@
auto-@@
condens@@
5.3
Marcos
ographer
manufac@@
1-3
diaphragm
coherence
MX@@
Horizontal
Flores
xia
Finger
ms@@
FRE@@
ige
Daw@@
ooth@@
Blocks
Eco
Sara
landmarks
agen@@
FCC
ky@@
cultured
Luna
SPE@@
amid@@
suring
Idaho
inflam@@
iris
foo@@
lon
Ring@@
Teen@@
B6
parli@@
Nutri@@
Cast
Strateg@@
t-shirt
Sanc@@
Formal
XXL
bine
Drill
meric
Circular
Wired
Windsor
shortcomings
weap@@
Peti@@
ORE
DX
2G
iko
iers
Dob@@
vio
Ref@@
Hardwood
EOS
Clamp
arrivals
enger
STAR
tonic
tainment
disks
mania
CES
geable
.co.uk
ifier
Selected
compass
Frag@@
nucleotides
1,0@@
ackets
LAS
cabinets
Ord@@
Romeo
BOX
dots
Initial
royalty
Martinez
vier
Parish
Penn@@
Supports
tutorial
lactic
Infant
threaded
fordshire
otel
Statue
Urgent
guin
uer
Tarragona
Win
follow@@
dryness
Comics
Vermont
Into
Conditioner
prognosis
Audit
transmitters
Tus@@
len
Poker
refreshing
eity
dust@@
Activ@@
bi-@@
SES
Sullivan
MOR@@
granules
nees
Cemetery
specimen
LON@@
6mm
assive
skyscr@@
jab
FROM
Ottawa
Nie@@
Cordoba
umi
das
letin
extra-@@
roid@@
Girona
pollen
Roland
Univers@@
idly
Logic
UNO@@
changeable
cris@@
mitig@@
bark
liff
Iphone
Sz@@
stranded
permeability
Castillo
Tob@@
injector
Amar@@
Sacramento
strand
sper@@
diversification
Yun@@
ers@@
roman@@
oc
Trees
mutant
Multifunctional
-I
1x
erry
dealerships
PRONUNCIATION
HE
TEN@@
enge
Ye@@
posium
Min
dyes
Nashville
Expansion
arte
Laugh@@
dign@@
itos
Oman
Sof@@
Jung
trousers
ouldn
hin@@
opper
Tyler
STO@@
mural
5cm
racks
family-@@
concluding
ardi
immersion
eca
d.
slo@@
venti@@
pper
chewing
characterize
Eggs
Wai@@
lave
PAS@@
liness
on-line
prosthesis
small-@@
umbing
ht@@
Pérez
Holding
formulate
inger@@
Scheme
liest
zar@@
Searching
Load
Tool@@
icates
clarified
Introduc@@
Du
Info
ultra
Tos@@
certain@@
enbach
incub@@
Lotion
Labor@@
osph@@
133
eli
Contin@@
Dropshipping
Bail@@
Hearing
mills
cost@@
xim@@
French-English
WIN@@

junction
Mist
Mills
metadata
LAND
poli
spoon
rainbow
forty-@@
.....
coded
spider
Cristina
Franç@@
Sevilla
Bh@@
sectoral
10A
dient
HT
Sandy
Hig@@
NH
Chan
bnb
overe@@
Telef@@
bookings
Bib@@
harbour
sor
Reducing
zu
engue
IMVU
Asus
depos@@
nau@@
transducer
itat
Draft
Galvanized
phenyl@@
Pyr@@
rano
tration
even@@
rotated
similarity
oidal
butyl
Hag@@
Template
TW@@
trigg@@
AME
Cartridge
cling
inda
Mohamed
olding
tram
dll
Sharp
sleeves
raph
TRE@@
1500@@
Woven
sparency
HRS
Fah@@
ğ@@
Karen
tainable
PHP
Sex@@
sandwich
crim@@
Taipei
bargaining
intol@@
TRA
kilograms
Rang@@
203
mir
CX@@
unavailable
Bone
OD@@
Mile
X2
ffing
cano
tifications
lins
520
oku
Items
Vor@@
PEG
Cake
calibr@@
anded
Claire
Verizon
Rest@@
knot
Gross
Asturias
2x@@
ando
Objects
modem
Oce@@
Combin@@
Kö@@
Lightning
osh@@
Cigarette
abo
See@@
Passenger
Vu@@
3-4
ono
olia
HPLC
Chang
inhalation
reacts
excursion
abrasion
iii
anya
minus
fastening
igen@@
Plata
Ankle
Sultan
POLISH
mater@@
Sed@@
oll
sit@@
Botanical
Alber@@
wl
EPS
Namibia
Journalism
uate
Marathon
Score
Jin
constructions
ballet
ceramics
Gö@@
cry@@
jackets
INGS
NYC
4.6
Brittany
Announ@@
horse@@
Belfast
hoe
mole
Mauritius
Wag@@
itted
tabs
effici@@
ben
Shift
rene
saxony
ESPN
Nim@@
Toro
ocado
Tyre
FAQ
cht
intend@@
bundle
118@@
Rever@@
Structural
DRE@@
Lightweight
lander
Loop
94@@
Sainte-@@
ignition
Instructions
Developed
ás
cyan@@
SYSTEM
copying
MR
Booking
atics
Textile
nesia
envisaged
zona
twisted
Closed
straw
Regions
Pinterest
envel@@
Grain
Infec@@
ovich
Muscle
Discounted
º@@
prescriptions
Acer
drawer
ribs
Pup@@
Concert
PCI
Injury
EI
4-star
oding
Estepona
cludes
LIFE
Gonzalez
Peace@@
Marta
anol
ellip@@
caster
Mix@@
Zen
Cottage
absorbs
ish-@@
Hul@@
iao
FASTSALE
Snake
es.com
Rd
Wan@@
rum
Chlor@@
Cana
10mm
Convertible
-resistant
2a
5W
Alfonso
equip@@
Fisheries
gaz@@
Start@@
wavelengths
Sweater
Syste@@
Elevator
Pretty
prises
Conver@@
129
PowerPoint
VAL@@
carcinoma
bug@@
64-@@
calculates
Condo
Matte
legi@@
umab
Ign@@
Beirut
Ded@@
suit@@
MN
Dirham
Reyes
fertilizers
modalities
pursu@@
fused
origin@@
introduc@@
Dimensions
Documentation
Strat@@
spectral
LINE
a.
TRO@@
wrestling
iger@@
Subscri@@
26-@@
83@@
remuneration
gels
Alibaba.com
Underwater
Fay@@
12,@@
hey
Yi
Kore@@
lib@@
standardi@@
ArcGIS
concession
arth@@
Mason
este
power-@@
Figu@@
oodle
clic
sep@@
injec@@
separator
Body@@
acidity
evalu@@
Painted
Insul@@
Providence
y.
hemat@@
BAL@@
Yos@@
pharmaceu@@
sprink@@
Drivers
Stud@@
ARY
Joaqu@@
T6
intergovernmental
720
Wellington
HOUSE
Phen@@
Anto@@
C4
ellow
Mold
SR
allocate
Improved
adan
Dot
Low-@@
Jab@@
amplified
communicates
Bradley
Andrés
Designs
Frozen
256
550@@
Serbian
Victory
C3
enium
surfac@@
curvature
Rein@@
phthal@@
är@@
ARE@@
on-demand
Pick@@
Beta
dan
inverter
Format
COB
edible
Yacht
lup@@
ather@@
IDE@@
4.
dine
elia
chaired
Wellness
referenced
Rugby
staircase
rosis
chool
sponge
Yuan
Vivi@@
sheath
erful
NFC
liv@@
sewage
Pregnant
recorder
Eva
BRO@@
ovirus
CCD
refining
clamping
inhibits
Mong@@
Lond@@
ipped
iciency
Negative
ube
Archaeological
lubricant
ffiti
oplas@@
Component
upgrading
8.0
Investments
Dub@@
39.@@
Trash
Nicaragu@@
Kod@@
applic@@
toil@@
12v
Barbados
Moham@@
Baden-Württemberg
knives
bibli@@
Provence
Foot@@
div@@
Chatroulette
s-
omitted
401
sth
erta
zip
ceilings
correlated
COVER
Character
Sweatshirts
Gang
venous
exclus@@
Secre@@
Direction
ramp
aneous
Typical
cores
gio
vil@@
Zambia
BRI@@
Pis@@
wheel@@
GNU
Hin@@
C2
believable
Couple
TY@@
blended
5.6
Pill@@
mable
QR
Ket@@
Oro@@
190@@
1.0@@
contamin@@
frost
73@@
atus
Worth
wit@@
sac@@
eces
Must@@
AA@@
mam@@
tek
6.3
vity
Proced@@
EtOAc
YC@@
Towel
Processor
implantation
Mickey
brushes
Refriger@@
mandates
Hygiene
alternating
SAL@@
Ira@@
Canadi@@
idad
structive
aggregated
000mAh
hockey
Rally
Isol@@
mening@@
Na
España
unning
avoids
Photoshop
ype
MH
COP
WIP@@
Including
tuna
Nem@@
filtr@@
IEC
proble@@
Stream
catering
osteo@@
aggreg@@
BR
ressively
inserting
Tablets
üt@@
stan@@
TG@@
Friendship
socio-@@
tz@@
antum
pes@@
es.
German-English
John@@
Clinics
oga
thel@@
look@@
uel
asian
lia@@
CCC
KI
lars
ATV
Electoral
GAL@@
Insulation
ier@@
lamp@@
Prosec@@
Scholarship
Alexand@@
organizes
cub@@
Kot@@
jewellery
Counter@@
Sanctuary
cible
GLASS
eware
Alert
Eco@@
Advisor
geothermal
make-up
repres@@
tensile
Stat@@
monkey
differing
succ@@
shima
estimation
Seasons
hec@@
XT@@
enton
eville
powders
Programming
Wish
Din
responsib@@
Promotional
Innovative
placeable
polypeptides
invol@@
Filling
chickens
Petroleum
capac@@
485
epoxy
Grim@@
Bonn
eme@@
aerosol
epid@@
Kub@@
SG@@
elds
isen
Cove
turer
Dodge
Nou@@
Xinhua
Minim@@
maternity
staining
layered
Grupo
heaters
transmissions
hemoglobin
Ballet
dermatitis
Durham
Bam@@
Wu
Need@@
ety-@@
continu@@
chip@@
chio
MY@@
Erit@@
molar
picnic
Apartamento
IPv@@
faucet
Siena
VP@@
Conduc@@
filament
spark@@
whit@@
exporters
motorcycles
T-shirts
sync
CLI@@
Scooter
zzo
resour@@
Archive
CG
Trenes.com
maize
smoo@@
directories
Dog@@
Conventions
effected
enstein
Crew
nell
chel@@
furthermore
arden
congratulate
Let@@
Recre@@
quota
Arrow
atum
dough
ASE
Mater@@
blower
AKTBILDER
tivation
IU
udia
phin
p.
hara
highly-@@
Innov@@
Sheets
staple
summarized
Bucharest
Appl@@
opy
BBVA
Stap@@
sery
Sodium
Pulse
T3
continence
Personalized
dip
illus
vag@@
Claus
hoc
ats@@
Surgical
lette
Mack@@
Hertz
232
4.8
FAC@@
smith
Improvement
RIGHT
S4
exhib@@
branched
motorway
Sax@@
ISO@@
hydrophobic
4D
hydrochloride
Teams
approxim@@
Road@@
inclination
cham@@
aes@@
olin
obs
fittings
iba
esity
M1
schem@@
phosphor@@
abe
NOR@@
IM
peac@@
victor@@
Lumin@@
cucum@@
optics
ères
menop@@
Cayman
Underground
sticker
Vec@@
Skoda
Laf@@
radiator
zu@@
water-soluble
Beverages
dispens@@
transitions
Buttons
Hostal
Cargo
draw@@
mam
tels
ANG@@
Glen
wardrobe
Daddy
Joy@@
Stability
e.g
BAT@@
Quinta
Martín
316
septic
lm
orton
RC@@
homemade
random@@
Taxi
insulated
achieves
ipper
î@@
Urban@@
ects
tides
MAC@@
cussion
umping
Cincinnati
Coconut
bio
Spon@@
punch
Kob@@
coils
Lemon
Welfare
pathogenic
osaur
TD
allerg@@
Password
exhibitors
Bahn
3.9
Drama
conducive
Duplex
regression
Got
Guanajuato
42mm
Grid
Comedy
sha
Ark@@
Davidson
Smo@@
iety
Nicolás
computer@@
Lil@@
Ward
Sight
Statistical
showers
Seas@@
Replace
atta
OT
Tog@@
nat@@
Cé@@
Protected
bund@@
Champ@@
uris@@
Gust@@
clip@@
Ivan@@
cane
Mechan@@
prejud@@
specif@@
resp@@
Tuner
DEN@@
Pa
stronomic
uled
Braz@@
Sardinia
osh
tob@@
Levels
Pat
Emerald
imid@@
ALE
On-@@
berger
Parque
Conc@@
154
3.5mm
Gon@@
high-resolution
dizziness
Manor
IDE
Wheel@@
Klinik
Niger
front@@
8GB
Error
agram
steril@@
iu
Nikol@@
cartridges
Include
Purifier
Cord
ocracy
Accounts
Outer
Lom@@
Sr@@
Legacy
Writer
Grow
scaling
federation
Guid@@
eine
Fox@@
Baz@@
bacter@@
Recognition
exten@@
430
Fast@@
Thermo@@
Hak@@
acao
restart
Asset
Berry
Belgrade
Zam@@
lingen
Nord
MOD
Nam
KY@@
146
Continuous
amble
adop@@
215
ibo
promoters
reau
Gen
Nordrhein-Westfalen
subset
reless
MSC
Quadcopter
ephal@@
warehouses
bathtub
ried
rov
erez
foc@@
burger
Lod@@
resultant
GA@@
awi
Freder@@
Ts
alarms
remark@@
webpage
NER
Mid
Milton
Thre@@
Shap@@
Proposal
IP65
rin
uder
DX@@
6S
cakes
eno
Valenc@@
Isab@@
finder
Speakers
hydrochloric
rub
IF
Nickel
specialties
Jerez
்
cool@@
Break@@
rabbits
Coating
baked
record@@
refresh@@
fixation
ulia
recycle
grooves
Trad@@
terflies
articulated
162
mouth@@
Plot
LEGO
inducing
MENTS
GER
mortar
Norfolk
amic
lag
e-
Switches
Miy@@
aryl
VP
descriptive
Panels
lv@@
c.
menstruation
G1
Mineral
Jal@@
Stylish
Vegetable
situ
Ug@@
phis
precipitate
visual@@
Yu
Gateway
carpen@@
instant@@
ific@@
gaseous
Hong@@
isher
No.@@
Temporary
Barrio
anche
Tone
pense
Inver@@
IZ@@
unci@@
Epid@@
Gent@@
5.7
Handbags
c.@@
ields
fus@@
Limit
Inten@@
Recommend@@
capacitor
vowels
Contents
blends
ligand
cush@@
laminate
Crescent
SB
pathologies
Hanoi
River@@
195
epit@@
Ras@@
iters
IDB
92@@
32.@@
KI@@
Marsh@@
XL@@
vest
Coo@@
ayas
Cant@@
Elimination
En
ORY
porcelain
Connecting
poin@@
Ls
tapes
Strike
Vend@@
pright
1800@@
Artis@@
Ü@@
Premi@@
enlargement
enda
monol@@
Kingston
512
yk@@
coats
Insert
185
oper
330@@
Gabri@@
obia
asti@@
CTOR
Jum@@
Kaw@@
plastic@@
booster
Kras@@
Â
moul@@
cocktails
nanoparticles
Acceler@@
spindle
Mond@@
Poli@@
Architects
UB@@
Cornwall
permitting
cracking
Finder
Stef@@
P2P
Mechanism
Say@@
DL@@
istan
141
Characteristics
MAG@@
260@@
501
Tent
bidity
decoding
bush
tron
Shuttle
urg
Cardiff
brow@@
immunization
complimentary
entes
dilution
plasmid
Whirlpool
hydrox@@
unciation
.-
carton
AMP@@
omal
max@@
Papua
CX
Adventures
Dah@@
Newport
respon@@
33.@@
Phuket
recy@@
chromium
amusement
ventures
Cros@@
Daylight
Radiation
WINDOW
Met
conveyed
Sleeves
anner
stap@@
Texture
Jard@@
Si
invalid
rera
Š@@
fairs
verage
iff@@
tech@@
typing
Neon
Álv@@
139
Wizard
employ@@
REG@@
WLAN
Recommendations
waterfall
odor@@
Hearts
Riyadh
Diagnosis
Patricia
aggregation
Myst@@
tasty
Highly
Full-@@
menade
Ques@@
laminated
Champagne
plex@@
İ@@
Nautical
Aqua
Allerg@@
achments
cinnamon
otyp@@
kitchens
164
Lip
iod@@
bour
Tuc@@
Moncler
AE
anterior
Ericsson
ondo
insectic@@
Notre
Zip
Kick@@
intra@@
Roo@@
Burton
Quest
370
OFF
ignon
Nantes
overload
smooth@@
LEATHER
Shin
ayo
Turning
Wilhel@@
35-@@
ducts

va@@
Chol@@
intra-@@
opaque
H4
Chu@@
HL@@
D2
flap
Yak@@
Punk
Cler@@
entin
RCA
Kenne@@
trical
then@@
Pear@@
ónica
limb
apparel
Combination
Mid-@@
underlined
PostScript
stup@@
foun@@
ummy
readable
Brook@@
Fen@@
gastro@@
exerted
stamps
esc@@
Moon@@
adh@@
Rs
dir@@
Algerian
supplementary
respir@@
kay@@
Bomb@@
ipers
stake@@
Clay
Inspir@@
jam
provis@@
chim@@
ō@@
Floating
propagation
AND@@
Consumption
fortun@@
escence
ien
TRA@@
flip
eer
Burundi
Rolex
tightening
English-Chinese
scanned
Romero
Anal@@
PG@@
Marrakech
deta@@
α
compartments
ja@@
Oval
metic
Ribbon
widget
suscep@@
Booster
lán
verte@@
1.2@@
CONTROL
Cá@@
Paseo
ondro@@
Bee
148
192
ensemble
suitably
Spac@@
y.com
Engagement
Cooler
Elephant
Sot@@
occus
M4
Guti@@
Guides
Denis
ripe
orta
Guil@@
Custom@@
Seed
Ves@@
av
9.7
sil
diff@@
Viking
nitz
Ca
Mail@@
hats
agar
Corn
consonants
electroly@@
stabilized
imal
TYPE
Unknown
Condition
Pist@@
fin
ambass@@
operable
riers
jpg
Bacter@@
Juice
ND
Polar
False
dessert
Phantom
phenom@@
Cran@@
Nexus
Controls
mail@@
2M
mediate
Institutional
amentary
stir
SW
Zhejiang
Perth
SAT
CON
java
Clean@@
Groß@@
Invent@@
Dancing
TAN@@
laun@@
Casablanca
antagonist
tlen@@
harass@@
ón@@
ept
Functions
adsor@@
utilizes
mel
oder@@
spor@@
onium
Coord@@
THER@@
preparatory
imper@@
Wet@@
owl
G4
Excep@@
117@@
Constant
265
Broo@@
isha
convertible
easy-to-use
alcohols
5D
labelled
Ade@@
Detec@@
ensen
plantation
subcutaneous
720@@
ASUS
cnc
calor@@
Kem@@
chic
10pcs
ongs
Issu@@
hash@@
Break
Butler
Thread
Compounds
X4
dod@@
7.2
Banner
eti
Camino
Marg@@
DSLR
shoots
walk@@
visor
Bride
Shark
obiles
IAN@@
Parag@@
Fitted
Ander@@
Boost
Riverside
hairdryer
carrots
ilst
idge
yg@@
137
Karaoke
Minecraft
upl@@
ESC@@
Lauren
stors
S1
Chec@@
OT@@
abling
spacing
Courtyard
UNEP
Gim@@
sectional
LIVE
Rouge
amate
Boss
Moul@@
avenue
ighs
x-ray
lav
PAT@@
Guyana
aar
Rex
es.@@
laboration
Crossbody
sung
balloons
yle@@
530
biodegradable
Helicopter
underwear
lipids
Column
Engineer
rons
Pull
rigidity
Surf
Romance
Tournament
screw-down-crown
statis@@
symmetry
Martínez
venting
cass@@
Docum@@
Sit@@
ycin
oqu@@
ineapple
Sub-@@
approx
40mm
Aran@@
Tripod
abrasive
Bari
Gin@@
Colored
expi@@
blending
5.8
analogue
halogen
Rehabilitation
Financing
torch
Sheng
Cun@@
TING
jersey
thium-@@
strands
Belle
thermometer
Pont
oci@@
μl
vie
Versailles
ditionally
ente@@
Headphone
amel
conveying
41@@
Trucks
MET@@
CIAL
fibrosis
CD-@@
Wester@@
moiety
JA
allowance
slice
Semi-@@
Ruiz
Morelos
asphalt
unks
Bars
BL
straps
Loans
Gom@@
Tah@@
balconies
biomar@@
Slo@@
37.@@
168
sweets
orthop@@
jas
alkyl@@
Nay@@
β-@@
Patio
eux
HM@@
gamma
Serious
TM@@
Compression
Sug@@
ateful
Messages
Mann@@
Ruby
toluene
Ramos
Thi@@
pharmacological
lubrication
Salem
stat
droplets
Neutr@@
Tie
Kind@@
Siber@@
cab
sketch
feathers
SUN@@
skins
Modules
Remov@@
Competi@@
eter
ino@@
pu
uneven
Yem@@
percentages
substanti@@
galvanized
Guided
overlapping
C5
olan
Oak@@
Jungle
onions
Think@@
4x@@
lamin@@
welded
North-@@
Wiper
bluetooth
Rig@@
mins
calc@@
Koh
Pot
cassette
locom@@
Gig@@
Referring
urai
fec@@
Nieder@@
1100
stud@@
curric@@
one-way
211
OLED
Crypto
Found
Cables
transcrip@@
Filters
X3
illary
fie
DJ@@
palette
ical-@@
ussian
BEN@@
Agn@@
ogs
bons
Rochester
Carpet
Amazon@@
oun
Parquet
workpiece
oir
decomposition
PIN@@
Regulator
Jet@@
Provid@@
ospace
depar@@
ZE@@
DINKYBUY
labelling
ischem@@
ofen
Des
DG@@
207
liter@@
Wuhan
Ocean@@
TIME
Turn@@
rology
Ace
uric
00-@@
FC@@
headset
orch@@
methodological
Bent@@
beh@@
Tucson
Fern@@
Objective
Monkey
NL
Hospitals
GPU
surfactants
6A
pellets
Cow
aper@@
Elim@@
mailbox
Fluid
penal
Que@@
Ivory
bu
vious
wizard
Expression
bicarbonate
enyl
Apart@@
William@@
е@@
nap@@
Nozio
Hammer
transient
extra-urban
Loire
grap@@
IAEA
gentle@@
Dinar
Beverly
DL
air-conditioning
monoxide
mina
convers@@
prescri@@
cand@@
stadi@@
Intern@@
Semiconductor
950
trailers
cation
DIO
GL
mium
salv@@
artworks
elab@@
anhydrous
Mans
pillows
aloe
tainers
Gonz@@
Antwerp
Tables
Shut@@
Shaped
S9
Fuerteventura
treat@@
Biography
English-Danish
1-
kw
Where@@
tilis@@
Rhodes
grove
LOT
kra@@
Kuala
1300
16.04.2018
Eurosport
Veg@@
Alban@@
9001
selects
Gang@@
crossover
Sey@@
151
Alfa
BEI@@
board@@
pening
tertiary
Sudanese
trait
Dam
rinse
champagne
fications
Stic@@
STA@@
driv@@
K2
forman@@
ilo
ECO@@
Cage
Apartamentos
arom@@
Franz
refres@@
polar@@
containment
firmware
sunglasses
specifying
V2
polarization
P1
Brighton
Fill
Mo
Uruguayan
alty
Ches@@
Sinaloa
Slow
Nau@@
Chest
CMOS
copolymers
aux@@
therapeutically
LG@@
CLO@@
liquor
hael
encryp@@
tempered
Away
melan@@
Starter
Devon
contour
01-@@
Hist@@
sent@@
Guay@@
Fax
Bohemian
glo@@
purch@@
210@@
Peña
radiant
horizontally
ustr@@
CTS
Built-in
ASTM
Cristi@@
valid@@
Slots
ticle
E3
symmetrical
Laurent
2.4@@
phony
lown
ministerial
Moldova
Entrance
Guarantee
Gav@@
Um@@
dram@@
Dé@@
0000@@
MEN
anci@@
dissi@@
Row
wom@@
back-@@
awe@@
vents
izh@@
Brisbane
FER@@
stabilizing
Intervention
Necklaces
aira
pl
genomic
308
distill@@
impedance
zano
sandals
Wow
polishing
ANY
preser@@
Thermometer
Marcel@@
pressurized
Milwaukee
hull
iro@@
ampton
Here@@
alties
upholst@@
Falk@@
Brava
Sunny
jan@@
Surname
Brad@@
hatic
Bridal
Buc@@
ROOF
plunger
hydrophilic
elbow
Pier
sqm
Jakarta
aller@@
Tradus
kinase
én@@
Warrior
illustrative
290
acetone
sterone
ced@@
bro
Modular
McAfee
ilers
9.5
aç@@
otox@@
Perfume
Indianapolis
lax@@
With@@
watering
MAL@@
Normandy
Pradesh
Ll@@
urely
etle
Levers
Lawyer
ū@@
32GB
Rhode
cannula
Taur@@
shu@@
4mm
anical
ance-@@
CR-V
sub
FLE@@
remedi@@
amor@@
EV
exer@@
Compet@@
scaff@@
aj
Patch
Bhut@@
440
ILL@@
-5@@
ielding
182
seal@@
Alien
BIO@@
Fernández
Chair@@
93@@
Carry
ma-@@
Aruba
Cork
Medieval
norm@@
Fiji
bic
1pcs
Shu@@
Torture
2500
Kai@@
case-@@
Mounting
Loo@@
stripes
thick@@
Aberdeen
vist
5S
gi
adjuvant
Sib@@
cape
0.25
NC@@
Silent
Pho@@
idel@@
L1
IK@@
Pand@@
weighted
YOUR
Southampton
Uncle
bench@@
Chester
WP
fox
Recycling
1080p
Strengthening
22mm
land-@@
controllable
Quintana
Benito
TOR
Cedar
Sai@@
147
Burg@@
Apparel
Dul@@
nica
Scholarships
YZ@@
Lew@@
Timer
implements
chronograph
fabrication
Templates
tages
chure
Combo
ether@@
Oasis
Lut@@
Decor@@
renov@@
KO
erings
7.4
dering
toral
coagulation
arter@@
4pcs
icer
mellitus
Ouibus
ulcer
adas
Terra
coupon
Ha
hosp@@
Logan
Glu@@
dio
Noble
THF
Spider
adow
m.@@
Hoodie
Magnesium
Montpellier
Perf@@
Hernández
Whis@@
ionships
Satin
Luz
Bear@@
Hea@@
Lug@@
rough@@
Newark
radially
Accur@@
has@@
Compressors
urn
Colonial
216
WS@@
etry
clones
chinese
fibrous
Fres@@
complim@@
FG@@
orama
tish
astly
kinson
stan
ved@@
ovic
neigh@@
AUTO@@
ifa
proof@@
Dmit@@
glycer@@
thicker
Sedan
ultan@@
nozzles
Clim@@
predefined
FB@@
Geometric
tura
hd@@
motel
Sü@@
Styles
ian-@@
Zip@@
Replica
handheld
Vod@@
Reception
„
polys@@
Harmony
Mesa
analogous
Zi@@
Somali
Skating
kHz
mucosa
VICE
Octa@@
Dimension
143
Lifestyle
Bravo
metall@@
ARP
610
polis
Fan@@
iners
Lantern
architec@@
Toilette
Screenplay
deo
Hex@@
capillary
ureth@@
tilt
Plymouth
projecting
Skirts
accelerator
BAN@@
kan@@
uz
S5
Lamp@@
Menorca
shiny
uclear-@@
IEE@@
Somerset
C1-@@
Jump
charcoal
Julio
Italia
Brief@@
kirchen
Sa
Fake
222
oint@@
conjugate
PHO@@
ultr@@
Spectrum
iliary
-3
programmable
ffles
pack@@
mammalian
T-Shirts
SENSOR
wil@@
french
Rearview
adequ@@
SOS
Humanities
melted
0.0
Way@@
Kw@@
Pandora
ogens
VM
Yas@@
eum
wrap@@
indices
over-2500
shear
Eurolines
3C
conductors
р@@
Offline
Territories
Chess
PF@@
WIL@@
gue
7000
166
Leopard
Lever
yst
anatomical
82@@
vern
Shot
Rodrigo
notch
udi
hydroxyl
305
etas
tetr@@
atings
Apr@@
uces
manganese
terror@@
Tray
Mont
opportun@@
Three-@@
Swan
coolant
perfor@@
Publication
Faro
plug-in
ARC
amer@@
VS
Bergen
Pueblo
360@@
VMware
vanilla
Wallpapers
freshness
Mosaic
pouch
seaside
tubing
Lumpur
vet@@
kid@@
Diaz
geome@@
Instruction
en-suite
FRAN@@
bron
fifty-@@
preferential
dele@@
Calgary
MORE
forwarded
eppe
112@@
Cuisine
D3
CHR
2018-@@
Molina
tic-@@
Fix@@
ERA
search@@
Bull@@
hao
GLO@@
dei
Palazzo
RY
Wrap
Crete
Splitter
Tes@@
amin
effec@@
Mijas
inserts
atio
hydrolysis
enes
Constitu@@
Jo
235
ood@@
Rush
oily
200-@@
Chemicals
Reliable
snap
Terme
HK
SATA
fastener
sche
Georges
opic
Stripe
buck@@
scooter
peel
equivalents
Querétaro
Browse
fares
benzene
dee
ortment
Comparison
Usage
Jaime
Width
Amenities
Blouse
Dimmable
Lily
cer
COMM@@
Upgrade
cloning
214
Disposable
Knitted
½
Georgetown
Exten@@
Hann@@
Remy
shutter
Crossing
Are@@
DAN@@
fuse
Adelaide
Inclusion
Salzburg
Sugg@@
Igu@@
FLO@@
Nex@@
Measure
mc@@
Evol@@
Blades
DH
Gau@@
XR
bak@@
nerv@@
Esperanto
landscap@@
MAP
legitim@@
rents
Unified
sweater
Boot
Leic@@
Treatments
Blanc
sec
Detached
icillin
Variety
theast
Grass
Mud@@
-L@@
pneum@@
autonom@@
feather
Habitat
PPT
alian
appa
plo@@
pumped
ž@@
irradiation
Saw@@
61@@
poly
Sussex
Myers
Suede
culation
oxygen@@
Chiffon
Dakar
carte
microns
roy
ETH
jected
Ion
Dial@@
Reef
Towers
Vac@@
Kobe
Distributor
Albany
AVI@@
cataly@@
Supermarket
circuitry
uco
diagrams
YE@@
DJI
Closure
recomm@@
Kirk@@
Ministerial
leather-band
Bermuda
Fruits
Wanderio
Sapphire
ingrad
sweat@@
3-star
flask
comparator
FX@@
bud
centrifugal
liveli@@
px
Colombo
Soldier
Adj@@
sorting
Liqu@@
his@@
ri-@@
hernia
Martin@@
Temper@@
agitation
Sounds
SIT@@
myocardial
Barran@@
Coins
Aquitaine
Ts@@
Sochi
Font@@
AUX
PEN@@
157
characterization
Cups
usto
LEFT
Ecos@@
chap@@
eder
booth
INTE@@
XC@@
Anatom@@
WI
Sph@@
.eu
stains
SWITCH
β
Umbrella
vista
ombie
achable
Sold
exits
light@@
pom@@
Alleg@@
Pf@@
Ferry
ASA
Exterior
Schleswig-Holstein
rhin@@
Sewing
Radar
158
Computers
Salinas
Exerc@@
RPG
kit@@
Bub@@
nik@@
triangular
Epson
Serve
Gauge
d.@@
Quarkscm
LR@@
duck
diagnostics
gent@@
Oviedo
MP4
Advantage
uding
Athletic
Slide
Tong@@
25mm
Packard
ebook
Solitaire
valent
Comman@@
chair@@
leware
Maurice
IMEI
graphite
acrylate
aft
Armor
asters
berto
Azur
Chronograph
entations
More@@
Pepper
Illustr@@
Newborn
BRE@@
propyl
breathable
rati@@
Cock@@
MAS
xy@@
chal
Botswana
andra
Kau@@
radios
Hangzhou
Wet
Sheffield
RD
cola
jos
skyline
IMMOBILIZER
transgenic
PER
Struc@@
Barbie
Shrine
substitu@@
500-@@
ody@@
Criteria
Photographer
SAR
alpha-@@
tails
CHO@@
Minneapolis
Og@@
Bio
cust@@
rustic
Pyre@@
т@@
GM@@
Graph@@
gears
umen
Shen@@
Jade
Pharmacy
Fleece
Helena
Ingredients
ruble
3-5
acho
glyco@@
primers
esn
Saw
Ming@@
Canterbury
nig@@
illac
Stim@@
servic@@
netic
slim@@
ku@@
ression
Detective
xx@@
axially
LIC@@
Led@@
Gat@@
LET
bumper
Alic@@
Block@@
Cash@@
collis@@
Moun@@
disinfec@@
glob@@
Fu
acier
Hed@@
aq
fo
ş
bolts
zzi
azol@@
iscal
horiz@@
diffuse
Padded
Soto
10W
cem@@
G2
dor
Raspberry
Interventions
ILS
EUR@@
Transl@@
sr@@
Best@@
5000@@
atically
XV
THO@@
Yang@@
Burgundy
medium-@@
Bahia
kal@@
silhouette
Purch@@
dean
Angelo
Paula
cm@@
adjust@@
loun@@
pearls
effor@@
Pant@@
Entire
ELE@@
LAT@@
eler
Tunnel
OM
oder
enthal
Agro@@
Sonora
aldehyde
Color@@
diode
Operator
Chim@@
constituting
akia
D1
itters
symme@@
brows
andan
isco
sedan
Acoustic
ön@@
usages
AMG
GREEN
har
dolls
Composite
nitrate
uplink
Note@@
Inclusive
Kitchenette
receivers
inho
adsorption
153
172
Productivity
imeter
Inter-@@
Publications
Ses@@
jew@@
402
della
editable
conjugation
bust
Ombudsman
RHYME
no.@@
HOME
Freezer
Lancaster
oxane
orf
freez@@
8.4
Echo
imming
Serum
Deli@@
Carroll
oods
Writers
bakery
ELISA
AUDI
Myr@@
inational
upe
Flooring
boa
dc
Icel@@
Eco-@@
Ç@@
Equatorial
qi
circumferential
lesion
Parc
issance
retrac@@
plugs
ewing
Brunswick
AERODECK
kee
NJ
ylate
Malawi
eously
Gü@@
high-pressure
cz@@
ymnastics
Mosquito
ld@@
H7
UNIT
extracting
ightseeing
Ash
Ng@@
aver
throughput
Alba
Bolt
subsi@@
Shr@@
Brick
Alo@@
Orth@@
Uniform
Bachel@@
Analog
Vitamins
Specifies
Wed@@
Puerta
Browser
Dock
stacked
Sebastián
glove
Jul
presso
OO@@
Montevideo
Fou@@
loo
pub
integr@@
olfo
Aromatherapy
Ra
uniformity
4GB
idle
Interpretation
sie
bay@@
prost@@
Sis@@
alum@@
Cryst@@
Aloe
Uses
nav@@
Unic@@
Kitchenware
2017-@@
Orch@@
zel
aha
Pedal
Conveni@@
tryp@@
Caf@@
ucent
ively
omm@@
DVDs
Renew@@
Mall@@
Fuji
Duck
sul
wrapping
OSC@@
176
adhesives
du-@@
Scen@@
4a
Authentic
Universit@@
DAR@@
Memb@@
pand@@
zar
mRNA
RM
Lore@@
A7
Forward
Bav@@
dispos@@
nam
SQ@@
LLA
Kyrgyzstan
biop@@
wri@@
tif
Teeth
cere@@
mechanically
Displays
CPC
Contains
Huntington
hot-@@
immunos@@
injecting
TN
enamel
Bathtub
Bres@@
graphs
amber
Ride
Radiator
bedding
Warehouse
STU@@
Auth@@
ews
stuffs
Swatch
blankets
preservatives
apor@@
Ninja
ulus
stering
VDC
rag@@
access@@
geting
Stretch
ermo
Imaging
unas
HF
Fundación
Alk@@
tionery
Antigua
Optionally
Inspector
onn@@
decryp@@
CUR@@
Double-@@
ECT
sprayed
UM@@
through@@
glass@@
dissol@@
inhibited
endogenous
3W
22.@@
SAR@@
necess@@
sic
Garmin
THIS
BNamericas
Gap
dal
Burkina
hepatic
v1.@@
Aro@@
5.
art-@@
н@@
WB@@
ers-@@
Côte
otti
Guan@@
Fiesta
uler
L2
PIC@@
athlon
OK@@
couns@@
bek
lymphocytes
Algarve
sence
Cere@@
silic@@
WER
Luigi
precip@@
jiang
Tai
usi@@
255
kt
306
Parfum
Ix@@
pointer
glycos@@
uli
PB
Serg@@
Read@@
unil@@
check-out
FTP
presen@@
ños
erance
asaki
Com
ICs
enon
calcul@@
colum@@
Mint
Yo@@
Christi@@
µ@@
nee
Tep@@
Reina
vertebral
utely
stitute
BO
PRODUCT
Basket
Raz@@
ity@@
agne
Leggings
Darfur
ASH
ossy
yar@@
Veget@@
38.@@
ucle@@
sac
Windshield
Hockey
Potosí
ilitation
Hospitality
Old@@
Thunder@@
Towns
manifold
corrosive
ROMANIAN
Maurit@@
argon
Wyoming
Drilling
anova
condensed
Rita
accep@@
V.@@
condenser
Depar@@
433@@
enorm@@
receptacle
Log
Breit@@
Leaves
wall@@
gas-@@
transf@@
cuff
amorphous
Separate
enheim
Sunshine
drawbacks
flush
vesti@@
matur@@
Flav@@
uni
BY@@
locality
‑
ansk
y-to-@@
Engraving
Conventional
Fashionable
cationic
eil
49.@@
Nano
Saar@@
roid
alu@@
iras
queue
attrac@@
titudes
Chongqing
coron@@
nar
Vanuatu
Cot
DRL
timate
Manufacture
Denti@@
fluidi@@
CDMA
pumpkin
Olymp@@
Tip@@
store@@
see@@
agi
carri@@
UF
Font
CRO@@
NIC
BRAKE
preven@@
Seminar
Amateur
Fireplace
480@@
HF@@
mod
AST@@
Lamin@@
10.5
tari@@
Serena
aggl@@
Fork
rug
polycarbonate
Kand@@
Amer@@
IEN@@
namental
orte
Derby
firm@@
shausen
H2
Aerial
Worker
Reflective
ouse@@
4CH
Yer@@
tainer
Burgos
analyzer
Solo
velvet
trendy
Serial
Dubrovnik
facilit@@
americ@@
iman
susp@@
Drinks
Crafts
millimeters
WATER
OF@@
Zer@@
encapsulated
Delete
RJ45
incen@@
Hatchback
funnel
MEX
Lombardy
yan@@
Unbelievable
Deer
extruded
constructs
PTFE
QUE
Halo
Vers@@
Guar@@
Charleston
tul@@
stad
platelet
filaments
ain-@@
normalization
Shore
Camcorder
ince
174
Draw@@
Sang@@
marina
fore
In-Room
P2
Hitachi
Showing
Tianjin
Promo@@
mock
169
oved
Bouquet
polyg@@
DN
plaster
JFK
NZ@@
Kiss
Andalus@@
Margar@@
achts
16GB
Draw
Gustavo
315
Ing@@
Milano
ess-@@
lipo@@
changer
Mav@@
desir@@
Wigs
163
Imp@@
Subaru
fum@@
12.5
Alta
Barrier
Clay@@
formaldehyde
Pickup
Serra
ferr@@
149
Pip@@
Treasure
Madeira
PORT
CHAN@@
ADO
antim@@
Harmon@@
Baku
DING
uclear@@
Tan
gelatin
Killer
Budd@@
Surfing
T4
UNCTAD
ugu@@
H2@@
citric
SpainHouses.net
DG
pool@@
270@@
ogo
Exotic
suitcase
LOW
Jak@@
rue
Lawn
Soundproofing
21.@@
Caps
Heels
Lt@@
460
Agua
pathogen
parag@@
gra
ofil@@
ophone
Therapeu@@
Shelf
Mobil@@
bras
grav@@
less-@@
coagul@@
Avis
119@@
departures
CENTR@@
Faso
Trig@@
Sunrise
acidi@@
ENGINE
Casting
Femme
ous-@@
biking
Long-@@
accharides
Laur@@
versi@@
emi
Pioneer
Backpacks
oodles
toolbar
1x@@
Penthouse
Touch@@
decoder
161
RX
fig
Allende
Ji
DIN@@
Wax
volleyball
dilute
Ignition
Maldives
hello
config@@
ewood
achiev@@
LAR@@
spacer
Sculpture
afr@@
tolerable
BER
Dop@@
andro
differ@@
House@@
oulder
nis
fing
-sur-@@
isocyanate
CBR@@
Benidorm
graded
Individually
corne@@
Spice
istries
VERY
Timing
Riga
import@@
formatting
grease
non-toxic
English-Greek
Minsk
Zu@@
evaporator
Enhanced
freshly
relig@@
ACH@@
hashtags
Henna
CW@@
Fender
absorb@@
Swed@@
Vid@@
stances
Krankenhaus
Syl@@
Niagara
chromat@@
ustin
tom
r.@@
Novel@@
lique@@
TOYOTA
Swing
transduc@@
Dolls
sunflower
uña
avec
fins
PAL@@
TECH
grill
Gain
Bedding
posterior
Handlebar
Zhu@@
Reporter
CY
Bullet
CW
Marino
VEHICLE
normals
conv@@
Industri@@
Quiet
eteria
furbished
coefficients
strawberries
Colon
diabe@@
mob@@
12mm
porch
zan@@
dess@@
implementations
eather
yte
Aegean
Krakow
sim
locker
sophistic@@
cobalt
USB-@@
CAB@@
pvc
polynucleotide
turquoise
CSF
reason@@
Saga
crystalli@@
deploy@@
sleeved
precipitated
den-@@
404
Laus@@
1C
Capac@@
Sigma
opo@@
Apk@@
Certificates
Zirconia
EE
Zak@@
Hyde
GN
embodi@@
Tiffany
Corr@@
thic@@
code@@
scopy
Vauxhall
angina
Geo@@
Coal
TAR@@
Dairy
Solve
arthro@@
Swim
Spark
Leg
ardino
1-1
orites
WAR@@
Compass
HTML5
ores@@
sm
rotates
Gear@@
gripping
Density
Designers
Accessible
DDR@@
-112.074
33.4484
SF
dier
cleanliness
CONNE@@
Deco
620
Scienti@@
Smooth
1pc
atherosclerosis
LOCK
skiy
Controlled
neon
50mm
anode
agna
Rin@@
copyrighted
Homemade
Yuk@@
piper@@
Hyatt
Pins
trifluor@@
Metallic
gourmet
SPORT
airflow
tras@@
hui
nish
cellar
NM
place@@
Klinikum
syntax
Spy@@
mens
Plaid
cathode
4S
linkage
uniformly
Lexus
Dj@@
Med
buds
Spi@@
Approv@@
telecommunication
perman@@
-T@@
glazing
ár@@
Underwear
aipur
barley
218
Sim
ergonomic
Convert
3x@@
FIR@@
Non-Smoking
390
INC
stainless-steel-band
Cross-@@
MF@@
Empty
BRA@@
Trujillo
Labels
GR
Dirt
anco
GY@@
Intercom
Suction
teur@@
mating
fresh@@
hooks
Rotation
SX@@
Acute
Counter
Cali
yms
Rhy@@
Cabin
Sieg@@
violet
spects
fixture
PK@@
Moor@@
Maple
245
icon@@
Cherokee
2100
Meas@@
DY@@
avy
Lah@@
и@@
‧
Couples
Carri@@
conjugated
infarction
CRC
Partic@@
Whar@@
storey
Nottingham
Castel@@
MER
giv@@
FIT
synchronized
cara
vapour
Kensington
17.04.2018
Lia@@
obi
Catania
apan
epage
Modes
Siberian
vod@@
Kill@@
Tud@@
purse
ypad
Wald@@
coupons
Cart
dimen@@
Tin
A8
Zombie
AH@@
Ya@@
steine
Cic@@
1M
Corpor@@
hyaluronic
Boca
öl@@
Holidays
ilians
proofing
washer
raph@@
hic@@
Pam@@
añ@@
start-@@
Gravity
ATE@@
sushi
Shannon
Trap@@
furnishings
apo@@
clusions
corrugated
osen
Autodesk
after-@@
etric
Vessel
Suk@@
Herz@@
sucrose
Castellón
encoder
otropic
M5
olytic
Discussion
experi@@
mini@@
Faux
deed
hybridization
crystallization
analyte
G9@@
withdraw@@
berg@@
Francesco
Expe@@
Automated
gast@@
Rupee
Distri@@
LI
Bé@@
yr
Violet
Bend
Hang@@
196
VIC@@
Plush
xa
above-described
pyrid@@
ibir@@
inhibitory
uter
UNFPA
Azerbaijani
Equipped
Morellato
Til@@
Guangdong
Parti@@
mats
Evalu@@
KEY
303
Án@@
resus@@
assembling
iche
OPEL
esome
neighbour@@
adhered
2008-@@
Featured
til
171
ı
ō
Haute-@@
INS
Competitive
ITAL@@
Greene
sham
HID
aromas
Mim@@
intrav@@
N2
1mm
enzymatic
-A@@
Bern
Glacier
30.@@
KR@@
tings
Alten@@
Exhib@@
be-@@
850@@
tein
Mp@@
heterogeneous
ford@@
Hg
viney@@
540
powdered
Headlamp
ako
Herrera
breakfasts
Inches
Yard
bytes
Ranch
2b
3.5@@
BUS@@
venir
Gaulle
æ@@
178
CURTAIN
beachfront
rit@@
tagged
dynamically
const@@
omy@@
Whe@@
Dating
Jiangsu
104@@
ru
rane
DCs
BD
Rioja
Doc
Indicators
Embroidered
Nob@@
QC
Setup
Fresh@@
Bo
stract
Piv@@
Ponce
trie@@
Lus@@
Teg@@
Alcalá
bure@@
Bulk
tima
attaching
Lo
3B
2.2@@
Mixing
english
hrs
tester
tepec
LIN
cook@@
184
Gómez
Palacio
ob
Signature
rib
AIL
applicator
002
-A
188
thes
Estimated
1a
Required
ograms
cc@@
outh
RPM
Essex
sur
Seamless
cabbage
Chir@@
signalling
Circus
Mug
Intermediate
alkal@@
parquet
telephony
kas
PIR
Vag@@
HPE
167
methyl-@@
embro@@
tenstein
ery@@
afa
DCM
embroidered
Esch@@
SAM@@
Vesira.com
312
Bathrobe
tball
Hacienda
MAP@@
eaway
Prefecture
éné@@
ocket
Track@@
thouses
dissolving
Dale
Retur@@
Approved
jamas
Nes@@
imar
IgG
spleen
tablespoons
inea
GRA@@
Petit
Bom@@
ns@@
Teatro
Pak@@
DC12V
MHZ
HAN@@
ocyte
gloss
ogn@@
g.
refractory
AIR@@
MV
igno@@
polarity
lb
erron@@
00mAh
Aless@@
Wies@@
broth
Lookup
planner
1-4
ref
WAY
ellation
Ler@@
Chengdu
Plastics
Banana
thres@@
assic
berg-@@
bead
Calais
flex
Switching
mp3
eto
Vish@@
drawers
Canton
wedge
Embedded
Designated
ocide
DOORS
nez
Thüringen
ickr
boilers
sten
Um
Arch
slid@@
aret
Watt
Trip@@
Nichol@@
handbag
sys
precursors
-9@@
idone
Accord
conia
COS
SG
o.com
Lloret
finely
Wig
microprocessor
ishi
protease
Blanco
housekeeping
detrim@@
alers
Cadiz
105@@
ield
ometh@@
Cocktail
Ginger
metering
Ethnic
inders
Feeding
dew
Staf@@
Ti
Drawn
NAB
Impression
actus
unge
franc
WHEEL
ogenous
cleavage
Broken
thetics
1024
surro@@
RENAULT
klift
scissors
Bund@@
brit@@
basal
Dispenser
Sie@@
sored
orifice
progen@@
ORT
jacuzzi
Polymer
-8@@
etro@@
lysis
LB
325
rupee
gienic
hos
isse
reel
tracker
aric
502
toria
A3@@
Lü@@
Elsa
isomers
oculars
Díaz
Hé@@
Screwdriver
Wik@@
Acres
thermostat
Tunis@@
iciary
adero
640
intrac@@
moulding
Utrecht
UC@@
GIS
unloading
cleaners
Colon@@
abl@@
lux@@
Bru@@
UND
5pcs
sixty-@@
yana
Mancha
Charlot@@
Mustang
capacity-building
Academ@@
drip
ophil@@
Munster
Jacksonville
Vestidos
Aux@@
disinfection
EW@@
TOURER
UHF
ges@@
Stable
skating
kia
eae
Restore
isville
orities
242
aliphatic
Warm@@
ATS
Std
-5
Kud@@
bach-@@
overs
Palais
Tees
Lagoon
gr
Exporters
peppers
normalize
MIL@@
vertis@@
benzo@@
sfeld
Allfreeapk.com
rectangle
PUMP
nos
ethylen@@
Colours
Telerosa
TL
tronic
european
Compostela
avid
Fuengirola
Root
pe-@@
Trin@@
iento
aeros@@
COLO@@
Rag@@
igan
Es
omeric
Motorbike
LLE@@
COUN@@
acter@@
Hote@@
BTS
Olympus
onomic
Au
flakes
Passat
Coco
Aparthotel
Aguascalientes
ovascular
irie
receip@@
Dos@@
drop-down
Blouses
Arroyo
H2O
Personalization
repellent
large-@@
Pub
suspensions
Ultr@@
Flow@@
Wyndham
dielectric
cranes
Shockproof
hetero@@
nament
dropwise
furt
tenberg
Cádiz
dish@@
prefer@@
anj@@
wart
FRI@@
ELI@@
Schedules
trically
Respir@@
Winter@@
Cryptocurrency
blinds
impro@@
960@@
Hosp@@
Ocampo
Tulum
Exeter
Calculator
Dar
dinar
feeder
Tamaulipas
SMT
kor@@
weld
reintegration
Cleansing
dwellings
Sailing
ebr@@
Mini-@@
NI
diluent
hooting
apos@@
181
0.5@@
Praia
tern
Dha@@
ornaments
elongate
WAN
PW@@
ginine
Marion
Kok@@
Slovak
FUR@@
sneakers
diarr@@
perforated
Oro
CZ
Charming
otation
Catalog
Brushed
ware@@
methylene
erve
feng
iton
usen
dan@@
sulfon@@
Camden
mustard
FZ@@
Plac@@
ASS
E1
159
Selfie
Adjustment
GBP
Shaft

Hewlet@@
orge
English-Portuguese
lini
PROTE@@
Characters
8000
Crocodile
Lille
Hain@@
stabilizer
ds@@
PRIN@@
touristy
Bohem@@
Santorini
Therm@@
FRENCH
conical
olor
209
9000
granular
sity
Segovia
cones
cDNA
ECG
Lomb@@
Nozzle
planar
reflec@@
spa@@
embos@@
Wool@@
Shaw@@
folio
Trekking
HCV
SV
downlink
oco
Codes
otta
Shandong
Ensuite
Guadal@@
Jesús
ße
Luminous
SHIRT
toner
Michoacán
T5
utches
sbach
Acet@@
mushroom
retardant
iger
Real-@@
Wonderful
DISP@@
Intensive
esca
sampl@@
prolong@@
lor
Induc@@
juana
Savo@@
Stations
Relax@@
easy-to-@@
Machining
lubricants
inet
Modified
-M@@
ilion
Rhineland-@@
Gast@@
999
excipients
-type
Vegetables
ECU
FPV
atest
Delg@@
Circuits
diameters
umper
Guayaquil
brow
DMA
ensee
SIN@@
eong@@
awn
Ram
YU@@
Cubic
XM
Djib@@
Gis@@
addle
yor
Elev@@
ewer
scarf
Christchurch
Lé@@
JP
Thy@@
630
α-@@
OIL
AX
ITS
dorf-@@
Activated
Sponge
aber@@
sludge
propyl@@
lery
Usb
H.264
grammatical
atterned
Recipes
alpa
Variable
thm
50W
Beat
Unter@@
entia
AHD
Piz@@
cra
vists
INO
CONN
K1
Nog@@
Ost@@
Sty@@
PY@@
fluoro@@
toaster
conti@@
ute@@
P2@@
Kg
Manitoba
PS3
atore
polish
uning
cursor
Viewer
ISE
mis
stator
switch@@
Calcium
adora
Bra
Chandelier
istics
OP
moles
Yar@@
thereon
lish@@
aties
scratches
nork@@
solv@@
idence
INSTRU@@
questionn@@
rust
Grip
yne
itud@@
Boards
Vap@@
EF
erville
Thereafter
Polished
224
Midi
Ip@@
S.R.L
Lour@@
hardening
Candle
actuation
Allows
Rhine-Westphalia
anxi
Kitty
186
aurus
eric@@
Hit@@
F2
Andalucia
fung@@
glazed
Efficient
Nose
Kul@@
Lao
Sankt
Gasoline
pellet
YA
FM@@
Lithu@@
Fly@@
HL
ecu@@
aio
Loma
Alexandra
Monta@@
HIGH
excitation
Bottles
itol
teaspoon
Hats
eaks
2GB
anne@@
contraindications
109@@
Buses
ancement
VIA
ICH
Needle
VEL
ción
Fence
cooker
itance
arab@@
Coven@@
prise
Chel@@
Deere
ULL
AJ@@
2PCS
Roo
prophylaxis
Má@@
cled
slices
Removable
Albuquerque
crocod@@
Mould
Kak@@
utt@@
Reserv@@
ione
wallpapers
Antalya
Alumni
jaws
Cari@@
ANO
provid@@
Polarized
Easy@@
KIA
316L
VIEW
Sheraton
about@@
Ivo@@
zio
Footwear
2K
Spark@@
reactivity
Vigo
HEAD
Organised
DY
CJ@@
6000@@
Boats
GRO@@
Bearings
anchoring
Hok@@
drawback
last-minute
183
mt
STRE@@
GX@@
Astra
3.0@@
Pleasant
256@@
Highlands
tim
BOR@@
decision-@@
cohes@@
standby
LX
Durango
802.11@@
Î@@
Plug@@
Single-@@
Gou@@
ISH
adir
pyro@@
zza
strate
Specialists
Soldering
C6
Escal@@
antagonists
metal@@
Lamborghini
after-sales
elem@@
itories
absorber
Vib@@
SEA
structuring
oligonucleotide
UA
Worc@@
CRUISE
Front@@
Ain
Roque
Waterfall
än@@
Prin@@
Edi@@
Medellin
hydroxy
Oaks
Bidet
ega
‐
dal@@
fps
equival@@
Wings
Capture
199
cubes
icacy
Minas
Easily
Establish@@
ific
Arlington
Bass@@
Ville
Samples
Angry
DAL@@
ardy
GRI@@
chia
fillers
polymerase
EZ@@
een
AVI
cutaneous
LESS
ío
Buch@@
Estates
Almeria
igraph@@
hemis@@
CG@@
1400
Dentist
Chip@@
midd@@
Mansion
vening
Vernon
urry
humidi@@
Torn@@
LOG@@
pad@@
Freeware
pra
Heil@@
pec
bub@@
Mum@@
glycerol
atchet
Boom
Petrol
br
Buen@@
uling
blan@@
Dai@@
Embodi@@
Push@@
Wu@@
Macbook
Sands
5m
ibis
Pig
Ozone
vans
epithelial
Random
Picnic
ppy
ICK
G3
Wat
Giorgio
Bibli@@
slider
viscous
Volt
Func@@
191
5C
ugo
ese-@@
Brigh@@
Bandage
5s
Pamplona
Avon
scription
icure
Symbol
Lear@@
erythro@@
254
solenoid
Sync
OMCT
Belarusian
Appliances
Sloven@@
Regina
lymp@@
cork
Bla@@
linkages
ASSY
aiso
peas
Salou
Surve@@
Balls
SPORTS
Kuwaiti
KY
MisterTennis.com
Bodycon
ă
tau
KN@@
Hau@@
mexico
Villanueva
Crop
rear@@
LEY
8A
ICE@@
ley@@
KTM
Sizes
demon@@
shielding
essen
Tail@@
Campos
Scan@@
erical
Pullover
ell-@@
IAN
CHAR@@
Accepts
wro@@
huan
initiator
Sop@@
coaxial
34.@@
carbide
Switch@@
Off-@@
frequ@@
morphology
Scene
660
udge
gear@@
Sul
Tulle
Jing@@
Igl@@
Sail@@
LR
Lorraine
Mün@@
Fixtures
bourne
dler
tesy
Jap@@
diast@@
ourt
Ø
Merry
Plas@@
VHF
deformed
PHOTOS
MED
family-friendly
acha
bok
Transformer
adder
Autom@@
ZX@@
Aber@@
anionic
barcode
pp
chr@@
esi
P3
GAS
38mm
sv@@
Khaki
Mexicali
3a
AIO
endothelial
Sensitive
60W
Benal@@
molds
HZ
1.25
propane
IUM
ush-@@
GROUP
sterling
conduction
Induction
177
-proof
Yon@@
inetics
polo
opa
Ampl@@
Nest
USP
famil@@
yx
rika
Result
194
100W
228
dissipation
prolifer@@
Amman
tiva
Vita
Corsica
Vibration
ATIONS
Isolated
Postgraduate
Authentic@@
o-
Skinny
trolley
Jama@@
loader
yster
AMS
gae
Swee@@
Projec@@
RELATING
stamping
Beach@@
Gly@@
Decal
Durban
dispensed
tillo
Backing
2000-@@
Stir@@
ASH@@
-only
Gigabit
Bradford
biennium
immunoglobulin
ampa
SHE@@
Lifting
Eyel@@
olla
Windproof
Carrying
Rim@@
Insulated
UNE@@
Mouth
paddle
elas@@
syr@@
lana
scen@@
versary
LLE
APARTMENT
Acapulco
Zan@@
pressu@@
Tav@@
Arriv@@
alc@@
MF
Downloader
Ges@@
bromide
Dres@@
Newspapers
0000
cathe@@
Mahjong
Vibr@@
Hi-@@
Pé@@
NECK
anni
tane
HON@@
skirts
Fix
MPa
itiner@@
Share@@
Ced@@
hurst
Glue
Ambi@@
710
Washer
shaving
ambia
irradi@@
ig-@@
Wrangler
Slip@@
Feet
ò@@
Fittings
B5
chloro@@
stead
Alpes
VIT@@
Confectionery
VR@@
SAT@@
Carbon@@
Ultra-@@
Recy@@
Paintings
supernatant
Ano@@
mitted
Cl
lique
scatter@@
Gehren
polystyrene
bitch
Steroids
Builder
slab
Niedersachsen
maple
Tuning
213
Micros@@
Atmosph@@
5.00
SUMMARY
ZZ@@
Hesse
SIP
apertures
DRI@@
Homestay
acryl@@
libr@@
kman
Tanks
Pools
Dolphin
chest@@
Europcar
Eas@@
Lol@@
therine
■
4000@@
tetra@@
sz@@
Alameda
Spre@@
dable
orial
adapters
QI
Explo@@
BLO@@
appy
Carn@@
Instrum@@
FD
Frac@@
TAI@@
loft
saw@@
avirus
Nicol@@
Encryp@@
NV
acetyl@@
Swivel
sulphate
ss
Hua
Phosph@@
yc@@
Li-@@
Spiral
clus@@
X6
―
ridor
wardrobes
polyamide
sequentially
ión
ohm
Rhône-@@
Windscreen
DRA@@
Fuch@@
üc@@
Business@@
Appoint@@
Of@@
Saskatchewan
lds
vertebr@@
E2
Rö@@
amino-@@
cyt@@
inic
Miniature
Ling@@
atile
lcd
ativa
Antil@@
ADE@@
Wallets
Laz@@
Maxim
106@@
Volun@@
glycol@@
oxidized
umatic
ocop@@
bioavailability
cytokines
TABLE
ATED
SUS@@
lings
173
Hoch@@
olina
Cuenca
ESP@@
Flora
quil@@
KOR@@
Phy@@
extracellular
307
Granite
dspeaker
Pu
Rug@@
humidifier
AW
TVL
1080
Lighter
e.org
MAD@@
jia
WASHER
STEERING
arbit@@
piec@@
Vale
Tajikistan
nom
jk
Reel
Honey@@
Lenses
later@@
Huelva
stir@@
iatric
GY
arrays
TIT@@
nitr@@
PUR@@
tably
twood
erroneously
Nassau
Gourmet
Runner
cloned
ABO@@
extruder
Rifle
actuators
yalty
Living@@
alb@@
Sok@@
acid-@@
rances
Pau
Fingerprint
Piedras
Amin@@
405
PLA
chopped
Hanover
sinter@@
IONAL
Bold
Terror@@
YAMAHA
Beachfront
MG@@
504
Kirch@@
mone
atell@@
onas
upper@@
Reproductions
Fog@@
108@@
Pre
Qatari
Pendants
Catalina
efflu@@
Pay-per-view
Rov@@
lop
T5@@
lyoph@@
bedside
Costumes
DC-@@
diffuser
Static
orage
seedlings
EMS
Castil@@
Bora
Tractor
Illustrations
MIC
NEC
bovine
mary
Metals
ovens
35mm
AutoCAD
hol
Harness
Blend
Olga
sian
Belts
COMP
Reaction
sley
immobil@@
alth@@
sporty
0.001
hote@@
20-minute
tuner
IX@@
LX@@
Garda
MIT@@
XY@@
wave@@
uno
Perfumes
Enable
ray@@
ín@@
SRL
Pockets
Calabria
hydroly@@
Prepared
pulley
mw
Crash
Adel@@
Mér@@
sha@@
MCU
fabric@@
wis@@
enanti@@
process@@
K2@@
A0@@
H3
Toy@@
36.@@
Lovers
HK@@
64GB
ta-@@
Rai
ackle
221
CLU@@
pre
Detachable
ustri@@
Hö@@
krone
porteur
Capacitive
ESP
Dos
MATIC
Xiamen
Llan@@
Labeling
Sanitary
Ljubljana
Groß
MERCEDES-BENZ
denim
DED
rankshaft
Exit
palatinate
Piedmont
esco
Bean
Pati@@
.ru
harv@@
Yen
Trieste
Chairs
anity
TERI@@
Curtains
IP67
Oscill@@
30W
Nass@@
tron@@
mattresses
560
Touring
NIS@@
Panorama
Snap
strawberry
Tort@@
fab@@
itoneal
VAN@@
coarse
Conve@@
Abra@@
Oils
ships-within-24h
enery
epidermis
KT@@
accompan@@
Tbilisi
Sliding
Blanket
DEN
emulsions
AWG
Mirrors
V1
fiber@@
ów
rims
ocyan@@
alumina
riyal
Segura
Stad@@
refractive
blossom
Marking
Peñ@@
Eich@@
olet
Folk
acion
1600@@
indir.biz
Anchor
Nos@@
KER
310@@
taka
pressur@@
Multic@@
iasis
Legis@@
Requi@@
situ@@
commem@@
PK
Stabil@@
JR
hydrogen@@
adidas
armac@@
OV@@
Casas
illustr@@
National-Express
Château
NING
arest
curable
turbo
FG
MACH@@
Tl@@
dell
FOG
apoptosis
7A
azo
Trunk
ascor@@
coo@@
Screen@@
15.6
Chassis
therefrom
3.7V
thqu@@
BJ@@
ulette
oura
6.
knitted
ANG
251
GOLD
naph@@
ZE
arbon@@
oxidi@@
SOR@@
EXAMPLE
Vito
Fem@@
gb
SUZUKI
thesia
Ald@@
AQ@@
suture
Isidro
8G
Herr@@
non-woven
Sushi
Zacatecas
stiff@@
pancre@@
ouflage
Portsmouth
Octa
FUEL
NESS
SPR@@
Glitter
Coff@@
Lich@@
TECH@@
amen
thickening
Grenoble
Destinations
Dongguan
Vla@@
BK
lf
GEL
Earphones
idden
LB@@
manu@@
ateau
Reno
Wardrobes
ses@@
png
schematically
24h
matte
moist@@
Rincón
ascular
DGE
Adjust
Repeater
Media@@
inum
Straps
verde
confec@@
kking
EK
stitutes
pg
Caucasian
igne
b-@@
annon
Panoramic
isch
KAR@@
formul@@
rellas
tablespo@@
amoun@@
Microscope
ambo@@
melon
Attrac@@
üh@@
Tux@@
occur@@
Arte
adar
Xin@@
Caterpillar
PCI@@
in-1
Ponte
WORK
Street@@
polymorph@@
Endos@@
Benin
kh
electrostatic
Molding
GoPro
tase
Keychain
peach
ensity
tienne
Prac@@
Posada
4B
Exem@@
develop@@
Marne
BAR
Alli@@
5M
transceiver
Torrevieja
ungal@@
wrink@@
Prop@@
Wrist@@
Semi
H11
470
Downloads
unda
udio
Armen@@
kitchenette
NaOH
Afr@@
BACKGROUND
osil@@
detergents
otechn@@
Teddy
Rotating
pc@@
080@@
bec
cell-@@
Comparing
CATE@@
BODY
MET
ST-@@
igree
Barber
FN
decisi@@
Compar@@
Daytime
5-star
anton@@
Fresno
GPRS
Meal
inians
Puma
Applicable
в@@
bracelets
carrot
MeOH
heterocy@@
Submit
Fridge
OU@@
Bowling
Photo@@
oj@@
selectivity
MULTI@@
paradig@@
RON
damping
HCP
Thuringia
MMA
Ultralight
LIC
chimney
STABILITY
GET
artz
Berg
Treas@@
DU
Laredo
Ave@@
neck@@
fail@@
impregn@@
DOM
citrate
Clip@@
Chun@@
cellaneous
Oran@@
252
polyp@@
Shade
MUS@@
right-click
GAME
sp
Carre@@
`
biscu@@
Halter
Veneto
clude
Reservations
Cordless
sesame
Advantageously
monary
solub@@
tona
Als@@
reflector
Sle@@
226
reachable
Hyun
PES
802.@@
diffraction
synchronous
outwardly
Dolce
Bangladeshi
HOT
tungsten
afer
Gover@@
Mer
bb@@
Arrivals
predomin@@
TU
Junction
imate
Cair@@
-G@@
Sat
preset
Armani
ASSIST
P10
Arth@@
Rale@@
softening
forw@@
Apparatus
striped
Grinding
B3
ibar
absol@@
Porta
Ko
convex
Ã
Mg@@
anhydride
Brightness
Cruiser
6x@@
Alegre
Highland
flashlight
5-
multifunctional
me-@@
MON
oves
olefin
eron
Arduino
recited
Holders
bikini
tapered
allo
Landscap@@
scape
peeling
Lleida
NAS
Cambodi@@
Suffolk
Fujitsu
Pond
kom@@
Heated
combus@@
2S
compressors
alda
Pomer@@
Cartier
litz
Layers
impregnated
uments
Lago
508
rele@@
2006-@@
BCN
Tallinn
pant@@
Sne@@
strom
pected
té
VERS@@
Streng@@
SKU
rov@@
Ronda
Yugosla@@
601
Salmon
Mous@@
Laurel
Cac@@
Lid@@
Nuts
Hooks
albumin
chy@@
Shine
Repl@@
atmosph@@
Magdalena
SED
EanFind
SGS
VAR@@
Chateau
NPT
allel
zens
Arti@@
Coloring
parenteral
iddle
406
tert-@@
oxidant
Hohen@@
NAVIGATION
Prov@@
TAL
Specify
Estim@@
hain
odorant
ArtsDot.com
VIN@@
Mouser
XC
oplastic
Strobe
asso
amides
Bucket
in1
Erg@@
Them@@
Stud
pooling
colorless
Xenon
urity
sfield
watermelon
Tattoos
OFF@@
lt
30mm
PSI
Esper@@
1-5
map@@
electrochemical
Jog@@
EG
Consultants
shuttles
propanol
mobili@@
emed
Blvd
003
Johann@@
Purification
ा@@
Trendy
hydrogenation
7mm
ONG
Humidity
concave
SOP
asta
Mm
sulfuric
concierge
Feather
asth@@
appended
Condi@@
Compati@@
Collector
Multicolor
transistor
Forecast
R4
STAR@@
Probe
gings
Pousada
vie@@
Milling
Microfiber
umat@@
Cement
ASSI@@
tifier
Expan@@
osk
43mm
Goji
810
AKI
UV-@@
Umb@@
Kung
Pob@@
olite
Pug@@
elastomer
580
SLR
dominium
Kang@@
lt@@
MK
8x@@
prescribes
acetonitrile
Wagon
WHO@@
MED@@
Barcelon@@
Prints
Owl
WIRE
subst@@
juven@@
Corners
Extensions
Butter
otive
265V
frederique-constant@@
Anth@@
lubricating
22,@@
otter
sycho@@
A2@@
Inverter
icitly
operatively
amonds
Fc
remo@@
Ultrasound
ke-up
BUR@@
Scarf
pli@@
MDF
RAM@@
Q5
MOUN@@
Baden
integer
Hillsborough
-6@@
Tungsten
hotel@@
Sachsen
UNAIDS
encapsul@@
MN@@
inson
propi@@
KU@@
Neo
encils
able@@
rotic
Maastricht
atu
1D
Lighthouse
t-shirts
English-Indonesian
MBER
Escor@@
Kettle
Patterns
Yong@@
DEO
ODA
Tissue
Hotel@@
-4@@
Edmonton
Toaster
a-
Flash@@
MPV
ZO@@
Thessaloniki
Alamo
tyros@@
azine
ingers
2X
ferrous
Plane
Fertili@@
Belo
Yucatán
Atomizer
kshire
244
Mural
ERO
ybdenum
Sporting
assem@@
multiplex@@
element14
Dash@@
Radisson
tocols
Chic
GG@@
limation
ablation
Arequipa
pyrrol@@
langu@@
Bratislava
TIRE
Karlsruhe
ý
polyvinyl
dyeing
Sole
WAL@@
Expedia
orm
chloroform
Ñ@@
adminton
Bic@@
Smiling
Nanjing
Shropshire
Mich@@
relax@@
Fancy
0000,@@
expandable
IP68
Qing@@
APC
stopper
Kus@@
sq@@
322
opard
inny
gee
EXPRESS
Lamb@@
Zamora
piping
oia
3XL
Bedside
Furnished
ONIC
AVE
osmosis
Mermaid
above-@@
Environ@@
rico
SUN
Mini@@
addi@@
02-@@
Addi@@
iso
conventionally
Zhong@@
yside
Realistic
preserv@@
VL
ather
bana
centrifugation
conve@@
Navigator
URA
Yucat@@
Xfinity
mp
periph@@
Attachments
VT
Qo@@
WT
SLI@@
-ro@@
Tub
Reservoir
Shilling
Meridi@@
mega
Cancel
JAPAN
Este
mucos@@
wig@@
Alam@@
NISSAN
ANS
sapph@@
FUN@@
k-in
Macro
west@@
ionized
Spotlight
retard@@
Cone
Nearest
hopper
264
Themes
Info@@
CITRO@@
Philip@@
acel@@
Dover
Apol@@
pallet
FRA
.de
Automobiles
LIZ@@
EXECUTIVE
Champagne-@@
Esc@@
yarns
IAL
-20
attle
opol
favor@@
solarium
Azul
Positioning
Gare
Adjust@@
spea@@
FIC@@
Mush@@
stair@@
Farms
234
GUE@@
ND@@
960
mult@@
edings
tige
formity
570
Snowboard
Furn@@
TERS
ADC
SCH
ignan
Wiltshire
Spor@@
uxe
ongside
Jardim
Grinder
CH2@@
Seafood
mt@@
Glove
motherboard
Chains
TSI
Bi
Loading
Air-@@
Solder
스@@
bezel
Muse@@
lass
Mata
Andalucía
PACK
Mice
2Pcs
Inser@@
KIRAANASTORE
deg@@
BIT
512@@
Backless
format@@
Trab@@
Analyzer
gage
line-@@
Brushless
2.4GHz
Compan@@
ted@@
Viejo
Shang@@
analogues
505
atsu
crosslinking
ketone
-containing
watercolor
Chinese-English
RADI@@
aru
Fru@@
bration
overl@@
MIDI
Piston
Accor@@
-What
dv@@
actuated
asyl@@
blister
Comuna
MIR@@
rotat@@
brist@@
RJ@@
Partner@@
Qingdao
GF@@
ö
Guern@@
mises
107@@
di-@@
sam
Eber@@
Boho
RS232
WIF@@
Atmosphere
Handel
Bundles
KV
Guad@@
Mercure
Jigsaw
Shut
Tb@@
Reinfor@@
KIT@@
Bü@@
TCDD
007
602
dong
Wedge
Smar@@
veira
iw@@
METHOD
Puente
mah@@
acoin
Espa@@
waveform
Frames
Mont-@@
Navig@@
rocodile
Norman@@
3m
Carbide
VES
Neck@@
Interpre@@
amino@@
Dorado
Afgh@@
caff@@
wav@@
diethyl
gorod
lubric@@
alkylene
plier
surance
Fixture
Blan@@
Parma
git
PCT
Finished
Holes
xt
D3@@
Greyhound
urs@@
Quil@@
fen
Porcelain
Responded
Quattro
Sandwich
equipments
VOL@@
ach-@@
Snack
Thickness
york
820
amorph@@
Brin@@
knitting
Excuse
Sep
onte
Frequ@@
Taxis
Vespa
HM
Wheat
scap@@
CO3
microorganism
Boasting
Eaton
Sarat@@
Disarmament
Horiz@@
Figs
offici@@
Schön@@
Drag
piezoelectric
Mango
Duo
Tested
seams
substituents
oprene
Imitation
ITA
TEMP
MW@@
semi
Tiles
μ@@
MICRO@@
Lux
123@@
penthouse
mani
oquia
Purity
lyn
CNY
commod@@
Customize
SX
parsley
shafts
aii
Marmar@@
Santi@@
hydride
Nel@@
DIG@@
restling
Skate@@
Nut
Corrugated
Alignment
Press@@
attri@@
Garland
EH@@
Greeting
TEL
Blank
Meters
ogra@@
Cancún
erne
Sixt
DAS
4V
DMF
Cost@@
linker
Moistur@@
stren@@
Cozy
Almería
bourg
ingen-@@
Mb
Burlington
Anch@@
DST
recir@@
CHO
shrinkage
mov@@
-en-@@
PAD
SCREW
Berlin-@@
FIAT
recr@@
Madr@@
-4
Coaxial
2004-@@
RBS
Plates
Ni
Lido
Plage
MIX
Telescopic
palladium
Sentimente
WAT@@
wetting
oxy-@@
itr@@
point@@
Tubes
Cantabria
pou@@
clust@@
Bois
USB@@
[...]
