</S>
de
,
.
la
en
y
el
que
a
los
del
un
para
las
&quot;
una
se
con
es
por
no
)
(
su
o
más
El
:
al
como
La
lo
-
sus
En
puede
/
ha
sobre
Los
?
son
está
¿
ser
este
e
también
ó
an
ado
pero
ar
si
entre
años
esta
ados
fue
ada
tiene
dos
pueden
todo
ando
Las
in@@
cuando
desde
1
han
sin
tiempo
le
personas
parte
mundo
todos
No
&apos;
A
;
durante
están
Por
...
era
muy
vida
Si
re@@
Estados
&#124;
antes
2
ya
hacer
otros
forma
vez
%
dijo
información
cada
adas
uno
s
Es
amos
hasta
hay
&gt;
aron
De
año
Unidos
Para
des@@
as
»
-@@
Se
3
nos
tu
gran
datos
menos
sistema
me
día
Y
así
te
después
lugar
mejor
«
trabajo
través
S@@
mi
mismo
sido
os
cualquier
s@@
agua
donde
uso
!
tanto
manera
4
tienen
5
debe
A@@
ación
mayor
ejemplo
nuevo
contra
10
Un
solo
qué
arse
estos
ará
ante
tener
esto
sólo
Una
estado
N@@
ES
ciudad
Pero
K@@
porque
otras
todas
Este
M@@
G@@
embargo
T@@
millones
tipo
nuestra
D@@
hace
›
productos
R@@
H@@
bien
país
sea
usted
i
B@@
nuestro
importante
desarrollo
servicios
–
cuenta
P@@
en@@
ahora
seguridad
tres
F@@
L@@
er
hecho
ía
&#93;
&#91;
primera
E@@
al@@
Dios
tan
Sin
niños
mucho
otro
ver
países
acuerdo
estar
mujeres
aba
cómo
ese
caso
t@@
ellos
posible
primer
muchos
momento
calidad
an@@
C@@
¡
alta
b@@
ador
había
V@@
nuestros
n@@
6
i@@
Esta
nivel
r@@
h@@
proceso
días
siempre
bajo
Cuando
precio
eso
d@@
o@@
O@@
les
él
mientras
algo
otra
nueva
También
C
salud
según
hacia
adores
di@@
e@@
u
línea
p@@
estas
a@@
on
19@@
k@@
dentro
Además
W@@
diferentes
cerca
Con
casa
medio
persona
t
J@@
Esto
general
número
equipo
algunos
grupo
m@@
gente
7
ar@@
l@@
da
principal
cuerpo
8
control
20
at@@
aciones
f@@
g@@
podría
historia
aire
cosas
servicio
Al
y@@
viaje
er@@
veces
mayoría
v@@
incluso
ales
hoy
ina
energía
per@@
estaba
es@@
am@@
esa
largo
base
web
poder
ac@@
fueron
Como
I@@
nombre
Re@@
ofrece
problemas
poco
tratamiento
será
ad@@
mercado
fin
sino
hombre
im@@
12
30
China
su@@
gobierno
programa
cantidad
co@@
é
sitio
investigación
nosotros
grandes
toda
estudio
c@@
ex@@
z@@
on@@
cambio
presente
ella
muchas
derechos
aquí
deben
to
decir
centro
Nueva
cual
ir
empresas
n
ano
encuentra
mejores
dice
producto
Su
punto
mediante
or@@
arán
miembros
acceso
as@@
m
ni
luz
in
15
u@@
valor
plazo
ch@@
ían
resultados
empresa
ayuda
experiencia
capacidad
Qué
tal
familia
producción
ido
d
emos
hombres
able
diseño
ley
personal
&amp;
clientes
tecnología
relación
algunas
libre
+
oso
ón
pasado
San
debido
fuera
sí
ti@@
Cómo
DE
100
el@@
9
horas
$
ci@@
objetivo
B
permite
muestra
encontrar
riesgo
Z@@
nunca
ente
yo
proyecto
de@@
final
va
casi
presidente
misma
50
ab@@
con@@
j@@
derecho
par@@
x
Hay
alto
condiciones
haber
venta
pre@@
cuatro
ayudar
dinero
edad
juego
política
internacional
Y@@
alrededor
Lo
lado
Hotel
it@@
Estado
ing
unos
ero
dispositivo
modo
obtener
red
I
usuarios
aplicación
est@@
meses
com@@
U@@
crecimiento
aún
km
entonces
zona
humanos
tr@@
anos
aban
nuevos
serie
varios
nada
Europa
or
ap@@
ana
crear
ent@@
arte
do
problema
partes
et@@
amente
principales
mujer
si@@
entes
llegar
acerca
actividades
ones
mejorar
sistemas
atención
—
medida
nuevas
osa
coche
casos
ol@@
semana
futuro
presión
papel
minutos
total
ir@@
Hoteles
il@@
resultado
color
encia
usar
grande
aproximadamente
medios
S
4@@
11
compañía
k
ta
Más
material
Después
P
aunque
usuario
sub@@
í@@
guerra
enfermedad
peso
os@@
25
incluye
ven@@
em@@
precios
cinco
lista
g
ida
w@@
especialmente
ur@@
contenido
2018
buena
eran
tomar
st@@
significa
3@@
pro@@
ciudades
artículo
vi@@
social
menudo
In@@
puedes
Todos
5@@
18@@
24
D
T
espacio
invención
apoyo
án
ag@@
The
tus
noche
un@@
paso
fácil
industria
dar
protección
región
siendo
Con@@
página
necesario
l
í
España
posición
he
inter@@
2@@
Al@@
luego
realmente
ara
utilizar
segundo
pacientes
tales
incluyendo
área
ello
nuestras
h
campo
cabo
niveles
hemos
situación
Universidad
is@@
estamos
muerte
pantalla
últimos
actividad
aría
ciones
respecto
M
grupos
partir
O
ver@@
comunidad
amiento
realidad
podemos
ia
b
respuesta
público
estudiantes
V
bi@@
recursos
us@@
6@@
mundial
14
40
corto
2017
ruta
acción
tamaño
éxito
Traducción
18
superior
imagen
células
vista
mantener
L
ciento
York
corazón
ob@@
.@@
efecto
ó@@
inglés
junto
16
contacto
nacional
adora
mes
cu@@
México
piel
quien
ot@@
ul@@
real
om@@
temperatura
medidas
ec@@
amor
cambios
siguiente
idos
sociales
efectos
aria
alimentos
Ar@@
solución
varias
id@@
Internet
7@@
tenemos
además
Ahora
fuerza
interés
X@@
cont@@
ri@@
prueba
trata
organización
camino
sociedad
importantes
mano
ables
Desde
dirección
población
música
°
8@@
arlo
particular
reducir
io
tierra
*
tenía
mar
único
c
Me
período
especial
r
Así
realizar
película
hotel
palabras
igual
osos
ías
estilo
informe
dólares
educación
construcción
tipos
eros
endo
X
utiliza
gestión
natural
13
difícil
br@@
seguro
función
cercanos
modelo
comunicación
almente
formas
Reino
E
pueda
todavía
gas
cáncer
oportunidad
trabajar
ningún
x@@
Durante
ninguna
superficie
segunda
ic@@
qu@@
Ch@@
‘
actual
Estos
simplemente
sangre
aumento
Aunque
frente
Nacional
Comisión
N
of
anti@@
arios
interior
hizo
incluyen
siglo
análisis
verdad
naturaleza
alquiler
velocidad
común
9@@
propiedad
p
fuerte
ario
saber
siguientes
clave
ro@@
pueblo
​
movimiento
ambiente
ista
haya
é@@
sentido
car@@
op@@
estudios
hora
Según
dis@@
necesita
programas
médico
idea
tos
ica
parece
evitar
ant@@
negocio
Francia
cambiar
alguien
le@@
pesar
esos
fuente
sector
último
ores
necesidad
aplicaciones
R
Consejo
Alemania
necesidades
única
Gran
Internacional
acciones
distancia
amigos
conjunto
transporte
proyectos
mis
end@@
completo
hoteles
cre@@
políticas
ten@@
niño
Él
sigue
hijos
dicho
li@@
última
lugares
clase
organizaciones
Diccionario
idad
ción
mi@@
economía
imos
sal@@
alguna
marca
unidad
F
haciendo
elementos
jóvenes
global
Mundial
17
plan
seguir
disponible
propia
libro
aquellos
disponibles
dolor
Centro
conexión
proporcionar
Israel
similar
áreas
imágenes
van
América
negocios
idas
quiere
hijo
miembro
contiene
términos
a-@@
puntos
propio
unas
mapa
osas
pequeño
An@@
60
Unido
materiales
icos
oc@@
super@@
enfermedades
eron
internacionales
ino
W
paz
ora
categoría
conocimiento
tarde
método
ismo
versión
Rusia
directamente
Mar@@
teléfono
características
relaciones
razón
Unión
ico
buen
llevar
cliente
alojamiento
frecuencia
mos
2016
principios
UE
Puede
sean
proporciona
local
hacen
software
aceite
estructura
mm
mí
Trump
diccionario
negro
anterior
sería
pi@@
Collins
similares
consumo
Tr@@
carga
am
á
búsqueda
mismos
causa
rápido
22
padres
Iglesia
Cada
cuales
decisión
ita
juegos
eo
baja
madre
seis
diferencia
estoy
acero
entrada
tras
humano
blanco
ti
animales
Di@@
esas
ve
fondo
af@@
formación
podrían
Yo
diferente
tas
Com@@
Google
dado
man@@
locales
cocina
21
2015
man
libertad
salida
cor@@
TV
res@@
County
G
comprar
Naciones
dispositivos
2019
ni@@
aremos
500
ed
suficiente
motor
semanas
demasiado
hogar
escuela
primeros
na
pérdida
septiembre
fecha
and
demás
palabra
Jesús
General
conocido
Gobierno
us
padre
LED
práctica
ed@@
gu@@
habían
beneficios
tema
presencia
electrónico
Predicción
tienes
at
diciembre
operaciones
impacto
principio
rendimiento
opción
estaban
continuación
anas
visión
ología
completamente
Co@@
19
gr@@
tren
creación
junio
redes
pequeña
director
completa
cultura
Unidas
á@@
aumentar
mar@@
existe
ito
mil
debería
primero
capital
algún
pruebas
octubre
od@@
Nuevo
De@@
gratis
tivo
Usted
Tierra
procedimiento
ga
coches
Br@@
administración
ari@@
estadounidense
mente
opciones
hablar
1@@
av@@
pr@@
autoridades
Europea
et
máquina
cabeza
eres
•
Estas
comercial
Inicio
cosa
Del
enta
falta
desarrollar
equipos
poner
o-@@
valores
z
soluciones
10@@
profesional
orden
is
ad
costo
herramientas
favor
En@@
funciones
enero
noviembre
cámara
pública
mezcla
central
digital
original
combustible
objetivos
cas@@
dio
trabajadores
puedan
Norte
K
verano
usa
puedo
oro
menor
kilómetros
eta
mayores
alidad
inos
ate
ut@@
mensaje
visto
referencia
eg@@
importancia
Casa
eras
tratar
procesos
documento
marzo
fuerzas
gracias
az@@
carrera
fr@@
Todo
estación
posibilidad
pl@@
serán
vivir
encuentran
allí
das
relacionados
ato
istas
madera
investigadores
amplia
síntomas
elemento
sitios
baño
90
llamado
profesionales
confianza
manos
Q@@
humana
requiere
estadounidenses
ter@@
vehículo
80
ers
vacaciones
capaz
Car@@
realización
julio
tiva
utilizado
mayo
2014
aje
modelos
situado
flujo
aeropuerto
Mientras
espera
Información
mat@@
proveedores
objeto
sent@@
200
compromiso
inas
qui@@
cal@@
ativa
conocer
crisis
icas
comida
violencia
go
tenido
variedad
inversión
texto
metros
comercio
responsabilidad
ácido
ojos
ás
fe
fi@@
der@@
Des@@
og@@
español
armas
móvil
deci@@
mal
and@@
Par@@
Cor@@
miles
cree
doble
LA
recibir
hacerlo
grado
Sh@@
bueno
lograr
ona
Alquiler
cualquiera
sección
Italia
ser@@
factores
0@@
familias
proteger
resistencia
estados
Hoy
val@@
rápidamente
0
esté
ine
Categoría
23
pie
pago
generalmente
claro
pequeños
sabe
Página
ellas
marco
ambos
garantizar
estás
memoria
sur
correo
archivo
rec@@
tráfico
temporada
70
bastante
operación
habitaciones
Otras
ata
usando
exterior
policía
capa
allá
ubicación
Mi
decisiones
puesto
St@@
lucha
propiedades
tuvo
iendo
ali@@
esfuerzos
componentes
tar
Fue
misión
Su@@
po@@
pas@@
líder
28
nacionales
ma
plataforma
Algunos
20@@
privado
tarjeta
resto
compra
abril
médicos
cm
métodos
mañana
26
ay@@
tendrá
cl@@
pasar
comenzó
her@@
ingresos
sol@@
Señor
compuesto
tica
participación
enfoque
mas
fines
tu@@
empleados
trans@@
utilizando
India
piezas
creo
bl@@
oferta
paciente
col@@
lleva
generación
Venta
pe@@
calor
económico
curso
mon@@
ería
útil
principalmente
arias
ciencia
comparación
puerta
personales
República
técnica
ura
vol@@
2013
Descargar
zonas
estrellas
comerciales
cierto
costos
líderes
determinar
figura
batería
2012
ev@@
mitad
cuanto
nadie
000
Cristo
ativo
17@@
v
soporte
ofrecer
Es@@
Per@@
1.@@
ah@@
origen
medicamentos
Le
tenga
Le@@
ne@@
responsable
35
Japón
H
leyes
Ciudad
_
aprender
hu@@
of@@
ol
iz@@
herramienta
cuidado
II
banda
obra
duración
compañías
estr@@
código
guía
Sur
entorno
norte
larga
simple
cerebro
artículos
normas
2010
estándar
evento
materia
eventos
manual
Santa
planta
activos
adicional
almacenamiento
toma
llamada
arlos
plantas
Ver
carretera
Departamento
estrategia
definición
California
registro
dejar
pequeñas
oportunidades
Londres
supuesto
min@@
comprende
reunión
oficial
tengo
término
ciudadanos
potencial
quienes
ig@@
joven
azul
caliente
demanda
vidas
naturales
instrucciones
sol
científicos
ml
ang@@
representa
comunidades
febrero
gen@@
mercados
ex
tasa
ena
ra
etapa
probablemente
par
expertos
sa
señal
ideas
ak@@
ing@@
económica
pu@@
fotos
Ad@@
necesitan
15@@
alización
fácilmente
Gr@@
reacción
cat@@
gan@@
16@@
prácticas
alismo
arnos
contr@@
combinación
iglesia
mo
máximo
tecnologías
2020
física
bar@@
actualmente
fuentes
probable
gratuita
podrá
tir@@
Estamos
Puerto
popular
Android
playa
US
ataque
partido
agosto
rápida
vehículos
instituciones
sta
gama
dad
cadena
pres@@
27
ejercicio
arr@@
colores
evaluación
ropa
África
2009
2011
totalmente
cuestión
media
lo@@
Servicios
mo@@
sueño
pared
década
U
normal
técnicas
Comité
Mon@@
utilizan
Seguridad
comunes
PC
dan
RE@@
detalles
oficina
cumplir
um@@
finales
requisitos
Eso
campaña
f
ama
clic
.com
Bar@@
pensar
can@@
íamos
buscar
jardín
w
dosis
ventas
tor@@
ares
cara
refiere
botón
mejora
documentos
líneas
du@@
Ro@@
31
pregunta
composición
aj@@
inform@@
archivos
ento
Presidente
siete
habilidades
militar
comenzar
mal@@
Canadá
medi@@
aspectos
reducción
establecer
icamente
edificio
potencia
inferior
to@@
adultos
habitación
fase
funcionamiento
desea
arla
El@@
trabajando
elegir
Vuelos
temas
planeta
carbono
CI@@
adicionales
preguntas
3D
esti@@
encias
ation
co
pa@@
Facebook
esper@@
John
promedio
voz
e-@@
gusta
2008
pocos
dieta
12@@
construir
ble
instalaciones
sinónimos
moda
ton
riesgos
ándose
juntos
adecuado
bebé
Salud
anteriormente
televisión
ios
produce
isla
autobús
Ac@@
dr@@
sexual
visita
AC@@
acondicionado
eliminar
libros
Entonces
pronto
crédito
producir
Washington
escala
conseguir
cooperación
Man@@
Mejor
pens@@
resolución
dej@@
vino
vistas
fondos
cable
cama
verde
presenta
múltiples
Am@@
Pr@@
solar
intereses
soy
New
és
exposición
USB
tri@@
traducción
justicia
Est@@
Ya
Precio
quiero
asistencia
za
entender
00
autor
ah
cia
ech@@
virus
hab@@
#
cio
Negro
tico
anual
volver
32
nación
comportamiento
incluir
én@@
propósito
viol@@
Otros
barato
Bo@@
agentes
aci@@
jugar
expresión
pagar
millas
vía
esfuerzo
distribución
tivos
Servicio
entos
inicio
alcanzar
Pi@@
29
condición
viene
somos
caja
Grupo
cubierta
compartir
Mc@@
300
conocida
arle
anteriores
Brasil
Nos
Creo
pon@@
disfrutar
Que
form@@
razones
ár@@
the
compr@@
haga
mantenimiento
atr@@
destino
se@@
tom@@
unidades
procedimientos
sab@@
suelo
reciente
participantes
título
Tiempo
comunicado
activo
Uno
no@@
cion@@
ov@@
Ab@@
ganar
aprendizaje
Ella
líquido
um
ér@@
altos
Sus
restaurantes
arme
llam@@
Ley
fabricantes
agente
prot@@
ataques
has
etc.
45
duda
vuelos
empleo
te@@
especiales
ka
Farmacias
controlar
centros
sola
próximo
independiente
Aquí
vas
transmisión
jugadores
muestran
abierto
planes
fabricación
edi@@
ve@@
concepto
Mo@@
permitir
Entre
Gu@@
neg@@
posibles
llegada
ofrecen
médica
volumen
Nuestra
lujo
debajo
Antes
Or@@
seres
.000
solicitud
acion
extremo
ai
2000
suministro
películas
quieren
den
instalación
ment@@
Guerra
promover
avi@@
contrario
video
EE.UU.
selección
Museo
alista
viajes
48
Li@@
adelante
sala
excelente
diez
considera
plástico
podía
pag@@
Ex@@
IN@@
14@@
corte
metal
Aeropuerto
adoras
miedo
Australia
comer
prensa
Muchos
ancia
fl@@
ocho
obras
Windows
Asia
2007
Qu@@
cargo
asegurar
eléctrica
Desarrollo
realiza
daño
Te
Dr.
alimentación
legal
objetos
cul@@
noticias
direcciones
dónde
Col@@
Se@@
ización
escuelas
AR@@
for@@
ud@@
llama
elección
izar
colaboración
ej@@
Descripción
AS@@
invierno
cr@@
paquete
declaración
París
idades
reivindicación
relacionadas
regiones
Está
quién
dicen
tiempos
ideal
tenían
consumidores
Estoy
tienda
rey
género
recientemente
iza
so@@
der
mínimo
debemos
vuelo
aspecto
Coche
compuestos
opinión
tiendo
pasos
esp@@
ge@@
gener@@
ín
asi@@
alcance
ea
etc
tivas
clima
existen
tem@@
belleza
pasa
humanidad
itas
liber@@
online
ventana
tado
contexto
comentarios
evolución
gobiernos
evidencia
so
solamente
basado
polvo
proveedor
entrega
Debido
escuch@@
vamos
extr@@
hi@@
innovación
civil
político
diversos
particularmente
convirtió
detrás
bu@@
inteligente
amigo
aut@@
enc@@
agr@@
ES@@
impresión
aluminio
casas
Irán
Sólo
jefe
incluidos
últimas
Juan
enlace
víctimas
Th@@
creado
ef@@
seguros
CO@@
mucha
fabricante
conciencia
defensa
políticos
eri@@
diseñado
hon@@
inc@@
Madrid
Barcelona
Nuestro
indica
WiFi
Corea
pues
informes
actuales
ustedes
2.@@
permiten
salir
baratos
servidor
busca
Be@@
adecuada
mostrar
ete
Apple
ey
marcas
13@@
irá
tejido
Ma@@
descargar
tú
entr@@
esperanza
finalmente
rojo
funciona
radio
amenaza
dicha
ll@@
illa
Instituto
competencia
mor@@
trabaj@@
eficaz
pulgadas
Juegos
cultural
salv@@
justo
eléctrico
propios
2006
ear
ahí
Sch@@
Sal@@
Nombre
especies
sostenible
Cal@@
comprender
®
Productos
stas
ne
etas
viven
conoce
adi@@
consecuencia
soci@@
contrato
ast@@
segura
termin@@
ati@@
fic@@
formar
publicado
fu@@
dec@@
me@@
adamente
ner
Son
experiencias
estará
ministro
auto@@
convertido
sé
garantía
entemente
establecimiento
Cl@@
ejemplos
participar
usan
sede
ke
aran
prevenir
acceder
constante
buscando
desarrollado
conflicto
ens@@
Todas
itos
AL@@
ativas
diversas
enci@@
Sí
esperar
ep@@
cons@@
ja
esencial
au
directo
café
30@@
art@@
carácter
recuperación
comienza
gar@@
vivo
Inter@@
au@@
Bi@@
rom@@
abajo
lejos
pir@@
vidrio
ha@@
cielo
capaces
jugador
pies
fundamental
Sab@@
vuelta
fuego
siguen
tradicional
piscina
eficiencia
francés
necesaria
ay
ca
encima
mol@@
€
específicos
reserva
calle
convertirse
Cu@@
Samsung
pregunt@@
financiera
directa
Cre@@
inoxidable
Imprimir
avión
AN@@
elo
existencia
2005
inteligencia
Ha
ofertas
sobre@@
identificar
Incluso
cuero
ca@@
cuentas
encontrado
señales
Her@@
móviles
Vi@@
ayud@@
David
ciclo
son@@
eje
configuración
quieres
Ã
aqu@@
corriente
estén
50@@
hechos
Ministerio
qued@@
Gracias
industrial
mu@@
zar
escrito
fin@@
presupuesto
by
identidad
rel@@
campos
36
próximos
disco
leer
Ver@@
bo@@
ber@@
familiar
río
75
As@@
int@@
escribió
mensajes
³
privada
impuestos
Programa
tercer
resolver
Fr@@
bienes
causar
llev@@
disposición
Inglés
climático
época
ang
perder
tur@@
diario
populares
visitar
militares
depende
siones
drogas
canal
mesa
territorio
Mujer
ori@@
Em@@
colección
fil@@
elecciones
eno
petróleo
sis
décadas
DE@@
ejército
il
individuales
He
quería
mg
pol@@
entrar
cer@@
páginas
incluido
Web
Costa
puerto
antiguo
di
huéspedes
pieza
ard
City
restaurante
realizado
Medio
1,@@
reglas
longitud
mental
Honda
presentar
ñ@@
Si@@
autoridad
llevó
peligro
carta
Artículo
bar
Pro@@
400
influencia
próxima
funcionarios
formulario
habla
señaló
encontr@@
perfil
ill@@
nombres
Congreso
sesión
Oficina
familiares
estrés
sur@@
use
cientos
necesarios
Microsoft
fibra
ión
Tenemos
EL
men@@
pelo
agregó
Central
ie
marketing
Siempre
Park
Sistema
ven
complejo
1-@@
activa
multi@@
Organización
mer@@
fábrica
envío
menores
ai@@
Derechos
erse
profesor
aumenta
bol@@
navegador
describe
bienestar
ice
ú@@
ciertos
ite
teoría
00@@
régimen
propias
AM@@
costa
Sr.
tatuajes
privacidad
buenas
clases
espíritu
limpieza
Pre@@
lin@@
emergencia
24@@
neur@@
portátil
visitantes
dieron
ética
foto
cost@@
alcohol
bancos
deseo
edición
TI@@
pueblos
asegur@@
pel@@
amientos
Po@@
enviar
tubo
apoyar
perro
eles
creciente
sonido
met@@
carne
seguimiento
tores
aguas
fer@@
abilidad
Día
cri@@
azúcar
Hemos
altura
dijeron
inmediatamente
ba
cuestiones
Banco
ho@@
periodo
one
irse
sión
ticas
vídeo
IS@@
acto
ren@@
Luego
Cámara
sh@@
34
llegó
centr@@
demostrado
cirugía
oma
inicial
terapia
Lu@@
procesamiento
lleg@@
error
preparación
ch
ter
Siria
aplicar
apr@@
Turquía
0.@@
tarea
Francisco
edificios
ático
sin@@
Sinónimos
Tiene
componente
normalmente
contienen
promoción
parque
uc@@
provincia
4.@@
duro
izquierda
ticos
cabello
concentración
trat@@
ER@@
ONU
verdadero
pone
financieros
dominio
consecuencias
arriba
por@@
ias
US@@
cuarto
post@@
diabetes
masa
basada
placa
gl@@
ler
Roma
Ellos
EN@@
panel
destru@@
he@@
pat@@
convierte
Pl@@
Cr@@
grasa
cuyo
lu@@
Me@@
esenciales
internet
obstante
abierta
transferencia
infección
=
Ti@@
reconocimiento
ciertas
matrimonio
tió
encontró
Cuba
Mal@@
máxima
Navidad
factor
def@@
eb@@
don@@
pobreza
aré
terceros
atos
200@@
recibido
3.@@
mir@@
sexo
arm@@
2004
conserv@@
Guía
cur@@
consiste
65
asociación
explica
Te@@
2-@@
33
tareas
tiendas
infraestructura
primeras
significado
enorme
entrenamiento
escribir
físico
conocimientos
SI@@
sal
No@@
perfecto
55
án@@
do@@
Algunas
mantiene
Colombia
apartamento
ez@@
Texas
hubiera
amento
animal
Dos
audi@@
esposa
plan@@
6.@@
deberían
ug@@
Mujeres
AL
mismas
VI@@
..
cantidades
presentación
contactos
conocidos
OS
tengan
propuesta
Europeo
podrán
ox@@
descubr@@
25@@
ela
izado
doc@@
alemán
proteínas
moderna
cursos
respuestas
atrás
exactamente
gar
chino
efectivo
luces
Alta
gastos
ocurre
lar@@
responsables
marcha
derecha
Solo
socios
Hasta
situaciones
Inglaterra
amplio
anza
voy
diagnóstico
2003
comprensión
sion@@
Obama
berg
viajar
individuos
daños
ativos
agencia
AD@@
pareja
Control
enseñ@@
tar@@
relativamente
tido
antigua
bajos
imp@@
oper@@
cumplimiento
exten@@
\
tercera
moderno
ira
ala
lunes
maneras
tra@@
perspectiva
dem@@
lanz@@
fuertes
compar@@
puertas
Aire
ecer
necesarias
inf@@
establecido
públicas
tis
regul@@
95
afirmó
tor
pensamiento
importa
terraza
EN
actualidad
recibió
intercambio
altas
bo
diferencias
HD
arían
siquiera
anc@@
unión
graves
prevención
continuar
act@@
Definición
cuello
42
emisiones
san@@
ón@@
pedido
gráfico
É@@
creen
especie
sabemos
fútbol
Palabras
iPhone
públicos
responder
Muchas
utilización
religión
éis
pena
individual
espiritual
ide@@
ende
horarios
queremos
alizar
38
teniendo
respeto
bomba
añadió
actos
uro
sustancias
LI@@
Nunca
canales
trabajos
posterior
des
DC
lanzamiento
precisión
Asociación
arquitectura
AS
increíble
Ne@@
claramente
integración
generar
conferencia
embarazo
pan@@
cercano
partículas
momentos
bles
declaró
5.@@
cin@@
Un@@
té
alma
vir@@
intención
proteína
viernes
Argentina
Dis@@
So@@
enfrent@@
abogado
stock
fica
universidad
piedra
voluntad
permanente
ID
tradicionales
ale
Oriente
feliz
electrónicos
Hu@@
números
regalo
DI@@
TA
banco
iniciativa
Puedes
preocupación
existentes
cel@@
ase
Santo
universo
batalla
anunció
inspir@@
sen@@
euros
resulta
Tal
aparece
bolsa
grave
oy@@
mil@@
posibilidades
requieren
descripción
conformidad
CE
segu@@
tasas
ion@@
oral
hospital
partidos
Asamblea
comunicaciones
juicio
dientes
Hol@@
comienzo
puestos
circunstancias
Cuál
gustaría
MA
apoy@@
Florida
basa
For@@
considerar
leche
hija
formato
grados
judíos
recientes
técnico
Har@@
pa
saludable
ach@@
descubrir
usado
Mat@@
estrategias
cuya
tratando
ín@@
árbol
verdadera
publicación
ong
abre
Luz
legislación
tendencia
Beach
nacimiento
lenguaje
distintos
37
manten@@
naciones
CA
sectores
afirma
150
ru@@
alm@@
opiniones
Cosas
cine
oci@@
liderazgo
utilizados
perros
anim@@
Fl@@
ind@@
Mapa
APK
italiano
go@@
2001
antónimos
firma
Sol@@
frontera
Mor@@
estudi@@
IP
suficientemente
evaluar
5-@@
trabaja
hará
legales
bas@@
Venezuela
reduce
martes
escri@@
capacidades
habría
Z
vitamina
crea
eficacia
ordenador
diálogo
equilibrio
presentes
cercanas
llega
4-@@
lesiones
Tipo
consider@@
deberá
tic@@
guardar
empezar
IC@@
ambas
extranjero
Estudios
reg@@
Mi@@
ojo
bus@@
llegado
Hab@@
Bl@@
tras@@
medicina
ámbito
artistas
ventaja
ell@@
ye
cios
ent
abrir
deporte
ace
asuntos
hor@@
bicicleta
detección
envi@@
económicos
canción
perman@@
hierro
estabilidad
financiero
estructuras
dig@@
mecanismo
ficación
afecta
continúa
orar
micro@@
revisión
tensión
niñas
examen
rango
específica
límites
Análisis
beneficio
americano
errores
pocas
trabajan
osamente
queda
hielo
reivindicaciones
Porque
ejecución
diciendo
peor
filtro
vacío
Home
revel@@
lámpara
sensación
álbum
Espíritu
gust@@
Club
historias
histórico
Ben@@
oficinas
digitales
accidente
Gal@@
age
vis@@
conoc@@
asociados
We@@
perdido
establece
conven@@
Latina
oficiales
inten@@
44
vive
deuda
SE@@
escuchar
hayan
benefici@@
ema
celular
AP@@
vo
3-@@
publicidad
inversiones
uras
diendo
necesit@@
iones
He@@
hicieron
ola
28@@
averiguar
Diseño
ender
Villa
Puertas
auto
C.
600
María
reloj
eficiente
agrad@@
pagos
investigaciones
ablemente
altamente
lig@@
acional
Era
loc@@
estrella
99
Dirección
eda
AT@@
aplica
Chile
oblig@@
ro
domin@@
cristi@@
regular
premio
ma@@
ak
Parlamento
prim@@
2002
capit@@
Rico
agu@@
universal
democracia
específicas
ventajas
artista
eto
moneda
có@@
revista
licencia
CH@@
sentir
nueve
iluminación
libres
cierre
alternativa
Biblia
dormir
vio
ota
informó
audio
conducir
Juego
MI@@
canciones
expansión
cristianos
mis@@
Parque
idioma
causas
entreg@@
cobertura
ieron
Er@@
olvid@@
Azul
europeos
instrumentos
arles
ADN
TO@@
Figura
interpre@@
asa
clara
OR@@
recibe
algodón
co-@@
th@@
químicos
específico
Ri@@
aparato
Ber@@
Mar
desafíos
gal@@
civiles
Ni@@
gratuito
ce
nuclear
preocup@@
buenos
smo
accesorios
Tras
Cas@@
ensayo
Min@@
all@@
35@@
interesante
pobres
automático
ática
idiomas
ingeniería
vin@@
Ci@@
conductor
pasajeros
culturales
movimientos
liberación
representan
domingo
estándares
LA@@
tes
generales
implica
J
correcto
ces@@
interna
be
aca
miércoles
iv@@
26@@
ac
Quién
luch@@
entas
Can@@
imposible
ker
laboratorio
Padre
cap@@
viajeros
tarjetas
Du@@
Administración
dic@@
únicamente
nube
sensor
pal@@
be@@
máquinas
ritmo
Pas@@
tratamientos
60@@
deportes
laboral
pasó
Tiendas
estuvo
cos@@
límite
ocasiones
ece
Humanos
montaña
actuar
den@@
Im@@
Real
Accesorios
positivo
ruso
gen
pos@@
reci@@
Do@@
ates
saben
seleccionar
Educación
isl@@
facilitar
Hace
64
proporcionan
continua
Go@@
inteligentes
preferiblemente
rá
tabla
pintura
astr@@
plata
acuerdos
LE@@
lan@@
apertura
tro@@
deb@@
entar
secuencia
reales
vuelve
reuniones
ecido
farmacias
apar@@
depresión
40@@
leg@@
Jo@@
tendrán
estudiante
automóvil
pasión
debes
habrá
interfaz
química
Medi@@
sólido
Sobre
Nuestros
extremadamente
motivo
01
tel@@
posiciones
©
dispuesto
computadora
determinado
teléfonos
usados
ayudará
Michael
ich@@
bon@@
transición
Sitio
hermano
estaciones
fórmula
39
Egipto
ubicado
az
7.@@
Partido
infantil
Sa@@
ger
represent@@
vivienda
ducha
cookies
automática
Tri@@
abr@@
ster
erlo
columna
automáticamente
voc@@
muestras
arlas
Color
­
progreso
ao
hol@@
llevado
atac@@
distintas
ue@@
arás
órganos
bur@@
SA
eliminación
patrón
Pe@@
tendencias
electricidad
}
{
tion
bases
oración
UN@@
identificación
regional
flores
diversidad
Acuerdo
Blanco
federal
Alojamiento
ST@@
ajuste
pen@@
ans@@
dando
bor@@
siente
Fundación
dur@@
club
espacios
habitantes
encant@@
Lista
producen
plano
yen
fiscal
Red
logr@@
ganó
VIH
land
organismos
organiz@@
Ubicación
bal@@
Bur@@
ell
Sol
respon@@
ets
contar
económicas
46
sirve
azar
Abogados
ejecutivo
hubo
primavera
ok@@
Director
po
encontrará
preparar
nota
Lo@@
correcta
mod@@
Street
ben
efectiva
aceptar
Kong
cab@@
Hong
enda
acept@@
profundo
refugiados
ajes
residentes
illas
Reglamento
dificultades
jueves
entrevista
José
gobern@@
Pro
significativamente
ez
Q
caída
entado
ocupa
Twitter
deja
lat@@
ónica
anillo
ins@@
Ge@@
cant@@
for
comun@@
contenidos
educ@@
Otro
lectura
brillante
inmediato
representantes
41
encuentro
consciente
itar
ance
report@@
ME@@
alistas
incluida
ard@@
ban@@
capas
Caja
Resultados
planificación
ayudan
Ros@@
barco
hablando
oxígeno
intr@@
cierta
imiento
Ho@@
odi@@
asunto
disposiciones
financiación
boca
siva
reun@@
Código
suave
Conferencia
ki
secreto
TE@@
intento
extranjeros
revolución
atura
eza
válvula
igualdad
0,@@
plana
III
difíciles
LCD
Actualmente
siento
iba
medicamento
ambiental
disponibilidad
dispone
entren@@
dañ@@
cam@@
ético
ío
ax@@
considerado
temperaturas
implementación
hoja
aga
registros
etapas
transform@@
prof@@
puesta
RO@@
migr@@
id
·
World
corta
enseñanza
hermanos
interno
instrumento
fundamentales
construido
pe
específicamente
52
ern@@
8.@@
espacial
62
ford
Blanca
acu@@
Bueno
europeo
americanos
q@@
reconocer
empr@@
aviones
FI@@
James
útiles
añ@@
ponen
ret@@
Escuela
evolu@@
decoración
Asimismo
emp@@
ame
muerto
43
pudo
compras
intervención
porción
genes
alizado
ólogo
Agencia
ense
segundos
anunci@@
Federal
estatal
dependiendo
det@@
parecen
transformación
DA
verse
oría
calles
golpe@@
organismo
contaminación
extensión
ty
sesiones
creer
,000
George
oeste
identific@@
diaria
debate
Tribunal
agencias
árboles
techo
und@@
distrito
oras
MO@@
permitirá
orgull@@
escenario
individuo
irán
detectar
amo
CE@@
bacterias
SO@@
alojamientos
antiguos
cumpl@@
satisfacer
analizar
DEL
indi@@
satélite
pes@@
recuper@@
forman
mala
poli@@
cambi@@
empe@@
Calidad
autor@@
arma
ampliamente
Cualquier
ben@@
estudiar
básicos
ió
tratado
Donald
fluido
kg
estu@@
departamento
correctamente
inar
not@@
murió
usos
27@@
frío
sabes
victoria
explicó
vender
AC
Teléfono
ológico
módulo
Pol@@
Esa
re
probar
amenazas
del@@
dura
abogados
éste
remoto
entidad
Derecho
trato
vestido
celebr@@
buscan
láser
port@@
dese@@
viendo
recién
Fi@@
EEUU
Suiza
Trabajo
dichos
ity
proporcion@@
porcentaje
Ciencias
Tengo
llamadas
sist@@
vieron
fal@@
per
Social
acab@@
recordar
car
Tor@@
actores
escena
tradición
turismo
famoso
formado
piensa
perfecta
mit@@
terreno
crecer
viento
borde
sugiere
Bajo
Val@@
ficar
Hombre
recomienda
profunda
constru@@
aliz@@
Países
AN
Quiero
atas
americana
investig@@
fiesta
At@@
velocidades
Reg@@
120
aprobación
circuito
yendo
recomendaciones
correspondiente
piso
CN@@
Cruz
conflictos
Mejores
sabía
ON@@
división
cristal
SP@@
medición
delante
TR@@
atmósfera
verificar
Ese
AB@@
err@@
Convención
destrucción
sem@@
signific@@
ge
significativa
autores
ER
ólogos
relacionado
cuál
Fondo
adolescentes
manga
unids
hac@@
Baño
salón
gubernamentales
dió
47
diámetro
ambi@@
gui@@
modos
cent@@
eli@@
Tienda
Sp@@
Trans@@
orientación
solicitar
soldados
Hombres
fun@@
800
golf
arro@@
científico
occidental
Bluetooth
índice
ore
Papa
1999
afirm@@
tierras
necesitamos
servir
iniciar
ain
actor
asociado
virtud
Vol@@
anda
sucede
250
Ofertas
viv@@
inyección
fusión
Irlanda
torno
Investigación
residencia
enlaces
conversión
reservas
sábado
tación
Zapatos
past@@
presentan
EC@@
continu@@
millón
hum@@
quer@@
excepto
sac@@
europea
mecanismos
suerte
copia
Mu@@
aco@@
ant
bloque
radiación
cero
sentimientos
descarga
Mag@@
regionales
entidades
personajes
agricultura
Premio
numerosos
infecciones
elegido
etiqueta
atorio
trastornos
9.@@
sexuales
puso
Gestión
oposición
tuvieron
ganado
discu@@
cuerpos
levant@@
empresarial
inmigrantes
constantemente
permanecer
Política
criterios
desayuno
Manual
Net@@
ot
bebidas
66
ici@@
Ob@@
dejó
aquellas
ly
lam@@
present@@
Kar@@
ini
CON@@
justi@@
zo
anti-@@
Justicia
pidió
señala
lados
toneladas
vos
anuncios
TO
én
hacemos
70@@
ack
ere
Traducciones
tampoco
tó
tomó
ológica
característica
ick@@
fac@@
afectar
independencia
productores
necesitas
Nosotros
otoño
Grecia
ur
mas@@
disminución
Tu
inado
pensamientos
Secretario
ub@@
54
honor
integral
Caribe
amor@@
A-@@
Corte
Oferta
uales
Mad@@
observ@@
Rom@@
detalle
expresa
Galaxy
industriales
Bu@@
moral
mini
audiencia
49
luchar
cionado
ville
producido
aw@@
Center
seguido
vemos
vuelto
explorar
autobuses
hojas
estima
discurso
estable
ubicaciones
plataformas
Global
lleno
yó
International
científica
Temperatura
electrónica
involucr@@
calefacción
blanca
categorías
bloqueo
impl@@
receptor
ist@@
supone
limitada
contribuir
obligaciones
aves
abordar
cámaras
tejidos
ingredientes
pasada
ocur@@
Perú
propietario
inici@@
abuso
dormitorio
cargos
terminar
ría
erá
º
remos
-S@@
eter@@
incluidas
80@@
capacitación
Otra
muebles
ansiedad
Ángeles
zado
Parte
vigilancia
IA
calentamiento
Pal@@
venir
eti@@
significativo
colabor@@
iniciativas
positiva
cambia
motores
Bretaña
define
apl@@
muertos
set
dot@@
relacionada
gan
aparecen
Met@@
instalar
museo
llevan
onado
ques
we@@
guard@@
Res@@
85
paredes
limitado
clasificación
sec@@
cambiado
Segunda
Saint-@@
ines
descuento
obten@@
,@@
apenas
Obviamente
hogares
ambientales
institución
riqueza
Mas@@
símbolo
menú
profundidad
House
2,@@
Protección
asegurarse
lengua
flexible
actualización
descrito
diplom@@
expres@@
señor
TI
núcleo
LUCKYDEALS
residuos
humedad
basados
56
ular
Ucrania
atracciones
it
Ropa
dirigido
oscuro
consejos
fot@@
aparición
SU@@
EE
51
eléctricos
utiliz@@
indicó
ade
MA@@
traslad@@
tribunal
Paul
sorpr@@
ton@@
consentimiento
Tom@@
onda
Cálculo
boda
ic
Pablo
rió
ór@@
ensayos
adecuados
signos
Tu@@
automóviles
esco@@
prisión
oj@@
petición
Ap@@
enden
consul@@
respectivamente
rod@@
completar
comunic@@
GB
violación
versiones
Online
Cat@@
To@@
siglos
felicidad
contra@@
niña
hacerse
terrorismo
ts
áticas
Qui@@
aña
autos
utilizada
carreteras
presentó
desafío
aliment@@
puente
ham@@
recorrido
tal@@
ruido
impuls@@
conectado
constituye
prioridad
Bel@@
Dem@@
hermosa
SHOPMY
lider@@
lago
gases
superar
tamente
T-@@
mirar
sujeto
conducción
aya
public@@
bajas
técnicos
inalámbrico
costes
CR@@
recor@@
carreras
superiores
61
omas
Arte
Comprar
poca
existente
financieras
paisaje
respal@@
sustancia
tomado
ángulo
cultivo
siglas
consulta
declaraciones
fundador
presentado
negociaciones
reforma
cuánto
uch@@
raíces
exceso
arena
hom@@
posee
aste
suficientes
exig@@
Ph@@
independientes
Podemos
descubierto
apartamentos
introducción
ponerse
Wal@@
DA@@
localidad
ácidos
6-@@
amar@@
rot@@
emo@@
cuadro
pod@@
sivo
agregar
jug@@
vari@@
vías
iglesias
impermeable
Comunidad
pista
portugués
West
fotografía
pec@@
terminal
hacer@@
100@@
Ju@@
....
consejo
pudiera
rán
art
elegante
Moscú
invent@@
Recuer@@
Estás
ham
corporal
parecer
raza
llena
inmigración
ganancias
quizás
independientemente
emocional
entales
aliza
realizó
pedir
Máquina
prob@@
gran@@
Cuero
coste
mand@@
Deportes
1990
docum@@
aprovechar
Directiva
Gar@@
ine@@
plant@@
anuncio
Robert
priv@@
motivos
aspir@@
63
C-@@
tro
conducta
rob@@
periodistas
CD@@
tida
comparti@@
S-@@
Bitcoin
cobre
ancho
representación
conservación
discriminación
explicar
alumnos
viejo
Mini
Tur@@
Sur@@
alcanz@@
ich
personaje
neumáticos
yeron
til@@
transacciones
salvar
sueños
separación
recepción
unidos
Comercio
alrededores
parámetros
Bal@@
demostrar
lev@@
TE
adición
extiende
británico
densidad
elimin@@
medir
maestro
esc@@
explic@@
may@@
nutrición
declar@@
ual
éticos
bió
m2
célula
proteg@@
ect@@
montaje
ác@@
Pedro
controles
ans
Ru@@
secundaria
industrias
Año
Dónde
Apartamento
figuras
ausencia
inación
nació
53
secundarios
www.@@
une
Bon@@
constitu@@
Sw@@
NO
asesinato
Irak
90@@
básicas
funcionar
posi@@
darle
pesca
Producto
aproximada
enf@@
stein
creó
perci@@
dida
decidió
reino
Sk@@
conexiones
crítica
conversaciones
descubrimiento
vienen
piloto
dispar@@
Soy
ud
conduce
recuperar
edades
vic@@
bola
nieve
sanciones
til
Rojo
actu@@
reconoce
vapor
nucleares
compañeros
previamente
acr@@
estarán
universidades
montañas
deten@@
movilidad
conden@@
lav@@
uci@@
comp@@
Gen@@
asta
Ca@@
desapareci@@
reparación
ks
Á@@
ger@@
dirigida
refer@@
suc@@
ricos
combatir
72
representante
profundamente
etiquetas
propuestas
culpa
Cur@@
decidir
dará
est
Cam@@
suelen
sia
Ir@@
ilo
American
bebés
indígenas
tre@@
barra
visitas
Niños
hambre
globales
1998
Constitución
nov@@
restricciones
ender@@
palestinos
Somos
serio
externa
36@@
avances
muertes
navegación
abandon@@
propietarios
terroristas
ani
artificial
Air
llamar
Super
visual
Playa
afectan
58
escal@@
compatible
oído
Sudáfrica
mundiales
29@@
atribu@@
intent@@
indican
permiso
experto
reciben
cionales
Libre
lar
bio@@
ega
tratados
suspensión
aun
→
izada
intelectual
Río
LO@@
certificado
che
facilit@@
Carolina
38@@
patrones
Bas@@
añadir
consideran
operativo
ves
Co.
apartado
ee
determin@@
clásico
1000
ís@@
Chicago
íes
Sony
Tecnología
cit@@
comedor
disfrut@@
Plan
hiper@@
apropiado
DO
semillas
Sociedad
ruedas
realizaciones
recuerda
dirig@@
Mari@@
reconocido
gris
inflamación
corrupción
PE@@
AR
premios
Pa@@
conclusión
relativa
ash@@
iles
tra
demuestra
inversores
ko
encuesta
predic@@
dimensiones
45@@
ólico
brazo
él@@
emociones
tima
conectar
frutas
bir@@
aprovech@@
adura
Ford
pasando
vel@@
zapatos
mejor@@
Aqu@@
Mont@@
Pacífico
legisl@@
empleado
tomando
influ@@
Mundo
caminar
gue
Datos
malo
endió
ens
habilidad
regreso
adopción
CNSUPPLIER
islas
Finalmente
virtual
controlador
Punto
derr@@
Ste@@
ésta
Inn
jo
patr@@
Jerusalén
part@@
.org
templo
blog
adoptar
aislamiento
ima
alidades
músculos
Pat@@
montón
fenómeno
Group
ten
personalidad
are
dibujos
trastorno
temporal
secretario
a.@@
ible
estatales
al-@@
portavoz
ph@@
Portugal
Star
rosa
regla
enas
confi@@
Fre@@
visible
Ger@@
fortalecer
viaj@@
ini@@
absoluto
Energía
quit@@
aquel
cido
separado
ilegal
sen
ases@@
musulmanes
numerosas
interacción
sch@@
experimentar
manejo
sos
celebración
amenaz@@
Fun@@
ek
acerc@@
prácticamente
Toda
Plaza
arterial
prop@@
morir
ológicos
necesariamente
ero@@
ney
Salvador
amarillo
integridad
Digital
ong@@
eció
Oro
Sub@@
rayos
equivalente
110
cion
manejar
sucedi@@
Junta
temprano
suced@@
GPS
préstamos
unt@@
regulación
hospitales
consumidor
grab@@
circulación
field
PO@@
productividad
potenciales
ecen
bat@@
pan
detener
Mir@@
pul@@
SE
alu@@
modificar
agradable
baj@@
eci@@
excepción
transparente
compartido
dia
Times
luna
vector
conversación
capítulo
eng@@
desgaste
observar
programación
orado
supervivencia
enti@@
ane
tir
ino@@
filosofía
Compre
funcion@@
way
etos
pur@@
previsto
situada
Dr@@
bloque@@
eja
afectados
mejoras
prepar@@
ire
diarias
fronteras
CO
PS
habl@@
lim@@
IP@@
asc@@
suele
entación
Mer@@
meta
BA
om
proporción
cartas
separ@@
expectativas
comerci@@
Bay
atorios
chica
seco
listo
escritorio
Bajos
inst@@
billetes
Sha@@
obligación
solicitudes
uta
toc@@
ocasión
conceptos
orm@@
desempeño
lluvia
dedicado
apunt@@
promet@@
700
actitud
ence
embr@@
her
basadas
administrar
sabor
discapacidad
Rey
Defensa
riendo
Mil@@
201@@
evit@@
Bol@@
hecha
Dado
cobr@@
Academia
mediados
MS
cita
inclu@@
resistente
vital
str@@
pun@@
asiento
Buen
preocupaciones
privadas
atoria
eléctricas
parti@@
gravedad
bloques
servidores
Sam@@
registrado
israelí
CEO
aparecer
ord@@
musical
tidos
intensidad
preparado
iente
publicó
rechaz@@
cru@@
ü@@
ov
utilizamos
incremento
podamos
revis@@
contribución
jamás
supervisión
táctil
hal@@
rig@@
eado
garantiza
dormitorios
pide
Envío
Virginia
ure
dades
AP
conocidas
ale@@
continuo
rico
trimestre
dije
amina
udi@@
pion@@
originales
ocup@@
Festival
breve
BMW
sk@@
Historia
PC@@
labor
tienden
Cap@@
Tam@@
BO@@
futuros
gasto
playas
Paz
aco
ab
generaciones
satisf@@
invertir
abri@@
Verde
result@@
cha
histórica
víctima
Red@@
cos
ps
Agua
compl@@
avanzada
sti@@
llegan
Existen
añade
intentar
proces@@
pérdidas
que@@
ung
refleja
Inc
CU@@
unirse
motiv@@
parcial
vecinos
hermoso
ics
concentr@@
comenzaron
depósito
encar@@
Lin@@
rueda
SC@@
hardware
gira
admi@@
Restaurantes
Equipo
habido
encu@@
iría
aprendi@@
Bor@@
reclam@@
equivoc@@
podrás
adecuadas
ulación
combate
Pres@@
sep@@
áticos
PARA
barrio
pedi@@
elas
ake
ene
nacido
ú
MP@@
San@@
éndose
temprana
BI@@
ago
Tres
37@@
Miami
A.
Ejército
encontraron
paquetes
convertir
sel@@
crimen
tarifas
contratos
habit@@
deberán
realizan
polímero
cuándo
ónico
matar
probabilidad
etes
Vamos
Federación
tam@@
entan
sujetos
X-@@
nuevamente
poblaciones
definir
logrado
ide
RA@@
internos
via
decir@@
falle@@
enemigo
wood
respet@@
apariencia
biendo
57
Kr@@
kit
WE@@
4,@@
interpretación
7-@@
edor
entretenimiento
determinación
Les
Acción
alimentaria
NO@@
Herramientas
minerales
ny
Parcial
alegría
básica
emi@@
Haga
Debe
modernos
clínica
reputación
culp@@
dist@@
lesión
partida
PA
contribu@@
aventura
adquisición
flexibilidad
conforme
calorías
consiguiente
king
sólida
reacciones
United
darse
lit@@
condado
radi@@
Ur@@
visi@@
mac@@
cionar
ejercicios
noticia
fibras
avance
All@@
creando
ides
if@@
obr@@
roja
hígado
ental
rep@@
desarrolla
bre@@
traje
concreto
gel
bil@@
calendario
eas
asegura
tin@@
comodidad
calificación
dejado
raíz
anes
eos
nutrientes
mecánica
evalu@@
llamados
Arabia
Ser@@
1997
dios
AG@@
import@@
diseñada
candidatos
metro
tiv@@
ABS
j
sex@@
Luna
Oc@@
ban
Suecia
uni@@
icono
timos
siguiendo
esperando
síndrome
usarse
har@@
satisfacción
Polonia
eses
lanzó
financi@@
Jesucristo
estadísticas
experiment@@
tab@@
celebrar
podían
encontramos
QUE
acontecimientos
dispuestos
mostró
parecía
Plus
espalda
dichas
normales
Super@@
evidente
cerebral
Golf
biblioteca
Ol@@
amar
frac@@
legí@@
DVD
Ke@@
sion
cuentan
alizados
quiera
Cuáles
humanas
Declaración
teatro
cional
ra@@
Gl@@
cooper@@
Primera
contener
Ban@@
recurso
suma
cinta
vale
trabajado
ayer
Reserva
implementar
PI@@
Islas
genera
perfectamente
Jersey
primaria
aceptable
asoci@@
mantenerse
regresar
EL@@
gir@@
Georgia
permitido
ill
tieron
ál@@
dom@@
amas
Del@@
aniversario
DS
bosques
ow@@
Imágenes
jud@@
conveniente
sienten
Nadie
odo
Hor@@
nu@@
Dic@@
expan@@
alimento
maestros
Berlín
monedas
CA@@
migrantes
pico
ligeramente
enviado
correos
videos
impresionante
em
totalidad
privados
puertos
ick
extra
Lee
republic@@
silencio
48@@
edores
diseños
odio
11@@
izados
lateral
Hi@@
Acero
osidad
posiblemente
integrado
ampliar
enos
intervalo
rum@@
carbón
Abiertas
podido
interesados
toman
Cocina
sociedades
Isla
bosque
conf@@
impulso
Don@@
Autor
hici@@
Zona
alizada
Toyota
hidrógeno
ami@@
Martin
burg
mueva
entero
ariamente
hipot@@
Top
posteriormente
complejos
afect@@
Cambiar
ecía
manuales
talento
actúa
var@@
exclusivamente
retir@@
aceleración
químicas
diseñados
rol
rica
religiosa
aza
composiciones
trasera
Radio
oles
trenes
precedentes
secciones
prest@@
1996
china
tropas
cogni@@
relevantes
ninguno
Zelanda
accidentes
Amazon
Vector
dica
Ram@@
mic@@
conqui@@
sencillo
Mur@@
préstamo
s-@@
Palabra
anticuerpos
bot@@
RI@@
ticamente
apreci@@
examin@@
CIA
IC
Carlos
turistas
plenamente
saludables
hi
ign@@
Media
norma
Informe
Universal
inv@@
caus@@
afili@@
omo
Ev@@
eria
inglés-italiano
Noticias
retos
bra
futuras
Material
gn@@
ber
visit@@
organizar
ignor@@
ae
Antonio
juez
consultar
ámico
sensibilidad
tela
continente
sensores
Puedo
Huawei
cubrir
Occidental
5,@@
llevará
ocurrir
recib@@
dada
poderes
bienvenida
th
AI@@
blancos
tora
Relojes
2.0
68
ili@@
enemigos
National
Tatuadores
enso
Hospital
tan@@
alternativas
patrimonio
icar
cumple
coordinación
mandato
operadores
eleg@@
mostrado
alej@@
regres@@
minuto
museos
pH
gráficos
ff@@
ocurrió
1995
digo
pertenece
Panamá
P-@@
King
Asuntos
Mah@@
Tienes
ical
PP@@
ológicas
judicial
Afganistán
98
ins
llamó
ote
bordo
Mel@@
Ham@@
ingreso
razonable
sufrimiento
Pod@@
beber
incidente
arque@@
Partes
perten@@
regularmente
detallada
control@@
exportaciones
idi@@
alguno
quil@@
bir
prome@@
externo
actualizaciones
SD
red@@
simples
rit@@
determina
ición
impuesto
Alto
órdenes
Ltd
tanque
bio
enses
NE@@
enfrentan
lanzado
fall@@
La@@
ion
potencialmente
traer
energética
Acceso
Is@@
discusión
ám@@
pos
produjo
lavado
azo
párrafo
terminó
sustitu@@
aciÃ
Plan@@
well
Basado
certificación
Sim@@
tidas
che@@
UC@@
infancia
entra
Peter
acionales
vers@@
realiz@@
Mac@@
mur@@
engañ@@
ofrecemos
vigor
IV
3,@@
israelíes
vistazo
Cons@@
sky
Reloj
ahorro
realizada
socio
timo
rutas
gi@@
océano
agujero
Fu@@
captur@@
básico
plena
Exteriores
ings
funcional
mel@@
fumar
SS
fomentar
Austria
expl@@
Leg@@
instal@@
Marina
Vista
sufren
hermana
títulos
físicas
yente
utilizarse
culturas
alla
ling
impulsar
8-@@
estableció
avanzar
sodio
flu@@
1994
Pon@@
prestaciones
conscientes
aline@@
limit@@
estancia
pescado
Ejemplo
EX@@
cien
escolar
Hijo
crítico
vicepresidente
previa
acompañ@@
cir@@
instancia
vacuna
listas
XX
sostenibilidad
conductores
Wi@@
Ed@@
comentó
Santiago
golpe
pensando
funcionan
drá
acepta
Proyecto
dinámica
disminuir
ary
terminado
aumentado
2021
ros@@
HO@@
absolutamente
apk
Copa
períodos
decidido
ventanas
marc@@
mont@@
cort@@
explotación
Gi@@
vent@@
cifras
botella
conocen
entradas
paneles
verá
Ministro
adapt@@
abor@@
acredi@@
Wi-Fi
Tar@@
apoya
causado
resumen
cómodo
junta
CON
cuán@@
Pen@@
frecuentes
alter@@
anismo
Tratado
izo
genética
cerrar
conmigo
ou
antos
ficado
vivi@@
Air@@
espejo
bendi@@
lente
físicos
sever@@
fiscales
ego
transport@@
hall@@
transmitir
antiguas
integr@@
Cha@@
negra
brind@@
jugando
ps@@
LOS
derivados
tono
aparcamiento
comúnmente
Rutas
conectados
crímenes
mos@@
hidro@@
economías
indicadores
yn@@
imientos
centrales
famosa
gado
Fotos
verdaderamente
ciencias
pose@@
empez@@
bebida
vertical
Estación
Sand@@
dulce
grasas
Kit
abord@@
S.@@
enfrenta
ö@@
NASA
Listado
centra
fisi@@
federales
otorg@@
volvió
tendría
ografía
positivos
Han@@
F-@@
decía
up
quem@@
provocar
adquirir
obtenido
placer
corresponde
ualidad
éramos
mina
sustancialmente
bre
Rosa
creemos
min
ístico
convertir@@
ave
Grand
bus
Thomas
personalizado
fortal@@
6,@@
vuestr@@
salvo
anto
Rica
permita
rse
aliados
Ta@@
preguntó
tada
fases
TRUEHEALTH
relacion@@
creencias
DO@@
log@@
fotografías
Ag@@
particulares
don
discre@@
violaciones
má@@
On@@
óptica
ólicos
gracia
ome
colesterol
ial
Mus@@
signo
únicos
poderoso
mascotas
correspondientes
sugieren
st
superficies
&lt;
metales
les@@
potente
Número
grafía
intensi@@
32@@
encontrados
cubre
cuid@@
Luis
chinos
usó
ofen@@
diver@@
gestionar
produc@@
reducido
peces
transparencia
poniendo
empezó
ight
Tamaño
ística
muscular
urbano
relevante
huevos
parejas
recipiente
firme
árabe
baterías
Win@@
NI@@
mientos
autorización
artes
Bolsa
ª
Mis@@
contigo
literatura
revestimiento
expresar
cerrado
39@@
agresiv@@
estimul@@
eficaces
Moda
invit@@
repeti@@
cristiana
DS@@
News
revela
sw@@
norm@@
02
vea
aleación
habitual
Pueden
ligero
sabiduría
elos
paradas
Términos
enfoc@@
Modelo
dueño
periódico
cumpleaños
añas
ach
productor
din@@
Island
92
compromet@@
matriz
Nov@@
delitos
peligroso
elev@@
hel@@
investigar
crónica
obtiene
negativo
confiable
Descuento
DIRECTSUPPLY
ole@@
esis
aumentando
Guatemala
icado
pisos
comité
seca
comidas
seleccionado
vot@@
War@@
fans
Ten@@
vulnerables
ras@@
refrigerante
ador@@
desafi@@
exist@@
A-HOTEL.com
asociaciones
cuarta
viviendas
aplic@@
cuidadosamente
conver@@
nombr@@
especialistas
creciendo
tiles
RS
PR@@
anzas
Mes@@
iga
complet@@
96
fij@@
estómago
alambre
fría
elevado
asesin@@
voluntarios
distribu@@
Distrito
Cer@@
conclu@@
creativo
metas
rural
villa
sentirse
ack@@
vitaminas
ORGANICSSHOP
const@@
PRO@@
tim@@
arco
ivo
expresó
Black
yentes
Charles
Disney
sacer@@
Imagen
ejecut@@
ondas
divertido
adr@@
Vietnam
Especial
preferentemente
escritura
cuyos
Trabaj@@
Abr@@
absorción
Hel@@
angel@@
defender
inmun@@
directos
sim@@
activamente
Bat@@
conferencias
ue
endido
olas
ajo
aprobado
55@@
plaza
pic@@
prestar
insulina
inclusión
creatividad
negros
logro
CD
norte@@
convencionales
haces
Noruega
deseos
ocupación
limpia
Civil
dram@@
Calefacción
Sat@@
desean
Lim@@
vi
comparar
protocolo
seguidores
exportación
oz@@
olog@@
moléculas
explor@@
uters
mortalidad
1980
University
envía
exclu@@
permitió
ónicos
flor
obesidad
Nota
tinta
Len@@
GA
iento
cálculo
usada
sobrevivir
tard@@
Colegio
indicador
AWTOREM
pretende
Batería
apareció
als
esperado
One
puedas
Ah@@
misiones
lin
anci@@
design@@
reproducción
española
teclado
respondió
importar
rem@@
horno
Ha@@
organizado
D.
TA@@
definido
resina
pecado
huesos
alcanzado
dedic@@
enza
alquileres
placas
osotros
abiertas
ificación
convencional
posteriores
creencia
Pantalla
venido
obtuvo
Tarjeta
atractivo
celebra
llegaron
Madre
empleos
aterr@@
Str@@
extraño
sacar
semi@@
manej@@
sof@@
cargador
detención
adecuadamente
rotación
propag@@
St.
adaptación
sencilla
echo
iva
comienzan
Directorio
mun@@
soldadura
Coches
gato
récord
indicado
azado
Anti@@
francesa
oficialmente
tantos
Mark
500@@
Casi
cultivos
erg@@
añadido
desempeñ@@
hos@@
cas
frag@@
trab@@
ria
rara
acep@@
sir@@
aleg@@
mantienen
bandera
Buena
Sil@@
pleno
acumul@@
áis
introducir
profesores
brazos
torio
Gre@@
dido
territorios
Municipio
cifra
candidato
responsabilidades
exploración
Lake
precisa
dest@@
Cuerpo
limitaciones
cias
chi@@
nacion@@
tura
Sin@@
interruptor
observación
vac@@
combina
Ducha
comisión
finanzas
gri@@
complicaciones
establecidos
activas
nervioso
pap@@
pasan
históricos
esperan
dignidad
inci@@
ho
éticas
acia
inmediata
utas
implement@@
Wil@@
ótico
jas
aceptación
agenda
barcos
críticos
reemplazo
esencia
ust@@
colegas
300@@
Oh
cola
eca
ajustar
ronda
correr
constituyen
Tailandia
Comentarios
aeropuertos
difusión
ábamos
inoc@@
doctor
solares
devast@@
Daniel
Quer@@
hallazgos
67
previo
dificultad
fruta
mad@@
neutr@@
0.000
estan
campañas
sufrir
vaya
acer@@
tenis
publicaciones
aport@@
endi@@
Haw@@
heridas
afectadas
lucro
agreg@@
fechas
desper@@
Smith
cartera
Saint
encial
ani@@
intermedias
low
crucial
directora
ey@@
calcio
conecta
ensa
capaci@@
facilidad
y-@@
Gaza
coreano
anuales
Imperio
secuestr@@
record@@
ocu@@
Indonesia
detect@@
órgano
aceites
construc@@
Había
señal@@
fresco
descubrió
notific@@
materias
Medicina
visa
hábitos
alo
fibr@@
sensible
baños
nave
aerolíneas
Bar
arreglo
Viaje
fracaso
entiende
Ecuador
migración
fund@@
motocicleta
Familia
revisar
Vida
ette
recopil@@
viviendo
curi@@
membrana
aliviar
TS
Road
ejecutar
festival
ebr@@
cuadrados
ilustración
My@@
Existe
probabilidades
Singapur
repent@@
Pan@@
clínicos
MP
D-@@
destruir
experimentado
críticas
mover
operador
funcionario
activación
abiertos
Fund@@
escritor
Fuerza
investigador
sales
acaba
THEX
conci@@
Por@@
Fil@@
punta
declarado
Ven@@
Relaciones
contempl@@
glucosa
Cel@@
hombro
XIX
asistir
limitar
Preguntar
informado
unido
conoci@@
íos
Uso
informar
cali@@
entornos
restos
distin@@
agrícolas
™
rurales
MM
extracción
marcado
dolor@@
delito
elar
querido
demandas
ania
sale
bres
59
sas
cerveza
sinc@@
Tú
diseñar
Ren@@
ceremonia
rin@@
Policía
Palestina
ei
narr@@
débil
let@@
enfrentar
Ciudades
enar
cena
Ter@@
voto
invitados
gusto
mostr@@
cari@@
preci@@
fo
ON
dimensión
recibieron
Bush
ezas
FL
anz@@
anal@@
japonés
Liga
SC
oto
retorno
ección
port
religiosas
fol@@
derrot@@
Escrit@@
MS@@
interesado
descanso
caracterizado
ernidad
Bélgica
Serie
practic@@
ezca
ideales
realizadas
examinar
bolsas
UR@@
Bre@@
computadoras
William
agricultores
hagan
Contr@@
ícono
~
interesantes
utilizadas
BC
Av@@
pistas
cans@@
mapas
Ali@@
Ejecutivo
Foro
marido
Aún
contactar
camping
milagr@@
reemplaz@@
cimiento
excelentes
reservar
ótica
Tre@@
dismo
ped@@
titular
Tal@@
relativas
percepción
Tanto
trasero
almacenar
ratones
220
Richard
Cab@@
asociada
ánimo
mama
Pu@@
espec@@
1992
igualmente
ste@@
reformas
grabación
dirige
Quieres
Mol@@
tabaco
quedó
71
asesoramiento
ff
observaciones
Todavía
san
electr@@
VA
trina
deseado
Primero
aérea
ISO
testimonio
fen@@
Tel@@
Hill
dudas
Tom
espectáculo
reveló
vendido
lógica
verduras
fáciles
misiles
camas
relojes
veo
continuó
extremos
cadenas
Nor@@
oscuridad
cruz@@
continuamente
votos
conectadas
Van
imagin@@
Soporte
otas
1993
recaud@@
describir
vuel@@
acelerar
misteri@@
cercana
Kat@@
abrió
eando
q
ari
S.
Lam@@
colocar
comi@@
LO
desarrolladores
activ@@
Aplicación
precisamente
realizados
Barr@@
ski
espuma
aro
App
brinda
cí@@
reducida
Ra@@
ds
Pic@@
masas
ou@@
trabajó
aplicable
anticuerpo
informa
aud@@
contrat@@
conduc@@
externos
estrecha
tribunales
comenz@@
ganador
ADO
fa
Jack
USD
cer
contraste
torre
preciso
desierto
ministerio
encanta
diente
onia
contribuciones
atrap@@
May@@
ómetro
judío
oriental
Az@@
Johnson
profes@@
platos
logros
ahorrar
crean
divi@@
L-@@
estilos
inspección
espectro
360
PVC
debía
pertinentes
ash
tuve
fármacos
adver@@
funcionalidad
negativa
Marco
promesa
Palacio
pobre
sorprendente
ectores
03
ific@@
cultiv@@
limpiar
iguales
Han
defin@@
Bern@@
PDF
TU@@
contraseña
76
pad@@
desc@@
Ser
perspectivas
accesible
deportivo
empresariales
destac@@
CC@@
operar
aseguró
North
Ambos
extrema
sobrevivi@@
originalmente
Maps
demasi@@
notas
PA@@
publicar
decenas
atorias
variable
denunci@@
termina
testigos
enz@@
vid@@
Hy@@
noches
únicas
compensación
madres
ág@@
pronunci@@
transacción
diseñador
ment
dólar
dirigir
yan
Tim@@
1.000
humo
actuación
Diego
entró
77
civilización
acusado
Miembros
Big
74
copias
Negocios
guías
uela
Ni
88
exige
B-@@
som@@
Muy
@
maquinaria
firm@@
ocar@@
mira
gast@@
documentación
ampli@@
cuáles
Parece
balcón
Max
eng
asumir
aces
Yo@@
tados
ele
desee
Médico
PS@@
avanzado
jur@@
agrícola
ki@@
envejecimiento
suger@@
Camiseta
círculo
interiores
parcialmente
destinos
Press
clasific@@
frustr@@
--
determinada
esperamos
SHOPPINGBUY
poderosa
emisión
dol@@
arroz
romper
refi@@
tantas
sig@@
confiar
exacta
fundada
Merc@@
frenos
reto
ator
mínima
apropiada
compromisos
turas
HE@@
Dólar
Lar@@
silla
piernas
aur@@
mando
Kim
tratan
Actividades
direc@@
guerras
combustibles
denomin@@
demostr@@
gos
Convenio
ayudó
Sar@@
aumentó
Están
conjunta
corazones
tocar
Cubierta
05
propi@@
terr@@
J.
resultante
caer
82
10.@@
Casas
Resort
haz
hem@@
sacri@@
explicación
energías
Obtener
ño
mer
naci@@
atraer
adaptador
piedras
ax
Plata
europeas
segmento
GU@@
la@@
regalos
lanzar
Royal
primas
habr@@
BR@@
serían
transmi@@
alquilar
Baja
9-@@
masiva
asociadas
prohibición
Pakistán
tapa
Espero
freno
sentimiento
estaría
ons
intenta
modificación
Salón
bombar@@
secretos
South
Ba@@
elevada
formulación
Son@@
Os@@
trayecto
anot@@
sp@@
Versión
tradiciones
protector
cables
siguió
Far@@
enes
lectores
tumores
frontal
verificación
Artículos
líquidos
puro
definitivamente
alarma
rusos
Rob@@
Mac
hechas
vínculo
Business
indicar
cerámica
ún@@
86
formal
78
Coin
fe@@
PRICESHOPPING
británica
sil@@
i-@@
variables
negativos
misterio
Rock@@
Fin@@
elaboración
esclav@@
Debemos
desastre
registr@@
deposi@@
E-@@
Estadísticas
conclusiones
fraude
hacía
Filipinas
deber
Marca
teros
contribuye
org@@
especializados
abandonar
temor
ilustra
anta
vivido
comenzado
planetas
patio
revolu@@
Estaba
rusa
naz@@
quedan
consideración
comercialización
obstáculos
fija
ocul@@
bieron
apareci@@
critic@@
molecular
oz
Clinton
viajan
beb@@
cionalmente
desplazamiento
obje@@
osis
Unidad
Ciencia
religiosos
bí@@
fumadores
seguirá
Apr@@
CC
Primer
Audi
juz@@
line
seleccionados
Compañía
margen
paseo
ult@@
New@@
negoci@@
apart@@
IF@@
comprobar
excelencia
omi@@
izadas
College
Evangel@@
largos
tubos
Rel@@
secuencias
mot@@
isti@@
piensan
Búsqueda
SM@@
calific@@
sum@@
favoritos
murieron
correa
aborto
tando
musul@@
disminu@@
novela
1,5
captura
Provincia
inflación
ofreciendo
tamaños
juega
ICO
-P@@
habló
AU@@
Estilo
infr@@
program@@
agrado
RFQ
ículo
inicialmente
estratégica
gramos
ap
130
PIB
lector
incendios
vacunas
empieza
heim
just@@
oca
Senado
Buenos
resuel@@
cambió
llevaron
creada
aplican
tercero
Dentro
IL@@
BUYCHOPPERS
ip@@
transversal
permitiendo
trib@@
1970
Fuente
variar
esposo
Creemos
negociación
person@@
marihuana
bas
ock
forz@@
tiende
conector
dedicada
Hollywood
fueran
ory
embalaje
desp@@
compañero
1991
retención
Catálogo
suplementos
éc@@
vasos
destaca
gamos
sufri@@
Contin@@
yl@@
Camp@@
ingen
Boston
Op@@
Terr@@
Piscina
carg@@
vuelven
proviene
bolsillo
alemana
CNC
ards
femenino
econom@@
emocionante
Test@@
regulares
permanece
intim@@
cárcel
150@@
gü@@
químico
rock
perdió
gigante
procesador
obligado
Intel
compatibilidad
frase
Ak@@
crito
Sen@@
ish@@
participan
consegu@@
incap@@
enormes
cidente
rech@@
TC
emente
je
financiamiento
considerable
exit@@
solidaridad
elle
Bus@@
Lev@@
escu@@
demand@@
ses@@
Fe@@
continúan
Seguro
escribe
Tro@@
peri@@
juguetes
ami
900
comando
RC
Art
aplicables
llevando
gradu@@
aminoácidos
Int@@
ayudarle
iti@@
cannabis
taza
over
ingenieros
guar@@
demos
Victoria
plasma
verdes
venezol@@
médicas
09
compradores
caza
Sé
ép@@
vínculos
historial
determinados
antibióticos
FC
mencionado
imag@@
edes
otr@@
embar@@
CO2
St
atra@@
Contacto
lentamente
inspiración
marina
conect@@
configurar
arreg@@
alemanes
vivos
actúan
aja
llaman
tudes
hormonas
escape
HP
gubernamental
mann
actriz
chicos
astron@@
Habitación
gatos
22@@
pecho
icación
Detalles
susp@@
ómica
ubicada
supermercados
libras
tumor
dependen
escrita
entusi@@
fundación
dico
series
comparten
casti@@
multitud
Cable
destacados
dióxido
encontrarás
bul@@
ól@@
entera
entregar
Prot@@
bombas
opera
Asi@@
alianza
ás@@
tros
esencialmente
pronóstico
75@@
04
notable
textos
180
amen@@
Eur@@
gobernador
ME
requisito
experimentos
OR
compresión
cantante
Interior
conjuntos
Rock
Pensilvania
pro
emergentes
Den@@
cedi@@
preparados
recubrimiento
circular
rati@@
bit@@
Kh@@
patri@@
barrera
ws
visualización
brindar
joyas
Realmente
prioridades
visibles
aprendido
sa@@
uniforme
mejorado
7,@@
pido
cina
episodio
ä@@
Línea
69
parada
Green
protestas
mul@@
claves
TER@@
Office
disolvente
veinte
gol@@
explosión
impedir
amistad
Dec@@
Encuentra
unci@@
confirm@@
itario
mirada
ecerá
sible
aridad
exhi@@
mueve
Tatuajes
anticip@@
relaj@@
marrón
chocolate
ning
PE
echa
aéreo
all
ior
psico@@
adaptarse
caballo
ólica
ag
MANILLAR
tendr@@
ír@@
Blue
ua
East
especificaciones
Terraza
describen
horario
ail
t-@@
nombrado
escrit@@
Miguel
fico
alerta
Invierno
óxido
soportar
UNESCO
Revolución
proporcionando
Americana
a.
ais
Recientemente
TX
frecuentemente
corr@@
triun@@
experimento
interes@@
dejando
blemente
Ingeniería
patente
Islam
dependencia
incorpor@@
desarrollando
quedarse
autismo
comprenden
periodista
podríamos
parques
ost@@
bandas
vas@@
recuerdos
contamin@@
rá@@
árabes
condi@@
decide
sufrido
To
GR@@
dón
divul@@
incrementar
respaldo
ow
gerente
Vegas
desarrollados
YouTube
ajustable
códigos
homosex@@
expuls@@
felices
Jardín
Star@@
rescate
ast
Men@@
Div@@
editor
pedidos
firmado
SA@@
vegetales
Economía
aderas
determinadas
Alimentos
ean
envió
naranja
Mos@@
Tour
hist@@
inicia
naveg@@
omos
08
Mostrar
discutir
ísticos
foro
Cerca
diab@@
Podría
existir
recuerdo
cambiando
protege
lí@@
exitosa
LE
isa
73
in-@@
orgánica
orden@@
promo@@
alivio
reemplazar
Sun@@
ilegales
abertura
Cuenta
explot@@
comunicarse
receptores
illo
castillo
modernas
Suites
cubr@@
cho
Company
750
turístico
ejercer
invernadero
erías
-1
variantes
elimina
Ki@@
emático
vieja
soñ@@
Carta
Música
HD@@
mus@@
decep@@
anía
dental
alcanzó
gesti@@
ik@@
Mod@@
parto
Peso
diferenci@@
representar
caminos
auti@@
dominante
Ay@@
ft
imperi@@
involucrados
rever@@
busc@@
aham
zas
diagnostic@@
favorito
concedi@@
impresora
CIÓN
G-@@
comentario
ejerci@@
anunciado
esquina
ciona
tismo
asisti@@
oriales
ualmente
procedentes
jardines
magnético
Motor
ys
llegue
AT
advertencia
adicción
siga
formada
06
sofistic@@
ess
uda
obispo
Original
construida
Bro@@
Wat@@
moder@@
celulares
cad@@
espero
exis@@
justa
sensibles
sucedió
proporcionado
pred@@
Black@@
interesadas
ky
sombra
autom@@
letras
largas
Foto
maravilloso
asilo
tormenta
héroe
discos
planificar
es-@@
pluralidad
led
consecu@@
promueve
desastres
occidentales
Port@@
yoga
raci@@
Torre
bolso
notificación
trayectoria
cima
fármaco
rostro
cargas
voltaje
lee
pierde
mes@@
Dispositivo
93
afectado
pares
Aut@@
Bill
fila
calcular
oria
pac@@
Jackson
innovadoras
94
mov@@
Cuidado
disciplina
observa
separados
origin@@
resultar
ficción
Ginebra
utilidad
excepcional
administrador
elabor@@
Alzheimer
magia
OTAN
meditación
toler@@
Solar
Lámpara
Vistas
inalámbrica
síntesis
prior@@
DVDSTORE
ices
rí@@
Queremos
británicos
ña
plante@@
juntas
didas
salas
asma
ron@@
confirmar
asign@@
escapar
identificado
acos
5.000
Hit@@
ejo
consu@@
destinado
recogida
inició
imaginar
cuesta
bits
Libro
Gro@@
complejidad
apuestas
Ub@@
reforzar
publicada
Valle
indicaciones
consultas
amp@@
abarca
flor@@
ratón
enseñar
47@@
sello
actualizar
07
regulaciones
estando
restaur@@
mirando
PAR@@
haci@@
jugo
juicios
salió
óp@@
tome
provoc@@
CAR@@
Escocia
limpi@@
laborales
PM@@
Soci@@
procesar
coordin@@
aparentemente
aceler@@
ran@@
intentos
permitir@@
nomin@@
despier@@
haría
97
inario
aviso
MB@@
ula
echos
reserv@@
salarios
Ohio
establecida
hip@@
aloj@@
Mediterráneo
vieran
School
ciudadano
elec@@
utilizó
eter
ecu@@
pura
Compra
apost@@
XL
perfiles
preferencias
recoger
esía
Siguiente
caron
Grande
oides
sólidos
clásica
enterr@@
convierten
variedades
División
orgánicos
causada
microondas
prevé
generador
armonía
84
módulos
esquema
trae
colecciones
ras
cortos
Dinamarca
entendimiento
equipado
ail@@
subir
considerada
concentraciones
gradualmente
Agr@@
atur@@
Chi@@
Turismo
sufr@@
solici@@
Mid@@
91
Monte
asis
mostraron
matemáticas
speed
ain@@
ju@@
conduci@@
responde
metabolismo
miel
desempleo
nav@@
Au@@
logró
Jud@@
acumulación
estatus
filtros
acabado
exclusiva
Man
acoplamiento
adic@@
adulto
aument@@
alent@@
avanz@@
pobl@@
és@@
Dun@@
cé@@
yes
roca
Person@@
controla
MAR@@
resol@@
onar
hubi@@
sus@@
refrigeración
molde
fijación
modificaciones
en-@@
Condado
maíz
cerr@@
ernos
Tabla
véase
Rec@@
Fort
Sec@@
egos
fes@@
oraciones
seleccione
eur@@
particip@@
tribu@@
Será
sor@@
disolución
eral
comprometido
refin@@
crema
Cuándo
agrega
catalizador
Tenga
estacionamiento
enseña
brillo
votación
milit@@
rist@@
limpio
eramente
hice
diseñadores
Papel
Cro@@
frecuente
restaurar
Proveedores
barras
TH@@
flota
els
perf@@
140
Spa
kin
Gratis
practicar
respiración
relativo
re-@@
Fal@@
orias
típicamente
Cristi@@
sirven
consum@@
colon@@
uciones
iso
Station
Eliminar
Metal
trad@@
mortal
cordia
tendrás
malos
rea
ográfico
eco
animados
und
silicona
Pantalones
masi@@
Lleg@@
Rev@@
Aires
descritos
ort@@
Brown
académico
juventud
hablan
combinar
adoptado
Power
IM@@
aprobó
Artes
1989
borr@@
terrorista
camión
tolerancia
práctico
deseada
hueso
tesis
up@@
Char@@
Verano
lineal
tron@@
Bolivia
ique
goma
salario
ul
repente
concierto
81
estadio
malla
armados
luchando
érico
creativa
Prom@@
señalar
Ant@@
lento
-B@@
futura
Mis
suministros
Arm@@
renovación
rutina
cuidar
restauración
ati
refugio
ier@@
Viv@@
droga
acion@@
inmune
asombr@@
mantenido
mort@@
FO@@
Bruselas
aumentan
,5
tut@@
SIDA
Valencia
adopt@@
agot@@
nitrógeno
activistas
avanzadas
popularidad
Popular
Vaticano
transformar
filtr@@
combinado
equipada
limita
desarrolló
rodea
obviamente
Hon@@
Rod@@
éstos
cuestion@@
propone
Habitaciones
acusaciones
RA
ek@@
petrol@@
OMS
fortaleza
recl@@
Jer@@
tensiones
ush@@
permi@@
Í@@
pase
Ass@@
cruz
ciudadanía
crece
controver@@
magnitud
robo
autorizado
99@@
peores
doce
campus
Harry
Form@@
terrible
vió
dibujo
Pent@@
símbolos
memor@@
obligados
énfasis
DEALMASTER
referencias
aguja
ades
M.
izaciones
térmica
FA
CS@@
Comunicación
hipo@@
sustrato
UE@@
Base
estuviera
Leer
educativo
arri@@
Transporte
Secador
Maryland
vs
chas
vinos
enriqu@@
descri@@
utilice
Tokio
sing@@
bajar
Finlandia
valor@@
finalidad
nariz
bel@@
argumento
Cy@@
desarrollan
instalado
Watch
integrada
Nav@@
cargar
bia
ibles
amantes
ald
éndol@@
sorpresa
SS@@
hago
nas
parad@@
respir@@
Sala
NA@@
Grandes
causan
gru@@
considerablemente
claridad
Illinois
gráfica
pre-@@
Gol@@
bail@@
adop@@
cumbre
du
ciertamente
fijo
casual
renovables
Bet@@
didos
Superior
ví@@
onas
Autoridad
novia
White
egip@@
innovadores
cuyas
desarroll@@
UV
Auto
Hungría
embarazadas
cher
mica
internas
increment@@
tengas
plantilla
créditos
mantuvo
Sud@@
79
pudieron
Bañera
p.@@
Marte
esperaba
religioso
camiseta
recuer@@
Dijo
can
1960
Fort@@
dedos
²
county
muro
cumplen
GI@@
vanguardia
Henry
litio
sentencia
BS
Llev@@
reco@@
iPad
SRS
defectos
Campo
estrechamente
orgánico
quizá
progres@@
evid@@
air
pacto
ayudando
aquella
Características
cial
chicas
izó
Putin
humanitaria
entrenador
funcionales
Imag@@
próximas
controlada
endas
imaginación
auto-@@
rápidos
alcanza
modific@@
350
Cliente
urbana
euro
irlo
paga
naturalmente
rebel@@
preg@@
bab.la
house
compatibles
Pri@@
cerrada
directrices
ros
conocemos
tercio
retr@@
famosos
Marruecos
antecedentes
exclusivo
pudieran
aband@@
Avi@@
consta
confes@@
amentos
ído
ilumin@@
varía
criptomonedas
net
rieron
AV@@
llen@@
vimos
hr@@
esquí
preservar
franqui@@
ocurren
receta
yn
tí@@
demuestran
rio
penal
competi@@
mercancías
Paso
rumano
160
casco
vendedores
ificar
aclar@@
LG
Hil@@
Nada
Lovepik
exposiciones
acti@@
Golfo
fon@@
Programas
magnesio
regr@@
gloria
Junto
TRADUCCIÓN
importación
demócratas
Instagram
ampl@@
telecomunicaciones
microbi@@
bach
cloruro
Rot@@
posesión
nes
Malasia
amin@@
postura
Industrial
concluyó
ancias
carbohidratos
120@@
iden
colectiva
efectu@@
oh@@
controlado
respecta
Saudita
ajustes
sentado
ecto
significativos
ónimo
joyería
disminuye
Tendencias
Jos@@
reina
señ@@
cilindro
Cambio
Fútbol
Orden
urg@@
ta@@
grasos
America
provoca
Fis@@
pollo
personalmente
magn@@
lob@@
competir
E.
ámbitos
definitiva
LU@@
basura
literalmente
PALABRAS
com
proporcionará
ándolo
filtración
Estudio
supervis@@
Software
Natural
dioses
mana
gripe
Edad
Ll@@
básicamente
CL@@
compuesta
cayó
chico
ciber@@
malas
exteriores
conducto
asientos
human@@
diversión
utos
Place
off
favor@@
deo
AM
uck@@
ayudado
Beijing
especialista
delegación
ison
bares
lumin@@
exámenes
mencionados
implic@@
Empresas
wifi
Smart
numer@@
recurr@@
sens@@
tanta
pm
compleja
Málaga
Mayo
horizontal
preten@@
agos
im
In
peligrosos
dor@@
enciales
mant@@
trabajador
herencia
Mesa
encuentre
inger
acus@@
treinta
plásticos
Direc@@
Preguntas
PR
enter@@
Honduras
describió
Bot@@
com.@@
hablado
89
Ambiente
Hacer
inaria
Aseo
licencias
let
ejecutivos
incidencia
aconsej@@
Pel@@
taller
harán
mani@@
asignación
hered@@
lote
Colorado
delantera
destinados
gimnasio
nie
moverse
.-
libr@@
departamentos
Penal
afuera
alg@@
400@@
afectada
manipulación
Sierra
preferida
cay@@
MI
opti@@
vuelva
alber@@
aus@@
ester
mAh
ecta
ocupado
tible
soberanía
barreras
Restaurante
billones
pil@@
RE
músculo
dici@@
significativas
sar@@
Port
Prueba
m.
ector
Bank
exitoso
gana
Pens@@
sienta
libremente
suici@@
culpable
fui
asist@@
presion@@
Soviética
garaje
invasión
air@@
Af@@
peligros
Gan@@
intervenciones
alizadas
establecidas
positivas
Español
coloca
000@@
fuertemente
cardi@@
queso
ámica
Boletos
valle
giro
probado
USA
erlos
competencias
aduras
rehabilitación
volar
Ó@@
continuará
fur@@
ofrec@@
cardíaca
asistente
izan
defecto
PL@@
estim@@
orina
Máster
dir
secado
Cont@@
interrum@@
Hot
GE
merece
sabr@@
Car
a-
Mike
curva
Fecha
activar
caracteriza
quinto
tubería
admir@@
intercambi@@
acas
buques
viva
obtenidos
acer
Oriental
oscura
FDA
Prim@@
liberar
ponga
contribuyen
ídos
Cultura
Varios
culo
visuales
patrocin@@
mut@@
reflej@@
académicos
FBI
auténtico
encarcel@@
considerando
oni@@
femenina
ut
ys@@
ivos
espirituales
tele@@
burgu@@
insectos
fir@@
emoción
planea
retirada
vendedor
gafas
artritis
enfriamiento
resultó
lecciones
espaci@@
propósitos
Arizona
cubierto
ocurrido
ecidos
profundas
marinos
e.@@
cavidad
pio
ciclos
ayudarte
Cuánto
Sistemas
verán
automatización
criminales
erc@@
divisas
optimizar
ocio
operativos
Ruta
Conjunto
prestigi@@
reo
ofreci@@
Añadir
ingres@@
mide
camiones
basan
erán
extendido
Steve
tatuaje
municipio
68@@
izquierdo
viejos
agrada
Quizás
PRE@@
1.5
nacionalidad
ulares
tour
fronter@@
centrado
tecnológica
citas
simultáneamente
iniciales
León
seguras
átomos
deterioro
pertenecen
proyect@@
eu@@
GO
atletas
Usuario
religiones
mag@@
Protocolo
manifestaciones
nubes
Simplemente
23@@
difun@@
Uni@@
pinturas
sostenibles
electoral
pron@@
ous
Viena
izos
plazas
absoluta
aparatos
embarazada
VI
TOS
itaria
Play@@
impactos
87
fo@@
votando
RF
óticos
Pública
deportista
catálogo
Valley
adqui@@
aislado
torneo
interacciones
PU
minería
espesor
acostumbr@@
flujos
Volkswagen
PP
sanguíneo
Cuán@@
fundido
Web@@
Gris
N-@@
blog@@
cajas
cualidades
pantalones
mentales
van@@
tránsito
argument@@
ONG
ció
crees
.dll
entados
histori@@
conv@@
ecían
trate
cid@@
Ayuda
descubre
increíbles
ok
Cli@@
factura
legado
reconocida
GmbH
83
comb@@
sentimos
Free
gota
Sección
Maria
Panel
facilita
dent@@
caucho
Loc@@
ansi@@
sostiene
tarifa
pot@@
brut@@
iro
chaqueta
Jones
ográfica
consenso
asum@@
125
Louis
merc@@
asia
selecciona
DR@@
fiebre
triste
cortar
griego
esfera
comput@@
fruto
extranjera
nor@@
sonidos
propuesto
Ky@@
GO@@
SI
quedar
juguete
HONDA
Pisos
solicitantes
estratégico
visibilidad
deliber@@
nocturna
Plat@@
causando
minimizar
Fo@@
compartida
enseñanzas
prima
extracto
bonos
reparar
ile
dict@@
Libia
ancha
onía
alizó
Ly@@
escritos
Scott
Columbia
humor
azos
osp@@
Sig@@
publicados
Dur@@
conectarse
Flash
mejorando
reconoc@@
pantallas
Ve@@
Buscar
convoc@@
Iraq
adolescente
consist@@
Music
ingesta
bier@@
dedo
toque
carcasa
santo
è@@
piens@@
ester@@
debo
defensores
dy
ace@@
alcalde
perm@@
clubes
eccion@@
Cier@@
ise
Apartment
mármol
concer@@
off@@
Tend@@
ingresar
aeronaves
certificados
escasez
ST
cerebr@@
color@@
avanzados
conjuntamente
apasi@@
Roja
Sel@@
insp@@
gin@@
cuidados
surg@@
galería
olí@@
farmacia
descar@@
déficit
Pul@@
robot
eña
Var@@
sto
ezcan
semej@@
asesor
dilu@@
Pin@@
importaciones
Clar@@
brillantes
empresarios
ligera
cruci@@
bloquear
prohibido
PD@@
oga
ime
ova
depósitos
adero
aceptado
Bir@@
prohib@@
AF@@
iraní
educativos
natur@@
héroes
Esperamos
Secretaría
ientes
sell@@
pró@@
falsa
Journal
ava
olor
criminal
250@@
Doc@@
usti@@
destacar
Na@@
cionario
reflexión
vig@@
crip@@
Cos@@
infin@@
estimular
etr@@
llave
cep@@
transfer@@
conform@@
Mediante
involucrado
aer@@
Fuerzas
cubiertos
alia
billete
comenzando
och@@
aso
prestación
príncipe
sed@@
orígenes
Sy@@
ím@@
Rem@@
endidos
compone
L.
administr@@
organizada
proveer
http
Pues
asimismo
incur@@
bes
comprador
Der@@
visite
confun@@
retras@@
detenidos
ICA
abusos
ancianos
brecha
celebró
teorías
Piezas
contratación
presidenta
sumerg@@
teór@@
Gil@@
pensé
Mary
consumir
Económico
consistente
Guar@@
salen
tomaron
motivación
88@@
diagrama
ist
secundario
M-@@
talleres
podremos
equipaje
imperio
testigo
firmaron
hormona
relativos
secu@@
Vestido
Dominicana
Express
físicamente
discipl@@
sano
accionamiento
ilidad
emia
Puerta
preocupa
grav@@
resp@@
solicit@@
LAS
Escritorio
Comi@@
polaco
sexy
Dor@@
Mira
aseo
variaciones
profesión
farmacéutica
mán
FM
Dol@@
realizarse
Tener
Med@@
supre@@
dor
Log@@
mineral
enal
pienso
Sum@@
hermanas
ecosistema
10-@@
ston
ís
poseen
Recursos
Aplicaciones
Decoración
Cuatro
atacar
rección
ríos
pusieron
gay
Wall
patentes
ánica
terremoto
sacerdote
hilo
tecnológico
vídeos
confirmó
devol@@
infect@@
hun@@
agujeros
erios
anexo
Dar@@
tortura
razon@@
leído
3.0
ariado
efectivamente
Michigan
Distancia
Neces@@
aparte
IZQUIERDA
prosperidad
óptico
palacio
mamá
Compr@@
emas
revelar
ensos
crecido
grabado
curación
financiar
prevista
unió
sacrificio
presentada
bet@@
acuosa
innovador
destacó
enfoques
A.@@
concurso
ajust@@
complejas
decidi@@
ites
tivamente
UNITRADE
musicales
jer@@
sanguíneos
IT@@
falsas
cicl@@
escondi@@
Fri@@
bido
garantiz@@
ope@@
detenido
atributos
onal
personalizada
eada
increíblemente
habitualmente
Dom@@
Cambios
Reci@@
radical
lament@@
ecciones
horaria
izador
cuadr@@
curar
tuviera
franceses
calcula
revistas
ADOR
imprimir
Atlántico
almuerzo
generado
logotipo
advirtió
tran@@
localización
comportamientos
prepara
Chris
tividad
itación
cuarzo
consigue
manifestantes
MAN@@
West@@
eficientes
Sea
Canales
deberíamos
excav@@
energético
estructural
dobl@@
intestino
Perfil
2,5
diarios
Esper@@
verlo
enzimas
estuvieron
incertidumbre
fanáticos
FE@@
Da@@
Vestidos
tuales
Voy
my
neo
10.000
radicales
inferiores
but@@
Necesitamos
deje
12.@@
no-@@
rescat@@
Tan@@
Propiedades
carpeta
iten
ting
bicicletas
mezclas
Network
iremos
nutri@@
católica
Categorías
Católica
corrientes
nervi@@
Milán
0-@@
rodilla
SH@@
empleadores
UU
dores
Studio
erla
requerido
FIFA
mam@@
acimiento
Lujo
mico
señora
pilotos
galard@@
SD@@
tera
sovi@@
estimado
orn@@
tap@@
ocuparse
inal
ónicas
garantías
caballos
coh@@
automáticos
Tienen
otipos
kil@@
actualizado
tilla
acabar
102
estructur@@
renal
vende
2.000
Nuestras
permitan
iconos
conectividad
navegar
Expl@@
Situado
residencial
tual
DI
comprob@@
mencion@@
renov@@
env@@
empleador
State
urgente
atis@@
mem@@
Condiciones
episodios
piración
egr@@
ADA
transferir
chip
afirman
Líbano
clínico
resistentes
data
textura
titulado
danza
fas@@
grati@@
mensual
diseñ@@
enfer@@
marino
ish
ficos
cambian
listos
jurisdicción
traslado
Nigeria
retirar
Health
creció
damos
baile
ono
uma
satisfac@@
fósiles
eces@@
culto
solos
consulte
áneos
supuestamente
comprometidos
estrech@@
600@@
fina
Manager
miento
itales
delantero
Angeles
Joe
cura
Corporation
psic@@
Líneas
Luc@@
lej@@
pier@@
segmentos
erme
Recambios
realista
españoles
CB@@
nia
raro
ange
considerarse
Live
Mayor
máscara
Hall
conciertos
asegúrese
ats
acetato
dañar
And@@
suplemento
Frank
Teatro
debilidad
Lav@@
gasolina
integrar
ā@@
jurado
considerados
ref@@
espaciales
provienen
apa
recre@@
fera
Has
CPU
49@@
ína
firmemente
Universo
Det@@
iTunes
distribuidores
camin@@
Server
Don
soport@@
incidentes
diseñadas
atracción
efectividad
ambici@@
neas
ano@@
atender
negativas
firmó
heridos
fallo
inquiet@@
0,5
on-@@
agresión
deport@@
distancias
Pap@@
ING
congel@@
p.
periódicos
granos
cotidiana
ándol@@
Mill@@
ísticas
adicionalmente
hierba
Juguetes
emática
almacen@@
canadiense
comparte
tista
premat@@
uk@@
ste
tec@@
Jefe
ebra
voces
presidencia
orgullo
cae
portátiles
gli@@
post
ep
eh@@
operan
masaje
leyenda
óptima
volunt@@
jueces
Post
Amor
anj@@
Venecia
suel@@
externas
respetar
copa
suministr@@
mari@@
institucional
ts@@
lidiar
ais@@
jurídica
sk
Reina
apellido
pop
Alguien
quen
Bab@@
dirigió
rechazo
MO
star
Clima
Registro
aficionados
ecosistemas
mío
lentes
ayudarán
fit@@
confusión
Houston
combustión
escon@@
escolares
botellas
africanos
realizando
RAM
sufre
coalición
superficial
gabinete
dri@@
umbral
Que@@
R.
prohi@@
Otoño
auriculares
Regional
presidencial
despliegue
Movimiento
Ben
EE.UU
molécula
subsi@@
confirmación
ventilador
boc@@
terminales
Templo
blockchain
despleg@@
predecir
leyendo
dorm@@
1080
eller
vesti@@
ubic@@
veter@@
corona
cubiertas
Ko@@
complicado
MC@@
Dell
Massachusetts
biológica
producida
elación
necesito
ranura
Store
observó
persecución
cionarios
campamento
elevación
democrá@@
tud
inscripción
ET
puls@@
alternativamente
Linux
lix
arries@@
eño
abrum@@
fatiga
PER@@
Sor@@
Mobile
potable
femin@@
legalmente
dominios
distinto
compensa
Fox
queridos
trist@@
ated
Util@@
Bul@@
producidos
ost
taciones
fiable
drán
conservar
jugó
dinámico
astas
intelec@@
Sabes
DC@@
XXI
caro
barata
Ron@@
guitarra
térmico
probl@@
uestra
er-@@
agn@@
Juli@@
doctores
competitivo
hero@@
Proveedor
Mic@@
cabina
Mot@@
haberse
eck
sentidos
CIVIC
logra
colectivo
QU@@
admisión
sana
hierbas
háb@@
tira
consol@@
litros
dejan
cintura
Tem@@
geles
Oli@@
awa
Capital
intenso
Maestro
correspon@@
completos
corrección
aproxim@@
firmar
s.@@
blancas
públicamente
Región
tes@@
destacado
4G
Cru@@
ider
proporcionada
11.@@
granja
restricción
nacidos
reactor
huevo
Integr@@
Árabes
exhaus@@
out
demostró
documental
Películas
oliva
rompi@@
evita
Ningún
arbitr@@
estábamos
sellado
icidad
Emiratos
catal@@
pus
SUV
ándole
ball@@
típico
unto
desigualdad
Nike
plegable
paralelo
Inici@@
Fer@@
contratar
exhibición
spa
men
hipótesis
glob@@
circul@@
absor@@
Green@@
poder@@
alberga
EM@@
cigarrillos
reúne
ations
reduciendo
Bit@@
I-@@
itarios
empuj@@
quej@@
deportivos
Segu@@
requerida
Alianza
sober@@
combinaciones
ors
bis@@
participó
mostrará
estructurales
entrevistas
FMI
reproductor
caras
anch@@
definida
ús@@
Ret@@
inser@@
Cabo
incendio
vintage
Suelo
simul@@
pensado
prefer@@
CH
1988
negó
B.
obtienen
Centros
auditoría
tablas
impresionantes
NA
tics
ness
reconocidos
Sant
manipul@@
iOS
mencionar
rut@@
Xiaomi
formó
completado
ement
verific@@
Administr@@
dud@@
cast@@
abol@@
seguida
Colección
kins
Gor@@
Joseph
orqu@@
ordenadores
sey
presiones
facial
Pregunta
continental
Ori@@
Eres
Taiwán
salvaje
usu@@
efectivos
opcional
tornillo
pila
101
Institute
afirmación
despertador
mail
salidas
bin
reporte
dista
unen
antioxidantes
view
palestino
tecnológicos
terror
analiz@@
Nu@@
silenci@@
incorporar
tranquilo
extra@@
invitación
presupuest@@
quin@@
formul@@
pidiendo
veterinario
preferencia
monitoreo
infraestructuras
tirse
Vill@@
Hom@@
CV
tambien
sepa
vegetal
vestidos
polí@@
ced@@
entend@@
ers@@
observado
lana
caz@@
suscripción
profundi@@
presentados
show
divorcio
atal
cli@@
ian
top
Fórmula
78@@
encanto
volúmenes
ventilación
echas
crudo
tablero
dro@@
ayan
conectada
destruc@@
portal
idamente
Nat@@
celda
plantea
impreso
ensas
maravillosa
with
cord@@
aplicado
fis@@
desconocido
SIS
ew@@
Bien
Cumbre
Whit@@
extranjeras
llegando
cida
mexicano
encabez@@
ascensor
Niño
Vit@@
hayas
trav@@
fenómenos
Cop@@
Square
puntuación
normativa
-K@@
fut@@
esclavitud
letra
divulgación
insuficiencia
Bob
materna
erry
Gri@@
Julio
Jun@@
Facultad
horri@@
retiro
Life
traum@@
olvidar
pera
app
ificado
permanecen
Il@@
fracción
Vic@@
escenas
ingrediente
protesta
Tan
potasio
metodología
influenci@@
afi@@
asumi@@
recomendamos
jan
diet@@
logística
manifestación
Audi@@
certific@@
genial
Autobús
bancaria
VER@@
Deal
camar@@
recibiendo
duras
aguda
éricos
condena
orial
flot@@
Lisboa
preca@@
mezcl@@
illos
cop@@
dispuesta
Lugares
Cooperación
deficiencia
permanentes
participado
distas
estrictamente
ry
ays
especializado
prove@@
lio
till@@
trigo
infierno
Mercado
board
colapso
minas
situ@@
tripulación
atar
frutos
reaccion@@
cálculos
FR@@
biodiversidad
ecimiento
ague
conseguido
importe
W.
capturar
estabil@@
reconoci@@
egas
grano
favorable
casino
coma
extraer
Compl@@
bos
Ku@@
limitación
geográfica
competentes
fiabilidad
laron
inaugur@@
Western
competente
arra
corregir
reconstrucción
uth
acompañada
han@@
cidos
lenguas
gor@@
1950
peligrosa
encarg@@
ejes
emplea
Cri@@
mecánico
porciones
rios
cartucho
gados
birse
2030
ate@@
propagación
ución
iste
mundos
Agricultura
test@@
BA@@
manteniendo
colocación
AA
estia
expuestos
manu@@
mediciones
Vir@@
necesitaba
paisajes
tirá
Libertad
psicología
vaso
Chaqueta
Al-@@
etario
transmite
diamante
psiqui@@
oide
úa
tracción
cuota
registrados
múltiple
ington
aki
od
Toronto
Hen@@
hablamos
acoso
renta
Correa
quisi@@
curr@@
cidas
nm
debil@@
amb@@
2.5
próstata
constitución
basándose
apoyan
sitúa
biología
creados
Tennessee
apro@@
enzima
meg@@
pintado
caos
robots
AD
Alrededor
bs
ecida
inyect@@
But@@
higiene
optar
débiles
materi@@
esen
ganadores
estés
Corazón
elog@@
timas
pulmones
innovaciones
nar@@
cuerda
Televisión
confirmado
P.
partid@@
decirle
persist@@
eración
tonos
denominado
turísticos
refugi@@
Fut@@
autonomía
micrófono
suicidio
ileg@@
masculino
pant@@
s.com
HI@@
Hist@@
huelga
informática
o.
urgencia
ock@@
orio
tranquila
Const@@
Pad@@
órbita
Antiguo
1986
bert
criaturas
camos
Wood@@
pudi@@
buque
cual@@
falso
tabletas
deseas
fragmentos
protegido
ahorr@@
Iluminación
Consul@@
Biblioteca
espectacular
Mul@@
contemporáneo
varían
marcar
Patrimonio
France
Hogar
Sudán
corre@@
Pharmaciesworldwide
MB
dispon@@
cóny@@
Bri@@
separadas
PU@@
bit
Hal@@
sobr@@
imponer
recibirá
Patri@@
necesitar
botones
tropical
Señ@@
construyó
ganancia
plato
Nissan
antena
realizaron
llenar
anunciar
UNI@@
Sant@@
Dro@@
pit@@
Bay@@
cerebrales
Allí
hisp@@
escenarios
sint@@
fábricas
directores
renunci@@
donantes
dupl@@
Ty@@
pondrá
quieran
Algo
BE@@
extre@@
dorf
sanitaria
encuestas
coron@@
HDMI
trag@@
laterales
remotos
WHOLESALECLOTHES
equilibr@@
ministros
renovable
Mercedes
sanos
aviación
cinturón
ándonos
compacto
aporta
Desafortunadamente
ware
Parking
Cir@@
far@@
prol@@
Sent@@
castigo
adir
debut
vendidos
Williams
equi@@
arquitecto
London
Sensor
peligrosas
realizará
Blo@@
Indiana
8,@@
galaxia
flash
Ejemplos
abar@@
Llam@@
cula
Airport
paciencia
poliéster
intentando
armadas
artificiales
incluyó
usto
pasta
rodeado
deriva
ping
33@@
Manga
arca
incorporación
cuadrado
fam@@
masivo
proclam@@
revolucion@@
Dan@@
acor@@
balance
recomendación
querr@@
ayudarlo
EST@@
Wh@@
tice
fundó
Tags
Oxford
columnas
9,@@
Rol@@
trater@@
corpor@@
inmen@@
instante
Especi@@
inusual
rentable
entran
especializada
trató
pendientes
COMO
fortalecimiento
querer
Dicho
ding
restring@@
sofá
IR@@
gam@@
totales
oda
Ash@@
anillos
5G
funcione
eados
H-@@
tendremos
desechos
hermosas
back
Fron@@
competidores
DANCECOUNTRY
encontraba
estad@@
orig@@
cú@@
reducen
rev@@
participaron
caracteres
usadas
millon@@
pureza
Toallas
uros
circuitos
animación
variación
votar
Primavera
cancelación
rapidez
votantes
clínicas
unir
Impresión
LC
esforz@@
FA@@
terrestre
Suite
eth
itz
0,000
convic@@
Dej@@
reunió
entrevist@@
Airlines
Paris
comandante
Olímpicos
tomada
excesivo
cosecha
sil
Canal
corrosión
Drive
estables
ms
manif@@
Play
suministrar
ider@@
equiv@@
Def@@
Ul@@
ital
generan
algoritmo
comunitaria
constitucional
pesado
suite
teras
dirigidos
Tenía
ches
emperador
cerc@@
inserción
preferido
causados
punt@@
dolores
confirma
libertades
monitor
exclusión
FAO
quedado
cincuenta
Lago
izando
magnética
Pur@@
ath
primario
IS
quinta
indic@@
endan
contenedor
despertar
consola
Technology
impide
Misión
Comenz@@
escritores
edic@@
val
acta
competitividad
ordenó
ligencia
ident@@
brasileño
Sri
inundaciones
invitado
Nokia
apropiadas
Catedral
derrota
representado
je@@
polímeros
intensa
Alemán
gastar
estall@@
abur@@
retro
insul@@
tuvimos
Aérea
AUTOMÓVILES
apunta
deseable
1987
lámparas
ull@@
implicaciones
lección
Contenido
comunitario
Kin@@
úr@@
alimentar
sonrisa
italiana
trim@@
uli@@
turística
Sevilla
redujo
Encontr@@
Nicaragua
Tit@@
sospech@@
restantes
Research
protegidos
cau@@
racia
influir
bruto
registrar
ilustr@@
pó@@
senderismo
PNG
Américas
elig@@
adhesión
poderosos
zada
contin@@
Inteligencia
emin@@
deg@@
heb@@
crec@@
set@@
mud@@
cometido
digit@@
Habana
firmas
CP@@
bos@@
Haití
claras
pin@@
latón
ken
Bolsas
^
Probablemente
extinción
Normalmente
instrucción
Descubre
65@@
Cloud
huella
endiendo
ED@@
formatos
reflejan
extraordin@@
excesiva
MC
ID@@
articulaciones
evaluaciones
fabricar
respectivos
rama
japonesa
Pot@@
110@@
Kn@@
interpretar
extender
1000@@
zca
Empresa
usas
Originales
esperada
rosas
dicos
cómoda
AG
insisti@@
divide
imprescindible
Santos
impresion@@
etilo
científicas
interactuar
cado
herida
éndolo
1985
élite
Patr@@
funcionando
tribut@@
allas
estimaciones
Doble
pierna
desplaz@@
vin
ampliación
Alexander
integrados
asistentes
agan
Pom@@
Mun@@
prepararse
campes@@
flexibles
plac@@
menta
opuesto
oder@@
mostrando
Cast@@
enviados
Isl@@
fresca
Asegúrese
parar
choque
encontrarse
XVI
recompens@@
fiestas
endida
reten@@
comerciantes
Poco
compens@@
capitán
catedral
peg@@
rocas
transi@@
ilusión
calientes
DAD
modificado
asesinado
ann@@
mantenga
Pesca
mentación
apuesta
Industria
SEO
vivió
Estambul
encargado
diversi@@
UN
cálido
civil@@
colegio
uck
perfor@@
jeron
soldado
Comun@@
corporativa
indicación
venden
idez
videojuegos
siguieron
montar
espir@@
multipl@@
rodean
perfección
Virgen
cal
elaborar
advers@@
dieci@@
tel
Castillo
gratuitos
LP
deudas
alas
Manchester
Zapatillas
Esp@@
Crear
actualizada
Pueblo
estéreo
Set
juegan
ógeno
Cristal
Capacidad
Comparar
desarrol@@
escucha
Pos@@
OS@@
dobles
doméstica
Abu
Kal@@
accesibles
liga
aprobada
lujoso
Dig@@
Best
necesite
sustancial
virtuales
guerr@@
Acerca
Estatal
directorio
ánico
Suprema
Lima
apropiados
conozco
surge
separada
dé
Nivel
preval@@
invencion
incorpora
caracter@@
Cham@@
latino@@
argumentos
océanos
descuentos
promin@@
judiciales
sufrió
concluye
aman
´
Sho@@
proyección
úrate
falla
Stu@@
tori@@
Pedi@@
cro@@
tragedia
cardíaco
permisos
Inclu@@
dirigidas
Marcos
remota
onio
ofreció
Autos
papa
refieren
camisa
ofr@@
reunir
Fon@@
bal
tod@@
Piso
tracto
itu@@
Dal@@
cará
derá
Xi
codificación
itud
Cinco
ganando
óm@@
posicionamiento
States
onados
reconoció
quitar
contaminantes
residuo
Caso
nervios
foros
pios
Hubo
Cent@@
tarse
Portátil
zan
ibilidad
hy
reiter@@
inversionistas
Establecimiento
Tus
Galería
aplicarse
frecuencias
ayude
ilu@@
dueños
The@@
peregr@@
Tratamiento
aldea
sonda
lava
princesa
monumentos
cardiovascular
Oeste
accionistas
Video
atraves@@
Checa
back@@
Sl@@
contó
entre@@
comport@@
onales
Vo@@
Day
cum@@
guen
aderos
plomo
desarrollada
juris@@
fuese
tecnológicas
xi@@
Sostenible
SP
ejecutiva
cosméticos
Jim
considere
Garden
Publicado
os-@@
Sem@@
Bahía
amplias
Croacia
gt@@
produciendo
protocolos
idor
anti
uncia
ánicas
polar
gues
filas
pes
drama
recetas
care
montado
lenta
ogía
promesas
Hay@@
perforación
fia
GS@@
declara
lie
embarc@@
cert@@
fom@@
ísimo
dog@@
órica
perturb@@
Ari@@
cuer@@
GE@@
criterio
lab@@
ificada
innovadora
derivado
DV@@
omía
́
panorama
Latinoamérica
wer
Ji@@
bahía
Océano
psicológ@@
observados
Cataluña
contabilidad
Señora
Haz
IN
rápidas
refuerzo
Mant@@
ños
asesinatos
oxid@@
Evaluación
Taylor
ósea
creador
simbol@@
jos
mero
lag@@
eventualmente
ster@@
recicl@@
ículos
dial
Core
becas
stone
energéticas
Long
elevar
21@@
Cant@@
voluntario
Yemen
disfruta
planos
Uruguay
renunciar
turco
forme
semilla
pint@@
asesino
Cáncer
High
enfermos
rigur@@
sosten@@
convertidor
ciales
light
Oscar
quimioterapia
publica
obtención
kers
neumático
Seleccione
visor
reembolso
estat@@
Micro@@
papeles
AIRE
distinta
Paquete
zcan
bordes
Lucas
elige
artes@@
recolect@@
hincapié
causó
dicas
ída
fort@@
fer
comenzará
Moham@@
jar
its
esiones
íqu@@
dría
regulador
gustan
empezando
Holanda
pendiente
Educ@@
desempeñar
LS
marav@@
Wars
pin
ech
Tales
arquitect@@
sistencia
continuidad
viral
Data
deportiva
calcul@@
apag@@
Lan@@
identifica
reflexion@@
MIN@@
ith
prefieren
cen@@
sit@@
Tours
Mallorca
Series
remi@@
embajador
colaborar
Harvard
meteor@@
Je@@
V-@@
recopilar
Instrucciones
visualizar
multimedia
Marketing
admite
retraso
potenci@@
ef
vulnerabilidad
adhesivo
Supremo
Domin@@
jefes
traer@@
0,1
entada
atl@@
Mak@@
tadas
ACIÓN
portador
din
fan@@
armado
Lor@@
uñas
ri
ural
Xbox
tanques
degradación
Triavi
Alicante
esia
cubano
tero
fraud@@
regresó
lealtad
inver@@
sindicatos
torn@@
rasgos
ille
estimación
disputa
nistía
Dre@@
bury
arti@@
ward
tropicales
Menos
dí
otorga
Vel@@
contenedores
participa
establecen
seda
aras
nodo
revelado
ejos
erte
TF
Time
Shanghai
Paulo
Sir@@
mate
ladr@@
caros
monetaria
lati@@
IBM
rojos
entusiasmo
tit@@
prov@@
Visi@@
Deber@@
construyendo
util@@
zinc
pagado
aranceles
diariamente
Prevención
Da
esión
resoluciones
aero@@
Gam@@
protectora
Premium
lazos
ficada
o.@@
sivas
Rep@@
reunirse
detector
anualmente
ólicas
d.
meteorológicos
oja
Andrew
disponer
Pil@@
pelea
monitor@@
súper
tomadas
campeón
puntu@@
experimentan
sustitución
zados
residente
pas
requi@@
maximizar
extraordinario
Vil@@
collar
progresiv@@
señalado
Mand@@
IE@@
Personas
reaccionar
hubieran
minoristas
fique
wa
emitió
túnel
dens@@
rar
funda
Inf@@
fre@@
unt
Incluye
revi@@
éstas
apre@@
escap@@
antigüedad
centrarse
analistas
encuentr@@
rebeldes
presentaron
Construcción
seguramente
carbon@@
Domingo
inscri@@
emple@@
foco
tumba
Dependiendo
emáticos
end
implant@@
li
Corpor@@
Village
requerir
Baratas
Kit@@
cuidad@@
cremallera
laboratorios
elevados
requer@@
acrílico
surgen
alizaciones
alquil@@
salto
cancel@@
vit@@
aka
à
sirio
escaleras
Ilustración
Pintura
músicos
Hum@@
800@@
bolas
ars
intentan
informaron
Excelente
adaptado
Master
competitiva
Isa@@
pedir@@
condenado
die
Personal
presentaciones
Et@@
publicit@@
Bus
optim@@
popul@@
Dest@@
Granada
Motor@@
XX@@
prefiere
Congo
ánd@@
clásicos
1984
lov@@
eciendo
definen
inventario
afro@@
reclut@@
Glob@@
ordin@@
Rose
K-@@
mencionó
Actu@@
cc
realice
Meg@@
disfrute
celebrada
450
Nar@@
Manuel
AI
Sería
administradores
Deci@@
cripciones
liter@@
dices
ke@@
coco
ós@@
comprome@@
vial
devolver
Observ@@
custodia
quebr@@
disponen
negociar
quince
respetu@@
claros
confort
Área
incorporado
iniciado
afirmar
designado
anchura
MP3
efectuar
alizan
visiones
perpet@@
inmunológico
Lou@@
mmol
acog@@
trama
Nobel
comunicar
Wifi
purificación
ílico
orios
históricas
operativa
erle
Phoenix
antas
Ninguna
jurídico
extensa
dosificación
papá
alc@@
chat
mató
cav@@
crecen
tripul@@
discusiones
prisioneros
crucero
ofrecido
manchas
ócr@@
portes
cumplan
Donde
Vintage
H.
Florencia
osi@@
our
ingeniero
volver@@
sustent@@
asequible
proliferación
sivos
os.
Mano
amist@@
opatía
espectadores
dispersión
apado
diga
tableta
bilidad
cier@@
distinción
maquillaje
Gold
válido
Sam
Defin@@
iny@@
ect
D.@@
BBC
tilidad
artística
CM@@
tranquilidad
nis
Militar
conducen
corresponden
fluidos
satélites
expuesto
solucionar
selec@@
fluye
Bed
much@@
ultr@@
uz@@
VE@@
Wall@@
Introducción
optimización
verdaderos
eces
eños
provincias
Ident@@
Cargador
Castro
actitudes
TF@@
egio
monta
Bah@@
Respon@@
plas@@
congreg@@
titulares
embl@@
Septiembre
colgante
pesados
reduci@@
torm@@
Consejos
preocupado
alb@@
obl@@
represión
enia
oca@@
triz
etta
localizado
honor@@
activado
temporales
País
grifo
computación
fino
vis
Habr@@
invita
Cientí@@
Pant@@
seria
universitarios
Dubai
post-@@
ombr@@
Gran@@
denomina
relleno
piano
invasi@@
Flores
Kam@@
Gold@@
mejorada
top@@
transcurso
ken@@
arización
ocurr@@
Centre
irnos
hidr@@
Trat@@
ómico
aid
104
preguntar
orando
involuc@@
adversos
Bebidas
Abrir
dual
cología
torias
pulmón
hy@@
ACCORD
.pdf
240
Enfermedades
Corona
Octubre
trasplante
celebrado
resid@@
Design
estimulación
100.000
utilizaron
vision
etil@@
199@@
pulmonar
repar@@
telefónica
configurado
descrita
multin@@
directiva
llegará
érica
bast@@
consejero
amado
gon@@
med
actuaciones
1979
expandir
vag@@
bañera
ándolos
bobina
polo
46@@
colaboradores
jun@@
transportar
Show
yos
repres@@
disper@@
vigil@@
niega
veterinarios
compensar
OEM
Joyas
MT@@
ple
League
Bos@@
policial
COM@@
tent@@
MHz
terapias
cifrado
ponente
Tab@@
udo
destinadas
subyacente
F.
reconocen
irme
Finanzas
ally
rentabilidad
suero
gio
aplicada
intestinal
cond@@
vectores
sostuvo
Palma
Comb@@
emplear
Apar@@
japoneses
Bulgaria
med@@
Estudi@@
edit@@
oo
ruptura
rechazar
Internacionales
TOR
Audio
Monitor
imo
testosterona
solicitante
recargable
ubicados
pude
seno
oí@@
fri@@
deportivas
diana
UNICEF
core@@
3.000
sho@@
instr@@
cocinar
ev
domicilio
apoyado
Sociales
Ciclismo
personalizados
éter
limitados
relieve
Filtro
Card@@
Jam@@
Forma
muñeca
oír
Link
Multi@@
asust@@
CM
pasaporte
médula
ativamente
analiza
figur@@
titu@@
caído
xi
globalización
ambul@@
interferencia
menciona
Praga
logo
corporaciones
electrodo
EE@@
potentes
inglés-francés
armon@@
debates
VW
vigente
our@@
limón
delgado
impulsado
Frente
expresado
ayudarnos
socav@@
ali
Norteamérica
obvio
cár@@
Sun
Oficial
eólica
Profesional
descenso
web@@
HU@@
Management
INA
1.6
contempor@@
cibern@@
toras
lleve
académica
ahorros
rojas
BM@@
Radi@@
tific@@
editar
1982
queja
democrático
fum@@
doctorado
sud@@
vinculados
fel@@
liquidación
link
éxitos
Li
almacén
ec
cotidi@@
Bis@@
proy@@
agregado
biológicos
Mit@@
Marbella
buceo
hipertensión
Sra
tex@@
Hola
supera
beneficiarse
1.4
Piel
hijas
longitudinal
Éste
export@@
dirigentes
retrato
lámina
quejas
gotas
Obras
ICE
comis@@
proc@@
lis@@
icaciones
Resolución
figuran
IR
decor@@
Claro
expresiones
Etiquetado
acompañado
ner@@
ítico
Doctor
Etiquetas
competición
prac@@
orificio
concepción
enormemente
Kennedy
pensiones
Cul@@
Lincoln
degrad@@
enio
azules
península
ii
despr@@
Service
monumento
SW@@
Orlando
mej@@
Volvo
consideró
secret@@
mascota
especi@@
extraordinaria
azas
Innovación
Guardia
Estrategia
ramas
complement@@
Propiedad
amiga
Services
valioso
anca
tuberías
angular
hectáreas
Ever@@
marítimo
avent@@
sorprend@@
algia
asados
vitales
itada
émico
valiosa
Rap@@
lavadora
espada
sust@@
River
toxinas
Fe
untos
Posteriormente
llenado
incentivos
13.@@
comandos
Dev@@
Método
Respuesta
educativas
Poder
ier
obtenida
lavandería
descritas
democrática
Nuevos
Sul@@
discrimin@@
aportar
cabe
defini@@
surgió
Conn@@
hen@@
irte
arrastr@@
anticoncep@@
lanza
Afortun@@
éricas
demencia
Atenas
icar@@
edo
esco
Tol@@
Porsche
vibración
ocultar
servi@@
tum@@
luc@@
Jorge
Nuevas
Stephen
Producción
cuarenta
agonista
nan
bol
urbanas
aníes
send@@
equ@@
170
dados
estética
béisbol
rendi@@
Wilson
separar
TIC
Funda
manifiesto
onada
ográficos
puentes
géneros
Point
informaciones
brote
exactitud
beta
revoc@@
monet@@
Kur@@
solicita
estand@@
Association
ugh@@
combinada
simpl@@
demócr@@
incapacidad
concesión
rodillo
intentado
Golden
formando
58@@
Precios
BB@@
García
olo
cumplido
Open
loco
reforz@@
cirujano
noreste
reflex@@
Procedimiento
enfermo
carro
Apartamentos
Bag@@
Kon@@
jornada
Naturaleza
consiguió
cron@@
solía
LATERAL
configuraciones
ENTE
compresor
preparando
chi
falsos
erno
reciclaje
válvulas
celebrará
áneas
clim@@
gigantes
Lyn@@
devolución
Maj@@
automati@@
pri@@
protegida
adquirido
validez
distinguir
Marvel
lingü@@
Resid@@
marcos
reem@@
BU@@
Campeonato
mejoran
fantasía
fama
Austin
hepatitis
ficados
colina
Jean
Queen
atario
desgracia
Proces@@
proven@@
Din@@
detallado
viaja
cocin@@
delgada
espont@@
ré@@
docenas
Manhattan
Calle
Of@@
quieras
CF@@
conceb@@
alegr@@
coloc@@
equipamiento
coherente
Utilice
supl@@
socio@@
directas
gluc@@
ponemos
pulsera
consigo
Principales
noroeste
vecino
redondo
gua
destinada
Astr@@
Ah
adaptar
inmunidad
dil@@
abul@@
temporalmente
introduce
cuchillo
úan
ágono
GM
Comida
Ana
pacífica
introdujo
muere
valoración
compren@@
Sav@@
ecerán
ib@@
Fran@@
huracán
oo@@
Alex
emitido
patrocinado
urbios
registrada
descans@@
destin@@
defi@@
IT
secre@@
Shi@@
chil@@
ute
movido
Edward
Associ@@
Título
adera
medioambiental
autón@@
pistola
mutuo
Objetivos
Armario
contradic@@
graduados
ology
Tony
púrpura
lot@@
válida
endidas
palest@@
modern@@
COR@@
ordenado
sar
Noche
ahu@@
vestir
colorido
abil@@
Fernando
dividir
tiro
simb@@
usualmente
Príncipe
VO@@
Cambridge
Esos
correc@@
vierte
Alimentación
MT
inevitable
deses
glaci@@
prosper@@
dedi@@
verd@@
Alguna
hablar@@
Lanka
Promoción
llevada
amida
oterapia
minorías
Nintendo
Capítulo
simulación
Museum
confron@@
ayas
biom@@
agitación
Maestría
iras
digestión
len@@
residuales
enfr@@
divisiones
globo
negras
Gener@@
ruinas
policías
saliendo
Token
personalizar
natal
side
poesía
Land@@
desaparición
irrit@@
Feliz
seas
1945
vacunación
demostración
uelos
Ze@@
Dallas
contribuido
beneficioso
elaborado
zación
Eric
Love
dietas
intervalos
habituales
accion@@
diamantes
exigencias
escoger
depres@@
levantar
escalada
secreta
solicitado
compromete
bronce
actuando
epidemia
CS
crónicas
percep@@
titanio
deriv@@
ass@@
Atlanta
Termin@@
relajarse
moto
griega
interesa
localizar
cruzar
relajación
rol@@
Mario
Aceite
africana
homenaje
recto
cartón
convertirá
Trinidad
Missouri
HS
itado
proximidad
niebla
prácticos
chinas
amable
tic
ilación
interrupción
artístico
dop@@
provocó
isas
Encontrar
típica
aéreas
misa
ratas
repl@@
izas
Nevera
Decisión
Visita
introducido
1967
comunista
ass
urbanos
porta
vier@@
avia
calma
vor@@
View
educativa
compara
Pun@@
gas@@
aumentará
Accidentes
prolong@@
hin@@
eficazmente
Apo@@
paraíso
zz@@
Lit@@
flora
intercambios
gratuitas
transferencias
PD
caminando
secos
Busca
conmem@@
Valentín
distribuir
gig@@
íp@@
critos
pese
radic@@
Cuanto
exacto
deleg@@
secador
experimental
presur@@
inspirado
alquilo
apetito
respirar
líquida
racismo
±
Sci@@
alineación
intentó
Post@@
Jehová
ocupar@@
autorizados
provocado
Fel@@
López
Apartments
descu@@
Bolso
Posi@@
Curso
ley@@
Fiesta
Caliente
aceptables
aseg@@
morales
diesel
progresos
Privacidad
fitness
alcal@@
efectivas
Foundation
crim@@
índices
horizonte
APACHI
descripciones
acost@@
américa
tol@@
cometi@@
garganta
hadas
cuadros
requerimientos
ñado
Ár@@
Ot@@
emitir
óg@@
Pacto
ox
Liber@@
individ@@
march@@
Stock
agon@@
fax
afrontar
oción
Institu@@
Wit@@
partícula
hembra
caridad
Past@@
mueren
sulfato
any@@
eridad
filtrado
EF@@
Añ@@
recu@@
provee
abundancia
wal@@
Tenerife
Jes@@
pierden
kur@@
dejaron
ayo
picos
configur@@
visitante
vinilo
informáticos
vo@@
monto
3G
Fir@@
Cielo
implante
pent@@
auténtica
XVIII
op
produci@@
bibliotecas
uge
gobernanza
óptimo
manifiesta
Camisetas
opol@@
ángel
recesión
labios
concretas
Ayud@@
donación
nativos
igual@@
suelos
anoche
Wisconsin
VPN
Sport
candid@@
colocado
cabezas
encaje
1983
embrague
1.2
Ayuntamiento
placebo
disciplinas
sy@@
oa
equit@@
Cirugía
llenos
talentos
dale
monopol@@
Algodón
Naz@@
administrativa
delic@@
Young
seleccion@@
orales
registró
NC
aditivos
list@@
box
traduci@@
inversa
Emil@@
Terc@@
vela
resultan
previos
consolidación
sten@@
dulces
Casual
Cualquiera
cifr@@
obligatorio
sillas
Referencias
Espacio
estatua
SN@@
autenticación
Punta
americanas
vincul@@
condicional
recog@@
ariana
cartel
coinci@@
R-@@
introduci@@
asocia
definidos
traducciones
Halloween
EUR
kh@@
relaciona
sugerencias
Bienvenido
into
asiático
Iguana
ji
Hac@@
intermedio
mé@@
Archivos
atividad
Creek
PO
enderá
mensuales
Casino
carse
Representantes
sirvió
Blu@@
etanol
Ali
metil@@
metab@@
variante
gers
romano
cepillo
calentador
API
provocando
elegidos
emerg@@
mango
elli
consume
emis@@
creadores
colon
Rio
Sell
Gales
Adicionalmente
recopilación
seleccionada
ingl@@
reas
ush
etiquetado
pati@@
cinemat@@
PI
Conven@@
Agregar
mad
Kevin
asignado
Podr@@
SQL
brindan
come
controlados
vientos
esqu@@
fascin@@
cultivar
Ang@@
producirse
sostener
mencionadas
rad@@
recibida
esteroides
Kir@@
alien@@
aéreos
finalizar
Luces
LGB@@
Aer@@
hospit@@
Les@@
leve
ust
ofrecerá
aldeas
opi@@
exigir
Not@@
sometido
contenía
callej@@
hormigón
ficas
medieval
enoj@@
aventuras
afecciones
transmisor
sabido
corteza
potencias
macho
Café
homici@@
ricas
silvestre
genético
hausen
proporcione
ultra
lor@@
pida
Espacial
OMC
aug@@
DM@@
debidamente
silicio
sincron@@
citado
1.0
apreciar
parámetro
GN@@
guardia
olig@@
intermedi@@
predeterminado
uctor
oti@@
cens@@
Generalmente
genuino
ingen@@
pánico
constantes
Marzo
terri@@
Carmen
arreglos
edora
inadecuado
pene
Freno
Lat@@
Brexit
actualiz@@
há@@
atrae
cerdo
promul@@
Vivi@@
sucesivamente
noci@@
Ton@@
reanud@@
combin@@
sospecha
novio
suces@@
Holiday
acusados
Comercial
cristales
CP
obstáculo
Ontario
presentará
pelota
desempeña
uri
graf@@
prohíbe
105
razonables
Dep@@
barrios
fertilidad
rent@@
fundamentalmente
debida
roto
administra
Democrática
almacena
primi@@
extraños
articulación
emáticas
terapéutico
uca
Gobern@@
afección
ÍA
ejecuta
reh@@
Om@@
tend@@
internacionalmente
Adam
Fotografía
dependiente
erró@@
micro
Segundo
Clase
Hyundai
selva
manzana
Anillo
Adobe
jabón
pp@@
SO
High@@
comienzos
estacion@@
Sus@@
mond
deberías
Lewis
Reparación
investi@@
agradables
cancelar
ciclismo
razas
imprim@@
corti@@
predeterminada
convers@@
dependientes
-L@@
hueco
rido
Colonia
aux
Carr@@
dirse
Tw@@
venen@@
Apoyo
foc@@
Organ@@
peti@@
reserve
Libra
Deutschland
masculina
podrías
Prác@@
aterrizaje
Palm@@
Puesto
abier@@
pesada
banca
Magn@@
Preg@@
gel@@
reside
mutuamente
fant@@
tóxicos
comparado
nab@@
competitivos
cubren
ocasi@@
manifestó
Led
Wol@@
3d
Cin@@
Town
experimentando
estere@@
AB
edr@@
temporadas
ponía
búsquedas
1975
durar
maestra
intui@@
cápsulas
Jordania
atractiva
pesqu@@
Entrada
Renault
radar
Reserve
grabar
hongos
atista
etín
prolongado
alab@@
sinteti@@
old
Light
Oper@@
1981
adoptadas
LT@@
comedia
elem@@
olu@@
odon@@
My
endencia
Camino
Wang
dedicados
Jan@@
34@@
Malta
veget@@
fotógrafo
organ@@
Presupuesto
GT@@
Vent@@
deshacerse
aeronave
.1
Sourcing-Electronics.com
vinculado
Christ@@
Alabama
Prof@@
debati@@
ji@@
ron
eman
anfitrión
distritos
convirtiendo
Pascua
marcadores
OP@@
cemento
aler@@
cápsula
Tech
TER
Gay
campeonato
dir@@
rodillos
contribuyentes
aprobar
Desarrol@@
miras
nea
rece
empresario
Ry@@
hur@@
ásico
Little
antelación
uar
distal
escalera
anuncia
flexión
incluirá
solitario
diarrea
1973
Lite
Amaz@@
alentar
buscas
recolección
ortodox@@
eco@@
severa
Hub@@
Boy@@
Vari@@
seriamente
Autobuses
combinan
ori
naval
voluntaria
supervisar
resistir
ement@@
huellas
Billetes
Niñas
arquía
volverá
inclin@@
famili@@
Ibiza
ris
adentro
SK@@
hermosos
prefi@@
ager
oculta
coment@@
ayudas
colonial
cubanos
turísticas
citos
contengan
cionados
incent@@
neuronas
Resumen
lágrimas
comunitarios
Science
domésticos
num@@
recur@@
ciudad@@
encaj@@
NY@@
marcador
001
quisiera
plen@@
tratos
Ale@@
encendido
cafeína
106
Elizabeth
Salv@@
reflejo
extienden
itarias
convirtieron
deteri@@
ances
reunieron
expon@@
No.
ós
tram@@
atra
amante
Fol@@
biológico
PM
plástica
corrup@@
jugado
llevaba
ferrocarril
fabricado
dij@@
soja
holandés
MON@@
AZ
reguladores
necesitará
sexto
ógenos
Springs
recurrir
Pekín
Box
útero
cripción
rastrear
alterar
pagan
justific@@
Feder@@
E.@@
facil@@
estantes
reclamación
Andr@@
reflejar
cardí@@
tradicionalmente
Energy
iéndose
embajada
frescos
inglesa
MW
despl@@
Hills
inversor
tesoro
añad@@
jubilación
algoritmos
duradera
cet@@
detall@@
lácteos
aerolínea
italiano-inglés
ecológica
HB@@
profesion@@
vibr@@
alergias
ardo
concluir
EU
especific@@
suena
húmedo
prote@@
Delta
estrecho
hagas
Java
electrones
COM
URL
estudiando
eliminado
correctas
marinas
cuesti@@
premi@@
establecimientos
Aw@@
causadas
raras
Jordan
dedicación
aparente
ferencias
redonda
sun@@
arizado
trajo
ze
descarg@@
girar
SIM
colágeno
emergencias
Esas
bolsos
bandeja
Bangkok
bote
Plataforma
44@@
argu@@
contemporánea
ury
Ú@@
fascinante
tomará
Sing@@
Ok@@
Valoraciones
ómicas
financiado
reclamaciones
sionado
cajeros
Orig@@
ángulos
idación
Power@@
riqu@@
deud@@
Davis
Amarillo
vast@@
descentr@@
fantas@@
oque
interrog@@
ídas
eing
57@@
ocasion@@
lindo
Chap@@
perdida
UL@@
difundir
consolid@@
cip@@
inglés-español
LD@@
comparable
alternativo
Consider@@
Ofrece
Clínica
ambientes
ç@@
oxidación
tercios
1978
sílice
feria
tot@@
recortes
Stan@@
cál@@
mochila
dez
concurrido
entregado
mexicanos
doméstico
especificar
ku
distr@@
excepciones
aumentaron
senal
Fondos
respectivas
hai
acontecimiento
lagos
incumplimiento
zi@@
Ambas
ux
nucle@@
Albert
Cine
termo@@
Reco@@
depend@@
Yan@@
HA
IG@@
encuentren
sujeta
niñ@@
Andalucía
asado
inmin@@
bord@@
Game
Polo
juvenil
grosor
industri@@
Nacionales
DU@@
mens@@
MD
Española
Frankfurt
Brian
Rat@@
compañ@@
presidentes
AV
ometr@@
Seattle
210
fijar
cromatografía
lis
Franco
igma
Union
presta
Asoci@@
Import@@
matr@@
tillo
TP
linf@@
Ray@@
preparada
ies
beca
Word@@
Investig@@
síntoma
deseen
2.2
donaciones
cromo
procedente
úen
catéter
atarios
altavoz
EP
lá@@
ARN
boletos
combatientes
Amsterdam
Pir@@
Bicicletas
abuelo
ata@@
ij@@
Ante
Guinea
ímetro
mínimos
POR@@
uen
1968
Premios
Allen
ilar
Tak@@
lesion@@
Ning@@
catástrof@@
acord@@
detecta
nadar
dedica
atre@@
finalización
llevarse
completas
racial
centrada
ministr@@
Gh@@
concili@@
cánceres
estadística
editorial
asegurado
construye
proporcionó
304
fos@@
Progr@@
plane@@
Brig@@
compon@@
digestivo
previstos
helicóptero
empiezan
Islandia
ACONDICIONADOR
esferas
ett
Miller
creativas
hen
visado
1976
taxi
Che@@
siste
costumbre
prud@@
gradual
complemento
atu@@
antrop@@
Equipos
prestado
AW@@
MU@@
d-@@
serv@@
ball
mezclador
Madera
mágico
ders
yer
sangrado
Pop@@
1920
Py@@
asentamientos
inmedi@@
comience
proced@@
continentes
sumamente
profundos
roles
Veterinarios
indio
áneamente
ovil@@
fricción
atractivos
vertebral
llamamiento
adi
DH@@
Deporte
ajusta
ker@@
HC@@
indispensable
tarlo
out@@
asi
booking
Sigue
sentarse
-relojes-@@
penetración
primor@@
álbumes
veinti@@
atización
favorables
fauna
perio@@
floral
ERO
hep@@
cortes
tre
desarrollos
itan
-H@@
pirámide
emocion@@
Herramienta
ferr@@
parlamento
cereales
denuncia
tin
infl@@
arresto
hil@@
énico
tomas
debilit@@
Rab@@
juzgar
cadá@@
imper@@
abra
ectos
130@@
PH
templos
Alquileres
elija
erir
ostr@@
Tesla
his
estudiado
confidencial
micos
asignar
3000
exista
C.@@
Cairo
tomarse
Diab@@
terrestres
ucho
elegibles
Has@@
credi@@
complic@@
af
componen
gestion@@
ní@@
fundadores
DOS
Semana
-2@@
Michel@@
Descarga
Indi@@
less
Hamilton
Adaptador
RFID
formularios
malware
antígeno
cumpla
Unos
Nap@@
yang
Alt@@
12-@@
Mount
distor@@
eu
Jen@@
matrimon@@
premium
úe
parlament@@
hotel@@
referirse
apellidos
abdominal
señalización
Puente
absorber
tarán
corre
nocturno
Ofrecemos
KE@@
infer@@
minim@@
hilos
nutricional
neos
Reunión
pár@@
dentistas
famosas
email
corredor
deseados
desenc@@
agrav@@
System
asalto
libera
envase
ager@@
SMS
crecientes
demonios
-de-@@
Shell
implantes
propuso
Bod@@
anorm@@
molde@@
bonito
DEN@@
ocupados
fragmento
referente
pez
fantástico
cuántos
112
inseguridad
gem@@
eton
kel
municipal
Kentucky
restante
1969
chimenea
emigr@@
deficiencias
revisiones
falsi@@
Miembro
Adi@@
espiral
descansar
dirá
Fabricantes
produzca
compró
trajes
construidos
pilares
neto
dividido
enl@@
cripto@@
ograma
20-@@
Tod@@
Episodio
Alaska
riñones
VE
aplast@@
SER@@
Kor@@
Pack
Cabe
Jar@@
moción
asume
gest@@
Fac@@
pasados
tador
orientado
visu@@
UNA
mamíferos
aig@@
heter@@
pertinente
Mateo
coti@@
adilla
péptido
Bak@@
seguirán
1.1
Mé@@
ej
le-@@
Qatar
ecos
Fig
Aum@@
grueso
Ja@@
írit@@
Anna
cuartos
ucha
institucionales
Euro@@
tillas
Financi@@
celdas
zer
Enlaces
abl@@
Tex@@
TN@@
Ken@@
ulado
ão
cierra
recordó
alimenticios
penas
ficamente
higiénico
retirado
Fair@@
invisible
param@@
disfr@@
Labor@@
guantes
int
idado
Full
prolongada
reproduc@@
periodos
harina
Di
usaron
alianzas
ógrafos
ube
escog@@
ifica
1930
CT@@
crónico
participante
ilim@@
quema
NY
círculos
comer@@
tortu@@
previsión
Simon
kel@@
ht@@
sacudi@@
cementerios
Delhi
cular
ándalo
comprimido
corporativos
controladores
aum@@
consumen
Society
ache
mono@@
abundante
Comprobar
incl@@
asti@@
hat
sujeción
hito
Ep@@
programado
eh
maestría
Mem@@
56@@
cus
relevancia
dela
carril
aís@@
Systems
drenaje
Ref
trico
Escri@@
TEN@@
farmacéuticamente
equipadas
smart@@
RF@@
Filadelfia
anco
electrodos
tempr@@
emite
monos
usarlo
micros@@
Teniendo
arru@@
discapacidades
Gafas
especializadas
Bil@@
indios
HC
tabl@@
tácticas
Land
CI
baloncesto
inevit@@
ficio
tion@@
Larga
erio
3,5
ariz@@
Ind@@
ífico
Ryan
Cad@@
comprado
108
OIT
Junio
retener
Inoxidable
boquilla
enchufe
rotor
Sourcing-Components.com
Arn@@
incluya
mercad@@
fér@@
utilizará
Porto
Bill@@
fundam@@
acre@@
proporcionados
guión
disminuido
burbuja
Impermeable
ciÃ
orientada
iso@@
Descuentos
pistón
mach@@
equivalentes
convierta
agitó
Breakfast
entimiento
ror
enfatiz@@
×
mata
smartphone
Aluminio
Quizá
Tir@@
Grupos
INTER@@
terape@@
Consulte
difer@@
trom@@
automotriz
Fig@@
quí@@
debían
campe@@
mecánicos
pautas
graci@@
virtu@@
africano
dif@@
capitales
bun@@
Agu@@
explicado
decidieron
Bás@@
DIY
aroma
australi@@
Montreal
Neu@@
postal
pasará
recomiendan
liberado
Judi@@
Túnez
png
dentales
iss
librerías
asas
Bangladesh
derse
Cost@@
identificados
udas
hidráulico
amplios
responden
vueltas
Adri@@
Spi@@
protagon@@
Entradas
ship
Christian
aclarar
cafetera
corporativo
recta
obliga
plazos
mir
z-@@
Van@@
viable
retro@@
Janeiro
felici@@
fundado
Sn@@
fijado
core
distante
repuesto
regímenes
golpes
notar
town
Orleans
presidenciales
Tim
nitr@@
oy
controlan
cubo
expresamente
condujo
mantendrá
dev@@
perjuicio
Nevada
registradas
abog@@
desig@@
Compar@@
Publ@@
Maur@@
ándola
Gas
pist@@
confidencialidad
sombrero
periódicamente
Kenia
Noviembre
medias
abuela
o-
Considerando
íci@@
etiquet@@
Vis@@
encerr@@
romana
fundamento
atría
quede
brill@@
recomend@@
Nag@@
Manten@@
aten@@
uo
cómodos
lip@@
Old
jord@@
mento
nucleico
avo
simil@@
Yoga
colocar@@
Aproximadamente
invertido
instantánea
situados
denominada
lic@@
racional
coli@@
farmacéuticas
progresión
influencias
put@@
flecha
rompecabezas
émica
Bow@@
ocidio
G.
Fabricante
Excel
uez
estre@@
ascenso
Morgan
movilización
mueven
izadores
imán
sú@@
fantástica
significados
macro@@
preservación
IoT
Lab@@
distingu@@
Ann@@
oculto
VII
64@@
key
Minnesota
entalmente
Eleg@@
conozca
refl@@
Sports
Bebé
ganza
tratada
involucradas
gada
Batman
auge
ather
procede
PN@@
llamas
Hostel
Xi@@
adoptó
corriendo
baratas
duc@@
fabric@@
enderse
conoz@@
Grado
evitando
conserva
aper@@
brom@@
ny@@
visitó
British
adoración
bi
Encaje
Alg@@
Iniciativa
divor@@
Got@@
alternativos
sistemática
reos
fachada
Ultra
Sher@@
presentarse
aden
iormente
bios
quim@@
encuentros
baron
Chino
habiendo
crearon
calificaciones
recibirán
alice
presos
dependerá
adulta
Francés
equipados
sencil@@
WW@@
OpenStreetMap
aumentos
ampi@@
700@@
mentos
Especializadas
atina
anular
retiró
pulso
acné
ocular
sustituir
pen
mexicana
explíci@@
Certificado
barbacoa
facultad
recomendado
microorganismos
ume
eck@@
365
Ases@@
Us@@
desencaden@@
viscosidad
Humanidad
Descu@@
Ox@@
ters
plantillas
darnos
erupción
favorita
brotes
ener@@
42@@
trauma
bill@@
Hacia
CAM@@
ocupan
moldeo
editores
universitario
pasaron
mutaciones
Figuras
medicación
Debes
servido
Nelson
genéticos
Cultural
1974
segur@@
psicológico
ody
entendido
advierte
suprim@@
salvajes
notables
CION
Rub@@
estratégicos
hop
organiza
negativamente
1972
CDC
recoge
LM
EU@@
descendientes
estante
seleccionadas
cortas
barr@@
escultura
batallas
delincuentes
Bio@@
sigan
Mach@@
non
Sky@@
Vicepresidente
tío
subray@@
estú@@
energ@@
eccionar
Kansas
alumno
oya
Película
Pag@@
repetir
Asistencia
fi
comiendo
volante
gs
Vehículos
estanc@@
ñas
bucle
minorista
cardiovasculares
MANUAL
institu@@
anar@@
serpiente
unida
determinó
confiables
taron
instituto
Bomba
amon@@
entro
reconciliación
bañ@@
vaca
deba
arquitectos
iquen
May
transfronter@@
Infin@@
pluma
Enterprise
Etiopía
forestales
frases
antic@@
jo@@
Human
delegados
P.@@
concentrado
1,2
Planta
afil@@
apoyando
traído
arterias
Compare
peticiones
costumbres
someterse
credibilidad
resal@@
oni
perjudic@@
santuario
Bob@@
Prepar@@
Operaciones
sanitarios
notificaciones
gerentes
DaWanda
aks
oros
1.
pis@@
Arthur
Chipre
Beb@@
entrado
reciba
Esco@@
sospechoso
anías
SV@@
CBD
cog@@
tomen
AK@@
quirúrgico
conveniencia
Lenovo
Project
Fant@@
séptimo
fan
protegidas
Opciones
metálico
implican
ls
Móvil
invoc@@
estratégicas
oth
Inteligente
oídos
manualmente
ces
ecas
sibles
ater
rivales
Autom@@
aturas
busque
toca
Ker@@
poli
Berg@@
facturación
COMP@@
Tren
inhibidores
expedición
Comunista
declarar
eche
afueras
ástica
Ein@@
lápiz
mediano
RGB
generalizada
continúe
muer@@
manguera
jazz
comprometida
Vea
malig@@
individualmente
Greg@@
cista
Constru@@
clip
autas
opcionalmente
escan@@
Cape
ecieron
Bau@@
palm@@
Up
proceder
1.8
GHz
expone
otes
Fit@@
Hus@@
Berlin
more
Oracle
administrativo
conectan
experim@@
You
Electronics
definiciones
Hostales
cionamiento
piscinas
formular
amarilla
omin@@
untar
tej@@
ET@@
Liv@@
ficia
map@@
1977
mezclado
lands
drásticamente
lluvias
Produc@@
anormal
parro@@
fici@@
fuga
320
defectu@@
Eg@@
prevalencia
acordado
admitir
Aparte
formulaciones
once
Tele@@
ör@@
cuanti@@
sugirió
reúnen
instrum@@
Jin@@
muelle
soluble
Patrón
instant@@
Buda
distribuidor
Nepal
transcripción
surf
envían
cargado
peculi@@
roc@@
inducción
LLC
territorial
creci@@
algas
Fibra
habil@@
Out@@
acy
col
14.@@
permiti@@
divertida
combinados
carecen
calificados
Pep@@
vulnerable
Enviar
Kas@@
residenciales
abund@@
Migr@@
movil@@
palanca
São
Supermercados
compartidos
experimenta
Deja
afortun@@
creativos
aula
seguidos
Económica
tecn@@
CER@@
Serbia
idera
consideraciones
Tesoro
tambor
Atención
dill@@
daccess-ods.un.org
asamblea
nom@@
mercurio
Médicos
sedi@@
arranque
infantiles
Creación
cuento
preliminar
Pes@@
cán@@
net@@
dial@@
GS
excepcionales
limitan
fil
revelan
ties
Co
Ober@@
fabricados
ingü@@
el-@@
etado
as-@@
visitado
paro
viste
medioambientales
Use
fluor@@
toallas
especificado
duplic@@
OEA
ilia
DVR
Colores
aparecerá
coin
forzado
Pensiones
char@@
RS@@
Flo@@
fosfato
convul@@
guiar
penales
duros
sequía
surgir
ilio
disfunción
Jeff
rie
SVG
saqu@@
aridades
UK
sobrepeso
bati@@
Permanente
festivales
Benjam@@
cionada
Usando
cica@@
Mountain
head
ule
recep@@
LAN@@
Pared
Situación
ectivamente
cancerosas
adhi@@
uber@@
ht
Ya@@
Inc.
entarios
Marrón
Pit@@
-N@@
comodidades
colonias
Jef@@
eal
Kan@@
anex@@
TripAdvisor
triple
volviendo
bin@@
Miles
provenientes
AE@@
espectaculares
ÓN
Racing
defensor
agrup@@
subje@@
fotovolta@@
insuficiente
azón
230
césped
sólidas
administrativos
calent@@
correlación
jub@@
A1
procesados
radio@@
reír
Bad
hot@@
enberg
Sarah
monitorear
hidrat@@
administrativas
Inform@@
penetr@@
agit@@
concreta
igu@@
Rodríguez
Apk
ly@@
azufre
traduce
Lov@@
regal@@
armario
Vin@@
77@@
facturas
FR
cand@@
Neur@@
refrigerador
pesos
torres
asos
Hir@@
Good@@
samente
1971
estudió
deberes
Gram@@
Civ@@
jado
vegetación
Cuello
Jur@@
flex@@
asesores
Cis@@
dígitos
Cort@@
puestas
dinosaur@@
Fuer@@
acar@@
host@@
15.@@
mom@@
agü@@
4.0
odos
Orange
Trip.com
Avenue
registra
Gén@@
embaj@@
precisos
bancario
congr@@
consultoría
explotar
liti@@
Pay@@
acre
Alternativamente
Zh@@
audición
municipios
especifica
modular
Laboratorio
subida
accesibilidad
sospechosos
diosa
exced@@
envases
esperados
Ethernet
agas
onina
Motorola
aceptan
presentadas
riego
denuncias
pidieron
obligatoria
compositor
suministra
TON
álisis
atori@@
podr@@
positores
ejecu@@
junt@@
australiano
talla
paci@@
aris
disfrutando
vision@@
esca
ergon@@
evacu@@
oport@@
tificación
sy
medidor
axial
ning@@
Ther@@
desem@@
sustituido
Yamaha
FOR@@
mediana
BER@@
Ig@@
resist@@
reza
registrarse
acuer@@
Heb@@
Consulta
Rich@@
Vladimir
diagnosticar
detiene
r.
Interruptor
satelital
moderada
District
Palace
Bart@@
Escribir
ígenas
geometría
climática
huésped
L.@@
Canon
Gir@@
mix@@
cle
conce@@
tricos
Enten@@
Velocidad
pozo
lan
racion@@
pasaje
Catal@@
LAN
costas
3.5
cueva
disparos
feld
tint@@
abdomen
TECHO
volcán@@
membr@@
Bremen
implantación
odía
Stanley
2.0@@
rup@@
Lí@@
renovado
Dav@@
elevadas
vu@@
amig@@
olím@@
cromos@@
cones
someti@@
PT
vena
Mark@@
Tel
bomberos
dé@@
persistente
Impl@@
procesadores
tistas
corporales
bella
intoxicación
OB@@
calificado
suaves
resorte
Pendientes
absorb@@
Lyon
aker
Detroit
hinchazón
Hilton
gravemente
lech@@
endieron
membranas
mezclar
ê@@
okie
carriles
beneficiarios
reglamentos
Preferiblemente
antil
celulosa
aseguran
capítulos
cera
sintético
elástico
Roger
viejas
peru@@
Botas
Micro
sometidos
Satur@@
kar@@
TS@@
Chil@@
erna
Band@@
pastel
enfati@@
otorgado
cocaína
antemente
expresan
comisiones
n-@@
Water@@
mesas
envej@@
ilidades
live
Cart@@
viera
predicción
T.
bitcoin
Go
franc@@
malici@@
iré
robar
Classic
poeta
Phil@@
ismos
vejiga
dific@@
conten@@
we
vacun@@
itinerario
WIFI
ecológico
incluy@@
e.com
GT
supermercado
Rus@@
informático
genu@@
Quedarse
contraseñas
Retro
Charlie
Brit@@
Profesor
presa
esi@@
Ál@@
ogr@@
Mov@@
proyector
lavavajillas
DJ
alfombra
centran
Stone
conlleva
osci@@
identifican
mutación
Kelly
rer
seg@@
Ciudad@@
abejas
rastre@@
recorrer
vaci@@
reconstruir
india
Pron@@
Dublín
separa
vectorial
retroc@@
autónoma
Crema
emplean
hábitat
Materiales
acudir
Ampliación
star@@
telescopio
afron@@
RO
adyacentes
proporciones
dependi@@
fusion@@
contratistas
CR
emitida
Edi@@
Bun@@
sureste
AF
pensión
haz@@
suroeste
pesti@@
tuberculosis
refres@@
Fiscal
estrel@@
Thom@@
dañado
-relojes
contenida
darán
elegantes
escudo
telefonía
925
Canc@@
Referencia
durabilidad
bru@@
suscrip@@
perjudicial
retirarse
almacenados
Encuentre
prestigio
dureza
witz
abastecimiento
decreto
disp@@
lia
vey
estimula
buc@@
entiendo
MD@@
fruc@@
desafortun@@
-D@@
píxeles
reproducir
Ka@@
levantamiento
excursión
Petr@@
ísima
prosp@@
santa
recomendable
Kl@@
Paraguay
Seúl
iraquí
intern@@
Ell@@
cuch@@
lógico
Rafael
disco@@
dw@@
salsa
Sede
Europe
colonia
organizados
66@@
ado@@
cot@@
izante
cultur@@
detuvo
Lugar
Canada
limitadas
mensajería
hidráulica
eten
ranking
VR
observadores
fundamentos
Dual
legitim@@
NU@@
cordón
colegios
LIN@@
tiro@@
manifest@@
XP
invento
navidad
espectáculos
agi@@
Zo@@
hallazgo
supresión
Norm@@
ür@@
estimar
Prensa
vill@@
ecuación
Tráfico
publ@@
presupuestos
vitro
inarios
Final
Baratos
halla
conmutación
yp@@
indique
sugi@@
duradero
Bloom@@
inales
dispers@@
mierda
Franklin
semestre
phones
intercambiar
patas
cart@@
Chaquetas
Ambiental
respaldar
Bad@@
TH
desarrolladas
cooperar
MBA
ix@@
aislados
estímulo
sauna
Tot@@
costoso
1200
porno@@
muros
arías
perlas
ective
iller
guarda
Jacob
adul@@
oscuros
edero
mecánicas
Determin@@
repetidamente
XVII
dadas
restablecer
solicitó
Vale
sición
mL
VO
protegen
Africa
expect@@
sos@@
hombros
Oklahoma
vulner@@
von
permitirán
húngaro
Arquitectura
own
firmar@@
perpetr@@
banqu@@
900@@
Conoce
Ltd.
gencias
espinal
rap@@
Embajada
She@@
cabezal
acogida
Lis@@
adher@@
fidelidad
Dan
recinto
WC
unil@@
pu
vierten
43@@
terrenos
señoras
Pierre
eligió
equidad
Sco@@
Ámsterdam
óticas
Ocean
apret@@
hemisferio
toria
Bell
quemar
Murcia
vil@@
volcán
talent@@
ásticas
All
Cali@@
enderán
canc@@
Ésta
carece
Ray
Ferr@@
destacan
veterinaria
plat@@
descrip@@
zo@@
dragón
Conserv@@
Posición
altitud
sat@@
angi@@
informal
Medical
cidad
genéticamente
escl@@
Atl@@
Joyería
ofrecidos
orr@@
Ún@@
finas
intrín@@
Luxemburgo
Hat@@
formados
bil
comprendido
añadieron
iner@@
Games
row
ucir
habilitar
Cuarto
gasolineras
áneo
CT
Regalo
ificados
ocupada
irr@@
Wo@@
Chá@@
electrónicas
10,000
romántico
ún
Gas@@
Ferrari
éndum
ografías
Centr@@
palma
sesenta
recomendadas
inestabilidad
disfrutan
Entertainment
cambie
detectado
subrayó
agudo
Jamaica
caball@@
BL@@
ERA
edas
alcan@@
Kiev
climáticas
aplicará
TRI@@
desarrollarse
Respuestas
dorado
aprobados
inmer@@
Sir
Estocolmo
orización
coordinar
argent@@
disparar
Bruce
Blockchain
asen
amplitud
ozono
ALES
LTE
Nicolás
test
Días
Mart@@
previstas
North@@
Seg@@
pongan
atiz@@
dato
tamos
Chin@@
PCB
Felipe
sanguínea
Fuera
bank
manufactur@@
Zi@@
añadiendo
ulla
eme
tia
stos
coli
ensambl@@
productivo
Preci@@
categ@@
televisor
climáticos
wit@@
nervio
italianos
reversa
marcada
eleva
rompe
acres
textiles
dama
Romano
psicológica
5000
Adel@@
HT@@
obtuvieron
Ángel
lock
vide@@
Tops
seminario
visitan
II@@
mado
trampa
rato
Especialmente
1A
blo@@
bodas
oter@@
Reyes
feder@@
rest@@
incluía
suizo
acuáticos
tardar
bilaterales
determinan
clor@@
recibidos
agarr@@
permanentemente
toxicidad
alza
completó
ks@@
F1
monstruo
vivencia
Local
Limited
curvas
viabilidad
anticipación
regeneración
Córdoba
prototipo
permit@@
jue@@
Profes@@
Econom@@
lecho
asentamiento
turbina
aisl@@
Step@@
sép@@
usi@@
Rad@@
mutua
convirtiéndose
enten
músico
Baby
Eventos
erras
sito
Varias
Birmingham
Moto
erra
sugerir
epi@@
esiv@@
Operación
cosech@@
plagas
ANA
equilibrada
promueven
elado
One@@
Microondas
gre@@
corro@@
infusión
personalizadas
desarrollaron
Medios
mencionada
concretos
modificada
integra
péptidos
organizó
mill@@
bien@@
Ele@@
trop@@
inusu@@
Usado
incluyeron
ordenada
extremas
permitiría
Proceso
nit@@
áticamente
transforma
convenciones
tanos
cerem@@
Restaurant
provisional
económicamente
ejerc@@
Note
reactivo
ady
PG
maravill@@
Natur@@
tle
Batalla
agru@@
Zap@@
depender
provisión
fomento
león
inglés-ruso
extensiones
Belleza
infinito
Formación
obstacul@@
cuotas
testimon@@
Overview
lea
adu@@
650
acet@@
Sydney
señalan
sul@@
Anthony
torios
cast
Metro
faro
abo
Spo@@
pronósticos
berry
circunst@@
gica
tern@@
TPU
Vía
multi-@@
OFFERSPRICE
128
tric@@
culmin@@
átomo
Capit@@
Vidrio
productiva
Shar@@
wick
Marcas
ty@@
Protector
MEN@@
indemnización
bancarias
balón
16.@@
Tour@@
gus@@
transparentes
Cabello
excursiones
traves
mostrada
condu@@
Dam@@
polipéptido
ención
hn
terminación
perdidos
multiplic@@
anal
Bell@@
reduc@@
autopista
modalidades
fotografi@@
Patrick
enne
tang@@
blica
sdorf
municipales
endimiento
chips
agón
respiratorias
inhibición
Rights
intérpre@@
Vac@@
psd
Nick
inclinación
resis@@
culares
incrementa
capucha
Philip
U.@@
OH
Políticas
Proteg@@
Coc@@
bene@@
Cola
ZA
Country
adopta
Módulo
fes
PCR
Lind@@
acercarse
Cub@@
Representante
Pér@@
farmacéuticos
derivadas
expuestas
venas
OCDE
consideradas
asco
humanitario
incrust@@
dispuestas
Uganda
rid@@
ader
ove
ce@@
almacenan
Visión
Cisco
acio
cambiará
creadas
deduc@@
Almacenamiento
tratadas
valiosos
Sep@@
Rumania
Recomend@@
Tran@@
generada
Total
bordado
ograp@@
quia
publicadas
sev@@
preserv@@
seminarios
oh
ses
Abril
ámicos
tario
Tomar
amplificador
manipular
fallas
WA
Xperia
Spe@@
pertenecientes
Long@@
190
uer@@
WhatsApp
PV@@
intestinales
genéticas
lap@@
arbitraje
ocupar
10,@@
narco@@
lavar
de-@@
influenza
mangas
complace
Line
atismo
ative
exhor@@
Cav@@
portero
hua
residual
Saudí
cráneo
posibil@@
Cambi@@
cruce
textil
Animal
estarás
desventajas
Diciembre
gluten
calzado
Salm@@
ering
Budapest
anciller
bacteria
atem@@
notablemente
Studios
urbanización
adjudic@@
Mexico
bombilla
exponer
ater@@
avanza
cachor@@
valent@@
Clo@@
sabores
oco@@
elegida
obtén
expe@@
Bud@@
significan
Space
reposo
caracterizada
JAZZ
concep@@
Sac@@
requeridos
adjunto
Cuar@@
interferir
hind@@
ordinario
intermedia
llaves
oscil@@
Avenida
Acu@@
gent@@
óf@@
desviación
indígena
débito
ilíci@@
planet@@
ba@@
recomendar
redu@@
bec@@
Divers@@
shire
noti@@
disparo
nodos
Expertos
subvenciones
gancho
planeado
Eri@@
PB@@
montañ@@
Comput@@
tiroides
hosped@@
madurez
ull
Hur@@
Balcón
Origen
Silver
resonancia
pasajero
play@@
correspondencia
Rog@@
uego
Unidades
Lak@@
genoma
Electric
Martin@@
moderado
nombramiento
colas
muerta
clav@@
Petersburgo
Directora
ceras
Bru@@
xon
Terminal
Toma
Market
caut@@
anemia
ectiva
adapta
pájaro
Denver
Shenzhen
ciego
es.
intercep@@
hers
XI@@
Laur@@
bambú
burbujas
ralent@@
Moderno
HTC
bico
res
cut@@
repetición
umb@@
medido
Maz@@
oke
Bin@@
regula
explora
orgánicas
desempeñan
academ@@
﻿
ose
cuerdas
egu@@
ordenar
extractos
consumi@@
oridad
arreci@@
Jane
Física
inhibidor
egan
encargo
220@@
Eli@@
rigidez
ágico
ógrafo
almidón
taba
portu@@
saneamiento
tripwolf
Ran@@
SF@@
salga
Anter@@
biológicas
frescas
Placa
aberturas
vacacional
estreno
restringir
ubica
terrazas
mid@@
deneg@@
ceda
cinas
polimerización
mera
ABC
umi@@
ocultos
EMPIEZAN
Tenis
dirigen
Cursos
mast@@
indirectamente
traz@@
Trab@@
apariciones
aplicando
aumente
herentes
mitigar
Agreg@@
brevemente
Capitán
virales
botas
Yel@@
produjeron
Som@@
tical
Caball@@
Tubo
labor@@
realidades
inundación
Celebr@@
hip
trices
ure@@
Consum@@
olio
Lea
CAN@@
favoritas
vecindario
natación
liqu@@
Hecho
vali@@
itualidad
reducciones
Obtenga
Particip@@
rug@@
lunar
TRA@@
presionar
validación
apu@@
ateral
Eléctrica
progresiva
aia
Conocimiento
â@@
enmienda
Hoja
Howard
níquel
115
Plástico
Guantes
exigen
correg@@
automatic
clasificados
52@@
Nº
dat@@
inmersión
adelantado
Alan
producidas
MR@@
establ@@
riñón
cualit@@
Brooklyn
5mm
abstracto
CAP@@
Presidencia
sombras
ularidad
copi@@
cine@@
llevados
real@@
acidad
alergia
ovo
Rueda
Eva
cadera
mist@@
colinas
emergente
rez
noble
s.
suspender
quirúrgica
sostenido
1500
anfitri@@
arizada
aust@@
Entre@@
delincuencia
evidentes
híbrido
preferible
despues
sign@@
omer@@
Bogotá
profundizar
prohibir
saltar
ix
HTML
hacerte
Cerr@@
marg@@
Observatorio
Art@@
ectivo
Utah
Limpieza
auxiliar
mp@@
Ga@@
Lut@@
zadas
ecería
colombi@@
Último
Debería
participar@@
Juárez
Bolsos
ole
enviada
mobiliario
Saf@@
Experim@@
resultantes
Boutique
desvi@@
realistas
lact@@
programar
sincronización
Libros
áci@@
mont
metabol@@
niv@@
encrip@@
tubular
Muestra
Editor
CAL@@
mezquita
armente
procur@@
culas
Obtén
pudimos
ADOS
orno
reseñas
agujas
dian
metálicos
103
utilicen
convención
£
icular
Stuttgart
alias
maj@@
diversa
generados
organizadores
ope
oniales
4x4
apel@@
ísi@@
forestal
calentar
ológicamente
inge
Austr@@
endedores
cub@@
ift
consecutivos
Conocer
sulf@@
iz
Disfrute
Syn@@
pintor@@
autorizada
Seis
Team
coral
adoptada
ink@@
Lig@@
promotor
aparezca
Harr@@
caen
Volver
elle@@
ns
Viol@@
fosf@@
Argelia
fit
impre@@
explican
orilla
TT
ING@@
oce@@
Cree
kits
Conector
STE@@
representada
Bayern
Muebles
Chrome
primarias
estrictas
Flor@@
arc@@
ásticos
ponentes
correctos
M.@@
rayas
Palm
adyacente
enérg@@
cuenca
gráficas
2.4
recibo
PT@@
abrigo
plug@@
apelación
abora
espectr@@
decente
sudeste
aporte
glándula
uos
definidas
elu@@
Leon@@
redacción
privilegios
feto
atus
abstr@@
monasterio
Parkinson
Conoci@@
MG
Ax@@
sensaciones
coincide
LD
g-@@
pájaros
induc@@
repe@@
gió
coc@@
las@@
Idiomas
Technologies
publici@@
box@@
Barato
Samuel
amp
inflam@@
ánicos
prótesis
WHOLESALEDIRECTORY
aborda
Haz@@
ault
multa
2.
erro
desperdi@@
electro@@
tampón
calía
Ball@@
right
asión
Permite
ath@@
eston
dibujado
Enseñ@@
mantequilla
VIII
carrocería
implicados
ejerce
day
LC@@
Torres
ampliado
sh
establecieron
Matt
Motocicleta
mercanc@@
realizacion
parci@@
desarrollador
Edimburgo
autén@@
Apl@@
Berry
reparaciones
Clark
reactivos
Pan
pulsión
vistos
balanc@@
tillos
Quebec
Tipos
More
crí@@
español-inglés
Comunicaciones
estric@@
contextos
dilla
asequibles
vil
Comisionado
Melbourne
modificados
verás
Jean-@@
nevera
Inst@@
adiv@@
Carter
iris
mó@@
fid@@
ensión
damente
cac@@
sed
lum@@
bab@@
ures
Panasonic
fy
añaden
dolos
ocitos
Muerte
I.@@
dividida
apps
IE
Tecn@@
mus
ort
jal@@
Law
tóxico
kov
Justo
biografía
zón
cribe
licenci@@
CIO
uk
17.@@
Anderson
Va
tara
Volunt@@
ASIANMARKETS
ation@@
náuseas
coherencia
accesorio
ng
ló
wi@@
sigui@@
actualizadas
Lámparas
icia
Myanmar
Ministros
arrest@@
Cot@@
linterna
cono
Expres@@
coleccion@@
González
semanal
Nik@@
vinculada
DN@@
mpl@@
Legisl@@
núcleos
disol@@
cementerio
recorr@@
Cook
administrado
enado
rami@@
Copenhague
previas
SR@@
OV@@
Pet@@
generadores
impulsos
esh
zen
Anne
sub-@@
turcos
Touch
valorar
Abogado
ernas
ams
monte
cometidos
Conoc@@
Años
dinastía
solid@@
contará
Siete
Kil@@
oscuras
contenga
estir@@
cerró
RU@@
Bridge
altar
mágica
ográficas
water
umen
exclusivos
ícula
wor@@
50-@@
IX
pep@@
concretamente
orcio
time
generando
escol@@
metanol
quez
proyecciones
Principios
shor@@
router
Rober@@
Cour@@
perjudiciales
Trabajadores
Carga
experimentados
lactancia
EV@@
oba
afectará
bano
Enrique
engranaje
curado
fat@@
fec@@
Aj@@
noved@@
nylon
Bilbao
inarias
Ideal
aine
HI
A4
reflujo
SMD
Suc@@
bala
59@@
páncreas
pestaña
IB@@
vacía
Wel@@
patología
nos@@
Brand@@
67@@
rayo
llame
ponder@@
pastillas
democ@@
bastidor
icen
viajero
Tarjetas
fijos
Lucky
Guest
inmobiliario
apas
pren@@
ega-@@
llenas
ament@@
Democ@@
Nova
padecen
720
Vancouver
cerrados
amanecer
idar
vención
BCE
oportuna
familiarizarse
acompaña
Tes@@
enviando
renovar
jerarquía
Somalia
SEC
bes@@
construcciones
ladrillo
atado
p-@@
Alpes
ascendente
blind@@
Venus
derivan
GL@@
Nápoles
agonistas
ex-@@
Rh@@
darte
Baviera
ingos
magistr@@
eric@@
Echa
Corn@@
hex@@
Duración
rusas
novedad
andesa
dea
éster
histór@@
dicciones
arina
pescadores
zoom
Isabel
reconocidas
Via
hoo
Encu@@
Hid@@
Visa
to-@@
soporta
chat@@
Iv@@
precioso
Gall@@
lú@@
Douglas
ilimitado
designación
Arkansas
-R@@
explosi@@
cruceros
apt@@
pará@@
Key@@
darlo
Philips
Aviv
abren
Him@@
examina
rar@@
Hz
tun@@
licenciatura
promociones
nombrar
chen
rige
Anuncios
olla
itados
urb@@
TRO
carrota
trof@@
pol
Hop@@
pones
medianas
yd
Raj@@
rodeada
estabilización
vecinas
sembr@@
Lon@@
Potencia
ranuras
cláusula
requiera
ci
carbonato
desplazados
Inmigración
IVA
Arena
-2
guiado
infracción
fugas
dibuj@@
inyecciones
ivas
bolsillos
raros
andar
Armenia
rat@@
consej@@
encargados
admiten
Armada
Parti@@
francés-inglés
ectivas
Emer@@
típicos
Steven
acho
listado
Dicha
innov@@
integrantes
eroides
Pese
Back@@
war@@
Of
sur-@@
subcat
alimentarios
alem@@
españolas
Inalámbrico
IL-@@
Tabaco
Edición
docentes
Sky
pad
Árabe
enario
Sín@@
ever@@
ø@@
romántica
ANO
reglamento
estabilizar
Sad@@
eau
Sitios
platino
Compartir
inglés-polaco
one@@
soviético
analg@@
endedor
Iowa
18.@@
anne
alimenta
codific@@
clasificado
etileno
singular
Fría
irregular
afa
cloro
illy
RG@@
acero-inoxidable-caja
pulido
adolesc@@
cacao
Moon
desventaja
Flor
iano
desvan@@
plumas
EG@@
eno@@
Falun
EPA
enfermera
nativo
sue@@
escriba
arro
consolidar
envíos
08@@
gieron
Alli@@
ornos
rendición
vers
Daily
Gabriel
Walter
lac@@
abast@@
surgido
Mochila
biciones
verticales
impedi@@
Excel@@
adap@@
Principal
intervenir
dep@@
restre
Euro
mula
aprov@@
ficha
acent@@
AJ@@
eva
musculares
cerradas
azz@@
intolerancia
SAP
Kol@@
implementado
flotante
XI
formaciones
monolok.info
ultravioleta
mantend@@
reparto
restres
representados
disput@@
cepas
fantasma
Campe@@
resulte
tornillos
secundarias
Estándar
Jason
Rumanía
divid@@
º@@
1.3
especificación
alteración
Lodge
preocupes
yr@@
menopausia
Canarias
Nad@@
Russell
EA
exac@@
emáticamente
parche
escalas
precipitación
jurídicos
colap@@
sobren@@
Ast@@
Wireless
roj@@
Today
saldo
contrarrestar
pet@@
subraya
Sandalias
UU.
comunitarias
TB
escáner
Signi@@
Snow@@
long@@
sujetas
TM
ópera
JU@@
táctica
ación@@
consistencia
unción
seri@@
Diario
20.000
1,6
estricta
vibraciones
promedios
envasado
landesa
excep@@
Energ@@
levadura
Cuentas
nominal
plur@@
granjas
ayuno
ícola
FAR@@
precedente
KO@@
repi@@
Diez
preparan
policiales
preven@@
fem@@
dirigirse
pulverización
Archivo
suites
benefician
Mantener
asegurando
Prince
congreso
fron@@
pasillo
maldi@@
Security
On
galerías
Access
Azerbaiyán
encialmente
glándulas
Card
Moore
ML
prue@@
rog@@
ery
estad
inhal@@
tea
Relig@@
cil@@
diur@@
Agenda
Armadas
reglament@@
aden@@
Reseñas
hidrocarburos
anime
eligen
Electr@@
vinculadas
Food
ovejas
Opel
LES
pusi@@
mio
114
Sah@@
obtenga
adar
auricular
subterrá@@
comités
bro@@
Registr@@
ficaciones
pilar
positivamente
planchado
Crees
pasivo
dición
Kom@@
académicas
Opiniones
Charlotte
Hierro
iber@@
antioxidante
bloqueado
uto
arranc@@
madr@@
chasis
irritación
alizando
Ventilador
criptomon@@
envíe
ket@@
vice@@
Nú@@
ome@@
estricto
SAN@@
over@@
film
Marc
15-@@
articul@@
Agosto
despacho
requerirá
centímetros
colombiano
Analytics
portada
Cit@@
contracción
Stef@@
helado
adelant@@
chu@@
Medic@@
Gel
Vila
áculo
Fro@@
emisor
farmacéutico
mediación
brit@@
igh@@
extendida
tru@@
Milenio
Escuelas
arg@@
alteraciones
landés
métricas
integrales
Mej@@
Ubicado
lavó
sindicato
agradecimiento
cortesía
122
Flu@@
JO@@
Liverpool
Sex@@
Reproductor
ô@@
arth
Gad@@
ectomía
K.
FI
ads
contempla
Mississippi
aeró@@
chis@@
retroalimentación
instalada
banc@@
Crédito
programada
influyen
portugu@@
inglés-checo
get
Configuración
copiar
oris
Kate
procesado
tratarse
caminata
cigarrillo
Equipamiento
Alb@@
Actividad
conced@@
bri@@
Imperial
desliz@@
estipul@@
Iglesias
polietileno
pur
ß@@
telefónicas
blanque@@
susceptibles
prendas
GP
inauguración
localidades
reclutamiento
Salida
gi
ficó
ensamblaje
quilla
promoviendo
elasticidad
confía
auta
xim@@
congelación
Horno
abia
laminado
universitaria
Lab
Wy@@
Read
impresiones
NS@@
celebraciones
arry
adres
vascular
mág@@
cambiante
adhesiva
Suzuki
alo@@
Sexy
maternidad
otorgar
Quiere
deos
Proyectos
recomendada
empuje
fósforo
Índice
epil@@
virgen
exo
turca
EX
Cadena
vinagre
glóbulos
enum@@
impulsa
AAA
Human@@
Gy@@
Composición
eon
anestesia
reducirá
wich
aportes
super
54@@
film@@
satur@@
borrar
Lady
max
inmunes
FER@@
sable
modalidad
estrógeno
Inver@@
coeficiente
ucción
tazas
preciosas
duci@@
SY@@
Leipzig
dola
cascada
MAX
Open@@
revisado
GREATERTHAN
Independencia
Potter
CEE
refriger@@
lecturas
disminuyendo
ajedrez
demora
mecanizado
abi
aislada
cológ@@
austr@@
Cleveland
Cob@@
especias
cerdos
low@@
alcanzan
Disfruta
descargas
jurídicas
póngase
bonita
Africana
Fid@@
manifi@@
fórmulas
ful
enfocado
fabrica
stadt
LIVESTORE
tranquil@@
4K
Mam@@
gén@@
Ern@@
fiquen
nad@@
EM
ífer@@
FU@@
Rand@@
icias
accede
arcilla
conectores
wan
acoge
Premier
donante
actado
detalladas
realicen
Americano
már@@
barriles
colisión
acuático
orificios
Británica
ús
complicada
electrodomésticos
Stre@@
alp@@
gano
trucos
Camisas
nich@@
autoc@@
eador
69@@
Tanzania
Lavadora
alum@@
Buck@@
Record@@
afinidad
colocan
fusiones
istán
contratado
ilustraciones
pintar
Presid@@
encantador
longitudes
metálica
Hot@@
Cantidad
GSM
familiariz@@
ze@@
villas
inalámbricos
atleta
bros
1,3
recordatorio
Recor@@
fran@@
dl@@
War
enco
ambl@@
Función
ficios
provocar@@
Revisión
play
mono
pintor
inidad
XV
Canaria
f-@@
nat@@
erie
Jack@@
Última
HER@@
aldo
Roy@@
Tag
calienta
consid@@
hospital@@
tramo
ENT@@
ago@@
Andy
reservados
triángulo
brasileña
íficas
especialización
REN@@
Naranja
caudal
vul@@
CCTV
actas
demol@@
representaciones
enfermería
quete
abandono
fili@@
Fa@@
vaginal
PY@@
exces@@
artefactos
Chalet
Elec@@
eren
Aprov@@
enni@@
Camboya
Verificar
succión
ancos
contribuyendo
taxis
conejo
Deb@@
cafetería
Montaña
Chen
ómicos
greg@@
pasajes
haré
madura
explícitamente
Febrero
Banda
manguito
vibrante
campamentos
bilateral
alturas
trin@@
continuado
Anton@@
tall@@
wo@@
Jimmy
Necesit@@
Carl
Resistencia
pierdas
estableciendo
Day@@
Contiene
Dispon@@
Chi
eadas
equip@@
Academy
Dragon
electromagn@@
acel@@
abraz@@
Plancha
abas
`@@
cuantit@@
repercusiones
Mejora
aster
Efectos
Diseñador
sódico
TRO@@
otrans@@
Bang@@
Có@@
desgarr@@
guardias
altavoces
cancer@@
mania
ues
Baltimore
confiabilidad
Fres@@
sencillos
inmuebles
integradas
By@@
situ
Enero
model@@
transmiten
-subcat
caídas
enumer@@
Significado
Pequeño
abilidades
Explorer
Dorado
Harris
bacteriana
equilibrado
Tome
agra
pdf
explosiones
asiáticos
sie
sucur@@
Residencial
Ello
carteles
Bosnia
anger
autopistas
bet
Eco@@
gación
insertar
Paci@@
caldera
Climático
Rover
wer@@
subsidios
altern@@
inflamatorias
CRE@@
Health@@
turno
Ins@@
álogos
Cho@@
Exposición
opuestos
exter@@
dificult@@
pal
Neg@@
Secre@@
ofrecerle
53@@
cintas
sombr@@
Psicología
book
provisto
hormonal
modernización
sucesiv@@
cicli@@
éticamente
rectangular
restric@@
Christopher
navid@@
suscri@@
Cooper
550
íficos
Varsovia
Fuego
Grab@@
movi@@
arz@@
12,@@
uev@@
ejemplar
euc@@
Alexand@@
Lituania
marin@@
Nature
dinámicas
Word
otec@@
ediciones
sanar
EC
alos
expuesta
enfrentamientos
maxim@@
absorbe
modelado
Jul@@
Pulgadas
teca
Hannover
icada
Arco
Etiqueta
interactivo
prolon@@
dele@@
formales
clasificar
Lang@@
TES
urgia
PNUD
gh@@
tive
Head
aver@@
yl
ubicadas
plantar
Planificación
impresa
Auckland
autónomo
eld
Comprado
artesanía
epí@@
Rusa
controladas
Franja
comparará
sam@@
fractura
Dortmund
diferencial
AZ@@
Marie
conducido
Sigui@@
Modelos
mariposa
sand@@
gy
Tap@@
testi@@
land@@
Nuev@@
idg@@
elegancia
úl
sopl@@
techos
Master@@
LV@@
secas
menes
Laura
ree
Justin
adquisiciones
Boda
sah@@
pers
esculturas
2.1
Connecticut
event@@
resfri@@
Caza
salvaguard@@
proponer
Muer@@
farmacológ@@
convier@@
conmemor@@
Feria
garantizado
ándote
reclamarlo
ck
Chevrolet
tomate
pleg@@
salud@@
ku@@
cubana
Khan
Hugo
John@@
vido
truco
incorrecta
medicinales
ive
evacuación
Gem@@
ş@@
reemplazado
Kab@@
verso
costera
celebran
usen
elef@@
ray
inga
Ross
aven@@
Igualmente
impu@@
n.@@
Innov@@
titulada
fallos
asignados
mineros
Selección
novedades
Electrónica
Mitsubishi
Mensaje
cuna
Auriculares
Reclamar
Chem@@
Salom@@
sábados
Postal
FS@@
suavemente
ACNUR
argentino
vigentes
30-@@
ACE
Warren
1959
concentró
acias
Records
cocción
pot
Care
analizaron
Pró@@
Resulta
clar@@
inalmente
Zaragoza
Max@@
ZTE
coordenadas
orillas
Damasco
parcela
Ner@@
amino
Cari@@
Glasgow
univers@@
alojarse
expulsión
presu@@
ovascular
precis@@
ROM
11-@@
margin@@
reversible
coordinador
Cancún
aulas
ert@@
Reforma
tina
arrend@@
pilas
Caída
imitación
cortina
ray@@
ugh
GF@@
Islámica
Martín
reglam@@
Exchange
consi@@
Lanz@@
ticia
vacacionales
ı@@
oco
esquemas
inada
Control@@
especialidad
74@@
à@@
personalización
Alejandro
Desayuno
Vídeo
os-
goza
étnicos
suprimir
Público
Sofá
convenio
solucion@@
Main
Hav@@
clasificaciones
concesiones
cilindros
responsab@@
revol@@
ofici@@
potenciar
115@@
Investigaciones
difieren
garantizan
dar@@
Recepción
heces
cese
vap@@
Brad@@
Clu@@
Centroamérica
Conclu@@
mención
los@@
rendimientos
remolque
inducir
alertas
aban@@
comercialmente
dispens@@
glut@@
ture
nutricionales
Bron@@
inund@@
tob@@
haw@@
Fábrica
Lem@@
deformación
JA
favorecer
ony
by@@
vigor@@
PayPal
Gobiernos
Sebastián
obb
nicotina
erial
icina
menstrual
Set@@
poliuretano
asimil@@
emocionantes
1,4
hl@@
recuento
déci@@
06@@
ombre
sanitario
adquiere
116
hepática
intu@@
spa@@
impone
Sánchez
marítima
Empl@@
Bom@@
retrasos
patógenos
disolventes
filial
kin@@
Igu@@
universales
inglés-húngaro
segun
igan
Sid@@
principiantes
acordaron
Vall@@
repercu@@
Edge
polim@@
Ib@@
monstruos
Anim@@
e.
ecológicos
submarino
lumbr@@
piece
DP
Ce@@
magnífico
identificador
velas
Viejo
metal@@
aminas
Hip@@
gruesa
dul@@
Matthe@@
Tech@@
Lord
limpias
distribuye
gesto
Ban
Cay@@
tions
acudi@@
an-@@
infecciosas
perfectos
Men
Leonardo
Jonathan
Camp
Nich@@
plic@@
rub@@
Nas@@
estática
Avanz@@
ots
DER
Clasificación
oli
Bowl
urt
Villas
credenciales
exportadores
God@@
noctur@@
Force
IO
Emper@@
Mik@@
Vino
ahorra
acompañados
nasal
1,8
idores
Ho
igr@@
indicada
sustantivo
Dame
recibidas
dibujar
1.6@@
ejecutará
Municipal
matrícula
very
impunidad
Estratég@@
liquidez
J.@@
exención
neutral
Antigua
Honor
acumulado
coreana
Ethereum
establezca
Gerente
Nord@@
nig@@
nan@@
udes
Hun@@
llevarán
I.
abrirá
PN
V.
detallados
Peri@@
Mod
íticas
fos
despeg@@
ánea
hos
aspiración
NUEVA
ajas
lienzo
Alberto
Pronóstico
Veri@@
observaron
izon
Turbo
home@@
crita
Gur@@
Solutions
rodil@@
unar
escand@@
peras
azol
2A
ig
PAN@@
sob@@
tirar
delici@@
calibración
xen@@
agro@@
explosivos
Usuarios
disminuyó
nº
riéndose
aduan@@
semi-@@
Tablet
recipientes
Vivienda
entreten@@
Michel
olf
durmi@@
Pensé
facultades
Düsseldorf
HS@@
Peg@@
135
TV@@
cruzada
interrumpir
tuyo
embal@@
HR@@
internacion@@
mosquitos
oportuno
Estrella
Kuwait
Camisa
cristal-de-zafiro
Snap@@
Schw@@
Estonia
consig@@
Rosario
Necesito
privilegi@@
descomposición
alar@@
-1@@
uces
lastminute.com
Hand@@
Peugeot
icana
iphone
técn@@
Down
IL
Problemas
For
GB@@
clo@@
ástico
Bali
aumentada
uter@@
ecte
ection
costura
Madison
Cameron
vie
Cama
aval@@
subyacentes
dias
animado
IOS
protectores
tos@@
ia@@
inhibir
productivos
acelerado
Hamburgo
wat@@
erosión
gó
Frontera
Serg@@
pimienta
Auto@@
QUE@@
EEE
Diesel
aster@@
turbul@@
lada
reestructuración
estacionales
evalúa
azúcares
under@@
poros
alemán-inglés
from
ga@@
aran@@
Soluciones
templado
desagradable
sellos
fríos
electorales
urgentes
line@@
hormonales
Vision
Atlas
simplicidad
afr@@
elástica
aw
sueco
docente
sha@@
Regres@@
secreción
work
marat@@
Parker
foment@@
imposición
beneficiosos
1900
multidiscipl@@
costeras
W-@@
aura
colectivos
exigentes
concentra
opuesta
Water
Diseñ@@
luci@@
giratorio
tante
Trad@@
Residence
iss@@
manzanas
gustos
concede
acios
eliminando
estadísticos
vís@@
desmant@@
ántica
malaria
Oscuro
Alojamientos
Angel@@
GEN@@
mecan@@
Conduc@@
psi@@
leyendas
uti@@
Ayúdenos
Cookies
cepa
BI
Great
impresoras
simplificar
reservado
Farm@@
legendario
istr@@
Regalos
TRA
win
š@@
Abierto
ligeros
OF@@
actualizados
acuario
retina
Adu@@
garr@@
cerradura
circundante
mediterránea
His@@
izarse
eliminan
rigen
dillas
codifica
Ir
enteros
POR
aa
repuestos
Ef@@
distribuido
constituido
Maya
energéticos
ners
interfaces
Infantil
terapéuticos
constituir
Lawrence
amigable
fundición
tn@@
4000
soportes
íe
Get@@
6000
Morales
decorativo
ère
acha
sobresali@@
lus
Ejecutiva
esquel@@
tarda
maqu@@
orro@@
fermentación
indicando
inflamatorios
mm@@
NH@@
pandemia
oft@@
bellas
solubles
face
2D
Polí@@
preparó
sexta
OneTwoTrip.com
carb@@
Cala
chen@@
nó@@
XML
Animales
íticos
prudencia
modifica
Jet
Heights
Aparcamiento
Ster@@
fato
Formas
jes
Conten@@
Id@@
COS
nativa
Book
nueces
magnífica
Utilizando
VEN@@
metr@@
111
Ow@@
espi@@
Sue@@
preciosa
←
experimentales
Instalaciones
concesionarios
acum@@
jaula
3.1
bloquea
Mercedes-Benz
exp@@
Península
frágil
kes@@
relojes-@@
traductor
Marshall
comunica
-T@@
convocatoria
moj@@
Gordon
agar
Quinta
microscopio
creará
MX
pizza
arteria
Guillermo
cén@@
Daw@@
endorf
alienta
SIÓN
Empleo
intercambiador
multi
romance
Mom@@
confin@@
Andrés
Dispositivos
transfi@@
sanitarias
guiada
pire
Generales
Publicidad
Retrato
inmuno@@
oxi@@
cust@@
Night
pedazo
actar
lington
Top@@
autenticidad
Cabeza
condensador
arom@@
Modo
nic@@
ultrasonido
brasile@@
Arts
Kim@@
insta
incorrecto
ionales
esquiz@@
lona
sótano
Family
Ghana
convirti@@
19.@@
incrementado
Hampshire
Princesa
Proporciona
econ@@
Jr
2B
Jefferson
pcs
proporcional
disponemos
suavi@@
Light@@
Eau
a.com
contrastan
abarcan
recom@@
Válvula
Resp@@
Barrio
veh@@
gastado
mundialmente
suciedad
Secret
Laboral
Collar
conforman
fiables
amaz@@
mínimas
ever
imi@@
insignia
efici@@
09@@
Robin
202
descendente
goles
grúa
chorro
inmunitario
inclusive
mol
oces
sinerg@@
carbox@@
comprimidos
ustri@@
peat@@
iti
pegamento
PLA@@
óloga
Kosovo
R.@@
duran
ogar
distribuidos
Lock@@
CONDUCTOR
anna
quemaduras
parking
eves
S8
Rud@@
infrarrojos
DER@@
Motores
aflu@@
muchacho
deficiente
aerosol
registraron
inmobiliaria
Lucha
Disponible
obo
aprueba
Memorial
onomía
Gary
olítica
tien@@
Blan@@
South@@
monitorización
ends
SL
Whe@@
adquirida
agarre
pozos
jengibre
CAS@@
envol@@
graduación
DERECHA
Brasi@@
Eval@@
Dakota
aldas
Chain
geografía
archiv@@
ró@@
tub@@
tomates
Inv@@
máximos
wear
Estadounidense
Tendances
Spring
tibles
Agencias
plus
URA
SAL@@
zi
arrugas
desfile
presentando
Hans@@
89@@
estup@@
TOR@@
Senderismo
Eduardo
tech
porcent@@
roci@@
Rick
conductos
TW@@
localmente
culos
proximal
Lagos
biomasa
mostramos
teórico
partición
opía
XIII
Munich
Hub
Org@@
retor@@
Estu@@
Industri@@
fet@@
bols@@
Silva
séis
0,2
prevent@@
ée
asp@@
acuoso
medicinal
otipo
plancha
Teclado
órico
moviendo
Espejo
graso
varilla
dividen
sor
antimicrobi@@
acético
Jazz
otor@@
encabezado
gastronomía
alcoh@@
opin@@
preparaciones
Armas
Jennifer
List@@
Portland
Portal
aus
cardiaca
preferidos
mejoramiento
GC
SOLAR
107
asistieron
oduc@@
Puebla
electri@@
Delgado
transformador
Shel@@
eur
aproximación
Pérez
Fácil
PRO
recuperado
size
Maine
Conexión
desn@@
antem@@
Autor@@
itis
Estadio
devuelve
tiras
Francesa
ceder
urban@@
ents
ologías
tempor@@
lóg@@
Valores
manas
B.@@
merce
dinam@@
subasta
helicóp@@
hemat@@
JE
Teresa
dle
tacto
pais@@
trataron
Técnica
simultánea
Adams
win@@
5V
granel
enfermeras
Newton
Thor@@
errónea
vagina
consisti@@
métrica
alérgica
Fur@@
trix
torsión
somnio
israel@@
controversi@@
evaporación
cuevas
pala
acogedor
primarios
Dou@@
sopa
Amigos
850
active
ear@@
Eléctrico
Bicicleta
párrafos
Ecu@@
mosaico
Colón
provocan
LTD
911
muestreo
Kel@@
extrae
streaming
kW
atmosférica
recogidos
Conver@@
anio
rell@@
Especiales
estatu@@
da@@
Barra
mayoristas
estre
sorprendentemente
refuerza
5.5
ílica
Pad
acústica
Sak@@
combinadas
dimensional
distingue
350@@
Extr@@
Exterior
versátil
almacenada
Edition
infectados
Nort@@
nudos
INE
tibur@@
Wayne
Francis
ingr@@
adecu@@
Ví@@
Hob@@
anclaje
Margar@@
hospitalidad
elería
BAR@@
telef@@
meteorológica
Toledo
rest
buscador
ppm
salvaguar@@
host
eira
nas@@
mitigación
secó
radial
caracterizan
incid@@
epidemi@@
76@@
trabajadoras
Javier
PET
transmitida
apil@@
solv@@
erradicar
Supongo
instó
Oslo
traducir
étnica
Frank@@
85@@
ality
Especificaciones
Responsabilidad
04@@
ampas
Cartagena
minera
ences
colector
APP
cuar@@
cesta
inolvidable
versi@@
congén@@
sl@@
desaf@@
home
colog@@
alegre
Sport@@
CAD
exportar
Tay@@
GA@@
viceversa
opa
Nak@@
rollo
Oaxaca
pesc@@
transmitido
IZ@@
humanitarias
Maestr@@
reproductiva
CAS
SB@@
inherente
Ball
viajando
tope
metano
cor
term@@
Múnich
adelg@@
asigna
absorbente
errero
Hem@@
Moz@@
Glen@@
mon
evel@@
fertilizantes
situadas
estamp@@
Remoto
arning
Palmas
Bang
aportan
aplicadas
itudes
ítica
gton
inaug@@
SAN
eland
agio
Sust@@
unidas
gemelos
Dar
dilat@@
boro
ANTE
Fotografías
consci@@
píldoras
mixto
pediá@@
aul@@
GMT
erales
ecidas
denominación
DM
Wind@@
blando
acks
ueva
ont
260
Viajes
escasos
Estrellas
Mejorar
LAR
Contra
Roberto
esqueleto
almohada
abrevi@@
alfa
mark
oscopia
impregn@@
Stri@@
volatilidad
Sili@@
medalla
armadura
transmisiones
Horas
orient@@
deberás
encarga
Totales
facción
Mec@@
cableado
ém@@
sville
túneles
legislativo
mejorará
forzada
pula
acidez
Deutsche
formadas
cría
signi@@
Riviera
Fed@@
Color@@
operativas
ómodo
Book@@
icul@@
Valent@@
génica
hof
Brook@@
Largo
ESA
vientre
XII
TT@@
.0@@
MK@@
numero
neumonía
fuerz@@
comestibles
tería
HY@@
diverso
medio@@
mez@@
muev@@
epid@@
Falls
Forest
Leo
tantes
aní
trans
Juventud
pañ@@
perial
Jan
Ped@@
regresando
es.@@
atin@@
FE
velar
zos
A3
digan
octavo
resiliencia
rechace
acordó
operado
antería
desequilibrio
producirá
licitación
ejemplares
Jav@@
servirá
Mantenimiento
Shop
ames
terapéutica
Paseo
KG
Fuentes
Girl
Dave
tridimensional
Ex
Bosch
Polvo
It@@
First
uj@@
Alice
pí@@
mantuvieron
barril
Divorcios
Vicente
N.
requeridas
Inversión
nar
coinciden
chin@@
buf@@
complementar
Calendario
marí@@
organizador
Cumpl@@
Sajonia
Cryp@@
Dir@@
agotamiento
ximo
my@@
cálida
encantadora
aik@@
Paul@@
Eslovaquia
Anillos
Usar
Médica
pasiva
máscaras
ves@@
establecerse
ATA
Elegante
rublos
-G@@
Page
coincidencia
ecología
empl@@
cariño
resuelve
Constitu@@
tometr@@
Solici@@
Autocaravanas
instalados
ph
Ajuste
Bienvenidos
Secret@@
interrup@@
Preparación
propuls@@
ejas
araña
cros@@
uce
guila
enviará
gastron@@
fó@@
ming
nik
Ud@@
empír@@
Oce@@
ism
pic
ópolis
vómitos
Sofía
empoderamiento
instruc@@
MUJER
bara
Louisiana
miniatura
diseñó
Humano
étnico
Community
vengan
automatico
Interamericana
escapar@@
MEDI@@
ium
124
ED
OL
Fíjese
conceptual
Standard
.net
observador
enju@@
promocionales
Iz@@
Worl@@
Oliver
Crea
enmascar@@
ANT@@
Aus@@
ajos
vide
tobillo
ad-@@
cambiantes
ashi@@
Pok@@
Autónoma
Andre@@
almacenes
cuestionario
Marí@@
Motos
Pueblos
Fred@@
retira
Guerrero
CEN@@
moleculares
Agrad@@
Pelo
vocales
oramiento
rejilla
francesas
vinculante
ometría
centró
Wikipedia
Anti-@@
carr@@
Clim@@
desigualdades
repite
Ide@@
ince
uestr@@
muchachos
Smart@@
oto@@
Niza
Hablando
fas
orador
dedicadas
118
WEGOSHOP
usco
Iconos
edra
.es
plom@@
PF
conductividad
transpirable
supongo
lino
H.@@
pavim@@
pientes
GF
ofrezca
Cuer@@
burgo
Decor@@
Decreto
excluir
ajustarse
viar
obstrucción
andas
Aseg@@
filtrar
apagado
Run@@
Ou@@
123
Gastos
1800
abad
ordinaria
márgenes
falda
dan@@
Psi@@
lina
carpetas
preventiva
pasivos
Piedra
torneos
impuestas
FL@@
Simple
gios
apti@@
Alp@@
Beneficios
Zen@@
contador
abe
Tela
3.
Diamante
Gab@@
excre@@
bell@@
deslizante
magnéticos
Scr@@
aplique
Program@@
orb@@
meros
arter
auxiliares
indicados
cortinas
mensajero
Sonido
confid@@
ieren
biopsia
estimada
boutique
consisten
print
ern
déj@@
sintéticos
Travel
encontraremos
Martínez
cáp@@
impiden
patrocinadores
frenado
maravillosas
Nutrición
prostitu@@
dra
vamente
imanes
banderas
colocó
multilingüe
antenas
Walker
perfume
Lawyertys
Altern@@
estatuto
invitó
mM
Ferro@@
privilegiada
Amar@@
ahor@@
reciclado
sc@@
cuad@@
posgrado
nett
planific@@
arquitectónico
remotas
Másters
ishing
Iron
uv@@
Pulsera
hat@@
uniformes
precisas
amonio
ashi
Shin@@
aratas
Sop@@
parásitos
Stein@@
Vuelo
bah@@
neu@@
ajustado
PL
Tercera
instancias
esterilización
Lot@@
alizarse
radica
alimentario
adel@@
Debo
Won@@
att
lípidos
Grove
desech@@
ulada
observan
Visual
ucran@@
consecución
SEÑ@@
Tower
Famili@@
tía
park
cristal@@
prestan
ape@@
parrilla
selectiva
laser
Minibar
Joan
Equ@@
FT
polipropileno
Crimea
Montana
iPod
enlaz@@
Brot@@
libra
bronqui@@
Key
hebilla
ods
Siemens
unes
rell
Trade
Conservación
Broadway
orientados
edos
Distribución
Kids
delegaciones
ket
sintética
lotes
ágica
Brun@@
demostraron
HA@@
Liberación
Medicamentos
Woods
1.0@@
py@@
ung@@
mia
1,1
Etapa
periférica
Pop
enmiendas
buffet
zapatillas
Jaco@@
Jeep
dis
Administrador
Karl
encamin@@
ün@@
Normas
injer@@
ectiv@@
lum
DR
Rupia
Park@@
retratos
rígido
Fire
congelador
hidromasaje
stre@@
dos@@
infecci@@
date
07@@
estral
sustanci@@
Aventura
TAL
neces@@
satisfactoria
ovi@@
gros@@
Formulario
piz@@
adaptada
fracciones
deslizamiento
gastrointestinal
oscu@@
Gibraltar
antiles
granito
Lá@@
extenderse
mn
Gun@@
orientadas
tología
zum@@
uación
Automatic
European
PH@@
metropolitana
igh
anjas
01@@
epsia
respiratorio
Diseñado
Joy@@
DIN
Gimnasio
insu@@
cív@@
Motel
bida
Eslovenia
aminoácido
analítica
Persona
Outlook
cy@@
emulsión
fice
Gig@@
Tum@@
diferenciación
5x@@
hil
Dani@@
suelta
fluctuaciones
extrusión
Presentación
disuel@@
Acep@@
uria
URSS
acelera
llevadas
óleo
orías
azamiento
cuchilla
desactivar
chapa
pigmento
Darwin
edia
Nancy
caña
CV@@
310
Nacido
TD@@
píld@@
Contabilidad
pig@@
Lud@@
rir
obtenidas
Ed
mini@@
continuas
SON@@
entrel@@
engranajes
Efecto
Perro
sudor
Exten@@
composi@@
espectador
presenten
132
coagulación
Árbol
uga
cenizas
atería
eval@@
clasi@@
ck@@
Cum@@
fragancia
ofobia
segreg@@
trás
Mini@@
administraciones
leucemia
autent@@
viales
restringido
alin@@
ámicas
especialidades
Children
vitalidad
cuadrada
CES@@
ensay@@
Slim
gastro@@
sostenida
AMA
aislar
fracturas
participen
geográficas
Ascensor
2,4
inflamatoria
ogén@@
genos
mueble
Gros@@
Mañana
Hart@@
masculinos
Financial
ML@@
alizador
Alex@@
especializa
ingham
12V
achi
Ingeni@@
the@@
ois
ermin@@
jet
bili@@
lot
bodega
casilla
Lag@@
ains
pretenden
Pennsylvania
Flixbus
Hacienda
simult@@
skaya
Hard@@
funcionalidades
derivada
desequilibr@@
nam@@
pulgada
Elena
meti@@
ila
ejecutado
280
kes
íaco
cohesión
ARIO
Castle
Presión
alimentado
perla
HT
preferidas
330
extern@@
atributo
producciones
Hervidor
posicion@@
alf@@
milímetros
4,5
olítico
boy
tác@@
Esquí
ede
rlo
S7
Net
Sach@@
incorporada
86@@
Good
gall@@
orth
Cross
anterioridad
Ric@@
ded
émicas
inflable
émicos
petr@@
increm@@
concurr@@
Aliment@@
destinatario
Jim@@
hui
Técn@@
Billy
ministerios
iler
ríg@@
fort
quir@@
LT
semanales
Peter@@
practicantes
Aero@@
cruzado
Skype
plantación
1,7
Enfermedad
WO
caballero
yardas
CICR
filtró
bienven@@
Mazda
boleto
20.@@
motor@@
uco
anomalías
discapacitados
Pac@@
relajante
sobres@@
Nam@@
Tun@@
Lisa
il-@@
luminoso
Ny@@
Hotels
acantil@@
ingu@@
Mauricio
Contribu@@
Ventas
Gand@@
referido
paraguas
comprobación
R1
idel@@
encargada
dote
inconvenientes
bor
Ankara
facilitan
Embalaje
prost@@
ganos
ispo
convenios
onc@@
Estudiantes
leña
ejecutan
diges@@
suspendido
ui
inhi@@
subterráneo
Aprende
Kaz@@
arts
Cés@@
Organizaciones
deshidratación
obstru@@
k-@@
as.
gin
inducida
instala
carrito
109
hidratación
umbre
glos@@
agen
deseadas
velo
vacas
utensilios
ínico
Certificados
úlceras
Faro
O2
AND
DH
Gom@@
Vendedor
extrajo
zh@@
lip
Sao
Regul@@
ely
espin@@
ád@@
iana
Ronda
Santander
Bail@@
impurezas
uva
Baker
Descubra
Nico@@
.exe
Capaci@@
Boy
BT
Experiencia
adena
elefante
Macedonia
ladrillos
cidental
Solución
nucleótidos
room
Hernández
Universit@@
var
Telef@@
Confederación
tl@@
aprobadas
Jóvenes
Jord@@
inglés-chino
telas
It
intens@@
galletas
liban@@
BP
osteoporosis
Activ@@
desarme
mucosa
stand
parciales
Apoy@@
femeninos
Altavoz
Voz
bis
Thi@@
Refugiados
atmosf@@
OT@@
Stadt
rib@@
sensibilización
Pequeña
any
IMP@@
Yu@@
remun@@
eneración
intersección
chipiélago
ultrasónico
cy
idan
micas
gentes
SSD
inta
jar@@
vigilar
atractivas
fisc@@
Tecnologías
Chal@@
Jerry
ón-@@
NE
amplificación
Provid@@
ducir
analizó
Mega
atamente
Déj@@
gara
ajeros
establec@@
cabelludo
XIV
OK
vej@@
Alcal@@
Harbor
Hunter
auspi@@
DNS
automatizado
adaptados
todocoleccion
zoológico
confer@@
enfri@@
molino
ink
Sacramento
ander
áp@@
preparativos
extremidades
anat@@
hou
Dada
styling
uniones
interactiva
coá@@
bacteri@@
cá@@
bicos
psori@@
emper@@
orte
DB@@
ebras
quita
axis
máximas
izaron
almend@@
Up@@
Johnny
Fiat
Coch@@
Utiliza
Jugar
proporcionamos
Wa@@
Cash
inspecciones
tours
incub@@
Ven
infrarrojo
risa
SSL
Cafe
Negocio
tronco
BN@@
VIP
ilustran
Chelsea
ificador
prescri@@
R2
DD
empujar
fortalece
Cañ@@
vado
oker
cañón
cabecera
Concep@@
deform@@
Tema
Product
expresada
incorporan
Krem@@
adversas
roble
cis@@
bayas
Lux@@
transportador
tidores
dipl@@
Reglas
IV@@
faciales
desl@@
cino
Negra
ésicos
conceder
Objetivo
internamente
Ejec@@
colega
javanés
considerables
Licenciatura
simulador
íble
estiramiento
201
sn@@
Women
pom@@
vist@@
arrendamiento
vert@@
Guangzhou
sueca
reforzado
hal
CN
Room
tapón
aditivo
odia
Cannes
Comunidades
wall
Stor@@
normalización
EP@@
amil@@
retard@@
121
Nucle@@
ilado
impresos
Vik@@
Aman@@
Establecer
beige
SON
landia
A2
ént@@
born
gm@@
durable
bulo
acabados
diales
inglés-alemán
infectadas
perfect@@
SG@@
colchón
adquiridos
peróxido
llan@@
parches
preliminares
intravenosa
éx@@
Creative
cot
www.roadonmap.com
estuario
traduc@@
Anexo
produzcan
Haciendo
een
deseables
favorece
aj
Over@@
Edw@@
worth
ulina
Entr@@
cualesquiera
mostrados
andro@@
2-3
bombeo
híbridos
Redes
ferias
Silla
oe
marcados
Hunt@@
Compet@@
Financiera
chef
Campaña
wart
Cup
●
PRODUC@@
TVC-Mall
illar
oka
ols
Enchufe
ómetros
funcionará
eum
danés
Lorenzo
Jon@@
CHINASALE
integran
Cuenca
atom@@
tices
Linda
afin@@
Riv@@
Fab@@
inson
Icono
Bour@@
Player
Vacaciones
stit@@
eve
boxeo
paralela
áctico
plantean
REC@@
Index
Murray
contrast@@
apo
fieren
hidroxi@@
atraviesa
Kun@@
Memoria
ayudamos
zombi@@
sect@@
clam@@
down
orejas
ultima
experta
camisetas
temática
Amazonas
almacenado
Montaje
expresaron
Tul@@
polic@@
ópticos
fuegos
conjun@@
idina
municiones
intensivo
GRE@@
ásica
Instalación
cáscara
bailar@@
Mas
agre@@
Inversiones
toalla
paseos
Bristol
simo
zan@@
rectal
escasa
175
Downtown
contorno
Botella
ister
alina
pedag@@
neta
inconveniente
Picasso
goz@@
borrador
126
apolis
novi@@
Yang
shi
revit@@
egipcia
reca@@
habilit@@
metodologías
camp@@
monitores
amental
bike
ops
anest@@
Monterrey
Herr@@
yi
testamentos
montada
ises
hr
hidróxido
Guadalajara
79@@
igualar
Valor
asar
donos
yun@@
eur-lex.europa.eu
coger
sorpresas
Verd@@
Edificio
agne
Mut@@
Herzegovina
inglés-holandés
BE
comparables
portadores
examinó
WO@@
fig@@
Dichos
Vehículo
preferente
Haya
Chur@@
veno
últi@@
Farm
phy
rosis
capilla
salmón
aislante
WiFI
muestre
bro
Naturales
Contrat@@
litro
recreación
Jay
nes@@
ventajoso
Nev@@
Logr@@
sul
Deluxe
Baterías
KE
reivindicacion
380
Ear@@
HKTDC
Yak@@
TAM@@
Aleación
d.@@
Solid@@
Kent
mita
Charl@@
edoras
trip@@
copolímero
elia
estom@@
gol
érg@@
master
NUEVO
sill@@
Anterior
icultura
oi
Coll@@
estampado
tax@@
previsiones
Tec@@
awi
faci@@
calibr@@
ebre
Estructura
Pand@@
ulu
Ses@@
colocados
Perry
áu@@
Eastern
preciosos
Liberia
Ordenador
dam
tapas
salada
Apart@@
Compuesto
participa@@
esclerosis
balas
Stella
Bh@@
Común
rum
Fom@@
ART
5A
Ave
ésteres
compacta
Dark
hic
saliente
Diamond
TEC
inestable
V6
legislativas
Letonia
TR
Véase
ogen@@
ATP
Clásico
enjuici@@
Ley@@
espejos
gadas
bacterianas
Bella
redonde@@
induci@@
Tas@@
gala
Must@@
coronavirus
zap@@
idénticos
KW
claus@@
Pink
Crystal
Gib@@
tóp@@
colgantes
flechas
Luci@@
GRA@@
Switch
Sob@@
pestañas
Lati@@
neo@@
quí
Sudadera
Genuino
here
Broad@@
espon@@
NET
quet@@
idge
Alber@@
Química
Had@@
preparadas
Junior
resaltar
complementaria
grietas
Prod@@
Enc@@
anales
204
Trast@@
erup@@
KA
destilación
µ@@
Gul@@
particul@@
Portugués
Chiang
corresponda
plica
Raf@@
sch
Focus
Visite
Restaur@@
Género
sillos
android
Dri@@
paral@@
esqui@@
Productor
Má@@
esteril@@
ingeni@@
Revista
FIN@@
uvieron
Way
multifuncional
áb@@
limpiador
sujet@@
Emma
Tut@@
NI
Amy
Herencia
visualmente
aisladas
PASAJERO
respiratoria
Poli@@
Mast@@
ovario
sábanas
Botón
torías
ency
grises
card
circun@@
afl@@
operacional
Outlet
Diana
precursor
Heart
CIONES
mb@@
Dash
Grant
mic
230@@
odor@@
alfabetización
Extranj@@
Traje
solu@@
ígen@@
yeso
Azure
aleza
Componentes
Inspir@@
injerto
territ@@
cenar
transferido
gimn@@
ABOARDS
yodo
Cuadro
ellón
lex
antici@@
Ricardo
Reducción
Ampl@@
previene
aser
Fot@@
Cat
magne@@
Magic
ving
urado
procesa
alfombras
sis@@
camioneta
BS@@
monoc@@
VGA
ucraniano
radiante
prestando
Ayer
agon
02@@
irregul@@
Trust
decorado
King@@
tosa
inger@@
resinas
sive
coloración
Ces@@
desplegar
Wood
átiles
Caracas
vic
Clara
teclas
Relator
DT
enfrente
Embajador
lon@@
Ann
ículas
Barbara
Kawasaki
Abdul@@
obtenerse
Automático
nebul@@
papas
alérgicas
450@@
Bellas
polares
Sudaderas
LS@@
Anual
superficiales
Creativo
Task
COL@@
ésico
demuestr@@
Sector
metilo
láminas
quirúrgicos
compil@@
intestinos
amplía
Franc@@
finca
azones
chado
haus
reducirse
Rach@@
linfocitos
informacion
parten
Olym@@
continuos
Kingdom
codo
beta-@@
promocional
Jalisco
polin@@
distribuida
Zel@@
18-@@
saudí
ajero
Viernes
Americanos
conos
1-2
bridge
Bordado
ados@@
bie
Viajando
ementación
Fase
silvestres
Continental
difiere
ordenación
equival@@
pruebe
concre@@
tumorales
oye
apropiadamente
pesadas
Táctil
Femenino
querida
DES
Igualdad
judi@@
Vuel@@
cervical
Omega
excitación
ook
mord@@
Superficie
alimenticio
anab@@
diputados
16V
explorador
ísica
Jose
Bach@@
automáticas
desbloquear
vástago
Lane
quel@@
Espir@@
Longitud
folleto
BRI@@
Usa
radioterapia
Bosque
Rit@@
nór@@
asio
Guadalupe
Traslado
Arti@@
arter@@
Propor@@
dificación
pulver@@
Conozca
away
osina
introdu@@
Garantía
Home@@
Hog@@
Dinar
uvas
MM@@
Escucha
cañ@@
áter
macr@@
Osaka
separador
pegar
delicado
ango
sonora
sburg
armarios
E27
Diferencia
multifunción
izantes
Lavavajillas
Dresden
imas
Pint@@
llantas
Declar@@
4.5
estión
empleando
ENTO
Ort@@
Ful@@
Julia
tecla
emplazamiento
panorámica
intermedios
alth
misores
μ@@
1.5@@
constr@@
horizon@@
bicarbonato
LL
quel
Cumpleaños
gram@@
atorial
kk@@
aqui
Marino
verte
armoni@@
pedazos
purific@@
toría
complementos
contenidas
ciano
tibilidad
ann
Rum@@
By
HR
vet@@
Miss
hinch@@
porta@@
posicion
ocasional
ueve
DB
oscopio
Hermosa
palo
-M@@
Cámaras
TC@@
ancl@@
zen@@
Dormitorio
bias
incubación
exclusivas
neum@@
ligeras
ventr@@
MER@@
96@@
Sle@@
látex
emy
checo
uelo
idados
Disco
pagable
comprim@@
Roc@@
izquier@@
mancha
Viviendas
lineales
Tampa
pronunciación
Adidas
penetrar
Gin@@
Flip
lad@@
Aven@@
Camping
reducidos
empaquetado
pá@@
configurada
demandante
cing
estímu@@
Sau@@
excesivamente
bli@@
minimalista
recombinante
Univers@@
SEQ
cremas
Eis@@
life
réplica
1B
Ingr@@
desplazadas
Marine
Usados
recorte
Interfaz
análogos
Parques
empleada
Abrigos
perteneciente
efal@@
Eugen@@
met
ulta
4.1
marea
inserta
2x@@
Campus
Cafetería
Ruso
Stra@@
hiciste
normativas
billón
av
tig@@
Call@@
transgén@@
bod@@
270
Big@@
Burdeos
Felici@@
ómeros
ă@@
cam
98@@
Dinero
Montañas
Apel@@
Viajar
tio
periódica
Juega
verifique
diagnósticos
SM
cáñamo
180@@
Maker
éci@@
Depor@@
Sangre
Estatuto
Excep@@
Sensores
tz@@
LF
conmutador
capacitados
hie
72@@
Nan@@
perímetro
point
Seguros
13,@@
kl@@
aranc@@
Appl@@
2,2
Cog@@
Call
DES@@
enfriar
inglés-rumano
editada
sulfon@@
ople
sid@@
Yam@@
aerodin@@
oji
MacBook
Report@@
Fit
cebolla
subterránea
stedt
shi@@
dú@@
Work@@
Floral
Bahamas
itiner@@
Mani@@
full
yle
metodo
cafés
Agente
epit@@
evo
Bret@@
suiza
Nikon
Estr@@
cm@@
redund@@
Film
mezclan
convergencia
minor@@
condensación
fertil@@
cede
remuneración
cord
Públicas
O-@@
adapte
rectific@@
icidas
mamífero
pid@@
modulación
Luxury
Um@@
video@@
Sicilia
birá
ram@@
siembra
Alf@@
CF
Km
iter@@
5.0
Fle@@
Andrea
sheng
Chica
emparej@@
Albania
empaquet@@
motocicletas
sín@@
Controlador
Airways
Next
acomodar
bombillas
Spring@@
sensibil@@
Bez@@
ë@@
eliminó
leo
combati@@
Mort@@
Bey@@
dign@@
ar-@@
Buy
paleta
ground
QUI@@
Horarios
cómodas
empoder@@
480
parquet
Pav@@
Apps
Gard@@
works
dal@@
VAL@@
Detector
basarse
sold@@
hard
etto
PAS@@
ratificación
UM
estructurado
pack
Castilla
SEN@@
porfavor
JO
Riesgo
acido
124@@
LON@@
ichi
indirecta
BTC
diré
asiática
clari@@
ugas
tóxicas
Wom@@
ids
Leona
ges
Prime
aig
198@@
Sint@@
Medina
Acondicionado
reivindic@@
rotura
aton
Angola
salones
cosmética
Helsinki
reumat@@
rata
radios
etti
Kia
Machine
tumoral
aren@@
Grados
aii
ele@@
desa
dimetil@@
GI
campana
Estable@@
Zhang
hindi
Respecto
circ@@
JE@@
clásicas
carnes
inactividad
Clinic
interfer@@
HAR@@
Invest@@
vincular
opat@@
Hostal
verificado
Dé@@
Tari@@
válidos
aque
Suministros
mec@@
Guitarra
humidificador
incendi@@
Salas
XT
lun@@
hormig@@
Asesor
gres
wn
enen
Coral
Let@@
medic@@
Violencia
paño
metría
inte
ícl@@
MAC@@
acopl@@
XS
750@@
gur@@
circundantes
osofía
els@@
Hai@@
Virtual
Bronce
Chang@@
presas
Abajo
sosp@@
ésel
TUR@@
aletas
Paisaje
pell@@
Medidas
identificadas
depor@@
lengu@@
alejarse
va@@
movilizar
East@@
televisores
elim@@
prision@@
miso
rier
itz@@
TFT
articular
destil@@
confortable
sing
Zam@@
biotecnología
Vas@@
Rancho
intermitente
vendimia
Carl@@
Arque@@
uch
esquinas
sosteniendo
emul@@
ano-@@
recomendó
multilaterales
Turín
AO@@
atic
UL
precoz
enrol@@
sé@@
expreso
Consultar
endarios
cristalina
Andes
Vega
fab@@
Ojos
caf@@
Bull
Mongolia
dex
31@@
Gallery
Utilizar
calculado
25-@@
Liderazgo
ril
č@@
160@@
Mob@@
nis@@
administrada
discrim@@
absol@@
eville
ran
Sev@@
integrante
yler
galvanizado
ificadores
prohí@@
Ignacio
difusor
húme@@
Fashion
Fernández
XR@@
Pacific
erradicación
digas
mariscos
incón
robusto
suministrado
pedal
Gardens
Laguna
ornadas
ogénesis
Británico
Piazza
MAC
Olím@@
hu
Aviación
kie
ég@@
Económicos
Preferentemente
fetal
Mayoristas
Yugoslavia
escar@@
garantizada
Bike
estal
CAM
ska
entenderse
Hudson
Tub@@
Victor
Carm@@
eb
morf@@
zapato
320@@
examinado
solvente
Asistente
ceb@@
Chiapas
benz@@
Active
enada
eor@@
2,3
Cinturón
Delaware
Amenaza
carros
adería
estufa
euro@@
inflamatorio
Building
úl@@
característico
ferment@@
iniciación
Bash@@
mascul@@
boy@@
Proporcion@@
reactores
itali@@
énica
144
femen@@
lubricante
formarse
sters
persi@@
CY@@
tox@@
mandíbula
3A
Bry@@
sost@@
sionada
actualiza
Presidenta
pudiendo
urio
recogido
silencioso
oculares
untas
vé@@
Crim@@
elaborados
Princip@@
Consu@@
Cen@@
Iber@@
23.@@
consultores
orita
mit
gate
predominantemente
Logo
Photo
ferroviario
tiburón
expedi@@
ciruj@@
h.
promotores
ilustrado
típicas
desnudo
valora
acomod@@
mural
pongo
Pass
vestíbulo
federación
Disfrut@@
Máquinas
asent@@
ecológ@@
Pearl
SL@@
Angel
Reser@@
Liu
Oregon
nec@@
ries@@
Bec@@
TAL@@
asmo
Dy@@
Rheinland-Pfalz
Escal@@
Especificación
evitan
octav@@
etera
Elija
miel@@
cientí@@
IO@@
Bes@@
ases
salina
ramo
clu@@
omi
apto
TAN@@
anilla
deser@@
presi@@
uts
enem@@
ating
★
marro@@
envoltura
Sit@@
mejoradas
acorde
Alemán-@@
KI
Ocho
eth@@
Rut@@
erce
eñas
site
cup@@
teatros
Cross@@
4.2
forj@@
susceptible
peta
Anat@@
Suave
Integración
ACK
directivas
esterlina
contenían
Congr@@
champú
esmalte
ko@@
AWS
disolvió
Estate
modi@@
mA
parachoques
garantizando
estil@@
Sot@@
aven
GAR@@
electromagnética
Familiar
now@@
cargada
Story
exportador
giratoria
calibre
Artificial
Buenas
diste
institutos
watch
supr@@
Map@@
polos
arch
Vas
Ö@@
Emergencia
periferia
Nutri@@
transfiere
calcetines
turbinas
lavabo
eccion
espor@@
enchu@@
tors
zco
Fabricación
Wolf@@
embarque
05@@
iluminado
ects
utación
revesti@@
anatomía
ópticas
catalizadores
Chat@@
jeringa
Rendimiento
Reemplazo
rejuven@@
Vig@@
Marriott
Bolonia
soleado
antígenos
Cosplay
Ridge
diseña
cúpula
pancre@@
87@@
EMP@@
Ventana
bombe@@
robu@@
eus
Tree
issa
temper@@
cel
Cinta
Host@@
Angela
Aparato
Bashny.Net
N.@@
Campos
tejida
Corp
och
primir
porte
antideslizante
onic
1600
see
Mate
alojar
estabas
filo
pc
focal
óxidos
Generación
chill
aplicados
ónimos
pé@@
cómodamente
opcionales
cruda
dí@@
Garanti@@
Band
anga
asci@@
KB
Italiano
Hidalgo
atistas
Party
purificó
ecuaciones
idó@@
PUERTA
Champ@@
puer@@
Ma
kon@@
denominados
humanitarios
yu
5.1
Cena
estadístico
Pittsburgh
íl@@
Aurora
ful@@
ante@@
gránulos
precipitaciones
piente
domés@@
Hag@@
Module
Marcus
tost@@
dermat@@
UPS
inalámbricas
Roy
Qi
moldeado
fregadero
GRATIS
Lente
Fen@@
Mitch@@
izz@@
Belice
Marsella
letr@@
ape
Hombro
Población
facilitarnos
cham@@
Mall
cadas
radiador
CIDH
Aprendizaje
sondas
Dafa
orientar
ocer@@
tirador
icante
pigmentos
Municipality
vs.
foli@@
OO@@
pulse
0,3
Elementos
ork
Tommy
14,@@
sant@@
Blue@@
Ris@@
Schne@@
dorada
Vieja
cargados
Vectores
expande
moldes
München
ails
Kay@@
ing-@@
aver
analizado
achi@@
franja
gamma
inmobiliarios
eds
U-@@
replic@@
étnicas
Estim@@
azine
lard
Fam@@
Quito
ílicos
atardecer
cotización
desinfect@@
Las@@
caché
reli@@
dinámicos
albergue
idad@@
Tob@@
hidrox@@
esf@@
Específicamente
And
DHL
menús
dispensador
Buscas
Alfred
sobrecarga
sel
tablet
Valladolid
monum@@
filos
reacciona
pino
Now
Dhabi
Aspir@@
conjuntas
Spain
templ@@
Duc@@
Fitness
Puntos
andante
validar
145
Campbell
Comerci@@
oven
Últi@@
geno
provista
RT
chor@@
pografía
Hardware
yu@@
multilateral
Jaguar
Princi@@
Actualización
Challen@@
pay@@
gico
ady@@
cocinas
ABLE
Mai
emat@@
aguac@@
Champi@@
conversiones
Robot
hid@@
113
excede
Ademas
ym@@
punk
ERS
sistémica
Cara
capr@@
Increíble
guiadas
proceden
antivirus
distorsión
gle
saturada
metálicas
Fred
alcohólicas
adh@@
nido
EI
flic@@
estático
antorcha
9001
blandos
chester
Monitores
agregados
ICS
Mix@@
Pis@@
analizan
act
mouth
excluye
Moreno
Embar@@
yogur
endiente
invern@@
fiel@@
detectores
chal@@
acompañan
Diploma
finlandés
Christi@@
Dim@@
LM@@
gov
Phone
MN
Repuestos
minibar
aptitud
Il
retroceso
ARA
Cár@@
Dist@@
Usamos
bú@@
tex
door
edge
SPA
tetr@@
veda
Pruebas
Cov@@
fijas
sinton@@
reson@@
melanoma
Script
joya
Gabinete
espirit@@
Aplicar
empu@@
fic
Sap@@
fotos@@
Bienes
trozos
tigre
Renov@@
proporcionadas
compres@@
Cap
Apuestas
acompañamiento
ventajosa
form
Pack@@
Direcciones
moqueta
Aud@@
Smit@@
bach@@
Expo
Jed@@
recarga
malayo
Histórico
macro
B1
obj@@
Doha
136
MAS
apol@@
Frances@@
HCl
IPS
decorativos
1,0
Ill@@
1200@@
acoplado
lata
somete
Doctorado
congelado
Toscana
gene@@
Montgomery
Sara
borg
index@@
Toshiba
tonel@@
muestr@@
tech@@
complementarios
Docum@@
3.2
operacionales
acondicionamiento
aleaciones
Iberia
bikini
DF@@
conting@@
isco
Epis@@
recupera
Cafetera
estéril
Oye
Biología
Coron@@
Gong
ferro@@
aceit@@
420
Entrega
instantáneo
cóctel
tenerse
ustr@@
horizontales
Arro@@
Bombas
arrastrando
activada
Constitucional
chaleco
TDI
95@@
blan@@
1.4@@
End
h-@@
burn
0,0@@
planas
loca
DW@@
Rural
tacón
Pisa
erta
Silver@@
gradiente
ump
Rivera
ganch@@
diafragma
Richmond
Bál@@
compartimento
meridional
administran
Wells
bios@@
Alamy
Dum@@
Facil@@
congestión
Sens@@
D2
catalán
Orden@@
Booking.com
rellenar
presion
Agen@@
DIA
Funciones
Vasco
MAN
Grace
lion
Cardi@@
manija
martillo
ondul@@
brimiento
Monumento
ibu@@
Fuerte
escaso
bras
Development
ensalada
combinando
cartílago
Vincent
CB
2.3
adjuntos
polimer@@
Síndrome
ampa
2a
Od@@
pler
Do
grafo
Equip@@
Dí@@
Chad
6.0
0.5
Scotland
KS
ord
ux@@
TIC@@
saf@@
Quad
lent@@
eri
Carlo
Salamanca
Chen@@
Tab
Alm@@
Documento
amie
geni@@
diálisis
miden
Colgante
pi
uan
Ch
desplaza
empleadas
Elev@@
Oh@@
Oregón
infrarroja
Köln
FS
uvo
ultura
Corner
Licencia
jef@@
empos
ebo@@
reparti@@
localizada
Johan@@
nucleicos
Multi
céntrica
Collection
Messenger
oste@@
cajón
Diferentes
Elige
hemorragia
205
aleatorio
dB
Perf@@
hem
Informes
volátiles
TRAN@@
Products
terapéuticas
apropi@@
tios
uza
someter
Titular
Vallarta
case
foto@@
Esti@@
exponen
CHO
axia
contribuirá
especificada
Sed@@
polarización
Bed@@
izer
Gaz@@
colum@@
POS
Lanzarote
espes@@
progenit@@
titud
Radios
EURO@@
Modern
japon@@
germin@@
sucio
asy
Dirham
éteres
Carre@@
RR
propuestos
Alem@@
Communic@@
Exclu@@
PAL@@
edema
cortado
reservación
Shu@@
Utensilios
fichas
patatas
Telecomunicaciones
inch
endocr@@
sequ@@
Court
citada
arch@@
Field
terciopelo
Filter
10.1
Santuario
dibujada
inicie
Cádiz
ign
inglés-finlandés
Kw@@
paralelos
borough
PLC
Soccerstand.com
IES
arium
índole
uses
TAR@@
ferry
Cron@@
Kum@@
iner
elles
Cajas
Wh
dactil@@
lez
astre
Chand@@
provincial
Iphone
TED
Ras@@
lem
agonizada
4x@@
vál@@
PW@@
116@@
ensores
MIC@@
ifique
jiang
H2H
Senegal
api@@
copyright
coordinado
pseud@@
ofrezcan
Jas@@
húmeda
urn@@
recogen
temporizador
estres
Tok@@
Jessica
MTB
Carol@@
ize
agregan
LAR@@
procedi@@
Aug@@
ahn
artesanal
Gat@@
bac@@
expandido
Situ@@
cate
HO
Manila
Ponti@@
Silicona
apri@@
Mezclador
coronaria
pabellón
consonancia
area
Chan@@
west
ants
S6
world
arrastre
Impres@@
contención
averi@@
pieles
intra@@
opuestas
Gear
Planet
Ajustable

avenida
ft@@
Mando
Hyper@@
kt
Notas
mixta
PIN
Corta
polis
xiaomi
tail@@
maduro
kir@@
Aplic@@
CION@@
Bea@@
alis
Smartphone
is-@@
hand@@
Michelin
25.@@
adido
Petróleo
calculadora
delicioso
propil@@
éridos
M2
oreja
vertido
asistida
Fundas
barro
limitarse
Channel
now
puntas
Dat@@
Protagonizada
inda
repos@@
Archit@@
secretaría
administrados
fabrican
Klein
Kos@@
Bienestar
desigual
Jacques
variabilidad
ógena
estadios
Incre@@
antir@@
BAN@@
espl@@
Opera
whis@@
Env@@
diagnos@@
Bien@@
fiere
lips
bot
siv@@
Ens@@
fabricada
craft
15,@@
Hamburg
osex@@
Perchero
pland@@
dam@@
Sey@@
212
wa@@
1.8@@
Danny
Sabíamos
bomb@@
TION
Side
estable@@
Hall@@
complementarias
Capr@@
Alfa
Vist@@
antibi@@
Coordinación
Boul@@
zhou
kr@@
subl@@
Colum@@
AX@@
Gloria
VC
ood
Gon@@
ransomware
rosca
desplazarse
Toulouse
ederos
Ralph
240@@
écn@@
40-@@
culación
compro@@
Intelli@@
Perman@@
Nep@@
ateg@@
sequedad
eléctricamente
Terapia
Heli@@
Arr@@
adillas
Ambi@@
Matr@@
solicitada
azul@@
pd@@
endureci@@
caravana
alición
comparaciones
ponerte
Pide
afric@@
UTC
gratu@@
detergente
Oakland
m3
ISO@@
colorantes
respectivo
uegos
Result@@
igen@@
Kazajstán
orto@@
pool
lactosa
pulpa
Can
lamin@@
Harley
moles
stand@@
Resistente
perme@@
GAL@@
enciación
triglic@@
Lamb@@
bed
Cord@@
ienda
express
ALEMÁN
asciende
cito
DL
unya
Patio
automatizada
bn@@
contex@@
Cartera
separan
decorativa
aterales
kilogramos
Dak@@
Shim@@
Bandera
diabéticos
Vid@@
Mozambique
BAS@@
tranvía
OOO
brida
citados
Mbps
Trin@@
Asus
Lumin@@
Centro@@
cristal-trasero
Prado
Namibia
Ideas
LOG@@
206
Clin@@
Crecimiento
etro
cito@@
Puzzle
51@@
muchacha
neon@@
COUPE
Bola
desfavor@@
Promo
aman@@
Morris
ocina
provisi@@
inhalación
Juguete
biodegrad@@
Comprando
curvatura
Aver@@
habilitado
Instrumentos
hs
lm
Piano
replicación
Previsión
hard@@
pris@@
G.@@
habilitación
temáticas
Solicitud
importados
shop
1,9
ily
entrante
Poly@@
dotado
ayos
down@@
livi@@
Eiffel
masajes
ank
Museos
lmente
buck@@
Public
Speci@@
minist@@
adherencia
Circuito
8mm
Province
134
transporta
muñecas
Rid@@
256
Cierre
tray@@
ingresa
cle@@
solubilidad
fluir
Fan@@
gida
Wild
parabrisas
atios
prever
Extre@@
bita
Discovery
Canción
cicatr@@
ófago
T1
esplén@@
ark
cock
mandatos
adquir@@
Ní@@
énicas
uss
abal@@
Altos
Living
correas
olina
pass
Vigilancia
Lun@@
Pizza
DNA
Alejand@@
isó@@
Church
Basílica
Dichas
Chev@@
vinculación
suplement@@
lazo
panorámicas
progr@@
eína
Sz@@
Yuan
convenientemente
evaluó
117
domici@@
ensor
Papá
Excelentes
Documentos
Espera
new@@
enri@@
hara
aberinto
Veterin@@
YO@@
coincidir
Tijuana
inhibe
Norman
-l@@
facult@@
dimensionales
Rho@@
ł@@
Trav@@
plaquetas
Fé@@
Boulevard
Dragón
viables
escas
codificador
teles@@
FF
generadas
Sebastian
Realizado
har
Sound
hing
Atlantic
encapsul@@
wi
vapor@@
jacuzzi
tad
Numer@@
pidos
IOR
Real@@
oidal
Trenes
Yor@@
Seminario
Carbono
Exper@@
Póngase
1.0.@@
existencias
oli@@
colorante
Pier@@
BB
Girls
aft
azulejos
propiet@@
Becas
sup@@
sometida
oscópica
aficionado
Mog@@
Stock@@
rastreo
Bruno
Wolf
LH
previ@@
Lau@@
PS4
robusta
Envi@@
Theatre
aun@@
Independiente
estero@@
high
Gente
monómeros
alcohol@@
char
24V
Ye@@
Gel@@
DF
sometió
cristalino
crom@@
brook
amortiguador
Calzado
SU
paja
ométr@@
Entrenamiento
arre
155
Detalle
impec@@
ométrica
eñ@@
dim@@
Fuj@@
geométr@@
hemoglobina
Rue
Coast
ogas
Ín@@
maestr@@
querías
301
biles
patologías
1a
especificados
ormente
fluidez
idéntico
eamiento
Rin@@
TCP
bum
UC
Alberta
Envíe
ej.
Chihuahua
Mill
Explor@@
click
T2
ès
ícu@@
Ventajas
LP@@
crit@@
PIN@@
separó
termómetro
tritur@@
Crow@@
refinado
sindical
CIAL
Veracruz
HP@@
ik
íbles
entador
úas
bag
esponja
Capa
Maldi@@
page
Negr@@
colocada
cat
Incorpor@@
gestor
Barbacoa
ew
weiler
ds@@
espum@@
Sindic@@
inventores
Ey@@
Alambre
Lum@@
herbici@@
SharePoint
cojín
Ingresos
Start
1.9
agrupación
TOP
ejecutando
recomendados
rígida
interlocu@@
flo@@
sibilidad
Tablets
STR@@
nano@@
32.@@
cabr@@
melan@@
orientaciones
ampol@@
03@@
otriz
reduzca
reb@@
Rous@@
orí@@
Almacenar
Toro
Ek@@
obst@@
UR
picnic
Territ@@
PSD
CL
Arch@@
Giovanni
rpm
Cerro
emplearse
neamente
Image
Andorra
viñedos
acelerador
Hut@@
Métodos
enfrió
reticul@@
quina
ajustan
refresc@@
Már@@
Mónaco
taría
calentó
inyector
Wes@@
Indic@@
alfabeto
ejempl@@
nev@@
erci@@
miti@@
Shan@@
Pin
Latón
dedores
formula
aplicó
Montenegro
ging
porcelana
directorios
vir
Edison
tz
cosmético
maduración
18650
Scar@@
hd
Under@@
inodoro
GH
cortador
químicamente
ils
STA
lipo@@
hao
impul@@
exceder
planteamiento
Sag@@
plasmá@@
sco@@
Va@@
DealExtreme
hia
M3
Marta
Clip
conmut@@
156
Pastillas
YA
Schen@@
Requisitos
someter@@
Vend@@
floración
interconexión
ativ@@
otor
Essen
noruego
ofrecerte
Phot@@
orro
Sergio
ASI@@
Vide@@
Gru@@
bucal
faltaba
Princ@@
his@@
Ti
Almohada
acril@@
mexic@@
extraj@@
Cod@@
NT
TAS
BAL@@
linfáticos
hongo
Comfort
97@@
portadora
renales
Madagascar
RT@@
azol@@
uel@@
Out
S2
Hat
BT@@
Marc@@
Atr@@
clínicamente
Marrakech
Kap@@
circunferencia
DIS@@
ading
almohadilla
rascacielos
ott
Vor@@
Minas
camuflaje
permitidos
resort
aff@@
Cle@@
tinte
а@@
Desarrollador
sierra

340
interruptores
Llegada
-5@@
Conectores
reseña
Elect@@
Basilea
prolifer@@
ayuntamiento
A6
Vaqueros
Gráficos
Strat@@
Díaz
Castell@@
infarto
polvos
talón
Run
vietnamita
ONE
aç@@
Hora
Buil@@
Sauna
CK
versatilidad
ilustrar
27.@@
azot@@
colg@@
acetil@@
29.@@
vre
16-@@
nición
isión
Marav@@
Encuesta
ógico
Pista
arcos
Hero@@
ojas
esbo@@
estadísticamente
voluntarias
aleta
átrica
mediterráneo
Grifo
composicion
Cher@@
Blog
Verona
faros
vuelan
inglés-portugués
ENCIA
Técnico
Queensland
repatri@@
0,05
híbrida
PBS
LR
sucesivo
Arc@@
Pix@@
posas
Transmisión
dictamen
nell
especificidad
Corr@@
análogo
Board
bel
recambio
cartuchos
hidratos
Recu@@
Aur@@
alqui@@
remol@@
Carrera
baldosa
YO
reemplaza
afe@@
Trajes
Bog@@
finos
salmuera
utilizable
imon@@
X1
Piedras
Pirámide
sindicales
Lic@@
transcurrido
atada
410
andando
paralelas
midió
oques
Empresarial
demon@@
ubicarse
acondi@@
tum
chic@@
enburg
monómero
Cepillo
T.@@
Z-@@
delicada
farmaco@@
yuan
referentes
efectúa
Gonz@@
Mt
power@@
band@@
131
Conect@@
cór@@
Instruments
concentrada
Certificación
Plant@@
uterino
entario
c.
Ofrec@@
indicadas
Malla
cojinete
Mend@@
FASTSALE
Sti@@
Salt
Jurí@@
Vinci
audiovisual
uña
urinario
Nairobi
ampliada
ocr@@
Ventanas
4.
ÑO
calabaza
GW
Estrasburgo
SAS
eridi@@
ademas
casero
English
multic@@
Spr@@
Resorts
piña
113@@
CLI@@
......
å@@
Mens@@
Cobre
Máscara
búl@@
165
-en-@@
itaciones
Dolor
-sur-@@
fluida
versa
Zoom
2,6
onne
chileno
gulos
4A
Labs
tens@@
Fogones
Bloque
Claude
Valoración
Cool
Consumo
Baleares
izacion
Bug@@
Back
Filtros
302
Citroen
idora
Reduc@@
1º
X5
idénticas
metadatos
achos
Oak
Hos@@
Minist@@
Deep
alejadas
oft
jet@@
esh@@
Down@@
Cremallera
LER
incisión
Comparación
introducida
ebook
0,01
Guil@@
exci@@
ï@@
aprob@@
63@@
quesa
empuja
Escala
volátil
Library
fundida
irradi@@
AMD
Dale
É
big
versus
introduzca
Tempor@@
CAR
Siberia
Alarma
xia
Uzbekistán
UM@@
ade@@
wel@@
500,000
650@@
accionado
desas
fluorescencia
FT@@
HOTEL
Aumento
Impuestos
Catherine
oshima
Mü@@
FP@@
zumo
refr@@
hill
luminosa
cláusu@@
aleatorios
ro-@@
Electronic
casera
62@@
Box@@
complementa
delim@@
Interna
agado
élv@@
mynetfair
precip@@
burg-@@
Four
Paradise
ganglios
al.
alim@@
Monroe
ómero
Ñ@@
Mau@@
administrarse
minero
Nebraska
tier
Taza
AH
kov@@
ánticos
ulosa
Gómez
142
ballet
humed@@
parpad@@
Jardines
AUTOWHOLESALE
MAL@@
Hein@@
Camerún
Vera
preventivas
escaneo
Maxim@@
7.1
Ór@@
abrasión
apor@@
envolvente
huecos
Well@@
Palermo
Zurich
porcentajes
ags
tailandés
lla
cala
152
Dibujos
vera
14-@@
Coin@@
estanque
FIC@@
ínica
114@@
Mali@@
gelatina
coser
ert
Monitor@@
fa@@
Chat
oneta
Compatible
Connect
Minh
Joven
Infr@@
Dog@@
menstruación
Elite
Hampton
hidrato
Canadiense
Kre@@
avi
Monster
gencia
Licenci@@
stown
Santi@@
recogió
Sour@@
Europe@@
creas
descubra
Ahor@@
Ajust@@
mini-@@
oll
Small
Dorm@@
forjado
Latino@@
Cuadr@@
DIREC@@
Byr@@
Num@@
rellen@@
inder
Desea
Elim@@
avena
Oficinas
Clases
CASA
trica
oradores
Antecedentes
Chrysler
jack
0.1
zu@@
dt
Examen
Reyn@@
apo@@
Escol@@
Dream
incorporados
Sobre@@
VM@@
Gate
uración
permeabilidad
ice@@
EST
Conexiones
tóx@@
NH
CAB@@
Solicita
Zagreb
Cach@@
Bielorrusia
24.@@
NT@@
isc@@
constituida
Stadium
Jac@@
antr@@
Tetera
Franç@@
Shir@@
Maquinaria
Range
2000@@
Acciones
quimi@@
Segur@@
USI@@
perió@@
pollos
intoler@@
2,7
intox@@
Beck@@
Miranda
HDD
AUTO@@
HTTP
protuber@@
Tag@@
deliciosa
Prohi@@
S3
polen
EMC
Fabr@@
125@@
Destac@@
EOS
ories
eriano
rangos
arta
rupción
sustituye
angulares
Mental
agregue
oc
Custom
saco
Ultr@@
juven@@
Mind@@
UI
ésimo
2,1
SION
soft
Alexa
Bam@@
Glass
Beige
Cristóbal
Lex@@
salpic@@
agricult@@
direccion
tractor
conser@@
Combin@@
4k
vit
Universitario
conejos
Texto
Hig@@
hl
condens@@
2x
NOTA
Gos@@
Shor@@
Guard@@
Kenn@@
3M
cón
Val
Escape
Múltiples
Sult@@
damas
saturación
Í
Impresora
tiz@@
Organiz@@
aux@@
instaladas
decorar
diclorometano
Tai@@
dv@@
Dr
táctico
Rav@@
Ia
empo
Eje
implementa
et-@@
estancias
seleccionan
VAC
Professional
chino-inglés
compraron
globos
poste
140@@
Temporada
DX
aeron@@
verticalmente
Fly@@
PEG
TY
Ries@@
B2
metod@@
Hin@@
optimizado
2,8
bición
suministrada
asignaciones
30.@@
ogramas
transportes
defl@@
Insp@@
Mendoza
Buscando
AU
perpendicular
-0@@
Bever@@
Provin@@
embotell@@
linea
sonriente
astos
fluorescente
álico
Jug@@
4.3
desplazamientos
did@@
Grey
hetero@@
Griego
ascendieron
adaptadas
Compañ@@
Python
Alibaba
glu@@
wald
FF@@
Case
filamento
cro
fijada
exhibe
2-
inter
FO
Correr
DIESEL
Sal
Inser@@
Caf@@
Works
Pantalón
Mex@@
ácida
Orch@@
Directrices
üt@@
H1
138
acker
208
RH
fenil@@
adhesivos
Refl@@
Model
c-@@
ilícito
Hôtel
ANG@@
Oportunidades
sb
app@@
bobinas
unid@@
vatios
cícl@@
ī@@
edulcorantes
Cow@@
amino@@
MIENTO
Seda
purificador
aze@@
Area
observada
inerte
Cristina
Púrpura
Construido
idéntica
ASIENTO
512
cilíndrica
crist@@
telefónico
obstr@@
Identificación
Ath@@
Jol@@
marr@@
disuelto
antía
aches
Relacionados
desen@@
you
Vie@@
canela
Acab@@
ucci
liso
convenientes
bica
Zar@@
alco@@
MOTOR
Eliminación
Eagle
Manos
recubierto
Pulse
desempleados
510
OIM
Lac@@
epis@@
fotográfica
Present@@
Core@@
FRAN@@
mediev@@
ceniza
Lauderdale
Propuesta
Furgonetas
europarl.europa.eu
Fast
hídricos
plural
adopte
MSC
Boliv@@
Mans@@
COVID-19
temático
ornam@@
SIN@@
rit
Sombr@@
AMIENTO
Póster
raf@@
ité
Alfonso
Carne
azotea
Safari
Pay
V8
Leeds
dér@@
urea
ínicos
endot@@
ame@@
Town@@
Infraestructura
Sut@@
Camin@@
Roch@@
armen@@
ancla
ejec@@
EAU
oxi
unta
sport
Schwar@@
Evolución
uba
MAS@@
ulos
SAM@@
ocol@@
Adjunto
gs@@
black
Literatura
front
uche
luj@@
na@@
ámbar
coagul@@
Soft@@
inmobiliarias
Sym@@
cupones
Emir@@
uit
cargue
agonal
inqui@@
Westminster
Agentes
transcur@@
Tradicional
Wii
vér@@
tv
Johannesburgo
arin
exam@@
BC@@
Gato
disolver
bu
náu@@
Seguimiento
representadas
cuchillos
atitis
Diagnóstico
isqu@@
F.@@
telón
Génova
orit@@
revestimientos
Mezquita
enumerados
MV@@
modificadas
cian@@
ć
128@@
Redmi
Casco
postr@@
ORES
alquila
olia
Yok@@
N1
Southern
Mexic@@
dude
frág@@
Mare
LL@@
élites
lau@@
amo@@
Participación
Wor@@
Style
icket
sic
auxilios
prenda
O.@@
temáticos
Lienzo
Eng@@
127
Sostenibilidad
enton
elly
Correo
comprendida
Urban@@
Temas
alarmas
FCC
cinética
Concepto
kim@@
England
parl@@
Maison
Arcade
Sueño
plateado
court
Main@@
retardo
VER
Fire@@
aseguramos
ópica
Adultos
Extranjeria
225
Tablero
KK
cati@@
zy
mob@@
org
isterio
configura
Toy@@
KIT
Intern@@
pra
maci@@
Seat
Money
ofer@@
Soft
ling@@
hidrol@@
C1
almacenaje
corri@@
Oficiales
Grap@@
gasa
homogene@@
-A@@
ILLA
Dental
PSA
bata
Basi@@
metástasis
Mamá
cepillado
Romeo
Law@@
isi
deposición
Mumbai
tw@@
conciliación
jardin@@
ántico
Enlace
cavidades
ensal@@
captación
Navegación
ational
só@@
celulas
R3
sulfuro
azer
Lectura
extraído
linda
ferroviaria
Dong
Carretera
amueblado
Fos@@
say
diam@@
B6
road
ask@@
fabricadas
adjunta
cs
ambre
semiconductores
etina
RI
licu@@
520
transmitidos
CAT
Lap@@
16,@@
Llave
meter
tér@@
Italy
fichero
Philippe
tinto
yuanes
icóp@@
recimiento
glic@@
Windsor
efect@@
Speed
119
nanopartículas
files
electrom@@
Barbados
Benz
mitente
exporta
l-@@
Pulseras
erosis
conformado
Rang@@
desg@@
rif@@
Humanidades
Holland
clips
jardinería
ORA
Láser
Na
Individ@@
BID
Finance
ina-@@
Bombilla
Jung
Panda
UP
sintéticas
osaur@@
-in
FX
ocasionales
Diámetro
Newcastle
transductor
centralizado
4WD
Friedr@@
varo
3,2
Cá@@
atory
Idaho
Cruc@@
LUZ
Gray
remov@@
7,5
Vaya
Electrónico
Gast@@
oblast
Qi@@
ESTA
Roland
Export@@
DRO@@
Unids
sons
hockey
polipéptidos
Ruedas
Jak@@
CK@@
Transferencia
grad@@
originan
Completo
Beauty
WI@@
hidrogen@@
1.7
codificar
asse
Hope
Yorkshire
corral
tromb@@
derivación
DV
repel@@
bici
sson
zon@@
Japonés
dicamente
Moderna
Georg@@
len
hn@@
Alcoh@@
Menor
Fay@@
Catalina
Latino
Nashville
rin
topos
Sonic
2.2@@
óx@@
Infancia
60-@@
Cust@@
goteo
84@@
good
fún@@
CAT@@
jarabe
pasarela
Típicamente
preescolar
mult@@
xima
A5
óseo
metabólicos
Colegios
aloe
Grand@@
bluetooth
filtra
Kyoto
PRONUNCIACIÓN
Blade
GAN@@
impulsor
enciende
265
Escriba
о@@
cuchara
motos
Polic@@
Song
Swe@@
Pist@@
Zambia
alérg@@
sindic@@
eslab@@
Mold@@
anova
AE
Chic@@
Buch@@
cenas
Mezcla
ATO
aíso
adow
17,@@
2G
confort@@
FIL@@
soplado
Tarragona
cidentales
Acces@@
taladro
Financieros
Surf
X2
Performance
mosis
Engine@@
antina
Yun@@
acont@@
UV@@
Hosp@@
118@@
PowerPoint
vertebr@@
Opti@@
gie
Consol@@
óptimas
capilar
Cables
Ré@@
ventil@@
tigo
Bolsillo
accesos
hubier@@
varez
reductor
dem
203
dedora
Wak@@
PHP
asfalto
Guide
ige
Vul@@
ratio
Ligh@@
wers
info
ideos
bana
rodamientos
raz@@
iques
barrido
Fern@@
ring
Distribu@@
Rip@@
rebaj@@
acter@@
sustratos
nier
reversi@@
Maquillaje
molienda
Optim@@
pacio
Belfast
inn
Supervisión
mejorados
teres
game
Caz@@
IMVU
invenciones
Leon
imen@@
Jab@@
horn
Advent@@
FRE@@
putados
relev@@
Ottawa
delant@@
Formato
Guay@@
ancas
facelift
Almería
Vermont
rent
Instit@@
Ramos
Evol@@
Rápido
ond
mum
exacerb@@
fluencia
Jin
Yucatán
gre
au-@@
Despeje
carot@@
sintonizador
pia
amba
lut@@
carcinoma
ights
traseras
micro-@@
FORD
pong
ebullición
secar
pre
cierr@@
Kem@@
Kle@@
minación
är@@
conjugado
share
joy@@
Perfecto
BR
banner
Peti@@
inmovil@@
Alim@@
Spec@@
emen@@
ETA
ovich
dijiste
Organismo
cultivadas
audio@@
cuantitativa
barba
3-
Jal@@
adiciones
Lines
tibia
Nim@@
OC@@
Asiento
133
meteorológico
Clínicas
Único
conformación
Yi
hus
Xin@@
Lil@@
ovic
evapor@@
ein
Analy@@
osteo@@
oming
alimenticia
llegadas
ference
gulo
Ut@@
Kno@@
carbur@@
Triple
ít@@
eti
dependencias
Liberty
Plantas
Asturias
interesar
seud@@
manta
erre
grabadora
HRS
reit@@
jera
provin@@
tricas
Trail
comend@@
Summer
regresión
Du
Cú@@
neón
Flex
cornio
Taller
Hospit@@
mayorista
Pinterest
Squ@@
Mecanismo
pegatinas
módem
fluoruro
2,0
sajonia
Spar@@
biológicamente
1x
Kenya
disuelve
alarg@@
osh@@
XXL
Xia@@
Puertos
Pharm@@
programador
Dong@@
sula
frijoles
2C
Lucía
montados
axi@@
MF@@
Chang
Flex@@
Columbus
atenu@@
saturado
220V
Boca
colocarse
carcin@@
bron@@
Heritage
Tejido
Kais@@
mouse
tentrional
cinturones
plex
Pago
Taiwan
uz
Spl@@
diá@@
analógico
insatur@@
Beirut
0,00@@
periféricos
ifen@@
INO
Sas@@
Diálogo
Adv@@
rollos
Aguas
94@@
lib@@
imen
Estepona
Trasero
24-@@
POLACO
Display
colorida
enzo
Temple
unid
valla
1x@@
accionar
Mist@@
Oceanía
Bent@@
introducen
Tin@@
Frederick
buil@@
Peña
abstracta
HPLC
Hielo
GNU
acústico
presiona
Ceci@@
congelados
emira
bon
Roca
pasteles
ilares
KI@@
FIG
voltios
Free@@
istro
18,@@
Zero
TRASERO
Cabr@@
Sof@@
Aten@@
Aceptar
émbolo
electron@@
actuador
epo@@
Territorio
Mack@@
Depósito
Sainte-@@
free
dero
ilización
EPS
2.5@@
NFC
-3
conecte
fuer@@
som
enj@@
Perla
raya
GR
adyuvante
Descargue
Plantilla
co.@@
FP
intelig@@
abonado
mosqu@@
aránd@@
ArcGIS
escopio
ip
Scot@@
comparativo
onato
afeitar
got@@
Ref@@
Colon@@
gus
Colecciones
Acuario
cuña
rus
Inspección
ogénico
vend@@
felicitación
Alumnos
sen-@@
wig
hortalizas
añadidos
precipit@@
presione
C4
Jean@@
Alibaba.com
CG
adornos
selectivo
plásticas
px
aduana
ariedad
Flat
encontrarla
Eye
CLA@@
cabra
Metropolitana
TL@@
ficheros
sandalias
inan
Limpi@@
palancas
hernia
Bird
AK
Asp@@
ener
Femenina
Completa
bed@@
dres@@
respectiva
Rd
ika
Poliéster
blanqueo
kay@@
usb
Kod@@
Dul@@
Quality
Fuji@@
Tall@@
actualizó
NR@@
OL@@
Factory
ancy
Tat@@
Photoshop
cuenc@@
Stars
transist@@
tle@@
dress
emblema
Riad
calentadores
ulter@@
Recuperación
not
CAJA
Lom@@
Turk@@
DAS
2500
Queens
fluctu@@
fr
ilustrada
GPU
Steel
Establ@@
cafeterías
Plegable
caracterización
ABI@@
yate
Siena
filamentos
chet
KY@@
lumbar
selectivamente
ventiladores
rifle
Jum@@
QR
cabaña
compartimiento
reforzada
IF
Mickey
ench
evap@@
eli
estaño
inmunización
4-
ÁN@@
Mercados
suit
fres@@
ble@@
ILLO
clavo
Romero
1-3
especifique
tom
complementario
Skoda
Niv@@
monedero
lon
key@@
comparando
sim
green
decoraciones
foll@@
galvan@@
0,4
3.3
iser
SOS
Guión
Wellington
Germany
ENTES
Mezcl@@
pulsa
bado
Pie
sth
Arquit@@
carboxílico
formulado
Oil
penitenci@@
MINI
Trading
PCI
ligando
Cl
Dj@@
comprueba
insecti@@
stal@@
verg@@
relé
eólico
Ü@@
wing
Acr@@
city
Brand
inducido
§
amortigu@@
117@@
virtió
tensioactivo
Proper@@
401
Adventure
pedia
birán
elio
fu
compruebe
-W@@
Petro@@
-C@@
egrap@@
lidi@@
Wiki@@
Scho@@
áculos
Sign@@
impresas
ogénica
Hak@@
aromas
percu@@
she@@
fro@@
formador
RAN@@
Ópera
ATE
Sweet
emisores
alér@@
Micrófono
acán
C3
diagramas
hornos
toxina
big@@
preser@@
sombreros
compuestas
13-@@
anchos
Harbour
lo-@@
band
Hero
Jerez
delta
pobladas
Muchac@@
describirá
EZ@@
Espec@@
refract@@
risto
5S
idson
hall
Capucha
Ivan@@
asterio
Urban
anál@@
arbustos
reformado
formuladas
Nylon
Adapt@@
129
stem@@
entí@@
humect@@
Concepción
Abrigo
introduc@@
fonos
Interamericano
ATM
compartirlo
Burundi
EtOAc
PAL
rid
6.5
carre@@
Milit@@
ZO
kar
Locales
desecho
socorro
try
suficiencia
analizador
yo@@
estabilizador
estratég@@
Portable
municip@@
Pintado
Estadística
trípode
amoníaco
Fish
lipos@@
spr@@
rezas
Tobago
concentrados
485
acuática
hp
bucles
ingüe
determinarse
ái
propileno
430
Pesc@@
andia
latas
3x@@
ortopé@@
lubricación
Círculo
THE
T6
main
Aub@@
5,5
alargado
tutorial
ucciones
anfi@@
Izquierda
Lif@@
plátano
Shanghái
dermatitis
VM
shirt
hts
Xinhua
war
simplificado
Tus@@
vigas
dumping
Scan@@
incorporarse
Carcasa
virtualización
C2
ueño
oux
polariz@@
20mm
Pau@@
maleta
alfab@@
coloridos
entenderá
Chatroulette
26.@@
-20
AUTOMATICO
Benito
Cincinn@@
Pig@@
Bonn
gase
Winter
Compras
Volumen
VOS
alada
Priv@@
trit@@
Wis@@
Trenes.com
Explore
acht
433
Tokyo
Hill@@
Novedad
RV
AKTBILDER
Action
Panadería
terci@@
Durham
Sty@@
28.@@
Banca
Kö@@
ferencia
odin@@
Supl@@
vitr@@
labio
Alpha
desplegable
radiofrecuencia
Bac@@
IEC
íficamente
DT@@
bricolaje
abeja
Grim@@
Mexicano
anés
MR
tuerca
NOR@@
ns@@
Té
Rebajas
ajustada
3,3
1-
Omán
dible
precipitado
nú@@
Medellín
estrati@@
Gust@@
tapiz
cuchillas
Pi
rac@@
abrazadera
camisas
ett@@
torta
Señoras
MAD@@
empaque
coloque
BLE
Par
LEGO
átil
Dij@@
plasia
postre
clorhídrico
cuarentena
Meridional
2.8
Mer
copas
obos
Happy
Instr@@
316
más@@
Estéreo
zon
AVI@@
yland
unk
incluirse
Profun@@
cócteles
Semi@@
lisa
AMP
Ark@@
Calentador
Brillante
Brown@@
CAP
price
Ocasi@@
Ampli@@
Complejo
Potosí
Advanced
MX@@
Héro@@
Rand
casi@@
checa
Mancha
Dropshipping
ione
Say@@
quirúrgicas
Bomb@@
alcoholes
Mango
stick
Rosas
pulmon@@
Willi@@
TROS
Baloncesto
adio
fijados
observarse
Europeas
Tah@@
comit@@
franco@@
Acer
Oct@@
Manz@@
Guanajuato
Historial
Acepta
Guesthouse
inhib@@
Visu@@
leva
abras
jam@@
elevador
complej@@
Bahn
viga
bic@@
dejas
Dubái
mim@@
Manu@@
Sandy
vier
LY
dedor
ACION
Prohibido
oking
Palest@@
Expan@@
jor@@
look
radiografía
AA@@
Cool@@
uniformemente
Cerámica
coch@@
pulgar
Sets
Kits
NB
extru@@
Dimensiones
seguidor
Breve
trast@@
drone
6,5
fectura
transversales
Type
G1
Glen
FUN@@
Opinión
terrá@@
rese
mission
Adolesc@@
illado
defici@@
Frecuencia
Tapa
pand@@
gang
IP65
endurecimiento
Tos@@
S4
alle
Mills
Pa
fig
Chron@@
GUN@@
Seleccionar
nez
Body
firmware
Cuarzo
Split
sili@@
Concierto
subst@@
Informática
proxy
Acrílico
370
delgadas
atar@@
Ojo
185
incrementan
LG@@
inversion@@
DG@@
gent
calculan
sectorial
atravi@@
GL
83@@
aleatoria
córnea
mah
berger
AY@@
retrovisor
M1
Lug@@
Micros@@
Afric@@
agri@@
Dance
circula
pl
molar
elijas
Rodamientos
dimension@@
ventajosamente
xil@@
1100
iónico
Brus@@
Cac@@
divididas
fire@@
eg
Páginas
amer
Hí@@
154
Hojas
Sosten@@
Davi@@
shell
etz@@
CX@@
Grav@@
degust@@
introducir@@
WD
3.7
Ca
NEGRO
AGU@@
Block
etra
furgoneta
Head@@
ométrico
entrantes
lodo
Tej@@
precursores
digitalizador
vecin@@
Calcetines
Duty
Indian@@
Provence
Baden-Württemberg
magnéticas
Nordrhein-Westfalen
suelto
lluvi@@
ETS
501
cupón
î@@
232
ne-@@
deres
subconjunto
PMA
ecular
quemador
Dispone
Bahrein
Simpl@@
pegaj@@
்
Hertz
carp@@
acús@@
P2P
T3
satis@@
Norfolk
CES
evaluaron
Coordinador
3,6
atún
Entretenimiento
Suministro
Zúrich
portugués-inglés
factur@@
oveja
Modific@@
carpintería
újula
Nicolas
42mm
Milton
suministran
Yi@@
ecti@@
Artista
Anime
Vers@@
Exhi@@
neutro
Anti
Credit
Unisex
electrón@@
ﬁ@@
spo@@
ascos
Niña
Públ@@
Vendimia
fire
pulseras
Renania
apéndice
dell
anomal@@
caldo
Cana
caramelo
SUN@@
ARM
prepararon
itat
antagonista
aire@@
zur@@
ris@@
Dodge
predomin@@
ond@@
Marketplace
BOR@@
Mediterránea
33.@@
irrig@@
Compruebe
Gabri@@
Multi-@@
quet
inverso
Adhesiv@@
Eco
1300
enfría
Aceites
Natación
avan@@
Pen
descargado
icult@@
Dra@@
oper
Amen@@
supres@@
Marqu@@
Rail
pata
alcalino
file
ultra@@
Sombrero
fav@@
eibol
Mez@@
ODM
cade
Frag@@
hialurónico
Ponte
metropolit@@
característicos
Organizador
grou@@
Pixel
Girona
piel-correa
146
neumática
Iris
póquer
grafito
bots
spl@@
0,8
accionador
Detección
Á
Cardiff
Sound@@
zanahorias
Medición
ee.uu.
sm@@
Staf@@
BRA@@
Automóvil
Industries
agregación
Señal
alian
dies
Bres@@
Acel@@
162
ARD
yan@@
po-@@
Comit@@
FLE@@
tamil
monitorizar
Craw@@
RCA
rófonos
tazón
Nord
reflectante
homogé@@
2.7
Tras@@
Budget
Cam
Cartel
Buf@@
Tiro
lici@@
alie
Caballo
afas
pulsos
550@@
insecto
Cove
Rotterdam
Kis@@
manganeso
nic
Elis@@
dic
consonantes
lograrse
recubrimientos
fibrosis
iko
inyectar
iman
TIVO
oval
importes
matrices
carburo
acolchado
Biom@@
umbr@@
dilución
Talla
Sólido
P1
ça
asignada
frasco
inti@@
Kingston
Serr@@
kHz
Rolex
anse
umi
Š@@
sheim
Newport
Moncler
tie
Explora
bisagra
Transform@@
olit@@
Cuesti@@
Virus
7000
Travel@@
Muñ@@
nd
under
power
ámenes
oses

Ericsson
LIZ@@
induce
3,4
surance
bolí@@
Horizonte
Wild@@
oll@@
andos
Roll
nort@@
céntrico
Nay@@
4.4
abrasi@@
sombre@@
bolo
TIEN@@
reti@@
desmontable
kw
WS
Empresariales
Snow
casquillo
Pick@@
dudes
lug@@
Fair
PostScript
Cerdeña
Garaje
.....
Viento
Phuket
RES
acondicionador
aff
As
Informa
Ost@@
inmediaciones
y.com
shan
hoe
960
silueta
Buffalo
950
CCD
Bravo
tintas
Maxi
UA
fluoro@@
añadida
Ramón
ther
H4
servid@@
Intercambio
MOR@@
Guti@@
Princess
miocardio
cilíndrico
AO
alojado
Sábado
Tanque
4D
Navi@@
TD
hexano
Transpar@@
restr@@
métrico
Editar
vasculares
rej@@
almohadas
recol@@
Hey
Oporto
camion@@
peatonal
carrete
5.
divis@@
murales
Gaming
Pari@@
bibli@@
sublim@@
brand@@
Cáucaso
hibridación
Protocol
Pequeños
licor
True
baldosas
SJ@@
Toy
recambios
Vestir
bronc@@
fen
Casablanca
37.@@
Querétaro
jpg
141
iche
muñ@@
implementaciones
215
Was@@
spot
sudafricano
tamen
Ign@@
bers
rodamiento
teo
ullo
5.2
Oak@@
bay@@
mostrador
vainilla
3-4
TERMINAN
Só@@
icio
Collares
manes
vern@@
AGE
Comp@@
salientes
Will@@
Champú
Plug
cópica
cesa
perfumes
0,6
lác@@
Stand@@
plá@@
acelular
ileno
direccional
monóxido
depur@@
Ingl@@
An
Berlin@@
OT
yod@@
Minecraft
Cut@@
Nis@@
vecind@@
Lana
untry
feras
Graf@@
c.@@
zano
Recargable
Smo@@
alls
APA
gad@@
ool
otérmica
chaquetas
enko
KO
Swit@@
Nantes
With
plegado
interrumpi@@
cutánea
kit@@
qi@@
ectividad
82@@
EZ
fly
kinson
limpiaparabrisas
mall@@
zu
Hair
pato
Dynam@@
Encanto
dll
MAR
Cros@@
Computer
atoriamente
Common@@
Dog
195
BL
vendaje
Ander@@
odista
Rim@@
Denis
sio
164
desechables
diodo
reactiva
Stop
cocodrilo
192
Soldadura
Train
aging
difíci@@
Camión
secuenciación
bliot@@
tramas
seleccionando
Carrol@@
Zimbabwe
cítricos
Cun@@
reflejada
ucle@@
Archiv@@
tungsteno
ande
lubricantes
ms@@
EW@@
Beau@@
SIN
mín@@
Safety
Normandía
unge
estone
dier
adillo
Gang@@
redon@@
xico
OE@@
Put@@
Perth
Pool
fing
guis@@
Til@@
públ@@
Jueves
seccion
Abier@@
repositorio
Zhejiang
itsu
Nikol@@
MÁS
bulbo
fre
Jun
139
circulares
Experience
u-@@
PRIN@@
Artistas
nitz
bird
Ing@@
forro
representativos
Train@@
diapositivas
orf@@
calderas
330@@
MH
champ@@
ulo
gia
Madr@@
evaporó
Football
dispensación
py
Exportación
ATV
ane@@
fus@@
1080@@
WLAN
éu@@
Conoz@@
Lauren
Florence
forr@@
tancia
cortada
ezo
superposición
sets
armenio
redondas
oplastia
pack@@
elga
MES
ords
119@@
pinc@@
Send@@
Rugby
Empleos
Azul@@
talo
Wave
garantizamos
Belgrado
Crom@@
ALL
comprendiendo
Invent@@
Sheng
Bucarest
pizarra
Coci@@
Menorca
Estruc@@
guante
Salon
beck
168
Miy@@
Espaci@@
pintada
artifici@@
Selecciona
Personalizado
Tl@@
danesa
ieg@@
öl@@
atología
cangre@@
Cerc@@
Tiger
Tools
pendi@@
KM
Nex@@
Techo
530
annon
Night@@
LIC@@
10A
Caj@@
Gaul@@
Zoo
numérico
caram@@
homogénea
aland
Ruiz
RES@@
deber@@
muelles
endu@@
decenio
substitu@@
conductora
Morelos
Evento
Magdalena
Traductor
lu
mul
Exter@@
Busc@@
transportadora
cierres
analógica
vent
tabilidad
widget
uchi
Altura
mour
tac@@
accion
stent
Alquil@@
peligr@@
jab
Guyana
breakfast
prev@@
Construc@@
19,@@
Embrague
configurados
M4
sustituidos
comot@@
cucharadas
Rhe@@
disoci@@
indemn@@
perno
Relat@@
escapada
otér@@
Gráfico
quillas
encaminadas
sectoriales
Esquema
Lanc@@
amato
fono
4a
EMB@@
denas
desechable
Bari
Chaleco
acetona
148
contigu@@
PEN@@
mens
Days
anina
DEN
tag@@
cloro@@
FOR
nica
agudas
rap
LLA
ode
Menú
desinfección
Planear
antigü@@
Haven
kaz@@
Botones
Vitamina
traslados
,00
impedancia
Culturales
eólicos
0000@@
Residentes
Amplificador
board@@
OLED
BRA
puta
C5
fertilizante
baby
Whirlpool
oot
girasol
hidráulicos
-up
aglutinante
UNIDAD
AMI@@
nod@@
parcelas
720@@
G4
End@@
Tendencia
desay@@
LEN@@
copía
ama@@
hemorr@@
ASA
ky@@
Traslados
sted
amortiguación
code
Trasera
yk@@
Nieve
ō@@
mutantes
probador
mine
Ultimate
Taipei
tolueno
Lead@@
Front
tery
aromaterapia
Fiel@@
PF@@
copolímeros
topo
Kras@@
Colom@@
Pine
Tucson
Manor
conex@@
modul@@
asig@@
Visitas
paÃ
tritis
ples
ofer
rectángulo
Kaw@@
Isra@@
S1
serr@@
VELOCIDADES
K2
Pequeñas
menstr@@
unisex
Rochester
DINKYBUY
Liter@@
market
inglés-danés
SUPER@@
adol@@
Driver
Seas@@
tis@@
uniformidad
Salem
C1-@@
Opción
fordshire
cejas
Syl@@
Maqu@@
Aruba
persianas
Higiene
Factor
Alquila
Des
William@@
Canyon
desconexión
yar@@
315
clones
Ivan
eps
Laf@@
Béisbol
bacteriano
Macao
miner@@
Deleg@@
Gü@@
Northern
-8@@
gástr@@
scooter
ANTES
RM
Soc@@
Chocolate
tronc@@
1.2@@
polimérico
push
207
efectuadas
Nozio
lumen
asper@@
Bass
multil@@
lite
Ami@@
MIS@@
ódico
aromáticos
J-@@
rall@@
idget
aut
ACH
ALI@@
PES@@
Shield
policarbonato
Antiguos
Zim@@
137
poro
dúplex
olita
440
coque
iores
Riverside
Print
chalet
inclinada
OD
ífica
black@@
Minería
DX@@
subsiguiente
subr@@
Â
Wuhan
waukee
mod
Excursiones
Jerus@@
Recomendaciones
suéter
Japan
ónde
estan@@
pla
aleator@@
Dra
girl
Koh
Instrumento
16.04.2018
Hop
vért@@
Mover
Philadelphia
radiodifusión
Dimen@@
body
Design@@
americ@@
Kioto
Deg@@
Christmas
Upper
oclu@@
tijeras
Fuerteventura
Neumáticos
MIT@@
GAR
Ram
Rain@@
Pear@@
-F@@
Estad@@
provistos
Privado
cristalización
o.com
iri
diox@@
gra
Pont
Cracovia
squ@@
Hermoso
resc@@
V2
náuticos
Battle
PUE@@
Part@@
Mg@@
Ice
conteniendo
bandejas
Desarroll@@
Test
Perros
frecu@@
6mm
VOL@@
region
swe@@
Elemento
Estatua
es.com
codificada
suscep@@
id-@@
iculares
fresas
Redondo
ólisis
Race
Lindo
Naveg@@
mortero
308
calef@@
Fic@@
défici@@
Think@@
kan
geométrico
bores
BO
Dah@@
mascar@@
úmenes
cucharada
zy@@
calentado
Harm@@
Devon
ments
apon@@
Sinaloa
epoxi
coeficientes
-9@@
Electricidad
Industry
Anivers@@
190@@
regístrate
tinción
peci@@
panadería
cebadores
10mm
Artes@@
X3
esquemática
amen
eba
cnc
minimiza
Interpretación
Coupe
electrol@@
ller
akh@@
ulas
multicolor
DIN@@
vaqueros
cobalto
22.@@
Aqua
CHO@@
Linterna
Brighton
acces@@
Castellón
hirviendo
soportado
cubos
aglomer@@
piez@@
libre@@
nudo
ult
Sonora
stop
Denim
8000
Private
brun@@
tejer
STAR
Procedi@@
inglés-@@
sual
Coco
McAfee
Hard
Indicador
ampton
Nem@@
Hong@@
PLUS
pivot@@
husillo
Tradus
maciza
instalarlo
Propi@@
Ejercicio
Brisbane
3000@@
alizacion
Ciclo
Bou@@
HM@@
Easy
ASTM
Heavy
Leche
FAC@@
Pradesh
Aberdeen
Engine
cona
Bermu@@
ográ@@
Contactos
Compresores
hidroxilo
uer
Laz@@
PV
Wilhel@@
higi@@
Renta
Kuala
carnaval
Ej@@
Ballet
Claus
Animación
3,7
USO
new
SB
280@@
RAD@@
ortod@@
empotrados
manufacturas
Indian
Isab@@
CITY
chio
íncip@@
automotrices
CR-V
Rápida
andes
Zu@@
grap@@
Jugador
182
Wine
Sharp
guar
Bast@@
HM
recopilando
proporcionarse
lavaron
cítrico
adquisi@@
ned
zamiento
Ferre@@
SAR@@
Southampton
grifos
S9
LI
inserto
Guardar
ğ@@
benzo@@
casuales
pequ@@
duchas
DSLR
alcalina
do-@@
vet
strom
THF
olefina
Laurent
salm@@
press
desplazar
codifican
Candy
cularmente
CIN@@
Chester
ansk
ères
610
alfa-@@
concur@@
Tracker
Nexus
Cojinete
pros@@
Obj@@
P2
fied
290
plásmido
Medidor
MOD
Sesión
Bear
or-@@
extraíble
mareos
iciones
ight@@
cánula
Feli@@
Kirch@@
151
Face
Masaje
Dent@@
Maci@@
ciclo@@
MAX@@
indispens@@
lem@@
nología
Two
Cep@@
ecoin
portable
Twin
maz@@
mellitus
Nam
2.4@@
Efici@@
NS
aude
Sold@@
Barco
formance
6A
aromático
70-@@
detectada
Speed@@
ofen
Quintana
Tropical
211
bidireccional
Democrá@@
Crist@@
kirchen
dre@@
Segura
sional
geométrica
imid@@
2,9
Newark
39.@@
Cintura
hermé@@
Brava
pinzas
RED
SATA
TM@@
deliberaciones
adro
divisor
Transi@@
Carreras
cigarr@@
Guarda@@
trombo@@
att@@
Libr@@
g.
Calcul@@
Zip@@
Compara
ero-@@
pocillos
hélice
Cater@@
cober@@
Escu@@
bb@@
olin@@
Bolívar
Epson
heterogé@@
305
teñ@@
sport@@
7.0
adsorción
Cic@@
Plymouth
Montpellier
estrateg@@
secadora
servimos
alpino
DELANTERO
Region
Logística
world@@
Kau@@
fór@@
PPT
Camas
opar@@
Holandés
SW
i.@@
frescura
iday
Miércoles
insaturados
viñ@@
pasador
7.5
reempl@@
Motion
SISTEMA
ósito
Falda
Ik@@
ills
sip@@
fundas
Navy
Rodrigo
SET
eling
Chu@@
Viaj@@
orgh@@
22mm
Promo@@
Globo
orca
ombro
solicitadas
Avent@@
illon
Corriente
TAC@@
MSc
irradiación
lier
Truck
Facial
Oasis
rosado
árico
qi
tav@@
berto
Four@@
Deportivo
coord@@
Pak@@
Navarra
colorear
cón@@
conflic@@
omet@@
insertado
TU
calculó
muchac@@
oct@@
Alba
Za@@
ovas@@
Extracto
guí@@
Gö@@
ELE@@
rampa
cabez@@
2018-@@
cromado
Kings
147
JP
Edificios
muera
inete
170@@
agita
tec
leuco@@
eppe
Jet@@
brazalete
adaptadores
Biografía
Voltaje
ferroviarios
hd@@
JUN@@
Pilar
ū@@
Terra
Reempl@@
boles
rug
3,8
over-2500
RESP@@
acrilato
Groß@@
Balance
Súper
SAT
recogieron
violeta
Eurolines
teñido
utilizables
FPA
cd
Conseguir
Traf@@
programable
detectable
cinc
atación
acom@@
lujosos
Paquetes
raft
píxel
Atracciones
atico
40mm
igo
medidos
Escudo
úlcera
CMOS
lapar@@
Extra
Caracter@@
perfil@@
3mm
ön@@
Molina
ino-@@
Intr@@
92@@
Regulador
activados
ded@@
cour@@
purificar
Extensión
hidrólisis
kom@@
L1
tensioactivos
gástrico
aber@@
importado
surcoreano
166
GRI@@
ayton
anton
iness
smart
herm@@
10000
Somerset
Q-@@
comparador
143
patchwork
pañales
Cand@@
reestructur@@
Mérida
17-@@
112@@
aperitivos
100-@@
asaki
sustan@@
Habit@@
dei
AY
concesion@@
inato
CIOS
male@@
tejado
Garmin
Dut@@
filip@@
balcones
hueca
coaxial
laje
oom
pálido
Soul
Cojín
og
216
Calgary
Jo
Shen@@
Georges
encap@@
Hotel@@
Rainbow
acéu@@
ls@@
Spin@@
ague@@
Republic
conjugación
eer
RD
sian
VIA
fosfor@@
SF
borne
surtidores
ógenas
Africano
Mijas
uti
Belle
VIDRIO
Cult@@
dal
Polin@@
compare
almohadillas
Wen@@
Proy@@
TICA
fisuras
Fisi@@
Mouse
STI@@
Sheikh
Nuremberg
Ahorro
Hanoi
especí@@
Bohemia
ajustables
Flujo
embaraz@@
ru
ografi@@
alde@@
Nom@@
aje@@
Prob@@
DJI
Georgetown
Error
blue
Mini-car
BD
hostales
icht
COB
ultrasonidos
CONTROL
simplifica
Lub@@
r.@@
bibliografía
impres@@
bag@@
Blanc
sushi
dog
20,@@
étr@@
abilización
XT@@
MAP
ades@@
Tac@@
acampar
bey
Econ@@
Periodismo
depuración
41@@
cológico
3a
Led@@
endo@@
motel
consistir
Kot@@
Plantillas
INMOVILIZADOR
Patente
láctico
NIC
osof@@
escisión
Hood
Oz@@
arros
ess@@
Lumpur
Anal@@
Voice
Terme
S5
enh@@
Sussex
sutura
Plano
Glouc@@
mp
Salinas
Cottage
0,7
cape
ONU@@
sug@@
Pet
Haut@@
Eritrea
DEO
X4
ili
Wanderio
Spanish
IM
PRIM@@
TION@@
е@@
Pá@@
Vídeos
astres
eliales
Fav@@
Válvulas
agésimo
AGUA
TRE@@
ISE
Borgoña
LEDs
emi
mosca
Pach@@
Karaoke
orf
Gang
grama@@
Pirineos
térmicas
mochilas
Myers
Colombo
dum
MÉ@@
Infl@@
PLAN@@
bid@@
Schleswig-Holstein
termostato
Kobe
puntero
Creta
Sü@@
porcion
Figu@@
73@@
noruega
Rotary
222
isocianato
Horizon@@
Class
xx@@
Mont
botánico
Objetos
soli@@
mmoles
Joh@@
ž@@
analóg@@
flúor
Monter@@
x-@@
socket
encio
GN
desviaciones
MEN
rellenos
aqui@@
Off@@
INFOR@@
Moneda
Guer@@
satel@@
Bañ@@
Hern@@
boquillas
Tron@@
Polaco
Quarkscm
SR
tula
polig@@
sujetador
ACT
oon
ELISA
İ@@
Oviedo
OU@@
ader@@
Generador
Monte@@
Barbie
UNIDS
380@@
HON@@
solapa
Sheffield
dit
Châte@@
ram
centrifu@@
IMEI
liofil@@
florales
constituyentes
pvc
Garantizada
Wei@@
DL@@
Papeleras
Monum@@
Sochi
coles
Marin@@
n.
sco
ret
TRANS@@
alterna
bps
Búsquedas
G2
polimérica
PB
subcutánea
Dulce
suavidad
D1
jab@@
Moscow
KR@@
station
actus
ator@@
3C
Pure
avier
camiento
selfie
Materi@@
decorativas
Danza
LY@@
Plana
sedán
Sli@@
extremidad
incertidum@@
adem@@
ous@@
ESS
Transparente
AMG
Pulsa
quillo
Teléfonos
157
oter
2100
Mensajero
Bergen
solenoide
hornear
2017-@@
D3
Dibu@@
microprocesador
Queso
titulación
Brow@@
Nig@@
н@@
COCHE
BEN@@
aldehído
158
espu@@
inea
hes@@
Boc@@
acristalamiento
berg-@@
erge
Off
formaldehído
clonación
Soto
Mo
Shi
ped
LINE
poroso
permeable
pequeñ@@
paletas
AST
vila
Hes@@
otos
Boxeo
gabinetes
Hangzhou
Polar
cópicas
avista
Clear@@
sberg
GH@@
coll@@
Agre@@
Gustavo
nam
ocin@@
biop@@
emon
enferm@@
rasp@@
Sa
Brid@@
suspensiones
Viaja
Contact
NL
DISP@@
BEL@@
Jeans
TN
Amb@@
Dif@@
Pareja
Introduzca
Ring@@
Leic@@
01-@@
PIC@@
Cig@@
Burkina
RC@@
Commons
Receptor
Suppl@@
ler@@
Transport@@
Vibr@@
402
eler
Loft
inglés-hindi
aul
Brunswick
Laun@@
pper
Barcel@@
lander
Videos
Lancaster
Albany
Mix
Proyector
sum
EVA
Double
periférico
Característica
LLO
delanteros
cuerno
Rublo
Code
Din
clavi@@
spray
Lec@@
della
TIN@@
0.00
cursor
MP4
chapado
uet@@
214
Canterbury
Alcalá
Amer@@
anodi@@
compartimentos
vod@@
Clave
NG
conservantes
Contactar
monstr@@
Michoacán
RIMAN
Recién
L2
combinarse
5D
Selva
mezclados
р@@
clú@@
AERODECK
Disco@@
polaridad
210@@
Vec@@
Selec@@
Montevideo
extensible
pue@@
т@@
kilometros
Ferias
cribado
Bikini
sche
Pab@@
INE@@
prin@@
semi
fugo
ş
Directory
pernos
LR@@
Vlad@@
Zonas
aan
MEJORES
Alegre
orts
Lotus
Milano
50.@@
tópica
quinas
termal
BY@@
Eff@@
bytes
mÃ
Metropolitano
Costo
Goma
diluyó
quality
mediada
alquilado
erlandés
Clos@@
Ejerci@@
GM@@
Privada
Excursión
Remy
protectoras
Sieg@@
tano
CX
mc@@
Quím@@
olar
rect@@
1ª
apreciará
blanda
Templ@@
Publicación
Cler@@
Amist@@
¨
Song@@
и@@
tona
Raci@@
dy@@
CLAS@@
sellar
80-@@
emulsion@@
TORI@@
H7
ARE
Tasa
Fu
dc
cebada
union
Mass@@
BIOS
Phant@@
IDO
terapéuticamente
Ace
235
zer@@
tops
blusa
tem
Ç@@
lt@@
purificada
Cuna
Basic
antec@@
jese
aeros@@
mutante
Textura
stán
piper@@
Chicas
beros
ofil@@
CDMA
utt@@
árium
CATE@@
ways
orge
BNamericas
cebollas
-6@@
prens@@
SENSOR
skiy
Chef
asf@@
Chr@@
sera
Nass@@
étrica
ILS
usia
mucosas
detergentes
etown
JER@@
rotatorio
Suel@@
compactos
172
Swatch
Colorido
Dresde
pakist@@
Comisario
gourmet
frutales
Tet@@
Sello
MAG@@
otel
Poker
Suspensión
enta-@@
recubr@@
Giorg@@
laptop
digos
Nocturna
SERVI@@
carbo@@
Tiff@@
Darfur
00-@@
URO
Serena
citot@@
Italiana
Stand
ecutive
stad
Baños
HK
Préstamos
falo
camara
wall@@
arilo
radialmente
-V@@
palas
sól@@
176
colgando
255
Eden
nitrato
ateroscl@@
Lunes
Luigi
Bath
pintados
ENS
Yen
FTP
93@@
atio
eux
Copia
Fi
Ds
sinter@@
centrífuga
triangular
Match
pub
21.@@
balneario
oscilación
YZ@@
153
174
Algarve
Aux@@
Moon@@
pinza
Xen@@
nabis
CLU@@
ultrasónica
12v
estupenda
ectina
Rent@@
LÍ@@
ÑOS
mur
NP@@
elast@@
cajones
Retro@@
burgh
estrenar
segundas
inmunitaria
plug
Sist@@
Quick@@
phot@@
Ai@@
Criterios
kn@@
oms
plás@@
gy@@
Carbon
spe@@
Palazzo
sr@@
Subaru
306
fast@@
Japon@@
Intervenciones
Aco@@
Casos
Instalar
Landing
bera
RJ45
well@@
Angelo
-4@@
sándwich
Célu@@
Carg@@
SUS@@
pix@@
Mess@@
patata
peluche
Way@@
Hed@@
acuarela
sobresale
CUELLO
Faldas
Devuelve
Railway
words
H2
Hier@@
Celular
24h
Manera
Mascotas
uf@@
dibu@@
Comuna
Nombres
ACCES@@
RUMANO
gase@@
Rod
ecimientos
AMP@@
put
Tool
center
360@@
OSI@@
mostradas
mail@@
ETH
Tornillo
Pieza
EI@@
HF
agia
empres@@
sulfúrico
Abra
Chongqing
illac
mezclada
Publicaciones
Wer@@
Fuji
Click
peptí@@
Lápiz
Vé@@
Veget@@
Breit@@
Ji
produ@@
VAR@@
MENTE
vik
anhidro
tenberg
Ceb@@
PTFE
principi@@
Lour@@
Ninja
Entrar
ADES
460
elect@@
obturador
TRASERA
gr
cach@@
March
Bubble
teos
ogado
Burgos
Almuerzo
Bai@@
T4
mostaza
Mono
Rouge
alif@@
zia
Ves@@
Sovi@@
ei@@
Adol@@
oro@@
Minim@@
exprés
RIO
cópico
WP
Vanuatu
recalentamiento
Conversión
prensado
Esterlina
Burg@@
polivin@@
FC@@
SIP
Marg@@
Telas
Mall@@
trig@@
Plu@@
oxidante
Min
-E@@
leben
99,@@
AME
CD-@@
Esmeralda
Neumático
3.0@@
alcantarillado
Pv@@
antagonistas
UNO@@
descriptiva
Enter@@
ecture
Sr
polea
Jade
Hitachi
Favor@@
GENER@@
ait
4.7
Grabación
book@@
turquesa
conexion
Entren@@
Parc
arnés
wom@@
fuerzos
laminación
-Z@@
work@@
Recibe
Tianjin
Albornoz
―
benceno
cerraduras
sacarosa
dominicano
tilo
manz@@
Deli@@
Avis
Cornwall
rack
ads@@
Ix@@
enrutamiento
Estacionamiento
tul@@
SOBRE
arañazos
Fly
MAT@@
Multimedia
Ribera
proximidades
amer@@
Llan@@
Margarita
eales
Rincón
Abstr@@
Dubrovnik
presso
Automóviles
ay-@@
ALIZ@@
BIO
4S
Ring
VIC@@
TG@@
Site
isticas
fragancias
ael
urs
empalme
evaporador
exclusi@@
OD@@
kreis
samsung
grúas
cóp@@
Gim@@
silicato
Alcance
Camar@@
haus@@
SpainHouses.net
termoplástico
Ministr@@
tades
Lexus
HB
Inyección
Rast@@
Wed@@
Guan@@
hidró@@
Cuchillo
haca
hashtags
exper@@
Fan
Proven@@
part
oterreno
Scre@@
pines
agl@@
Estrateg@@
unidireccional
fresa
inglés-griego
Nin@@
Contemporáneo
embudo
iniciador
Tambien
TRIM
Crown
escán@@
esi
002
FX@@
halógeno
3,1
eze
pt@@
inum
EO
auro
Riga
woofer
XC@@
fluorescentes
Kirguistán
Truck@@
ÉS
place
cuadrícula
390
oil
GRAN@@
GAS
alambres
armazón
Dibujo
party
veterinarias
USB@@
2b
169
enzimática
peinado
Comedor
Embr@@
Wholesale
Prue@@
script
isómeros
ct@@
Servidor
norkel
Experi@@
MEX
calculada
Ratón
AZUL
Chip
3.6
hurst
Drama
Sueco
pliegues
amid
y.@@
aquia
isiana
ety
vectoriales
agitar
Especifica
bak@@
italia
aze
Taxi
desayunos
Ocio
zel@@
space
163
rough
jong
A7
insoluble
LEC@@
tory
agen@@
Benidorm
aming
OF
estrat@@
relacion
enganche
Moul@@
secuencial
ócalo
naf@@
Sunset
ACIONES
Serra
caj@@
precisando
Adecuado
hot
venosa
RPM
stitutos
Aquitania
Toc@@
aume
remot@@
HTML5
loft
UD
servo
uet
contrarr@@
CIóN
mezclando
Noruego
Short
estuche
ahe@@
1-1
bañadores
cheap
mug
sirena
zanahoria
idal
Minsk
alón
ahum@@
CW@@
HL
revestido
Convertidor
Filtr@@
Clif@@
estab@@
404
porche
inolvid@@
325
Vauxhall
delincu@@
Milan
phone
artef@@
Partner
Hyatt
Antena
bourg
Cag@@
Insonorización
hidróf@@
Atlanti@@
fle@@
obe
Ensayos
Morellato
Sigma
aci
BEI@@
butil@@
minio
atu
navegue
P2@@
poliestireno
SQ@@
Ácido
cordones
aterriz@@
Toilette
BLACK
ÍAS
Ester@@
sanguí@@
bei
enz
bim@@
↑
.eu
Madeira
ardino
Hep@@
33.4484
-112.074
Parfum
enheim
Aislamiento
cucharadita
3-5
JFK
pivote
Leb@@
fenol
[...]
